#version: 0.2
à ¼
à¼ ĭ
à ¾
½ ¦
à ½¦
½ ²
à ½²
½ ĳ
à ½ĳ
½ Ĥ
à ½Ĥ
½ ĸ
à ½ĸ
½ ¼
à ½¼
½ ¢
à ½¢
½ ĵ
à ½ĵ
½ º
à ½º
½ Ħ
à ½Ħ
½ ´
à ½´
½ ĺ
à ½ĺ
à¼ į
½ Ķ
à ½Ķ
à¾ ±
½ ł
à ½ł
à½² à¼ĭ
½ £
à ½£
à½º à¼ĭ
à½Ĥ à½¦
à¾ ²
à½´ à¼ĭ
½ ¡
à ½¡
à½¼ à¼ĭ
½ ŀ
à ½ŀ
à¼į à¼į
½ Ģ
à ½Ģ
Ġ Ċ
à¾ Ł
à½ĳ à½Ħ
à½Ķ à½ł
½ Ĩ
à ½Ĩ
½ ħ
à ½ħ
à¾ Ĵ
à½ĸ à½¦
à¾± à½²à¼ĭ
½ ķ
à ½ķ
½ Ĳ
à ½Ĳ
½ ģ
à ½ģ
½ ı
à ½ı
à½ĺ à½¦
à¾± à½²
½ ļ
à ½ļ
½ ī
à ½ī
à½Ķ à½¢
à½ĳ à½Ĥ
½ ¤
à ½¤
à½ł à½ĳ
à¾Ĵ à¾±
à¾ Ĳ
à½ĸ à½¢
à¾ £
à½¼ à¼įà¼į
à½Ħ à½¦
à½ĵ à½¦
à¼ĭ à¼į
½ Ł
à ½Ł
à¾ ¡
à¾ ³
à¾± à½º
à¾± à½´
à½ĸ à½ł
à½ł à½Ĥ
à½ĸ à½ŀ
à¾² à½´
à¾± à½¼
à½£ à½¦
à¾± à¼ĭ
à½ł à½ĸ
à½¡ à½Ħ
à¾ Ĺ
à½º à¼į
à¾ ¤
à½ł à
à½łà ½
à½Ķ à½¦
à¾Ł à½¼
à½ĳ à½ĸ
à½ĸ à½ħ
à¾ Ķ
à½Ĥ à½ŀ
à¾ ·
½ ±
à ½±
à½Ĥ à½ī
à¾ ©
à¾² à½²
à½ĺ à½Ĳ
½ Ļ
à ½Ļ
à½¢ à½Ħ
à½ĺ à½ļ
à¾² à½¼
à¾ Ļ
à½Ĥ à½Ħ
à¾ ¨
à¾² à¼ĭ
à¾ ¦
à½ĳ à½ĺ
à½ĳ à½Ķ
à½łà½ ĩ
à½Ĥ à½ĵà½¦
à½ł à½ģ
à½ħ à½ĵ
à¾Ł à¼ĭ
à¾Ł à½º
à½ĸ à½ĳ
à¾Ĵà¾± à½´
à½ĺ à½Ĩ
½ Ľ
à ½Ľ
à¾Ĳ à¾±à½º
à½Ĥ à½ħ
à¾² à½º
à¾³ à½¼
à½ĺ à½Ħ
à½ĺ à½ģ
à½Ĳ à½ĺà½¦
à½ħ à½ĳ
à¾± à½ºà¼ĭ
à½² à¼į
½ ¨
à ½¨
à½ĸ à½ĳà½Ĥ
à½ĸ à½Ł
à½ĳà½ĸ à½Ħ
à½¢ à½ĸ
à½ł à½ķ
à½łà½ Ľ
à½Ĥ à½ı
à½Ĥà½ŀ à½ĵ
½ §
à ½§
à½Ĥ à½Ł
à¾² à½¼à¼ĭ
à¾Ĺ à½ºà¼ĭ
à½ĸ à½¤
à¼ĭ à¼įà¼į
à½ĳ à½Ģ
à¾³ à¼ĭ
½ ĩ
à ½ĩ
à½ĸ à½Ģ
à¾ «
à¾Ĵà¾± à¼ĭ
à¾Ł à½ºà¼į
à½ĺ à½Ľ
à½ĵ à½Ħ
à½± à¼ĭ
à¾Ĺ à½º
à½ĺà½ļ à½ĵ
à¼ Ķ
à¼ĭ à¼ĭ
à¾¡ à½¼à¼ĭ
à¾· à¼ĭ
à¾Ĵà¾± à½´à¼ĭ
à½£ à½ĺ
à¾¡ à½´
à½ĸà½¤ à½ĳ
à¾Ķ à¼ĭ
à¾Ĵ à¾²à½´
½ ¾
à ½¾
à½Ĥ à½¡
à½Ĥ à½ĳ
à¾Ĺ à½¼
à½¦ à½Ħà½¦
à½ĺ à½ĳ
à½łà½ĳ à½¦
à¾² à½²à¼ĭ
à¾Ĵ à½¼
à¾Ĳ à¾±à½ºà¼ĭ
à½ĸà½ħ à½¦
à¾Ĳ à½´à¼ĭ
à½Ĥ à½¤
à¾¤ à¾±à½¼
à¾« à½¼
à½² à¼įà¼į
à½ĳ à½Ķà½ł
à½ĺ à½ł
à½¾ à¼ĭ
à½ĺà½Ľ à½ĳ
à¾Ł à½ºà¼ĭ
à½ĸ à½ı
à½Ļ à½ĺ
à½ĸà½¦ à½ĺ
à¾ Ń
à½Ĥà½¦ à½£
à¾Ļ à½²
à½ł à½Ĩ
à¾© à¼ĭ
à¾¦ à¾±à½¼
à¾¡ à½¼
à½Ĥ à½ĵ
à½ĸ à½Ĥ
à½Ĥ à½Ļ
à½¼ à¼į
à¾Ĳ à½´
à½ĺ à½Ĥ
à½£ à½Ĥ
à¾© à½¼
à¾³ à½¼à¼ĭ
à½ł à½ļ
à½ĺà½Ĳ à½ł
à½ĳà½Ĥ à½ł
à½Ĩ à½Ĥà½¦
à½± à½´
à¾Ĳ à½¼
à¾Ĳ à¾±à½¼
à¾£ à¼ĭ
à½ĵ à½ĺ
à½ĸ à½Ļ
à½ĸà½Ł à½Ħ
à¾Ķ à½¼
à¾¦ à¾±
à½ģ à½ĺà½¦
à½ĺ à½ī
à½ļ à½ĳ
à¼ĭà¼ĭ à¼ĭà¼ĭ
à¾Ĵ à½¼à¼ĭ
à¾Ļ à½º
à¾³ à½´
à½ĳà½Ķ à½£
à½ĺ à½¢
à½ĸà½Ģ à½ł
à½ĺà½ģ à½ł
à½´ à¼į
à¼ ¡
à¾¨ à½¼
à½Ĳ à½ĸà½¦
à¼ĭ à¼
à¾Ĳ à¾±
à¾Ĵ à¾²à¼ĭ
à½ĳ à½ĳ
à½ł à½Ĳ
à½ĳà½Ģ à½¢
à½ī à½ĺà½¦
à¾¦ à¾±à½²
à½Ħ à½Ĥ
à½ł à½Ħ
à¾¡ à½ºà¼ĭ
à½Ħ à½ĵ
à¾Ń à¼ĭ
à½ĺà½ī à½ĺ
à¾¤ à¾±à½²à¼ĭ
à½Ł à½ĳ
à½ģ à½Ħ
à½Ĥà½ı à½ĵ
à½Ĥà½¦ à½Ħ
½ İ
à ½İ
à½ķ à½ĵ
à½Ķ à½ĳ
à½ı à½ĵ
à½Ĥ à½£
à½º à¼įà¼į
½ ¿
à ½¿
à¾¤ à¾±
à½Ĥ à½ĵà½Ħ
à½Ĩ à½ĳ
à¾ ķ
à½ĺà½ģ à½¦
à¾© à½ºà¼ĭ
à½łà½ķ à½Ĥà½¦
à¾Ĵ à¾²à½²
à½Ĳ à½£
à½£ à½ĵ
à¾¨ à¼ĭ
à½ŀ à½£
à¾ ĥ
à½¡ à½ĵ
à½ĺà½Ĳ à½¢
½ ¥
à ½¥
à½ĸà½ŀ à½Ĥ
à¾Ł à½´
à¼¡ à¼
à¾¨ à¾²
à½ĺà½ģ à½ĵ
½ Ĭ
à ½Ĭ
à½£ à½Ĥà½¦
à½ĵ à½Ĥ
à½ĸ à½£
à½Ł à½Ĥ
à½ļ à½Ħ
à½Ĥ à½¢
à½Ĳ à½¢
à½¼ à½¾à¼ĭ
à½ĺ à½ĵ
à½¿ à¼ĭ
à¾¤ à¾²à½´
à½¤ à½¢
à¼ ¢
à¾² à½´à¼ĭ
à½ĳà½ĺ à½¢
à½± à½²à¼ĭ
à¾¤ à½¼
à½±à½´ à¾ĥ
à½¦ à½¢
à¾Ĵ à¾²à½¼
à½ĺà½ļ à½ĺà½¦
à¾¨ à¾²à¼ĭ
Ġ à¼
à¾³ à½²
à¾¨ à½²
à½łà½ļ à½£
à½ĵ à½ĳ
à½ĸà½ħ à½ĳ
à½ł à½ĺ
½ Ŀ
à ½Ŀ
à½ĸà½ı à½Ħ
à¾± à¼įà¼į
à½´ à¼įà¼į
à¾Ļ à½¼
à½ĳà½Ķ à½Ĥ
à¼ĭà¼ĭà¼ĭà¼ĭ à¼ĭà¼ĭà¼ĭà¼ĭ
à¾³ à½´à¼ĭ
à¾· à½´
à½ī à½ĵ
à½ŀ à½ĸà½¦
à½łà½Ĥ à½£
à½Ĳ à½Ĥ
à½ĳà½Ģ à½ł
à¾¡ à½º
à¾© à½²
à¾¡ à½²
à½ĳ à½¢
à½łà½ĩ à½ĺ
à½Ł à½ĸ
à¾³ à½º
à½ĵ à½ĺà½¦
à½Ĳ à½Ħ
à¾£ à½¼
à½Ĥà½¡ à½¦
à¾Ĵ à¾²
à½łà½Ĥ à½ł
à¾±à½² à¼į
à¼ £
à½ĸà½ı à½Ĥà½¦
à½Ĥà½ŀ à½Ĥ
à¼ ł
à¾¤ à¾²à½¼
à½ĺ à½ĩ
à½Ĥà½¦ à½¢
à¾¤ à¾±à½²
à½ĸ à½Ľ
à½¡ à½¦
à½Ķà½ł à½ĺ
à¼ ·
à½łà½Ĩ à½ĳ
à½±à½´à¾ĥ à¼ĭ
à¼ §
à¾Łà½º à¼įà¼į
à½Ĥà½ĳ à½ĵ
à½ł à½ĸà½¢
à½£ à½ł
à½ģ à½¦
à½¦ à½ĺ
à¾© à½²à¼ĭ
à½Ħ à½Ħ
à½¢ à½ĸà½¦
à½Ł à½¦
à½Ĥà½Ļ à½Ħ
à½ĳà½Ĥ à½Ĥ
à¼ ¤
à½ĸà½ı à½ĸ
à½¡ à½ĸ
½ Ī
à ½Ī
à¾ Ģ
à½ĸà½Ļ à½ĵ
à¾¤ à½º
à¾© à½º
à¼ ¥
à½ĳà½ĺ à½Ĥ
à½ļ à½ĵ
à½± à½²
à½Ģ à½¢
à¾² à½ºà¼ĭ
à½ĺà½Ħ à½ł
à½£ à½łà½Ħ
à½Ĥà½ĵ à½ĳ
à¾¡ à½´à¼ĭ
à½Ĩ à½¢
à¾² à¾Ńà¼ĭ
à¾ ľ
à¾¦ à¼ĭ
à¼ ħ
à½Ĥà½ĳ à½ĺà½¦
à½¢ à½¦
à½ļ à½Ħà½¦
à½± à¼į
à½¾ à¼į
à¾± à¼į
½ Ĵ
à ½Ĵ
à½łà½Ĩ à½Ħ
à¼ ¦
à¾· à½¼à¼ĭ
à¾±à½² à¼įà¼į
à½±à½´ à½¾à¼ĭ
à½ħ à½Ĥ
à½¤ à½¦
à¼ ©
Ħ à¼ħ
à¼ĭ à½Ī
½ Ĺ
à ½Ĺ
à¾¡ à¼ĭ
à½łà½Ĳ à½ĳ
Ġ à¼į
à½ģ à½Ĥ
à½Ĥà½ı à½ĺ
à¾¤ à¾²à½²
à½łà½Ĩ à½¢
à¼ĭ à¼Ķ
à½ĸà½¦ à½£
à½¦ à½ł
à½ŀ à½Ĥ
à¼ĭà¼ ĳ
à½ĵ à½łà½Ħ
à¼ ½
à¾Ĳ à¾±à½²
Ħà¼ħ à¼įà¼į
à½ĸà½Ł à½ł
à¾· à½²à¼ĭ
à½Ģ à½ł
à¼ ¨
à¾± à½´à¼ĭ
à¾Ĳ à¾±à¼ĭ
à¾Ķ à½¼à¼ĭ
à½Ķ à½İ
à½ķ à½£
à¼· à¼ĭ
à½ķ à½Ĭ
à¼ĭà¼ĭà¼ĭà¼ĭà¼ĭà¼ĭà¼ĭà¼ĭ à¼ĭà¼ĭà¼ĭà¼ĭà¼ĭà¼ĭà¼ĭà¼ĭ
à½ĵ à½ł
à½Ķà½ł à½Ħ
à½ĸà½¦ à½ĺà½¦
½ Į
à ½Į
à½¡ à½¢
à¼ĭà¼ ½
à¾Ģ à¼ĭ
à½ĸà½ł à½ĺ
à½ħ à½Ħ
à¾¤ à½´
à½łà½ĳ à½ĸ
à½łà½Ĥ à½Ĥ
à½Ĥà½ŀ à½£
à½ĸ à½ĸ
à¾Ń à½±à¼ĭ
à¾¨ à½²à¼ĭ
à½¼à¼įà¼į à¼įà¼į
à½ĺà½ļ à½¢
à½¢ à½£
à¼ Į
à½ĺà½ĳ à½ł
à½ĺà½ĩ à½£
à½ĸ à½ĸà½¦
à½łà½ĸ à½ĳ
à½Ĥ à½ł
à¼ ĳ
à½£ à½Ħ
à¾¤ à¾²à½¼à¼ĭ
à½ĳà½ĺ à½ĵ
à½ļ à½£
à½ĵ à½ĵ
à½ĸà½Ģ à½Ĥ
à½± à½´à¼ĭ
à¾Ĳ à¾²
à½ĸà½ħ à½ł
à½ĳà½Ħ à½¦
à½ĺà½ģ à½¢
à½ļ à½¢
à½Ĥ à½ĺ
à½¢ à½ĺ
à½Ĥ à½ĳà½ĸ
à½ģ à½ĸ
à¼Į à¼Į
à½Ĥ à½Ħà½¦
à½Ĥà½ı à½ĳ
Ġà¼ Ī
à½ĸà½¦ à½Ĥà½¦
à½¦ à½Ħ
à¾« à½´à¼ĭ
à½Ħ à½ł
Ġ à¼ĭ
à½Ĳ à½ĳ
à½Ĥà½¦ à½ĵ
à¾ µ
à½łà½ĳ à½ł
à¾Ĵ à¼ĭ
à½ķ à½¢
½ »
à ½»
à½ĺ à½£
à½Ĩ à½¦
à½¡ à½Ħà½¦
½ ½
à ½½
à¾Ĳ à¾²à½´
à¼¡à¼ ©
à½² à¼Ķ
à½± à½¿à¼ĭ
à½ł à½ĸà½ł
à¾« à½´
à½Ĩ à½Ĥ
à½łà½ĸ à½ĸ
à½¼ à¼Ķ
à½£ à½Ħà½¦
à½ĵ à½¢
à¾¤ à¾²
à½ģ à½¢
à½¢ à½Ĥà½¦
à½ķ à½Ĥ
à½ĸ à½ĺ
à½łà½Ľ à½ĺ
à½¢ à½Ĥ
à½Ħ à½ĺ
à½Ĩ à½Ħ
à½Ĥà½ĵ à½ĺ
à½Ĩ à½ĸ
à½ķ à½ĺ
à½¿ à¼į
à½Ħ à½£
à¾¦ à¾²
à½ĸà½¤ à½Ĥà½¦
à¼ĭà½Ī à½²
à½ī à½£
à½ķ à½ĸ
à¾ķ à½ºà¼ĭ
à½ļ à½ĸ
à¾² à½±à½´
à½ĸà½¦ à½ĳ
à¾² à¾Ģà¼ĭ
à¾² à¼į
à½łà½ķ à½Ħ
à¾Ł à½²à¼ĭ
à¾· à½¼
à½¦ à½ĳ
à¾¦ à¾²à½´
à¾Ĵ à¾²à½¼à¼ĭ
à¾¤ à½´à¼ĭ
à½łà½Ĥ à½Ĥà½¦
à½ĳà½ĺ à½Ħà½¦
à¾Ĺ à½²
à¾Ĵ à½º
à½ĵ à½Ĥà½¦
à½» à¼ĭ
à¾Ĳà¾± à½¼à¼ĭ
à½ĳ à½£
à¾£ à½´
à¾ĥ à¼ĭ
à¾· à½±à¼ĭ
à½ĸà½Ļ à½£
à¾Ĳ à¾²à¼ĭ
à½½ à¼ĭ
à½ĸ à½ĵ
à¾Ł à½²
à¼ł à¼ł
Ġ à½£
à½łà½Ĳ à½ĸ
à½ĳ à½ĵ
à½ŀ à½Ħ
à½ĺà½ĵ à½ĵ
à½Ĥà½ĳ à½Ĥà½¦
à¾Ĵ à½´
à½ĺà½ī à½ĵ
à¾¦ à½¼
à¼ĭà¼ Ħà¼ħà¼įà¼į
à½ĸ à½Ħ
Ġà¼ ¼
à¾± à½¼à¼ĭ
à¾² à½±à½²à¼ĭ
à¾ ª
à½Ļ à½ĵ
à½¡ à½£
à½łà½Ĥ à½ĵ
à¼ĭà¼ ´
à½ĺ à½ĳà½Ħà½¦
à¾ľ à½²à¼ĭ
à½±à½´à¾ĥ à¼Ķ
à½¡ à½Ĥ
à¼ĭà¼ĭà¼ĭà¼ĭà¼ĭà¼ĭà¼ĭà¼ĭà¼ĭà¼ĭà¼ĭà¼ĭà¼ĭà¼ĭà¼ĭà¼ĭ à¼ĭà¼ĭà¼ĭà¼ĭà¼ĭà¼ĭà¼ĭà¼ĭà¼ĭà¼ĭà¼ĭà¼ĭà¼ĭà¼ĭà¼ĭà¼ĭ
à½ĺ à½İ
à¼¡à¼ ł
à¾Ĳ à¾±à½´
à¾Ł à½¼à¼ĭ
à¾« à¼ĭ
à¾² à½±à½²
à¾Ķ à¼į
à½Ĥà½Ł à½ł
Ġ à½¢
à¾Ń à½±
à¼ĭà¼ »
Ġà¼ ĳ
à¼ĭà¼ ¼
à½łà½ļ à½Ħ
Ġ à½¦
à½¢ à½Ģ
à½±à½´à¾ĥ à¼į
à½Ĩ à½ł
à½¼à¼ĭ à¼ĳ
à½ŀ à½Ĥà½¦
à½Ł à½Ħà½¦
à½ģ à½ł
à½£ à½¢
à¾¡ à¾·à¼ĭ
à½Ĥ à½¡à½Ħ
à½Ĥà½ī à½ĵ
à¾© à½´
à¼ Ħà¼ħà¼įà¼į
à¼ µ
à½Ģ à½ĵ
à¾¦ à½´
à¾Ĺ à½ºà¼į
à¾² à¼įà¼į
à¾· à½´à¼ĭ
à½Ģ à½Ħ
à¼¡à¼ ¢
à¾² à¾Ģ
à½Ķ à½ĵ
à½ĳà½ĸ à½ĸ
à¾± à½±à½´
à½ĸà½ł à½Ħ
à½ħ à½¢
à¾ ļ
à½¤ à½Ĥ
à¾µ à¼ĭ
à¼Įà¼Į à¼Įà¼Į
à½Ĳ à½ĸ
à¾ķ à½º
à½ĸà½ŀ à½ĳ
à½ĺà½Ħ à½£
Ġ à½ĸ
à½Ħ à½¢
à¾ķ à½²à¼ĭ
à½łà½ĸ à½Ħà½¦
à½¢ à½ł
à¼ĭ à¾
à½ĳ à½Ĥà½¦
à¾© à¾Ńà¼ĭ
à¾Ĳ à¼ĭ
à½ĳ à½Ķà½¢
à¾· à½²
à¾Ĳ à½¼à¼ĭ
à¾Ļ à½±à¼ĭ
à½ī à½Ĥ
à½±à½´ à½¾à¼į
à½łà½ĩ à½ł
à½ī à½ĺ
à¾ Ħ
Ġ Ġ
à½¢ à½ı
à¼¢ à¼ł
à¾Ĵ à¾²à½º
à¼ ¼
à¼¡à¼ £
à½¨ à½¢
à½Ĥà½ĵ à½ł
à½º à¼Ķ
à¾Ĳ à½º
à½± à½¾à¼ĭ
à¾ ŀ
à½´ à¼Ķ
à¾¨ à½´
à½ĺà½Ľ à½ł
à½¤ à½ĺ
à½Ĥà½ı à½Ħ
à½ĺà½Ĩ à½ĵ
à½Ĥ à½ĳà½Ħà½¦
à¾£ à½ºà¼ĭ
à¾¡ à¾·
à¼¡à¼ ¤
à½¨ à½Ħ
à¼¡à¼ ¥
à½ĸà½¤ à½ĺà½¦
à½Ł à½Ħ
à¾¤ à¾²à½º
à¾¤ à½ºà¼ĭ
à¼¡à¼ §
à½ĸà½Ģ à½Ħ
à¾« à½²
à¾ Ľ
à½ĸà½¦ à½Ħ
à¾¤ à¼ĭ
à¾± à½±à¼ĭ
à½ŀ à½ĵ
à¾ª à¼ĭ
à¼¡à¼ ¦
à½Ķ à½Ĥà½¦
à½¤ à½ĵ
à¾² à¾Ń
à½łà½ķ à½Ħà½¦
Ġà¼ Ħà¼ħà¼įà¼į
à¾²à½±à½² à½¿à¼ĭ
à¾²à½¼ à¼į
à¼¡à¼ ¨
à½Ĥ à½ħà½ĵ
à½łà½ĳ à½ĺ
à¾ľ à¼ĭ
à½łà½ĩ à½£
à¾¦ à¾²à½º
à½Ł à½ĵ
à½ĺ à½ĺ
à½łà½ķ à½¢
à½± à½²à¼į
à½¢ à½Ħà½¦
à½Ĥ à½¥
à½ı à½ł
à¾ ¥
à½¢ à½ĵ
à½¤ à½£
à½ķ à½¦
à½Ĥà½ĳ à½ł
à¾¦ à¾·
à¼ĭà¼ ¹
à¾ ĭ
Ġ à½ļ
à¼¡ à¼¡
à¼ĭà¼ º
à¼ Ģ
à¾² à½¼à¼įà¼į
à½Ģ à½¦
à½ĺà½ĵ à½¢
½ µ
à ½µ
à¾²à½² à¼į
à½łà½ļ à½ĺà½¦
à¾Ĳà½´ à¼įà¼į
à½łà½Ľ à½Ĥ
à½¼ à½¿à¼ĭ
à½Ĥà½ħ à½ĳ
à½ĳà½ĺ à½ł
à¾£ à½¼à¼ĭ
à½ĺà½Ħ à½¢
à¾¤ à½¼à¼ĭ
à½ı à½Ħ
à½Ŀ à½Ħ
à½¾ à¼įà¼į
à¼ĭà½Ī à¾±à½²
à½ĸà½ħ à½¢
à½Ĥ à½ĸ
à¼ĭ à½µ
½ «
à ½«
à½Ĥà½¤ à½ĺ
à½Ĳ à½ĺ
à½Ĥà½¦ à½¦
à¼ĭ à½²
à¾¡ à¾²à¼ĭ
Ġ à½ī
à½ļ à½Ĥà½¦
à¾« à½²à¼ĭ
à¾ ł
à½ĳ à½Ķà½¦
à½ĳà½Ķ à½Ħ
à½¦ à½ı
à¾· à½±à½´à¼ĭ
à¼ĭà¼ ¸
à½ĸà½Ł à½ĳ
à½¦ à½¦
à½ĳà½ĸ à½£
à½ŀ à½¢
½ ª
à ½ª
à½ģ à½£
à¾Ĵà¾±à½´ à¼į
à½£ à½ĸ
à¾Ķ à½´
à¼ĭà¼ĭà¼ĭà¼ĭ à¼ĭ
à½łà½Ĩ à½£
à¼ ´
à¾¨ à½ºà¼ĭ
à¾ķ à½¼
Ġ à½ĵ
à½ĳà½Ĥ à½¢
à½ģ à½ĺ
à¾¡ à½ºà¼į
à¾¨ à½¼à¼ĭ
à½¤ à½ĳ
à½Ł à½ł
½ ©
à ½©
à¾Ł à¼į
à½¦ à½ĵ
Ġ à½ĳ
Ġ à¼įà¼į
à¾±à½º à¼į
à½´ à½¾à¼ĭ
à½Ĥà½Ł à½ĵ
à¾² à½ºà¼į
à½ĺà½Ħ à½Ĥà½¦
à½¤ à½ł
à¾² à¾Ĺà½¼
à½¤ à½Ħ
à¼ĭ à½²à¼ĭ
à¾² à½±à¼ĭ
Ġ à½ķ
à½ĵ à½Ł
à¼µ à¼ĭ
à¼ĭà¼ĭ à¼ĭ
à¾Ĳà½´ à¼į
à½łà½ĩ à½Ĥà½¦
à½Ĥà½ĵ à½Ĥ
à½łà½ĳ à½¢
à¼ĭà¾ ¢
à¾ »
à½± à½¾à¼į
à½Ĺ à½¥
à½ģ à½ĳ
à½¿ à¼įà¼į
à¾Ļ à½´
à½ĸà½¤ à½Ħ
à½Ĥà½ī à½ł
à¼ĭ à½¼
à½łà½ļ à½ĺ
à½Ĥà½Ł à½ĸ
à½Ĥà½¡ à½Ĥ
à½Ķ à½ī
à½Ļ à½Ģ
à½² à½¾à¼ĭ
à½ĸà½¦ à½Ħà½¦
à½± à¼Ķ
à¾· à¼į
à½Ł à½ĺ
à¾¨ à¾±à½¼
à½¨ à½ĵ
à¾¨ à¾±à½´
à½ı à½ĺ
à¼Įà¼Įà¼Įà¼Į à¼Įà¼Įà¼Įà¼Į
à¾Ļ à½ºà¼ĭ
à¾Ľ à¼ĭ
à¼ ¸
à½ĸà½Ļ à½¦
à½ĳ à½ĸà½¢
à½ļ à½ĸà½¦
à½ĸà½Ł à½Ħà½¦
à¾Ĵà¾± à¼į
à¾¡ à¾·à½²à¼ĭ
à½¦ à½ĸ
à¾²à½² à¼įà¼į
Ġ à½Ł
à¾¦ à¾·à¼ĭ
à½¢ à½¢
à¾± à¾±à½²
à¼į à¼½
à½¡ à½ł
à½Ĥà½¦ à½ĳ
à¼ Ī
à½Ĥà½Ł à½¢
½ ĭ
à ½ĭ
à½ĺà½Ĥ à½¢
à¼¢ à¼¥
à¾Ķ à¼įà¼į
à¼¢ à¼£
à¾¦ à¾²à¼ĭ
à½Ĥà½¡ à½ł
à¾Ĵà¾±à½´ à¼įà¼į
à½ĺà½ĵ à½ł
à½§ à½ĵ
à¼¢ à¼¤
à½ĺ à½§
à¾¦ à½´à¼ĭ
à½ĺà½ł à½ĺ
à½ĸà½¦ à½ĵ
Ġ à½¤
à¼ĭà¼ĭà¼ĭà¼ĭà¼ĭà¼ĭà¼ĭà¼ĭà¼ĭà¼ĭà¼ĭà¼ĭà¼ĭà¼ĭà¼ĭà¼ĭà¼ĭà¼ĭà¼ĭà¼ĭà¼ĭà¼ĭà¼ĭà¼ĭà¼ĭà¼ĭà¼ĭà¼ĭà¼ĭà¼ĭà¼ĭà¼ĭ à¼ĭà¼ĭà¼ĭà¼ĭà¼ĭà¼ĭà¼ĭà¼ĭà¼ĭà¼ĭà¼ĭà¼ĭà¼ĭà¼ĭà¼ĭà¼ĭà¼ĭà¼ĭà¼ĭà¼ĭà¼ĭà¼ĭà¼ĭà¼ĭà¼ĭà¼ĭà¼ĭà¼ĭà¼ĭà¼ĭà¼ĭà¼ĭ
à½ºà¼ĭ à¼ĳ
à½¢ à½ĳ
à½ĵ à½¡
à¾· à½ºà¼ĭ
à¾¨ à½º
à¼¢ à¼§
à½¼ à¾ĥà¼ĭ
à½Ĳ à½ł
à¾ ¶
à½²à¼ĭ à¼ĳ
à¾³ à¼į
à¾ŀ à¼ĭ
à¼¢ à¼¦
à¼įà¼į à¼įà¼į
à¾Ĳ à½ºà¼ĭ
à¾· à¼įà¼į
à½´ à½¿à¼ĭ
à½¨ à½Ĥ
à½Ķ à½Ħ
à½ĸà½ħ à½Ħ
à¾· à¾±
à¼¢ à¼łà¼ł
à½Ĭ à½ł
Ġà¼ £
à½ĸà½ħ à½Ħà½¦
à½łà½Ĩ à½Ĥà½¦
à¼£ à¼ł
à¾ ħ
à½ĳà½Ĥ à½Ħ
à¼¢ à¼©
à½łà½Ĥ à½¢
à¾³ à½ºà¼ĭ
à½Ĥà½¡ à½¢
à½Ĥà½ŀ à½¦
à½¦ à½Ķ
à¾ Ī
à¾Ĳà¾±à½º à¼įà¼į
à½ı à½¦
à¾· à½¾à¼ĭ
à½¨ à½ĺ
à¼¢ à¼¨
à¾Ń à½¼à¼ĭ
à½ĵ à½Ķ
à¾Ł à¼įà¼į
à½ī à½¢
à¾Ĳà¾±à½º à¼į
Ġ à¼ĭà¼ĭ
à¾¨ à½±à¼ĭ
à½¢ à½ĺà½¦
à½Ĵ à½ĵ
à½Ĵ à½¢
à¾ ´
½ ĥ
à ½ĥ
à¾¦ à½º
à½¤ à½Ħà½¦
à¾Ĺà½º à¼įà¼į
à½łà½ķ à½ĵ
à½ļ à½ł
à¼¡à¼© à¼¥
à½łà½Ĩ à½ĺ
Ġ à½Ķ
à½Ļ à½Ħ
à¾Ĵà¾± à¼Ķ
à½Ĵ à½¥
à¼¡à¼© à¼©
à½£ à½ĳ
à½ĸà½ĳ à½£
à¾Ł à½²à¼į
à¾±à½º à¼įà¼į
à½łà½Ĩ à½ł
à½² à¼·à¼ĭ
à¾ļ à¼ĭ
à½¾ à¼Ķ
à½ī à½ł
à¼¡à¼© à¼¨
à½ĸà½¤ à½ĺ
à¾± à¼Ķ
à¾Ł à½±à¼ĭ
à½Ľ à½ĺ
à½Ĳ à½ĵ
à¾Ħ à¼ĭ
à½ĸà½ħ à½Ĥ
à¾² à½±
à½Ŀ à½¢
à½ł à½ĳà½Ĥ
à½¡ à½ĺ
à¾¡ à½²à¼ĭ
à¼įà¼į à¼į
à¾» à¼ĭ
à½ī à½Ħ
à½ĸà½Ģ à½ĸ
à½ĸà½Ģ à½¦
Ġ à½ĺ
à½± à¼įà¼į
Ġ à½Ĥ
à¾· à¾±à½¼
à½Ĩ à½ĵ
à¾±à½² à¼Ķ
à¾¥ à¼ĭ
à½Ħ à½ĳ
à¾Ĵ à½±
à¼ĭ à½º
à¼¢ à¼¢
à½ł à½Ĥà½¦
à½ĳà½Ķ à½Ħà½¦
à½łà½ĳ à½ĸà½¦
à¾¨ à¾²à½¼
à½Ķ à½ĳà½Ħ
à¾¨ à¾²à½²
à¾Ĵ à¾±à½²
à¾· à¾²
à½Ĥà½ı à½ĺà½¦
à½Ī à½²
à¾ĭ à½Ĥ
Ġ à½ĳà½Ħ
à½İ à½ł
à¾Ĵ à½´à¼ĭ
à½ĸà½ĳ à½¢
à¾Ĵ à½ºà¼ĭ
à½¦ à½Ĥ
à½ĺ à½Ħà½¦
à½łà½Ĳ à½Ĥ
à½ĸà½Ģ à½£
Ġà¼ º
Ġ à½ĸà½¢
à½ı à½Ĥ
à½Ĩ à½ĸà½¦
à½ĳ à½ł
à¾Ħ à¼į
à½ĩ à½Ĥ
à¾Ńà½± à½¾à¼ĭ
à½ĺà½ļ à½Ħ
à¾· à¾±à½¼à¼ĭ
à¼ĭà¼ĳ à¼į
à¼į à¼ĭ
à½¨ à½ł
ĠĠ ĠĠ
Ġ à½¡
à½Ļ à½İ
à¾¨ à¾±à½¼à¼ĭ
à½ķ à½Ł
Ġ à½Ģ
à¾· à½±
à½ĺà½ĵ à½£
à½Ŀ à½ĵ
à½ı à½ĳ
à½łà½Ĩ à½Ĥ
à½ķ à½ł
à½ĸà½Ģ à½¢
à¾Łà½º à¼Ķ
Ġ à½ĵà½¦
à¼¢ à¼¡
à½§ à½ł
à¼ĭà½µ à¾ĥà¼ĭ
à½¦ à½£
à½¼à¼įà¼į à¼į
à½łà½ģ à½¢
à¾¨à¾² à½ºà¼ĭ
à½¼ à¾ħ
à¾¡à¾· à½ºà¼ĭ
à½ĺà½ļ à½£
à½Ĥà½¡ à½ĸ
à¾± à½»à¼ĭ
à½Ĥà½ı à½¢
à¾µ à½²à¼ĭ
à½Ķ à½£
à½Ĥ à½ĳà½ĺ
à¼ĭà¼ Ī
à¼£ à¼£
à¼ º
à½łà½Ĩ à½ĸ
à½¦ à½Ģ
Ġ à½Ĩ
à½ĵ à½Ħà½¦
à½ł à½ĳà½Ħ
à¾Ķ à½´à¼ĭ
à¾Ł à¾Ń
à¼ĭà¾ İ
à½§ à½¢
à¼¤ à¼ł
à¾Ĵà¾± à¼įà¼į
à¾± à¾²à½º
à¼¦ à¼ł
à¼łà¼ł à¼łà¼ł
Ġ à½Ķà½ł
à½¡ à½Ģ
à½łà½Ľ à½ĳ
à¾Ī à¾Ī
à½²à¼ĭ à¼´
à½ĳ à½¦
à½Ĥ à½İ
à¼ Ħà¼ħ
à½Ħ à½¥
à½ķ à½Ŀ
à½ı à½¢
à¼ħ à¼įà¼į
à½¼ à¼·
Ġ à½Ĳ
à¼£ à¼¥
à¾© à¼į
à¼£ à¼¤
à½Ĥ à½Ĥà½¦
à½ķ à½Ħà½¦
à½ĺà½ł à½Ħ
à½Ļ à½¢
à¾Łà½ºà¼ĭ à¼ĳ
à¾Ł à½´à¼ĭ
à¾ł à¼ĭ
à¾¨ à¼į
à¾Ł à½¾à¼ĭ
à¼£ à¼§
à½ĸà½¤ à½£
à½ĺà½Ľ à½Ħà½¦
à½Ĥ à½Ĥ
à¾³ à½¼à¼įà¼į
à¾¦à¾· à½±à½²à¼ĭ
à½ķ à½¥
à¼Įà¼Įà¼Įà¼Įà¼Įà¼Įà¼Įà¼Į à¼Įà¼Įà¼Įà¼Įà¼Įà¼Įà¼Įà¼Į
à½ĸà½Ļ à½ł
Ġà¼ ł
Ġ à¼ĭà¼ĭà¼ĭà¼ĭà¼ĭ
à¾´ à¼ĭ
Ġ à¼¡
à½¨ à½¨
à¾Ļ à½²à¼ĭ
à½Ł à½Ĳ
à½Ĳ à½Ĥà½¦
à¾Ĳ à¾±à½²à¼ĭ
à¼£ à¼¦
à¾¦ à½²à¼ĭ
à½¡ à½ĺà½¦
à½¦ à½ĸà½¦
à¼£ à¼©
Ġà¼ ¤
à¼£ à¼¨
à½łà½ĸ à½Ĥ
à½Ŀ à½¦
à½ĺà½ģ à½£
à¾¦ à¾¦à¼ĭ
à½ł à½ĸà½¦
à½Ķà½¢ à½ĸ
à¾¨à¾² à¼įà¼į
à¾Ĵà¾² à¼įà¼į
à¾² à½¾à¼ĭ
à¾± à¾Ńà¼ĭ
à¾Ĳ à¾²à½¼
à¼¥ à¼ł
à½ķ à½Ħ
Ġ à¼¢
à½¨ à½¦
à½ĸà½ħ à½ĸà½¦
à½§ à½§
à¼¤ à¼¤
à¾¤ à¾²à¼ĭ
à¾ĥ à¼į
à½ĳà½Ħ à½Ħà½¦
à½ĸà½ĳ à½ĺà½¦
à½ĸà½¦ à½Ĥ
à¾Ĵà¾² à¼į
à½¦ à½łà½ĺ
à½² à¼·
à½§ à½¦
à½¼ à½¾à¼į
à½²à¼ĭ à¼Ħà¼ħà¼įà¼į
à½¢ à½¥
à¾Ĵ à¾·à½¾à¼ĭ
Ġ à¼Ķ
à½ĺà½Ĳ à½¦
à¾Ĳà¾± à½´à¼ĭ
Ġ à½¨
à½¨ à½ı
Ġ à½ĸà½¦
à½Ĥà½¦ à½Ķ
à¾ĭ à½¦
Ġà¼ §
à½Ĥ à½ĳà½Ħ
à¾± à½±
à¼¤ à¼©
à¾Ń à¼į
à¼¡à¼© à¼§
à¾Ĵà¾± à½¼
à½º à¼·à¼ĭ
à½Ĩ à½ĺ
à½ķ à½¡
à¾· à½±à½²à¼į
à½¤ à½Ķ
à¾£ à½º
à½Ł à½¢
Ġ à½ģ
à¾Ĳà½´ à¼Ķ
à¾ĭ à½¢
à½ĳà½Ħ à½¢
à¾¤ à¾²à½²à¼ĭ
à¾Ķ à½¼à¼įà¼į
à¾¦à¾· à½±à½²
à½¼à¼ĭà¼ĳ à¼į
à¾£ à¼į
à¾© à½¼à¼ĭ
à¼ĭà¼ Ŀ
à¼ĭà½µ à½¾à¼ĭ
à½Ĥ à½Ķ
Ġ à½ŀ
à¾²à½±à½² à¼Ķ
Ġà¼ Ħà¼ħ
à½´ à½¿à¼į
à¾³ à½²à¼ĭ
à½ĵ à½Ķà½ł
à¾³ à¼įà¼į
à½² à½¿à¼ĭ
à¼¤ à¼§
à½łà½Ľ à½ĸ
Ġ à¼ĭà¼ĭà¼ĭ
à¼ĭ à½¼à¼ĭ
à¼¥ à¼§
à¾¨ à¾±à½²
à½½ à¼į
à½Ĺ à½Ĥ
à¾© à½ºà¼į
à¼ Ŀ
à½ĺà½Ħ à½Ĥ
à¼ĭà½Ī à½º
à¼ĭà¾ §
à¾ľ à¼į
à¾± à½¾à¼ĭ
à½Ł à½ģ
à½¤ à½ĸ
à¼¤ à¼¥
à¼¡à¼© à¼¦
à¾ķ à½´
à¾¡ à½¼à¼įà¼į
à½łà½Ĥ à½Ħà½¦
à¼£ à¼¡
Ġ à½ĳà½Ĥ
à½Ļ à½ł
à¾© à½²à¼į
à½ļ à½Ĥ
à½§ à½ĺ
à½Ĵ à½Ĥ
à¾Ĵà¾± à½º
à¼į à¼ĭà¼ĭà¼ĭà¼ĭà¼ĭ
à¾Ł à¾²à¼ĭ
à½ĵ à½£
à½Ĥà½ŀ à½Ħ
à¾Ļ à¼ĭ
à¼§ à¼ł
ĉ ĉ
à½ĺ à½ĳà½Ħ
à½Ģ à½łà½Ħ
à¾± à¾Ģà¼ĭ
à½Ħ à½ĸ
à½Ĥà½ĳ à½£
à¾Ń à½²à¼ĭ
Ġ à¼ĭà¼ĭà¼ĭà¼ĭ
à¾¡à½´ à¼į
à½Ķ à½ĺ
à¼¤ à¼¦
à¼Ģ à½ĸà½Ľ
Ġà¼ ¥
à¼ĭ à½´
à½ĸà½ħ à½Ĥà½¦
à½ģ à½İ
à¾ľ à½²
à½Ĥà½Ł à½¦
à½Ĥà½ī à½£
à¾Ĵà½¼ à¼į
à¾ ¾
à½²à¼ĭ à½Ī
à¾Ĳ à½²à¼ĭ
à½ĵ à½ı
à¾ķ à½²
à¼¤ à¼¨
Ġ à½ĵà½Ħ
à¼¥ à¼¦
à½Ģ à½£
à¾Ń à½ºà¼ĭ
à½ĸ à½ĳà½Ħ
à¾³à½´ à¼į
à¾¡ à¾·à½±à¼ĭ
à¾¥ à½´à¼ĭ
à½ĺ à½¡
à½ĳà½Ħ à½Ĥà½¦
à½łà½ĩ à½Ħ
à¾²à½´ à¼į
à½± à½²à¼įà¼į
à¼Ħà¼ħ à¼ħà¼įà¼į
à¾¡ à¾²
à½Ĳ à½Ģ
à½ĵ à½¥
à½ĸà½¤ à½ł
à½Ģ à½Ģ
à½ĳà½Ķ à½Ĥà½¦
à½´ à¼·à¼ĭ
à½ķ à½ħ
à½ĸà½Ł à½¦
à¼į à¼ĭà¼ĭà¼ĭà¼ĭà¼ĭà¼ĭà¼ĭà¼ĭà¼ĭà¼ĭà¼ĭà¼ĭà¼ĭà¼ĭà¼ĭà¼ĭà¼ĭà¼ĭà¼ĭà¼ĭà¼ĭà¼ĭà¼ĭà¼ĭà¼ĭà¼ĭà¼ĭà¼ĭà¼ĭà¼ĭà¼ĭà¼ĭà¼ĭà¼ĭà¼ĭà¼ĭà¼ĭà¼ĭà¼ĭà¼ĭà¼ĭà¼ĭà¼ĭà¼ĭà¼ĭà¼ĭà¼ĭà¼ĭà¼ĭà¼ĭà¼ĭà¼ĭà¼ĭà¼ĭà¼ĭà¼ĭà¼ĭà¼ĭà¼ĭà¼ĭà¼ĭà¼ĭà¼ĭà¼ĭ
à¼© à¼©
Ġ à½Ķà½¢
à¼£ à¼¢
à½Ĥà½ŀ à½ł
à½ĳ à½İ
à¾· à½º
à¾ º
à¾· à½¼à¼į
à¾Ĺ à½¼à¼ĭ
à½¾à¼įà¼į à¼įà¼į
à½¨ à½Ģ
à¾·à¾± à½¿à¼ĭ
à¾¦à¾· à½º
à½Ģ à½ĺ
à¼¥ à¼¥
à¾· à½±à½²à¼ĭ
à½²à¼ĭ à¼¼
à½§ à½Ħ
Ġ à½łà½ĳ
à½´à¼ĭ à¼ĳ
à¼ĭà¼ ŀ
à½Ķ à½¡
Ġ à½Ļà½ĺ
à½Ķ à½Ģ
à¾Łà½² à½¾à¼ĭ
à¼§ à¼§
à½Ľ à½¦
à¼ĭà¼ĭà¼ĭà¼ĭà¼ĭà¼ĭà¼ĭà¼ĭ à¼ĭà¼ĭà¼ĭà¼ĭ
à½ĸà½¦ à½ĸ
à½¤ à½Ĥà½¦
à¾¤à¾² à½¼à¼įà¼į
à¾µ à½ºà¼ĭ
à¾¶ à¼ĭ
à¾· à¼Ķ
à¾¤à¾± à½¼à¼ĭ
à½Ĥà½¤ à½Ĥà½¦
à¾·à¾±à½¼ à¼Ķ
à¾¡ à½ºà¼įà¼į
Ġ à½£à½¦
à½ĳ à½ı
à¾Ķ à½¼à¼į
à½ĸà½ĳ à½ł
à¾· à¾±à¼ĭ
à½ħ à½Ĳ
Ġ à½ĳà½Ķà½£
à½ķ à½ĸà½¦
à¼¥ à¼¨
à¾± à½¼à¼įà¼į
à½Ĺ à½Ĩ
à½¦ à½Ĥà½¦
à¾· à½±à½²
à¾ļ à½²à¼ĭ
à½łà½ļ à½ĸ
à¾²à½² à½¾à¼ĭ
à½ĸà½ĸ à½ĸà½ĸ
à¼© à¼§
à¾« à½º
à½º à½¾à¼ĭ
à½Ĥà½¦ à½Ķà½ł
à¾£ à½²à¼ĭ
à½ĺ à½Ķà½¢
à¾·à¾² à½±à½´à¾ĥà¼ĭ
à¾³à½¼ à¼į
à½Ķ à½Ĥ
à½Ŀ à½ł
à½Ĭ à½ĺ
à¼¥ à¼¢
Ġà¼ ½
Ħ à¼įà¼į
à½± à¾Ģà¼ĭ
à¾¨ à¾¨à¼ĭ
à¼ĭà¼¹ à¾Ģà¼ĭ
à½Ĺ à½ĵ
à½ĺà½Ĥ à½£
à½» à¼į
à¾Ĵ à½±à¼ĭ
à¾· à¾£
Ġ à½Ĥà½¦
à¼Įà¼Į à¼Į
à½ĵ à½Ķà½¢
à¼¥ à¼©
à¾¨à¾² à¼į
à½ŀ à½ł
à½Ĭ à½¢
à¾Łà¾Ń à½¾à¼ĭ
à½± à½¿à¼į
à½ĵ à½ĸ
à¼¤ à¼¢
à½Ĥà½ħ à½£
à¾² à¾±à½²
à½Ĺ à½ĸ
à½ĳ à½ĸà½ł
à½łà½ĩ à½ĸ
à½² à½¿à¼į
à¾Ĵ à½¼à¼įà¼į
à¼¤ à¼¡
à½ĳà½Ĥ à½ĸ
à½¨ à½ĳ
à¾ł à½²à¼ĭ
à½łà½ĩ à½¢
à¾· à½²à¼į
à¼§ à¼©
à½ºà¼ĭ à½Īà½²
à½ķ à½ĳ
à½Ĥ à½Ĥà½¡
à¾© à¾±à½²
à½łà½ļ à½¢
à½ĸ à½Ħà½¦
à¼¤ à¼£
à½ĸà½ĳ à½¦
à½Ĵ à½ĳ
à½²à¼ĭ à½²
à¾¡ à¼į
à½łà½Ĳ à½¦
à½ĺ à½Ķ
à½łà½ĩ à½Ĥ
à½¼ à½¿à¼į
Ġ à¼ĭà¼ĭà¼ĭà¼ĭà¼ĭà¼ĭà¼ĭà¼ĭà¼ĭà¼ĭà¼ĭà¼ĭà¼ĭà¼ĭà¼ĭà¼ĭà¼ĭà¼ĭà¼ĭà¼ĭà¼ĭà¼ĭà¼ĭà¼ĭà¼ĭà¼ĭà¼ĭà¼ĭà¼ĭà¼ĭà¼ĭà¼ĭà¼ĭà¼ĭà¼ĭà¼ĭà¼ĭà¼ĭà¼ĭà¼ĭà¼ĭà¼ĭà¼ĭà¼ĭà¼ĭà¼ĭà¼ĭà¼ĭà¼ĭà¼ĭà¼ĭà¼ĭà¼ĭà¼ĭà¼ĭà¼ĭà¼ĭà¼ĭà¼ĭà¼ĭà¼ĭà¼ĭà¼ĭà¼ĭ
à½Ľ à½ł
à¾·à¾±à½¼ à½¿à¼ĭ
à½´ à¼·
à¼¨ à¼ł
à¼¡à¼©à¼¥ à¼©
à½Ĺ à½Ļ
à½¼ à½¾à¼Ķ
à½łà½Ĩ à½ĺà½¦
à¼ İ
à½Ĩ à½£
à½Ķ à½ĸ
à½Ī à¾±à½²
à½Ĥà½¦ à½ĸ
à½º à¼·
à¾²à½´ à½¾à¼ĭ
Ġà¼ ©
Ġà¼ ¨
à¾±à½´ à¼į
à¾ł à½±à¼ĭ
à½Ł à½Ĥà½¦
à¼© à¼ł
à¼ĭà½Ī à½¼
à½¦ à½Ķà½ł
à¼ĭà¼ İ
à½´ à¾ĥà¼ĭ
à¾Ł à½´à¼į
à½¡ à½ı
à¾³à½´ à¼įà¼į
à¾¦ à½²
à¼§ à¼¦
à½Ĥà½¦ à½Ĥ
à½ĸà½¢ à½ĵ
à¼į à¼Ħà¼ħà¼įà¼į
à½ĩ à½ł
à½Ģ à½İ
à½£ à½Ģ
à¾² à½±à½²à¼į
à¾© à¾Ń
à½¼ à¼·à¼ĭ
à½§ à½£
à½ģ à½ĵ
à½Ĥà½¤ à½Ħ
à¾Ń à½¾à¼ĭ
à½ĸà½¤ à½ĵ
à¾¦ à¾²à½²
à¼łà¼ł à¼ł
à½Ĥà½¤ à½ł
à½Ĺ à½¢
à¼ĭà¼¹ à½²à¼ĭ
à¼· à½¼
à¾¾ à¾¾
à¾¨ à¾±
à¾¨ à½´à¼ĭ
à¾Ł à¾¡à½¼
à¾© à½ºà¼įà¼į
à½ĸà½ħ à½£
à¾¡à¾· à¼į
à¾± à½¾à¼į
à½ĸà½Ģ à½ĵ
à¼¦ à¼¦
à¾²à½¼ à¼Ķ
½ į
à ½į
Ġ à½ł
à¼ĭà¼ Ħà¼ħ
à¾¡ à¾·à½´à¼ĭ
à¾¡ à¾·à½¼
à½ı à½ı
à¾² à¼Ķ
à½¨ à½ĸ
à¼¥ à¼¡
à¾ª à½²
à¾¤ à¾±à½²à¼į
à¾¦ à½±à¼ĭ
à½łà½ĳ à½ĵ
à¼ĭ à½ºà¼ĭ
à½łà½ĸ à½Ĥà½¦
à¼§ à¼¨
à½ĸà½Ļ à½Ĥà½¦
à¼¡à¼ł à¼ł
à½Ļ à½Ĥ
à¾³ à½½à¼ĭ
à½Ħ à½Ķ
Ġà¼ ¦
à¼· à¼į
à¼¥ à¼£
à½²à¼ĭ à¼º
à¾µ à½±à¼ĭ
à½Ĳà½ĺà½¦ à½ħà½ĳ
à¼ĭà¼ĭà¼ĭà¼ĭà¼ĭà¼ĭà¼ĭà¼ĭà¼ĭà¼ĭà¼ĭà¼ĭà¼ĭà¼ĭà¼ĭà¼ĭà¼ĭà¼ĭà¼ĭà¼ĭà¼ĭà¼ĭà¼ĭà¼ĭà¼ĭà¼ĭà¼ĭà¼ĭà¼ĭà¼ĭà¼ĭà¼ĭ à¼ĭà¼ĭà¼ĭà¼ĭà¼ĭà¼ĭà¼ĭà¼ĭà¼ĭà¼ĭà¼ĭà¼ĭà¼ĭà¼ĭà¼ĭà¼ĭ
à¾ľ à½±à½²à¼ĭ
à½Ī à½¼
à½ĳà½Ħ à½Ħ
à¾± à½¿à¼į
à½Ģ à½¤
à¾¦ à½¼à¼ĭ
à½ĸ à½Ķ
à½²à¼ĭ à¼½
à¾ļ à¼į
à¼· à½²
à½Ķ à½ŀ
à½Ħà½¦ à½¦
à¼į à¼¼
à¼¥ à¼¤
à½¨ à½Ļ
à¾µ à¼į
à½§à½§ à½§à½§
à¾ Ĥ
à½ħ à½£
à¼¦ à¼¨
à½ĸà½¢ à½ĸ
à¾²à½±à½² à½¾à¼ĭ
à½ļ à½ĺ
à¾² à½±à½¾à¼ĭ
à¼¡à¼© à¼ł
à¾Ĵà¾² à½ºà¼ĭ
à½ĸà½Ļ à½Ĥ
à½Ĺ à½ĵà½¡
à½ĺà½¦ à½Ģ
à½± à½¼à¾ĥà¼ĭ
à½Ĺ à½¡
à¾µ à½´à¼ĭ
à½ĸà½ŀ à½ĺà½¦
à¾²à½± à¾Ģà¼ĭ
à½¼à¼ĭ à¼¼
à¼¦ à¼§
à¼¦ à¼©
Ġ à½¢à½ĸ
à½łà½ĸ à½£
à½± à½¾à¼įà¼į
à¾¨ à½±
à½¨ à½İ
à¼· à½²à¼ĭ
à½ĺà½ĵ à½ĸà½¦
à¾¨ à¾±à½´à¼ĭ
à½¥ à½ł
à¾¡ à½±à¼ĭ
à½¢ à½ī
à½ī à½¦
à½ļ à½¦
à¾²à½º à¼įà¼į
ĠĠĠĠ ĠĠĠĠ
à½Ħ à½Ĩ
à¾²à½´ à¼įà¼į
à½§ à½ĸ
à½łà½Ĥ à½ĸ
à¾ İ
à½Ķà½¢ à½łà½Ĥ
à¾Īà¾Ī à¾Īà¾Ī
à½Ĵ à½«
à½łà½ĸ à½ĸà½¦
à¾· à½±à½´
à½¡ à½Ļ
à¾º à¼ĭ
Ġ à½ĸà½ĳ
à½ĸ à½Ĥà½ĳ
à½ķ à½Ĳà½Ĥ
à¾· à¾²à¼ĭ
à¾Ģ à¼į
Ġà¼Ħà¼ħ à¼ħà¼įà¼į
à½¾ à½¿à¼ĭ
à¾·à¾± à½¿à¼į
à¾Ĳà¾± à¼į
Ġ à½łà½ĸ
à½ĵà½Ł à½«
à¼Ģ à½¨
à½Ĥ à½Ķà½ł
à¾Ħ à½¿à¼ĭ
à½¨ à½£
à½¨ à½Ĭ
à½Ľ à½ĵ
à¾£ à½±à¼ĭ
à¾¦ à½ºà¼ĭ
à½Ħ à½ĸà½ł
à½Ķ à½ı
à¼¦ à¼¤
Ġ à½ĸà½ħà½¦
à¼¦ à¼¢
à½´à¼ĭ à¼Ħà¼ħà¼įà¼į
à¾²à½² à¼Ķ
à¾Ń à½¾à¼į
Ġ à½ı
Ġ à¼ĭà¼ĭà¼ĭà¼ĭà¼ĭà¼ĭà¼ĭà¼ĭ
à¾ ĳ
à¾¡à¾· à½ºà¼į
à¾¥ à½¼à¼ĭ
à½ĸà½Ļ à½ĳ
à¾¦à¾· à½ºà¼ĭ
à¼§ à¼£
à½ĸà½ŀ à½¢
à¾·à¾² à½±à½´à½¾à¼ĭ
à¾© à¼įà¼į
à½ĺà½Ĳ à½Ħ
à½ĳ à½ĺà½¦
à½¼à¼ĭ à½ºà¼ĭ
à½Ĵ à½¦
à½Ľ à½§
à¾· à¾Ńà¼ĭ
à½§ à½ĳ
à¼¦ à¼¡
à¾± à½¿à¼ĭ
à½Ł à½£
à¾Ń à½²
à½¤ à½Ģ
à½ĺà½ĳ à½¢
à¾ª à¼į
à½Ĥà½¡ à½ĵ
à¼§ à¼¥
à¼¦ à¼¥
à¾¡à½¼ à¼į
à¾Łà¾Ń à½¾à¼į
à¾· à¾²à¾Ģ
à½± à½¼à½¾à¼ĭ
Ġ à½Ĥà½ī
à¼© à¼¨
à¼ĭà¼¹ à¼ĭ
à¼¦ à¼£
Ġ à½ħ
à½ĸ à½Ĥà½¦
à½Ł à½ĩ
à½ģ à½¤
à½Ķà½¢ à½¢
à½Ĥà½ı à½ł
à½º à½º
à¼¨ à¼¨
à½Ĳ à½ķà½Ħ
à½Ĳ à½¦
à½º à½ºà¼ĭ
ĠĠ Ġ
à¼ĭà½Ī à½±à½²
à½± à¾ĥà¼ĭ
à¾ °
à½Ĺ à½ļ
à½¼à¼į à¼ĭà¼ĭà¼ĭà¼ĭà¼ĭ
Ġ à½łà½ģ
à½ĸà½ı à½Ĥ
à¼ĭà¼ŀ à¼į
à¾·à¾±à½¼ à¼į
à¼ĭà¼Ŀ à¼į
à¼¨ à¼¡
à¾¡à½´ à¼įà¼į
à¼Įà¼Įà¼Įà¼Įà¼Įà¼Įà¼Įà¼Įà¼Įà¼Įà¼Įà¼Įà¼Įà¼Įà¼Įà¼Į à¼Įà¼Įà¼Įà¼Įà¼Įà¼Įà¼Įà¼Įà¼Įà¼Įà¼Įà¼Įà¼Įà¼Įà¼Įà¼Į
à¾· à¾±à½±à¼ĭ
à½ł à½¦
à½ĳà½Ħ à½£
à¾Ķ à¼Ķ
à½Ĺ à½ı
à¾Ľ à¼į
à½Ĥ à½ĸà½¦
à¼§ à¼¤
à¼ĭà¼į à¼ĭ
à¾¡ à¾·à½¼à¼ĭ
à¼· à½º
à¼ĭà½µ à¾ĥà¼į
Ġ à½łà½Ĥ
à½ĳ à½ħ
à½Ŀ à½£
à¾Ĥ à¼ĭ
à¾Ľ à½²à¼ĭ
à¾ª à½±à¼ĭ
à½¡ à½ĳ
à¼¡à¼¢ à¼¨
à¾Ł à½±
à¼§ à¼¡
à½ºà¼ĭ à¼Ħà¼ħà¼įà¼į
à¾· à¾²à¾Ģà¼ĭ
Ġ à½ĳà½ĸ
à½ŀ à½ĺ
Ġ à½¢à½Ħ
à¼ĭ à¾±
à½¦ à½Ķà½¢
à½ĺ à½ĵà½ĺ
à½Ĺ à½£
à½Ĥà½ī à½Ĥà½¦
à¼į à¼ĭà¼ĭ
à½Ħà½¦ à½Ķ
à½¨ à½ī
à¾Ĳ à½±à¼ĭ
à½ĸà½¦ à½¢
à½¢ à½İ
à½ĳà½Ķ à½ĳ
à½Ĭ à½Ģ
à¼© à¼¦
à½¼à¼ĭ à¼İ
à½Ĥ à½Ķà½¢
à¾ŀ à½±à¼ĭ
à¼ ŀ
à¾Ĳà¾² à¾Ģà¼ĭ
à¾± à¾Ģ
à¼ĭà½Ī à½²à¼ĭ
à¾ļ à½±à¼ĭ
à½Ĥ à½Ŀ
à½« à½¥
à½¼à¼ĭà¼ĳ à¼ĳ
à½ĺ à½ĳà½Ĥ
Ġ à½Ĥà½Ļà½Ħ
à½ĵ à½Ģ
à½¼à¼ĭ à¼´
à½¼à¼ĭ à½Īà½²
à½Ĥ à½Ĳ
à½Ĥà½ħ à½Ĥà½¦
à¼Ŀ à¼Ŀ
à¼į à¼Ī
à¾² à¾±à½²à¼ĭ
à¼ĭà½Ī à½ºà¼ĭ
à¼§ à¼¢
à½Ĥà½ĵ à½Ħà½¦
à½´à¼ĭ à¼½
à¼· à½ºà¼ĭ
à½£ à½Ķ
à¾¨ à¾±à½²à¼ĭ
à½ī à½§
à¾ŀ à½²à¼ĭ
à½£ à½£
à¾« à½¼à¼ĭ
à½ĺà½ĳ à½¦
Ġ à½Ħ
à½¢ à½Ķ
à¼¨ à¼©
à½²à¼ĭ à½¼
à½Ĵ à½ĵà½Ł
à¾±à¼ĭ à¼ĳ
à¾· à¾Ń
à¼¢à¼ł à¼¡à¼¡
Ġ à¼¡à¼ł
à½Ķà½¢ à½¦
à½¨ à½¥
à½Ľ à½Ķ
à¾Ļ à½±
à½ĸà½¢ à½Ĥ
à¾² à¾³
à½Ĺ à½ĳ
à½£ à½łà½ĺ
à¼© à¼£
à½Ĺ à½Ĳ
à½ĳà½Ĥ à½£
à¼į à¼ĭà¼ĭà¼ĭ
à¾Ł à¾±à½ºà¼į
à¾Ł à¾²à½²à¼ĭ
Ġ à¼ĭà¼į
à¾·à¾£ à½±
à¾· à½»à¼ĭ
à½Ĥà½¡ à½ĺ
à¾± à½»
à½Ł à½ļ
Ġ à½¡à½Ħ
à¾ĥ à¼Ķ
à½¡ à½ķ
à½Ĥà½¤ à½Ĥ
à¾ ¼
à¾¨ à½±à½¿à¼ĭ
à¾¡à¾·à½¼ à¾ħ
à¼© à¼¢
à½ĺà½¦ à½ĳà½Ķà½ł
à½½ à¼įà¼į
à½±à½´ à¼į
à¼ĭà½Ī à¾¤à¾±à½²
Ġ à½Ĥà½Ħ
à½ĸà½¤ à½¦
à½¼à¾ħ à¼ĭ
Ġ à½ĸà½ŀ
à½ĸà½¢ à½Ĥà½¦
à¾³ à¾Ģà¼ĭ
à½¢ à½ĸà½ł
à¾Ł à½¾à¼į
à¾Ń à½¼
à¾Ł à¾²à½ºà¼į
à¼ĭà¼ĭà¼ĭà¼ĭ à¼ĭà¼ĭ
à¾¤ à½ºà¼į
à½ĺ à½ĸ
à½ºà¼ĭ à¼½
à¾² à½»à¼ĭ
à¾±à½²à¼ĭ à¼´
à½² à½²à¼ĭ
à¼ĭà½Ī à¾²à½º
à½łà½ «
à½Ĵ à½İ
à¼Ģ à½ĺ
à¾²à¾Ń à¼į
à¼ĭà¾¢ à½²à¼ĭ
à½¦à½Ħà½¦ à½¢
à¼¨ à¼¢
à¾¡à¾· à½¾à¼į
Ġ à½ĸà½ħ
à¼ĭ à¾±à½²à¼ĭ
à¾±à½²à¼ĭ à¼ĳ
à½Ģ à½ª
à¾Ł à½¿à¼į
à¼¡à¼¢ à¼ł
à½Ĳ à½Ĳ
à½² à½²
à¼© à¼¥
à¼© à¼¡
à¼ĭà½¼à¼ĭ à½ºà¼ĭ
à½ł à½Ĳà½ĺà½¦
à¾¡ à¼įà¼į
à½Ĥ à½¢à½ĸ
à½Ħ à½ĸà½¢
à½¦ à½ĳà½Ħ
à¼¨ à¼¦
à½£ à½¡
à¾Ĵ à½ºà¼į
à¾« à¼į
à¾± à½±à½¾à¼į
à¾¤ à¾±à½´
à½Ķ à½ĳà½Ĥ
à½ĵ à½ŀ
à¼ĭà¼ĭà¼ĭà¼ĭ à¼ĭà¼ĭà¼ĭ
à¼ Ļ
à½Ĵ à½ĵà½¡
à¾· à½¾à¼į
à½ĸà½ı à½ĸà½¦
½ ľ
à ½ľ
à½łà½ģ à½Ħ
à¼ĭà¼Ŀ à¼įà¼į
à½Ł à½ĸà½¦
à¼¨ à¼¥
à½¢à½Ħ à½ĸà½ŀ
Ġà¼įà¼į à¼įà¼į
à¾² à½¾à¼į
à½« à½Ĳ
à¼ĭà¾ ¾
à¼ĭà¼į à¼Į
à½£ à½ī
à¾¡à¾· à½¿à¼ĭ
à½ĸà½¦ à½ĸà½¦
à¾© à½²à¼įà¼į
à¼© à¼¤
à½Ķ à½Ķ
à½ħ à½¦
à½¼à¼ĭ à¼Ħà¼ħà¼įà¼į
à½ĸà½Ł à½¢
à¼ĭà½µ à½¾à¼į
à¾ļ à½²à½¾à¼ĭ
à¾±à½² à¼·à¼ĭ
à½ĳ à½ĸà½¦
à¾· à½ºà¼į
à½łà½Ľ à½ł
à¾² à½¿à¼ĭ
à¼¨ à¼£
à½ķ à½Ľ
à½Ĺà½ļ à½Ĳ
à½¼à¼ĭ à¼½
à¾ľ à½ºà¼ĭ
à½ĸ à½¡
à½ĸà½¤ à½¢
à¾·à½±à½² à½¿à¼ĭ
à½ł à½¢
à½Į à½ł
à¾¤ à¾²à½ºà¼ĭ
à½£ à½ĸà½¢
à½± à½ºà¼ĭ
à½ķ à½Ĳ
à½± à½¿à¼įà¼į
à¾ŀ à¾ŀà¼ĭ
à¼¡à¼¥ à¼ł
à½¼ à½¾
à¾¦ à¼į
à½´à¼ĭ à¼¼
à¾Ĳ à¼į
à½Ĩ à½Ħà½¦
à¼¨ à¼¤
à½ĵ à½ī
à½ŀ à½¦
à¼¡à¼¤ à¼ł
à½Ĥà½ĵ à½ĵ
à½ĸ à½ī
à½ĳ à½ĳà½Ħ
à½´à¼ĭ à¼´
à½Ĵ à½ı
à½Ĵ à½¡
Ġ à½§
à½¡à½Ħ à½ĳà½Ĥ
à¾² à¾«à½´
Ġ à½ĸà½Ģà½ł
à¼łà¼łà¼łà¼ł à¼łà¼łà¼łà¼ł
à¾± à¾²à½ºà¼ĭ
à¾¤ à½²à¼ĭ
à½ĺà½Ħ à½ĵ
à½Ĥà½¦ à½Ķà½¢
à¾Ł à¾Ńà¼ĭ
à¼ĭ à¾±à½²
à½ĸà½¢ à½łà½Ĥ
à½ĸà½Ĥ à½ĺ
à½Ģ à½Ĥ
à¼¡à¼£ à¼ł
à½¦ à½¡
à¾±à½²à¼ĭ à½Ī
à½ħ à½ł
à¾¥ à½ºà¼ĭ
à½łà½Ľ à½¢
à¼¨ à¼§
à½« à½Ĥ
à¾¤ à½±à¼ĭ
à½±à½² à¼Ķ
à¼ĭ à½ºà¼į
à¼¡ à¼¡à¼ł
à¾Ł à½±à¼į
à¾¡ à¾·à½²
à¼¢à¼ł à¼¡à¼£
à¼ĭà¼į à¼½
à½Ĥà½ŀ à½¢
à¼¢à¼ł à¼¡à¼¢
à½Ķ à½¡à½Ħ
à½łà½ķ à½Ĥ
à¼ Ħà¼įà¼į
Ġà¼ĭà¼ĭà¼ĭà¼ĭ à¼ĭà¼ĭ
à¾© à½±à¼ĭ
à¼Ģ à½¦à½¢
à½Ĥà½Ł à½ĸà½¦
à½²à¼ĭ à¼¸
à¾ķ à½ºà¼į
à¾ª à½±
à¾Ł à½¿à¼ĭ
à½Ģ à½łà½ĺ
à¼¡à¼§ à¼ł
à½Ĭ à½¦
Ġà¼ Ħà¼įà¼į
à¼¢à¼ł à¼¡à¼¤
à½´à¼ĭ à¼º
à¼ĭà¼ĳ à¼ĳ
à½Ķà½¢ à½Ĥ
à¾¶ à½¾à¼ĭ
à¼¢à¼łà¼ł à¼ł
à¼¢à¼łà¼ł à¼©
à½Ĺ à½ģ
Ġ à¼¡à¼¢
à½ĳ à½¡
à¾Ĵ à¾·à¼ĭ
à¾²à¾Ģ à¼į
à¾£ à½´à¼ĭ
Ġ à½ĺà½ĳ
à½Ĳ à½ĵà½Ł
à¾¥ à½´
à½ĵ à½Ķà½¦
à½±à½´à¾ĥ à½¿à¼ĭ
à¼į à¼ĭà¼ĭà¼ĭà¼ĭà¼ĭà¼ĭà¼ĭà¼ĭà¼ĭà¼ĭà¼ĭà¼ĭà¼ĭà¼ĭà¼ĭà¼ĭ
à½Ĵ à½ł
à½Ĵ à½Ĥà½£
à¾ª à½ºà¼ĭ
à½²à¼ĭ à½º
à½Ķà½ł à½ĳ
à½» à½¾à¼ĭ
à¼· à½¼à¼ĭ
à½Ĥà½¦ à½Ģ
à½¥ à½Ĭ
à¾¤à¾²à½¼ à¼į
à½¢ à½ŀ
à½² à½¿à¼įà¼į
à¾± à¾¤à½º
à½łà½ļ à½Ĥ
à¼į à¼Į
à¾± à½±à½²
à½Ł à½«
à¾Ĺà½º à¼Ķ
à½ĺ à½ı
à¾Ń à½±à¼į
à¼¡ à¼¡à¼¦
à¼ĭà½Ī à¾·à½²
à¾» à½±à¼ĭ
à¾Ĵ à¼į
à¾Ł à½±à½²à¼ĭ
à¾Ľ à½±à¼ĭ
à¾²à½² à½¿à¼ĭ
à¼¡ à¼¡à¼£
à¾± à¾Ĺà½º
à¾³ à¼Ķ
à½ĳ à½ª
à½Ķ à½£à½¦
à½¥ à½¢
à¼ĭà¼ĭà¼ĭà¼ĭà¼ĭà¼ĭà¼ĭà¼ĭà¼ĭà¼ĭà¼ĭà¼ĭ à¼ĭà¼ĭ
Ġ à½Ļ
à½ºà¼ĭ à¼´
à¼Ģ à½ĵ
à½¨ à½Ķ
à½±à½² à½¿à¼ĭ
à¾ŀ à¾ŀ
à½Ķ à½ĸà½¦
à½Ĥ à½łà½ĺ
à¾³ à½±à¼ĭ
à¼¡à¼¨ à¼ł
à¼¢à¼ł à¼¡à¼¥
à¾Ł à¾±à½ºà¼ĭ
à½» à½¿à¼ĭ
à¼¢à¼ł à¼¡à¼ł
à½ĵ à½łà½ĺ
à½² à¼µà¼ĭ
à½Ĥà½Ļ à½Ĥà½¦
Ġ à¼¡à¼£
à½Ĺ à½«
Ġ à½ĺà½Ĩ
à½ı à½£
Ġ à½ĳà½ĸà½Ħ
à½ĵ à½łà½ĳà½¦
à½£ à½Ĭ
à¾±à½¼ à¼į
à½ĸà½ĸ à½ĸ
Ġ à½łà½ĩ
à¾Ł à¾±à½º
à½Ķ à½Ĩ
à¾· à½¼à¼įà¼įà¼įà¼į
à¾·à½² à½¿à¼į
à¼¡à¼©à¼¨ à¼©
à¼¡ à¼¡à¼¢
à¼¢à¼łà¼ł à¼¨
à½Ľ à½ĸ
à½¦ à½ī
à½Ĥ à½ĳà½Ĥ
à¼µ à½¼
Ġ à¼¡à¼¥
à½ł à½Ĳà½ĸà½¦
à¾¨à¾² à¾Ģà¼ĭ
à¾µ à½²
Ġ à½ĳà½ĺ
à½ł à½ĵ
à½łà½ĸ à½ĺ
à¾ª à½²à¼ĭ
à¼ĭà¾ ĵ
à½Ľ à½¢
à½ĵ à½ĳà½Ħ
Ġà¼ Į
à¼¡à¼©à¼¥ à¼ł
à¼¡ à¼¡à¼¤
à½ºà¼ĭ à½Ī
à½¼ à¼µ
Ġ à½ĸà½ĳà½Ĥ
à½Ĵ à½Ĳà½Ħ
à½£ à½ı
à½¼ à½¼
à½İ à½¦
à¼ĭà¼ĭà¼ĭà¼ĭà¼ĭà¼ĭà¼ĭà¼ĭà¼ĭà¼ĭà¼ĭà¼ĭ à¼ĭà¼ĭà¼ĭ
à¾² à½±à½´à½¾à¼ĭ
à½Ĩ à½łà½ĺ
à½łà½ ¥
Ġ à¼ĭà¼ĭà¼ĭà¼ĭà¼ĭà¼ĭà¼ĭà¼ĭà¼ĭà¼ĭà¼ĭà¼ĭà¼ĭà¼ĭà¼ĭà¼ĭ
à½£ à½ĸà½¦
à½´à¼ĭ à¼¸
à½º à½¿à¼ĭ
à½ĵ à½ħ
à½Ĥ à½Ĩ
à¼¡à¼¦ à¼ł
à¼¡à¼¡ à¼¡
à¾Ķà½¼ à¼Ķ
à½ĺà½¦ à½ħà½ĵ
à½Ĺ à½¦
à½ķ à½Ģ
à¼ĭà½Ī à¾±à½º
à½ĸà½Ģ à½ĳ
à½Ķà½¢ à½¤
à¾ľ à½±à¼ĭ
à¼ĭ à¾¨à¼ĭ
à¼ĭ à¾²à½²à¼ĭ
Ġ à½ĳà½Ķ
à½ķà½Ŀ à½«
à¼¡à¼© à¼¦à¼ł
à¼¡ à¼¡à¼§
à¾Ń à½±à½²à¼ĭ
à½Ģ à½«
à½Ĥ à½ģ
Ġ à½Ĥà½ŀ
à½Ĩ à½łà½Ħ
à½ĳà½Ĥ à½Ķà½¢
à¼¢à¼ł à¼¡à¼¦
à½¥ à½Ħà½¥
à½Łà½Ĳ à½¥
à¼¡ à¼¡à¼¨
à½Ĥà½ħ à½¢
à¼£ à¼łà¼ł
à¾·à½²à¼ĭ à¼´
à½Ĵ à½Ĳ
à½ĸ à½Ķà½ł
à¾Ĳ à½²
à½£ à½ģ
à¾¡à¾· à½¾à¼ĭ
à½´ à½¾à¼į
à¼¡ à¼¡à¼¥
à¾·à¾± à½±à½¾à¼į
à¼ĭ à½±à¼ĭ
à½ĵ à½ĸà½¦
à¼į à¼ĭà¼ĭà¼ĭà¼ĭà¼ĭà¼ĭà¼ĭà¼ĭ
à¾ļ à½±
à½´à¼ĭ à½Ī
Ġ à½Ĥà½ĵà½¦
à½Ķà½¦ à½¦
à½Ķ à½¤
à¾Ļ à½¼à¼ĭ
à½Ķà½¢ à½ĺ
Ġ à½łà½ĩà½ĺ
à¼µ à¼į
à¼¡à¼©à¼¨ à¼¥
à¼¡à¼ł à¼£
à¼ĭà¾¢ à½ºà¼ĭ
à½ĸà½ħ à½ĸ
Ġ à¼¡à¼¤
Ġ à¼¡à¼§
à½¦ à½¢à½ĸ
à½Ĺ à½Ħ
à½±à½´à¾ĥ à¼įà¼į
à½§à½§à½§à½§ à½§à½§à½§à½§
à¾± à¾±à½²à¼ĭ
à½Ĥà½ĳ à½¢
à¼¡à¼ł à¼¨
à¾ŀ à½±à½²à¼ĭ
à½¦ à½Ĥà½¥
à½¡ à½İ
à¾Ĳà¾± à¾²à½º
à¼¡à¼ł à¼¤
à¼¡à¼©à¼© à¼¢
à½¦ à½¤
à¼ĭà¼½ à¼¼
à¾ķ à½²à¼įà¼į
à¾± à¾·à½²
à½²à¼ĭ à½Īà½²
à½Ģ à½ĳ
à½ĺà½¦ à½¦
Ġ à¼¡à¼¦
à¾¦ à¾·à½²à¼ĭ
à½¦ à½ĵà½¦
à½Ĵ à½Ĩ
à¾¤ à¾²à½´à¼ĭ
à½²à¼ĭà½Ī à½º
à¼ĭà¾¢ à½±à¼ĭ
à¼¡à¼©à¼¥ à¼¨
à½Ĵ à½ĸ
à¼¢à¼łà¼ł à¼¦
à½Ĥ à½łà½Ħ
à¼½ à¼¼
à¼¡à¼©à¼© à¼ł
à½Ĥà½ħ à½ĺ
Ġ à½ĺà½Ħ
à¼¡à¼ł à¼©
à½ĸ à½Ķà½¢
à½ĸà½ĳà½Ĥ à½ī
à½łà½ļ à½Ħà½¦
à¾Ĵà¾² à¾±à½²
à¾¨ à½»à¼ĭ
à¾±à½²à¼ĭ à¼¼
à½¦ à½Ķà½¦
à½İ à½¢
à¼ĭ à¾¡à½¼
à½¼à¼į à¼½
Ġ à½Ĥà½Ł
à½¼ à½¼à¼ĭ
à¾±à½² à½²à¼ĭ
à¾« à¾Ļà½±à¼ĭ
à¾ĭ à½Ķà½İ
Ġà¼ĭà¼ĭà¼ĭà¼ĭà¼ĭà¼ĭà¼ĭà¼ĭà¼ĭà¼ĭà¼ĭà¼ĭà¼ĭà¼ĭà¼ĭà¼ĭà¼ĭà¼ĭà¼ĭà¼ĭà¼ĭà¼ĭà¼ĭà¼ĭà¼ĭà¼ĭà¼ĭà¼ĭà¼ĭà¼ĭà¼ĭà¼ĭà¼ĭà¼ĭà¼ĭà¼ĭà¼ĭà¼ĭà¼ĭà¼ĭà¼ĭà¼ĭà¼ĭà¼ĭà¼ĭà¼ĭà¼ĭà¼ĭà¼ĭà¼ĭà¼ĭà¼ĭà¼ĭà¼ĭà¼ĭà¼ĭà¼ĭà¼ĭà¼ĭà¼ĭà¼ĭà¼ĭà¼ĭà¼ĭ à¼ĭà¼ĭà¼ĭà¼ĭà¼ĭà¼ĭà¼ĭà¼ĭà¼ĭà¼ĭà¼ĭà¼ĭà¼ĭà¼ĭà¼ĭà¼ĭ
Ġ à½¦à½Ħà½¦
à½Ĺ à½Ł
à¼ĭà¼ĭà¼ĭà¼ĭà¼ĭà¼ĭà¼ĭà¼ĭà¼ĭà¼ĭà¼ĭà¼ĭà¼ĭà¼ĭà¼ĭà¼ĭà¼ĭà¼ĭà¼ĭà¼ĭà¼ĭà¼ĭà¼ĭà¼ĭà¼ĭà¼ĭà¼ĭà¼ĭà¼ĭà¼ĭà¼ĭà¼ĭ à¼ĭà¼ĭà¼ĭà¼ĭà¼ĭà¼ĭà¼ĭà¼ĭ
à¾Ńà½± à¾ĥà¼ĭ
à¼¡à¼¢ à¼§
Ġ à½łà½ķà½Ĥà½¦
à½Į à½¢
à¼¡ à¼¡à¼©
à¼¡à¼ł à¼¥
à½ºà¼ĭ à¼¼
à¾Ļ à¾±à½²
à¼¡à¼©à¼¥ à¼¡
à½Ļ à½ĸ
à¾± à½»à¼į
à½Ķ à½ĸà½ŀ
à¾²à½º à½¾à¼ĭ
à¾± à¾±à½º
à½ĩ à½¢
à½¦ à½ŀ
à½£ à½¡à½Ħ
à½¼à¼ĭ à½Ī
Ġà¼ĭà¼ĭà¼ĭà¼ĭ à¼ĭà¼ĭà¼ĭ
à½łà½ģ à½£
à¼¡à¼ł à¼§
Ġ à½Ĥà½ŀà½ĵ
Ġ à¼¡à¼©
à¾µ à½¿à¼ĭ
à¼¡à¼©à¼© à¼©
à¾µ à½¼à¼ĭ
à¾Ĳà¾± à¾²à½ºà¼ĭ
à½ĺà½¦ à½ĳà½Ħ
Ġ à½Ĥà½¦à½Ħ
à¾² à½±à½´à¼ĭ
à¼¡à¼ł à¼¦
à¼¡à¼©à¼¨ à¼§
à¾± à½±à¼į
à½łà½Ľ à½Ħà½¦
Ġ à½Ĥà½ı
à½łà½ĸ à½Ħ
à¾± à½±à½¾à¼ĭ
à¾Ĳà¾± à½¼à¼įà¼į
à¾Ł à¼Ķ
à½ĺ à½¤
à½łà½Ĳ à½ĺ
à¾²à½´ à¾ĥà¼ĭ
à½¼à¼· à¼įà¼į
à¼¡à¼ł à¼¢
à½ķà½ħ à½¥
à½ĺ à½Ģ
à½±à½´ à½¾à¼įà¼į
à¾ŀ à¼į
à¼¡à¼ł à¼¡
Ġ à½Ĥà½¤
à½±à½² à½¾à¼ĭ
à½Ĥà½¤ à½¢
à¼¡à¼¢ à¼£
à½ĥ à½¦
à¼Ģ à½ĸ
à½Ĥà½Ħ à½Ĥ
à¼¡à¼¢ à¼¦
à¾±à½´ à¼įà¼į
Ġ à¼¡à¼¡
à¼¡à¼©à¼¨ à¼ł
à¼¡à¼©à¼© à¼¡
à½ĵ à½ĵà½¦
à¾· à½±à¼į
à¼ĭà½Ī à¾¦à¾·à½±à½²
Ġ à¼¡à¼¨
à¾±à½º à¼Ķ
à¾Ĺ à½²à¼ĭ
à½ĵ à½Ĥà½¤
Ġà¼ł à¼łà¼ł
à¾Ł à¾²à½±à½²à¼ĭ
à½Ħ à½ŀ
à½ĳà½Ħ à½ĸà½ħà½¦
à½ĺà½ļà½ĵ à½ī
à½²à¼į à¼ĭà¼ĭà¼ĭà¼ĭà¼ĭ
à½ŀ à½ĳ
à½Ħà½¦ à½Ķà½ł
à½Ĵ à½Ħ
à½ĳà½Ħ à½ĸ
à¾±à½²à¼ĭ à¼Ħà¼ħà¼įà¼į
à¼įà¼ĭà¼ĭà¼ĭà¼ĭà¼ĭà¼ĭà¼ĭà¼ĭà¼ĭà¼ĭà¼ĭà¼ĭà¼ĭà¼ĭà¼ĭà¼ĭà¼ĭà¼ĭà¼ĭà¼ĭà¼ĭà¼ĭà¼ĭà¼ĭà¼ĭà¼ĭà¼ĭà¼ĭà¼ĭà¼ĭà¼ĭà¼ĭà¼ĭà¼ĭà¼ĭà¼ĭà¼ĭà¼ĭà¼ĭà¼ĭà¼ĭà¼ĭà¼ĭà¼ĭà¼ĭà¼ĭà¼ĭà¼ĭà¼ĭà¼ĭà¼ĭà¼ĭà¼ĭà¼ĭà¼ĭà¼ĭà¼ĭà¼ĭà¼ĭà¼ĭà¼ĭà¼ĭà¼ĭà¼ĭ à¼ĭà¼ĭà¼ĭà¼ĭà¼ĭà¼ĭà¼ĭà¼ĭà¼ĭà¼ĭà¼ĭà¼ĭà¼ĭà¼ĭà¼ĭà¼ĭ
à½ĵà½¦ à½¦
à½ĸà½Ł à½ĸà½¦
à½Ĺ à½Ĳà½Ħ
à½Ķ à½ķ
à¾¡ à¾²à½²à¼ĭ
à¼į à¼ĭà¼ĭà¼ĭà¼ĭà¼ĭà¼ĭà¼ĭà¼ĭà¼ĭà¼ĭà¼ĭà¼ĭà¼ĭà¼ĭà¼ĭà¼ĭà¼ĭà¼ĭà¼ĭà¼ĭà¼ĭà¼ĭà¼ĭà¼ĭà¼ĭà¼ĭà¼ĭà¼ĭà¼ĭà¼ĭà¼ĭà¼ĭà¼ĭà¼ĭà¼ĭà¼ĭà¼ĭà¼ĭà¼ĭà¼ĭà¼ĭà¼ĭà¼ĭà¼ĭà¼ĭà¼ĭà¼ĭà¼ĭ
à¾¦ à¾±à½²à¼ĭ
à¾Ĵ à¾·
à½± à½¼
Ġà¼Ħà¼ħ à¼į
à½ĸà½ŀ à½Ĥà½¦
à½« à½Ħ
à¼¡à¼©à¼© à¼£
à½¼à¼įà¼į à¼Į
à¾·à¾± à½±
à½ĸà½¢ à½¦
Ġ à½ĩ
à¾¤à¾± à½¼à¼įà¼į
à¼¡à¼©à¼¨ à¼¨
à¼¡à¼¢ à¼©
à ¿
à¾ł à¼į
à½Ģ à½ī
à½ı à½Ķ
à¼Ŀ à¼į
à¼¡à¼¢ à¼¥
à¾µ à¾¨
à½¡ à½Ĥà½¦
à¾²à½¼ à½¾à¼ĭ
à½Ķ à½Ĥà½Ħ
à¾° à¼ĭ
à¾¦ à¾²à½¼
à½£ à½ŀ
à¾Ł à½¼à¼įà¼į
à¼Ģ à½§
à½Ĳà½Ģ à½¡
à½´ à½´à¼ĭ
à¾¾à¾¾ à¾¾à¾¾
à¼¡à¼¢ à¼¢
à¾¨ à½²à¼į
à½łà½ķ à½ĺ
à½łà½Ľ à½Ĥà½¦
à¼ĭà¼įà¼į à¼į
à¼¡à¼£ à¼©
à½Ĥà½¦ à½ĺ
à¾ľ à½´à¼ĭ
à½Ģ à½ı
à½ħ à½ĺ
à¼¡à¼©à¼© à¼¥
à½²à¼ĭà¼ĳ à¼į
à¼µ à½²
à¾£ à¾²à½¼
à¾¦à¾· à½ºà¼į
à¾¡à¾· à½²à¼į
à½¨ à½ļ
à¼Ģ à½¦
à¼¢à¼łà¼ł à¼¢
à¾ļ à½¾à¼ĭ
à¼¡à¼£ à¼¥
à¼¢à¼łà¼ł à¼¡
à¾¦ à¾·à½¼à¼ĭ
à¾´ à½²à¼ĭ
à½£à½¦ à½ĸ
à½Ĥà½¦ à½Ħà½¦
à¼¢à¼łà¼ł à¼£
à¾· à¾²à½²à¼ĭ
à½łà½Ĥ à½ĺ
à¾¥ à½º
à¾¦ à¾¦
à½Ĺ à½ł
à¼ĭà½Ī à¾±à½²à¼ĭ
à¾²à¾Ģ à½¿à¼ĭ
à¾¡ à¾²à¼į
à½¤ à½ı
à¼µ à½²à¼ĭ
à½ĸ à½ª
à¼¢à¼łà¼ł à¼¥
à½Ĥ à½łà½¥
à¼¡à¼£ à¼£
à½Ĵà½ĵ à½¥
à¼łà¼łà¼łà¼ł à¼ł
à½Ķ à½Ĳà½ĺà½¦
à¼¡à¼©à¼© à¼§
à¾± à¼·à¼ĭ
à½ĺà½¦ à½£
à¼Ħà¼ħ à¼į
à¼¡à¼¤ à¼¢
à½ĸà½¦ à½¦
à¾· à½´à¼į
à¼£à¼ł à¼¡
à½ķà½£ à½Ĳ
à¾Ł à¾Łà¼ĭ
à½¢à½ĸ à½ı
à½ĸà½¤ à½Ĥ
Ġ à½ĺà½ļà½ĵ
à¾¨ à¾±à¼ĭ
à½Ĥà½¦ à½ł
à¼¡à¼¢ à¼¡
à¼¡à¼©à¼§ à¼©
à½Ĵ à½£
à¼¡à¼£ à¼¦
à¾± à¾Ĳà¾±à½º
à½Ĥà½Ħ à½¡
à¾³ à¾¡à½¼
à¾Ļ à½ºà¼į
à¾±à½²à¼ĭ à¼º
à½¢ à½ĸà½¢
à½© à½İ
à½Ł à½ķ
à¾Ĵà¾±à½´ à¼Ķ
à¾³ à½±à½²à¼ĭ
à½´ à¼µ
Ġ à½£à½ĺ
Ġ à¼¢à¼ł
à½ķà½Ł à½«
à¼¡à¼£ à¼¤
à½ĸ à½ĺà½¦
à½¨ à½İà½ł
à¼¥ à¼łà¼ł
à¾±à½» à¼Ķ
à¼¡à¼¥ à¼©
à½¦ à½Ł
à¼¡à¼£ à¼§
à¾¤à¾±à½² à¼įà¼į
à¼¡à¼¥ à¼¥
à½ºà¼ĭ à½Īà¾±à½²
à¾£ à½ºà¼į
à½¡ à½Ľ
à¼¡à¼¤ à¼¤
à½´ à¼µà¼ĭ
à¼¡à¼¢ à¼¤
à¼¡à¼¤ à¼£
½ ³
à ½³
à¼¡à¼¥ à¼¤
à½ĺà½ī à½ĺà½¦
à¼¡à¼£ à¼¢
à½Ĥà½Ļ à½Ĥ
à¼¡à¼£ à¼¨
à½Ķ à½Ĳ
à¼¡à¼©à¼© à¼¦
à½ł à½£
à½¡à½Ħ à½ĺ
à¼¢à¼łà¼ł à¼§
à½¦à½Ģ à½ĸà½¦
à½Ķ à½ļ
à½Ĥà½¦ à½Ķà½¦
à¾£ à¼·
à½¼à¼ĭ à½Īà¾±à½²
à¼¡à¼¤ à¼©
à¼¡à¼©à¼¨ à¼¦
à½ĸà½Ļ à½ĺà½¦
à½Ī à½º
à½Ħ à½ĸà½¦
à¾Łà½´ à¼įà¼įà¼įà¼į
à½łà½ĳ à½£
à¾£ à½±
à¼¡à¼£ à¼¡
à½ĸà½ĳà½Ĥ à½Ĥ
à½¢ à½ĳà½Ħ
à¾²à½± à¾ĥà¼ĭ
à¾Ń à¼įà¼į
à½ķ à½Ĥà½¦
à½ĳà½ĺ à½ĳ
à½± à¾Ģà¼į
à¼¡à¼¤ à¼§
à¼¡à¼¥ à¼¦
à¼¡à¼¤ à¼¥
à½£ à½ĸà½ł
à¾³ à½±à¾Ģà¼ĭ
à¾¨ à½»
à¾ŀ à½´à¼ĭ
à¾Ģ à½¾à¼ĭ
à¼¡à¼¤ à¼¡
à¼ĭà¾İ à¼į
à½Ĵ à½Łà½Ĳà½¥
à½ķ à½ŀ
à¾² à½¿à¼į
à¼¡à¼¤ à¼¦
à¾Łà½´ à¼įà¼į
à½¦ à½Ĳ
à¾« à½±à¼ĭ
à¾²à½±à½² à½¿à¼į
à¼ĭ à¼ĭà¼į
à½ı à½ĸ
à¼¡à¼¥ à¼£
à½Ĥ à½«
à¼¡à¼§ à¼£
à½£à½¦ à½¦
à½© à½¦
à½£ à½ķ
à½Ĥà½Ħ à½ŀ
à½¦ à½Ļ
à¼¢à¼łà¼ł à¼¤
à¼¡à¼©à¼¥ à¼¦
à¾² à¾²à½º
Ġ à½ĳà½Ģ
à½ı à½Ģ
à½ĸà½ŀ à½ĵ
à½Ķ à½ª
à¾·à¾² à½±à½´à¾ĥà¼Ķ
à¼¢à¼¥ à¼ł
à½ĳà½Ģ à½ĵ
à½Ķ à½ģ
à½ĳà½Ħ à½Ķ
Ġ à½Ķà½¦
à¼¡à¼©à¼© à¼¤
à¼¡à¼©à¼¨ à¼£
à¾£ à½²
à¼ĭà¼ Ħà¼įà¼į
à½Į à½£
Ġ à½Ĥà½ħ
à½ĵ à½Ĩ
à½Ļ à½£
à¾¦à¾± à½¼à¼ĭ
à¼įà¼ĭà¼ĭà¼ĭà¼ĭà¼ĭà¼ĭà¼ĭà¼ĭà¼ĭà¼ĭà¼ĭà¼ĭà¼ĭà¼ĭà¼ĭà¼ĭà¼ĭà¼ĭà¼ĭà¼ĭà¼ĭà¼ĭà¼ĭà¼ĭà¼ĭà¼ĭà¼ĭà¼ĭà¼ĭà¼ĭà¼ĭà¼ĭà¼ĭà¼ĭà¼ĭà¼ĭà¼ĭà¼ĭà¼ĭà¼ĭà¼ĭà¼ĭà¼ĭà¼ĭà¼ĭà¼ĭà¼ĭà¼ĭà¼ĭà¼ĭà¼ĭà¼ĭà¼ĭà¼ĭà¼ĭà¼ĭà¼ĭà¼ĭà¼ĭà¼ĭà¼ĭà¼ĭà¼ĭà¼ĭ à¼ĭà¼ĭà¼ĭà¼ĭà¼ĭà¼ĭà¼ĭà¼ĭà¼ĭà¼ĭà¼ĭà¼ĭà¼ĭà¼ĭà¼ĭà¼ĭà¼ĭà¼ĭà¼ĭà¼ĭà¼ĭà¼ĭà¼ĭà¼ĭà¼ĭà¼ĭà¼ĭà¼ĭà¼ĭà¼ĭà¼ĭà¼ĭà¼ĭà¼ĭà¼ĭà¼ĭà¼ĭà¼ĭà¼ĭà¼ĭà¼ĭà¼ĭà¼ĭà¼ĭà¼ĭà¼ĭà¼ĭà¼ĭà¼ĭà¼ĭà¼ĭà¼ĭà¼ĭà¼ĭà¼ĭà¼ĭà¼ĭà¼ĭà¼ĭà¼ĭà¼ĭà¼ĭà¼ĭà¼ĭ
à¼¡à¼©à¼¨ à¼¢
à¾Ł à½¾
à¼¡à¼¥ à¼§
à¼¡à¼¤ à¼¨
à½ĺ à½Ķà½ł
à¾² à¾Ĺà½º
à¾± à¾¡à½¼
à½© à½¢
à½ĺà½Ĩ à½ĳ
à½¨ à½¡
à½Ł à½Ļà½¢
à¼¡à¼¥ à¼¨
à¾ķ à½²à¼į
à¼¡à¼¦ à¼¨
à½ĵ à½łà½ĳ
à½ĺà½¦ à½¢
à¼¡à¼© à¼¤à¼©
à¾· à½¿à¼ĭ
à½² à½¾à¼į
à¼½ à¼į
à¼¡à¼¦ à¼§
à¾¨ à¼įà¼į
à½ĵ à½¡à½Ħ
à¾· à¾²à½´à½¾à¼ĭ
à¼¡à¼¦ à¼£
à¾Ł à¾²
à¾º à½±à¼ĭ
à½© à½¡
à½ĳà½Ĥ à½ĵ
à¼¡à¼© à¼£
à¾Ĵ à½²
à¼¡à¼§ à¼¥
à¼¡à¼©à¼¨ à¼¤
à½¨ à½§
à¾¤ à¼į
à½Ī à½²à¼ĭ
à½ĸ à½Ĥà½Ħ
ĠĠĠĠĠĠĠĠ ĠĠĠĠĠĠĠĠ
à¾Ĵ à½²à¼ĭ
à½ĳà½Ĥà½ł à½¦
à¾·à¾² à½¾à¼ĭ
à¾· à¾²à½²
Ġ à½Ĥà½¡
à¾±à½²à¼ĭ à½Īà½¼
à¼¡à¼© à¼¤
à½Ħ à½ĳà½Ħ
à¾ķ à¼ĭ
à¼¡à¼§ à¼¢
à½© à½ı
à½Ĺà½ģ à½Ł
à¼ĭ à½¾à¼ĭ
à½Ĥà½ī à½Ĥ
à½Ĥà½£ à½ı
à¼ĭ à¾©à½¼
à¾Ł à¾±à¼ĭ
à½½ à½¾à¼ĭ
à½ģ à½łà½ĺ
à¼¡à¼©à¼© à¼¨
à¾µ à¼Ķ
à½Ļ à½¦
à¼¡à¼¦ à¼¦
à½²à¼ĭà½Ī à½¼
à½ºà¼ĭ à¼º
à½ĳà½Ħ à½ĺ
à¾« à½²à¼į
Ġ à½ĺà½Ĳ
à½ĸ à½ĳà½ĺ
à¾² à¾±à½º
à¾Ł à¾¡à½ºà¼į
à½ĵ à½¤
à¾ł à½²
à½Ĵ à½ħ
Ġ à½ĺà½Ĥ
à½İ à½ĺ
à¾·à½² à½¿à¼ĭ
à½¢à½Ħ à½Ĥ
à¾Ĵà¾± à½ºà¼ĭ
à¼¡à¼¦ à¼¤
à½¦ à½ĺà½¦
à½Ķ à½ĸà½¢
à¼¡à¼§ à¼¤
à½¢ à½¡
Ġ à½ĸà½ł
à½ł à½ł
à½¼à¼įà¼į à¼Ī
à½Ĵ à½Ĺ
à¾Ħ à¼Ķ
à¼¡à¼¥ à¼¢
à¾´ à½ºà¼ĭ
à½Ĥà½¦ à½ĳà½Ħ
à½Ķà½¢ à½ĸà½¦
à¼¡à¼¦ à¼©
à½¡ à½ģ
à¾¨ à¾¨à½±à¼ĭ
à½Ĥà½¡ à½ĸà½¦
à¼¡à¼§ à¼©
à½±à½´ à¾Ĥà¼ĭ
à¾± à¾¤à¾±à½²
à¾· à½¼à¼įà¼į
à¼¢à¼ł à¼¡à¼§
à¼¡à¼¦ à¼¡
à¼¡à¼¦ à¼¢
à½łà½ĸ à½ĵ
à¼Ŀ à¼įà¼į
à½Ķ à½Ĥà½ī
Ġ à½ĸà½¦à½ĺ
à¾² à½±à½¾à¼į
à¼¡à¼§ à¼¨
à¼¡à¼¦ à¼¥
à¾Ĵà¾±à¼ĭ à¼Ħà¼ħà¼įà¼į
à½¦ à½łà½Ħ
à½¡ à½Ķ
à½ĳà½ĸ à½Ħà½¦
à¾£ à½¼à¼įà¼į
à¾Ĳà¾² à¾Ģ
à½¦ à½ģ
à½¡à½Ħ à½¢
à½Ĺ à½ĵà½Ł
à½±à½´ à½¾à¼Ķ
à¼¡à¼§ à¼§
à½Ĥà½ĵà½¦ à½¦
à½¦ à½ª
à¾Ł à¾¡à½º
à½ĸ à½Ĩ
à¾±à½² à½²
à½łà½ĳ à½ĺà½¦
à¾¨ à¾²à½º
à¼¡à¼¥ à¼¡
à¾µ à¾±à¼ĭ
à¼ĭà¼ Į
à½ĳà½Ħ à½ĵ
à¼¡à¼ł à¼łà¼ł
à¾² à¼·
à¼¡à¼§ à¼¦
à½± à½¾
à¼¡à¼© à¼¢
à½ĸà½ĸà½ĸà½ĸ à½ĸà½ĸà½ĸà½ĸ
à¼ŀ à¼į
à¼ĭà¼ĭà¼ĭà¼ĭà¼ĭà¼ĭà¼ĭà¼ĭ à¼ĭà¼ĭ
à½¼à¼į à¼ĭ
à½ĳ à½Ĩà½Ĥà½¦
à¾Ķ à½º
à¾³ à¾±à½¼
à½ĳ à½Ĩ
à¾Ł à¾²à½º
à½Ĵ à½Ģ
à¾¶ à½±à¼ĭ
à¼¡à¼§ à¼¡
à½ĺà½ĵ à½ĸ
à½Ĥà½ı à½Ĥà½¦
à½ºà¼ĭ à¼¸
à¼¡à¼¨ à¼¥
à½Ļ à½ı
à½¦ à½Ĳà½ĺà½¦
à½Ģ à½ĸ
à¾³ à¾³à¼ĭ
à¾¨ à¾²à½²à¼ĭ
Ġ à½ĺà½ļ
à½¢à½ĸ à½Ģ
à½² à¼µ
à½º à½¾à¼į
à¼¢à¼£ à¼ł
à½ĵ à½ķ
Ġ à½Ĳà½ĺ
à½ģ à½ģ
à¼¢ à¼¡à¼ł
à¼¢ à¼¢à¼ł
à½Ĥ à½Ģ
à½¥ à½¦
Ġà¼£ à¼ł
à¼ĭ à¾¨
à½ĥ à½ĵ
à¼ĭà¼Ħà¼ħ à¼į
à½ķ à½İ
Ġ à½łà½ķ
à½Ķà½¢ à½łà½ĸ
à½Ĭ à½£
à¾µ à½²à½¾à¼ĭ
à½Ĥà½¥ à½¢
Ġ à½ĸà½Ģ
à½Ľ à½ĳ
à½Ĥà½¥ à½Ħ
à¼ĭà¼ĭà¼ĭà¼ĭà¼ĭà¼ĭà¼ĭà¼ĭ à¼ĭ
à¾³ à¼·à¼ĭ
à½ĸ à½§
à½£ à½łà½ĸ
Ġ à½Ŀ
Ġ à½Łà½ĸ
à¾·à¼ĭ à½µ
Ġ à½ħà½ĵ
à¾Ĳà¾±à½º à¼Ķ
à½ĩ à½ĺ
à½Ģ à½¥
à¼ĭà¼ ·
à¼¢ à¼¢à¼¤
à¾¦ à½±à½²à¼ĭ
à½¦ à½łà½ĳ
à½ĸà½¦ à½Ģ
à¼Ī à¼Ī
à½¦ à½Ĩ
à¼¡à¼¨ à¼©
Ġ à½ŀà½Ħ
à¾± à¾Ń
à½Ł à½Ķ
à¾¡à½´ à¼Ķ
à¾ľ à¾ľ
à½Ĵ à½ĺ
à¼¡à¼¨ à¼¦
à¼¡à¼© à¼¡
à½¦ à½ķ
à½¢ à½¤
ģ à¾ĥà¼Ķ
à½¥ à½ı
à¼ĭà¼ĭà¼ĭà¼ĭà¼ĭà¼ĭà¼ĭà¼ĭ à¼ĭà¼ĭà¼ĭ
à½²à¼ĭ à½´
à¼¡à¼¨ à¼¢
à½Ŀ à½Ģ
à¾³ à¾³à½¼à¼ĭ
à¼¡à¼¨ à¼§
à¼¡à¼¨ à¼¤
à½ģ à½Ĭ
à½¼à¼ĭ à¼º
à½» à½¿à¼įà¼į
à¼¢à¼¤ à¼ł
à½ĳà½Ĥ à½Ĥà½¡
à½ĸà½ı à½ĳ
à½ĸà½¢ à½ĺà½¦
à½¦ à½ĸà½¢
à¾² à¾¡à½¼
à¾Ĳ à½¼à¼į
à¾²à¼ĭ à½³
à¼ĭà¼į à¼ĭà¼ĭà¼ĭà¼ĭà¼ĭ
à¼¡à¼¨ à¼¨
à½º à¼µ
à½£à½¦ à½Ģ
Ġ ĉĉ
Ġà¼ĭà¼ĭà¼ĭà¼ĭà¼ĭà¼ĭà¼ĭà¼ĭà¼ĭà¼ĭà¼ĭà¼ĭà¼ĭà¼ĭà¼ĭà¼ĭà¼ĭà¼ĭà¼ĭà¼ĭà¼ĭà¼ĭà¼ĭà¼ĭà¼ĭà¼ĭà¼ĭà¼ĭà¼ĭà¼ĭà¼ĭà¼ĭà¼ĭà¼ĭà¼ĭà¼ĭà¼ĭà¼ĭà¼ĭà¼ĭà¼ĭà¼ĭà¼ĭà¼ĭà¼ĭà¼ĭà¼ĭà¼ĭà¼ĭà¼ĭà¼ĭà¼ĭà¼ĭà¼ĭà¼ĭà¼ĭà¼ĭà¼ĭà¼ĭà¼ĭà¼ĭà¼ĭà¼ĭà¼ĭ à¼ĭà¼ĭà¼ĭà¼ĭà¼ĭà¼ĭà¼ĭà¼ĭà¼ĭà¼ĭà¼ĭà¼ĭà¼ĭà¼ĭà¼ĭà¼ĭà¼ĭà¼ĭà¼ĭà¼ĭà¼ĭà¼ĭà¼ĭà¼ĭà¼ĭà¼ĭà¼ĭà¼ĭà¼ĭà¼ĭà¼ĭà¼ĭ
à¼ĭà¼įà¼į à¼įà¼į
à¼¡à¼©à¼¨ à¼¡
à¾¤ à¾±à¼ĭ
à½ĸ à½łà½ĳ
à¾¡ à½²à¼į
à¼µ à½º
à½¼à¼ĭ à½¼
à½²à¼ĭ à½¼à¼ĭà½ºà¼ĭ
à¼ĭà¼½ à¼į
à½¼à¼įà¼į à¼Ħà¼ħà¼įà¼į
à¾¡ à¼Ķ
à½Ĥ à½ķ
à¾£ à¼įà¼į
à½Ķ à½Ĭ
à¼¢ à¼¡à¼¢
à¼¡à¼¨ à¼£
à¾Ĳà¾² à¼į
à¼¢à¼ł à¼©
à½£ à½ĳà½Ħ
à¼ĭà¼ĭà¼ĭà¼ĭà¼ĭà¼ĭà¼ĭà¼ĭ à¼ĭà¼ĭà¼ĭà¼ĭà¼ĭ
à½£ à½¤
à¾Ń à½¿à¼į
à½Ĺ à½Ľ
à¾µ à½¾à¼ĭ
à¼¢à¼ł à¼¥
à¼įà¼ĭà¼ĭà¼ĭà¼ĭà¼ĭà¼ĭà¼ĭà¼ĭà¼ĭà¼ĭà¼ĭà¼ĭà¼ĭà¼ĭà¼ĭà¼ĭà¼ĭà¼ĭà¼ĭà¼ĭà¼ĭà¼ĭà¼ĭà¼ĭà¼ĭà¼ĭà¼ĭà¼ĭà¼ĭà¼ĭà¼ĭà¼ĭà¼ĭà¼ĭà¼ĭà¼ĭà¼ĭà¼ĭà¼ĭà¼ĭà¼ĭà¼ĭà¼ĭà¼ĭà¼ĭà¼ĭà¼ĭà¼ĭà¼ĭà¼ĭà¼ĭà¼ĭà¼ĭà¼ĭà¼ĭà¼ĭà¼ĭà¼ĭà¼ĭà¼ĭà¼ĭà¼ĭà¼ĭà¼ĭ à¼ĭà¼ĭà¼ĭà¼ĭà¼ĭà¼ĭà¼ĭà¼ĭà¼ĭà¼ĭà¼ĭà¼ĭà¼ĭà¼ĭà¼ĭà¼ĭà¼ĭà¼ĭà¼ĭà¼ĭà¼ĭà¼ĭà¼ĭà¼ĭà¼ĭà¼ĭà¼ĭà¼ĭà¼ĭà¼ĭà¼ĭà¼ĭ
à½¢ à½łà½ĺ
à¼¢à¼ł à¼¦
à½ĳà½Ķà½ł à½¦
à¾¦ à¼įà¼į
à¾ķ à½ºà¼įà¼į
Ġ à½ĺà½ģà½ł
à¼į à¼ĭà¼ĭà¼ĭà¼ĭà¼ĭà¼ĭà¼ĭà¼ĭà¼ĭà¼ĭà¼ĭà¼ĭà¼ĭà¼ĭà¼ĭà¼ĭà¼ĭà¼ĭà¼ĭà¼ĭà¼ĭà¼ĭà¼ĭà¼ĭà¼ĭà¼ĭà¼ĭà¼ĭà¼ĭà¼ĭà¼ĭà¼ĭ
à½łà½Ĥ à½Ħ
à½Ĥ à½ļ
à½± à½¼à¼ĭ
Ġ à½ĳà½Ĥà½ł
à¼¢ à¼¡à¼¤
Ġà¼ł à¼ł
à¾¤ à½¾à¼ĭ
à½Ħ à½łà½ĺ
à½¾à¼ĭ à¼½
à¾¤à¾² à¾Ģà¼ĭ
à¼Ģ à½¢
à¼ĭ à¾Ĵ
à¾± à¾¦à¾·à½±à½²
à½Ĥà½Ł à½Ĥà½¦
à½Ĳ à½Ĥà½Ł
à¼¢à¼ł à¼¡
à½¢ à½łà½ĳ
à¼įà¼į à¼Į
à½Ģ à½Į
à½ĸ à½Ļà½ĺ
à¾¨ à¾¨
à½ºà¼įà¼į à¼į
à¾ĳ à¼ĭ
à½£ à½łà½ĳ
à½ĵà½¦ à½¢
à¾Ł à½²à¼įà¼į
à¼¡à¼¨ à¼¡
Ġ à¼¢à¼©
à½¼à¼ĭ à¼Ī
à¼¡à¼©à¼¥ à¼¤
à¼į à¼ĭà¼į
Ġ à¼¢à¼¥
à½¢ à½Ķà½ł
à¼¢à¼ł à¼¤
à¼¢à¼£ à¼©
à¼įà¼ĭà¼ĭà¼ĭà¼ĭà¼ĭà¼ĭà¼ĭà¼ĭà¼ĭà¼ĭà¼ĭà¼ĭà¼ĭà¼ĭà¼ĭà¼ĭà¼ĭà¼ĭà¼ĭà¼ĭà¼ĭà¼ĭà¼ĭà¼ĭà¼ĭà¼ĭà¼ĭà¼ĭà¼ĭà¼ĭà¼ĭà¼ĭà¼ĭà¼ĭà¼ĭà¼ĭà¼ĭà¼ĭà¼ĭà¼ĭà¼ĭà¼ĭà¼ĭà¼ĭà¼ĭà¼ĭà¼ĭà¼ĭà¼ĭà¼ĭà¼ĭà¼ĭà¼ĭà¼ĭà¼ĭà¼ĭà¼ĭà¼ĭà¼ĭà¼ĭà¼ĭà¼ĭà¼ĭà¼ĭ à¼ĭà¼ĭà¼ĭà¼ĭà¼ĭà¼ĭà¼ĭà¼ĭà¼ĭà¼ĭà¼ĭà¼ĭà¼ĭà¼ĭà¼ĭà¼ĭà¼ĭà¼ĭà¼ĭà¼ĭà¼ĭà¼ĭà¼ĭà¼ĭà¼ĭà¼ĭà¼ĭà¼ĭà¼ĭà¼ĭà¼ĭà¼ĭà¼ĭà¼ĭà¼ĭà¼ĭà¼ĭà¼ĭà¼ĭà¼ĭà¼ĭà¼ĭà¼ĭà¼ĭà¼ĭà¼ĭà¼ĭà¼ĭ
à½Ĥà½ĵà½¦ à½Ķ
à¼ĭà½Ī à¾¡à½º
à½Ĥà½¡ à½£
à¼¢à¼£ à¼¤
à½Ĥà½ŀà½ĵ à½Ĥ
à¾¦à¾± à¾±à½²
à¼¢à¼£ à¼¥
à¼¢à¼ł à¼¢
à¼¢à¼ł à¼§
à¼ĭ à¾Ĺà½¼
à½ĸà½¢ à½ĳ
à¼ĭà¾¢ à¼į
à½Ķ à½Ļ
à¼¢à¼ł à¼¨
Ġ à½Ķà½ĳ
Ġ à½¡à½¦
à½Ĺ à½Ŀ
à¾Ĳ à¾¡à½¼
à¼¢ à¼¡à¼£
à½²à¼ĭ à¾İ
à¾²à½ºà¼ĭ à½Īà½²
à¼¢à¼ł à¼£
à¾ļ à½ºà¼ĭ
Ġà¼Į à¼Įà¼Įà¼Įà¼Įà¼Įà¼Įà¼Įà¼Įà¼Įà¼Įà¼Įà¼Įà¼Įà¼Įà¼Įà¼Įà¼Įà¼Įà¼Įà¼Įà¼Įà¼Įà¼Įà¼Įà¼Įà¼Įà¼Įà¼Įà¼Įà¼Įà¼Įà¼Į
à¾Ĳà¾± à¾±à½º
à¾Ĳ à¾Ĺà½º
à½Ł à½łà½ĺ
Ġ à½ĸà½Ł
à½Ī à½ºà¼ĭ
à¼¢à¼¢ à¼¢
à½ĵ à½ıà½ĵ
à½²à¼ĭ à½²à¼ĭ
à½´ à½¿à¼įà¼į
à¾Ł à¾Ńà½±à¼ĭ
à½ĺà½¦ à½ĺ
à¼¢ à¼¢à¼§
à½¦à½Ģ à½ĳ
Ġ à½¦à½¢
à¼¢ à¼¡à¼¥
à¼į à¼ĭà¼ĭà¼ĭà¼ĭ
à½ĸ à½ĸà½ŀ
à¾Īà¾Īà¾Īà¾Ī à¾Īà¾Īà¾Īà¾Ī
à½Ķà½İ à½Į
à¾Ł à¾Łà½²à¼ĭ
à½¼ à½¿à¼įà¼į
à¾¦à¾· à¼į
à½ĺ à½ĸà½¦
à½ĵ à½ģ
à½ĸà½¢ à½ĺ
à¼¤ à¼łà¼ł
à½£à½¦ à½łà½ĳà½¦
à¼¢ à¼¡à¼©
à¼¢ à¼¡à¼¦
à¼ĭà½Ī à¾²à½ºà¼ĭ
à½ł à½Ķ
à½£ à½Ĥà½ĵà½¦
à¾ļ à¾²à¾Ģà½¿à¼ĭ
à½² à½¾
à½¢ à½łà½Ĥ
à¾Ł à¼·
à½ı à½ķà½¥
Ġ à½ĳà½Ģà½¢
à¼¢ à¼¢à¼¥
à½Ħ à½ģ
Ġà¼į à¼ĭ
à¾£ à¾²à½º
à¾· à½¾à¼įà¼įà¼įà¼į
à¼¢à¼£ à¼¨
à¾µ à½±
à¾Ĵà¾² à½¼à¼įà¼į
à¾¡à¾· à½±
à¾£ à½¾à¼ĭ
à¼¢à¼£ à¼¦
à¾¦ à¾¡à½¼
à½ħà½ĵ à½Ĥ
à½Ĥà½ħ à½Ĥ
Ġ à¼¢à¼¦
à½Ħ à½ĵà½¦
à¾Ń à½¿à¼ĭ
à¼¢à¼¢ à¼¡
à¼¢ à¼¢à¼©
à¾ŀ à½ºà¼ĭ
à¼¢ à¼¢à¼¦
Ġà¼įà¼į à¼į
à¼¢à¼£ à¼£
à¾¶ à½´à¼ĭ
à¼¡à¼©à¼¦ à¼£
à½ĸà½Ĥ à½Ĥà½¦
à¼Ģ à½¤
à½¨ à½¤
à½Ķà½¢ à½łà½ĳ
à¾· à½²à¼įà¼į
à½ĳà½ĸà½Ħ à½Ķ
Ġ à½ĺà½ģà½¦
à½Ħ à½¡
à½£ à½Ĩ
à½¥ à½İ
à½ĸ à½£à½¦
à½¼ à¼µà¼ĭ
à¾· à¾²à½±à¼ĭ
à½ĸà½¦à½ĺ à½Ĥà½ıà½ĵ
Ġ à½ļà½ĳ
Ġ à¼¢à¼¤
à¾Ł à½±à½¾à¼į
à¼¢ à¼¡à¼¡
à½¿à¼į à¼Įà¼Įà¼Į
à¾Ł à¾±
à½´ à½´
à¼¢à¼§ à¼ł
à½¨ à½Ľ
à¼¢ à¼¡à¼§
à¼¢ à¼¢à¼¨
à¼¢à¼£ à¼§
à½ĸ à½¡à½Ħ
à¾±à½ºà¼ĭ à½Īà½²
à¾³ à¾³
à½ħà½ĳ à½Ģ
à¾Ĵ à¾±à½²à¼ĭ
à¾© à½´à¼ĭ
à½ĺà½¦ à½ĵ
à¾Ń à½ºà¼į
à½ī à½ĳ
à½²à¼ĭ à¼Ī
à½ºà¼ĭ à½¼
à½ĳà½Ħ à½łà½ĳ
à½łà½ķ à½£
à¼¡à¼©à¼§ à¼ł
à½ĵ à½ĳà½ĺ
à½± à¾Ģ
à¼¢à¼£ à¼¢
à¼¢à¼¦ à¼ł
à¾Ĵà¾² à¼Ķ
à½¼à¼ĭ à¼¸
à½ĸà½¢ à½¢
à¾¦ à½±
à½Ķà½¦ à½ĳ
à½Ĥ à½«à½¥
à½ĵ à½łà½Ĥ
à¼¢à¼¤ à¼©
Ġ à½Ĳà½ĺà½¦
à½ĳà½Ĥ à½Ķ
à¾²à½± à¾Ģ
à¾Ľ à½²
à¼ĭ à¾²
à¾¡ à¾²à½±à¼ĭ
à¾¦ à¾·à½´à¼ĭ
à½±à½² à½¿à¼į
à½Ŀ à½ı
à¾¥ à½²à¼ĭ
à½Ĵà½¢ à½¥
à¼¢ à¼¡à¼¨
à½Ķà½¦ à½ĵ
à¼¢ à¼¢à¼£
à¾· à½¿à¼į
à¼¢à¼ł à¼¡à¼¨
à½²à¼ĭà½Ī à½²à¼ĭ
à½Ĵ à½Ĥà½¦
à¾Ħ à¼·à¼ĭ
à¾± à¼·
à¾Ĳ à½¼à¼įà¼į
à¾¤ à½´à¼į
à¼¢à¼£ à¼¡
à¼ĭ à¾²à½²
à½± à¼įà¼įà¼įà¼į
à½ĸ à½Ĳ
à¾Īà¾Ī à¾Ī
à½º à¼µà¼ĭ
à½Į à½ĵ
à¼¢à¼¤ à¼£
à½ĵ à½łà½ĸ
à¾ļ à½±à½¾à¼į
à½Ĩà½Ĥ à½¥
à¼µ à½ºà¼ĭ
à¼¡à¼©à¼§ à¼¤
à¾ļ à½²à¼į
à¼¢à¼¤ à¼¥
à½Ĺ à½Ĵ
à½Ĺ à½Ĥà½ł
à½« à½¡
à½Ķà½ł à½ĸ
à¼¢à¼§ à¼©
à¼Ķ à¼ĭ
Ġ à½¡à½ĵ
à¼¢à¼¥ à¼¤
à¾ĭ à½ŀà½ĸà½¦
à½±à½´ à½¾
Ġ à½ĵà½ĺ
à¼¢à¼¤ à¼§
à¾ļ à½¿à¼ĭ
à½Ģ à½«à½¥
à½ĳà½Ħ à½ĳ
à½ĸà½ĳ à½ĵ
à¾Ĳ à½±
à½¦ à½łà½ĸ
à¼¡à¼¢à¼¨ à¼§
à¼¢à¼¥ à¼¦
à¼¢à¼§ à¼£
à½¢ à½¡à½Ħ
à½ģ à½Ħà½¦
à¾ļ à½±à½¾à¼ĭ
à½Ĵ à½ķ
à½Ĵ à½§
à¼¢à¼§ à¼§
à½²à¼ĭà½Ī à¾±à½º
à¾Ļ à½±à¼į
à¼µ à½¼à¼ĭ
Ġà¼ĭà¼ĭà¼ĭà¼ĭà¼ĭà¼ĭà¼ĭà¼ĭ à¼ĭà¼ĭ
à¼ĭ à¾£
à¾Ł à¾²à½ºà¼ĭ
à¼¢à¼ł à¼¡à¼©
à½ĵà½ĺ à½ĺà½ģà½ł
à½ħ à½ĳà½ĺ
Ġ à½ĸà½Ĥ
à½ĵ à½ĸà½¢
à¾¤ à½²
à¾¡à¾· à¾±à¼ĭ
à¼¢à¼¦ à¼£
à¼¡à¼©à¼§ à¼¨
Ġ à½ģà½ĺà½¦
à¾Ń à½¾à¼Ķ
à½Ķà½¢ à½£
à¾³ à½ºà¼į
à¼ĭ à¾Ĺà½º
à½ĺ à½Ļ
à¼¢à¼¤ à¼¤
à½ģ à½Į
à½Ł à½Ĩ
à¼¢à¼¨ à¼ł
à½Ĥ à½łà½ĳ
à¾±à½ºà¼ĭ à¼ĳ
à¼¡à¼©à¼¦ à¼¢
à¼¢à¼§ à¼¤
à½ĸ à½¥
à¾· à¾²à½±à½´
à¼¢à¼¤ à¼¨
à½ĺà½¦ à½Ķ
à¾ŀ à½¾à¼ĭ
à¼Ģ à½Ĥ
à½¢à½ĸà½ł à½ĸ
à½łà½ĳà½¦ à½Ģ
à¼¢à¼¦ à¼¤
à¼¡à¼©à¼¦ à¼¦
à½ħà½ĵ à½¢
à¼¢à¼¥ à¼©
Ġ à½Ĥà½ĳ
à½¥ à½ĵ
à½Ļ à½ª
à½£ à½ļ
à¼¢à¼¤ à¼¦
à¼łà¼łà¼łà¼ł à¼łà¼ł
à¼¢à¼¥ à¼£
Ġ à½ĺà½ģà½ĵ
à¼¡à¼©à¼¥ à¼¥
à½Ģ à½Ĳ
à¼¢à¼¥ à¼¢
à¼¢à¼§ à¼¥
à½ļ à½ĺà½¦
à¼į à¼ĭà¼ĭà¼ĭà¼ĭà¼ĭà¼ĭà¼ĭ
à½łà½ķ à½ĳ
à¼¡à¼©à¼§ à¼¦
à¾Ł à¾²à¼į
à¼¢à¼¥ à¼§
à¼¢à¼¦ à¼¦
à¼¡à¼©à¼¥ à¼§
à½± à½¼à¼įà¼į
à¼¢à¼¥ à¼¨
à¾¡ à¾·à½´
Ġ à½ĺà½ĵ
à½Ĩ à½ĺà½¦
à½Ķà½¦ à½¢
à½±à¼ĭ à¼ĳ
à½ĭ à½Ģ
à½´à¼įà¼į à¼įà¼į
à¼¢à¼¥ à¼¥
à¼¢à¼§ à¼¨
à¼¡à¼©à¼¦ à¼©
Ġà¼ĭà¼ĭà¼ĭà¼ĭà¼ĭà¼ĭà¼ĭà¼ĭ à¼ĭ
à½łà½ĳ à½ĳ
à¾±à¼ĭ à¼Ħà¼ħà¼įà¼į
à¼¡à¼©à¼¦ à¼¡
à½ĳà½Ĥ à½Ģ
à¼ł à¼¤
à¾¨ à½¿à¼į
à¾Ļ à½²à¼į
à½¼ à½¾à¼įà¼į
à½ĵ à½ĳà½Ĥ
à¼ĭà½Ī à¾±à½ºà¼ĭ
à½¥ à½¥
à½© à½§
à¼¢à¼¦ à¼¥
à½¦ à½ĳà½Ĥ
à¼¢à¼¤ à¼¢
à¾µ à½²à¼į
à¼¢à¼¦ à¼¢
à¾ħ à¾ħ
Ġà¼ĭà¼ĭà¼ĭà¼ĭà¼ĭà¼ĭà¼ĭà¼ĭà¼ĭà¼ĭà¼ĭà¼ĭà¼ĭà¼ĭà¼ĭà¼ĭà¼ĭà¼ĭà¼ĭà¼ĭà¼ĭà¼ĭà¼ĭà¼ĭà¼ĭà¼ĭà¼ĭà¼ĭà¼ĭà¼ĭà¼ĭà¼ĭà¼ĭà¼ĭà¼ĭà¼ĭà¼ĭà¼ĭà¼ĭà¼ĭà¼ĭà¼ĭà¼ĭà¼ĭà¼ĭà¼ĭà¼ĭà¼ĭà¼ĭà¼ĭà¼ĭà¼ĭà¼ĭà¼ĭà¼ĭà¼ĭà¼ĭà¼ĭà¼ĭà¼ĭà¼ĭà¼ĭà¼ĭà¼ĭ à¼ĭà¼ĭà¼ĭà¼ĭà¼ĭà¼ĭà¼ĭà¼ĭà¼ĭà¼ĭà¼ĭà¼ĭà¼ĭà¼ĭà¼ĭà¼ĭà¼ĭà¼ĭà¼ĭà¼ĭà¼ĭà¼ĭà¼ĭà¼ĭà¼ĭà¼ĭà¼ĭà¼ĭà¼ĭà¼ĭà¼ĭà¼ĭà¼ĭà¼ĭà¼ĭà¼ĭà¼ĭà¼ĭà¼ĭà¼ĭà¼ĭà¼ĭà¼ĭà¼ĭà¼ĭà¼ĭà¼ĭà¼ĭ
à¾¼ à¾Ģà¼ĭ
à½¤ à½ĺà½¦
à¾Łà½¼ à¼į
à¼¢à¼§ à¼¢
à¾· à½¾à¼įà¼į
à¼¢à¼© à¼ł
à¾Ĵà¾± à¼·à¼ĭ
à½´à¼į à¼½
à¼¢à¼¦ à¼©
Ġ à½ĸà½¤à½ĳ
à½ĳ à½ķ
à½ĳà½Ĥ à½Ķà½ł
à¾µ à½±à½²à¼ĭ
à½Ĳ à½Ķ
à½¦ à½§
à¼¢à¼¦ à¼§
à½ģ à½Ģ
à¾· à¾±à¼į
à½Ľ à½Ģ
à¼¡à¼©à¼¥ à¼¢
à½£ à½łà½ģ
à¾ŀ à½¾
à½ĸ à½İ
à¾¨ à½¿à¼ĭ
à½Į à½Ģ
à¼¢à¼¨ à¼¥
à¼ĭà¾ĵ à½¾à¼ĭ
à½ł à½Ģ
à½Ĳ à½ĳà½ĳ
à¾ļ à½¾à¼į
à½Ĥà½ı à½ĸ
à½İ à½ĵ
à¾²à¼ĭ à¼´
à¾Ń à½º
à½Ħà½¦ à½ı
à½ĳà½ĸ à½ĳ
à½Ĳ à½ĵà½¢
à½£à½¦ à½¢
à½ĸà½Ĥ à½Ĥ
à¼¢à¼§ à¼¦
à½ĺ à½ŀ
à¼¢à¼§ à¼¡
à¼¢à¼¦ à¼¡
à½ĵ à½£à½¦
à¾· à¾²à½´à¼ĭ
à¾µ à¾ŀà¼ĭ
à½Ģ à½Ļ
à¼Ģ à½Ķ
à¼¢à¼¨ à¼§
à¾ļ à½´à¼ĭ
à¼¢à¼¤ à¼¡
Ġ à½ĸà½£
à¾¦ à½¾à¼ĭ
à¼¢à¼¨ à¼¤
Ġà¼ĭà¼ĭà¼ĭà¼ĭà¼ĭà¼ĭà¼ĭà¼ĭ à¼ĭà¼ĭà¼ĭ
à¾² à¾ĥà¼ĭ
à½Ĥà½ı à½Ĥ
à½ĸ à½ķ
à¾ļ à½²
à½¦ à½ļ
à½ĳà½Ĥ à½łà½ĸ
à¼ĭà¼½ à¼įà¼į
à½© à½ĺ
à¾Ĵà¾± à½¿à¼ĭ
à½ĸà½¢ à½£
à½¢ à½ģ
à¼¢à¼© à¼©
à½Łà½Ĳ à½«
à½¨ à½ıà½ł
à½ĳ à½¤
à½Ĭ à½ĵ
Ġ à¼ĭà¼ĭà¼ĭà¼ĭà¼ĭà¼ĭà¼ĭà¼ĭà¼ĭà¼ĭà¼ĭà¼ĭà¼ĭà¼ĭà¼ĭà¼ĭà¼ĭà¼ĭà¼ĭà¼ĭà¼ĭà¼ĭà¼ĭà¼ĭà¼ĭà¼ĭà¼ĭà¼ĭà¼ĭà¼ĭà¼ĭà¼ĭà¼ĭà¼ĭà¼ĭà¼ĭà¼ĭà¼ĭà¼ĭà¼ĭà¼ĭà¼ĭà¼ĭà¼ĭà¼ĭà¼ĭà¼ĭà¼ĭ
à½Ĥà½ŀà½ĵ à½¡à½Ħ
à¼¢à¼© à¼¤
à½Ĺ à½Ģ
à½łà½ ¨
à¾¨ à½±à¼į
à¾ļ à½±à¼į
à½ĳà½Ħ à½łà½ĸ
à½ĸà½¤ à½Ĳ
à½ĵ à½ļ
à½¥ à½ĳ
à½§ à½ı
à¼¢à¼¥ à¼¡
à¼¢à¼¨ à¼¦
à¾ľ à½±à½²
à½²à¼ĭ à½ºà¼ĭ
à¼Įà¼Įà¼Įà¼Įà¼Įà¼Įà¼Įà¼Į à¼Įà¼Įà¼Įà¼Į
à¼¢à¼© à¼¦
à¾Łà¾Ń à½¾à¼Ķ
à½İ à½ı
à¾¡ à¼·
à¼¡à¼© à¼¡à¼£
à¼ĭà¾¢ à¼ĭ
à½²à¼ĭ à½¼à¼ĭ
à½Ĵ à½Ŀ
à½ĸà½¢ à½Ħ
à¾« à¾«à¼ĭ
à½ĺ à½ĳà½ĸ
à¾ł à½ºà¼ĭ
à¼¢à¼© à¼§
à¼¢à¼© à¼¥
à¼ĭà¼½ à¼½
à¾² à¼·à¼ĭ
à½¢ à½ļ
à¼¢à¼¨ à¼©
à½ĺ à½ĵà½¦
à¾» à¼į
à¼ĭ à½±à½´à¾ĥà¼ĭ
à½¦ à½Ľ
à½ĭ à½ĵ
à¼¡à¼©à¼§ à¼£
à¾²à½º à¼Ķ
à¾µ à¾±
à¼¢à¼© à¼£
à¼¢à¼¦ à¼¨
à¼£à¼ł à¼£
à¾¨ à½±à½²à¼ĭ
à¼¢à¼© à¼¢
à½± à¾ĥà¼į
à½Ľ à½Ľ
à½¦ à½¨
à½Ĺ à½§
à½Ĥà½ĵà½¦ à½Ķà½ł
à½łà½ģ à½ĺà½¦
à¼¡à¼©à¼ł à¼¤
à¾Ĵ à¾Ńà¼ĭ
à½¡à½Ħ à½ĳ
à½Ķ à½ħ
à½łà½ Ļ
à¼¢à¼© à¼¨
à½Ģ à½Ĭ
à¾· à¾Ńà½¾à¼į
à½ĺà½ļ à½ĺ
à½ĳ à½ĵà½ĺà½¦
à¾·à¾± à¼Ķ
à¼ĭ à¿
à½ı à½İ
à¼Ģ à½Ľ
à½Ģà½Ģ à½Ģ
Ġ à¼¢à¼£
à½ĸ à½ĵà½¦
à½Ŀ à½ĺ
à¾ļ à½¿à¼į
à¼¢à¼¨ à¼¨
à½Ł à½ķà½¡
à½ĳ à½ĳà½Ķ
à½¡à½ĵ à½£à½Ĥ
à¼¡à¼©à¼¦ à¼¤
à¾Ł à¾Ĺà½¼
à¾Ĳà¾±à½¼ à¼į
à½ĸà½Ģà½ł à½¦
à¼¡à¼©à¼¦ à¼¥
à½Ħà½¦ à½Ķà½¢
à¾« à½ºà¼ĭ
à½¤ à½łà½ĺ
à½Ķ à½ħà½ĵ
à½ķ à½ŀà½Ħ
à¾Ķ à¾·à¼ĭ
à½ĸà½ı à½Ħà½¦
à½ĳà½ĸà½ł à½¦
à½¦ à½ĸà½ħ
à¼¢à¼¨ à¼¢
à½¡ à½ī
à½²à¼į à¼½
à¼¡à¼© à¼¤à¼§
à¼¢à¼¨ à¼¡
Ġ à½Ĥà½ĵ
à½Ħ à½Ĥà½¦
à½ĺ à½ħ
à¾¨ à½ºà¼į
à¼¡à¼© à¼¡à¼¤
à¾·à¾Ń à½ºà¼į
à½Ķ à½ĵà½¦
à¼ł à¼§
à¾ļ à¾²à½±à½²à½¿à¼ĭ
à½Ĥà½Ŀ à½Ĥ
à¼į à¼Įà¼Įà¼Į
à¾Ľ à½±
à¼Ķ à¼ĭà¼ĭà¼ĭ
à¼Ģ à½¡
à¾² à½±à¼į
à¾Ł à¾¤à½º
à¾±à½´ à¼·
à½Ģ à½¡
à½± à½¾à¼Ķ
Ġ à¼¢à¼¡
à½ķ à½łà½ĺ
à½Ĺà½ı à½Ł
Ġ à½Ĥà½Ħà½¦
à½¡ à½¥
à½ĸà½¤ à½ĳà½Ķ
à¼£à¼ł à¼¤
à½§à½§à½§à½§à½§à½§à½§à½§ à½§à½§à½§à½§à½§à½§à½§à½§
à½Ħ à½Ģ
à½± à½¾à½¿à¼ĭ
à¾ľ à½²à¼į
à¾łà½² à¾Ģ
à½§ à½Ĥ
à¾µ à½´
à¾·à½±à½² à¼Ķ
à½Ķà½¢ à½ŀ
à½¼à¼į à¼ĭà¼į
à¾¦ à¾±à¼ĭ
à½Ħ à½ķ
à½²à¼ĭ à¼Ŀà¼į
à¼¡à¼© à¼¤à¼ł
à½¨ à½Ŀ
à½ĳà½Ĥ à½ĳ
à¾Ĵà¾±à½´ à¼·à¼ĭ
à¼¢à¼¨ à¼£
à¾±à¼ĭ à½²
Ġ à¼¢à¼¢
à¾± à¾·à½²à¼ĭ
à½ĺà½¦ à½ĸà½¦
à¾ļ à½ºà¼į
à¾ĥ à¼įà¼į
à¼¡à¼©à¼¦ à¼¨
à¾±à½²à¼ĭ à½Īà¾±à½²
à¾· à½±à½´à½¾à¼ĭ
à¼¡à¼©à¼§ à¼§
à½± à½»à¼ĭ
Ġà¼¼ à¼½
à½ĵ à½Ĳ
à½²à¼ĭ à¼İ
à¾¶ à¾±à¼ĭ
à½ĸà½¤ à½Ħà½¦
à½Ĥà½¦ à½¤
à½ĳà½Ĥ à½ħ
à½¡ à½«
à¾· à¾²à½´à¾ĥà¼ĭ
à½Ľ à½Ħ
à¾Ĳà¾± à¾±à½²
à¾± à¾Ļà½º
à¼ĭ à½ºà¼įà¼į
à½¦ à½İ
à¾Ł à¼·à¼ĭ
à¼ĳ à¼į
à¾±à½²à¼ĭ à¼¸
à½ļ à½ļ
à¼£à¼ł à¼©
à½¨ à½Ĳ
à½²à¼įà¼į à¼įà¼į
à¼£à¼ł à¼§
à½²à¼· à¼į
à½Ħ à½¤
à½ĺ à½Ł
à½Ļ à½ĳ
à¼¢à¼© à¼¡
à½Ĥ à½Ķà½¦
à½łà½ĩ à½ĳ
à¼Ŀà¼Ŀ à¼Ŀà¼Ŀ
à¾Łà½² à½¿à¼į
à½Ħ à½łà½ĳ
Ġ à½ĳà½Ķà½ł
à¾± à½±à½¿à¼ĭ
à½Ķ à½Ĥà½ŀà½ĵ
à¼£ à¼¡à¼ł
à¼ ļ
à½ĵà½¦ à½ĳ
à¾¤ à¾¡à½¼
à¼ĭà¼½ à¼ĭ
à¼£à¼ł à¼¦
à½£ à½ĳà½Ĥ
à½ĸà½¢ à½ĸà½¦
à½ł à½ĳà½Ħà½¦
Ġ à½Ĥà½Ļ
à½Ģ à½Ķ
à½¼à¼į à¼¼
Ġà¼Ī à¼į
à¼¡à¼©à¼¥ à¼£
Ġ à¼ĭà¼ĭà¼ĭà¼ĭà¼ĭà¼ĭà¼ĭà¼ĭà¼ĭà¼ĭà¼ĭà¼ĭ
à¼ĭà¾¾ à¼į
à¾Ł à¾²à¾Ģà¼ĭ
ĠĠĠĠ ĠĠ
à¾²à¾Ģ à½¾à¼ĭ
à¾Ĺà½º à¼·à¼ĭ
à½İ à½£
Ġà¼ ģà¾ĥà¼Ķ
à½²à¼į à¼ĭ
à¾¡à½º à¼Ķ
à¾² à¾¡à½¼à¼ĭ
à¾· à½¼à¼Ķ
à¾¡à¾· à½º
à¾¶ à½²à¼ĭ
à½ħà½ĳà½ĺ à½ģ
à½£à½¦ à½Ĥà½ŀà½ĵ
à½ĸà½Ł à½ĵ
à½ķà½Ł à½¥
à½łà½ĩ à½ĺà½¦
à¾ł à½¿à¼į
Ġà¼ĭà¼ĭà¼ĭà¼ĭà¼ĭà¼ĭà¼ĭà¼ĭ à¼ĭà¼ĭà¼ĭà¼ĭà¼ĭ
à½ĵ à½¨
à½ĳà½Ĥ à½¡
à½ĺà½¦ à½Ķà½¢
à½Ľ à½Ĥ
à¾Ł à½±à½¾à¼ĭ
à½ĳà½Ģ à½¦
à¾Ļ à½¼à¼įà¼į
à½Ĵ à½ĳà½Ħ
à½ĳ à½łà½ĳ
à¾Ĳ à¾©à½¼
à¾· à¾²à½´
à½±à¼ĭ à¼´
à¾ĥ à½¿à¼ĭ
à½± à½¿
à¾²à½¼ à¼·à¼ĭ
à½Ĥà½Ĳ à½ķ
Ġ à½łà½Ľ
à¼ĭ à½´à¼ĭ
à½Ķà½¢ à½łà½ĩ
Ġ à½Ĥà½£
à½Ĥà½¤ à½ĳ
à¾·à¾£ à½±à½¾à¼ĭ
à½ĸ à½ģ
à½£ à½ĺà½¦
à¾¡ à¾±à½²à¼ĭ
à¼¡à¼© à¼¡à¼¢
à½ĸ à½ĳà½Ķ
à½Ĳ à½ļ
à½ºà¼į à¼ĭ
à¼Ģ à½ĳ
à¼łà¼łà¼łà¼łà¼łà¼łà¼łà¼ł à¼łà¼łà¼łà¼łà¼łà¼łà¼łà¼ł
à¼ĭ à¾Ĳ
à½´ à½¾
à¾¤à¾±à½² à½²à¼ĭ
à¼įà¼į à¼ĭ
à½ĺà½ĵ à½ĺà½¦
à¼¦ à¼łà¼ł
à¾¦à¾· à¾±à½±à½¾à¼į
à½Ķà½ĳà½Ħ à½Ķ
à½Ķà½¢ à½Ĥà½ŀà½Ĥ
à¾Ń à½»à¼ĭ
à½ĺ à½Ĥà½ı
Ġ à½ŀà½£
à¾Ĳà¾±à½ºà¼ĭ à½Ī
à½Ŀ à½ĳ
à¼ĭà¼» à¼ĭ
à½Ħ à½ĳà½Ĥ
â Ģ
Ġ à½Ħà½Ĥ
à½ı à½Ļ
à¼įà¼įà¼įà¼į à¼įà¼įà¼įà¼į
à½¡à½Ħ à½¡
à¼£ à¼¡à¼£
à¾£ à¾²à½´
à¾¦ à¾·à½±à¼ĭ
à½ĸà½ĳà½Ĥ à½ĺ
à½¢ à½ķ
à½ģ à½¡
à¼£à¼ł à¼¨
à½¼à¼įà¼į à¼¼
à½ĳ à½ī
Ġ à½¤à½¢
à¼£ à¼¡à¼¡
à½¡ à½İà½ł
à½ĳà½Ķà½ł à½Ĩ
à¾µ à½´à½¾à¼ĭ
à½¢ à½Ĩ
à½ĸà½ħà½¦ à½Ķ
à¾± à¼·à½²à¼ĭ
à½ĺà½ļ à½ł
à¼į à¼ĭà¼ĭà¼ĭà¼ĭà¼ĭà¼ĭ
à¾Ł à¾±à½±à¼ĭ
à¾Ĵ à¾·à½¾à¼į
à¾£ à½¿à¼į
à½¨ à½ª
à½ºà¼ĭà¼ĳ à¼į
à½Ĵ à½łà½Ħ
à¼£à¼ł à¼¥
à¾² à½½à¼ĭ
à¾Ĵ à¾²à½²à¼ĭ
à½Ħà½ĵ à½£à½¦
à¾ļ à½¼à¼ĭ
à½¡ à½¡
à½Ķà½¢ à½ĳà½Ĥ
à½īà½ĵ à½Ĳ
à½Ĥà½ŀà½ĵ à½ĳ
à¾Ģ à¼įà¼į
Ġ à½Ĥà½¢
à¾¡à¾·à½¼à¾ħ à¼ĭ
Ġ à½ĺà½Ľ
à¼ĭà¼į à¼Ħà¼ħà¼įà¼į
à¾¤ à½¼à¼į
à¾£ à½±à½²à¼ĭ
Ġ à¼¢à¼§
à½ĸà½Ł à½ĸ
à½ī à½Ģ
à¼ĭà¼· à¼ĭ
à½£ à½Ķà½ł
à½£ à½łà½ĩ
à½£à½¦ à½£
à½¾à¼ĭ à¼´
à¾¦à¾±à½¼ à¼į
à¼£à¼ł à¼¢
Ġ à½łà½Ĩ
à½£ à½ĳà½ĺ
à½ĸà½ħ à½ĵ
à¼§ à¼£à¼§
à½¦ à½Ĥà½ŀ
à½ĳà½Ĥ à½ī
à¾Ĵà¾±à½´à¼ĭ à¼Ħà¼ħà¼įà¼į
à¼ĭà¼ ı
à¼£ à¼¦à¼ł
à¼ĭ à½²à¼įà¼į
à½© à½ĵ
à½£ à½Ĳ
à¾Ĵà¾± à¼·
à½Ĥà½ĳ à½ĸà½¦
Ġà¼£ à¼¥
Ġ à½ĸà½ĸ
à¼ĭà½¼à¼ĭ à½º
à½¦ à½Ĥà½Ħ
à½±à½¼ à¾Ĥà¼ĭ
à¾³ à½²à¼į
à¼£ à¼¡à¼¤
à¼Ģ à½Ģ
Ħ à¼į
à½º à½¿à¼įà¼į
Ġ à½Ĥà½¦à½£
à¾·à¾²à¼ĭ à½µ
Ġ à½ĺà½ģ
à¾² à¾¤à¾±à½²
à½Ĩ à½Ĩ
à¼ĭà¼į à¼¼
à½Ļ à½Ĳ
à¾Ķ à¼·à¼ĭ
à½¨ à½Ĭà½ł
à¼£ à¼¢à¼ł
à½ĵ à½ĵà½ĳ
à½Ĥà½¡ à½Ħà½¦
à½£à½Ĥ à½¥
à½Ĥ à½łà½ĸ
à½¢ à½Ľ
à½ı à½¡
à½ĩ à½ĵ
à¾¼ à½±à¾Ģà¼ĭ
à¾· à¾±à½ºà¼ĭ
à½² à½¾à¼įà¼į
à½ĳ à½ĵà½¦
à¾±à½² à¼·
à¾¥ à½±à¼ĭ
à¾·à¾± à½¼à¼įà¼į
à¾± à¾¡à½º
à¾¦ à¾²à½´à¼ĭ
à½Ľ à½£
à½Ĥ à½£à½¦
à¾Ł à¾²à½±à¼ĭ
à¼ĭà¼¹ à½¼à¼įà¼į
à½ķà½Ŀ à½Ĥ
à¼£à¼¥ à¼ł
à½ºà¼ĭ à½²
à¼¡à¼©à¼§ à¼¥
à½£à½ĺ à½Ĥ
à¼ĭà¾¢ à½´à¼ĭ
Ġ à½ĺà½Ĳà½ł
à½ĳ à½ģ
à½¢ à½Ĳ
à½Ĥà½¦ à½ı
à¾³à½¼ à¼·à¼ĭ
à½¢ à½Ĭ
à¾Ĺ à½¼à¼įà¼į
à¾« à½¿à¼ĭ
à¼¡à¼© à¼£à¼£
à¾Ķ à¾¡à½¼
à¾Ľ à½¿à¼į
ĉĉ ĉ
à½ĸà½ĸà½ĸà½ĸ à½ĸ
à¾± à½±à½´à¼ĭ
à½ĸà½ŀ à½ł
à½Ĵ à½ķà½¦
à½ºà¼· à¼į
à½Ķ à½Ł
âĢ Ĥ
à½ĸ à½ļ
à½ģ à½ĸà½¦
Ġ à½Ķà½İ
à¾Ł à¾²à¾Ģ
à½ī à½ĸ
à¾Ĥ à¼į
à¾£ à½¾à¼į
à½ķ à½ķ
à¾²à½ºà¼ĭ à½Īà¾±à½²
à¼£ à¼¡à¼¥
à½ĵ à½Ļ
à½Ħ à½łà½ĸ
à¾Ł à½±à½²
à½£ à½Ļ
à½Ķ à½ĩ
à½ĳà½Ĥ à½ĳà½Ħ
à¾Ĺà½ºà¼ĭ à¼´
à½Ĺ à½ī
à¼¡à¼© à¼£à¼¥
Ġ à½Ľ
à¾¦ à½±à½²
à½łà½ĩ à½¦
à½±à¼ĭ à¼½
à½Ĵ à½ķà½¢
à½± à½º
à½¥ à½ī
à½Ĵ à½¨
à¼ĭà¼¹ à½¼
à½ĵà½¦ à½ĸ
à¾· à¼·à¼ĭ
Ġ à½ĺà½īà½ĺ
à½ĵ à½ĵà½ĺ
à½Ħ à½ĺà½¦
à½ĺ à½Ĭ
Ġ à¼ĭà¼ĭà¼ĭà¼ĭà¼ĭà¼ĭà¼ĭà¼ĭà¼ĭà¼ĭà¼ĭà¼ĭà¼ĭà¼ĭ
à½¡ à½¤
à½ĳà½ĺ à½Ħ
à¼ĭà¼ ħ
à½¿à¼įà¼į à¼įà¼į
à½łà½Ĥ à½ĳ
à½¨ à½ĵà½ł
Ġ à½Ĳà½ĸà½¦
à½ĥ à½İ
à½ĳà½Ħ à½ĺà½Ĳ
à¾¦ à¾·à½²
à¼§ à¼łà¼ł
à½ĺ à½ĸà½ŀ
à¼£ à¼¡à¼¢
à½ĥ à½Ĭ
à½±à½¿ à¼ĭà¼½
à¾± à¼µ
à¼¡à¼©à¼§ à¼¢
à½Ĥ à½ĸà½¢
à¼Ģ à½ı
à¼¡à¼©à¼¦ à¼§
à½º à½¾à¼Ķ
à¾¤ à½±
à¾¡ à½±
à¾²à½´ à¼·
à¼£ à¼¡à¼§
à¾Ł à¾Ĳà½¼
à¾²à½² à½¾à¼į
à¼Ģ à½£
à½Ģ à½ļ
à¾ľ à½¼à¼ĭ
Ġà¼£ à¼§
à¼ĭà¼į à¼ĭà¼ĭ
à½ĺà½ļ à½Ħà½¦
à½£ à½ĺà½Ħ
à½İ à½Ķ
à½Ķà½¢ à½Ħ
à½ĳà½ĸ à½ĵ
à½Ķà½¦ à½ĸà½¦
à¼£ à¼£à¼łà¼¡
à½ĭ à½ī
Ġà¼£ à¼¤
à½ĺ à½Ĥà½¦
à¾± à½¾
à¾Ł à¾±à½¼
à¾¨à½² à½¾à¼ĭ
à¼¡à¼¢à¼¨ à¼£
à½Ĵ à½ĵà½Łà½«
à¾³ à¾Ĺà½¼à¼ĭ
à¾Ĳà¾± à¼įà¼į
à¼£ à¼¡à¼¦
à¾µ à½¿à¼į
Ġ à½ĺà½¢
à½Ķ à½¨
à½Ĥà½Ħ à½ĳà½Ĥ
à½łà½ģ à½ĵ
à¾¶ à½´à¼į
Ġà¼£ à¼£
Ġ à½Ĥà½Łà½ł
à¾Ĵ à½±à½²à¼ĭ
à¼¡à¼©à¼§ à¼¡
à½Łà½Ķ à½Ĥà½¥
à¼¼ à¼¼
à½Ķ à½ĳà½ĺ
à¼ĭà¼¼ à¼½
à¾· à½½à¼ĭ
à¾¥ à½¼
à¼ĭà¼Ŀ à¼Ŀà¼Ŀ
à½ĳ à½ĳà½Ĥ
Ġ à½łà½ĳà½¦
Ġ à½£à½Ĥ
à¾· à½»
à¾Ħ à¼·
à½¢ à½ħ
à½ĵ à½ĸà½ŀ
à¼ĭà¾ Ħ
à¼į à¼ĭà¼ĭà¼ĭà¼ĭà¼ĭà¼ĭà¼ĭà¼ĭà¼ĭà¼ĭà¼ĭà¼ĭà¼ĭà¼ĭà¼ĭà¼ĭà¼ĭà¼ĭà¼ĭà¼ĭà¼ĭà¼ĭà¼ĭà¼ĭà¼ĭà¼ĭà¼ĭà¼ĭà¼ĭà¼ĭà¼ĭà¼ĭà¼ĭà¼ĭà¼ĭà¼ĭà¼ĭà¼ĭà¼ĭà¼ĭ
à½¦ à½ĸà½ŀ
à½ķ à½Į
à¾ł à½±à½²à¼ĭ
à¼ĭ à¾Ł
à½Ķà½ł à½Ĥ
à¼£à¼£ à¼£
Ġ à½¡à½¢
à½¦ à½ĺà½Ĳ
à½²à¼ĭ à¼ŀà¼į
à¼Įà¼Įà¼Įà¼Įà¼Įà¼Įà¼Įà¼Įà¼Įà¼Įà¼Įà¼Įà¼Įà¼Įà¼Įà¼Įà¼Įà¼Įà¼Įà¼Įà¼Įà¼Įà¼Įà¼Įà¼Įà¼Įà¼Įà¼Įà¼Įà¼Įà¼Įà¼Į à¼Įà¼Įà¼Įà¼Įà¼Įà¼Įà¼Įà¼Įà¼Įà¼Įà¼Įà¼Įà¼Įà¼Įà¼Įà¼Įà¼Įà¼Įà¼Įà¼Įà¼Įà¼Įà¼Įà¼Įà¼Įà¼Įà¼Įà¼Įà¼Įà¼Įà¼Įà¼Į
à¾·à½´ à½¾à¼ĭ
à½ĺ à½łà½ĳ
à½ĺà½Ħ à½Ķ
à½¡à½Ħ à½ĸ
à¾ľ à¼įà¼į
à¾¡à¾· à½±à½´à¼ĭ
ĠĠĠĠ Ġ
à¼ĭ à¾³
à½¦ à½Ĭ
à½Ĥà½ıà½ĵ à½ļ
à½£ à½Ľ
à½Ģ à½Ł
à¾¡à¾· à¼Ķ
Ġ à½ĸà½Ļ
à½¤ à½¤
à½ĳ à½Ł
à½ŀ à½ĸ
à½ı à½¤
à¾Ĳ à¾²à½²à¼ĭ
à½Ĥà½Ħ à½Łà½Ĥ
à½ĸà½ħà½¦ à½Ķà½ł
à¼ĭà½²à¼ĭ à½¼
Ġà¼£ à¼¦
à¾²à½± à¾Ģà¼į
à¼£à¼¤ à¼¥
à½ħ à½ĸ
à¾£ à½¼à¼į
à½ĸà½Ļ à½Ħ
à¼¡à¼© à¼¡à¼ł
Ġ à½ĺà½Ľà½ĳ
à¾ ī
à¾Ĳ à½¾à¼ĭ
à¾Ĳà¾± à¾±à½ºà¼ĭ
Ġ à½ĸà½Łà½Ħ
Ġ à¼¢à¼¨
à½ĸ à½ĸà½¢
à½Ľ à½ŀ
à¼£ à¼¡à¼¨
à¼ĭà½Ī à¾²à½²
à¾ł à½¾à¼ĭ
à½łà½« à½Ĳ
à½ı à½Ĳ
à¾¦ à¾¦à½±à¼ĭ
à¾Ń à½¼à¼į
à¼Ģ à½Ķà½ĳ
Ġà¼§ à¼ł
Ġ à½Ĩà½Ĥà½¦
à½Ĥà½¦ à½ĵà½¦
à½º à½¾
à½Ĥà½¤ à½ĵ
à½» à½¿à¼į
à¾Ł à¾©à½¼
à¼ĭà¼¹ à¼įà¼į
à½Ķà½¦ à½ĺ
à¾¡à½¼ à¼·à¼ĭ
Ġà¼£ à¼©
à½Ĥ à½Ĥà½ī
à½Ĥà½Ħ à½£
à¾ħ à¼ĭ
à½¦ à½Ĥà½ī
à¾·à¾£ à½±à¼ĭ
à½ºà¼ĭà½Ī à¾·à½²
à½¡à½Ħ à½ĵ
à¾³à½´ à¼Ķ
à¾¦à¾² à½¾à¼ĭ
Ġ à½ĸà½Ļà½ĵ
à½ĵ à½Ĭ
à¾Ĺ à½´
à¾µ à½±à½²
à½¦ à½£à½¦
à½ĳà½Ħ à½ŀ
à½ģ à½ī
à½´à¼įà¼į à¼į
à½Ĵ à½ģ
Ġ à½īà½ĺà½¦
à½ĵ à½ĸà½ħ
à½Ķ à½Ĥà½ħ
à¼ĭ à½¼à¼įà¼į
à½ĳà½ĺ à½£
à¼ĭà½²à¼ĭ à½²
à¾²à½± à½²à¼įà¼į
à½Ħà½¦ à½¢
à½ĳ à½£à½¦
à½Ĩà½Ĥà½¦ à½ĳà½Ħ
à¾Ł à½±à½¿à¼ĭ
à½±à¼ĭ à¼Ħà¼ħà¼įà¼į
à¼¡à¼© à¼£à¼©
à½¦ à½ĸà½¤à½ĳ
à½ģ à½łà½Ħ
à½Ĥà½ŀà½ĵ à½ĳà½Ĥ
à¾¦à¾± à¾³à½¼
à¼¡à¼¢ à¼¥à¼§
à¾» à½¾à¼ĭ
à½ĳà½Ħ à½ĺà½ļ
à½Ł à½Ł
à¾Ĺ à¼ĭ
à¼ł à¼¡
à½ļ à½łà½ĺ
à¾±à½º à½º
à¾ļ à¾Ńà½±à¼ĭ
à½ķ à½ı
à½¦ à½ĺà½Ħ
à½Ħ à½ī
Ġ à½ħà½ĳ
à½ĵ à½Ĥà½ĵà½¦
à¾² à¾¤à½º
à¾Ĳ à¾Ĺà½¼
à½ºà¼į à¼ĭà¼ĭà¼ĭà¼ĭà¼ĭ
à¼£ à¼¡à¼©
à¾±à½± à½¿à¼į
à¾Ĳ à¼įà¼į
à¼įà¼ĭà¼ĭà¼ĭà¼ĭà¼ĭà¼ĭà¼ĭà¼ĭà¼ĭà¼ĭà¼ĭà¼ĭà¼ĭà¼ĭà¼ĭà¼ĭà¼ĭà¼ĭà¼ĭà¼ĭà¼ĭà¼ĭà¼ĭà¼ĭà¼ĭà¼ĭà¼ĭà¼ĭà¼ĭà¼ĭà¼ĭà¼ĭà¼ĭà¼ĭà¼ĭà¼ĭà¼ĭà¼ĭà¼ĭà¼ĭà¼ĭà¼ĭà¼ĭà¼ĭà¼ĭà¼ĭà¼ĭà¼ĭà¼ĭà¼ĭà¼ĭà¼ĭà¼ĭà¼ĭà¼ĭà¼ĭà¼ĭà¼ĭà¼ĭà¼ĭà¼ĭà¼ĭà¼ĭà¼ĭà¼ĭà¼ĭà¼ĭà¼ĭà¼ĭà¼ĭà¼ĭà¼ĭà¼ĭà¼ĭà¼ĭà¼ĭà¼ĭà¼ĭà¼ĭà¼ĭà¼ĭà¼ĭà¼ĭà¼ĭà¼ĭà¼ĭà¼ĭà¼ĭà¼ĭà¼ĭà¼ĭà¼ĭà¼ĭà¼ĭà¼ĭà¼ĭà¼ĭà¼ĭà¼ĭà¼ĭà¼ĭà¼ĭà¼ĭà¼ĭà¼ĭà¼ĭà¼ĭà¼ĭà¼ĭà¼ĭà¼ĭà¼ĭà¼ĭà¼ĭà¼ĭà¼ĭà¼ĭà¼ĭà¼ĭà¼ĭà¼ĭà¼ĭà¼ĭà¼ĭà¼ĭà¼ĭà¼ĭà¼ĭ à¼ĭà¼ĭà¼ĭà¼ĭà¼ĭà¼ĭà¼ĭà¼ĭà¼ĭà¼ĭà¼ĭà¼ĭà¼ĭà¼ĭà¼ĭà¼ĭ
à½ĳ à½¨
à½ĳà½Ĥ à½ĺ
à¾±à½º à½ºà¼ĭ
à½Ĺ à½łà½«
à¼¡à¼© à¼£à¼ł
à¾Łà½² à½¿à¼ĭ
à¾·à½±à½²à¼į à¼Ķ
à¾± à½±à½²à¼ĭ
à¾ł à½±à¼į
à¼ĭà¼Ŀ à¼Ķ
à¼¡à¼© à¼£à¼¤
à½ºà¼ĭà¼½ à¼¼
à½ĸ à½¨
à½ĵ à½Ĥà½Ħ
à¾³ à¾Ģ
à¾¡à¾· à½¿à¼į
à¼ĭà¾¢ à½ºà¼į
à½ĳ à½ŀ
à½ĸà½ĳ à½Ĥà½¦
à½§ à½ª
à½Ŀ à½ķà½¥
à¼£ à¼¢à¼£
Ġ à¼ĭà¼ĭà¼ĭà¼ĭà¼ĭà¼ĭà¼ĭà¼ĭà¼ĭà¼ĭà¼ĭà¼ĭà¼ĭà¼ĭà¼ĭ
à½Ĥà½ŀ à½ĳ
à¾Ĳ à¾µà¾±
à½Ħà½¦ à½ĵà½¦
à½Ĵà½ħ à½«à½Ĥ
à½ĺ à½ĸà½¢
à½¨ à½ģ
à½¼à¼ĭ à¼įà¼į
à½Ĥà½Ħ à½¡à½Ħ
à¾³à½¼ à½¼à¼ĭ
à¾·à¾± à½¾à¼ĭ
à¾łà½²à¾Ģ à¼Ķ
à¾Ķ à¾·à½²à¼ĭ
à¼¡à¼© à¼¤à¼¨
à¾ł à½´à¼ĭ
à½ĳà½ĸà½Ħ à½Ĥ
à½Ķ à½ĸà½ħ
à½ģ à½ķ
à¾³ à¾Ģà¼į
à½ĳà½Ķ à½Ģ
à¼£ à¼¢à¼¥
à½© à½Ģ
à½ĳà½Ħ à½¡
à¾· à½»à½¾à¼ĭ
à½ĺà½ļà½ĵ à½ĺ
à½łà½Ĳ à½¢
à¼£ à¼¤à¼ł
à½¼à¼ĭ à½²
à½Ĺ à½İ
à½ĳ à½Ĳ
à¼¡à¼© à¼£à¼¦
Ġà¼¤ à¼ł
à½łà½« à½¥
à½ľ à½£
à¾¨à¾² à¾±à½´
à¼£ à¼¢à¼¨
à½Ķ à½ĺà½Ħ
à¾¤ à½¾à¼į
à½» à¼įà¼į
à½ĸà½ĸà½ĸà½ĸ à½ĸà½ĸ
à¾²à¼ĭ à¼½
à½ĵà½¦ à½ĵ
Ġà¼£ à¼¢
à¼£à¼§ à¼ł
Ġ à½£à½ĵ
à¾· à½¾
à¾ª à½´à¼ĭ
à¼įà¼į à¼¼
à½ĸà½ł à½ĸ
à½łà½ĳà½¦ à½Ķ
à½łà½ļ à½ĸà½¦
à¾ł à½±
à¾ŀ à½²
à½¢ à½Ł
à½ĵ à½ĸà½ĳà½Ĥ
à½Ķà½¢ à½ĸà½¢
à½ĵà½Ħ à½Ĥ
à½²à¼įà¼į à¼į
Ġà¼į à¼ĭà¼ĭ
à½ĺ à½Ķà½¦
à½ģ à½ħ
à½ĸ à½Ĥà½ī
à½ĸà½¦ à½Ķ
à¼ĭà½Ī à¾Ļà½²
à½Ģà½Ģ à½Ģà½Ģ
à¼£à¼¦ à¼¥
à¼©à¼© à¼©
à½ĩ à½Ħ
à½Ĵ à½¢à½Ĥ
à¾² à¾±
à½¼à¼ĭ à½º
à¼ĭà¾§ à½²à¼ĭ
à¼ĭà¼Į à¼į
à¼ĭà¼į à¼ĭà¼ĭà¼ĭ
à¾© à¼Ķ
à½¨ à½ķ
à½Ĥà½ī à½¦
à¾ª à½´
à½¢ à½ĵà½¦
à½Ħ à½łà½Ħ
à½¼à¼ĭ à¾İ
à¾© à¾¡à½¼
à¾¦à¾± à½¼à¼įà¼į
à¾Ĵà¾²à½¼ à¼į
à½ĺ à½ĺà½Ĩ
à¾· à½²à¼Ķ
à¾Ķà¼ĭ à¼ĳ
à¾´ à¼į
à¼£à¼¤ à¼£
Ġ à½ĳà½ĺà½Ĥ
Ġà¼ĭà¼ĭà¼ĭà¼ĭà¼ĭà¼ĭà¼ĭà¼ĭà¼ĭà¼ĭà¼ĭà¼ĭà¼ĭà¼ĭà¼ĭà¼ĭà¼ĭà¼ĭà¼ĭà¼ĭà¼ĭà¼ĭà¼ĭà¼ĭà¼ĭà¼ĭà¼ĭà¼ĭà¼ĭà¼ĭà¼ĭà¼ĭà¼ĭà¼ĭà¼ĭà¼ĭà¼ĭà¼ĭà¼ĭà¼ĭà¼ĭà¼ĭà¼ĭà¼ĭà¼ĭà¼ĭà¼ĭà¼ĭà¼ĭà¼ĭà¼ĭà¼ĭà¼ĭà¼ĭà¼ĭà¼ĭà¼ĭà¼ĭà¼ĭà¼ĭà¼ĭà¼ĭà¼ĭà¼ĭ à¼ĭà¼ĭà¼ĭà¼ĭà¼ĭà¼ĭà¼ĭà¼ĭà¼ĭà¼ĭà¼ĭà¼ĭà¼ĭà¼ĭà¼ĭà¼ĭà¼ĭà¼ĭà¼ĭà¼ĭà¼ĭà¼ĭà¼ĭà¼ĭà¼ĭà¼ĭà¼ĭà¼ĭà¼ĭà¼ĭà¼ĭà¼ĭà¼ĭà¼ĭà¼ĭà¼ĭà¼ĭà¼ĭà¼ĭà¼ĭ
Ġ à½ĵà½Ĥ
à½ĵà½¦ à½ĺ
Ġ à½ķà½ĵ
à½²à¼ĭ à¼ŀ
à¼£ à¼¢à¼©
à¼ĭà¾¢ à½¼à¼ĭ
à½´à¼ĭà¼ĳ à¼į
à½ĩ à½«
à¼£ à¼£à¼ł
à¼£à¼¤ à¼¤
à¼ĭà¾§ à¾±à½±à½¾à¼į
à¼ĭ à½±à½²à¼ĭ
à½Ħ à½Ķà½ł
à½ĳà½Ħ à½Ĩ
à½Ķà½¢ à½ĳ
à½Ħà½¦ à½¤
à¾· à¾Ńà½¾à¼ĭ
à¾Ķà¼ĭ à¼Ħà¼ħà¼įà¼į
à½´à¼ĭ à¼Ī
à¾© à¾Ńà¼į
à½¨ à½Ļà½ł
à½½ à½¿à¼į
à¼¡à¼© à¼£à¼§
à½¤ à½¡
à¾· à¾£à¼ĭ
à¼£ à¼¢à¼¤
à¼£ à¼¢à¼¡
à¼¡à¼© à¼¤à¼¥
à½¦à½¦ à½¦à½¦
à¾£ à½²à¼į
Ġ à½ĸà½Ľ
à½¦ à½ħà½ĵ
à¾± à¾²à½²
à¾²à½² à¼·à¼ĭ
à½łà½ĳà½¦ à½Ķà½ł
à½Ĺà½ı à½¡
à¾± à¾Ĺà½ºà¼ĭ
à½Ķà½¦ à½ĸ
à¾Łà½º à¼·à¼ĭ
à¼ł à¼¦
à½ºà¼ĭà½Ī à½±à½²
à½ĺ à½ķ
à½Ħà½¦ à½Ģ
à¼£ à¼¢à¼§
Ġ à½Ĥà½ĵà½ĺ
Ġ à½ĳà½Ķà½¢
à½ĳà½Ħ à½ķ
à¾±à½º à¼·à¼ĭ
à½łà½ģ à½ĸ
à¼£ à¼¢à¼¢
Ġà¼£ à¼¡
à¼£à¼¤ à¼©
à¼įà¼ĭà¼ĭà¼ĭà¼ĭà¼ĭà¼ĭà¼ĭà¼ĭ à¼ĭ
à½ĳ à½ĸà½ŀ
à¼ĭà¼´ à¼į
à½ķà½İ à½ķ
à½łà½Ľ à½ĵ
à½Ĥà½Ł à½Ħ
à½Į à½ĺ
à½Ĥ à½ĺà½Ħ
à½Ķ à½Ļà½ĺ
à¾ļ à½±à½²à¼ĭ
à¼£à¼¥ à¼©
à½ĺà½¦ à½£à½¦
à¼£à¼£ à¼©
à½Ģ à½ħ
à¾Łà½º à¼·à¼į
à¾²à½±à½² à½¾à½¿à¼ĭ
à½¦ à½ĵà½ł
à½ĵ à½ĺà½Ĩ
à½Ŀ à½Ĥ
à¼įà¼ĭà¼ĭà¼ĭà¼ĭà¼ĭà¼ĭà¼ĭà¼ĭà¼ĭà¼ĭà¼ĭà¼ĭà¼ĭà¼ĭà¼ĭà¼ĭà¼ĭà¼ĭà¼ĭà¼ĭà¼ĭà¼ĭà¼ĭà¼ĭà¼ĭà¼ĭà¼ĭà¼ĭà¼ĭà¼ĭà¼ĭà¼ĭà¼ĭà¼ĭà¼ĭà¼ĭà¼ĭà¼ĭà¼ĭà¼ĭà¼ĭà¼ĭà¼ĭà¼ĭà¼ĭà¼ĭà¼ĭà¼ĭà¼ĭà¼ĭà¼ĭà¼ĭà¼ĭà¼ĭà¼ĭà¼ĭà¼ĭà¼ĭà¼ĭà¼ĭà¼ĭà¼ĭà¼ĭà¼ĭ à¼ĭà¼ĭà¼ĭà¼ĭà¼ĭà¼ĭà¼ĭà¼ĭà¼ĭà¼ĭà¼ĭà¼ĭà¼ĭà¼ĭà¼ĭà¼ĭà¼ĭà¼ĭà¼ĭà¼ĭà¼ĭà¼ĭà¼ĭà¼ĭà¼ĭà¼ĭà¼ĭà¼ĭà¼ĭà¼ĭà¼ĭà¼ĭà¼ĭà¼ĭà¼ĭà¼ĭà¼ĭà¼ĭà¼ĭà¼ĭ
à¼£à¼£ à¼¤
à¾±à½²à¼ĭà½Ī à½º
à¾² à¾¡à½º
à½ĵà½¦ à½£
Ġà¼Į à¼Įà¼Įà¼Įà¼Įà¼Įà¼Įà¼Įà¼Įà¼Įà¼Įà¼Įà¼Įà¼Įà¼Įà¼Įà¼Į
à½Ĳ à½Ħà½¦
à½Ĥà½ĵà½¦ à½Ķà½¢
à¼£ à¼¢à¼¦
à½Ĺ à½ķà½Ŀ
à½ĥ à½¢
à¼£à¼£ à¼¦
à¾¾ à¼į
à½¢ à½Ķà½¦
à½ĳà½Ķà½ł à½¢
à¼£à¼¨ à¼ł
à¼£à¼£ à¼¥
à½ĳà½Ĥ à½£à½¦
à½ķ à½¦à½¢
à¾±à¼ĭà¼ĳ à¼į
à½Ħà½¦ à½Ķà½¦
à¾¨ à½²à¼įà¼į
à½ĸà½Ģ à½Ħà½¦
à½Ĺ à½ĵà½¥
à½ĸ à½Ĭ
à¾Ł à¾²à½²
à¾Ł à½½à¼ĭ
Ġà¼£ à¼¨
Ġ à¼ĭà¼ĭà¼ĭà¼ĭà¼ĭà¼ĭà¼ĭà¼ĭà¼ĭà¼ĭà¼ĭà¼ĭà¼ĭà¼ĭà¼ĭà¼ĭà¼ĭà¼ĭà¼ĭà¼ĭà¼ĭà¼ĭà¼ĭà¼ĭà¼ĭà¼ĭà¼ĭà¼ĭà¼ĭà¼ĭà¼ĭà¼ĭ
à½¦ à½łà½Ĥ
à½Ĥà½¦ à½ĸà½¢
à½ĳà½Ħ à½Ĥ
à½Ķà½¢ à½ĵ
à¾Ĳà½´ à½´à¼ĭ
à¾µ à½´à½¿à¼ĭ
à½ĳ à½ĳà½ĺ
à¾·à¾² à½±à½´à¾ĥà¼į
à½ĸà½ı à½ĺà½¦
à¼£ à¼łà¼łà¼ł
à¼¡à¼¥ à¼łà¼ł
à¼£à¼¥ à¼§
à¾Ł à¾Ĺà½ºà¼ĭ
à½ĩ à½¦
à¼ł à¼©
à¼£à¼¤ à¼§
à½Ĺà½Ĵ à½Ħà½Ĥ
à½ĺ à½¨
à½Ķ à½ĺà½Ĳ
à½£ à½¨
à½Ļ à½ļ
à¼ł à¼£
à½Ĺ à½Ĥà½¢
à½Łà½Ĳ à½ķ
à½ĸà½ħ à½Ŀ
à¾¨ à¾±à½¼à¼įà¼į
à¼ĭà¼ĭ à¼ĭà¼į
à¾Ł à¾²à½»à¼ĭ
à½Ķà½¦ à½£
à¼ĭ à¾Ĺà½ºà¼ĭ
à½ĺ à½£à½¦
à½Ĥà½ħ à½«à½Ĥ
à½Ĵ à½Ķ
à½ºà¼ĭ à¼Ī
à¾²à½¼ à¼·
à¼¡à¼ł à¼¥à¼§
à½ĳà½Ħ à½Ĥà½ŀà½ĵ
à½ħà½ĳ à½ĳ
à½ĸà½ı à½ĵ
à½łà½ķà½Ĥà½¦ à½Ķ
à¾·à¾² à½±à½´à¼ĭ
à¼£à¼¥ à¼¦
à½¦ à½Ĥà½ŀà½ĵ
à½Ģ à½ŀ
à¾© à½¾à¼ĭ
à½¢ à½ĳà½Ĥ
à¼¡à¼© à¼£à¼¨
à½Ĵà½Ĥ à½«
à¾© à¾±à½²à¼ĭ
à¾¦ à¾²à½ºà¼ĭ
à¾ª à½º
à¾» à½´à¼ĭ
à¼¤à¼ł à¼¤
à¼£à¼¥ à¼¥
Ġ à½Ĳà½Ħ
à¾µ à½´à¼į
à¼¡à¼© à¼¤à¼¡
à¼£à¼£ à¼¨
à½Ĥà½¦ à½ŀ
à¾² à½½à½¾à¼ĭ
à¾© à½±
à½Ŀ à½¡
à¼£à¼¤ à¼¨
à¼įà¼ĭà¼ĭà¼ĭà¼ĭà¼ĭà¼ĭà¼ĭà¼ĭ à¼ĭà¼ĭ
à½ģ à½ļ
à¾²à¼ĭ à¼ĳ
à½Ĥà½ħ à½Ħ
à½¥ à½Į
à½ĳà½Ħ à½ģ
à¾±à½²à¼ĭ à¼½
à½¾à¼ĭ à¼ĳ
à¼£à¼£ à¼§
à¾± à½½à¼ĭ
à½Ĥà½¦ à½¡
à½ħ à½ĵà½¦
à½± à¾Ģà½¾à¼ĭ
à½±à½´ à¼µà¼ĭ
à½ĵ à½Ĥà½ŀà½ĵ
à½Ĥà½¦ à½ĸà½¦
à½ĸà½¢ à½łà½ĳ
à½ºà¼į à¼½
à½Ĥà½ī à½¢
à¾Ĳà¾±à½º à¼·à¼ĭ
à¼£à¼¦ à¼©
à¾±à½²à¼ĭà½Ī à¾±à½²à¼ĭ
à½¦ à½¥
à¾±à½²à¼ĭ à½²
à½ī à½łà½ĺ
à¼£à¼£ à¼¡
ĠĠĠĠĠĠĠĠĠĠĠĠĠĠĠĠ ĠĠĠĠĠĠĠĠĠĠĠĠĠĠĠĠ
à½Ģ à½Ĩ
à½łà½ķà½Ĥà½¦ à½Ķà½ł
à½Ŀ à½Ĥà½¥
à½ĳ à½łà½Ĥ
à½Ĵ à½Łà½Ĳ
à½ĥ à½ī
à¼£à¼¦ à¼£
à¼§ à¼¥à¼ł
Ġ à½Ģà½¢
à½ĺà½¦ à½Ķà½ł
à½¨ à½Ģà½ł
à½Ŀ à½İ
à½Ĺ à½Łà½«
Ġà¼¤ à¼¤
à½Ĥ à½Ĥà½ħ
à½¢ à½Ļ
à½º à½¿à¼į
à¾¡ à¾±à¼ĭ
à½£à½¦ à½ĺ
à½Ī à¾±à½º
à¼£à¼§ à¼¤
à¾±à½²à¼ĭ à¾İ
à½ı à½Ĥà½¦
à½Ĥà½Ł à½ĳ
à¾Ĺà½ºà¼ĭ à¼ĳ
Ġà¼į à¼Ī
à¾¤à¾²à½² à¼į
à½¢ à½łà½ĸ
à½£ à½łà½Ĥ
à½ºà¼ĭ à¼ŀ
à½ĵà½¦ à½Ģ
à½ĺà½ļ à½ĳ
à½¼ à½´
à¾¡ à¾¡à½¼
à¼¡à¼¦ à¼¤à¼¢
Ġà¼ ħ
à¾¡à¾· à½±à¼į
à½ĳà½ĸà½Ħ à½ĳ
à¼£à¼¥ à¼¡
à¼£à¼§ à¼§
Ġà¼¥ à¼ł
Ġ à½ĺà½ļà½ĺà½¦
à½ĳà½Ķà½ł à½ĺ
à½±à½´ à½¿à¼į
à¾¤à¾²à½¼ à¼Ķ
à½© à½Ķ
à½ģà½¦ à½ĸ
à¼ĭ à¾¡
Ġà¼ ´
à¾·à½´ à¼Ķ
à¾·à½±à½´ à¼į
à½Ĺ à½¢à½¥
à¾¶ à¼į
à½ĸà½ł à½Ĥ
à½ħà½ĵ à½ĳ
à½ĸà½¦à½ĺ à½Ķ
à½Ĩ à½Ķ
à½¼à¼į à¼Ī
à¾¡à½ºà¼ĭ à½Īà¾±à½²
à½Łà½Ĥ à½Ķ
à½ŀ à½Ĳ
à¾¡à¾· à½±à½¿à¼ĭ
à¼ĭà¼ĭà¼ĭ à¼ĭà¼į
à¼£à¼§ à¼£
à¾¼ à¼ĭ
à¼ĭà¼ĭà¼ĭà¼ĭà¼ĭà¼ĭà¼ĭà¼ĭà¼ĭà¼ĭà¼ĭà¼ĭà¼ĭà¼ĭà¼ĭà¼ĭà¼ĭà¼ĭà¼ĭà¼ĭà¼ĭà¼ĭà¼ĭà¼ĭà¼ĭà¼ĭà¼ĭà¼ĭà¼ĭà¼ĭà¼ĭà¼ĭà¼ĭà¼ĭà¼ĭà¼ĭà¼ĭà¼ĭà¼ĭà¼ĭà¼ĭà¼ĭà¼ĭà¼ĭà¼ĭà¼ĭà¼ĭà¼ĭà¼ĭà¼ĭà¼ĭà¼ĭà¼ĭà¼ĭà¼ĭà¼ĭà¼ĭà¼ĭà¼ĭà¼ĭà¼ĭà¼ĭà¼ĭà¼ĭ à¼ĭà¼ĭà¼ĭà¼ĭà¼ĭà¼ĭà¼ĭà¼ĭà¼ĭà¼ĭà¼ĭà¼ĭà¼ĭà¼ĭà¼ĭà¼ĭ
à¾¶ à½²à¼į
à½ķà½Ģ à½Ł
à½¨ à½ŀ
à¼¤à¼¤ à¼¤
à½ģ à½Ĳ
à¾¨ à½¾à¼ĭ
à¾¡à¾· à½ºà¼Ķ
à¼£à¼§ à¼¥
à½ĵ à½İ
à¾Ĳ à¾Łà¾±
à¾²à½´ à¼Ķ
à½ĳà½ĸ à½Ĥ
à¼£à¼£ à¼¢
à¼£à¼© à¼ł
à¾µà¾¨ à½±à½²à¼ĭ
à¼ĭ à¾¡à½¼à¼ĭ
à½¦ à½ĸà½ĳà½Ĥ
à½łà½Ĥà½ł à½ŀ
à¾µ à½ºà¼į
Ġà¼¼ à¼¼
à¼ĭà¾§ à½´à¼ĭ
Ġ à½ĳà½ĳ
à¾² à¾±à¼ĭ
à¾±à½² à¼µà¼ĭ
à¾£ à½¿à¼ĭ
à¾ļ à½±à½²à½¿à¼ĭ
à¼£à¼¦ à¼¡
à¾¦ à¾·à½²à½¿à¼į
à½¦à½Ħ à½¥
à¼¡à¼© à¼¤à¼¢
à¼ĭà¾ ¹
à¾ŀ à¾ŀà½±à¼ĭ
à¼£à¼¤ à¼¦
à½²à¼ĭà½Ī à½ºà¼ĭ
à¼¡à¼©à¼ł à¼£
à½Ķ à½ĸà½ĳ
à½Ĺ à½Ĥà½İ
à¼ĭà½²à¼ĭ à½º
à¾³ à¼·à½¼à¼ĭ
à½Ĵ à½Ĳà½Ĥ
à¼£à¼¥ à¼¤
à½ĺà½¦ à½¡
Ġ à½Ĩà½ĸ
à½ĳ à½Ļ
à½ĵ à½Ķà½ĳ
à½¼à¼ĭ à¼Ŀà¼įà¼į
à½łà½ĳ à½Ĥà½¦
à½ĺà½Ĳ à½Ĥ
à½´à¼ĭ à¾İ
à½ĺà½¦ à½ı
à¾· à¾Ļ
à¾¦ à½²à¼į
à¾¦ à¼ĭà¼´
à½ĺà½Ĳà½ł à½ĺ
à½ĺ à½ĺà½Ĳ
à½Ħà½¦ à½ĺ
à½© à½ĸ
à½Ĥà½Ł à½Ĥ
Ġ à½ĵà½ĳ
à¼ĭà¾¢ à½¼à¾ħ
à½£ à½Ł
à½ºà¼į à¼Į
à¾· à¾¨
à¼£à¼§ à¼©
à½¦ à½ĺà½ĵ
à¾Ļ à¾±à½º
à½ĸà½¤à½ĳ à½Ķà½ł
à¾¤à¾² à¾Ģ
à¾ł à½¿à¼ĭ
à¼£à¼§ à¼¦
à½ı à½łà½ĺ
à¾« à¼įà¼į
à¼§ à¼¥à¼¦
à¾´ à½²
à½Ħ à½Ĳ
à¾²à½² à¼·
à½Ļ à½ĵà½ĳ
à½łà½Ĳ à½Ĥà½¦
à¼łà¼łà¼łà¼ł à¼łà¼łà¼ł
à¼ĭ à¾Ĺà½¼à¼ĭ
à½ĺà½¦ à½ĳ
à¾Łà½´ à½¾à¼ĭ
à¼¡à¼© à¼¢à¼ł
à½£ à½Ķà½¢
à½ĺà½¦ à½ĸ
à½Ĥà½ŀà½Ĥ à½Ķ
à¼ł à¼¥
à¼ĭà¾¢ à¾±à¼ĭ
à½ĵ à½ĳà½Ĥà½ł
à½ļ à½ĳà½ĺ
à½ĺà½Ľ à½ĳà½Ķ
à¼ĭà¼ µ
à½ĸ à½Ķà½¦
à½ĸ à½ĳà½ĸ
à½Ķ à½Ħà½¦
à¼£à¼¤ à¼¡
à½Ĵà½Ĥ à½«à½¥
à¾· à½±à½¿à¼ĭ
à¼¢à¼ł à¼¢à¼ł
à½Ģ à½ĭ
à½ı à½ķ
à½ĺà½¦ à½ŀ
à½ĭ à½ł
Ġ à½Ĥà½¦à½¢
à½ĸ à½ĩ
à½Ħ à½ļ
à¾Ł à¼µ
à½ħà½ĳ à½¦
à¾« à½´à¼į
à¾µ à¾¨à¼ĭ
à¼£à¼¥ à¼¨
à½Ĥ à½¨
à¾² à½½
à½¡ à½ĸà½¦
à½ĸà½Ļ à½Ħà½¦
à¾¤à¾± à¾¡à½¼
à½Ĵ à½Łà½ĸ
à¾Ł à¾Ĺà½º
à¾¤ à½´à¼įà¼į
à¾Ĺà½ºà¼ĭ à¼½
à½Ĵ à½Łà½Ĥ
à¾ª à½±à¼į
à½ĵà½¦ à½ī
à¾²à½±à½² à½¾à¼į
à¾²à½´ à½¾à¼į
à½ĸà½Ĥ à½Ĩà½Ĥà½¦
à¼¥ à¼¥à¼¦
à¼¡à¼©à¼ł à¼¨
à¾·à¼ĭ à¼ĳ
à½±à½´à¾ĥ à¼ĭà¼ĳ
à¾©à½º à¼Ķ
à½Ĺà½ģ à½¥
à½ĺ à½ĺà½¦
à½ģ à½Ļ
à½ĳà½ĺ à½Ķà½ł
à½Ĥà½¤ à½ĺà½¦
à½´à¼į à¼ĭà¼ĭà¼ĭà¼ĭà¼ĭ
Ġà¼ Ħà¼į
à¼¡à¼© à¼¡à¼¡
à¼ĭà¾¢ à½¿à¼į
Ġ à½ĺà½¦
à½£ à½Ĥà½ĵ
à¾Ł à½½à¼į
à¾¡ à¾²à½ºà¼ĭ
à½ĸà½¤ à½Ĳà½Ĳ
à½Ī à¾²à½º
à½Ĺ à½ĺ
à¼¡à¼© à¼£à¼¢
» ¿
ï »¿
Ġ à¼ĭà¼įà¼į
à¾· à¾ĥà¼ĭ
à¼¡à¼© à¼¤à¼¦
à¾±à½¼ à¼Ķ
à¾· à½±à½¾à¼ĭ
à¾£ à¾¡à½¼
à¾Ń à½²à¼į
à¼ĭ à½¾à¼į
à½Ĥà½¦ à½Ĥà½¦
à½ĳà½Ħ à½¤
à½ħà½ĵ à½Ĳà½ĺà½¦
à¼£à¼© à¼¥
à¼ĭà¾§ à½±à¼ĭ
à¾ª à½¼à¼ĭ
à¼£à¼¦ à¼¢
Ġ à½ŀà½ĸà½¦
à¾² à¾Ĺà½²
à¾¦ à¼Ķ
à½Ľ à½¤
à¼£à¼¥ à¼¢
à¼£à¼¦ à¼¦
à½¦ à½ĸà½Ģà½ł
à¾Ķ à½ºà¼ĭ
à¼£à¼¦ à¼¤
à¾±à½» à½¿à¼ĭ
à½¦ à½Ĥà½ĵà½¦
à¾» à½¼à¼ĭ
à¾Ł à½±à½²à¼į
à½ĳà½Ħ à½ĸà½¦
à½Ī à½±à½²
à¾µ à½º
à¼¡à¼© à¼¢à¼§
à½Ĥ à½£à½Ĥ
à½ĺ à½¥
à½¡ à½Ĭ
à¾¤ à½¼à¼įà¼į
à¾²à½¼à¼ĭ à¼´
à½ĸà½Łà½Ħ à½Ķ
à¾Ńà½± à½¾à¼į
à¼¤à¼ł à¼§
à¼£à¼¤ à¼¢
à¾Ĳ à½ºà¼į
à½ĵà½¦ à½ĸà½¦
à¼£à¼§ à¼¡
Ġ à½Ĥà½ıà½ĵ
à½ł à½¡
à½Ķà½¢ à½¡à½Ħ
à½Ķà½¦ à½Ģ
à½Ļ à½¡
à¼ĭà½Ī à½¼à¼ĭ
à¾± à¾³à½º
à½£ à½ĺà½Ĩ
à¾³ à¾¡à½¼à¼ĭ
à½Ļà½ĺ à½Ĥ
à½ĳà½Ĥà½ł à½ĺ
Ġà½ĵ à½ķ
à½Ĥà½ĳ à½¦
à¾Ĵà¾² à¼·à¼ĭ
à¼¤ à¼¡à¼§
à¼¥ à¼łà¼łà¼ł
à¼¨ à¼łà¼ł
à¼£à¼¦ à¼§
à¼£à¼¨ à¼©
à½Ĳ à½ĵà½Ĥ
à½ħà½ĵ à½¡
à¼£à¼© à¼§
à½ĵ à½Ĥà½ī
à½Ħ à½Łà½ĳ
à½Ĥà½ŀà½ĵ à½£
à½ĸà½Ģ à½Ĥà½¦
à½ĺà½ĳ à½ĳ
à¾ŀ à½¾à¼į
à¾±à½´ à¼µ
à½¨ à½£à½¦
à¼ĭà¼ĭà¼ĭà¼ĭ à¼ĭà¼į
à½ºà¼ĭ à¼İ
à¾Ķ à¾¡à½¼à¼ĭ
à½Ĩà½Ĥà½¦ à½Ķ
à½ĥ à½ı
à¾Ł à¾Ĳà¾±à½ºà¼ĭ
à½Ķà½¢ à½¡
à½ĺà½ĵ à½ĳ
à¼Ģ à½£à½¦
à½ĸ à½Ŀ
à½´à¼ĭ à½Īà½²
à½łà½Ĥ à½ĺà½¦
à¾Ĵà½¼ à¼Ķ
à¾ª à¼Ķ
à¾ļ à½²à½¿à¼ĭ
à¼Ģ à½¢à½ı
Ġ à½łà½Ľà½ĺ
Ġ à½¨à½Ħ
à½ĵ à½ĺà½Ĳ
à½£ à½ĺà½ģà½¦
à½ĵà½¦ à½ŀ
à¼ł à¼¢
à½Ī à¾±à½²à¼ĭ
à½Ļà½Ħ à½¥
à½Ķ à½¥
à½ĳà½ĺ à½Ķà½¢
à¼£à¼§ à¼¨
à¾Ĵ à¼įà¼į
à½ĵà½¦ à½Ħà½¦
à½ĸà½Ĥ à½ĸ
à¼¡à¼© à¼¢à¼¤
à½¼ à¾ĥà¼į
à¾±à½´ à½´
à½Ļ à½¥
à½ĸà½ı à½Ĭ
à¾¦à¾· à½±à½²à¼į
Ġ à½īà½ĵ
Ġ à½Łà½¦
à½Ħ à½ħ
à¾Łà¼ĭ à¼Ħà¼ħà¼įà¼į
à½łà½Ĩ à½¦
à¼¡à¼© à¼¡à¼©
à¾¦à¾· à½±à½´à¼ĭ
à¼£à¼¥ à¼£
à¾¦à¾¦ à½¾à¼ĭ
à¾² à½¾
à¼£à¼© à¼¡
à¾¤ à½±à½´à¼ĭ
à½Ĺ à½ĳà½Ħ
à¾ŀ à½¼à¼ĭ
à¼£à¼© à¼¤
à¼¤à¼¤ à¼§
à¾Ł à¾²à½¾à¼ĭ
à¾Ĵ à¾Ĵà¼ĭ
à¾³ à½±
à¾³ à¾³à½¼
Ġà¼§ à¼§
à½¦ à½łà½ĩ
à½Ķà½ł à½ĩ
à½ī à½Ķ
à½²à¼ĭà½Ī à¾²à½º
à¾·à½º à½¾à¼ĭ
½ ¶
à ½¶
à½Ĥ à½¢à½Ħ
à¾± à¾Ĺà½¼
à½£ à½ĸà½ŀ
à¾ł à½±à½´à¼ĭ
à¾» à½±
à¾¨à¾²à¾±à½´ à½¾à¼ĭ
à½ĺ à½Ŀ
à¼įà¼į à¼Ī
à¾²à½± à¾Ģà½¾à¼ĭ
à¼£à¼¨ à¼¥
à½Ħ à½Ħà½¦
à¾© à½¼à¼įà¼į
à½Ľ à½ı
à½´à¼į à¼ĭ
à½łà½Ĳ à½ł
à½Ĺà½Ĳ à½Ł
à¾ŀà¾ŀ à½´à¼ĭ
à½Ĥ à½ĸà½ŀ
à¾¦ à½ºà¼į
à¾Ĳà½´à¼ĭ à¼ĳ
à¼¡à¼© à¼¤à¼£
à¼¤à¼ł à¼¥
à¼£à¼© à¼¦
à½Ħ à½ĸà½Ł
à½Ľ à½¡
à¾¦à¾² à¾Ģà¼ĭ
Ġà½ĸ à½ķ
à¾²à½± à½¾à¼Ķ
à¾± à¼·à½²
à¾¡ à½¿à¼ĭ
à½£à½¦ à½ĵ
à½ĸà½ĳà½Ĥ à½ĳà½Ħ
à½¢à½ĸ à½¤à½ĳ
à¾ł à½¼à¼ĭ
à¼£à¼¦ à¼¨
à½£ à½İ
à½ĳà½Ħ à½Ĥà½Ł
à¾» à½ºà¼ĭ
à½Ĥ à½łà½ļà½£
à¼į à¼ĭà¼ĭà¼ĭà¼ĭà¼ĭà¼ĭà¼ĭà¼ĭà¼ĭà¼ĭà¼ĭà¼ĭ
à½Ĥà½Ħ à½ĳ
à½ĸà½ĳà½Ĥ à½£
à¼£à¼§ à¼¢
à¼¡à¼©à¼ł à¼©
à¼įà¼ĭà¼ĭà¼ĭà¼ĭà¼ĭà¼ĭà¼ĭà¼ĭ à¼ĭà¼ĭà¼ĭ
à½²à¼ĭ à¼ĭ
à½ı à½Ĭ
à¾±à½² à½¿à¼ĭ
à¾¡ à¾²à½²
à½ĳà½Ķ à½ĵ
à¼¤ à¼¢à¼ł
à¼ĭà¼Ī à¼į
à½¦ à½ĳà½ĺ
à½¦ à½ķà½¥
à½²à¼ĭ à¾²
à½£ à½ĵà½¦
à½Ĳ à½¡
à½£à½¦ à½ĳ
à¾³à½¼à¼ĭ à¼½
à½Ĺ à½ŀ
à¼ĭ à¾·
à½¡ à½ŀ
à½Ħà½¦ à½ĳ
à½£à½¦ à½ĳà½Ħ
à¾¨ à½¼à¼į
à½±à½´ à½¾à½¿à¼ĭ
à¾¾à¾¾à¾¾à¾¾ à¾¾à¾¾à¾¾à¾¾
Ġ à½ĺà½Ĳà½¢
à½¢ à½§
à¾Ł à½±à½´à¼ĭ
à½Ķà½ł à½ģ
à½Ĺ à½ķà½¦
à½Į à½¦
à½ĳà½Ĥ à½Ĳà½ĺà½¦
à½ħà½ĳ à½£
à½£à½ĵ à½ĳ
à½¦ à½Ĥà½ħ
à½£ à½ĸà½ĳà½Ĥ
à¾ľà¾ľ à¼ĭà¼¼
à¾ľà¾ľ à¾ľà¾ľà¼ĭà¼¼
à½£ à½ĸà½ĳ
à½Ķà½¢ à½Ĥà½ĵà½¦
à¾· à¾Ħ
à¾ľ à¾·à¼ĭ
à½Ĵ à½ŀ
à½Ĺ à½ķà½¢
à¾µ à¾¼
à¼£à¼© à¼£
à½´à¼ĭ à¼ĭ
à¾Ĵ à½»à¼ĭ
à½£à½¦ à½Ĥ
à¼ĭà¾¢ à½²à¼į
à¼¤à¼ł à¼£
à¼£à¼¨ à¼§
à¼¡à¼© à¼¤à¼¤
à¾Ľ à½¿à¼ĭ
à½ĺ à½Ĥà½ī
à¾³ à¾Ĵà¾²à½¼
à½łà½ĩ à½ĸà½¦
à¾ľ à¾»
à¼ĭà½Ī à¾¤à¾²à½²
à¼Į à¼į
à¼§à¼ł à¼§
à½ĳ à½ļ
à½Ĥà½¦ à½ħà½ĵ
à½Ĩ à½Ĳ
à½ļ à½Ķ
à½¡à½Ħ à½łà½ĳ
à¾· à¾Ĵà¾·
à½Ŀ à½«à½Ħ
à¼ł à¼¨
à¼ł à¼¡à¼ł
à½ħà½ĵ à½ĳà½Ħ
à½¥ à½Ģ
à¾ľ à½±à½´à¼ĭ
à½ĵ à½Ĳà½ĺà½¦
à¾±à½²à¼ĭ à¼ŀ
à¾±à½² à¼µ
à¾£ à½±à½¾à¼ĭ
à¾« à½¼à¼įà¼į
à½¼à¼į à¼Ħà¼ħà¼įà¼į
à¼½ à¼įà¼į
à¾·à½² à½¿à¼įà¼į
à¼£à¼¨ à¼£
à½ĸ à½ĵà½ĳ
à½ĳà½Ħ à½ī
à¾±à½ºà¼ĭ à¼·à¼ĭ
à½ĺà½Ĳà½ł à½Ħ
à¼¦ à¼¥à¼ł
à¾¡à¾·à½ºà¼ĭ à¼´
à¼£à¼© à¼¢
à¾±à½² à½¾à¼ĭ
à½£à½¦ à½łà½ĸ
Ġ à½ĺà½Ħà½ł
à½¦ à½¦à½ĺ
à½¼à¼įà¼į à¼ĭ
à¾¡à½¼ à¼µà¼ĭ
à¾·à½² à½¾à¼ĭ
à¼£à¼¨ à¼¤
à¾¾à¾¾ à¾¾
à½£ à½ĳà½ĸà½Ħ
à½Ŀ à½«à½Ĥ
à¼¤ à¼¡à¼¤
à¼¢à¼¥ à¼łà¼ł
à½ĵ à½ĸà½ĳ
à½Ĥà½ŀ à½ĺà½¦
à¾²à¼ĭ à¼¼
à¾Łà½ºà¼ĭà¼ĳ à¼į
à¾ħà¾ħ à¾ħ
à½¦ à½ħ
à½£ à½Ĥà½ī
à¾Ĵà¾± à½¼à¼ĭ
à¾±à¼ĭ à¼´
à½Ļ à½Ķ
à½ĸà½Ĥ à½¢
à½Ĵ à½Ĥà½Ħ
à¼© à¼¦à¼ł
à¼¡à¼© à¼¢à¼¦
à½© à½ł
à½²à¼ĭà¼ĳ à¼ĳ
à¼£à¼© à¼¨
à¼£à¼¨ à¼¢
à¼£à¼¨ à¼¦
à½¦ à½ĺà½Ĩ
à¾±à¼ĭ à¼½
à¼¡à¼© à¼¢à¼£
Ġ à½ĳà½ĺà½¢
Ġ à½ĳà½¢
à½ĵ à½ĳà½ĸ
à½ĸà½¦ à½ĳà½Ħ
à½Ĥà½¦à½£ à½ĸà½¢
à½±à½´ à½¿à¼ĭ
à¼ĭ à½±à½¿à¼ĭ
à¾Ĵ à½¿à¼į
à½ı à½łà½Ħ
à½Ķà½¢ à½ĸà½¤à½ĳ
à½ĸà½ĳà½Ĥ à½Ķ
à¼ĭà¾ Ŀ
à½Ĥ à½Ĥà½Ħ
à½ĵ à½Ĥà½ħ
à½Ĥà½¦à½£ à½ĸ
à¾£à¼ĭ à¼´
à¼¤ à¼¡à¼ł
à½Ĥà½¦ à½Ĩ
à½¡à½Ħ à½Ħ
à½ĵà½Ħ à½ĳ
à½Ĳà½¢ à½ĳ
à½¼à¼µ à¼įà¼į
à½¢ à½Ķà½¢
à¾² à½»
à¾Ĳ à¾²à½´à¼ĭ
à¾³ à½½
à½§ à½¢à½ı
à¼¤à¼§ à¼§
à¾² à½±à½¿à¼ĭ
à½Ĥà½ŀ à½Ĥà½¦
à¾¦ à¾©à½¼
à¼¤à¼ł à¼¦
Ġà¼Į à¼Įà¼Įà¼Į
à¾·à¾²à¼ĭà½µ à¾ĥà¼ĭ
à½łà½ģ à½ł
à½łà½ļ à½ĳ
à¼©à¼¨ à¼¦
à½¦ à½Ĥà½Ł
à½ĺ à½ĵà½Ĥ
à½£ à½Ĥà½Ħ
à½¼à¼ĭ à½´
à½ĺà½ĩ à½ł
à¾¶ à½¿à¼ĭ
à½ĳà½Ĥ à½ı
à¾¥ à½²
à½ĳ à½§
à½ĺ à½ª
à½£ à½ĺà½Ĳ
à¾Ń à¼Ķ
à¼¤ à¼¥à¼ł
à¼ĭà¾¢ à½¾à¼ĭ
à¾Ĳà¾² à¼įà¼į
à¼£à¼¨ à¼¡
à½Ĺà½Ħ à½Ł
Ġ à½Ĥà½ĵà½Ħ
à½Ģ à½Ľ
à½ĳà½ĳ à½ĳ
à½¿ à¼ĭà¼Ī
Ġà¼ĭà¼ĭà¼ĭà¼ĭà¼ĭà¼ĭà¼ĭà¼ĭà¼ĭà¼ĭà¼ĭà¼ĭà¼ĭà¼ĭà¼ĭà¼ĭ à¼ĭ
à½¦ à½ĳà½ĸ
à½¦ à½Ŀ
à½ĳ à½ħà½ĵ
à¾¦à¾· à¾±à½¿à¼į
à¾ł à½²à¼į
à½© à½ŀ
à¾± à½½à¼į
à¾¡ à½±à½²à¼ĭ
à¾³ à¾©à½¼
à¾¤à¾±à½² à¼įà¼įà¼įà¼į
à¾Ľ à½ºà¼ĭ
à½į à½Ģ
à¾±à¼ĭ à¼¼
à¾· à¾³
à½¾à¼ĭ à¼¼
à½¼ à½¾à½¿à¼ĭ
à½Ķ à½§
à½²à¼ĭ à¼Ŀà¼įà¼į
à½Ģ à½§
à½ģ à½Ĩ
à½Ħà½¦ à½£
à½Ĺ à½ĸà½ĵ
à¼¡à¼© à¼¡à¼¨
à¾» à¼įà¼į
à½ĵà½Ķ à½Ĥ
à¼£à¼© à¼©
Ġ à½Ħà½ĵ
à½İ à½ĳ
à¼¤ à¼łà¼łà¼ł
à¼Ģ à½łà½ĳ
ĠĠĠĠ ĠĠĠ
à¾Īà¾Īà¾Īà¾Ī à¾Ī
à½¦ à½¡à½Ħ
à½¢ à½Ĥà½ĵà½¦
à¾± à¾±à½ºà¼ĭ
à½Ĳ à½ĸà½ĸ
Ġ à½İ
à¾ Ĭ
à½¢ à½Ĥà½ŀà½ĵ
à¾© à¾ªà¼ĭ
à¾« à¾±à½¼
à¼¤ à¼¡à¼¥
à½łà½ĳà½ł à½¦
à¾ĭ à½Ģ
à½Ĥ à½ĺà½ł
à¾± à¾³à½¼
à½Ģ à½Ŀ
à¾Ĵ à½¾à¼ĭ
à¾¨ à½»à¼į
à½¾ à½¿à¼į
Ġà¼ İ
à¼¤ à¼¡à¼£
à½ķà½ħ à½Ĳ
à½ļ à½Ģ
à¾« à½²à¼įà¼į
à½Ĵ à½Ĺà½¥
Ġà¼ĳ à¼ĳ
à¼ĭà¼¹ à¼į
à¼¤à¼§ à¼ł
à¾·à¾²à½±à½´ à½¾à¼į
à½¡ à½¨
à¾Ł à½¾à¼įà¼į
à½Ĳ à½ķ
à¾²à½¼ à½¼
à½ĳà½ĺ à½Ķ
à¾Ĳà¾± à¾¦à¾·à½º
à½ºà¼įà¼į à¼įà¼į
à¾¦à¾² à¼į
à¾µà¾¨ à½±à½²
à½ĵ à½¢à½Ħ
à½Ħ à½Ķà½¢
à¾² à¾²
à¾¨ à¼Ķ
à½ĺà½Ĩ à½Ĥ
à½¨ à½ħ
à½Ĵ à½Ł
à¼£à¼¨ à¼¨
à¼ĭà¾¾ à¼įà¼į
à¾ ¢
à¼į à¼ĭà¼ĭà¼ĭà¼ĭà¼ĭà¼ĭà¼ĭà¼ĭà¼ĭà¼ĭà¼ĭà¼ĭà¼ĭà¼ĭ
à¾± à¼µà¼ĭ
à¾©à½² à¼Ķ
à¼¡à¼© à¼£à¼¡
à¾ŀ à½´
à¾¡à¾· à¾Ń
à¼¤à¼ł à¼¢
à½Ķ à½ĳà½ĸ
à½ĳà½Ĥ à½ģ
à¼¡à¼© à¼¡à¼§
à¾ł à¼įà¼į
Ġ à½Ĥà½¡à½¦
Ġ à½ĺà½ĩ
à½¦ à½ĩ
à½£à½ĺ à½ĳ
à½» à½¾à¼į
à¼įà¼ĭà¼ĭà¼ĭà¼ĭà¼ĭà¼ĭà¼ĭà¼ĭ à¼ĭà¼ĭà¼ĭà¼ĭà¼ĭ
à½¢ à½ĸà½ŀ
à½¢ à½ĸà½ĳà½Ĥ
à¾Ĵ à½´à¼į
à½ĳà½ĸà½Ħ à½ķ
à½ĺà½ģà½¦ à½Ķ
à¾Łà½´ à½¿à¼ĭ
à½¢à½Ħà½¦ à½Ħà½¦
à½ĵ à½£à½ĺ
à½Ħ à½¡à½Ħ
à½¡ à½ıà½ł
à½½ à½¿à¼ĭ
à¾Ł à¾¨à¼ĭ
à½ĳà½Ħ à½Ĳ
à¾Ĳ à¾²à½²
à¾Ĳ à¼·
à¾²à¼ĭ à½µ
à½¥ à½ĺ
à¼· à¼ĭà¼·à¼ĭ
à¼¤à¼¨ à¼ł
à½´à¼ĭ à½²
à¾Ĵ à½±à¼į
à½łà½Ľ à½Ħ
à½ĸà½¤à½ĳ à½ĳ
à¾Ĳà½´ à¼·à¼ĭ
à¼ĭà½Ī à¾¡à½ºà¼ĭ
à½Ĺ à½Ĳà½Ĥ
à¾µ à½±à¼į
à¼¡à¼© à¼¢à¼©
à¾·à½¼ à¾ħ
à¾¶ à½±à½²
à½¦à½Ķ à½Ģ
à½¦ à½«
à½£ à½ķà½ĵ
à½ĳà½Ĥ à½ŀ
à¾±à½´ à¼Ķ
à¼įà¼½ à¼ĭà¼ĭà¼ĭà¼ĭà¼ĭ
à¾Ĭ à½Ķ
à½¦ à½¢à½Ħ
à½£ à½¢à½Ħ
à¾Łà½ºà¼į à¼ĭ
à½ĸ à½Ĩà½ĳ
à¼įà¼į à¼Ħà¼ħà¼įà¼į
à½ī à½ģ
à½Ķà½¢ à½Ĥà½¦
à¾ŀ à½´à½¿à¼į
à½ĳ à½łà½ĸ
à¾Ĵà¾² à½ºà¼į
à¼¡à¼©à¼ł à¼¦
à¼ »
à¾Ł à½»à¼ĭ
à¾¥ à½´à¼į
à¼§à¼§ à¼§
à¾£ à¼·à¼ĭ
à¾© à½¾à¼į
à½¾à¼ĭ à½¾à¼ĭ
à½ĸà½Ĥ à½Ħà½¦
à½ĺà½īà½ĺ à½Ķ
à¼¤ à¼¡à¼©
à½ķà½Ĭ à½¦
à½ģ à½ı
à½ĵà½¦ à½Ĥ
à½Ĥà½Ł à½Ħà½¦
à½Ĺ à½ĸà½ı
à½© à½£
à¾²à½± à¾ĥà¼į
à¾± à¼µà½²
à¾¡ à¾±à½²
à¾· à¾Ģà¼ĭ
à¾²à½²à¼ĭ à¼½
à¾±à¼įà¼į à¼įà¼į
à¾²à½² à½²
à½ĺà½ĳ à½ĵ
à¼¤à¼§ à¼¥
à½ĵ à½Ĥà½ŀ
à½²à¼ĭ à½±à¼ĭ
à½ºà¼ĭ à½±à¼ĭ
à½ģ à½Ĥà½¦
à¾Łà½º à½¿à¼ĭ
à½ĺà½ĵ à½Ĥà½¦
à¼¡à¼ł à¼§à¼¡
à¾Ľ à½±à½¿à¼į
à½ĥ à½ł
à¼¤à¼ł à¼¡
Ġ à½łà½ļ
à½ĳ à½ĳà½Ķà½ł
à¾± à¾Ļà½²à¼ĭ
à½²à¼ĭ à¾Ĵ
à¼¤à¼ł à¼©
Ġà¼¤ à¼§
à½¢ à½Ķà½ĸ
à¾± à¾±à½¼
à¾± à¾¤à¾±à½¼
à½Ī à¾²à½ºà¼ĭ
à½Ĺ à½©
à½łà½ĸà½ł à½ŀ
à¼ĭ à¾£à¼ĭ
à½£ à½Ĥà½ŀà½ĵ
à½ºà¼į à¼Ħà¼ħà¼įà¼į
à½±à½´ à¾Ĥà¼į
à¼¤ à¼£à¼ł
à½ĺà½¦ à½ĺà½¦
à¾£ à¾²
à½Ķà½¦ à½¡
à¼¡à¼© à¼¢à¼¨
à½¦ à½«à½Ĳ
à¾£ à½±à¼į
à¼¤ à¼¡à¼¢
à¾µ à½±à½¾à¼ĭ
à¼¡à¼© à¼łà¼ł
à¼Ŀà¼Ŀ à¼Ŀ
à¾© à½±à½²à¼ĭ
à¾³à½´ à½¾à¼ĭ
à½¥ à½¡
à¼· à¼įà¼į
à¼¡à¼ł à¼łà¼łà¼ł
à¾ļ à½´
à½¦ à½«à½Ħ
à½¡ à½Ĳ
à½ķ à½Ļ
à¾Ĳ à¾Ĺà½ºà¼ĭ
à½İ à½Ģ
à¼¤ à¼¤à¼ł
à¾ľ à½¿à¼į
Ġ à½Łà½Ĥ
Ġ à½ķà½Ĥ
à½ĺà½¦ à½ĸà½ŀ
à¾© à¾²à½ºà¼ĭ
à¾¦ à¾¦à½²à¼ĭ
à¼ĭà½Ī à½±à½²à¼ĭ
à½Ħ à½Ĥà½ĵà½¦
à½Ķ à½ĺà½Ĩ
à½Ķà½¢ à½ĺà½Ľà½ĳ
à¾Ļ à½¿à¼ĭ
à¾¡à½¼à¼ĭ à¼¼
à½ģà½ĺà½¦ à½ĳà½Ħ
à¾·à½´ à½¿à¼ĭ
Ġà¼¤ à¼£
à¼¤à¼¥ à¼¥
à¼ĭ à¾Łà¼ĭ
à¼ĭ à½²à¼į
à½ĳ à½ĺà½ļ
à½Ĥ à½Ĥà½ŀà½ĵ
à½ĸ à½Ĥà½ŀà½ĵ
à½ĵ à½§
à½Ĩ à½¡
à¾¡ à¾¤à½ºà¼ĭ
Ġà½¦ à½¦
à¼¤à¼§ à¼£
à½¼à¼ĭà½Ī à½±à½²
à½¢ à½ĸà½ħ
à¼į à¼ĭà¼ĭà¼ĭà¼ĭà¼ĭà¼ĭà¼ĭà¼ĭà¼ĭà¼ĭà¼ĭà¼ĭà¼ĭà¼ĭà¼ĭ
à½ı à½ī
à¾Łà½¼ à¼·
à¾Ķ à¼·
à½Ļ à½Ļ
à½§ à½Ģ
à¾Ĺà½º à¼µà¼ĭ
à¾ľ à½ºà¼į
à¼¡à¼© à¼¢à¼¢
Ġà¼¤ à¼¥
à½£ à½Į
à½£ à½Ĭà½ł
à½£à½¦ à½¡
à¼¤ à¼¡à¼¡
à¾Ĵ à¾¡à½¼
à½ĳà½Ĥ à½Ĥà½¦
à¾£ à¼µ
à¾© à½¿à¼į
à¼Ģ à½ĳà½Ģà½¢
Ġà¼ħ à¼įà¼į
à½Ģ à½¨
à¾¦ à¾·à½¼
à¾³à¼ĭ à¼Ħà¼ħà¼įà¼į
à½ķà½ĵ à½ļ
à¼¤ à¼¡à¼¦
à½¦ à½ĸà½Ĥ
à½Ħ à½£à½¦
à½£ à½Ĥà½Ł
à½ħ à½«à½Ĥ
à½ĸà½¦ à½Ķà½¦
à½Ķà½¦ à½ŀ
à½ĸà½ħ à½ĺ
à½Ĭ à½ı
à¼¤ à¼¢à¼¤
à¾Ħ à¼įà¼į
à¾Ľ à½±à½²à¼ĭ
à¾· à¾²à½±à½²à¼ĭ
à¾© à¼·à¼ĭ
à¾Łà½ºà¼į à¼Į
à¼¥ à¼¡à¼ł
à½Ĵ à½Ļ
à½Ĥà½¦ à½łà½ĳ
à¼¦ à¼¡à¼§
à¾·à¾± à½±à½¾à¼ĭ
à¼¤à¼¦ à¼§
à¾²à½±à¾Ģ à½¿à¼ĭ
à½ĸ à½ĸà½ĳ
à½´à¼ĭ à½¼
à½¡ à½«à½Ĥ
à½ĸà½ħ à½ĳà½Ķ
à½ĺà½Ħ à½łà½ĺ
à½ħà½ĳ à½ĳà½Ħ
à½ĺà½ĵ à½Ħà½¦
à¼¡à¼§ à¼¡à¼§
à½ĸà½ĸà½ĸà½ĸ à½ĸà½ĸà½ĸ
Ġà¼ĭà¼ĭà¼ĭà¼ĭà¼ĭà¼ĭà¼ĭà¼ĭà¼ĭà¼ĭà¼ĭà¼ĭà¼ĭà¼ĭà¼ĭà¼ĭ à¼ĭà¼ĭ
à¼Īà¼Ī à¼Īà¼Ī
à½ĵ à½Į
à½Ħ à½Ł
à½Ħ à½Ĥà½ŀ
à½¤ à½ĵà½Ħ
à½ĸà½ŀ à½ĸà½¦
à¾±à½¼ à½¼
à¾Ģ à½¿à¼ĭ
à¾» à½¿à¼į
à¼¤à¼ł à¼¨
ĉĉ ĉĉ
Ġ à½Ĳà½¢
à½Ĥ à½łà½Ĥ
à½ĺà½¦ à½¤
à¾¤à¾±à½²à¼ĭ à½Ī
à½Ĭ à½Ĭ
à¼¡à¼©à¼ł à¼§
à½¡ à½łà½ĺ
à¾© à½¼à¼į
à½£à½Ĥ à½ģà½Ħ
à½±à½² à½¾à¼į
à¾²à½±à½´ à½¾à¼į
à¼ĭà¾¢ à½²
à¼¤à¼§ à¼¦
à½¡à½Ħ à½£
à½± à½±à½²à¼ĭ
à¾Łà¼ĭ à¼¼
à½§ à½¨
à¾Ĳà½´ à½´
à¾¡à¾· à½±à½²à¼ĭ
à¼¤à¼¦ à¼©
à½¦ à½łà½ģ
à½¦ à½ĸà½ĳ
à½²à¼ĭ à¼Ħà¼ħ
à¾Ĵ à½¿à¼ĭ
à½ĳà½Ĥ à½Ħà½¦
à½ĳà½ĺ à½Ĥà½¦
à¾Ĵà½¼à¼ĭ à¼½à¼¼
à¼ĭà¼½ à¼Ħà¼ħà¼įà¼į
à¼¤à¼¤ à¼¥
à¼¤à¼© à¼ł
Ġà¼¥ à¼¡
à¼¤à¼¨ à¼©
Ġà¼ĭà¼ĭà¼ĭà¼ĭà¼ĭà¼ĭà¼ĭà¼ĭà¼ĭà¼ĭà¼ĭà¼ĭà¼ĭà¼ĭà¼ĭà¼ĭà¼ĭà¼ĭà¼ĭà¼ĭà¼ĭà¼ĭà¼ĭà¼ĭà¼ĭà¼ĭà¼ĭà¼ĭà¼ĭà¼ĭà¼ĭà¼ĭà¼ĭà¼ĭà¼ĭà¼ĭà¼ĭà¼ĭà¼ĭà¼ĭà¼ĭà¼ĭà¼ĭà¼ĭà¼ĭà¼ĭà¼ĭà¼ĭà¼ĭà¼ĭà¼ĭà¼ĭà¼ĭà¼ĭà¼ĭà¼ĭà¼ĭà¼ĭà¼ĭà¼ĭà¼ĭà¼ĭà¼ĭà¼ĭ à¼ĭà¼ĭà¼ĭà¼ĭà¼ĭà¼ĭà¼ĭà¼ĭà¼ĭà¼ĭà¼ĭà¼ĭà¼ĭà¼ĭà¼ĭà¼ĭà¼ĭà¼ĭà¼ĭà¼ĭà¼ĭà¼ĭà¼ĭà¼ĭà¼ĭà¼ĭà¼ĭà¼ĭà¼ĭà¼ĭà¼ĭà¼ĭà¼ĭà¼ĭà¼ĭà¼ĭà¼ĭà¼ĭà¼ĭà¼ĭà¼ĭà¼ĭà¼ĭà¼ĭà¼ĭà¼ĭà¼ĭà¼ĭà¼ĭà¼ĭà¼ĭà¼ĭà¼ĭà¼ĭà¼ĭà¼ĭà¼ĭà¼ĭà¼ĭà¼ĭà¼ĭà¼ĭà¼ĭà¼ĭ
à¼į à¼Ħà¼įà¼į
à¾± à¾©à½¼
à¾² à¾³à½º
à¾¨ à¾¨à½±à½¿à¼ĭ
à½ĺà½Ħ à½ĳ
à¾²à½²à¼ĭ à¼ĳ
à½Ĥà½Ļ à½ĸ
à½¾à¼į à¼Įà¼Įà¼Į
à¾µ à¼įà¼į
à¼¡à¼¢ à¼łà¼ł
à¼¤à¼¦ à¼¦
à¼¥à¼¥ à¼¥
Ġ à½ģà½Ħ
à½º à½ºà¼į
à¾± à¾¦à¾·à½º
à½²à¼ĭ à¼Ŀ
à½´à¼ĭ à½´
à½ħ à½«à½Ħ
à½ĺà½īà½ĺ à½Ķà½¢
Ġà¼¤ à¼¦
Ġà¼¥ à¼©
à¼©à¼© à¼ł
à¾ĳ à¼į
à¼ĭ à¼ĭà¼įà¼į
à½¢ à½łà½ĩ
à½Ħ à½Ĥà½Ħ
à½£ à½¢à½ĸ
à¾Ł à¾³à½¼
à¾¤ à¾©à½¼
à¾© à½½à¼į
à¾²à½º à½º
à¾²à½¼à¼ĭ à¼ĳ
à¼ĭà¼įà¼į à¼Į
à½ĺà½Ľà½ĳ à½ĳ
à¼¤ à¼¦à¼ł
à½Ĥ à½ĸà½ĳ
à½ĸà½¢ à½ıà½£
à¾¦ à¾²à½¼à¼ĭ
à½ħà½ĵ à½ĵ
à¼ĭà½µ à¼½
à¼¤à¼¥ à¼©
à½´ à½¾à¼Ķ
à¾± à¾¤à¾²à½²
à¾² à¼·à½¼à¼ĭ
à½Ģ à½ĵà½ł
à½Ķà½ł à½ķ
à½¤ à½łà½Ħ
à½ĵà½¦ à½ģ
à½ĳà½Ķà½ł à½Ħ
à¼¤ à¼¢à¼¦
à¼¤ à¼¥à¼§
à½Ī à¾±à½ºà¼ĭ
à¾·à¾± à½¾à¼į
à¼¤à¼¥ à¼¦
à¼¤à¼¨ à¼¥
à½º à¾ħ
à¾£ à¾±
à½¨ à½Ĩ
à½ĩ à½ĸ
à¼¡à¼© à¼¡à¼¥
à¼¤à¼¤ à¼©
à¼¤à¼© à¼©
à½Ĩ à½Ĭ
à¾Ļ à½´à¼ĭ
à¾Ĺà½º à½ºà¼ĭ
à¼¤ à¼£à¼£
à¼Ģ à½Ļà½İ
Ġ à½ĺà½Ĩà½ĵ
à¾³ à½¾à¼ĭ
à¾¤ à¼įà¼į
à¾³à½¼ à½¼
à½ĳà½Ĥà½ł à½ĸà½ł
à¼¡à¼© à¼¡à¼¦
Ġ à½ĸà½ŀà½Ĥ
à½Ĥ à½ĺà½Ĳ
à½Ĥ à½Ľ
à½ĳà½Ħ à½ĸà½¢
à¾« à¼ĭà¼´
à¼¤ à¼¢à¼£
à½½ à½¾à¼į
à¼ĭà¼¹ à½¼à¼į
Ġ à½Ĭ
à½ĵ à½Ĥà½Ł
à½Ħ à½Ķà½ĸ
à¾¡ à¾±à½±à¼ĭ
à¾±à½º à½¿à¼ĭ
à¼¥ à¼¦à¼ł
Ġà¼¥ à¼¦
à½Ħ à½łà½Ĥ
à½Ħ à½Ķà½¦
à½£ à½Ŀ
à½ĳà½Ħ à½ļ
à½¡à½Ħ à½ŀ
à¼¤ à¼¢à¼§
à¼¤ à¼£à¼¤
à¾µ à½¾à¼į
Ġà¼¤ à¼¡
à¼¤à¼§ à¼¢
à¾±à½» à¼įà¼į
à¼į à¼Įà¼Įà¼Įà¼Įà¼Įà¼Įà¼Įà¼Įà¼Įà¼Įà¼Įà¼Įà¼Įà¼Įà¼Įà¼Į
à¾Ĵ à¾²à½´à¼ĭ
à¾³ à¾Ĳà½¼
à¾³ à¼·
à¼¥ à¼¢à¼£
à¼¡à¼© à¼¢à¼¡
Ġ à½¡à½ĸ
à¾Ł à¾Łà½²à¼į
à½ĺà½Ĳ à½£
à½Ĥà½ħ à½¦
à½£à½ĺ à½¢
à½ĭ à½¢
à½Ĥ à½Ŀà½¢
à½ĵ à½łà½ĩ
à¾© à¾±à½ºà¼ĭ
à¼¤ à¼£à¼¥
à¼Ģ à½Ģà½¢
à½Ħ à½Ĥà½ŀà½ĵ
à½§ à½ķ
à¼¤ à¼¢à¼¢
à¾ĭ à½ĺ
à¼Ī à¼į
à¼¤à¼§ à¼¤
à¿ Ħ
Ġ à½Ĥà½ĳà½ĵ
à½¢ à½Ĥà½Ł
à¾±à½²à¼ĭ à½´
à¼¤à¼¤ à¼£
à½Ĥà½¦ à½ĳà½Ĥ
à½Ĩ à½Ģ
à½ı à½Ľ
à¾Ĵà¾± à¼µà¼ĭ
à¾Ļ à¼į
à½łà½ķ à½Ĭ
à½« à½Ħà½¥
à¼¤à¼§ à¼©
à¼ĭ à¾Ģ
à½ĸ à½Ĳà½ĺà½¦
à½´ à¾ĥà¼į
à½£ à½ħ
à½ģ à½Ķ
à½ģ à½Ł
à½ı à½¥
à½ĳà½Ĥ à½łà½ĳ
à¾¤ à¾Ĺà½¼
à¾· à½»à½¿à¼ĭ
à½ħà½ĵ à½ĺ
à½¨ à½ĺà½¦
à½±à½²à¼ĭ à¼½
à¼¤ à¼¢à¼¥
à¼© à¼łà¼ł
à¼ĭà¼ĳ à¼ĭ
à¼¡à¼§ à¼¥à¼§
à¼¤à¼¦ à¼¥
à¼¤à¼¨ à¼¦
à½ĺ à½ĸà½ĳà½Ĥ
à¼į à¼Įà¼Įà¼Įà¼Įà¼Įà¼Įà¼Įà¼Įà¼Įà¼Įà¼Įà¼Įà¼Įà¼Įà¼Įà¼Įà¼Įà¼Įà¼Įà¼Įà¼Įà¼Įà¼Įà¼Įà¼Įà¼Įà¼Įà¼Įà¼Įà¼Įà¼Įà¼Į
à¾± à¾Ĳà¾±à½ºà¼ĭ
à¾Ł à¾±à½ºà¼įà¼į
à½¤ à½Ķà½ł
à¾Ĺà½º à¼·
à¾ľ à¾·à¾±à¼ĭ
à¼Įà¼Įà¼Įà¼Įà¼Įà¼Įà¼Įà¼Į à¼Įà¼Įà¼Į
à¼ĭà¾¾ à¾¾
à¼įà¼įà¼įà¼įà¼įà¼įà¼įà¼į à¼įà¼įà¼įà¼įà¼įà¼įà¼įà¼į
à½£ à½ĳà½ĸ
à½Ħà½¦ à½ĵ
à¼¤ à¼£à¼¡
à¼¥ à¼¤à¼¥
à½Ĥ à½ĺà½¢
à½ĸà½¢ à½ł
à¾Łà½ºà¼ĭ à¼¸
à¼¥à¼¦ à¼§
à¾Īà¾Īà¾Īà¾Ī à¾Īà¾Ī
à½Ĥ à½Ĥà½ĵà½¦
à¼Ķ à¼Ķ
à¾Ĳà½´à¼ĭ à¼´
à¾¦à¾± à¾¡à½¼
à¼¤ à¼¡à¼¨
à¾ª à½²à¼į
à¼´ à¼´
à¼¤à¼¦ à¼¨
à¼¡à¼©à¼ł à¼¥
Ġ à½Ĳà½£
à½Ĥ à½Ļà½ĺ
à½ĵ à½ĺà½Ħ
à½Ħ à½ı
à½£ à½ĺà½ļà½ĵ
à½Ĥà½ĵà½¦ à½ĸà½¢
à¾·à½´ à½¿à¼į
à¼¥à¼ł à¼¥
à¾ ¸
à½Ĥ à½Ĩà½Ĥà½¦
à½²à¼ĭ à½¾à¼ĭ
à½łà½ģ à½¦
à½£à½ĺ à½£
à¾¤à¾²à½² à¼įà¼į
à¾µ à¾¨à½±à¼ĭ
à¾µ à½´à½¿à¼į
à¼µ à½¼à¼įà¼į
à¾ĭ à½£
à¼¤à¼¤ à¼¢
à¼¤à¼¤ à¼¦
à¼ĭà¾§ à½±à½´à¼ĭ
à½¢ à½«
à½ĵ à½ĸà½Ģ
à½Ħ à½ĸà½ŀ
à½Ķ à½Ĥà½Ł
à¾Ł à¾Łà½¿à¼į
à½ĸà½ł à½ģ
à½ĺà½Ĳ à½ĳ
à¾¨ à¼ĭà¼´
à¾¦ à½±à¼į
à¾« à½±à½²à¼ĭ
à½±à½¿à¼ĭ à½±à½´à¾ĥà¼ĭ
à¼ĭà¾§ à½ºà¼ĭ
à½´à¼ĭà¼½ à¼¼
à½ĵ à½ħà½ĵ
à¾Ł à¾Ł
à½ĳà½Ħ à½¡à½Ħ
à½ħ à½Ĥà½¦
à¼ĭà¼į à¼ĭà¼ĭà¼ĭà¼ĭà¼ĭà¼ĭà¼ĭà¼ĭà¼ĭà¼ĭà¼ĭà¼ĭà¼ĭà¼ĭà¼ĭà¼ĭà¼ĭà¼ĭà¼ĭà¼ĭà¼ĭà¼ĭà¼ĭà¼ĭà¼ĭà¼ĭà¼ĭà¼ĭà¼ĭà¼ĭà¼ĭà¼ĭà¼ĭà¼ĭà¼ĭà¼ĭà¼ĭà¼ĭà¼ĭà¼ĭà¼ĭà¼ĭà¼ĭà¼ĭà¼ĭà¼ĭà¼ĭà¼ĭà¼ĭà¼ĭà¼ĭà¼ĭà¼ĭà¼ĭà¼ĭà¼ĭà¼ĭà¼ĭà¼ĭà¼ĭà¼ĭà¼ĭà¼ĭà¼ĭ
à¾Ń à½½à¼į
à¾ķ à½¼à¼ĭ
à¾²à¼į à¼¼
à¾Ńà½± à¼Ķ
à¼¤à¼© à¼£
à¾¼ à½±à¼ĭ
Ġ à½ĳà½Ģà½ł
à½ĳ à½łà½Ħ
à½ī à½ı
à½¼à¼įà¼į à¼½
à½¼à¼įà¼į à¼Ħà¼ħà¼ħà¼įà¼į
à½ĳà½ĸà½Ħ à½ĸà½¦
à½Ĥà½Ļ à½ĵ
à½Ĺ à½ķ
à½ĵà½ĵ à½ĵ
à½¼ à½¼à¼įà¼į
à½¢ à½Ĥà½ŀ
à½ł à½ħ
à¾Ĳ à½¿à¼į
à½²à¼į à¼¼
à¼ĭà¼ ģà¾ĥà¼Ķ
à½İ à½ĸ
à½¦à½¦ à½¦
à¾´ à½´à¼ĭ
à¾µà¾¨ à½±à½¾à¼ĭ
à½ł à½Ķà½Ĥà½¦
à½Ĥà½¦ à½Ĥà½ħ
à¾¦ à½¿à¼į
à½łà½Ĩ à½ĵ
à½Ī à½¼à¼ĭ
à¼¡à¼¦ à¼¨à¼¢
Ġà¼Ķ à¼ĭ
à¼¤à¼¥ à¼¨
à¾Īà¾Īà¾Īà¾Ī à¾Īà¾Īà¾Ī
Ġ à½łà½Ĳ
à½ĺ à½ĳà½ĺ
à¾² à¼µ
à½ĺà½ļà½ĺà½¦ à½¦
à¼¥ à¼¢à¼ł
à¼¥ à¼¢à¼¦
à½ĸà½ĸ à½ĸà½¦
à¼¡à¼¤ à¼¡à¼©
Ġà¼§ à¼£
à½ĵ à½ĳà½Ķ
à¾© à¾¡à½ºà¼ĭ
à¾¨ à½¼à¼įà¼į
à½¨ à½ĵà½ĵ
à¾Ĺà½¼ à¼·
à¼¥ à¼¤à¼¤
à½Ĺ à½ĵà½Łà½«
à¼¡à¼¡ à¼¡à¼¡
à½© à½ĳà½Ħ
à¼¥à¼ł à¼©
Ġ à½ĸà½¤
à½² à½º
à½ķ à½ī
à¾Ĺ à¼·à½ºà¼ĭ
à½ĸà½ĳ à½ĳ
à½Ĺ à½ħ
à¼¤à¼§ à¼¡
à¾·à¾£ à½¾à¼ĭ
Ġà¼¦ à¼ł
Ġ à½ĸà½ĵ
à½¼ à¾ĥ
à½¨ à½ĵà½ĳ
à½ĸà½Ģ à½ĺ
à¼¡à¼§ à¼łà¼ł
Ġà¼¤ à¼©
à¼¥à¼§ à¼¦
à¼ĭ à¾¤
à¾± à¼µà½²à¼ĭ
à½ŀ à½Ķ
à¾±à½²à¼ĭ à½¼
à½Ĳ à½ķà½ķ
à¾±à½´ à½¿à¼ĭ
à¾¡à¼ĭ à¾¢
à½Į à½Į
à¼¡à¼¨ à¼©à¼ł
à¾¦à¾· à¾±
à½£ à½Ĩà½Ĥà½¦
à½ĸà½¦ à½Ķà½ł
à½ĳà½Ĥ à½¤
à½¤ à½ĳà½Ħ
à½ĵà½¦ à½ķ
à½§ à½İ
à½īà½ĺà½¦ à½¦
à¼¤ à¼£à¼¦
à½į à½ł
à½´à¼ĭà½Ī à½ºà¼ĭ
à¾µà¾¼ à½¿à¼ĭ
à½¢ à½Ĥà½Ħ
à½£ à½£à½¦
à¾Ł à¾Ńà½±
à½ĸà½¢ à½Ĥà½ĵà½¦
à½łà½ĸ à½ĺà½¦
à¾±à¼įà¼į à¼į
à¼¤ à¼¢à¼©
à½¼à¼įà¼įà¼įà¼į à¼Į
à¾µ à¾ŀ
à¼¡à¼¦ à¼¡à¼§
à¼ĭà¾§ à½²à½¿à¼į
à½ł à½ī
à¾² à½±à½´à¾ĥà¼ĭ
à¾² à¼·à½²
à½Ķà½¦ à½łà½ĳ
à¾Ĵà¾±à½´à¼ĭ à¼¼
à½¥ à½Ħ
à¼¥ à¼¡à¼¢
à½ĵ à½łà½ģ
à½Ķ à½Ĥà½ĵà½¦
à½łà½ĳ à½Ķ
à½ĵà½¦ à½ĸà½¢
à¾¨ à¾±à½ºà¼ĭ
à¾¦ à½´à¼į
à½łà½ĩ à½ĵ
à½Ĥà½¤ à½£
à½Ĥà½ĵ à½¢
Ġà¼į à¼¼
à¾¦à¾² à¾Ģ
à½« à½¢
à¼¤à¼¤ à¼¨
Ġà¼§ à¼¥
à¼¤à¼¦ à¼£
Ġ à½ĺà½İ
à¾±à½´ à½¿à¼į
à½¡à½Ħ à½ĸà½¦
à½Ķà½¦ à½Ĩ
à½Ĥà½ĵà½¦ à½Ģ
à¾Łà½º à¼·
à½Ĭ à½Ļ
à¼¤ à¼£à¼©
à¼Ģ à½ŀ
à½¾à¼įà¼į à¼į
Ġà¼¤ à¼¢
à¼¤à¼© à¼¨
à¼¤à¼¥ à¼¡
à¼¤à¼¥ à¼£
à½¢ à½¢à½Ħ
à½ĵ à½ĩ
à½Ħ à½Ĥà½ī
à¾± à¾Ļà½²
à¾Ł à¾±à½»à¼ĭ
à½ĸà½¦ à½Ģà½£
à½Ł à½ĳà½Ģ
à¾¡ à¾Ģ
à¾±à½¼ à½¿à¼į
à¾·à½¼à¼ĭ à¼½à¼¼
à¼¤à¼© à¼¥
à½¢ à½ĺà½Ħ
à½Ķ à½Ĥà½ı
à½Ĳ à½ı
à¾Ĵà¾± à¼µ
à¾²à¼ĭ à¼Ħà¼ħà¼įà¼į
à¾Ĺà½¼ à¼į
à¾Ĵà½¼à¼ĭ à¼½
à¼ł à¼¢à¼ł
à½ķà½İ à½Ħ
à¾Ĵà¾±à½´à¼ĭ à½Īà½²
à¼¥à¼ł à¼§
à¼¤à¼¤ à¼¡
à¼¤à¼¦ à¼¤
à¼ĭ à¾Ĺ
à½ĸ à½ĺà½Ħ
à½º à½»
à½£à½¦ à½ĸà½¢
à¾· à¾Ńà½²à¼ĭ
à½ĳà½ĺ à½Ĩ
à½Ĵ à½¤
à¾²à¾Ń à¼įà¼į
à¼¤à¼© à¼¦
à¼¤à¼¦ à¼¡
à¾ŀà¾ŀ à½¾à¼ĭ
Ġ à¼ĭà¼ĭà¼ĭà¼ĭà¼ĭà¼ĭà¼ĭà¼ĭà¼ĭà¼ĭà¼ĭà¼ĭà¼ĭà¼ĭà¼ĭà¼ĭà¼ĭà¼ĭà¼ĭà¼ĭà¼ĭà¼ĭà¼ĭà¼ĭà¼ĭà¼ĭà¼ĭà¼ĭà¼ĭà¼ĭà¼ĭà¼ĭà¼ĭà¼ĭà¼ĭà¼ĭà¼ĭà¼ĭà¼ĭà¼ĭ
à½ĺ à½łà½Ĥ
à½Ķà½¦ à½ģ
à½łà½Ĳ à½ĵ
à¼¤ à¼£à¼¢
à¼¥ à¼¢à¼©
à½Ĵ à½ķà½ĳ
à¼Ģ à½ĳà½Ħ
à¼¥à¼ł à¼¦
à½Ĳà½Ģ à½Ł
Ġ à½ķà½¢
à¼ĭ à¾ľ
à½Ķ à½ĸà½ł
à½Ķà½ł à½Ľ
à¾¤ à¾Ĳà½¼
à¾Ļ à½¿à¼į
à¾Łà¼ĭ à¼´
à¼¤à¼¥ à¼¤
à½ĵ à½ĺà½ĳ
à½Ķ à½ĸà½ĳà½Ĥ
à½¢à½Ħ à½¢
à¼¥ à¼¥à¼§
à¼¥à¼¥ à¼¢
à½¢ à½ĸà½ĳ
à½ºà¼ĭ à½´
à¾Ĵ à¾·à½±à¼ĭ
à½ĺà½¦ à½Ķà½¦
à¾²à½º à¼·
à½²à¼į à¼Įà¼Įà¼Į
à¾« à½´à¼įà¼į
à¼· à½¼à¼įà¼į
Ġ à½ļà½Ħà½¦
à¾² à¾°
à¾Ĳ à¾Ĳà¼ĭ
à¾¡ à½¿à¼į
à½ĸà½ĳà½Ĥ à½ħà½Ĥ
à½ĩ à½£
à¾Ĵà¾±à½´à¼ĭ à¼ĳ
à¼łà¼ł à¼§
Ġà¼ĳ à¼ĭ
à¼¡à¼§ à¼¢à¼ł
Ġ à½ĸà½ıà½Ħ
Ġ à½łà½Ĥà½£
à½ĳà½Ħ à½ł
à½ķ à½Ķ
à¾Ĳ à¾³à½¼
à½ĳà½ĸ à½ħ
à¾³à½² à½¾à¼ĭ
à½Ĳà½Ĥ à½¥
à¼¥ à¼¡à¼£
à½Ĥà½¦à½Ķ à½Ģ
à½²à¼ĭ à¾±
à¾² à¾Ĺà½ºà¼ĭ
à¾£ à½¾
à½ĺà½¢ à½ĳ
à¼¤ à¼£à¼¨
à¼¥ à¼¡à¼¥
à¼¦ à¼¡à¼ł
à¼¦ à¼¢à¼©
à¼¥à¼¦ à¼¡
à¼ĭà¾¾ à¾¾à¾¾à¾¾à¾¾
à½¦ à½ĺà½ļ
à½Ĥ à½ĩ
à¾« à½¿à¼į
à½Ĵ à½ķà½Ĳà½Ĥ
à¼¥à¼ł à¼¤
à½ĳ à½ĩ
à½Ĥ à½ĳà½Ķ
à½ĸ à½ĸà½ħ
à½£ à½Ķà½¦
à¾Ł à¾²à½¾à¼į
à¾±à½²à¼ĭ à¼Ī
à¾£ à¾²à½²à¼ĭ
à½Ħà½¦ à½ĸ
à¾±à¼ĭ à¼º
à¾¨ à¼·à¼ĭ
à¼¥ à¼¢à¼¢
à¼¥ à¼£à¼©
à¾µ à½±à½´à¼ĭ
à½ª à½Ħ
à¼¥à¼© à¼¨
Ġ à½ĳà½Ĥà½Ĥ
à½Ĥ à½Į
à½ĸ à½Ĥà½ħ
à½Ħà½¦ à½ĳà½Ħ
à½Ĥà½ŀà½ĵ à½ĺ
à¾ľ à½±
à¼¦ à¼§à¼¦
à¼¡à¼© à¼¢à¼¥
à¼Įà¼Įà¼Įà¼Į à¼Įà¼Įà¼Į
à¼¢à¼ł à¼¢à¼¡
à¼¡à¼£ à¼łà¼ł
à¾¨à¾±à½¼ à¼į
à¼¤à¼¨ à¼¨
Ġ à½Ħà½¦
à¼į ï»¿
à½¢à½Ħ à½ī
à¾²à½¼ à½¼à¼ĭ
à½ĺà½Ĩ à½¢
à½ģà½ĺà½¦ à½Ĥà½¦
à½Ĺ à½ıà½Ĥ
à¼¤à¼¨ à¼§
à½ĵ à½¢à½ĸ
à½£ à½ħà½ĵ
à½£ à½«à½Ħ
à½ĳà½Ħ à½Ĥà½ī
à½ĵà½¦ à½¡
à½Ł à½ĸà½¢
à¾¡ à½±à½´à¼ĭ
à½Ķà½¦ à½ķ
à¼¤ à¼¢à¼¨
à½Ĺ à½Ķ
à½Į à½Ķ
Ġà¼¥ à¼¨
à½Ĵà½Ĩ à½Ĳ
Ġ à½ĵà½ĵ
à½Ĥ à½§
à½£ à½Ķà½ĳ
à½£ à½Ķà½ĸ
à¾Ł à½»
à½Ł à½Ģ
à½Ŀ à½Ķ
à¼¤ à¼¢à¼¡
à¼łà¼ł à¼¥
à½¾à¼įà¼į à¼Ħà¼ħà¼įà¼į
à¼¥à¼§ à¼ł
à¼¥à¼¦ à¼©
à½Ĥà½¦ à½£à½¦
à½¼à¼įà¼į à¼ĭà¼ĭà¼ĭà¼ĭà¼ĭà¼ĭà¼ĭà¼ĭà¼ĭà¼ĭà¼ĭà¼ĭà¼ĭà¼ĭà¼ĭà¼ĭà¼ĭà¼ĭà¼ĭà¼ĭà¼ĭà¼ĭà¼ĭà¼ĭà¼ĭà¼ĭà¼ĭà¼ĭà¼ĭà¼ĭà¼ĭà¼ĭà¼ĭà¼ĭà¼ĭà¼ĭà¼ĭà¼ĭà¼ĭà¼ĭà¼ĭà¼ĭà¼ĭà¼ĭà¼ĭà¼ĭà¼ĭà¼ĭà¼ĭà¼ĭà¼ĭà¼ĭà¼ĭà¼ĭà¼ĭà¼ĭà¼ĭà¼ĭà¼ĭà¼ĭà¼ĭà¼ĭà¼ĭà¼ĭ
à½Ļ à½Ĭ
à¾Ĺà½ºà¼ĭ à½Īà½²
à¾Łà½´ à¼Ķ
Ġà¼ Ħ
à¼ł à¼¥à¼ł
à¾Ľ à½²à¼į
à¼¤à¼© à¼§
à¼¤à¼§ à¼¨
à¼¥à¼¥ à¼¨
Ġ à½Ĥà½ĳà½ĺà½¦
Ġ à½ŀà½¢
à½ı à½«
à½ĺà½ļ à½Ĥ
à½ħà½ĵ à½ŀ
à¾Łà½º à½º
à½łà½ļ à½ĵ
à½ĺà½İ à½Įà½£
Ġà½ī à½Ħ
à½ĥ à½ĸ
à¾±à½²à¼ĭà¼ĳ à¼į
à¼įà¼ĭà¼ĭà¼ĭà¼ĭà¼ĭà¼ĭà¼ĭà¼ĭà¼ĭà¼ĭà¼ĭà¼ĭà¼ĭà¼ĭà¼ĭà¼ĭ à¼ĭ
à½Ĥ à½ĺà½ĳ
à½¡ à½ļ
à¾Ĳà¾± à¾¤à½º
à½Ĥà½ıà½ĵ à½ĳà½Ħ
à½Ĵ à½ļ
à¾Ľ à¼Ķ
à¾¶ à½±
Ġà¼Ħà¼ħ à¼Ķ
à½¼à¼ĭà½Ī à½²à¼ĭ
à¼ĭ à¾Ģà¼ĭ
à½¡ à½Ĩ
à½Ķà½¦ à½Ķ
à¾« à½±à½´
à¾Ń à½±à½¿à¼ĭ
à¾Ĳà¾± à¼·à½ºà¼ĭ
à¼¥ à¼¡à¼©
à¼¥ à¼¥à¼ł
à¼¥ à¼¤à¼©
à¼¡à¼©à¼ł à¼¡
à¼Įà¼Įà¼Įà¼Įà¼Įà¼Įà¼Įà¼Įà¼Įà¼Įà¼Įà¼Į à¼Įà¼Įà¼Į
à¼ ı
à½ĺ à½łà½ĸ
à½´à¼ĭ à¼Ħà¼ħ
à¾Ł à¾Łà½±à¼ĭ
à¾¨ à¾¨à½²à¼ĭ
à¼§ à¼¡à¼ł
à¼¥ à¼£à¼¢
à¾ŀ à½¿à¼į
à¾¶ à½´
à¼¥à¼¥ à¼¤
Ġ à½ĸà½¦à½ĳ
à½ĵ à½ĳà½Ģ
à½ĵà½¦ à½łà½ĳ
à½£à½¦ à½łà½ĳ
à¾¤ à½±à½´
à½Ĥà½ĵà½¦ à½ĳà½Ħ
à½ĵà½Ħ à½ĵ
à½£à½Ĥ à½£
à¼łà¼ł à¼¤
à¼¥à¼ł à¼£
à¼¤à¼¨ à¼£
à¼¤à¼¨ à¼¤
à¼©à¼ł à¼©
à½Ķ à½ĺà½ļ
à½Ķà½¢ à½ĺà½Ĳ
à½ĸà½¢ à½Ĥà½ŀà½Ĥ
à¾Ĳà¾± à¾¡à½¼
à¼¤à¼¨ à¼¢
à¾¨à¾¨ à½¿à¼ĭ
à½ŀ à½¥
à½¤ à½¥
à¾¡ à¾Ĺà½º
à¾Ķ à¾·
à½Ļ à½İà½ł
à¼§ à¼£à¼ł
à¼¤ à¼£à¼§
Ġà½¢ à½ı
à¾ ®
à½¢ à½£à½¦
à¾£ à¼Ķ
à½ħà½ĵ à½£
à¾Ħ à¼µ
Ġ à½Ļà½ĵ
à¼ ģà¾ĥà¼Ķ
à½ºà¼ĭ à½º
à¾£ à¾²à¾Ģà¼ĭ
à½Ķà½¦ à½Ĥ
à¾© à¾¨à¼ĭ
à¾Ļ à½²à¼įà¼į
à¾ľ à½¿à¼ĭ
à½ĸà½ĸ à½ĵ
Ġ à¼¡à¼łà¼ł
à¼ĭ à½¶
à½Ĥ à½łà½ģ
à½Ħ à½ĸà½ĳà½Ĥ
à½²à¼ĭ à¾Ĳ
à½Ł à½Ĩà½Ħ
à¾³ à½±à½²
à¾© à¾©à¼ĭ
à½±à¼į à¼Įà¼Įà¼Į
à¼¡à¼¤ à¼¡à¼¥
à½Ħ à½łà½Ľ
à¾± à½½
à½²à¼ĭ à½±à½´à¾ĥà¼ĭ
à½ĵà½¦ à½łà½ĸ
à½±à¼ĭ à½±
à¾©à¼ĭ à¼´
à½ĺà½Ĳà½ł à½¡à½¦
à½Ĺ à½Ĥà½¦
à¼¤à¼© à¼¤
à½²à¼ĭà½Ī à¾±à½ºà¼ĭ
à¼¥à¼¨ à¼ł
à½£ à½¥
à½ĸà½¢ à½¡à½Ħ
à½ĳà½Ģà½¢ à½Ķ
à¼ĭà½² à½¿à¼ĭ
à¼Įà¼Įà¼Įà¼Įà¼Įà¼Įà¼Įà¼Į à¼Įà¼Į
à½ĵ à½ĺà½Ĥ
à½²à¼ĭ à¾£
à½¡ à½§
à½¼à¼ĭ à¼ŀà¼į
à½Ķà½¢ à½ĸà½Ĥ
à¼ĭà¼ĭà¼ĭà¼ĭ à¼ĭà¼¼
à¼½ à¼½
à¼¡à¼§ à¼¢à¼¨
à¼¤à¼¥ à¼¢
à¿ Ģ
à½Ĥà½ħ à½ł
à½ĳà½Ģ à½Ĥ
à½Ĳà½£ à½ĸà½¢
Ġà¼ ¸
à¼¥ à¼£à¼ł
à½Ĵ à½Łà½ĳ
à¼¦ à¼¡à¼£
à½Į à½İ
à¼¥à¼ł à¼¨
Ġà¼¥ à¼¥
à½¼à¼ĭà¼½ à¼¼
à½¦ à½ĺà½ĳ
à¾Ł à¾Łà½²
à½ĵà½¦ à½ĸà½ħ
à¾¦ à¾¦à½ºà¼ĭ
à¼ĭà½Ī à¾Ĺà½ºà¼ĭ
à¾·à½²à¼ĭ à¾İ
Ġà¼ĭ à¼ĭà¼į
à¾ŀ à¾ŀà½²à¼ĭ
à¼¡à¼¦ à¼¡à¼¨
à¼¥à¼ł à¼¡
à¼ĭà¾§ à¾±à½¿à¼į
à¼¥à¼¦ à¼¥
Ġà¼© à¼©
à½ĳ à½Ŀ
à½ł à½Ħà½¦
à¾²à¼ĭ à¾İ
à½ĸà½¦à½ĺ à½Ĥ
à¾¤à¾±à½² à½²
à¼¥à¼§ à¼§
à¼¤à¼¦ à¼¢
à½ĳà½Ĥ à½Ł
à¾±à½º à¼·
à¾· à¾²à½±à¾Ģà¼ĭ
à¼¤à¼© à¼¢
à¼¥à¼¥ à¼£
à¼įà¼ĭà¼ĭà¼ĭà¼ĭà¼ĭà¼ĭà¼ĭà¼ĭà¼ĭà¼ĭà¼ĭà¼ĭà¼ĭà¼ĭà¼ĭà¼ĭ à¼ĭà¼ĭ
à½Ĥ à½łà½ĩ
à½¢ à½łà½ģ
à½Ħ à½łà½ĩ
à½ĳà½Ħ à½ĳà½Ĥ
à½ĳà½Ħ à½łà½ĩ
à½ħ à½Ķ
à¾Ĵ à¾¤à½º
à½ĳà½Ĥ à½ĸà½¦
à¾¤ à½¿à¼ĭ
à½¼à¼į à¼ĭà¼ĭà¼ĭ
à½ĳà½ĳ à½ĵ
à¾¦à¾±à½² à½²
à¼¥ à¼¡à¼¤
à¼¥ à¼¤à¼¨
à¾¡à¾· à½²à¼Ķ
à¼¡à¼§ à¼¥à¼¡
à½© à½¨
à½Ĥ à½ĺà½Ĩ
à½Ħ à½ĺà½Ĳ
à½Ķ à½ĸà½Ł
à½²à¼ĭ à¼Ħà¼įà¼į
à½ĸà½¤à½ĳ à½Ķà½¢
à½ĭ à½¦
à¼¢à¼łà¼ł à¼łà¼ł
à¼¤à¼© à¼¡
à¼¥à¼¦ à¼¢
à½Łà½ĩ à½«à½Ĥ
à½ĸ à½Ĥà½ĵà½¦
à½Ħ à½ĸà½ĳ
à½ºà¼ĭ à½¾à¼ĭ
à¾² à¾©à½¼
à½£à½¦ à½ŀ
à¾· à¾²à½±
à½± à½ºà¼į
à¾¦ à¾·à½²à½¿à¼ĭ
à¾Ń à¾ĥà¼ĭ
à¼¥ à¼¢à¼¡
à¾Łà¾Ń à¼į
à¼ĭ à¾Ĳà½¼
à¼ĭ à¾©à½¼à¼ĭ
à½£ à½Ĥà½ħ
à½ĸà½¦ à½ŀ
à¾Ĳ à½¿à¼ĭ
à½¡à½Ħ à½ĳà½Ħ
à¾Ļ à¾Ģ
à½Ĥà½ĵà½¦ à½¢
à¾Łà¼ĭ à¼ĳ
à½Ħà½Ĥ à½Ĥ
à¼¥ à¼¢à¼§
Ġà¼¥ à¼§
Ġĉĉ ĉ
Ġ à½Ĥà½īà½ĵ
à½ĺ à½Ĥà½ħ
à½ı à½ģ
à½ĸà½ŀ à½Ĥà½ĳ
à½£à½¦ à½ĸà½Ł
à½ĺà½Ľ à½ĳà½Ķà½ł
à½Łà½ĸ à½¥
à½Ĺà½« à½Ĥà½¥
à½ĳ à½¥
à½Ĥ à½ĺà½¦
à½ĸ à½ĺà½Ĩ
à¼į à¼Įà¼Įà¼Įà¼Į
à½Ĩ à½ĳà½Ħ
à½ĸà½¦ à½¡
à½ĳà½Ĥ à½ŀà½ĵ
à½ĸà½¢ à½Ĩà½ĳ
à½Ł à½Ļ
à¾© à¾Ńà½¼à¼ĭ
à¾Ń à½½à¼ĭ
à¼¥ à¼¡à¼§
à¼¥ à¼£à¼£
à¼¦ à¼łà¼łà¼ł
à¼¥à¼ł à¼¢
à¾±à½²à¼ĭà½Ī à¾²à½º
à½ĸ à½ĺà½Ĳ
à½ķ à½ķà½¥
à¾¡ à½¾à¼ĭ
à¾¦ à¾±à½´
à¾¦ à½¼à¼į
à¾ª à½¿à¼ĭ
à¼¡à¼§ à¼¢à¼§
à¼Ģ à½¨à½Ĥ
Ġà¼¥ à¼£
à¾±à½²à¼ĭà½Ī à½ºà¼ĭ
à½Łà½Ĩ à½Ĳ
à½ĳà½Ħ à½łà½Ĥ
à½ĺà½¦ à½ī
à½¤ à½Ĳ
à¾« à¾«
à¼¥ à¼¡à¼¡
à¼¡à¼¨ à¼©à¼©
Ġà¼§ à¼¤
Ġà¼§ à¼¦
à¼¥à¼§ à¼©
à¼¥à¼¦ à¼¦
à½Ķà½ĸ à½ļ
Ġ à½Į
à¼į à¼º
à½Ķ à½ĳà½Ķ
à½´à¼ĭ à¼İ
à½´à¼ĭ à½Īà½¼
à½¡à½Ħ à½łà½Ĥ
à½ĺà½Ĩ à½¦
à½łà½ļ à½Ĥà½¦
à½ĺà½Ĳà½¢ à½Ĳ
à½Ŀ à½ĸ
à¾Ĵà¾² à¾Ģà¼ĭ
à¼¥ à¼£à¼¡
à¾ľà¼ĭ à½±à½²à¼ĭ
à¼ĭà¾¢ à½±
à¼ĭ à¾©
à½Ĥ à½ĸà½ħ
à½¢ à½ĩ
à½²à¼ĭ à¾³
à½Ĥà½¦ à½ķ
à¾² à¾±à½¼
à¾Ł à¾¡à½ºà¼ĭ
à½£à½¦ à½ĸà½¦
à¾Łà½¼ à½¼
à½ħà½ĳ à½ĵ
à¼ĭà¼įà¼į à¼ĭ
à¼¥ à¼¢à¼¥
à¼¥ à¼£à¼§
à½Ĵ à½Ģà½Ħ
Ġà¼ĭà¼ĭà¼ĭà¼ĭà¼ĭà¼ĭà¼ĭà¼ĭà¼ĭà¼ĭà¼ĭà¼ĭà¼ĭà¼ĭà¼ĭà¼ĭ à¼ĭà¼ĭà¼ĭ
à½Ķ à½£à½ł
à¾² à¼·à½¼
à¾· à¾²à¼į
à¾¦ à½¾à¼į
à½£à½Ĥ à½¢
à½Ĵ à½ķà½Ŀ
à¼¦ à¼¤à¼ł
à¾ļ à¾²à½±à¼ĭ
à¼ĭà½²à¼ĭ à½¼à¼ĭà½ºà¼ĭ
à¾·à¾² à½¾à¼į
Ġà¼¤ à¼¨
à½´à½¿à¼į à¼Įà¼Įà¼Į
à¼ĭà¿ Ĵ
à¾Ĵ à½±à½¿à¼ĭ
à½Ķà½¢ à½Ĥà½Ł
à½Ł à½ı
à¾· à¼·
à¾¨ à½±à½¾à¼ĭ
à½²à¼į à¼ĭà¼ĭà¼ĭ
à¾Ķà½¼ à½¼
à½ĺà½ī à½£
à½¥ à½ĸ
à½łà½Ĥà½£ à½ĸ
à½Ĵ à½Łà½ļ
à¼¦ à¼¤à¼¡
Ġà¼§ à¼¢
à¼¥à¼¥ à¼¡
à¼¥à¼¨ à¼©
Ġ à½ĺà½ł
à½Ķ à½Ľ
à½¼à¼ĭ à¼ĭ
à¾Ł à¾²à½²à¼į
à¾Ł à¾¦à¾·à½º
à¾²à½² à½¿à¼į
à½Ļ à½ĸà½¦
à¾Ļ à½±à½²à¼ĭ
à½Łà½Ĥ à½¢
à½±à½´à½¾à¼ĭ à¼ĳ
à¼¤à¼¨ à¼¡
Ġ à¼ĭà¼¼
à½ĸ à½ĸà½ł
à¼į à¼Įà¼Įà¼Įà¼Įà¼Įà¼Įà¼Įà¼Įà¼Įà¼Įà¼Įà¼Įà¼Įà¼Įà¼Įà¼Įà¼Įà¼Įà¼Įà¼Įà¼Įà¼Įà¼Įà¼Įà¼Įà¼Įà¼Įà¼Įà¼Įà¼Įà¼Įà¼Įà¼Įà¼Įà¼Įà¼Įà¼Įà¼Įà¼Įà¼Įà¼Įà¼Įà¼Įà¼Įà¼Įà¼Įà¼Įà¼Įà¼Įà¼Įà¼Įà¼Įà¼Įà¼Įà¼Įà¼Įà¼Įà¼Įà¼Įà¼Įà¼Įà¼Įà¼Įà¼Į
à½£ à½ĳà½Ĥà½ł
à½ħ à½«
à½ģ à½¨
à¾£ à½±à½²à¼į
à½ĸà½ŀ à½£
à¾Łà½ºà¼į à¼ĭà¼ĭà¼ĭà¼ĭà¼ĭ
à½Ĳà½¢ à½Ķà½ł
à¼¥ à¼¡à¼¨
à¼¥ à¼©à¼©
à¼¥ à¼¤à¼¡
à½Ģà½¢ à½İ
à¼¦à¼ł à¼¦
Ġà¼¥ à¼¢
à¼įà¼ĭà¼ĭà¼ĭà¼ĭà¼ĭà¼ĭà¼ĭà¼ĭà¼ĭà¼ĭà¼ĭà¼ĭà¼ĭà¼ĭà¼ĭà¼ĭ à¼ĭà¼ĭà¼ĭà¼ĭ
à½¢ à½Ŀ
à½¼à¼ĭ à½ºà¼į
à¾²à½´ à½¿à¼į
à½ĳà½ĸ à½Ģ
à¾·à¼ĭ à¼Ħà¼ħà¼įà¼į
à¾¨à¾² à¼Ķ
à½ĵà½ĳ à½ł
à¼¥ à¼¢à¼¤
à¼¥ à¼¤à¼ł
à½Ĵ à½ķà½ŀ
à¾±à½´à¼ĭ à¼½
à½ĭ à½Ĥ
à½Ķà½Ķ à½Ķà½Ķ
à¾·à¾²à¼ĭà½µ à½¾à¼ĭ
Ġ à½łà½ĸà½ł
à½ĳ à½Ĥà½¦à½£
à½¢ à½ĺà½Ĳ
à½ĵ à½ĺà½ģ
à¾± à¾Łà½º
à½£ à½Ĥà½ı
à¾¡ à¾¡à¼ĭ
à¾³ à¼µà¼ĭ
à½± à¾ĥà½¿à¼ĭ
à½Ĥà½ŀà½ĵ à½¢
à½§ à½¡
à½Ŀ à½ª
à¼¡à¼¢ à¼£à¼¤
à¾¡à¾· à½¼à¼į
à¼ĭà½µ à¾ĥà¼Ķ
à¼¥à¼¨ à¼§
à¼¥à¼¨ à¼¨
Ġ à½ļà½ĵ
à½Ħ à½¢à½Ħ
à½´ à½¾à¼įà¼į
à¼į à¼Ħà¼ħà¼ħà¼įà¼į
à¾¡ à½±à¼į
à¾Ļ à½±à½¿à¼ĭ
à½Ľ à½Ľà½§
à½¨ à½Ĥà½¦
à½īà½ĺà½¦ à½Ķà½¢
à½Ĳà½¢ à½Ķ
à¼¥ à¼¤à¼§
à¼¥ à¼¤à¼£
à¾» à½¾à¼į
Ġà¼§ à¼©
à¼¥à¼¦ à¼£
à½Ķà½Ķ à½Ķà½ĸà½ļ
Ġ à¾Īà¾Īà¾Ī
à½Ħ à½łà½ģ
à½ĺ à½ħà½ĵ
à¾² à¾ĥà¼į
à¾Ķ à¾·à½ºà¼ĭ
à¾¨ à½±à½²
à½§ à½ĵà½ł
à¾·à¼ĭ à¼½
à½Ŀ à½ŀ
à½Ŀ à½¦à½ı
à¼¦ à¼¡à¼¨
à¼Įà¼Įà¼Įà¼Į à¼Įà¼Į
à¼¥à¼¥ à¼©
à½²à¼ĭà½¼à¼ĭ à½º
à½¦ à½Ķà½ĵ
à½ĺ à½ĵà½Ħ
à½ĵà½¦ à½Ĩ
à¾²à½´ à½¿à¼ĭ
à½Ļ à½ĺà½ĳ
à¾¨ à½¾à¼į
à¼¦ à¼£à¼ł
à½ĭ à½ĳ
à¼¥à¼© à¼¥
à¼ĭà¼Ħà¼ħ à¼ħà¼įà¼į
à¼įà¼ĭà¼ĭà¼ĭà¼ĭà¼ĭà¼ĭà¼ĭà¼ĭà¼ĭà¼ĭà¼ĭà¼ĭà¼ĭà¼ĭà¼ĭà¼ĭ à¼ĭà¼ĭà¼ĭà¼ĭà¼ĭà¼ĭ
Ġ à½ĸà½¦à½Ħ
à½¦ à½ĸà½Ģ
à½ĸà½¦ à½¤
à½ĳà½ĸ à½ĸà½¦
à¾²à½º à½ºà¼ĭ
à½ĺà½¢ à½ĺ
à½¡à½ĵ à½ł
à¼¥ à¼¢à¼¨
Ġà¼į à¼Ħà¼ħà¼įà¼į
à¼¡à¼¨ à¼£à¼ł
à¼¡à¼¨ à¼©à¼¥
à¾¶ à½±à½²à¼ĭ
à½ķà½¥ à½¢
Ġà¼¨ à¼ł
à½ĵ à½Ķà½ĵ
à½Ł à½ĳà½Ķ
à¾Ķà¼ĭ à¼½
à½Ĥà½¤ à½¦
à¾¤à¾±à½¼ à½¼
à½Ħ à½ĺà½Ħ
à½Ĥà½¦ à½ģ
à½¨ à½īà½ł
à½ĸà½ı à½ł
à¾» à½¿à¼ĭ
à½Ĺà½Ļ à½¡
à½² à¾ĥà¼ĭ
à½ĺ à½Ĥà½Ħ
à½Ķ à½ĳà½Ģ
à¾± à½¾à¼įà¼į
à½ł à½Ł
à¾Ł à¾±à½²à¼ĭ
à½ĺà½¦ à½łà½ĳ
à½Ĥà½ŀ à½Ł
à½Ľ à½¨
à½ĸà½Ļ à½¢
à¼¥ à¼¡à¼¦
à¼¥ à¼£à¼¦
à¾ļ à½²à½¿à¼į
à¾Łà¾Ń à¾ĥà¼ĭ
à¼Įà¼Įà¼Įà¼Įà¼Įà¼Įà¼Įà¼Įà¼Įà¼Įà¼Įà¼Į à¼Įà¼Į
à½ĺ à½¡à½Ħ
à½¼à¼ĭ à¼į
à½ĸà½¦ à½ı
à¾¤ à½¿à¼į
à½Ĥà½Ħ à½ĵ
à½Ĥà½Ħ à½ĳà½Ħ
à½¿ à¼Ķ
à¼¥ à¼£à¼¥
à¼¦ à¼§à¼ł
à¼¡à¼¢ à¼©à¼ł
à½ķà½¦ à½ķ
à½§à½§ à½§
à½Ĵà½ĳà½Ħ à½¥
à½ĳ à½ĳà½ĸ
à½ĵ à½Ĩà½ĳ
à½Ģ à½ĺà½£
à½ĸà½¦ à½Ĩ
à¾Łà½º à½ºà¼ĭ
à¾³à½¼ à¼Ķ
à½Ĥà½ŀà½ĵ à½ī
à½£à½ĺ à½ĵ
à½±à½² à½¾à¼įà¼į
à¾ľ à½±à½´
à½» à¼Ķ
à¼¡à¼§ à¼©à¼¢
Ġ à½Ģà½ĵ
à½£ à½Ĥà½ŀ
à½£ à½«
à¾Ł à½¿à¼įà¼į
à½Ĵ à½ķà½ħ
à¼¨ à¼¡à¼¥
à¼Įà¼Įà¼Įà¼Įà¼Įà¼Įà¼Įà¼Į à¼Į
à¼ĭ à¾¤à¼ĭ
à¾¨ à¾¡à½¼
à½ķà½ĵ à½łà½ĳ
à½ĸà½¦à½£ à½ĳ
à¾Ľ à½±à¼į
à¼¥à¼§ à¼¥
à½¢ à½Ĥà½ī
à½Ħ à½Ķà½ĳ
à½¼à¼ĭ à¼Ħà¼ħ
à¾Ł à¾¤à½ºà¼ĭ
à½ĳà½ĸ à½ĳà½Ĥ
à½± à¼·à¼ĭ
à¾Ĳà¾±à½º à½º
à¾ļ à½¼à½¾à¼į
à¾» à½´
à¼¦à¼ł à¼¡
à¼¦à¼ł à¼¢
à¼¦à¼ł à¼¤
à½¼à¼ĭà½Ī à¾·à½²
à¼ĭ à½³
à½ĸ à½ĸà½Ģ
à¾± à¾¦à¾·à½±à½²à¼ĭ
à½£ à½ĩ
à½£ à½ĸà½Ģ
à½¼à¼ĭ à½²à¼ĭ
à½¡à½Ħ à½ķ
à¾³à¼ĭ à¼ĳ
à½Ĭ à½Ħ
à½Ĭ à½ĭ
à½łà½ļà½£ à½ĳ
à¾Łà½² à½¾à¼į
à¾ļ à¾²à¼ĭ
à¼¡à¼¨ à¼¨à¼¨
à¼ĭà½²à¼ĭ à½ºà¼ĭ
Ġà¼§ à¼¡
à¼¥à¼¨ à¼¦
à¼¥à¼© à¼ł
à¼¥à¼© à¼¦
à¾¦à¾¦ à½±
à¼ Ħ
à½ĺ à½Ļà½ĵ
à½łà½ģ à½Ħà½¦
à½ĺà½ģ à½Ĥ
à½ģà½ĺà½¦ à½¦
à¼¡à¼¨ à¼łà¼ł
à¾Ĵà¾· à¾ĥà¼ĭ
à½ķà½İ à½Ĥà½¥
à½¦ à½ĸà½Ł
à½Ķ à½Ĥà½ŀ
à½¤ à½İ
à½ĳà½ĸ à½¤à½ĳ
à¾Ļ à½¼à¼į
à¾¨ à½±à¼Ķ
à½ĳà½ĸà½Ħ à½ĸ
à¾Ĳà¾± à¾³à½º
à½Ī à½±à½²à¼ĭ
à¼¥ à¼©à¼§
à½¦ à½Ķà½ĳ
à½ķ à½£à½Ĥà½¥
à½ı à½ĺà½¦
à½łà½Ĥ à½łà½Ħ
à½Ķà½¦ à½¤
à½ĺà½Ĩ à½Ĥà½¦
à¾Ń à½¾
à¾Łà½´ à½¿à¼į
à¼¥ à¼¤à¼¢
à¼¦ à¼£à¼¥
à¾Ńà½± à½²à¼į
Ġà¼§ à¼¨
à½¢ à½ĳà½ĸ
à½ĵ à½ĺà½ļà½ĵ
à½ĺà½¦ à½ģ
à½Ļ à½ī
à¾¦ à½±à½´à¼ĭ
à½Ľ à½¡à½ĵ
à½ĸà½ĳà½Ĥ à½ĵ
à½ĺà½Ľ à½¢
à¾Łà½ºà¼ĭ à¼¼
à½±à½´ à¼Ķ
à½±à½´à¾ĥà¼ĭ à½±à½´à¾ĥà¼ĭ
à¼ĭà¼¼ à¼¼
à¼¡à¼¢ à¼¥à¼£
à¾¡à¾· à¼įà¼į
à¾» à½¼
à¾ĳ à½¾à¼ĭ
à½Ĥ à½Ĥà½Ł
à½Ħ à½ĺà½ł
à½ĺ à½ĸà½ħ
à½£ à½Ĥà½ĳ
à½¼à¼ĭ à½¼à¼ĭ
à¾±à½º à¼µ
à¾· à¾¨à½±à¼ĭ
à¾¡à½¼ à½¼
à½Ĥà½Ļ à½¦
à½īà½ĺà½¦ à½Ķ
à½¥ à½£
à¼¡à¼§ à¼£à¼§
Ġà¼Ħà¼ħ à¼ħ
à¾¡à¾·à½² à½¾à¼ĭ
à½łà½Ļ à½£
à¼ĭà¿ Ģ
Ġ à½ĺà½ĳà½ł
à¼ĭ à½¼à¼į
à½¦ à½Ĥà½ĵ
à½¼à¼ĭ à½±à¼ĭ
à¾· à½±à¼įà¼į
à½Ļ à½ĺà½¦
à¾Ĵà¾±à½´ à½´à¼ĭ
à½¨ à½Į
à½ĵà½ĺ à½ĵ
à¾³à½´à¼ĭ à½´
à¾±à¼į à¼½
à¼¡à¼£ à¼¥à¼¦
à¼¡à¼§ à¼©à¼£
à¼ĭà½²à¼ĭ à½²à¼ĭ
à¼¦à¼ł à¼§
à¼§à¼¦ à¼£
Ġ à½¢à½£
à½Ĥ à½ĸà½ĳà½Ĥ
à½ĸ à½Ĥà½ŀ
à½¢ à½¨
à½Ģ à½ĳà½Ĥ
à¾Ł à¾²à½±à½²à¼į
à½ĸà½ł à½ĩ
à¾±à¼ĭ à¼İ
à½Ĥà½ŀà½ĵ à½ĵ
à½ĳà½Ĥà½ł à½ĸà½¢
à½Ŀ à½Ŀ
à¼¦ à¼¢à¼ł
à¼¡à¼¨ à¼¥à¼¦
à¾´ à½±à¼ĭ
à¼¥à¼¦ à¼¤
à¼¥à¼© à¼¢
à¼¥à¼© à¼¤
à½¼à¼ĭà½ºà¼ĭ à½²
à¼Įà¼Įà¼Įà¼Įà¼Įà¼Įà¼Įà¼Įà¼Įà¼Įà¼Įà¼Į à¼Į
à½Ĥà½¦ à½łà½ĸ
à½Ķà½¢ à½Ĳà½¢
à½¤ à½ģ
à¾· à¾±à½²à¼ĭ
à½± à¾ĥà¼Ķ
à¾Ļ à½±à½¾à¼ĭ
à½ħà½ĵ à½ĳà½ĺ
à½ĸà½ĳà½Ĥ à½Ĥà½¡
à¾¦à¾± à½±à¼ĭ
à¼¥ à¼£à¼¨
à¼¦ à¼¤à¼©
à¼Įà¼Įà¼Įà¼Į à¼Į
à¾ł à½¾à¼į
à¼įà¼½ à¼į
à½ĳ à½ĺà½Ĳ
à¾² à¼µà¼ĭ
à½¡ à½Ķà½¦
à¼įà¼į à¼ĭà¼ĭ
à½Ģ à½Ĥà½¡
à¾±à½²à¼ĭ à¼Ŀà¼į
à¾¤ à¾³à½º
à¾²à¼ĭ à¼½à¼¼
à¾Ń à½¾à¼įà¼į
à½Į à½ĸ
à¼ĭà¾ ¬
à¾ŀ à½±
à¼¡à¼¦ à¼©à¼§
à½Ĺà½Ĥ à½«
Ġà¼¥ à¼¤
Ġà¼© à¼§
à½Ĳà½Ĳ à½Ĳ
à½ĳ à½łà½ĺ
à½¢ à½Ķà½Ĥ
à½ºà¼ĭ à¾İ
à½ĳà½Ħ à½łà½Ĥà½£
à¾Ĳ à½±à½²à¼ĭ
à½ºà¼į à¼Įà¼Įà¼Į
à½ĵà½Ħ à½ł
à½£à½Ĥ à½Ķ
à½ĸà½ŀà½Ĥ à½Ĥà½¡
à¾Łà½´ à½¾à¼į
à¼§ à¼łà¼łà¼ł
à¼¦ à¼¦à¼ł
à¾ļ à½¼
à¾ļ à¾²à½²à½¿à¼ĭ
à¼¡à¼£ à¼¥à¼§
à¾» à½±à¼į
à¾¶ à½²
à¾·à¾± à½»à¼ĭ
à¼ĭà¾İ à¼Ķ
à¼¥à¼§ à¼¢
à¼¥à¼¨ à¼¢
à¼§à¼¦ à¼¢
à¾¼ à¾»
Ġà¼Įà¼Įà¼Įà¼Įà¼Įà¼Įà¼Įà¼Įà¼Įà¼Įà¼Įà¼Įà¼Įà¼Įà¼Įà¼Įà¼Įà¼Įà¼Įà¼Įà¼Įà¼Įà¼Įà¼Įà¼Įà¼Įà¼Įà¼Įà¼Įà¼Įà¼Įà¼Įà¼Į à¼Įà¼Įà¼Įà¼Įà¼Įà¼Įà¼Įà¼Įà¼Įà¼Įà¼Įà¼Įà¼Įà¼Įà¼Įà¼Į
à½Ķà½Ķà½Ķà½ĸà½ļ à½ķà½Ľ
Ġ à½ĸà½ı
à¼ĭ à¾³à½½à¼ĭ
à½ĳ à½¡à½Ħ
à½Ĥ à½Ĥà½ĺ
à½Ķà½¢ à½łà½Ľ
à½¡à½Ħ à½Ĥ
à½Ĥà½ŀ à½ĵà½¦
à¾¨ à¾±à½º
à½ĸà½Ļ à½ĸà½¦
à¼§ à¼¤à¼¢
à¼¥ à¼¤à¼¦
à¼¦ à¼¢à¼¤
à¼¦ à¼£à¼£
à¼¦ à¼§à¼©
à¾ļ à¼įà¼į
à¼¡à¼¨ à¼©à¼¢
à¼¡à¼¤à¼ł à¼©
à¾±à½² à½º
à½ļ à½Ķà½Ķ
à½Ķà½¢ à½ģ
à¾« à¾·à¼ĭ
à½Ĥà½¦à½£ à½ĸà½ł
à½Ħà½Ĥ à½¢
à¼łà¼ł à¼©
à¼¡à¼§ à¼©à¼¡
à¼Ŀà¼Ŀà¼Ŀà¼Ŀ à¼Ŀà¼Ŀà¼Ŀà¼Ŀ
Ġ ĉ
à½ĺ à½¢à½ĸ
à½Ĥà½¦ à½Ĳ
à¾Ł à¼·à½¼
à½ĳà½Ħ à½Ģ
à¾³ à¾±à½º
à¼§ à¼¡à¼¢
à¼ĭà½Ī à¾¤à½º
à¾ļ à½´à½¾à¼ĭ
à¼¡à¼¨ à¼¥à¼¥
à½¦à½Ķ à½ĸ
à½¦à½Ģ à½£
à¼¦à¼ł à¼¥
à¾Łà½¾à¼ĭ à¼Ħà¼ħà¼įà¼į
à¼¥à¼§ à¼£
à¼ĭà¾§ à¼į
à¼¦à¼¨ à¼©
à½ĸà½¢ à½¤
à¾¤ à¾¤à¼ĭ
à½¨ à½ĺà½ł
à½ĸà½Ĥ à½£
à½ģà½ĺà½¦ à½Ģ
à½Ĺ à½łà½Ħ
à¼¨ à¼¤à¼¡
à¾²à½± à¾ĥà¼Ķ
à¼ĭà¼Ŀ à¼Ŀ
à¼©à¼© à¼§
Ġ à½ĸà½ĺ
à½ĳ à½Ĳà½ĺà½¦
à½ĵ à½ĺà½ģà½ł
à½Ħ à½¨
à½Ķ à½ĸà½Ģ
à½Ĥà½¦ à½ļ
à½ķ à½ĺà½¦
à¾³ à½±à¼į
à½ĳà½Ķ à½£à½¦
à¾·à¼ĭ à¼´
à½Łà½Ĥ à½Ĥ
à½Ĥà½ŀà½Ĥ à½Ķà½ł
à¼¦ à¼¡à¼¤
à¼¦ à¼£à¼©
à½ĥ à½Ħ
à½´à¼ĭ à¼ŀ
à½¡ à½ĳà½Ĥ
à½ŀ à½ķ
à½ĳà½Ħ à½¢à½Ħ
à½ģ à½ŀ
à½£à½¦ à½łà½ĳà½ł
à¾Łà¼ĭ à¼½
à½ħà½ĳ à½¢
à¼ĭà¼ Ħ
à¼¡à¼§ à¼¥à¼ł
à¼¡à¼¨ à¼©à¼£
à¾¥ à¼į
à¾Łà¾Ń à¾ĥà¼Ķ
à¾ŀà¾ŀ à½¿à¼į
Ġ à½Ĩà½ĳ
à½ĵ à½īà½ł
à½Ķà½¢ à½ķ
à½¨ à½ĸà½Ľ
à¾Ĳà¾±à½ºà¼ĭ à¼ĳ
à½łà½Ĩ à½Ħà½¦
à½±à½´ à¼įà¼į
à¼¦ à¼¤à¼¨
à½Ĺ à½Ĭ
à¼ĭà¼Ķ à¼ĭ
à½ĥ à½Ķ
à¼¦à¼© à¼¨
Ġ à½¢à½¦
à½ĳ à½¢à½Ħ
à½Ħ à½Ĥà½ħ
à½ĳà½Ħ à½ĳà½Ħ
à½¡à½Ħ à½Ĩ
à¾· à½¿à¼įà¼į
à¾¨ à¼·
à½Ĥà½ĵà½¦ à½ĺ
à¾±à½ºà¼ĭ à¼´
à¾« à¾Ńà¼ĭ
à½£à½ĺ à½ĳà½Ħ
à½¥ à½Ł
à½Ĵ à½¡à½Ħ
à¼¡à¼ł à¼¤à¼ł
Ġà¼ł à¼§
à¼ĭà¾§ à½²
à½į à½ĳà½Ĥ
à¾° à¼į
à¼łà¼łà¼łà¼łà¼łà¼łà¼łà¼ł à¼ł
à½¢ à½ĳà½Ķ
à½ĺ à½Ĥà½¡
à¾± à¾Ļà½ºà¼ĭ
à½¤ à½ī
à½ĵà½¦ à½Ķ
à½£à½¦ à½ķ
à¾Ĳà¾± à¾Ĳà½¼
à½¿ à¼ĭà¼¼
à½Ħà½Ħ à½ĺ
à¾ľ à½¾à¼ĭ
à¾Ńà½± à½±à½´à¼ĭ
à½ºà¼ĭà¼ĳ à¼ĳ
à¾±à½²à¼ĭà½Ī à¾¡à½º
Ġ à½¦à½ĺ
Ġ à½Ħà½¢
à¼ĭ à¾ľà¼į
à½¼ à½¼à¼į
à½¢ à½Ĳà½¢
à½Ķ à½ĳà½ĳ
à½ºà¼ĭ à¼·à¼ĭ
à½Ķà½ł à½Ĳ
à½ĸà½¢ à½Ĥà½¤
à½ĵà½¦ à½Ĥà½¦
à¾¡ à¼µ
à¾²à½´ à¼µ
à½£à½¦ à½Ĥà½¦
à½£à½¦ à½Ĳ
à¾Ļ à¾²à½º
à½Ľ à½ī
à½ĺà½ĩ à½ĺ
à¾©à½º à¼·à¼ĭ
à¼¥ à¼£à¼¤
à½Ĺ à½£à½ł
à¼¡à¼¨ à¼¦à¼ł
Ġà¼Ķ à¼Ķ
à¾©à¾Ń à¼įà¼į
à¼¦à¼¦ à¼§
à½ĺ à½ĳà½Ķ
à¾± à½¿à¼įà¼į
à½ĸà½¦ à½ĵà½¦
à½ĵà½¦ à½ĳà½Ĥ
à½ĵà½¦ à½¤
à¾¤ à¾±à½º
à½Ĥà½Ħ à½ĸ
à½Ĥà½ĵà½¦ à½£
à¾³à¼ĭ à¼¼
à½Ŀ à½£à½¦
à¼ł à¼¤à¼ł
à¼¦ à¼©à¼§
à¼ĭà¾¢ à½¾à¼į
à¼¥à¼§ à¼¤
à¼¥à¼© à¼¡
à½ºà¼ĭà½Ī à¾¦à¾·à½±à½²
à½Łà½ķ à½ķ
à½ģà½ģ à½ģà½ģ
à¼ĭà¿ Ħ
à½ĳ à½ĵà½ĳ
à½¢ à½łà½Ħ
à¼į à¼ĳ
à½Ķ à½īà½ĺà½¦
à½Ķ à½¤à½ĳ
à¾± à¼µà½¼
à½¼à¼ĭ à¼Ŀà¼į
à½Ģ à½İà½ł
à½ĸà½¢ à½łà½ĸ
à½Ħà½¦ à½Ĥ
à½ĺà½Ĳ à½Ħà½¦
à½ĸà½ĳà½Ĥ à½ı
à½Ĥà½ŀà½ĵ à½Ķà½ł
à¾¤à¾± à¾±à½²à¼ĭ
à½Ĥà½ŀà½Ĥ à½Ķà½¢
à½łà½Ĩà½ĳ à½Ķà½¢
à½Ĵ à½Ľ
à½Ĵ à½Ĳà½ķà½Ħ
à¼¦ à¼£à¼¨
à¾¤à½ºà¼ĭ à¼´
à¼¡à¼¦ à¼¤à¼¥
à¼¥à¼§ à¼¨
à¼¥à¼¨ à¼¤
Ġà¼© à¼ł
à¼ĭ à½±
à½ĵ à½ĳà½ĸà½Ħ
à½º à¾ĥà¼ĭ
à½Ĥà½¦ à½ĸà½ŀ
à¾² à¾¤
à¾² à¾Ĳà¾±à½º
à½¡ à½ĵà½¦
à½ĺà½¦ à½Ĳà½ĺà½¦
à½ĸà½¢ à½ĳà½Ĥ
à¾· à½ºà¼įà¼į
à½± à½¼à½¾à¼į
à¾© à½»à¼ĭ
à½ĳà½Ģ à½£
à½¾ à½¾à¼ĭ
à½İ à½Į
à¾ľ à½¼
à¼¡à¼ł à¼¤à¼¢
à¾ŀ à½±à¼į
Ġ à½Ĩà½Ħ
à¾ ĸ
à½¦ à½¦à½Ħà½¦
à½ĵ à½Ĥà½¦à½£
à½²à¼ĭ à½ºà¼į
à¾Ł à¾Ĵà¾²à½¼
à½ĸà½¢ à½ŀ
à½ĵà½¦ à½ļ
à½Ķà½¦ à½Ĥà½¦
à½Ķà½¦ à½ī
à¾¦ à½¿à¼ĭ
à¾²à½¼à¼ĭ à¼Ħà¼ħà¼įà¼į
à¾¡à½´ à½¿à¼ĭ
à¾Ĵà½¼ à¼·à¼ĭ
à¼½ à¼ĭ
à½łà½Ĥà½Ĥ à½Ķ
à¾µ à¾Ģà¼ĭ
à¾ŀ à¾±à¼ĭ
à¼¡à¼¤ à¼¡à¼ł
à¼¥à¼§ à¼¡
à¾¡à¾·à½² à½¿à¼ĭ
à¾ŀà¾ŀ à½¼à¼ĭ
à½Ķ à½ĳà½ĸà½Ħ
à¾Ł à¾ĥà¼ĭ
à½ĳà½Ħ à½Ĥà½Ħ
à½Ĩ à½ļ
à¾³ à¾±à½²
à¾· à½±à½´à¾ĥà¼ĭ
à¾· à¾²à½ºà¼ĭ
à¾· à½½à¼į
à¾²à½² à½²à¼ĭ
à½Ĥà½Ħ à½¢
à½Ĥà½ĵà½¦ à½¤
à½Ĩà½Ĥà½¦ à½Ģ
à½±à½¿à¼ĭ à½±à½´à¾ĥà¼į
à¾¡à¾· à½´à¼į
à¼¡à¼§ à¼¨à¼ł
à¼¡à¼¦ à¼§à¼©
à¼¡à¼¨ à¼©à¼§
à¾¦à¾· à½±à½²à¼įà¼į
à¼¦à¼ł à¼¨
Ġà¼¦ à¼¡
à¼¡à¼§à¼ł à¼¥
Ġà¼ĭà¼ĭà¼ĭà¼ĭà¼ĭà¼ĭà¼ĭà¼ĭà¼ĭà¼ĭà¼ĭà¼ĭà¼ĭà¼ĭà¼ĭà¼ĭ à¼ĭà¼ĭà¼ĭà¼ĭ
à¼łà¼łà¼łà¼łà¼łà¼łà¼łà¼łà¼łà¼łà¼łà¼łà¼łà¼łà¼łà¼ł à¼łà¼łà¼łà¼łà¼łà¼łà¼łà¼łà¼łà¼łà¼łà¼łà¼łà¼łà¼łà¼ł
à½Ķ à½ĸà½¤à½ĳ
à¾² à¼·à½²à¼ĭ
à½ı à½ļ
à¾Ĳà½´ à½¿à¼ĭ
à½ĺà½ī à½ł
à½İ à½Ĭ
à¾ĥ à¼ĭà¼½
à¼§ à¼¥à¼¥
à½±à½² à½¿à¼įà¼į
à¼¦ à¼¢à¼§
à¾ł à½±à½¿à¼į
Ġ à½¦à½ĳ
à½ĸ à½ĸà½¦à½ĺ
à½Ķ à½Łà½Ħ
à¾± à¼·à½º
à½²à¼ĭ à¾Ł
à¾Ĵ à½²à¼į
à¾³ à½±à½´à¼ĭ
à¾³ à¾±à½¼à¼ĭ
à¾±à½¼ à¼·
à½¨ à½ĸà½¦
à½¥ à½Ľ
à½Ĭ à½ĸ
à¼¦ à¼¡à¼©
à¼¦ à¼§à¼§
à¼¡à¼ł à¼¨à¼©
à¾ŀ à¼įà¼į
à½ĭ à½Ģà½ł
à¼ĭà¼Ī à¼ĭ
à¼¥à¼© à¼£
à¼¡à¼¡à¼¨ à¼¢
à½Ķ à½£à½Ĥà½¦
à½ºà¼ĭ à½ºà¼ĭ
à½´à¼ĭ à½Īà¾±à½²
à½¼à¼ĭ à¼ŀ
à½ļ à½Ł
à½łà½Ĥ à½ī
à½Ķà½¦ à½Ħà½¦
à½ĸà½ĳ à½Ģ
à¼§ à¼§à¼ł
à¼¦ à¼¤à¼¥
à¾Ĵà¾²à½º à¼įà¼į
à¼¦à¼ł à¼©
à¼§à¼ł à¼¤
à½±à½¼ à¾ĥà¼į
à½§à½§à½§à½§à½§à½§à½§à½§à½§à½§à½§à½§à½§à½§à½§à½§ à½§à½§à½§à½§à½§à½§à½§à½§à½§à½§à½§à½§à½§à½§à½§à½§
à¼ĭ à¾±à¼ĭ
à½¦ à½İà½ł
à½¢ à½ĺà½Ĩ
à½¢ à½Į
à½Ķà½¢ à½ħà½ĵ
à½ĺà½ģà½ł à½£
à¼¦ à¼¢à¼£
à¼¦ à¼£à¼¦
à¼¡à¼§ à¼¦à¼¢
à¼¡à¼¨ à¼§à¼¦
à½Ĺà½Ĥ à½«à½¥
à¼¡à¼©à¼ł à¼¢
Ġ à½łà½Ĩà½ĳ
Ġ à¼ĭà¼Ī
à½¼ à¾ĥà¼Ķ
à½Ħ à½§
à½ĺ à½ĵà½Ħà½Ĥ
à½Ĥà½¦ à½ĺà½Ĳ
à¾Ł à½²à¼Ķ
à½ĳà½Ħ à½ĸà½ĳ
à½Ķà½¢ à½ĳà½Ħ
à¾· à½ºà¼Ķ
à½ĺà½¢ à½¦
à¾¨à¾² à¾Ģ
à¾¨à¾² à¼·à¼ĭ
à½£à½Ĥà½¦ à½¦
à¾±à½²à¼į à¼ĭà¼ĭà¼ĭà¼ĭà¼ĭ
à¼¦ à¼¡à¼¥
à¼¦ à¼¡à¼¦
à¾ª à½ºà¼į
à¼¡à¼¨ à¼§à¼ł
à¼ĭà¾¢ à½±à¼į
à½ĸ à½Ĥà½¡
à½¢ à½Ķà½ĵ
à½ł à½ŀ
à½¼à¼ĭ à½¼à¼ĭà½ºà¼ĭ
à½ħ à½Ĩ
à½ĸà½¦ à½łà½ĳ
à¾¨ à½±à½´
à¾¨ à¾¨à¼į
à½ħà½ĳ à½¡
à½±à¼ĭ à¾İ
à¾Ń à½±à½²
à½ĺà½Ĳà½ł à½ĳà½Ĥ
à½Ī à¾¤à¾±à½²
à¼µ à¼įà¼į
à¼ĭà½µ à¾ĥà¼įà¼į
à¼¥à¼¦ à¼¨
à½¢ à½ĵà½ł
à½Ħ à½¢à½ĸ
à½ł à½Ķà½¢
à½Ĥà½¦ à½ī
à½Ķà½¢ à½Ĥà½¡
à½¤ à½ļ
à¾³ à½»à¼ĭ
à¾Ķ à¾Ĳà½¼
à½łà½ĳà½¦ à½¢
à¾³à½¼à¼ĭ à¼¸
à½İ à½İ
à½ħà½Ĥ à½Ĥ
à¼ĭà½Ī à¾Ĺà½º
Ġà¼į à¼ĭà¼ĭà¼ĭ
à½ķà½Ĭ à½ĸà½¦
à¾µ à½¼
à¼¡à¼§ à¼¤à¼§
à¼¡à¼¨ à¼¥à¼©
à¼ĭà¾§ à½¼à¼ĭ
à¾¡à¾² à½¿à¼ĭ
Ġà¼¦ à¼§
Ġ à½ŀà½Ĥ
à½ĵ à½Ŀ
à½£ à½ĸà½£
à½ºà¼ĭ à½¾à¼į
à¾Ļ à¼·
à¼§ à¼¦à¼ł
à¼¡à¼¦ à¼¨à¼£
à¼Ģ à½ģ
à¼¥à¼¨ à¼¥
à¼ĭà½¼à¼ĭà½ºà¼ĭ à½²
à½¼à¼ĭà¼Ī à¼į
à½ĵ à½ĸà½ł
à½ĺ à½£à½Ĥà½¦
à½²à¼ĭ à¼·à¼ĭ
à½ĵà½¦ à½Ħ
à¾³ à¾·à½²à½¾à¼ĭ
à½£à½¦ à½ģ
à½Ķà½¦ à½Ħ
à¾·à¼ĭ à¼¼
à¾Ń à¼ĭà¼½à¼¼
à¾ª à¼įà¼į
à¼¡à¼ł à¼¡à¼¢
à¼¡à¼§ à¼¢à¼£
à¼ĭà¼Ħà¼ħ à¼Ķ
à½¢ à½¢à½ĸ
à½Ĥà½¦ à½ĸà½ħ
à¾² à¾³à¼ĭ
à½ĺà½¦ à½ĵà½¦
à½¤ à½ķ
à¾³ à¾¤à¾±à½¼à¼ĭ
à½¡à½Ħ à½ģ
à½łà½ģ à½ĺ
à½¨ à½Ķà½ł
à¾¡à½ºà¼ĭ à¼¼
à½£à½ĵ à½Ĥà½¦
à½ĺà½ģà½ĵ à½Ķ
à¾ļ à½½à¼ĭ
à½ĥ à½£
à¾Łà¾Ń à¾ĥà¼į
à½Ĳà½Ģ à½«à½¢
à¼§à¼§ à¼©
à¾ŀà¾ŀ à¾±à¼ĭ
Ġ à½ĳà½Ķà½Ĥ
à½¦ à½łà½Ľ
à½¢ à½Ģà½ł
à½´ à½¾à½¿à¼ĭ
à½ĳà½Ħ à½ĸà½ĳà½Ĥ
à½ĳà½Ħ à½Ħà½Ĥ
à½Ĩ à½ķ
à½ģ à½Ĥà½ı
à½ī à½Ĳ
à¾· à¾±à½²
à¾· à½±à½¾à¼į
à½Ĥà½Ħ à½£à½¦
à½ħà½ĵ à½ī
à½¢à½ĸ à½Ĥ
à½§ à½¤
à¾Ĵà¾±à¼ĭ à¼¼
à¾¤à¾±à½¼ à¼į
à½¾à¼ĭ à¼Ħà¼ħà¼įà¼į
à½£à½Ĥ à½ĳà½Ħ
à¼¨ à¼¤à¼¢
à¼¡à¼§ à¼¢à¼©
à¾Ľ à½¼à¼ĭ
à¾¶ à½ºà¼ĭ
à½ĵà½Ķ à½ĺ
à½Ĥà½Ķ à½Ĥ
Ġ à½ĸà½ħà½ł
à½ĵ à½ĵà½Ĥ
à½ķ à½Ģà½Ħ
à½¡à½Ħ à½łà½ĸ
à¾¡à½´ à¼·
à½ĺà½ģà½ł à½ĺ
à¾¤à¾± à¾±à½²
à¼¦ à¼¤à¼§
à¼¦ à¼¥à¼¥
à¼© à¼¡à¼ł
à¼¨ à¼¡à¼ł
à¾Ńà½± à½¿à¼į
à¾ļ à½º
à¼¡à¼§ à¼§à¼ł
à¼¡à¼¨ à¼¥à¼£
à¼¡à¼¨ à¼¦à¼¥
à¼ĭà¼Ī à¼Īà¼Ī
à¼ĭà¾¾ à¾¾à¾¾à¾¾
à½ºà¼ĭà½Ī à½º
à½²à¼ĭà¾İ à¼į
à¾²à¾² à¾²à¾²
Ġ à½Ĩà½Ĥ
Ġ à¾Ī
à½² à½±à¼ĭ
à½Ĥ à½Ĥà½ŀ
à½Ĥ à½ĺà½Ĥ
à¾³ à½¿à¼ĭ
à¾±à½¼ à½¿à¼ĭ
à¾© à½´à¼į
à½Ĥà½Ħ à½ķ
à¾¨ à½´à¼į
à¾¦ à¾Ĺà½¼
à½ĵà½ĳ à½ĵ
à¼¦ à¼©à¼ł
à½Ĺ à½ķà½ħ
à¼¡à¼£ à¼¦à¼¤
à¼¡à¼¨ à¼¡à¼£
à¾¶ à¾±
à¼¦à¼ł à¼£
à¾±à½± à½ºà¼ĭ
à½²à½¿à¼į à¼Įà¼Įà¼Į
Ġ à½Łà½ĳ
à½¢ à½Ķà½ĺ
à½Ħ à½ĳà½ĸ
à½Ħ à½Ķà½Ĥ
à½²à¼ĭ à¼į
à½²à¼ĭ à¾¾
à½¡à½Ħ à½ī
à¾Ķ à¾±à½¼
à½± à¾Ĥà¼ĭ
à¾¨ à¾¨à½¼à¼ĭ
à½ĳà½Ķ à½ĺ
à½²à¼į à¼ĭà¼ĭ
à½ĺà½Ľ à½Ħ
à½ĵà½ĺ à½¢
à¾¦à¾± à¾Ģ
à½ĸà½ŀà½Ĥ à½Ķ
à¼¦ à¼¨à¼ł
à¼§à¼§ à¼¤
à¼§à¼¨ à¼§
à½´à¼ĭà½Ī à½²à¼ĭ
à½£ à½§
à½ºà¼ĭ à¼Ħà¼ħ
à½Ĥà½¦ à½Ķà½£
à½¡à½Ħ à½¤
à½Ķà½¦ à½łà½Ĥ
à½¢à½ĸ à½£
à¾²à½¼à¼ĭ à¼¼
à¾³à¼ĭ à¼½
à½£à½ĺ à½ĺ
à¾Ĳà¾±à½ºà¼ĭ à¼Ħà¼ħà¼įà¼į
à½Ĵ à½Ĳà½ĸ
à¼¡à¼¢ à¼¥à¼¡
à¾¦à¾· à¾±à½±
à¾´ à¼Ķ
à¼¥à¼¨ à¼¡
à¼¥à¼¨ à¼£
ĠĠĠĠĠĠĠĠ ĠĠĠĠ
Ġ à½£à½Ĥà½¦
à½Ķ à½Ķà½ł
à¾² à¾«à½²à¼ĭ
à¾Ł à¾³à½º
à¾Ł à¾²à½±
à½ĳà½Ħ à½ĳà½ĸ
à½ĸà½¢ à½ĸà½¢
à¾¤ à¾³à½¼à¼ĭ
à½Ĥà½ī à½ĺ
à½ĺà½Ľ à½£
à¾¦à¾±à½¼ à½¼
à¾³à½´ à¼·à¼ĭ
à½ĳà½ĳ à½Ķà½¢
à½łà½Ĳ à½Ħ
à¼¦ à¼¢à¼¥
à¼¦ à¼¥à¼¦
à¼¡à¼¨ à¼¨à¼¢
à½ĵà½Ķ à½£
à¼¦à¼§ à¼£
à½Ĥ à½łà½ķ
à½¢ à½Ķà½ĳ
à½¢ à½¢à½ĺ
à½ł à½¤
à½£ à½ĸà½ħ
à¾Ł à¾²à¾Ģà¼į
à½Ĳ à½Ĥà½Ħ
à½ĳà½Ĥ à½ĵà½¦
à½ĳà½Ĥ à½Ķà½¦
à½Ł à½Ķà½Ħ
à½¡à½Ħ à½Ĥà½ŀà½ĵ
à¾© à¾±à½´à¼ĭ
à¾Ĺà½ºà¼ĭ à¼Ħà¼ħà¼įà¼į
à½ĺà½ĳ à½Ķà½ł
à¾Łà½ºà¼ĭ à¼İ
à½£à½ĵ à½Į
à¼§ à¼¡à¼§
à¼¡à¼§ à¼¡à¼¨
à¼§à¼© à¼ł
à¼¦à¼§ à¼¥
Ġ à½łà½ĸà½ĸ
à¼ĭ à½±à½´à¾ĥà¼į
à½ĸ à½Ĥà½ı
à½ĵ à½Ľ
à½ļ à½Ļ
à¾· à¾²à½²à½¾à¼ĭ
à½¢à½Ħ à½¥
à½¢à½ĸ à½ĳà½Ħ
à½§ à½Ĥà½¦
à½Ĭ à½ĳ
à½Ĵ à½Łà½ģ
à¼¦ à¼¡à¼¡
à¼½ à¼Ħà¼ħà¼įà¼į
à¼µ à½ºà¼į
à¾ŀ à½´à¼į
à¼ĭà½¼ à½¼
à¾¶ à½½à¼į
à¼¦à¼¦ à¼£
à¼¦à¼§ à¼¢
à¼ĭà¿ İ
Ġ à½¦à½ł
Ġ à¼ĭà¼įà¼ĭ
à¾ ¯
à½¦ à½ĺà½Ľà½ĳ
à½¦ à½ĸà½¦à½ĺ
à½¢ à½ĳà½ĺ
à½Ķ à½ĵà½Ħ
à½Ķ à½ĸà½Ĥ
à½ħ à½Ģ
à¾Ĵ à¾©à½¼
à½¤ à½Ł
à¾£ à½»à¼ĭ
à½ĩ à½ĳ
à½ĸà½ı à½ĺ
à¼łà¼ł à¼¨
à¾ļ à¾²à½±à½²à¼ĭ
à¾¡à¾· à½¾
à¼¡à¼§ à¼¢à¼¡
à¼¡à¼¨ à¼¤à¼¢
Ġà¼¦ à¼¢
à¼įà¼ĭà¼ĭà¼ĭà¼ĭà¼ĭà¼ĭà¼ĭà¼ĭà¼ĭà¼ĭà¼ĭà¼ĭà¼ĭà¼ĭà¼ĭà¼ĭ à¼ĭà¼ĭà¼ĭ
Ġ à½łà½ĩà½ł
à½¦ à½ĳà½Ķ
à½Ħ à½Ĥà½Ł
à½ĸà½Ĥ à½ł
à¾¡à½ºà¼ĭ à½Īà½²
à½ķà½ĵ à½Ķ
à½Ĺ à½Łà½ĸ
à¼¡à¼¨ à¼©à¼¨
à¼ĭà½µ à¼į
à¼ĭà½¼ à¾±à½²
à¾±à½¾à¼ĭ à¼´
à¼¦à¼¦ à¼©
à¼ĭà½±à¼ĭ à¾¨à¼ĭ
à¼ĭà¼Į à¼Įà¼Įà¼Įà¼Įà¼Įà¼Įà¼Įà¼Įà¼Įà¼Įà¼Įà¼Įà¼Įà¼Įà¼Įà¼Įà¼Įà¼Įà¼Įà¼Įà¼Įà¼Įà¼Įà¼Įà¼Įà¼Įà¼Įà¼Įà¼Įà¼Įà¼Įà¼Įà¼Įà¼Įà¼Įà¼Įà¼Įà¼Įà¼Įà¼Įà¼Įà¼Įà¼Įà¼Įà¼Įà¼Įà¼Įà¼Įà¼Įà¼Įà¼Įà¼Įà¼Įà¼Įà¼Įà¼Įà¼Įà¼Įà¼Įà¼Įà¼Įà¼Įà¼Įà¼Į
à½¦ à½Ĥà½ĳ
à½ĵ à½ĵà½Ħ
à½£ à½ĸà½Ł
à½¤ à½ĺà½Ħ
à½¤ à½Ĥà½¡
à½£à½¦ à½¤
à½ĸà½ħ à½łà½ĺ
à½Ĥà½ĵà½¦ à½Ķà½¦
à¾Łà½º à½ºà¼į
à½±à½´ à¼µà¼į
à½Ŀ à½«
à¼¦ à¼¤à¼¦
à¼¡à¼ł à¼§à¼£
à¾Ħ à¼ĭà¼ĳ
à¼¡à¼£ à¼¤à¼©
à¾ł à¾Ģ
à¾·à¾± à½±à¼į
Ġà¼¦ à¼¦
à¼¡à¼§à¼ł à¼¨
à¾¨à¾¨ à½±à½¿à¼į
Ġ à½£à½łà½Ħ
à½Ħ à½Ķà½£
à¾± à¼·à½¼
à½Ħà½¦ à½ŀ
à¾±à½ºà¼ĭ à½Īà½±à½²
à½Ĥà½Ļ à½ĳ
à½ĵà½ĺ à½ŀ
à¼¦ à¼£à¼¤
à¼¦ à¼¥à¼£
à¼łà¼ł à¼¦
à½Ĳà½ĺ à½ħà½ĳ
à¼§à¼ł à¼©
ĠĠĠĠĠĠĠĠ Ġ
à½¦ à½ĳà½ĸà½Ħ
à½ĳà½Ħ à½łà½Ľ
à½Ķà½¢ à½ĳà½Ĥà½ł
à½ĵà½¦ à½Ĳ
à½ĵà½¦ à½¡à½Ħ
à½£à½¦ à½Ĥà½Ħ
à½¡à½Ħ à½Ĥà½Ħ
à½Ķà½¦ à½łà½ĩ
à¾²à½¼ à¼µ
à¾Ķà¼ĭ à¼¼
à½ķà½ĵ à½¡
à½Ķà½ĳ à½ł
à¾ŀ à½¿à¼ĭ
à¼¡à¼¦ à¼¢à¼ł
à¼¡à¼¨ à¼¦à¼¢
à¼Ģ à½Ļ
à¼Ī à¼įà¼į
à¼įà¼ĭà¼ĭà¼ĭà¼ĭà¼ĭà¼ĭà¼ĭà¼ĭà¼ĭà¼ĭà¼ĭà¼ĭà¼ĭà¼ĭà¼ĭà¼ĭ à¼ĭà¼ĭà¼ĭà¼ĭà¼ĭ
Ġ à½ĳà½£
à¼ĭ à¾ľà½²à¼ĭ
à½¢ à½łà½Ľ
à½¢ à½ĺà½ĳ
à½Ģ à½ģ
à½ĵà½¦ à½ł
à½Ĥà½ŀ à½ĺ
à½ĳà½Ķà½ł à½ĸ
à½Ĩà½Ĥà½¦ à½Ķà½ł
à¼§ à¼¤à¼ł
à¼¡à¼ł à¼¤à¼§
à¾Ľ à½¾à¼ĭ
à¼¡à¼¦ à¼¦à¼¢
à¼ĭà¾§ à½²à½¿à¼ĭ
Ġà¼© à¼¥
Ġ à¼¢à¼łà¼¡à¼¦
à½ĵ à½ĺà½ł
à½Ħ à½Ĥà½ĳ
à½Ķ à½ĺà½ļà½ĵ
à½ł à½ı
à½¤ à½ĸà½¦
à¾Ĺà½ºà¼ĭ à¼¼
à¾« à½±
à½ĸà½ı à½¢
à¾©à¼ĭ à¼Ħà¼ħà¼įà¼į
à½¼à¼į à¼ĭà¼ĭ
à¾¤à½¼ à½¼
à½Ŀ à½¨
à½ĸà½ıà½Ĥà½¦ à½Ķ
à¼¡à¼¤ à¼łà¼ł
Ġà½ĵ à½¡
à¼©à¼© à¼¦
à¼©à¼§ à¼¨
Ġà¼¨ à¼©
à¼¦à¼¨ à¼¥
Ġà¼ĭà¼ĭà¼ĭà¼ĭà¼ĭà¼ĭà¼ĭà¼ĭà¼ĭà¼ĭà¼ĭà¼ĭà¼ĭà¼ĭà¼ĭà¼ĭà¼ĭà¼ĭà¼ĭà¼ĭà¼ĭà¼ĭà¼ĭà¼ĭà¼ĭà¼ĭà¼ĭà¼ĭà¼ĭà¼ĭà¼ĭà¼ĭà¼ĭà¼ĭà¼ĭà¼ĭà¼ĭà¼ĭà¼ĭà¼ĭà¼ĭà¼ĭà¼ĭà¼ĭà¼ĭà¼ĭà¼ĭà¼ĭà¼ĭà¼ĭà¼ĭà¼ĭà¼ĭà¼ĭà¼ĭà¼ĭà¼ĭà¼ĭà¼ĭà¼ĭà¼ĭà¼ĭà¼ĭà¼ĭà¼ĭà¼ĭà¼ĭà¼ĭà¼ĭà¼ĭà¼ĭà¼ĭà¼ĭà¼ĭà¼ĭà¼ĭà¼ĭà¼ĭà¼ĭà¼ĭ à¼ĭà¼ĭà¼ĭà¼ĭà¼ĭà¼ĭà¼ĭà¼ĭà¼ĭà¼ĭà¼ĭà¼ĭà¼ĭ
Ġ à½¨à½¢
à½Ĥ à½ĳà½Ķà½£
à½ĸ à½Ĥà½¤
à½ĺ à½Į
à½Ķ à½Ģà½ł
à½ģ à½Ľ
à½łà½ĳ à½Ģ
à¾¡ à¾²à½¼à¼ĭ
à¾¤ à½±à½²à¼ĭ
à¾· à¾Ńà½±à¼ĭ
à½Ļ à½ģ
à½Ĥà½ŀà½ĵ à½Ķ
à½Ĥà½ŀà½ĵ à½ŀ
à½Ĥà½ŀà½ĵ à½ĳà½Ħ
à¾Ń à½¼à½¿à¼į
à½Ĳà½ĸà½¦ à½Ģ
à½ĸà½£ à½Ħ
à½¿à¼ĭ à½±à½´à¾ĥà¼ĭ
à½¡à½¦ à½ĺ
à¾Łà½ºà¼įà¼į à¼į
à¾ľ à½±à½²à¼į
à¼¦ à¼¢à¼¢
à¼¦ à¼¤à¼¤
à¼¦ à¼¤à¼¢
à½ķà½Ĭ à½ķà½Ĭ
à¾µ à¾±à½±à¼ĭ
à½ĸà½Ħ à½¥
à¼¡à¼¦ à¼¥à¼£
à¾Ħà¼į à¼Įà¼Įà¼Į
à¼¦à¼¦ à¼¢
à¼¦à¼© à¼¥
Ġà¼ĭà¼ĭà¼ĭà¼ĭà¼ĭà¼ĭà¼ĭà¼ĭà¼ĭà¼ĭà¼ĭà¼ĭà¼ĭà¼ĭà¼ĭà¼ĭà¼ĭà¼ĭà¼ĭà¼ĭà¼ĭà¼ĭà¼ĭà¼ĭà¼ĭà¼ĭà¼ĭà¼ĭà¼ĭà¼ĭà¼ĭà¼ĭà¼ĭà¼ĭà¼ĭà¼ĭà¼ĭà¼ĭà¼ĭà¼ĭà¼ĭà¼ĭà¼ĭà¼ĭà¼ĭà¼ĭà¼ĭà¼ĭà¼ĭà¼ĭà¼ĭà¼ĭà¼ĭà¼ĭà¼ĭà¼ĭà¼ĭà¼ĭà¼ĭà¼ĭà¼ĭà¼ĭà¼ĭà¼ĭà¼ĭà¼ĭà¼ĭà¼ĭà¼ĭà¼ĭà¼ĭà¼ĭà¼ĭà¼ĭà¼ĭà¼ĭà¼ĭà¼ĭà¼ĭà¼ĭ à¼ĭà¼ĭà¼ĭà¼ĭà¼ĭà¼ĭà¼ĭà¼ĭà¼ĭà¼ĭà¼ĭà¼ĭ
Ġ à½ļà½Ħ
Ġ à½Ĥà½ĵà½ĳ
Ġ à½Ĳà½ĳ
à¼ Ħà¼į
à½Ħ à½ĺà½Ĩ
à¾± à¾Ģà¼į
à½ºà¼ĭ à½Īà½¼
à½ħ à½ĳà½ĸ
à½Ķà½¢ à½Ĳà½£
à¾Ĳ à½±à¼į
à¾²à½´ à¾ĥà¼į
à¾· à¾±à½´à¼ĭ
à¾Ĵà¾±à¼ĭ à¼´
à½Łà½ĳ à½Ķà½¢
à½Ŀ à½§
à½ĵà½ĺà½¦ à½Ģ
à½Ĺ à½¤
à¾ª à½¾à¼ĭ
à¼¡à¼§ à¼¡à¼ł
à¼¡à¼¨ à¼¢à¼ł
à¼¢à¼¤ à¼łà¼ł
à½ĥ à½¡
à¾·à½± à½¿à¼į
Ġà¼¦ à¼£
à¿ Ĵ
Ġ à½ģà½¦
à½ĸ à½ĸà½Ĥ
à½¢ à½¦à½Ħà½¦
à½ĺ à½Ĥà½ŀà½ĵ
à¾³ à¾¤à¾±à½¼
à¾· à¾³à¾Ģà¼ĭ
à¾±à½ºà¼ĭ à½Īà¾±à½²
à½łà½ĳà½¦ à½£
à¾Ĵà½¼ à½¼
à½ĸà½ħà½¦ à½Ķà½¢
à½¼à¼į à¼ĭà¼ĭà¼ĭà¼ĭà¼ĭà¼ĭà¼ĭà¼ĭà¼ĭà¼ĭà¼ĭà¼ĭà¼ĭà¼ĭà¼ĭà¼ĭà¼ĭà¼ĭà¼ĭà¼ĭà¼ĭà¼ĭà¼ĭà¼ĭà¼ĭà¼ĭà¼ĭà¼ĭà¼ĭà¼ĭà¼ĭà¼ĭà¼ĭà¼ĭà¼ĭà¼ĭà¼ĭà¼ĭà¼ĭà¼ĭà¼ĭà¼ĭà¼ĭà¼ĭà¼ĭà¼ĭà¼ĭà¼ĭà¼ĭà¼ĭà¼ĭà¼ĭà¼ĭà¼ĭà¼ĭà¼ĭà¼ĭà¼ĭà¼ĭà¼ĭà¼ĭà¼ĭà¼ĭà¼ĭ
à¼¦ à¼©à¼©
à½Ĺ à½Łà½Ĳ
à¼¡à¼¦ à¼¤à¼¤
à¼¡à¼¦ à¼¤à¼¡
à¼¡à¼¨ à¼¥à¼¨
à½´à¼· à¼į
à¼¦à¼¦ à¼¦
à¼Įà¼Įà¼Įà¼Įà¼Įà¼Įà¼Įà¼Įà¼Įà¼Įà¼Įà¼Įà¼Įà¼Įà¼Įà¼Įà¼Įà¼Įà¼Įà¼Įà¼Įà¼Įà¼Įà¼Įà¼Įà¼Įà¼Įà¼Įà¼Įà¼Įà¼Įà¼Į à¼Įà¼Įà¼Įà¼Įà¼Įà¼Įà¼Įà¼Įà¼Įà¼Įà¼Įà¼Įà¼Įà¼Įà¼Įà¼Į
à½Ĳà½Ĳ à½Ĳà½Ĳ
à¾·à¾²à½±à½´ à¾Ĥà¼ĭ
à¼» à¼»
Ġ à½Ħà½ł
à½ĸ à½Ĳà½Ħ
à½£ à½Ĥà½¡
à½Ĥà½¦ à½¨
à½ĳà½Ħ à½Ĥà½ĵà½¦
à½Ĩ à½ĳà½Ķ
à½¤ à½ŀ
à¾Ĳ à¾²à½º
à¾Ĳ à¾³à½¼à¼ĭ
à½Ķà½¦ à½Ĳ
à¾Ķ à½´à¼į
à¾²à½² à½¾
à½ĺà½Ĩ à½ĺà½¦
à½Ĥà½ĵ à½Ĥà½¦
à½Ĩà½Ĥà½¦ à½¦
à½ĵà½Ĥ à½Ķ
à¼¢ à¼¡à¼¤à¼¢
à¼¦ à¼¤à¼£
à¼¦ à¼¥à¼¤
à¾¦à¾· à½²à¼į
à¼ĭà¾¢ à½±à½¿à¼ĭ
à½ĭ à½£
à½ĭ à½ı
à¾¶ à½¾à¼į
à¼§à¼ł à¼¢
à¼¦à¼¦ à¼¥
à¼įà¼ĭà¼ĭà¼ĭà¼ĭà¼ĭà¼ĭà¼ĭà¼ĭà¼ĭà¼ĭà¼ĭà¼ĭà¼ĭà¼ĭà¼ĭà¼ĭ à¼ĭà¼ĭà¼ĭà¼ĭà¼ĭà¼ĭà¼ĭ
à¾ŀà¾ŀ à½¿à¼ĭ
Ġà¼ĭà¼ĭà¼ĭà¼ĭà¼ĭà¼ĭà¼ĭà¼ĭà¼ĭà¼ĭà¼ĭà¼ĭà¼ĭà¼ĭà¼ĭà¼ĭ à¼ĭà¼ĭà¼ĭà¼ĭà¼ĭ
à½¡à½« à½Ĥà½¥
Ġ à½ĵà½Ĥà½¦
à½ĵ à½ĳà½ĳ
à¾± à¾ľà¼ĭ
à¾² à¼·à½º
à¾Ł à¾²à½ºà¼įà¼į
à½¤ à½ĸà½ĳ
à¾Łà½ºà¼ĭ à¼Ħà¼ħà¼įà¼į
à½İ à½ģ
à½¥ à½§
à¾¡à½º à½ºà¼ĭ
à½ĺà½ĩ à½ĳ
à¼łà¼ł à¼¡
à¼µ à¼µ
à¼¡à¼¤ à¼¤à¼§
à¼¡à¼¨ à¼§à¼¥
à¾¥ à½±à½²à¼ĭ
Ġà½ĵ à½Ķ
à½¦à½Ķ à½£
à¼Ħà¼ħ à¼ħ
à¼įà¼ĭà¼ĭà¼ĭà¼ĭà¼ĭà¼ĭà¼ĭà¼ĭà¼ĭà¼ĭà¼ĭà¼ĭà¼ĭà¼ĭà¼ĭà¼ĭà¼ĭà¼ĭà¼ĭà¼ĭà¼ĭà¼ĭà¼ĭà¼ĭà¼ĭà¼ĭà¼ĭà¼ĭà¼ĭà¼ĭà¼ĭà¼ĭà¼ĭà¼ĭà¼ĭà¼ĭà¼ĭà¼ĭà¼ĭà¼ĭà¼ĭà¼ĭà¼ĭà¼ĭà¼ĭà¼ĭà¼ĭà¼ĭà¼ĭà¼ĭà¼ĭà¼ĭà¼ĭà¼ĭà¼ĭà¼ĭà¼ĭà¼ĭà¼ĭà¼ĭà¼ĭà¼ĭà¼ĭà¼ĭ à¼ĭà¼ĭà¼ĭà¼ĭà¼ĭà¼ĭà¼ĭà¼ĭà¼ĭà¼ĭà¼ĭà¼ĭà¼ĭ
à¼¦à¼§ à¼¡
à½Ĺà½Ĳ à½ĵà½¢
à¼¡à¼¤à¼ł à¼¥
Ġ à½Ķà½ĵ
à½ĳ à½łà½ģ
à½ŀ à½£à½¦
à¾Ĵ à¾Ĵ
à½ī à½¤
à½Ķà½¢ à½¦à½Ħà½¦
à½Ħà½¦ à½ĸà½¦
à½Ķà½¦ à½ĳà½Ĥ
à½ĸà½¤ à½Ĳà½ĸ
à½ıà½ĵ à½¢
à½±à½²à¼ĭ à½Īà½±à½²
à½ĳà½¢ à½ĳ
à¼¦ à¼¥à¼§
à½Ĺ à½ĩ
à¼¡à¼§ à¼¡à¼¤
à½į à½İ
Ġà¼¦ à¼¤
à¼¡à¼¡à¼§ à¼¥
Ġà¼ĭà¼ĭà¼ĭà¼ĭà¼ĭà¼ĭà¼ĭà¼ĭà¼ĭà¼ĭà¼ĭà¼ĭà¼ĭà¼ĭà¼ĭà¼ĭà¼ĭà¼ĭà¼ĭà¼ĭà¼ĭà¼ĭà¼ĭà¼ĭà¼ĭà¼ĭà¼ĭà¼ĭà¼ĭà¼ĭà¼ĭà¼ĭà¼ĭà¼ĭà¼ĭà¼ĭà¼ĭà¼ĭà¼ĭà¼ĭà¼ĭà¼ĭà¼ĭà¼ĭà¼ĭà¼ĭà¼ĭà¼ĭà¼ĭà¼ĭà¼ĭà¼ĭà¼ĭà¼ĭà¼ĭà¼ĭà¼ĭà¼ĭà¼ĭà¼ĭà¼ĭà¼ĭà¼ĭà¼ĭà¼ĭà¼ĭà¼ĭà¼ĭà¼ĭà¼ĭà¼ĭà¼ĭà¼ĭà¼ĭà¼ĭà¼ĭà¼ĭà¼ĭà¼ĭà¼ĭà¼ĭà¼ĭà¼ĭà¼ĭà¼ĭà¼ĭà¼ĭà¼ĭà¼ĭà¼ĭà¼ĭà¼ĭà¼ĭà¼ĭà¼ĭà¼ĭ à¼ĭà¼ĭà¼ĭà¼ĭà¼ĭà¼ĭà¼ĭ
Ġà¼ĭà¼ĭà¼ĭà¼ĭà¼ĭà¼ĭà¼ĭà¼ĭà¼ĭà¼ĭà¼ĭà¼ĭà¼ĭà¼ĭà¼ĭà¼ĭà¼ĭà¼ĭà¼ĭà¼ĭà¼ĭà¼ĭà¼ĭà¼ĭà¼ĭà¼ĭà¼ĭà¼ĭà¼ĭà¼ĭà¼ĭà¼ĭà¼ĭà¼ĭà¼ĭà¼ĭà¼ĭà¼ĭà¼ĭà¼ĭà¼ĭà¼ĭà¼ĭà¼ĭà¼ĭà¼ĭà¼ĭà¼ĭà¼ĭà¼ĭà¼ĭà¼ĭà¼ĭà¼ĭà¼ĭà¼ĭà¼ĭà¼ĭà¼ĭà¼ĭà¼ĭà¼ĭà¼ĭà¼ĭà¼ĭà¼ĭà¼ĭà¼ĭà¼ĭà¼ĭà¼ĭà¼ĭà¼ĭà¼ĭà¼ĭà¼ĭà¼ĭà¼ĭà¼ĭà¼ĭà¼ĭà¼ĭà¼ĭà¼ĭà¼ĭà¼ĭà¼ĭà¼ĭà¼ĭà¼ĭà¼ĭà¼ĭà¼ĭà¼ĭà¼ĭà¼ĭà¼ĭà¼ĭà¼ĭà¼ĭà¼ĭà¼ĭà¼ĭà¼ĭà¼ĭà¼ĭà¼ĭà¼ĭà¼ĭà¼ĭà¼ĭà¼ĭ à¼ĭà¼ĭà¼ĭà¼ĭà¼ĭà¼ĭà¼ĭà¼ĭ
à½¦ à½ĵà½ĺ
à¾Ł à½±à½¿à¼į
à¾Ł à¾Łà½±à¼į
à½ĳà½Ħ à½ĺà½ļà½ĵ
à½ĵà½¦ à½ĳà½ĸ
à½¡à½Ħ à½Ĳ
à½ĳà½ĸ à½Ĥà½¦
à¾« à¾²à¼ĭ
à½¥ à½¤
à¼§ à¼¡à¼¡
à¼§ à¼¢à¼©
à¼§ à¼©à¼§
à¼¦ à¼¢à¼¦
à¼¦ à¼£à¼§
à½Į à½ı
à½¢à½Ĥ à½¥
à¼§à¼§ à¼¨
Ġà¼¦ à¼©
à¼¡à¼¨à¼ł à¼¡
Ġ à½ĳà½ĸà½£
à½ĳ à½łà½ĩ
à½Ķ à½ĺà½ĳ
à½Ķ à½ĺà½Ľà½ĳ
à¾± à¾Ĳà½¼
à½£ à½łà½Ľ
à¾² à½¾à¼įà¼į
à½¼à¼ĭ à¼·à¼ĭ
à¾Ł à½±à½´
à¾Ĺà½º à½º
à½¥ à½Ļ
à¼¦ à¼§à¼¨
à¼¨ à¼¡à¼¢
à¼¨ à¼łà¼łà¼ł
à¼¡à¼ł à¼¡à¼¡
à¼¡à¼¨ à¼¦à¼¤
à½© à½ĳ
à½ĳ à½¢à½ĸ
à½ĵ à½Ĥà½ĳ
à½ĸà½¦ à½ķ
à½Ķà½¢ à½ĳà½Ģà½ł
à½Ķà½¢ à½łà½ļà½Ħ
à½Ł à½ķà½Ĳ
à½²à¼į à¼Į
à½²à¼į à¼Ħà¼ħà¼įà¼į
à½Ĳà½ĸà½¦ à½ĳà½Ħ
à¾Ĳà¾± à¾Ĳà¾±à½ºà¼ĭ
à½Ħà½ĵ à½Ķ
à½ĵà½Ĥ à½¢
à½Ŀ à½Ļ
à½łà½ĩà½ĺ à½ĳà½Ķà½£
à½ĸà½ĵ à½ĸà½¦
à¼¡à¼¢ à¼¨à¼ł
à¼¡à¼¦ à¼¨à¼ł
Ġà¼ł à¼łà¼łà¼ł
à¼§à¼§ à¼¥
à¼¦à¼© à¼£
à¾ĳ à½±à¼ĭ
à¼¡à¼¢à¼ł à¼¤
à½±à½¼ à¾ĥà¼Ķ
à¾ ĩ
à½¦ à½ĸà½ł
à½ĵ à½łà½ķà½Ĥà½¦
à¾Ł à¾Łà½²à½¾à¼ĭ
à½ħ à½Ħà½¦
à½ĺà½¦ à½Ĥ
à¼ĭà¼į à¼Ī
à¾¡ à¾±à½ºà¼ĭ
à½¢à½Ħ à½ĸ
à¾Ļ à½½à½¾à¼ĭ
à½Ĥà½ĵà½¦ à½ĵ
à¾Ļà½² à½²
à½ĳà½Ĥà½ł à½¢
à¼ĭà¼ ī
à¾Ĳà¾± à¾¡à½º
à½Ħà½Ĥ à½ĳà½Ħ
à¼§ à¼¡à¼£
à¾ľ à½¾à¼į
à¼¡à¼ł à¼£à¼¨
à¼¡à¼¦ à¼¨à¼¡
à¾¦à¾· à½¿à¼į
à¾¶ à½¿à¼į
Ġà¼¦ à¼¥
à¾·à½±à½´ à½¿à¼į
à½ľ à½¢
Ġ à½Łà½Ħà½¦
à½Ĥ à½£à½ĺ
à½Ĥ à½Ĳà½ĳ
à½Ĥ à½Ĳà½Ĥà½¥
à½ĸ à½Ĩà½¦
à½´ à½¼
à½Ķ à½Ĥà½Ļ
à½ĸà½¦ à½Ķà½¢
à½ı à½Į
à½Ł à½ĸà½Ł
à¾³ à½±à½´
à½łà½ Ŀ
à½ĺà½Ľ à½¦
à¼ĭà¼ĭ à¼ĭà¼įà¼į
à¼ĭà¼ĭ à¼¼
à¾²à½²à¼ĭ à¼¼
à¾«à½¼ à¼į
à¾³à½¼à¼ĭ à¼Ħà¼ħà¼įà¼į
à¾Ĳà¾± à¾¦à¾·à½ºà¼ĭ
à½ĺà½Ĳà½¢ à½ĳ
à½¦à½¢ à½¦
à¼§ à¼¡à¼¤
à¼§ à¼¢à¼§
à¼§ à¼¤à¼§
à¼¡à¼§ à¼§à¼¤
à¼¡à¼§ à¼¨à¼¦
à¾·à¾²à¾Ģ à¼į
à¼ĭà½¼à¼ĭà½ºà¼ĭ à½ºà¼ĭ
à¼įà¼ĭà¼ĭà¼ĭà¼ĭà¼ĭà¼ĭà¼ĭà¼ĭà¼ĭà¼ĭà¼ĭà¼ĭà¼ĭà¼ĭà¼ĭà¼ĭà¼ĭà¼ĭà¼ĭà¼ĭà¼ĭà¼ĭà¼ĭà¼ĭà¼ĭà¼ĭà¼ĭà¼ĭà¼ĭà¼ĭà¼ĭà¼ĭà¼ĭà¼ĭà¼ĭà¼ĭà¼ĭà¼ĭà¼ĭà¼ĭà¼ĭà¼ĭà¼ĭà¼ĭà¼ĭà¼ĭà¼ĭà¼ĭà¼ĭà¼ĭà¼ĭà¼ĭà¼ĭà¼ĭà¼ĭà¼ĭà¼ĭà¼ĭà¼ĭà¼ĭà¼ĭà¼ĭà¼ĭà¼ĭà¼ĭà¼ĭà¼ĭà¼ĭà¼ĭà¼ĭà¼ĭà¼ĭà¼ĭà¼ĭà¼ĭà¼ĭà¼ĭà¼ĭà¼ĭà¼ĭ à¼ĭà¼ĭà¼ĭà¼ĭà¼ĭà¼ĭà¼ĭà¼ĭà¼ĭà¼ĭ
à½ĸà½ĸà½ĸà½ĸà½ĸà½ĸà½ĸà½ĸ à½ĸà½ĸà½ĸà½ĸà½ĸà½ĸà½ĸà½ĸ
à½¦ à½ĵà½Ħ
à½¼à¼ĭ à¾ħ
à¾Ł à½»à¼į
à¾£ à½²à½¿à¼ĭ
à½Ħà½¦ à½¡
à½łà½Ĥ à½ĵà½¦
à¾¦ à¾²à½²à¼ĭ
à½ĺà½¢ à½¡
à½ĺà½īà½ĺ à½Ķà½ł
à¾Ĵà¾² à¾Ĺà½º
à½Ĥà½ŀà½Ĥ à½Ĥ
à½ĳà½Ĥà½Ĥ à½Ķà½ł
à¼¨ à¼¡à¼£
à¼¡à¼§ à¼£à¼ł
à¼¡à¼¦ à¼¤à¼¨
à¼¡à¼¦ à¼¥à¼¢
à½ķà½¦ à½Ĥà½¥
à¼¨à¼ł à¼©
Ġà¼© à¼£
Ġà¼¨ à¼¤
Ġà¼¨ à¼¦
Ġà¼Į à¼Įà¼Į
à½Ķà½ĩ à½ĳ
Ġ à½¥
Ġ à½ĸà½Ħ
à¼ĭ à¾¨à½¼à¼ĭ
à½ĺ à½łà½ģ
à½ĺ à½Łà½ĳ
à½£ à½ĸà½Ĥ
à½ĳà½Ħ à½ĺà½īà½ĺ
à½ĺà½¦ à½Ĥà½Ħ
à½Ķà½¢ à½Ķ
à½ºà¼į à¼¼
à¾¨ à¾¨à½±
à½¨ à½ĳà½Ħ
à½´à¼į à¼Ħà¼ħà¼įà¼į
à¼¦ à¼¥à¼¨
à¼łà¼ł à¼¢
à¼¡à¼ł à¼¡à¼ł
à¾¦à¾· à½¿à¼ĭ
à¾ĭ à½ĸ
à¼Ģ à½ķ
à¾ł à½±à½¿à¼ĭ
à¼ĭà½¼à¼ĭ à½¼
à¼įà¼ĭà¼ĭà¼ĭà¼ĭà¼ĭà¼ĭà¼ĭà¼ĭà¼ĭà¼ĭà¼ĭà¼ĭà¼ĭà¼ĭà¼ĭà¼ĭà¼ĭà¼ĭà¼ĭà¼ĭà¼ĭà¼ĭà¼ĭà¼ĭà¼ĭà¼ĭà¼ĭà¼ĭà¼ĭà¼ĭà¼ĭà¼ĭà¼ĭà¼ĭà¼ĭà¼ĭà¼ĭà¼ĭà¼ĭà¼ĭà¼ĭà¼ĭà¼ĭà¼ĭà¼ĭà¼ĭà¼ĭà¼ĭà¼ĭà¼ĭà¼ĭà¼ĭà¼ĭà¼ĭà¼ĭà¼ĭà¼ĭà¼ĭà¼ĭà¼ĭà¼ĭà¼ĭà¼ĭà¼ĭ à¼ĭà¼ĭà¼ĭà¼ĭ
à¼¦à¼¨ à¼§
à¾° à½¾à¼ĭ
à½¦ à½ĺà½ļà½ĵ
à½£ à½Ĥà½¦à½£
à½Ĥà½¦ à½Ĥà½ī
à½Ĩ à½ĳà½ĺ
à½Ĩ à½Ĥà½¦à½£
à½Ĳ à½Ĩ
à½ĺà½¦ à½ĺà½Ħ
à½ļ à½¡
à½Ķà½¢ à½ĳà½ĸ
à¾£ à½ºà¼įà¼į
à½£à½¦ à½Ĩ
à½ĺà½ļ à½ĵà½¦
à½Ľ à½łà½ĺ
à½§ à½ī
à½¼à½¾à¼ĭ à¼´
à¼§ à¼£à¼£
à¼¨ à¼¤à¼©
à½ķà½Ĭ à½Ģ
à¼łà¼ł à¼£
à¾²à½±à½² à½¿à¼įà¼į
à¾ŀ à½½à½¾à¼ĭ
à¼¡à¼¨ à¼¦à¼§
à½© à½¤
à¼įà¼ĭà¼ĭà¼ĭà¼ĭà¼ĭà¼ĭà¼ĭà¼ĭà¼ĭà¼ĭà¼ĭà¼ĭà¼ĭà¼ĭà¼ĭà¼ĭà¼ĭà¼ĭà¼ĭà¼ĭà¼ĭà¼ĭà¼ĭà¼ĭà¼ĭà¼ĭà¼ĭà¼ĭà¼ĭà¼ĭà¼ĭà¼ĭà¼ĭà¼ĭà¼ĭà¼ĭà¼ĭà¼ĭà¼ĭà¼ĭà¼ĭà¼ĭà¼ĭà¼ĭà¼ĭà¼ĭà¼ĭà¼ĭà¼ĭà¼ĭà¼ĭà¼ĭà¼ĭà¼ĭà¼ĭà¼ĭà¼ĭà¼ĭà¼ĭà¼ĭà¼ĭà¼ĭà¼ĭà¼ĭ à¼ĭà¼ĭà¼ĭà¼ĭà¼ĭà¼ĭà¼ĭà¼ĭà¼ĭà¼ĭà¼ĭ
à¼Ŀà¼Ŀ à¼į
Ġà¼ĭà¼ĭà¼ĭà¼ĭà¼ĭà¼ĭà¼ĭà¼ĭà¼ĭà¼ĭà¼ĭà¼ĭà¼ĭà¼ĭà¼ĭà¼ĭà¼ĭà¼ĭà¼ĭà¼ĭà¼ĭà¼ĭà¼ĭà¼ĭà¼ĭà¼ĭà¼ĭà¼ĭà¼ĭà¼ĭà¼ĭà¼ĭà¼ĭà¼ĭà¼ĭà¼ĭà¼ĭà¼ĭà¼ĭà¼ĭà¼ĭà¼ĭà¼ĭà¼ĭà¼ĭà¼ĭà¼ĭà¼ĭà¼ĭà¼ĭà¼ĭà¼ĭà¼ĭà¼ĭà¼ĭà¼ĭà¼ĭà¼ĭà¼ĭà¼ĭà¼ĭà¼ĭà¼ĭà¼ĭà¼ĭà¼ĭà¼ĭà¼ĭà¼ĭà¼ĭà¼ĭà¼ĭà¼ĭà¼ĭà¼ĭà¼ĭà¼ĭà¼ĭà¼ĭà¼ĭ à¼ĭà¼ĭà¼ĭà¼ĭà¼ĭà¼ĭà¼ĭà¼ĭ
à½łà½Ļ à½£à½ĳ
Ġ à½ĺà½ģà½¢
à½ĸ à½ĺà½Ľà½ĳ
à½Ħ à½Ĥà½¡
à½²à¼ĭ à¾¾à¼į
à½ĸà½¦ à½Ĳ
à¾±à½²à¼ĭ à¼ŀà¼į
à½Ĳ à½ĺà½Ĳ
à½ĸà½¢ à½Ħà½¦
à¾£ à¾£à¼ĭ
à¼ĭà¼į à¼ĭà¼į
à¾¡ à¾±à½º
à¾· à½±à¼Ķ
à½Ļ à½¢à½ł
à½ĺà½ļ à½¦
à¾«à½¼ à½¼
à½İ à½¡
à¼§ à¼¨à¼ł
à¼¦ à¼¥à¼©
à¼ĭà½Ī à¾¡à½¼
à¾¤à¾² à½ºà¼į
à¼¡à¼¢ à¼¨à¼¨
à¼¡à¼¦ à¼£à¼¨
à¼¡à¼¨ à¼¤à¼¦
à¼Ģ à½Ĥà½¦
à¼ĭà¾¢ à½¼
Ġà¼ł à¼¤
à½į à½¦
à¼įà¼ĭà¼ĭà¼ĭà¼ĭà¼ĭà¼ĭà¼ĭà¼ĭà¼ĭà¼ĭà¼ĭà¼ĭà¼ĭà¼ĭà¼ĭà¼ĭà¼ĭà¼ĭà¼ĭà¼ĭà¼ĭà¼ĭà¼ĭà¼ĭà¼ĭà¼ĭà¼ĭà¼ĭà¼ĭà¼ĭà¼ĭà¼ĭà¼ĭà¼ĭà¼ĭà¼ĭà¼ĭà¼ĭà¼ĭà¼ĭà¼ĭà¼ĭà¼ĭà¼ĭà¼ĭà¼ĭà¼ĭà¼ĭà¼ĭà¼ĭà¼ĭà¼ĭà¼ĭà¼ĭà¼ĭà¼ĭà¼ĭà¼ĭà¼ĭà¼ĭà¼ĭà¼ĭà¼ĭà¼ĭà¼ĭà¼ĭà¼ĭà¼ĭà¼ĭà¼ĭà¼ĭà¼ĭà¼ĭà¼ĭà¼ĭà¼ĭà¼ĭà¼ĭà¼ĭà¼ĭ à¼ĭà¼ĭà¼ĭà¼ĭà¼ĭà¼ĭà¼ĭà¼ĭà¼ĭà¼ĭà¼ĭà¼ĭà¼ĭà¼ĭ
à¼ĭ à¾Ļ
à¼ĭ à½¾
à½Ĥ à½Ĩà½ĳ
à¾± à¼µà½º
à¾² à¾²à½²
à½¡ à½Ł
à½ĵà½¦ à½łà½Ĥ
à¾¡ à¾¡à¾·à¼ĭ
à¾© à¾±à½º
à½Ĥà½ıà½ĵ à½Ĥ
à½łà½ļà½£ à½£
à¾¡à½º à¼·à¼ĭ
à¼§ à¼¢à¼ł
à½Łà½¦ à½¦
à½Ĵ à½ĳà½Ĥ
à¼¦ à¼¢à¼¡
à¼ĭà½Ī à¾Ĳà¾±à½ºà¼ĭ
à¼Į à¼įà¼į
à¼¡à¼¢ à¼¤à¼ł
à¾ļ à¾²à½±à¾Ģà½¿à¼ĭ
à¼ĭà¾ ¥
à¼ĭà½µ à¾ĥà½¿à¼ĭ
à¾¶ à½ºà¼į
à¾¶ à½±à¼į
à¼§à¼ł à¼¨
à¼¦à¼¦ à¼¨
à¼¦à¼¨ à¼¨
à¼įà¼ĭà¼ĭà¼ĭà¼ĭà¼ĭà¼ĭà¼ĭà¼ĭà¼ĭà¼ĭà¼ĭà¼ĭà¼ĭà¼ĭà¼ĭà¼ĭ à¼ĭà¼ĭà¼ĭà¼ĭà¼ĭà¼ĭà¼ĭà¼ĭ
à¾Īà¾Īà¾Īà¾Īà¾Īà¾Īà¾Īà¾Ī à¾Ī
à½ĸà½¤à½Ĳ à½ĸà½ĸ
Ġ à½Ħà½Ħ
à½ĺ à½ĸà½Ł
à¾² à¾£à¼ĭ
à¾Ł à¾²à½±à½´
à½ħ à½ĳà½Ħ
à½ĸà½ĳà½Ĥ à½¢
à½ĸà½ĳà½Ĥ à½Ģ
à½İ à½¤
à½ıà½ĵ à½ĳà½Ħ
à½ĳà½Ķà½Ĥ à½ļà½ĳ
à½Ĥà½ŀà½Ĥ à½Ĥà½¡
à¼§ à¼¢à¼¨
à½Ĵ à½Ĥà½¥
à¼¦ à¼¡à¼¢
à¼¡à¼¤ à¼§à¼¤
à¾Ľ à¼įà¼į
à¼ĭà½²à¼ĭ à½¼à¼ĭ
à¼ĭà¾¢ à½±à½²à¼ĭ
à½ĥ à½ŀ
à¼ĭà¼Ŀ à¼Ŀà¼į
à¼§à¼ł à¼£
Ġà¼¨ à¼¥
à¼¦à¼¦ à¼¤
à¼¡à¼§à¼ł à¼¦
Ġ à½²à¼ĭ
Ġ à½łà½Ĩà½¢
à¼ ľ
à½¢ à½Ĥà½ı
à½ĵ à½Ĩà½Ĥà½¦
à½Ħ à½ĵà½Ħ
à½Ħ à½Ķà½ĺ
à½Ķ à½Ĥà½ĳ
à¾± à½±à¼įà¼į
à½£ à½łà½ķ
à½ºà¼ĭ à½²à¼ĭ
à½ĺà½¦ à½ķ
à½Ķà½¢ à½ĺà½Ħ
à½Ł à½łà½Ħ
à½£à½¦ à½Ħà½¦
à½¡à½Ħ à½Ĥà½¦
à¾Ķ à¾·à½±à¼ĭ
à½Ĥà½ı à½£
à¾¦à¾± à¾Ĳà½¼
à½Ĭ à½łà½Ħ
à½Ŀ à½Ħà½¦
à½Ĵ à½ĵà½ĳ
à¼¨ à¼£à¼¦
à¼¡à¼§ à¼©à¼ł
à¾´ à¾Ńà¼ĭ
à½ķà½Ŀ à½Ĳ
à¼¦à¼¨ à¼¢
à¼¦à¼© à¼¢
à½´à¼ĭà½Ī à½º
à¼įà¼ĭà¼ĭà¼ĭà¼ĭà¼ĭà¼ĭà¼ĭà¼ĭà¼ĭà¼ĭà¼ĭà¼ĭà¼ĭà¼ĭà¼ĭà¼ĭà¼ĭà¼ĭà¼ĭà¼ĭà¼ĭà¼ĭà¼ĭà¼ĭà¼ĭà¼ĭà¼ĭà¼ĭà¼ĭà¼ĭà¼ĭà¼ĭ à¼ĭà¼ĭà¼ĭà¼ĭà¼ĭà¼ĭ
à½¦ à½łà½ķà½Ĥà½¦
à½¢ à½Ĥà½¤
à¾² à¾³à½¼à¼ĭ
à½ı à½«à½Ĥ
à½¤ à½ª
à¾¡ à¾²à½º
à½ĸà½ŀ à½ĺ
à½£à½¦ à½Ħ
à½Ĥà½ŀ à½¡
à¾· à¼µà¼ĭ
à½Ĥà½Ħ à½¥
à½Ĥà½ĵà½¦ à½ĵà½¦
à½ĸà½ĳà½Ĥ à½ĳ
à½ĸà½ĳà½Ĥ à½¡
à¼¨ à¼¡à¼¡
à¼¡à¼§ à¼§à¼§
à¼¡à¼¨ à¼¦à¼£
à¾¦à¾· à½´à¼į
à¾Łà¾Ń à½ºà¼ĭ
à¼©à¼© à¼©à¼©
à¾º à½±
à¼¡à¼¢à¼¨ à¼¦
Ġà¼ĭà¼ĭà¼ĭà¼ĭà¼ĭà¼ĭà¼ĭà¼ĭà¼ĭà¼ĭà¼ĭà¼ĭà¼ĭà¼ĭà¼ĭà¼ĭà¼ĭà¼ĭà¼ĭà¼ĭà¼ĭà¼ĭà¼ĭà¼ĭà¼ĭà¼ĭà¼ĭà¼ĭà¼ĭà¼ĭà¼ĭà¼ĭà¼ĭà¼ĭà¼ĭà¼ĭà¼ĭà¼ĭà¼ĭà¼ĭà¼ĭà¼ĭà¼ĭà¼ĭà¼ĭà¼ĭà¼ĭà¼ĭà¼ĭà¼ĭà¼ĭà¼ĭà¼ĭà¼ĭà¼ĭà¼ĭà¼ĭà¼ĭà¼ĭà¼ĭà¼ĭà¼ĭà¼ĭà¼ĭà¼ĭà¼ĭà¼ĭà¼ĭà¼ĭà¼ĭà¼ĭà¼ĭà¼ĭà¼ĭà¼ĭà¼ĭà¼ĭà¼ĭà¼ĭà¼ĭà¼ĭà¼ĭà¼ĭà¼ĭà¼ĭà¼ĭà¼ĭà¼ĭà¼ĭà¼ĭà¼ĭà¼ĭà¼ĭà¼ĭà¼ĭà¼ĭ à¼ĭ
Ġ à½łà½ĺ
à½¢ à½ĸà½¦à½ĺ
à½Ĥà½¦ à½Ĥà½Ħ
à¾Ł à¾Łà¼į
à½Ķà½¢ à½łà½ķ
à½ĳà½Ĥ à½Ĩ
à½²à¼į à¼ĭà¼į
à½¨ à½ĵà½¦
à½Ĥà½ŀà½ĵ à½¡
à¾Ĺà½ºà¼ĭ à¼º
à½ĺà½Ĥ à½ł
à½İ à½Ļ
à½ĺà½ģà½¦ à½Ķà½ł
à¼ł à¼£à¼ł
à¼¨ à¼¤à¼¥
à¾«à½´ à¼Ķ
à¼¡à¼¢ à¼¦à¼ł
à¼¡à¼§ à¼¢à¼¤
à¼¡à¼¦ à¼£à¼©
à¼ĭà¼¹ à½´
à¼ĭà¾¢ à½´
à½ĥ à½ĺ
à¼Įà¼Įà¼Į à¼į
à½ĵà½ħ à½Ķ
Ġà¼ĭà¼ĭà¼ĭà¼ĭà¼ĭà¼ĭà¼ĭà¼ĭà¼ĭà¼ĭà¼ĭà¼ĭà¼ĭà¼ĭà¼ĭà¼ĭà¼ĭà¼ĭà¼ĭà¼ĭà¼ĭà¼ĭà¼ĭà¼ĭà¼ĭà¼ĭà¼ĭà¼ĭà¼ĭà¼ĭà¼ĭà¼ĭà¼ĭà¼ĭà¼ĭà¼ĭà¼ĭà¼ĭà¼ĭà¼ĭà¼ĭà¼ĭà¼ĭà¼ĭà¼ĭà¼ĭà¼ĭà¼ĭà¼ĭà¼ĭà¼ĭà¼ĭà¼ĭà¼ĭà¼ĭà¼ĭà¼ĭà¼ĭà¼ĭà¼ĭà¼ĭà¼ĭà¼ĭà¼ĭà¼ĭà¼ĭà¼ĭà¼ĭà¼ĭà¼ĭà¼ĭà¼ĭà¼ĭà¼ĭà¼ĭà¼ĭà¼ĭà¼ĭà¼ĭà¼ĭ à¼ĭà¼ĭà¼ĭà¼ĭà¼ĭà¼ĭ
à¼įà¼ĭà¼ĭà¼ĭà¼ĭà¼ĭà¼ĭà¼ĭà¼ĭà¼ĭà¼ĭà¼ĭà¼ĭà¼ĭà¼ĭà¼ĭà¼ĭà¼ĭà¼ĭà¼ĭà¼ĭà¼ĭà¼ĭà¼ĭà¼ĭà¼ĭà¼ĭà¼ĭà¼ĭà¼ĭà¼ĭà¼ĭà¼ĭà¼ĭà¼ĭà¼ĭà¼ĭà¼ĭà¼ĭà¼ĭà¼ĭà¼ĭà¼ĭà¼ĭà¼ĭà¼ĭà¼ĭà¼ĭà¼ĭà¼ĭà¼ĭà¼ĭà¼ĭà¼ĭà¼ĭà¼ĭà¼ĭà¼ĭà¼ĭà¼ĭà¼ĭà¼ĭà¼ĭà¼ĭà¼ĭà¼ĭà¼ĭà¼ĭà¼ĭà¼ĭà¼ĭà¼ĭà¼ĭà¼ĭà¼ĭà¼ĭà¼ĭà¼ĭà¼ĭà¼ĭà¼ĭà¼ĭà¼ĭà¼ĭà¼ĭà¼ĭà¼ĭà¼ĭà¼ĭà¼ĭà¼ĭà¼ĭà¼ĭà¼ĭà¼ĭà¼ĭà¼ĭ à¼ĭà¼ĭà¼ĭ
Ġ à½łà½ĸà½¢
Ġ à½Ĥà½ĵà½ł
à¼ĭ à¾Ķ
à½Ķ à½Ĥà½¦à½£
à½Ģ à½ĳà½Ħ
à¾Ł à¾Łà½¼
à¾Ł à¾Łà½¿à¼ĭ
à½ı à½§
à½¤ à½Ĭ
à¾Ĳ à¾µà¼ĭ
à¾© à½½à¼ĭ
à½¨ à½łà½ĺ
à½łà½Ľ à½£
à½ĺà½Ľ à½ĺ
à¼Ķ à¼ĭà¼ĭ
à½ĳà½ĳ à½ĳà½ĳ
à½£à½ĵ à½Ĥ
à½» à½¾à¼Ķ
à¼¡à¼§ à¼§à¼¢
à¼§à¼¨ à¼¨
à¾±à¾Ģ à¼įà¼į
à¼įà¼ĭà¼ĭà¼ĭà¼ĭà¼ĭà¼ĭà¼ĭà¼ĭà¼ĭà¼ĭà¼ĭà¼ĭà¼ĭà¼ĭà¼ĭà¼ĭ à¼ĭà¼ĭà¼ĭà¼ĭà¼ĭà¼ĭà¼ĭà¼ĭà¼ĭà¼ĭ
à¼ĭ à¾¦
à½¦ à½Łà½¦
à½ł à½ĺà½¢
à½£ à½Ĳà½ĺà½¦
à½´à¼ĭ à½±à¼ĭ
à½¡ à½ĺà½ł
à¾Ł à¾²à¾Ģà½¿à¼ĭ
à½Ĩ à½ĳà½Ģ
à½ı à½Ĩ
à½Ł à½ĳà½ĳ
à¾¡ à¾²à¼įà¼į
à¾©à¼ĭ à¼¼
à½£à½Ĥ à½ĸà½¢
à½ĺà½¢ à½Ĥ
à½İ à½ĵà½ħà½Ķ
à½¥ à½Ĥ
à½¦à½ĺ à½ĸ
à½¦à½Ħ à½¢
à¾ļ à½¼à½¾à¼ĭ
à¾ł à¾±à¼ĭ
Ġà¼¡ à¼¡à¼£
à½Ĵà½Ĥ à½Ŀ
Ġà¼¨ à¼§
Ġà¼¦ à¼¨
à¼¦à¼¨ à¼¤
à¼ĭà¾¾ à¾¾à¾¾
à½Ķà½Ķà½Ķà½Ķ à½ķà½ķ
à½¦ à½łà½ķ
à½¦ à½Ĥà½¡
à½ĵ à½ĺà½ļ
à½Ĳ à½Ķà½¦
à¾¤ à¼·
à¾· à¾ľ
à½Ļ à½Ĥà½¦
à½ĸà½ı à½Ķ
à¾¤à¾± à¼į
à½Ŀ à½Ľ
à½ģà½¦ à½£
à½ļà½Ħà½¦ à½Ķà½¢
à¾±à¼į à¼ĭà¼ĭà¼ĭà¼ĭà¼ĭ
à¼¦ à¼£à¼¡
à¼¡à¼ł à¼¢à¼§
à¼¡à¼£ à¼¨à¼¥
à¾¡à¾· à¾±à½±à¼ĭ
à¼¡à¼§ à¼§à¼©
à¼¡à¼¦ à¼łà¼ł
à¼¡à¼¨ à¼§à¼©
Ġà¼ĭà¼ĭà¼ĭà¼ĭà¼ĭ à¼ĭà¼į
à¼§à¼ł à¼¥
Ġà¼© à¼¨
à½ľ à½ī
Ġà¼ĭà¼ĭà¼ĭà¼ĭà¼ĭà¼ĭà¼ĭà¼ĭà¼ĭà¼ĭà¼ĭà¼ĭà¼ĭà¼ĭà¼ĭà¼ĭà¼ĭà¼ĭà¼ĭà¼ĭà¼ĭà¼ĭà¼ĭà¼ĭà¼ĭà¼ĭà¼ĭà¼ĭà¼ĭà¼ĭà¼ĭà¼ĭà¼ĭà¼ĭà¼ĭà¼ĭà¼ĭà¼ĭà¼ĭà¼ĭà¼ĭà¼ĭà¼ĭà¼ĭà¼ĭà¼ĭà¼ĭà¼ĭà¼ĭà¼ĭà¼ĭà¼ĭà¼ĭà¼ĭà¼ĭà¼ĭà¼ĭà¼ĭà¼ĭà¼ĭà¼ĭà¼ĭà¼ĭà¼ĭà¼ĭà¼ĭà¼ĭà¼ĭà¼ĭà¼ĭà¼ĭà¼ĭà¼ĭà¼ĭà¼ĭà¼ĭà¼ĭà¼ĭà¼ĭà¼ĭ à¼ĭà¼ĭà¼ĭà¼ĭà¼ĭ
Ġ à½ĸà½ıà½ĸ
à½¢ à½ıà½ĵ
à½ĵ à½łà½Ľ
à½Ķ à½ĺà½Ĳà½ł
à½£ à½Ķà½Ĥ
à½ĸà½¦ à½ģ
à¾Ĳ à½²à¼į
à½ĸà½¢ à½Ķà½¢
à½ĸà½¢ à½ĺà½Ľà½ĳ
à¾²à½¼ à¾ħ
à¾¨ à¾¨à½ºà¼ĭ
à¾³à½¼ à¼µà¼ĭ
à½Ĥà½ŀà½ĵ à½£à½¦
à¾Ń à¾ĥà¼į
à½łà½Ĩ à½łà½ĺ
à¾¡à½¼ à½¾
à½Ĥà½ĵ à½£
à½Ĥà½Ļ à½ĸà½¦
à½ĸà½Ļ à½ĸ
à¼§ à¼¤à¼¤
à½Ĵ à½ī
à¼¦ à¼¢à¼¨
à½ķà½Ĭ à½¦à½¢
à¾µ à½»à¼ĭ
à¾Ńà½± à½¾
à¾ļ à½²à½¾à¼į
à¼¡à¼§ à¼£à¼¨
à½Ĥà½¥ à½Ĳ
à½ķà½¥ à½Ĥà½¥
à½½à¼į à¼Įà¼Įà¼Į
à¼©à¼§ à¼©
à½²à¼ĭà¼½ à¼¼
à½ºà¼ĭà½Ī à½ºà¼ĭ
à¼įà¼ĭà¼ĭà¼ĭà¼ĭà¼ĭà¼ĭà¼ĭà¼ĭà¼ĭà¼ĭà¼ĭà¼ĭà¼ĭà¼ĭà¼ĭà¼ĭà¼ĭà¼ĭà¼ĭà¼ĭà¼ĭà¼ĭà¼ĭà¼ĭà¼ĭà¼ĭà¼ĭà¼ĭà¼ĭà¼ĭà¼ĭà¼ĭà¼ĭà¼ĭà¼ĭà¼ĭà¼ĭà¼ĭà¼ĭà¼ĭà¼ĭà¼ĭà¼ĭà¼ĭà¼ĭà¼ĭà¼ĭà¼ĭà¼ĭà¼ĭà¼ĭà¼ĭà¼ĭà¼ĭà¼ĭà¼ĭà¼ĭà¼ĭà¼ĭà¼ĭà¼ĭà¼ĭà¼ĭà¼ĭà¼ĭà¼ĭà¼ĭà¼ĭà¼ĭà¼ĭà¼ĭà¼ĭà¼ĭà¼ĭà¼ĭà¼ĭà¼ĭà¼ĭà¼ĭà¼ĭ à¼ĭà¼ĭà¼ĭà¼ĭà¼ĭà¼ĭà¼ĭà¼ĭà¼ĭà¼ĭà¼ĭà¼ĭà¼ĭà¼ĭà¼ĭ
à¼įà¼ĭà¼ĭà¼ĭà¼ĭà¼ĭà¼ĭà¼ĭà¼ĭà¼ĭà¼ĭà¼ĭà¼ĭà¼ĭà¼ĭà¼ĭà¼ĭà¼ĭà¼ĭà¼ĭà¼ĭà¼ĭà¼ĭà¼ĭà¼ĭà¼ĭà¼ĭà¼ĭà¼ĭà¼ĭà¼ĭà¼ĭà¼ĭà¼ĭà¼ĭà¼ĭà¼ĭà¼ĭà¼ĭà¼ĭà¼ĭà¼ĭà¼ĭà¼ĭà¼ĭà¼ĭà¼ĭà¼ĭà¼ĭ à¼ĭà¼ĭà¼ĭà¼ĭà¼ĭà¼ĭà¼ĭà¼ĭà¼ĭà¼ĭà¼ĭà¼ĭà¼ĭà¼ĭà¼ĭ
Ġ à½ıà½ĵ
à½¢ à½ĵà½ĺ
à½º à½²à¼ĭ
à¾² à¾·à½²à¼ĭ
à½ı à½¨
à¾¡ à¾²à½¾à¼ĭ
à¾¡ à¼·à½¼à¼ĭ
à¾¦ à¾·à½´
à½ĳà½Ķ à½¡
à½¨ à½¨à½¢
à½ĸà½¤ à½¤
Ġà¼Ī à¼ĭ
à¾µ à¾¨à½ºà¼ĭ
à¾·à½¼ à½¿à¼ĭ
Ġà½¦ à½ĵ
à½¢à½ı à½£
à¼¡à¼¨ à¼¤à¼¡
à¼Ģ à½ĺà½§
à½¦à½Ķ à½ĺ
à¼§à¼¦ à¼§
à¼§à¼¦ à¼¦
à¼§à¼¨ à¼£
Ġà¼ĭà¼ĭà¼ĭà¼ĭà¼ĭà¼ĭà¼ĭà¼ĭà¼ĭà¼ĭà¼ĭà¼ĭà¼ĭà¼ĭà¼ĭà¼ĭà¼ĭà¼ĭà¼ĭà¼ĭà¼ĭà¼ĭà¼ĭà¼ĭà¼ĭà¼ĭà¼ĭà¼ĭà¼ĭà¼ĭà¼ĭà¼ĭà¼ĭà¼ĭà¼ĭà¼ĭà¼ĭà¼ĭà¼ĭà¼ĭà¼ĭà¼ĭà¼ĭà¼ĭà¼ĭà¼ĭà¼ĭà¼ĭà¼ĭà¼ĭà¼ĭà¼ĭà¼ĭà¼ĭà¼ĭà¼ĭà¼ĭà¼ĭà¼ĭà¼ĭà¼ĭà¼ĭà¼ĭà¼ĭà¼ĭà¼ĭà¼ĭà¼ĭà¼ĭà¼ĭà¼ĭà¼ĭà¼ĭà¼ĭà¼ĭà¼ĭà¼ĭà¼ĭà¼ĭà¼ĭ à¼ĭà¼ĭà¼ĭà¼ĭà¼ĭà¼ĭà¼ĭ
à¼įà¼ĭà¼ĭà¼ĭà¼ĭà¼ĭà¼ĭà¼ĭà¼ĭà¼ĭà¼ĭà¼ĭà¼ĭà¼ĭà¼ĭà¼ĭà¼ĭà¼ĭà¼ĭà¼ĭà¼ĭà¼ĭà¼ĭà¼ĭà¼ĭà¼ĭà¼ĭà¼ĭà¼ĭà¼ĭà¼ĭà¼ĭà¼ĭà¼ĭà¼ĭà¼ĭà¼ĭà¼ĭà¼ĭà¼ĭà¼ĭà¼ĭà¼ĭà¼ĭà¼ĭà¼ĭà¼ĭà¼ĭà¼ĭ à¼ĭà¼ĭà¼ĭà¼ĭà¼ĭ
à½ĸà½ĸà½ĸà½ĸà½ĸà½ĸà½ĸà½ĸ à½ĸ
à¾·à¾²à½´ à½¾à¼į
Ġ à½ĺà½£
Ġ à¼¡à¼¢à¼ł
à½¦ à½ĳà½Ģ
à½¦ à½Ģà½¢
à½Ĥ à½ĳà½ĸà½Ħ
à½Ħ à½ĸà½ħ
à½Ħ à½ĳà½ĺ
à½£ à½ĳà½Ķ
à¾² à¾¦à¾·à½º
à½ĳà½Ħ à½ĸà½ŀ
à¾±à½² à½¾
à½ļ à½ĵà½¦
à½Ķà½¢ à½ł
à¾£ à½½à¼ĭ
à½¼à¼įà¼į à¼ĭà¼ĭ
à½ĵà½¦ à½¨
à½Ĥà½ŀ à½ĸà½¦
à½Ļ à½¤
à¾Ĵà¾±à¼ĭ à¼ĳ
à½Łà½ĸ à½ĸ
à¼· à½²à¼į
à¼¦ à¼¥à¼¡
à¼¨ à¼¢à¼£
à¾²à¼į à¼ĭà¼ĭà¼ĭà¼ĭà¼ĭ
à¼¡à¼¨ à¼¥à¼¤
à¼¡à¼¨ à¼©à¼¤
à¾¦à¾· à½±
à½Ľà½ĺ à½ĸ
à¼ĭà¾§ à½±à½²à¼ĭ
à¼©à¼© à¼¢
à¼§à¼§ à¼£
à¼§à¼© à¼¦
à¼©à¼ł à¼¦
ĠĠĠĠĠĠĠĠ ĠĠĠ
à¼ĭà¾ĵ à½±à¼ĭ
à¼įà¼ĭà¼ĭà¼ĭà¼ĭà¼ĭà¼ĭà¼ĭà¼ĭà¼ĭà¼ĭà¼ĭà¼ĭà¼ĭà¼ĭà¼ĭà¼ĭà¼ĭà¼ĭà¼ĭà¼ĭà¼ĭà¼ĭà¼ĭà¼ĭà¼ĭà¼ĭà¼ĭà¼ĭà¼ĭà¼ĭà¼ĭà¼ĭà¼ĭà¼ĭà¼ĭà¼ĭà¼ĭà¼ĭà¼ĭà¼ĭà¼ĭà¼ĭà¼ĭà¼ĭà¼ĭà¼ĭà¼ĭà¼ĭà¼ĭà¼ĭà¼ĭà¼ĭà¼ĭà¼ĭà¼ĭà¼ĭà¼ĭà¼ĭà¼ĭà¼ĭà¼ĭà¼ĭà¼ĭà¼ĭà¼ĭà¼ĭà¼ĭà¼ĭà¼ĭà¼ĭà¼ĭà¼ĭà¼ĭà¼ĭà¼ĭà¼ĭà¼ĭà¼ĭà¼ĭà¼ĭ à¼ĭà¼ĭà¼ĭà¼ĭà¼ĭà¼ĭà¼ĭà¼ĭà¼ĭà¼ĭà¼ĭ
à¼įà¼ĭà¼ĭà¼ĭà¼ĭà¼ĭà¼ĭà¼ĭà¼ĭà¼ĭà¼ĭà¼ĭà¼ĭà¼ĭà¼ĭà¼ĭà¼ĭà¼ĭà¼ĭà¼ĭà¼ĭà¼ĭà¼ĭà¼ĭà¼ĭà¼ĭà¼ĭà¼ĭà¼ĭà¼ĭà¼ĭà¼ĭà¼ĭà¼ĭà¼ĭà¼ĭà¼ĭà¼ĭà¼ĭà¼ĭà¼ĭà¼ĭà¼ĭà¼ĭà¼ĭà¼ĭà¼ĭà¼ĭà¼ĭ à¼ĭà¼ĭà¼ĭà¼ĭà¼ĭà¼ĭà¼ĭà¼ĭà¼ĭà¼ĭ
Ġ à¼¢à¼łà¼ł
à½Ĥ à½ĳà½Ģ
à½¢ à½ĳà½ĸà½Ħ
à½ĵ à½ĸà½¤à½ĳ
à½Ħ à½ĺà½Ľà½ĳ
à½ĺ à½¤à½¢
à½Ķ à½Łà½ĳ
à½Ķ à½Ŀ
à½´à¼ĭ à½±à½´à¾ĥà¼ĭ
à½¡ à½ģà½¦
à¾Ł à¾Ńà½±à½¾à¼ĭ
à¾Ĵ à½±à½²à¼į
à½Ķà½¦ à½ĸà½¢
à½¢à½Ħ à½ĳà½Ħ
à½łà½ķ à½ĸ
à¾« à½ºà¼į
à¾Ĵà¾±à¼ĭ à¼½
à½±à¼ĭ à½²
à¾Ĵà¾±à½´à¼ĭ à¼½
à½Ļà½ĺ à½ŀ
à¾¦à¾± à¾Ļà½¼
à½±à½²à¼ĭ à¼´
à½Ĳà½Ĥ à½Ķà½ł
à½Łà½ĸ à½ĺ
à¼§ à¼£à¼©
à¾ľ à¾·à¾±à¼į
à¼© à¼¡à¼©
à½ķà½£ à½Ĩ
à½ĸà½ĸ à½ĸà½ĸà½¦
à¼¡à¼ł à¼¥à¼¥
à¼¡à¼£ à¼¦à¼ł
à¾¡à¾· à½±à½¾à¼į
à¼¡à¼§ à¼¨à¼¨
à¼¡à¼§ à¼¨à¼©
à¼¡à¼¨ à¼¡à¼¦
à¾ł à½½à¼ĭ
Ġà½ĵ à½Ł
à¾´ à½²à¼į
à¼¡à¼¨à¼ł à¼¨
Ġà¼ĭà¼ĭà¼ĭà¼ĭà¼ĭà¼ĭà¼ĭà¼ĭà¼ĭà¼ĭà¼ĭà¼ĭà¼ĭà¼ĭà¼ĭà¼ĭà¼ĭà¼ĭà¼ĭà¼ĭà¼ĭà¼ĭà¼ĭà¼ĭà¼ĭà¼ĭà¼ĭà¼ĭà¼ĭà¼ĭà¼ĭà¼ĭà¼ĭà¼ĭà¼ĭà¼ĭà¼ĭà¼ĭà¼ĭà¼ĭà¼ĭà¼ĭà¼ĭà¼ĭà¼ĭà¼ĭà¼ĭà¼ĭà¼ĭà¼ĭà¼ĭà¼ĭà¼ĭà¼ĭà¼ĭà¼ĭà¼ĭà¼ĭà¼ĭà¼ĭà¼ĭà¼ĭà¼ĭà¼ĭà¼ĭà¼ĭà¼ĭà¼ĭà¼ĭà¼ĭà¼ĭà¼ĭà¼ĭà¼ĭà¼ĭà¼ĭà¼ĭà¼ĭà¼ĭà¼ĭ à¼ĭà¼ĭà¼ĭà¼ĭà¼ĭà¼ĭà¼ĭà¼ĭà¼ĭ
à¾¦à¾¦ à¾¦à¾¦à¼ĭ
à¼ĭà¼Į à¼įà¼į
à½ĸ à½Ĥà½Ł
à½Ķ à½Ĥà½¡
à¾² à¾Ļà½º
à¾² à½»à½¾à¼ĭ
à½Ģ à½ĵà½ĳ
à½ĺà½¦ à½Ħ
à¾¡ à½±à½²
à¾±à½´ à½¾
à¾· à¾¡à½¼à¼ĭ
à¾· à¾²à½²à¼į
à¾· à¾£à½¼à¼ĭ
à¾« à¾±à¼ĭ
à¼Ķ à¼Ī
à½ĳà½Ķà½ł à½ĳ
à½ĺà½Ĳà½ł à½ĳà½Ħ
à¼§ à¼¡à¼¥
à¾©à½²à¼ĭ à¼´
à¼ĭà¼ĳ à½¼
à¼¨ à¼¡à¼¤
à¼¡à¼ł à¼¦à¼¢
à¾ļ à½±à½¿à¼ĭ
à½Łà½Ĳ à½Ł
à½į à½ĵ
à¼¡à¼¡à¼¢ à¼£
Ġà¼ĭà¼ĭà¼ĭà¼ĭà¼ĭà¼ĭà¼ĭà¼ĭà¼ĭà¼ĭà¼ĭà¼ĭà¼ĭà¼ĭà¼ĭà¼ĭà¼ĭà¼ĭà¼ĭà¼ĭà¼ĭà¼ĭà¼ĭà¼ĭà¼ĭà¼ĭà¼ĭà¼ĭà¼ĭà¼ĭà¼ĭà¼ĭà¼ĭà¼ĭà¼ĭà¼ĭà¼ĭà¼ĭà¼ĭà¼ĭà¼ĭà¼ĭà¼ĭà¼ĭà¼ĭà¼ĭà¼ĭà¼ĭà¼ĭà¼ĭà¼ĭà¼ĭà¼ĭà¼ĭà¼ĭà¼ĭà¼ĭà¼ĭà¼ĭà¼ĭà¼ĭà¼ĭà¼ĭà¼ĭà¼ĭà¼ĭà¼ĭà¼ĭà¼ĭà¼ĭà¼ĭà¼ĭà¼ĭà¼ĭà¼ĭà¼ĭà¼ĭà¼ĭà¼ĭà¼ĭ à¼ĭà¼ĭà¼ĭà¼ĭà¼ĭà¼ĭà¼ĭà¼ĭà¼ĭà¼ĭ
Ġ à½ļà½¢
Ġ à¼¡à¼©à¼©
à½¦ à½ĺà½Ĥ
à½¢ à½Ĥà½ħ
à½ĵ à½ĺà½ģà½¦
à½ĵ à½¢à½¦
à½Ħ à½¤à½ĳ
à½ĺ à½Ķà½Ĥ
à½´à¼ĭ à¼į
à¾Ĵ à½±à½´à¼ĭ
à½ĳà½Ĥ à½Ĥà½Ħ
à¾Ĵà¾± à¼įà¼įà¼įà¼į
à¾³ à¾Ģà½¾à¼ĭ
à½£à½¦ à½ĳà½Ĥ
à¾© à½±à½²
à½Ļ à½Ĩ
à½Ļ à½ħ
à¾¨ à½±à½´à¼ĭ
à½ĳà½ĺ à½ĸà½ħà½¦
à½ĳà½Ķ à½Ĥà½ı
à½ĸà½Ł à½łà½ĸ
à½łà½ĳà½¦ à½ĳ
à½łà½ļ à½ł
à½ıà½ĵ à½Ĥ
à½ĺà½ģà½¦ à½Ķà½¦
à½ĳà½Ķà½Ĥ à½Ķ
à½¾à¼į à¼Ħà¼ħà¼įà¼į
à¼ĭà¼¼ à½º
à¼¡à¼¢ à¼¢à¼§
à¼ĭà¾ ħ
à¾¡à¾· à½±à½²
à¾¡à¾· à½¾à¼įà¼į
Ġà¼ĭà¼ĭ à¼ĭà¼į
à¾Ĵà¾·à½¾à¼ĭ à¼´
à¼¦à¼¦ à¼¡
à¼¦à¼§ à¼¤
à¼¦à¼© à¼¡
à¼įà¼ĭà¼ĭà¼ĭà¼ĭà¼ĭà¼ĭà¼ĭà¼ĭà¼ĭà¼ĭà¼ĭà¼ĭà¼ĭà¼ĭà¼ĭà¼ĭ à¼ĭà¼ĭà¼ĭà¼ĭà¼ĭà¼ĭà¼ĭà¼ĭà¼ĭà¼ĭà¼ĭà¼ĭ
à¼įà¼ĭà¼ĭà¼ĭà¼ĭà¼ĭà¼ĭà¼ĭà¼ĭà¼ĭà¼ĭà¼ĭà¼ĭà¼ĭà¼ĭà¼ĭà¼ĭà¼ĭà¼ĭà¼ĭà¼ĭà¼ĭà¼ĭà¼ĭà¼ĭà¼ĭà¼ĭà¼ĭà¼ĭà¼ĭà¼ĭà¼ĭà¼ĭà¼ĭà¼ĭà¼ĭà¼ĭà¼ĭà¼ĭà¼ĭà¼ĭà¼ĭà¼ĭà¼ĭà¼ĭà¼ĭà¼ĭà¼ĭà¼ĭà¼ĭà¼ĭà¼ĭà¼ĭà¼ĭà¼ĭà¼ĭà¼ĭà¼ĭà¼ĭà¼ĭà¼ĭà¼ĭà¼ĭà¼ĭà¼ĭà¼ĭà¼ĭà¼ĭà¼ĭà¼ĭà¼ĭà¼ĭà¼ĭà¼ĭà¼ĭà¼ĭà¼ĭà¼ĭà¼ĭà¼ĭà¼ĭ à¼ĭà¼ĭ
à¼įà¼ĭà¼ĭà¼ĭà¼ĭà¼ĭà¼ĭà¼ĭà¼ĭà¼ĭà¼ĭà¼ĭà¼ĭà¼ĭà¼ĭà¼ĭà¼ĭà¼ĭà¼ĭà¼ĭà¼ĭà¼ĭà¼ĭà¼ĭà¼ĭà¼ĭà¼ĭà¼ĭà¼ĭà¼ĭà¼ĭà¼ĭà¼ĭà¼ĭà¼ĭà¼ĭà¼ĭà¼ĭà¼ĭà¼ĭà¼ĭà¼ĭà¼ĭà¼ĭà¼ĭà¼ĭà¼ĭà¼ĭà¼ĭà¼ĭà¼ĭà¼ĭà¼ĭà¼ĭà¼ĭà¼ĭà¼ĭà¼ĭà¼ĭà¼ĭà¼ĭà¼ĭà¼ĭà¼ĭà¼ĭà¼ĭà¼ĭà¼ĭà¼ĭà¼ĭà¼ĭà¼ĭà¼ĭà¼ĭà¼ĭà¼ĭà¼ĭà¼ĭà¼ĭà¼ĭà¼ĭ à¼ĭà¼ĭà¼ĭà¼ĭà¼ĭ
à¼įà¼ĭà¼ĭà¼ĭà¼ĭà¼ĭà¼ĭà¼ĭà¼ĭà¼ĭà¼ĭà¼ĭà¼ĭà¼ĭà¼ĭà¼ĭà¼ĭà¼ĭà¼ĭà¼ĭà¼ĭà¼ĭà¼ĭà¼ĭà¼ĭà¼ĭà¼ĭà¼ĭà¼ĭà¼ĭà¼ĭà¼ĭà¼ĭà¼ĭà¼ĭà¼ĭà¼ĭà¼ĭà¼ĭà¼ĭà¼ĭà¼ĭà¼ĭà¼ĭà¼ĭà¼ĭà¼ĭà¼ĭà¼ĭ à¼ĭà¼ĭà¼ĭ
Ġà¼ĭà¼ĭà¼ĭà¼ĭà¼ĭà¼ĭà¼ĭà¼ĭà¼ĭà¼ĭà¼ĭà¼ĭà¼ĭà¼ĭà¼ĭà¼ĭà¼ĭà¼ĭà¼ĭà¼ĭà¼ĭà¼ĭà¼ĭà¼ĭà¼ĭà¼ĭà¼ĭà¼ĭà¼ĭà¼ĭà¼ĭà¼ĭà¼ĭà¼ĭà¼ĭà¼ĭà¼ĭà¼ĭà¼ĭà¼ĭà¼ĭà¼ĭà¼ĭà¼ĭà¼ĭà¼ĭà¼ĭà¼ĭà¼ĭà¼ĭà¼ĭà¼ĭà¼ĭà¼ĭà¼ĭà¼ĭà¼ĭà¼ĭà¼ĭà¼ĭà¼ĭà¼ĭà¼ĭà¼ĭà¼ĭà¼ĭà¼ĭà¼ĭà¼ĭà¼ĭà¼ĭà¼ĭà¼ĭà¼ĭà¼ĭà¼ĭà¼ĭà¼ĭà¼ĭà¼ĭà¼ĭà¼ĭà¼ĭà¼ĭà¼ĭà¼ĭà¼ĭà¼ĭà¼ĭà¼ĭà¼ĭà¼ĭà¼ĭà¼ĭà¼ĭà¼ĭ à¼ĭà¼ĭ
à½Ĥà½¦ à½ĸà½ħà½ĳ
à¾Ł à¾²à½±à¾Ģà¼ĭ
à½ĳà½Ĥ à½Ĳ
à¾³ à¼µà½¼à¼ĭ
à½ĸà½ł à½ķ
à½łà½ĸ à½ĳà½Ĥ
à½Ķà½¦ à½ĸà½ĳà½Ĥ
à¾²à½¼ à¼µà¼ĭ
à½Ĥà½ĵà½¦ à½ŀ
à½ħà½ĵ à½ĳà½Ĥ
à¾Ĵà¾±à½´ à¼·
à¾Ĺà½ºà¼ĭ à¾İ
à¾Ĵà½¼ à½¼à¼ĭ
à¾Ĳà½´ à¼µà¼ĭ
à¾£à¼ĭ à¼½
à¾£à¼ĭ à¼Ħà¼ħà¼įà¼į
à½ĸà½Ľ à½ĳ
à½¦à½ĺ à½¡
à½Ī à¾·à½²
à¼¨ à¼¢à¼¢
à½¼à¼Ķ à¼ĭ
à¼¡à¼§ à¼£à¼£
à¾Łà¾Ń à½±à¼į
à½²à¼ĭà½Ī à¾²à½ºà¼ĭ
à¼¦à¼¨ à¼£
à¼¦à¼© à¼¦
à¼Ŀà¼Ŀ à¼įà¼į
Ġà¼¡à¼ł à¼¢
à¼įà¼ĭà¼ĭà¼ĭà¼ĭà¼ĭà¼ĭà¼ĭà¼ĭà¼ĭà¼ĭà¼ĭà¼ĭà¼ĭà¼ĭà¼ĭà¼ĭà¼ĭà¼ĭà¼ĭà¼ĭà¼ĭà¼ĭà¼ĭà¼ĭà¼ĭà¼ĭà¼ĭà¼ĭà¼ĭà¼ĭà¼ĭà¼ĭà¼ĭà¼ĭà¼ĭà¼ĭà¼ĭà¼ĭà¼ĭà¼ĭà¼ĭà¼ĭà¼ĭà¼ĭà¼ĭà¼ĭà¼ĭà¼ĭ à¼ĭà¼ĭà¼ĭà¼ĭà¼ĭà¼ĭà¼ĭà¼ĭà¼ĭà¼ĭà¼ĭà¼ĭà¼ĭ
à¼ĭ à¾µà¼ĭ
à½¦ à½Ĥà½Ļ
à½ĳ à½£à½ĺ
à½ĳ à½Ļà½ĺ
à½Ķ à½ĵà½ĺ
à½²à¼ĭ à¼Ħà¼ħà¼į
à½¼à¼ĭ à¼Ŀ
à½Ĩ à½Ł
à½Ĳ à½ĸà½ĸà½ĸ
à½ĺà½¦ à½łà½ĸ
à¾³ à¾Ĺà½¼
à¾¦ à½¼à¼įà¼į
à½ĳà½Ķ à½Ĩ
à½Ľ à½Ļ
à½£à½Ĥ à½Ĥ
à¼§ à¼¡à¼¦
à¼§ à¼¡à¼¨
à¼§ à¼¢à¼¦
à¼¦ à¼£à¼¢
à¼¦ à¼¥à¼¢
Ġà¼¼ à¼į
à¼¡à¼ł à¼¤à¼¤
à¼¡à¼¨ à¼¤à¼¤
à½ĥ à½īà½ł
à¼įà¼ĭà¼ĭà¼ĭà¼ĭà¼ĭà¼ĭà¼ĭà¼ĭà¼ĭà¼ĭà¼ĭà¼ĭà¼ĭà¼ĭà¼ĭà¼ĭà¼ĭà¼ĭà¼ĭà¼ĭà¼ĭà¼ĭà¼ĭà¼ĭà¼ĭà¼ĭà¼ĭà¼ĭà¼ĭà¼ĭà¼ĭà¼ĭà¼ĭà¼ĭà¼ĭà¼ĭà¼ĭà¼ĭà¼ĭà¼ĭà¼ĭà¼ĭà¼ĭà¼ĭà¼ĭà¼ĭà¼ĭà¼ĭà¼ĭà¼ĭà¼ĭà¼ĭà¼ĭà¼ĭà¼ĭà¼ĭà¼ĭà¼ĭà¼ĭà¼ĭà¼ĭà¼ĭà¼ĭà¼ĭ à¼ĭà¼ĭà¼ĭà¼ĭà¼ĭà¼ĭà¼ĭà¼ĭ
à¼¨à¼ł à¼¢
ĠĠĠĠĠĠĠĠ ĠĠ
Ġà¼¡à¼ł à¼£
Ġà¼ĭà¼ĭà¼ĭà¼ĭà¼ĭà¼ĭà¼ĭà¼ĭà¼ĭà¼ĭà¼ĭà¼ĭà¼ĭà¼ĭà¼ĭà¼ĭà¼ĭà¼ĭà¼ĭà¼ĭà¼ĭà¼ĭà¼ĭà¼ĭà¼ĭà¼ĭà¼ĭà¼ĭà¼ĭà¼ĭà¼ĭà¼ĭà¼ĭà¼ĭà¼ĭà¼ĭà¼ĭà¼ĭà¼ĭà¼ĭà¼ĭà¼ĭà¼ĭà¼ĭà¼ĭà¼ĭà¼ĭà¼ĭà¼ĭà¼ĭà¼ĭà¼ĭà¼ĭà¼ĭà¼ĭà¼ĭà¼ĭà¼ĭà¼ĭà¼ĭà¼ĭà¼ĭà¼ĭà¼ĭà¼ĭà¼ĭà¼ĭà¼ĭà¼ĭà¼ĭà¼ĭà¼ĭà¼ĭà¼ĭà¼ĭà¼ĭà¼ĭà¼ĭà¼ĭà¼ĭ à¼ĭà¼ĭà¼ĭà¼ĭà¼ĭà¼ĭà¼ĭà¼ĭà¼ĭà¼ĭà¼ĭà¼ĭà¼ĭà¼ĭà¼ĭ
à¾łà½²à¾Ģ à¼įà¼įà¼įà¼į
à¾²à¾° à½²à¼ĭ
Ġ à½ĸà½Łà½ł
Ġ à½Ĳà½ĸ
à½ĳ à½łà½ķ
à½Ĥ à½Ĥà½£
à½¢ à½Ķà½£
à½£ à½ĵà½ĺ
à½ºà¼ĭ à¾Ł
à½Ĥà½¦ à½£à½ĺ
à½ĳà½Ħ à½ĳà½Ķ
à¾±à½²à¼ĭ à¼Ŀà¼įà¼į
à½Ĳ à½ŀ
à½ı à½ª
à½ĺà½¦ à½ĳà½Ĥ
à½łà½ĳ à½łà½ĸà½¢
à½¡à½Ħ à½ħ
à½ĺà½Ĳ à½ĺà½¦
à½Ĥà½Ħ à½Ĥà½¦
à¾²à½²à¼ĭ à¼Ħà¼ħà¼įà¼į
à¾Ń à¼·à¼ĭ
à½ĸà½Ĥ à½ĺà½¦
à½Ĥà½Ļ à½ł
à½īà½ĺà½¦ à½Ķà½ł
à½İ à½«à½Ħ
à½£à½ĵ à½ĵ
à½Ĭ à½ķ
à¾ľ à¼ĭà¼ĳ
à¾µ à¾¨à½²à¼ĭ
à½Ĩà½Ĥ à½ĳà½Ģà½¢
à¾Ķà¼į à¼½
à¾ŀ à½´à½¿à¼ĭ
à¼¡à¼¤ à¼£à¼©
à¼¡à¼¨ à¼£à¼§
à¼¡à¼¨ à¼¨à¼ł
à¼¡à¼¨ à¼¨à¼©
à¼Ģ à½Ĥà½¢
à¾ł à¾±à½±à½´à¼ĭ
Ġà¼¡ à¼¡à¼ł
à¼ĭà¾§ à½¿à¼į
à¼§à¼ł à¼¡
à¼¥à¼¦ à¼¥à¼§
à¼įà¼ĭà¼ĭà¼ĭà¼ĭà¼ĭà¼ĭà¼ĭà¼ĭà¼ĭà¼ĭà¼ĭà¼ĭà¼ĭà¼ĭà¼ĭà¼ĭà¼ĭà¼ĭà¼ĭà¼ĭà¼ĭà¼ĭà¼ĭà¼ĭà¼ĭà¼ĭà¼ĭà¼ĭà¼ĭà¼ĭà¼ĭà¼ĭà¼ĭà¼ĭà¼ĭà¼ĭà¼ĭà¼ĭà¼ĭà¼ĭà¼ĭà¼ĭà¼ĭà¼ĭà¼ĭà¼ĭà¼ĭà¼ĭà¼ĭà¼ĭà¼ĭà¼ĭà¼ĭà¼ĭà¼ĭà¼ĭà¼ĭà¼ĭà¼ĭà¼ĭà¼ĭà¼ĭà¼ĭà¼ĭ à¼ĭà¼ĭà¼ĭà¼ĭà¼ĭà¼ĭà¼ĭà¼ĭà¼ĭà¼ĭà¼ĭà¼ĭà¼ĭà¼ĭà¼ĭ
Ġà¼© à¼¡
Ġà¼© à¼¢
ĠĠĠĠĠĠĠĠ ĠĠĠĠĠ
à¾·à¾²à¼ĭ à½³
à¾° à½²à¼ĭ
à¾¡à¾·à½² à½¿à¼į
à¼įà¼ĭà¼ĭà¼ĭà¼ĭà¼ĭà¼ĭà¼ĭà¼ĭà¼ĭà¼ĭà¼ĭà¼ĭà¼ĭà¼ĭà¼ĭà¼ĭ à¼ĭà¼ĭà¼ĭà¼ĭà¼ĭà¼ĭà¼ĭà¼ĭà¼ĭà¼ĭà¼ĭ
Ġà¼ĭà¼ĭà¼ĭà¼ĭà¼ĭà¼ĭà¼ĭà¼ĭà¼ĭà¼ĭà¼ĭà¼ĭà¼ĭà¼ĭà¼ĭà¼ĭà¼ĭà¼ĭà¼ĭà¼ĭà¼ĭà¼ĭà¼ĭà¼ĭà¼ĭà¼ĭà¼ĭà¼ĭà¼ĭà¼ĭà¼ĭà¼ĭà¼ĭà¼ĭà¼ĭà¼ĭà¼ĭà¼ĭà¼ĭà¼ĭà¼ĭà¼ĭà¼ĭà¼ĭà¼ĭà¼ĭà¼ĭà¼ĭà¼ĭà¼ĭà¼ĭà¼ĭà¼ĭà¼ĭà¼ĭà¼ĭà¼ĭà¼ĭà¼ĭà¼ĭà¼ĭà¼ĭà¼ĭà¼ĭà¼ĭà¼ĭà¼ĭà¼ĭà¼ĭà¼ĭà¼ĭà¼ĭà¼ĭà¼ĭà¼ĭà¼ĭà¼ĭà¼ĭà¼ĭà¼ĭ à¼ĭà¼ĭà¼ĭ
à¼įà¼ĭà¼ĭà¼ĭà¼ĭà¼ĭà¼ĭà¼ĭà¼ĭà¼ĭà¼ĭà¼ĭà¼ĭà¼ĭà¼ĭà¼ĭà¼ĭà¼ĭà¼ĭà¼ĭà¼ĭà¼ĭà¼ĭà¼ĭà¼ĭà¼ĭà¼ĭà¼ĭà¼ĭà¼ĭà¼ĭà¼ĭà¼ĭ à¼ĭà¼ĭ
Ġ à½Ĺ
Ġ à½ĺà½§
à¾ §
à½¦ à½Ĥà½ı
à½² à½ºà¼ĭ
à½Ħ à½ĵà½ĺ
à½ļ à½Ľ
à½ī à½łà½Ħ
à½Ķà½¢ à½ģà½¦
à¾Ĳ à½¾à¼į
à¾Ĺ à½²à¼į
à¾Ķ à¾©à½¼
à½ĸà½ĳà½Ĥ à½ħ
à¾Ĳà½´à¼ĭ à¼¼
à¾Ń à½¼à¼Ķ
à¾¦à¾± à¾±à½¼
à¼§ à¼¤à¼¡
à½±à½² à½²à¼ĭ
à½¤à½¦ à½Ĩ
à½¼à¼Ķ à¼¼
à¾Ĵà½º à½¾
à¾¡à¾· à¾±
à¼¡à¼§ à¼£à¼¥
à¼¡à¼§ à¼¤à¼¤
à¼¡à¼§ à¼¥à¼¨
à¾Ľ à½´à¼ĭ
à¼¡à¼¨ à¼¨à¼¦
à½ª à½ĸ
à¾¶ à½¼
à¾±à½± à½»à¼ĭ
à¼ĭà¼Ŀ à¼Ŀà¼įà¼į
à¼§à¼§ à¼¢
à¼įà¼ĭà¼ĭà¼ĭà¼ĭà¼ĭà¼ĭà¼ĭà¼ĭà¼ĭà¼ĭà¼ĭà¼ĭà¼ĭà¼ĭà¼ĭà¼ĭ à¼ĭà¼ĭà¼ĭà¼ĭà¼ĭà¼ĭà¼ĭà¼ĭà¼ĭà¼ĭà¼ĭà¼ĭà¼ĭà¼ĭ
à¼įà¼ĭà¼ĭà¼ĭà¼ĭà¼ĭà¼ĭà¼ĭà¼ĭà¼ĭà¼ĭà¼ĭà¼ĭà¼ĭà¼ĭà¼ĭà¼ĭ à¼ĭà¼ĭà¼ĭà¼ĭà¼ĭà¼ĭà¼ĭà¼ĭà¼ĭ
Ġà¼ĭà¼ĭà¼ĭà¼ĭà¼ĭà¼ĭà¼ĭà¼ĭà¼ĭà¼ĭà¼ĭà¼ĭà¼ĭà¼ĭà¼ĭà¼ĭà¼ĭà¼ĭà¼ĭà¼ĭà¼ĭà¼ĭà¼ĭà¼ĭà¼ĭà¼ĭà¼ĭà¼ĭà¼ĭà¼ĭà¼ĭà¼ĭà¼ĭà¼ĭà¼ĭà¼ĭà¼ĭà¼ĭà¼ĭà¼ĭà¼ĭà¼ĭà¼ĭà¼ĭà¼ĭà¼ĭà¼ĭà¼ĭà¼ĭà¼ĭà¼ĭà¼ĭà¼ĭà¼ĭà¼ĭà¼ĭà¼ĭà¼ĭà¼ĭà¼ĭà¼ĭà¼ĭà¼ĭà¼ĭà¼ĭà¼ĭà¼ĭà¼ĭà¼ĭà¼ĭà¼ĭà¼ĭà¼ĭà¼ĭà¼ĭà¼ĭà¼ĭà¼ĭà¼ĭà¼ĭ à¼ĭà¼ĭà¼ĭà¼ĭ
à¼įà¼ĭà¼ĭà¼ĭà¼ĭà¼ĭà¼ĭà¼ĭà¼ĭà¼ĭà¼ĭà¼ĭà¼ĭà¼ĭà¼ĭà¼ĭà¼ĭà¼ĭà¼ĭà¼ĭà¼ĭà¼ĭà¼ĭà¼ĭà¼ĭà¼ĭà¼ĭà¼ĭà¼ĭà¼ĭà¼ĭà¼ĭà¼ĭà¼ĭà¼ĭà¼ĭà¼ĭà¼ĭà¼ĭà¼ĭà¼ĭà¼ĭà¼ĭà¼ĭà¼ĭà¼ĭà¼ĭà¼ĭà¼ĭ à¼ĭà¼ĭ
à¼įà¼ĭà¼ĭà¼ĭà¼ĭà¼ĭà¼ĭà¼ĭà¼ĭà¼ĭà¼ĭà¼ĭà¼ĭà¼ĭà¼ĭà¼ĭà¼ĭà¼ĭà¼ĭà¼ĭà¼ĭà¼ĭà¼ĭà¼ĭà¼ĭà¼ĭà¼ĭà¼ĭà¼ĭà¼ĭà¼ĭà¼ĭà¼ĭà¼ĭà¼ĭà¼ĭà¼ĭà¼ĭà¼ĭà¼ĭà¼ĭà¼ĭà¼ĭà¼ĭà¼ĭà¼ĭà¼ĭà¼ĭà¼ĭà¼ĭà¼ĭà¼ĭà¼ĭà¼ĭà¼ĭà¼ĭà¼ĭà¼ĭà¼ĭà¼ĭà¼ĭà¼ĭà¼ĭà¼ĭà¼ĭà¼ĭà¼ĭà¼ĭà¼ĭà¼ĭà¼ĭà¼ĭà¼ĭà¼ĭà¼ĭà¼ĭà¼ĭà¼ĭà¼ĭà¼ĭà¼ĭà¼ĭà¼ĭà¼ĭà¼ĭà¼ĭà¼ĭà¼ĭà¼ĭà¼ĭà¼ĭà¼ĭà¼ĭà¼ĭà¼ĭà¼ĭà¼ĭ à¼ĭà¼ĭà¼ĭà¼ĭà¼ĭà¼ĭà¼ĭà¼ĭà¼ĭà¼ĭà¼ĭà¼ĭà¼ĭà¼ĭ
à½ĵ à½ĸà½Ļ
à½Ħ à½Ĳà½ĺà½¦
à¾± à¾¡à½ºà¼ĭ
à½£ à½ĺà½Ĳà½ł
à½´à¼ĭ à¼Ŀà¼į
à¾Ł à½»à½¿à¼ĭ
à½ĺà½¦ à½ł
à½Ł à½Ľ
à¾Ĺ à¼·à½º
à¾· à¾·à¾Ń
à¾¨ à¾¼à¾»
à½ĳà½Ķ à½ĸ
à¾²à½²à¼ĭ à¼´
à½¾à¼ĭ à¼Ī
à½ĺà½Ľà½ĳ à½ĵà½¦
à¼¡ à¼¡à¼łà¼ł
à½Ĳà½ĸà½¦ à½¦
à¾Ĳà¾± à¼Ķ
à¾Ĵà¾² à¾Ģ
à¼§ à¼¤à¼©
à¼ĭà½Ī à¾Ĳà¾±à½º
à½Ĺ à½ķà½Ĥ
à¾ļ à½±à½´à¼ĭ
à¼¡à¼£ à¼©à¼¡
à¼¡à¼¤ à¼§à¼¥
à¼¡à¼¥ à¼§à¼¥
à¼¡à¼¦ à¼¥à¼¤
à¼¡à¼¦ à¼§à¼¥
à¼¡à¼¦ à¼¦à¼£
à¼¡à¼¨ à¼¢à¼§
à¾¦à¾· à½ºà¼ĭà½Īà½²
à¾ł à½´
à½Ģà½Ģ à½Ģà½Ģà½Ģ
à¼¨à¼ł à¼¡
à¼¨à¼ł à¼¤
à¼©à¼ł à¼£
à¼¦à¼¨ à¼¦
à¼¦à¼© à¼¤
à¼ŀ à¼ŀ
à¼¡à¼¤à¼ł à¼¢
à¼ĭà¼ħ à¼įà¼į
à½Ĥ à½Ķà½£
à½Ĥà½¦ à½Ĥà½ŀà½ĵ
à½´à¼ĭ à½²à¼ĭ
à½ŀ à½Ķà½¦
à½ĺà½¦ à½Ĩ
à½łà½ĳ à½łà½Ħ
à½ĸà½¢ à½ĸà½Ĥ
à¾¡ à¾±à½¼
à½ĸà½ł à½Ĳ
à¾Ĺ à½´à¼ĭ
à½ĸà½ħ à½ĺà½¦
à½ĺà½ģ à½Ħ
à½§ à½ŀ
à½ĳà½Ģ à½łà½ĸ
à¾«à½¼ à¼·
à¼ĭà¼ ģ
à½¥ à½Ķ
à½ĵà½ĳ à½¦
à½Ŀ à½Ĭ
à½łà½Ĥà½ł à½¡à½Ħ
à¾±à½²à¼į à¼½
à½¡à½¦ à½¦
à¼§ à¼¢à¼¤
à¼¨ à¼¤à¼ł
à¾µ à½´à¾ĥà¼ĭ
Ġà¼ĳ à¼į
à¼¡à¼¢ à¼¤à¼¤
à¾ļ à¾Ģà½¿à¼ĭ
à¼¡à¼¤ à¼£à¼¢
à¼¡à¼§ à¼©à¼¨
à¼¡à¼¦ à¼§à¼¨
à¼¡à¼¨ à¼¥à¼§
à¼¡à¼¨ à¼¤à¼£
à¾¥ à½ºà¼į
à¾¦à¾· à¾±à½¾à¼į
à¾» à½»à¼ĭ
à¼įà¼ĭà¼ĭà¼ĭà¼ĭà¼ĭà¼ĭà¼ĭà¼ĭà¼ĭà¼ĭà¼ĭà¼ĭà¼ĭà¼ĭà¼ĭà¼ĭà¼ĭà¼ĭà¼ĭà¼ĭà¼ĭà¼ĭà¼ĭà¼ĭà¼ĭà¼ĭà¼ĭà¼ĭà¼ĭà¼ĭà¼ĭà¼ĭà¼ĭà¼ĭà¼ĭà¼ĭà¼ĭà¼ĭà¼ĭà¼ĭà¼ĭà¼ĭà¼ĭà¼ĭà¼ĭà¼ĭà¼ĭà¼ĭà¼ĭà¼ĭà¼ĭà¼ĭà¼ĭà¼ĭà¼ĭà¼ĭà¼ĭà¼ĭà¼ĭà¼ĭà¼ĭà¼ĭà¼ĭà¼ĭ à¼ĭà¼ĭà¼ĭà¼ĭà¼ĭà¼ĭà¼ĭà¼ĭà¼ĭà¼ĭà¼ĭà¼ĭà¼ĭà¼ĭ
à¼©à¼ł à¼§
à¼įà¼ĭà¼ĭà¼ĭà¼ĭà¼ĭà¼ĭà¼ĭà¼ĭà¼ĭà¼ĭà¼ĭà¼ĭà¼ĭà¼ĭà¼ĭà¼ĭà¼ĭà¼ĭà¼ĭà¼ĭà¼ĭà¼ĭà¼ĭà¼ĭà¼ĭà¼ĭà¼ĭà¼ĭà¼ĭà¼ĭà¼ĭà¼ĭà¼ĭà¼ĭà¼ĭà¼ĭà¼ĭà¼ĭà¼ĭà¼ĭà¼ĭà¼ĭà¼ĭà¼ĭà¼ĭà¼ĭà¼ĭà¼ĭà¼ĭà¼ĭà¼ĭà¼ĭà¼ĭà¼ĭà¼ĭà¼ĭà¼ĭà¼ĭà¼ĭà¼ĭà¼ĭà¼ĭà¼ĭà¼ĭà¼ĭà¼ĭà¼ĭà¼ĭà¼ĭà¼ĭà¼ĭà¼ĭà¼ĭà¼ĭà¼ĭà¼ĭà¼ĭà¼ĭà¼ĭà¼ĭ à¼ĭà¼ĭà¼ĭ
à¼įà¼ĭà¼ĭà¼ĭà¼ĭà¼ĭà¼ĭà¼ĭà¼ĭà¼ĭà¼ĭà¼ĭà¼ĭà¼ĭà¼ĭà¼ĭà¼ĭà¼ĭà¼ĭà¼ĭà¼ĭà¼ĭà¼ĭà¼ĭà¼ĭà¼ĭà¼ĭà¼ĭà¼ĭà¼ĭà¼ĭà¼ĭà¼ĭà¼ĭà¼ĭà¼ĭà¼ĭà¼ĭà¼ĭà¼ĭà¼ĭà¼ĭà¼ĭà¼ĭà¼ĭà¼ĭà¼ĭà¼ĭà¼ĭà¼ĭà¼ĭà¼ĭà¼ĭà¼ĭà¼ĭà¼ĭà¼ĭà¼ĭà¼ĭà¼ĭà¼ĭà¼ĭà¼ĭà¼ĭà¼ĭà¼ĭà¼ĭà¼ĭà¼ĭà¼ĭà¼ĭà¼ĭà¼ĭà¼ĭà¼ĭà¼ĭà¼ĭà¼ĭà¼ĭà¼ĭà¼ĭ à¼ĭà¼ĭà¼ĭà¼ĭà¼ĭà¼ĭà¼ĭ
à½ĸà½ĸà½ĸà½ĸà½ĸà½ĸà½ĸà½ĸ à½ĸà½ĸ
à¼įà¼ĭà¼ĭà¼ĭà¼ĭà¼ĭà¼ĭà¼ĭà¼ĭà¼ĭà¼ĭà¼ĭà¼ĭà¼ĭà¼ĭà¼ĭà¼ĭà¼ĭà¼ĭà¼ĭà¼ĭà¼ĭà¼ĭà¼ĭà¼ĭà¼ĭà¼ĭà¼ĭà¼ĭà¼ĭà¼ĭà¼ĭà¼ĭà¼ĭà¼ĭà¼ĭà¼ĭà¼ĭà¼ĭà¼ĭà¼ĭà¼ĭà¼ĭà¼ĭà¼ĭà¼ĭà¼ĭà¼ĭà¼ĭà¼ĭà¼ĭà¼ĭà¼ĭà¼ĭà¼ĭà¼ĭà¼ĭà¼ĭà¼ĭà¼ĭà¼ĭà¼ĭà¼ĭà¼ĭà¼ĭà¼ĭà¼ĭà¼ĭà¼ĭà¼ĭà¼ĭà¼ĭà¼ĭà¼ĭà¼ĭà¼ĭà¼ĭà¼ĭà¼ĭà¼ĭà¼ĭà¼ĭà¼ĭà¼ĭà¼ĭà¼ĭà¼ĭà¼ĭà¼ĭà¼ĭà¼ĭà¼ĭà¼ĭà¼ĭà¼ĭà¼ĭà¼ĭ à¼ĭà¼ĭà¼ĭà¼ĭ
à¼įà¼ĭà¼ĭà¼ĭà¼ĭà¼ĭà¼ĭà¼ĭà¼ĭà¼ĭà¼ĭà¼ĭà¼ĭà¼ĭà¼ĭà¼ĭà¼ĭà¼ĭà¼ĭà¼ĭà¼ĭà¼ĭà¼ĭà¼ĭà¼ĭà¼ĭà¼ĭà¼ĭà¼ĭà¼ĭà¼ĭà¼ĭà¼ĭà¼ĭà¼ĭà¼ĭà¼ĭà¼ĭà¼ĭà¼ĭà¼ĭ à¼ĭà¼ĭ
à¼ĭà¾Ŀ à¾±à¼ĭ
Ġ à½Ĩà½¢
Ġ à½Ĥà½ıà½ĺ
à½Ĥ à½Ĳà½Ħ
à½¢ à½ĸà½Ł
à½Ĥà½¦ à½łà½Ĥ
à¾Ł à¾²à½±à½²
à¾Ł à¼µà¼ĭ
à½Ł à½ĺà½¦
à½ĸà½ŀ à½¦
à¾· à¾Ģ
à¾© à¾±à½¼à¼ĭ
à½¨ à½¦à½¦
à½ĵà½ĺ à½ĵà½ĵ
à½ĺà½ģà½ł à½łà½Ĥ
à½Ĥà½¢ à½¦
à½Ŀ à½łà½ĺ
à¼§ à¼£à¼¤
à¾ľ à½º
à¼© à¼¡à¼¡
à¼ĭà¼Ķ à¼ĭà¼ĭà¼ĭ
à½ĸà½¦à½ĺà½¦ à½Ķ
à¼¡à¼ł à¼§à¼§
à¾²à½±à½² à½¾à¼Ķ
à¾ļ à¾Ńà¼ĭ
à¾¡à¾· à¾Ńà¼ĭ
à¼¡à¼¤ à¼¡à¼¤
à¼¡à¼§ à¼©à¼©
à¼¡à¼¦ à¼©à¼¦
à¼¡à¼¨ à¼¤à¼©
à½ĵà½Ķ à½ı
à¾²à½± à½¾à½¿à¼ĭ
Ġà¼¡à¼ł à¼©
à¼ĭà½¾à¼ĭ à½¾à¼ĭ
Ġà¼ĭà¼ĭà¼ĭà¼ĭà¼ĭà¼ĭà¼ĭà¼ĭà¼ĭà¼ĭà¼ĭà¼ĭà¼ĭà¼ĭà¼ĭà¼ĭà¼ĭà¼ĭà¼ĭà¼ĭà¼ĭà¼ĭà¼ĭà¼ĭà¼ĭà¼ĭà¼ĭà¼ĭà¼ĭà¼ĭà¼ĭà¼ĭà¼ĭà¼ĭà¼ĭà¼ĭà¼ĭà¼ĭà¼ĭà¼ĭà¼ĭà¼ĭà¼ĭà¼ĭà¼ĭà¼ĭà¼ĭà¼ĭà¼ĭà¼ĭà¼ĭà¼ĭà¼ĭà¼ĭà¼ĭà¼ĭà¼ĭà¼ĭà¼ĭà¼ĭà¼ĭà¼ĭà¼ĭà¼ĭà¼ĭà¼ĭà¼ĭà¼ĭà¼ĭà¼ĭà¼ĭà¼ĭà¼ĭà¼ĭà¼ĭà¼ĭà¼ĭà¼ĭà¼ĭà¼ĭà¼ĭà¼ĭà¼ĭà¼ĭà¼ĭà¼ĭà¼ĭà¼ĭà¼ĭà¼ĭà¼ĭà¼ĭà¼ĭà¼ĭà¼ĭà¼ĭ à¼ĭà¼ĭà¼ĭà¼ĭ
Ġ à½Ĥà½ŀà½£
Ġ à½Ĥà½¡à½Ħ
Ġ à¼¡à¼¡à¼¡
à½ĵ à½Ĥà½¡
à½ĺ à½ĸà½ĳ
à½¼à¼ĭ à½ºà¼įà¼į
à½¼à¼ĭ à¼Ħà¼ħà¼į
à½ŀ à½Ħà½¦
à½ı à½Ŀ
à½ī à½Ļ
à½Ķà½¢ à½Ĩ
à½Ħà½¦ à½Ĩ
à½Ł à½ĳà½Ķà½ł
à½ĸà½ł à½Ľ
à½łà½ĸ à½Ģ
à¾¨ à½¾
à¾¦ à¾±à½º
à½Ĥà½ĵà½¦ à½ĳ
à½±à¼ĭ à¼¼
à½Ĭ à½Ĥ
à½Ĭ à½¡
à½Ĭ à½łà½ĺ
à½Ŀ à½ģ
à½Ŀ à½¤
à¼§ à¼£à¼¡
à¼¨ à¼¢à¼¡
à¾£à½´ à½¿à¼į
à½ĸà½Ļà½£ à½ĳ
à¼µ à¼µà¼ĭ
à¼¡à¼§ à¼¦à¼ł
à¼¡à¼§ à¼§à¼¡
à¼¡à¼¦ à¼¡à¼¦
à¼¡à¼¨ à¼¢à¼£
à¼¡à¼¨ à¼¥à¼ł
à¼¡à¼¨ à¼¦à¼¡
à½ĥ à½Ĥ
à¼£à¼¥ à¼łà¼ł
à½ķà½¥ à½Ħ
à¼įà¼ĭà¼ĭà¼ĭà¼ĭà¼ĭà¼ĭà¼ĭà¼ĭà¼ĭà¼ĭà¼ĭà¼ĭà¼ĭà¼ĭà¼ĭà¼ĭà¼ĭà¼ĭà¼ĭà¼ĭà¼ĭà¼ĭà¼ĭà¼ĭà¼ĭà¼ĭà¼ĭà¼ĭà¼ĭà¼ĭà¼ĭà¼ĭà¼ĭà¼ĭà¼ĭà¼ĭà¼ĭà¼ĭà¼ĭà¼ĭà¼ĭà¼ĭà¼ĭà¼ĭà¼ĭà¼ĭà¼ĭà¼ĭà¼ĭà¼ĭà¼ĭà¼ĭà¼ĭà¼ĭà¼ĭà¼ĭà¼ĭà¼ĭà¼ĭà¼ĭà¼ĭà¼ĭà¼ĭà¼ĭ à¼ĭà¼ĭà¼ĭ
à¼įà¼ĭà¼ĭà¼ĭà¼ĭà¼ĭà¼ĭà¼ĭà¼ĭà¼ĭà¼ĭà¼ĭà¼ĭà¼ĭà¼ĭà¼ĭà¼ĭà¼ĭà¼ĭà¼ĭà¼ĭà¼ĭà¼ĭà¼ĭà¼ĭà¼ĭà¼ĭà¼ĭà¼ĭà¼ĭà¼ĭà¼ĭà¼ĭà¼ĭà¼ĭà¼ĭà¼ĭà¼ĭà¼ĭà¼ĭà¼ĭà¼ĭà¼ĭà¼ĭà¼ĭà¼ĭà¼ĭà¼ĭà¼ĭ à¼ĭà¼ĭà¼ĭà¼ĭà¼ĭà¼ĭ
à¼įà¼ĭà¼ĭà¼ĭà¼ĭà¼ĭà¼ĭà¼ĭà¼ĭà¼ĭà¼ĭà¼ĭà¼ĭà¼ĭà¼ĭà¼ĭà¼ĭà¼ĭà¼ĭà¼ĭà¼ĭà¼ĭà¼ĭà¼ĭà¼ĭà¼ĭà¼ĭà¼ĭà¼ĭà¼ĭà¼ĭà¼ĭà¼ĭà¼ĭà¼ĭà¼ĭà¼ĭà¼ĭà¼ĭà¼ĭà¼ĭà¼ĭà¼ĭà¼ĭà¼ĭà¼ĭà¼ĭà¼ĭà¼ĭ à¼ĭà¼ĭà¼ĭà¼ĭà¼ĭà¼ĭà¼ĭà¼ĭà¼ĭà¼ĭà¼ĭà¼ĭà¼ĭà¼ĭ
à¾µà¾¨ à½¾à¼ĭ
à¼įà¼ĭà¼ĭà¼ĭà¼ĭà¼ĭà¼ĭà¼ĭà¼ĭà¼ĭà¼ĭà¼ĭà¼ĭà¼ĭà¼ĭà¼ĭà¼ĭà¼ĭà¼ĭà¼ĭà¼ĭà¼ĭà¼ĭà¼ĭà¼ĭà¼ĭà¼ĭà¼ĭà¼ĭà¼ĭà¼ĭà¼ĭà¼ĭà¼ĭà¼ĭà¼ĭà¼ĭà¼ĭà¼ĭà¼ĭà¼ĭà¼ĭà¼ĭà¼ĭà¼ĭà¼ĭà¼ĭà¼ĭà¼ĭà¼ĭà¼ĭà¼ĭà¼ĭà¼ĭà¼ĭà¼ĭà¼ĭà¼ĭà¼ĭà¼ĭà¼ĭà¼ĭà¼ĭà¼ĭà¼ĭà¼ĭà¼ĭà¼ĭà¼ĭà¼ĭà¼ĭà¼ĭà¼ĭà¼ĭà¼ĭà¼ĭà¼ĭà¼ĭà¼ĭà¼ĭà¼ĭà¼ĭà¼ĭà¼ĭà¼ĭà¼ĭà¼ĭà¼ĭà¼ĭà¼ĭà¼ĭà¼ĭà¼ĭà¼ĭà¼ĭà¼ĭà¼ĭ à¼ĭà¼ĭà¼ĭà¼ĭà¼ĭà¼ĭà¼ĭà¼ĭà¼ĭà¼ĭà¼ĭà¼ĭà¼ĭà¼ĭà¼ĭ
à½ĳ à½ĳà½ĸà½Ħ
à½Ĥ à½ĺà½ļà½ĵ
à½Ħ à½ĳà½Ķ
à½´ à½²
à½Ķ à½Į
à½Ķ à½ĭ
à½Ĥà½¦ à½ĺà½Ĩ
à¾² à¾£
à½ģ à½Ĥà½ī
à¾£ à¾±à¼ĭ
à¾³ à¾³à½´
à¾· à¾±à½´
à¾· à¾«
à½ĺà½Ĳ à½ı
à½¨ à½¨à½ĵ
à½§ à½ħà½Ħ
à¾²à½¼à¼ĭ à¼½
à¾« à½±à¼į
à½ĺà½ļà½ĵ à½Ĥ
à½Ħà½ĵ à½łà½Ĥ
à½¡à½ĵ à½Ĩà½ĳ
à¾¤à¾±à½² à¼·à¼ĭ
à¼© à¼¥à¼£
à½ĸà½¦à½£ à½ĸà½ł
à¾Ľ à½²à¼įà¼į
à¼¡à¼¦ à¼¥à¼¨
à¼¡à¼¡ à¼¡à¼¢
à¼Ģ à½Ŀ
à¾¶ à¾Ńà¼ĭ
à¼¤à¼¥ à¼łà¼ł
à¼įà¼ĭà¼ĭà¼ĭà¼ĭà¼ĭà¼ĭà¼ĭà¼ĭà¼ĭà¼ĭà¼ĭà¼ĭà¼ĭà¼ĭà¼ĭà¼ĭà¼ĭà¼ĭà¼ĭà¼ĭà¼ĭà¼ĭà¼ĭà¼ĭà¼ĭà¼ĭà¼ĭà¼ĭà¼ĭà¼ĭà¼ĭà¼ĭà¼ĭà¼ĭà¼ĭà¼ĭà¼ĭà¼ĭà¼ĭà¼ĭà¼ĭà¼ĭà¼ĭà¼ĭà¼ĭà¼ĭà¼ĭà¼ĭà¼ĭà¼ĭà¼ĭà¼ĭà¼ĭà¼ĭà¼ĭà¼ĭà¼ĭà¼ĭà¼ĭà¼ĭà¼ĭà¼ĭà¼ĭà¼ĭ à¼ĭà¼ĭà¼ĭà¼ĭà¼ĭà¼ĭà¼ĭ
à¼įà¼ĭà¼ĭà¼ĭà¼ĭà¼ĭà¼ĭà¼ĭà¼ĭà¼ĭà¼ĭà¼ĭà¼ĭà¼ĭà¼ĭà¼ĭà¼ĭà¼ĭà¼ĭà¼ĭà¼ĭà¼ĭà¼ĭà¼ĭà¼ĭà¼ĭà¼ĭà¼ĭà¼ĭà¼ĭà¼ĭà¼ĭà¼ĭà¼ĭà¼ĭà¼ĭà¼ĭà¼ĭà¼ĭà¼ĭà¼ĭà¼ĭà¼ĭà¼ĭà¼ĭà¼ĭà¼ĭà¼ĭà¼ĭà¼ĭà¼ĭà¼ĭà¼ĭà¼ĭà¼ĭà¼ĭà¼ĭà¼ĭà¼ĭà¼ĭà¼ĭà¼ĭà¼ĭà¼ĭà¼ĭ à¼ĭà¼ĭà¼ĭà¼ĭà¼ĭà¼ĭà¼ĭà¼ĭà¼ĭà¼ĭ
Ġà¼© à¼¦
à½į à½ī
à¼§à¼¨ à¼©
à¾ŀà¾ŀ à½ºà¼ĭ
à¼ĭà½±à¼ĭ à½±à¼ĭ
Ġà¼ĭà¼ĭà¼ĭà¼ĭà¼ĭà¼ĭà¼ĭà¼ĭà¼ĭà¼ĭà¼ĭà¼ĭà¼ĭà¼ĭà¼ĭà¼ĭà¼ĭà¼ĭà¼ĭà¼ĭà¼ĭà¼ĭà¼ĭà¼ĭà¼ĭà¼ĭà¼ĭà¼ĭà¼ĭà¼ĭà¼ĭà¼ĭà¼ĭà¼ĭà¼ĭà¼ĭà¼ĭà¼ĭà¼ĭà¼ĭà¼ĭà¼ĭà¼ĭà¼ĭà¼ĭà¼ĭà¼ĭà¼ĭà¼ĭà¼ĭà¼ĭà¼ĭà¼ĭà¼ĭà¼ĭà¼ĭà¼ĭà¼ĭà¼ĭà¼ĭà¼ĭà¼ĭà¼ĭà¼ĭà¼ĭà¼ĭà¼ĭà¼ĭà¼ĭà¼ĭà¼ĭà¼ĭà¼ĭà¼ĭà¼ĭà¼ĭà¼ĭà¼ĭà¼ĭà¼ĭ à¼ĭà¼ĭà¼ĭà¼ĭà¼ĭà¼ĭà¼ĭà¼ĭà¼ĭà¼ĭà¼ĭà¼ĭà¼ĭà¼ĭ
Ġà¼ĭà¼ĭà¼ĭà¼ĭà¼ĭà¼ĭà¼ĭà¼ĭà¼ĭà¼ĭà¼ĭà¼ĭà¼ĭà¼ĭà¼ĭà¼ĭà¼ĭà¼ĭà¼ĭà¼ĭà¼ĭà¼ĭà¼ĭà¼ĭà¼ĭà¼ĭà¼ĭà¼ĭà¼ĭà¼ĭà¼ĭà¼ĭà¼ĭà¼ĭà¼ĭà¼ĭà¼ĭà¼ĭà¼ĭà¼ĭà¼ĭà¼ĭà¼ĭà¼ĭà¼ĭà¼ĭà¼ĭà¼ĭà¼ĭà¼ĭà¼ĭà¼ĭà¼ĭà¼ĭà¼ĭà¼ĭà¼ĭà¼ĭà¼ĭà¼ĭà¼ĭà¼ĭà¼ĭà¼ĭà¼ĭà¼ĭà¼ĭà¼ĭà¼ĭà¼ĭà¼ĭà¼ĭà¼ĭà¼ĭà¼ĭà¼ĭà¼ĭà¼ĭà¼ĭà¼ĭ à¼ĭà¼ĭà¼ĭà¼ĭà¼ĭà¼ĭà¼ĭà¼ĭà¼ĭà¼ĭà¼ĭ
à¼įà¼ĭà¼ĭà¼ĭà¼ĭà¼ĭà¼ĭà¼ĭà¼ĭà¼ĭà¼ĭà¼ĭà¼ĭà¼ĭà¼ĭà¼ĭà¼ĭà¼ĭà¼ĭà¼ĭà¼ĭà¼ĭà¼ĭà¼ĭà¼ĭà¼ĭà¼ĭà¼ĭà¼ĭà¼ĭà¼ĭà¼ĭà¼ĭà¼ĭà¼ĭà¼ĭà¼ĭà¼ĭà¼ĭà¼ĭà¼ĭà¼ĭà¼ĭà¼ĭà¼ĭà¼ĭà¼ĭà¼ĭà¼ĭ à¼ĭà¼ĭà¼ĭà¼ĭà¼ĭà¼ĭà¼ĭà¼ĭà¼ĭà¼ĭà¼ĭ
à¼įà¼ĭà¼ĭà¼ĭà¼ĭà¼ĭà¼ĭà¼ĭà¼ĭà¼ĭà¼ĭà¼ĭà¼ĭà¼ĭà¼ĭà¼ĭà¼ĭà¼ĭà¼ĭà¼ĭà¼ĭà¼ĭà¼ĭà¼ĭà¼ĭà¼ĭà¼ĭà¼ĭà¼ĭà¼ĭà¼ĭà¼ĭà¼ĭ à¼ĭà¼ĭà¼ĭà¼ĭà¼ĭà¼ĭà¼ĭà¼ĭà¼ĭà¼ĭà¼ĭà¼ĭ
à½ķà½ŀà½Ħ à½¥
à¾® à½²
à½Ķà½Ķà½Ķà½Ķà½ķà½ķ à½Ķà½Ķà½Ķà½ĸà½ļà½ķà½Ľ
à½¦ à½Ħà½Ĥ
à½¦ à½łà½Ĥà½ł
à½¢ à½Ģà½¢
à½´ à½º
à¾± à¾Ńà¼į
à½£ à½Ĥà½Ļ
à½Ĥà½¦ à½Ĳà½ĺà½¦
à½ħ à½¡
à½ĸà½¦ à½ĸà½ħ
à½ļ à½łà½Ħ
à½Ķà½¢ à½Ĳ
à½ĸà½ŀ à½Ĥà½£
à½¡à½Ħ à½ĸà½¢
à¾« à¾«à½²à¼ĭ
à½Ħà½ĵ à½łà½ĳà½¦
à½ĸà½ıà½Ĥà½¦ à½Ķà½ł
à¼§ à¼¢à¼¥
à¼§ à¼¤à¼£
à½Ĵ à½£à½¦
à½Į à½Ĥ
à½ĺà½İ à½£
à¾²à½±à½² à½¿
à¼¡à¼¨ à¼¡à¼¥
à¼¡à¼¨ à¼©à¼¦
à¼¡à¼¨ à¼¨à¼¥
à¾¶ à½´à½¿à¼į
Ġà¼¡ à¼¡à¼¢
à¼©à¼© à¼£
à¾º à½±à½²à¼ĭ
à¾·à¾£ à½¿à¼į
à¼©à¼ł à¼¤
à¼§à¼¦ à¼¡
à½į à½£
à¼įà¼ĭà¼ĭà¼ĭà¼ĭà¼ĭà¼ĭà¼ĭà¼ĭà¼ĭà¼ĭà¼ĭà¼ĭà¼ĭà¼ĭà¼ĭà¼ĭà¼ĭà¼ĭà¼ĭà¼ĭà¼ĭà¼ĭà¼ĭà¼ĭà¼ĭà¼ĭà¼ĭà¼ĭà¼ĭà¼ĭà¼ĭà¼ĭà¼ĭà¼ĭà¼ĭà¼ĭà¼ĭà¼ĭà¼ĭà¼ĭà¼ĭà¼ĭà¼ĭà¼ĭà¼ĭà¼ĭà¼ĭà¼ĭà¼ĭà¼ĭà¼ĭà¼ĭà¼ĭà¼ĭà¼ĭà¼ĭà¼ĭà¼ĭà¼ĭà¼ĭà¼ĭà¼ĭà¼ĭà¼ĭà¼ĭà¼ĭà¼ĭà¼ĭà¼ĭà¼ĭà¼ĭà¼ĭà¼ĭà¼ĭà¼ĭà¼ĭà¼ĭà¼ĭà¼ĭà¼ĭà¼ĭà¼ĭà¼ĭà¼ĭà¼ĭà¼ĭà¼ĭà¼ĭà¼ĭà¼ĭà¼ĭà¼ĭà¼ĭà¼ĭà¼ĭà¼ĭ à¼ĭà¼ĭà¼ĭà¼ĭà¼ĭ
Ġ à½¢à½Ĥ
Ġ à½ĳà½ĺà½Ħà½¦
Ġ à½Ķà½ī
Ġ à¼¡à¼£à¼ł
à½ĸ à½ĸà½ĳà½Ĥ
à½ĸ à½ĵà½ĺ
à½¢ à½£à½Ĥ
à½ĵ à½ĸà½Łà½Ħ
à½ĵ à½ĵà½ł
à½ħ à½ı
à½Ķà½¢ à½ĳà½Ķ
à¾±à½¼ à¾ħ
à¾²à½¼ à½¿à¼ĭ
à¾¦ à½±à½²à¼į
à¾Łà¼ĭ à¼º
à¾Ĵà¾±à½´ à½´
à¾³à½¼ à¼·
à½²à¼įà¼į à¼Į
à¾¤à¾± à½½
à½±à½´à¾ĥ à¼ĭà¼´
à¼§ à¼¢à¼£
à½±à¼į à¼ĭà¼ĭà¼ĭà¼ĭà¼ĭ
à½Ĺ à½¡à½ł
à¼¨ à¼¦à¼©
à½ķà½Ĭ à½ĳ
à¾µ à½½à¼ĭ
à¼¡à¼§ à¼¥à¼¢
à¼¡à¼§ à¼¥à¼¤
à¼¡à¼¨ à¼¦à¼¦
à¼Ģ à½ģà½İ
à¼ĭà½µ à½¾à¼įà¼į
à½Ĥà½İ à½Ĳ
Ġà¼½ à¼¼
à¼§à¼© à¼¨
Ġà¼¨ à¼¢
à½ľ à½¡
à¼įà¼ĭà¼ĭà¼ĭà¼ĭà¼ĭà¼ĭà¼ĭà¼ĭà¼ĭà¼ĭà¼ĭà¼ĭà¼ĭà¼ĭà¼ĭà¼ĭ à¼ĭà¼ĭà¼ĭà¼ĭà¼ĭà¼ĭà¼ĭà¼ĭà¼ĭà¼ĭà¼ĭà¼ĭà¼ĭ
à½ºà¼ĭà½Ī à¾²à½²
Ġà¼ĭà¼ĭà¼ĭà¼ĭà¼ĭà¼ĭà¼ĭà¼ĭà¼ĭà¼ĭà¼ĭà¼ĭà¼ĭà¼ĭà¼ĭà¼ĭà¼ĭà¼ĭà¼ĭà¼ĭà¼ĭà¼ĭà¼ĭà¼ĭà¼ĭà¼ĭà¼ĭà¼ĭà¼ĭà¼ĭà¼ĭà¼ĭà¼ĭà¼ĭà¼ĭà¼ĭà¼ĭà¼ĭà¼ĭà¼ĭà¼ĭà¼ĭà¼ĭà¼ĭà¼ĭà¼ĭà¼ĭà¼ĭà¼ĭà¼ĭà¼ĭà¼ĭà¼ĭà¼ĭà¼ĭà¼ĭà¼ĭà¼ĭà¼ĭà¼ĭà¼ĭà¼ĭà¼ĭà¼ĭà¼ĭà¼ĭà¼ĭà¼ĭà¼ĭà¼ĭà¼ĭà¼ĭà¼ĭà¼ĭà¼ĭà¼ĭà¼ĭà¼ĭà¼ĭà¼ĭ à¼ĭ
à¼įà¼ĭà¼ĭà¼ĭà¼ĭà¼ĭà¼ĭà¼ĭà¼ĭà¼ĭà¼ĭà¼ĭà¼ĭà¼ĭà¼ĭà¼ĭà¼ĭà¼ĭà¼ĭà¼ĭà¼ĭà¼ĭà¼ĭà¼ĭà¼ĭà¼ĭà¼ĭà¼ĭà¼ĭà¼ĭà¼ĭà¼ĭà¼ĭà¼ĭà¼ĭà¼ĭà¼ĭà¼ĭà¼ĭà¼ĭà¼ĭà¼ĭà¼ĭà¼ĭà¼ĭà¼ĭà¼ĭà¼ĭà¼ĭ à¼ĭà¼ĭà¼ĭà¼ĭà¼ĭà¼ĭà¼ĭà¼ĭ
à¼įà¼ĭà¼ĭà¼ĭà¼ĭà¼ĭà¼ĭà¼ĭà¼ĭà¼ĭà¼ĭà¼ĭà¼ĭà¼ĭà¼ĭà¼ĭà¼ĭà¼ĭà¼ĭà¼ĭà¼ĭà¼ĭà¼ĭà¼ĭà¼ĭà¼ĭà¼ĭà¼ĭà¼ĭà¼ĭà¼ĭà¼ĭà¼ĭà¼ĭà¼ĭà¼ĭà¼ĭà¼ĭà¼ĭà¼ĭà¼ĭà¼ĭà¼ĭà¼ĭà¼ĭà¼ĭà¼ĭà¼ĭà¼ĭà¼ĭà¼ĭà¼ĭà¼ĭà¼ĭà¼ĭà¼ĭà¼ĭà¼ĭà¼ĭà¼ĭà¼ĭà¼ĭà¼ĭà¼ĭà¼ĭà¼ĭà¼ĭà¼ĭà¼ĭà¼ĭà¼ĭà¼ĭà¼ĭà¼ĭà¼ĭà¼ĭà¼ĭà¼ĭà¼ĭà¼ĭà¼ĭà¼ĭà¼ĭà¼ĭà¼ĭà¼ĭà¼ĭà¼ĭà¼ĭà¼ĭà¼ĭà¼ĭà¼ĭà¼ĭà¼ĭà¼ĭà¼ĭà¼ĭà¼ĭà¼ĭà¼ĭà¼ĭà¼ĭà¼ĭà¼ĭ à¼ĭ
ĠĠĠĠĠĠĠĠĠĠĠĠĠĠĠĠĠĠĠĠĠĠĠĠĠĠĠĠĠĠĠĠ ĠĠĠĠĠĠĠĠĠĠĠĠĠĠĠĠĠĠĠĠĠĠĠĠĠĠĠĠĠĠĠĠ
à¼ĭ à¾Ĳà½¼à¼ĭ
à½ĳ à½¦à½ł
à½ºà¼ĭ à¾¾
à½¼à¼ĭ à¾±
à½ŀ à½Ģ
à½Ĳ à½£à½¦
à½Ĳ à½Ĥà½ı
à¾Ĵà¾± à¾Ĵà¾±à½´
à¼ĭà¼į à¼ĭà¼ĭà¼ĭà¼ĭà¼ĭà¼ĭà¼ĭà¼ĭà¼ĭà¼ĭà¼ĭà¼ĭà¼ĭà¼ĭà¼ĭà¼ĭà¼ĭà¼ĭà¼ĭà¼ĭà¼ĭà¼ĭà¼ĭà¼ĭà¼ĭà¼ĭà¼ĭà¼ĭà¼ĭà¼ĭà¼ĭà¼ĭà¼ĭà¼ĭà¼ĭà¼ĭà¼ĭà¼ĭà¼ĭà¼ĭà¼ĭà¼ĭà¼ĭà¼ĭà¼ĭà¼ĭà¼ĭà¼ĭà¼ĭà¼ĭà¼ĭà¼ĭà¼ĭà¼ĭà¼ĭà¼ĭà¼ĭà¼ĭà¼ĭà¼ĭà¼ĭà¼ĭà¼ĭà¼ĭà¼ĭà¼ĭà¼ĭà¼ĭà¼ĭà¼ĭà¼ĭà¼ĭà¼ĭà¼ĭà¼ĭà¼ĭà¼ĭà¼ĭà¼ĭà¼ĭ
à¾¡ à¾²à¾Ģà¼ĭ
à¾³ à½±à½²à½¾à¼ĭ
à¾¦ à½»à¼ĭ
à½ĸà½Ł à½Ĥ
à½ĺà½ĳ à½£
à½ģà½ĺà½¦ à½¢
à¾·à½´ à½¾à¼į
à½łà½Ĥà½£ à½ĸà½ł
à½ĳà½Ģà½ł à½ĸà½ł
à¼§ à¼£à¼¢
à½Ĵ à½Łà½ĩ
à¼ĭà½Ī à¾¤à¾±à½²à¼ĭ
à¼ĭà½Ī à¾·à½²à¼ĭ
à¼¨ à¼¢à¼ł
à¾µ à½ºà½¾à¼ĭ
à½¼à¼Ķ à¼ĭà¼ĭà¼ĭ
à¾Ńà½± à¼įà¼į
à¼¡à¼¤ à¼¡à¼¦
à½Łà½Ħ à½Łà½Ħ
à¼¡à¼§ à¼¤à¼ł
à¼¡à¼§ à¼¥à¼©
à¼¡à¼¨ à¼£à¼¤
à¾ł à½ºà¼į
à½¢à½ĳ à½ĩ
à½Ķà½£ à½Ķ
à¼ĭà¼Ī à¼Ī
à¼įà¼ĭà¼ĭà¼ĭà¼ĭà¼ĭà¼ĭà¼ĭà¼ĭà¼ĭà¼ĭà¼ĭà¼ĭà¼ĭà¼ĭà¼ĭà¼ĭà¼ĭà¼ĭà¼ĭà¼ĭà¼ĭà¼ĭà¼ĭà¼ĭà¼ĭà¼ĭà¼ĭà¼ĭà¼ĭà¼ĭà¼ĭà¼ĭà¼ĭà¼ĭà¼ĭà¼ĭà¼ĭà¼ĭà¼ĭà¼ĭà¼ĭà¼ĭà¼ĭà¼ĭà¼ĭà¼ĭà¼ĭà¼ĭà¼ĭà¼ĭà¼ĭà¼ĭà¼ĭà¼ĭà¼ĭà¼ĭà¼ĭà¼ĭà¼ĭà¼ĭà¼ĭà¼ĭà¼ĭà¼ĭ à¼ĭà¼ĭà¼ĭà¼ĭà¼ĭà¼ĭà¼ĭà¼ĭà¼ĭà¼ĭà¼ĭà¼ĭ
à¾º à¼į
Ġà¼ĭà¼ĭà¼ĭà¼ĭà¼ĭà¼ĭà¼ĭà¼ĭà¼ĭà¼ĭà¼ĭà¼ĭà¼ĭà¼ĭà¼ĭà¼ĭà¼ĭà¼ĭà¼ĭà¼ĭà¼ĭà¼ĭà¼ĭà¼ĭà¼ĭà¼ĭà¼ĭà¼ĭà¼ĭà¼ĭà¼ĭà¼ĭà¼ĭà¼ĭà¼ĭà¼ĭà¼ĭà¼ĭà¼ĭà¼ĭà¼ĭà¼ĭà¼ĭà¼ĭà¼ĭà¼ĭà¼ĭà¼ĭà¼ĭà¼ĭà¼ĭà¼ĭà¼ĭà¼ĭà¼ĭà¼ĭà¼ĭà¼ĭà¼ĭà¼ĭà¼ĭà¼ĭà¼ĭà¼ĭ à¼ĭà¼ĭà¼ĭà¼ĭà¼ĭà¼ĭà¼ĭà¼ĭà¼ĭ
à½ľ à½£à½ł
à½¦ à½ĵà½ĳ
à½ĸ à½ĵà½ł
à½ł à½ĺà½¦
à¾² à¾³à½¼
à½ħ à½ħ
à¾Ĵà¾± à½¿à¼į
à½Ħà½¦ à½łà½ĳ
à½ĵà½¦ à½ĸà½Ł
à¾¡ à¾²à¾Ģ
à½ºà¼į à¼Ī
à¾¤ à¾¤à¾±à½¼
à½± à¾ħ
à¾© à¾ª
à¾¨ à¼ĭà¼Ħà¼ħà¼įà¼į
à½ĸà½¤à½ĳ à½Ł
à½Ħà½ĵ à½£
à½¿à¼ĭ à½¾à¼ĭ
à¼§ à¼¡à¼©
à¼§ à¼£à¼¦
à½Ĵ à½ķà½¥
à½Ĵ à½ķà½Ģ
à½Ĺ à½Ŀà½ĵ
à¾ļ à¾Ģà¼ĭ
à¼ĭà¾ ł
à¼¡à¼¤ à¼£à¼¨
à¼¡à¼§ à¼©à¼§
à¼¡à¼¦ à¼£à¼§
à¼¡à¼¦ à¼¦à¼§
à¼įà¼įà¼įà¼į à¼į
à¾·à¾² à½±à½´à¾ĥà½¿à¼ĭ
à¼¦à¼¨ à¼¡
à¼¡à¼¡à¼ł à¼©
à¼įà¼ĭà¼ĭà¼ĭà¼ĭà¼ĭà¼ĭà¼ĭà¼ĭà¼ĭà¼ĭà¼ĭà¼ĭà¼ĭà¼ĭà¼ĭà¼ĭà¼ĭà¼ĭà¼ĭà¼ĭà¼ĭà¼ĭà¼ĭà¼ĭà¼ĭà¼ĭà¼ĭà¼ĭà¼ĭà¼ĭà¼ĭà¼ĭà¼ĭà¼ĭà¼ĭà¼ĭà¼ĭà¼ĭà¼ĭà¼ĭà¼ĭà¼ĭà¼ĭà¼ĭà¼ĭà¼ĭà¼ĭà¼ĭà¼ĭà¼ĭà¼ĭà¼ĭà¼ĭà¼ĭà¼ĭà¼ĭà¼ĭà¼ĭà¼ĭà¼ĭà¼ĭà¼ĭà¼ĭà¼ĭà¼ĭà¼ĭà¼ĭà¼ĭà¼ĭà¼ĭà¼ĭà¼ĭà¼ĭà¼ĭà¼ĭà¼ĭà¼ĭà¼ĭà¼ĭà¼ĭ à¼ĭà¼ĭà¼ĭà¼ĭà¼ĭà¼ĭà¼ĭà¼ĭ
à¼įà¼ĭà¼ĭà¼ĭà¼ĭà¼ĭà¼ĭà¼ĭà¼ĭà¼ĭà¼ĭà¼ĭà¼ĭà¼ĭà¼ĭà¼ĭà¼ĭà¼ĭà¼ĭà¼ĭà¼ĭà¼ĭà¼ĭà¼ĭà¼ĭà¼ĭà¼ĭà¼ĭà¼ĭà¼ĭà¼ĭà¼ĭà¼ĭà¼ĭà¼ĭà¼ĭà¼ĭà¼ĭà¼ĭà¼ĭà¼ĭà¼ĭà¼ĭà¼ĭà¼ĭà¼ĭà¼ĭà¼ĭà¼ĭà¼ĭà¼ĭà¼ĭà¼ĭà¼ĭà¼ĭà¼ĭà¼ĭà¼ĭà¼ĭà¼ĭà¼ĭà¼ĭà¼ĭà¼ĭà¼ĭà¼ĭà¼ĭà¼ĭà¼ĭà¼ĭà¼ĭà¼ĭà¼ĭà¼ĭà¼ĭà¼ĭà¼ĭà¼ĭà¼ĭà¼ĭà¼ĭ à¼ĭà¼ĭà¼ĭà¼ĭà¼ĭà¼ĭ
à¼įà¼ĭà¼ĭà¼ĭà¼ĭà¼ĭà¼ĭà¼ĭà¼ĭà¼ĭà¼ĭà¼ĭà¼ĭà¼ĭà¼ĭà¼ĭà¼ĭà¼ĭà¼ĭà¼ĭà¼ĭà¼ĭà¼ĭà¼ĭà¼ĭà¼ĭà¼ĭà¼ĭà¼ĭà¼ĭà¼ĭà¼ĭà¼ĭ à¼ĭà¼ĭà¼ĭà¼ĭà¼ĭà¼ĭà¼ĭà¼ĭà¼ĭà¼ĭà¼ĭà¼ĭà¼ĭà¼ĭ
à¼įà¼ĭà¼ĭà¼ĭà¼ĭà¼ĭà¼ĭà¼ĭà¼ĭà¼ĭà¼ĭà¼ĭà¼ĭà¼ĭà¼ĭà¼ĭà¼ĭà¼ĭà¼ĭà¼ĭà¼ĭà¼ĭà¼ĭà¼ĭà¼ĭà¼ĭà¼ĭà¼ĭà¼ĭà¼ĭà¼ĭà¼ĭà¼ĭà¼ĭà¼ĭà¼ĭà¼ĭà¼ĭà¼ĭà¼ĭà¼ĭ à¼ĭ
à¼ĭà½±à½¿à¼ĭ à½¾à¼ĭ
Ġ à½Ĳà½Ĥ
Ġ à½ķà½£
à½¦ à½£à½ĵ
à½Ĥ à½Ĥà½ı
à½ĸ à½ĸà½Ł
à½ĸ à½Ħà½ĵ
à½²à¼ĭ à¾Ģà¼ĭ
à½£ à½ĸà½¦à½ĺ
à½ģ à½Ħà½Ĥ
à½ı à½¦à½ł
à½ĺà½¦ à½ĸà½¢
à½ĺà½¦ à½łà½ĩ
à½ĺà½¦ à½łà½ģ
à½ī à½Ĥà½¦
à½ī à½İ
à¾±à¼ĭ à¼ĭ
à¾Ĺ à¼µà½ºà¼ĭ
à¾· à¾±à½º
à½¢à½Ħ à½£
à½Ĥà½ĵà½¦ à½¡
à½¢à½ĸ à½ĸ
à¾¡à½¼ à¼Ķ
à¾Ĳà½´ à¼·
à½Ħà½Ħ à½ļ
à½ĳà½Ĥà½Ĥ à½Ķ
à¼¨ à¼¢à¼§
à¼¡à¼¦ à¼¥à¼¡
à¼¡à¼¨ à¼£à¼¨
à¼¡à¼¨ à¼¤à¼¥
à½ĥ à½¨
Ġà½Ĳ à½ĵà½¢
à¼įà¼ĭà¼ĭà¼ĭà¼ĭà¼ĭà¼ĭà¼ĭà¼ĭà¼ĭà¼ĭà¼ĭà¼ĭà¼ĭà¼ĭà¼ĭà¼ĭà¼ĭà¼ĭà¼ĭà¼ĭà¼ĭà¼ĭà¼ĭà¼ĭà¼ĭà¼ĭà¼ĭà¼ĭà¼ĭà¼ĭà¼ĭà¼ĭà¼ĭà¼ĭà¼ĭà¼ĭà¼ĭà¼ĭà¼ĭà¼ĭà¼ĭà¼ĭà¼ĭà¼ĭà¼ĭà¼ĭà¼ĭà¼ĭà¼ĭà¼ĭà¼ĭà¼ĭà¼ĭà¼ĭà¼ĭà¼ĭà¼ĭà¼ĭà¼ĭà¼ĭà¼ĭà¼ĭà¼ĭà¼ĭ à¼ĭ
à¼§à¼© à¼£
à¼¨à¼ł à¼¦
à¼§à¼¨ à¼¥
à¼¡à¼łà¼ł à¼¤
à½£à½Ķ à½ĸà½ł
à¼ĭà¾¾ à¾¾à¾¾à¾¾à¾¾à¾¾à¾¾à¾¾à¾¾
à¼įà¼ĭà¼ĭà¼ĭà¼ĭà¼ĭà¼ĭà¼ĭà¼ĭà¼ĭà¼ĭà¼ĭà¼ĭà¼ĭà¼ĭà¼ĭà¼ĭà¼ĭà¼ĭà¼ĭà¼ĭà¼ĭà¼ĭà¼ĭà¼ĭà¼ĭà¼ĭà¼ĭà¼ĭà¼ĭà¼ĭà¼ĭà¼ĭà¼ĭà¼ĭà¼ĭà¼ĭà¼ĭà¼ĭà¼ĭà¼ĭà¼ĭà¼ĭà¼ĭà¼ĭà¼ĭà¼ĭà¼ĭà¼ĭ à¼ĭ
Ġà¼ĭà¼ĭà¼ĭà¼ĭà¼ĭà¼ĭà¼ĭà¼ĭà¼ĭà¼ĭà¼ĭà¼ĭà¼ĭà¼ĭà¼ĭà¼ĭà¼ĭà¼ĭà¼ĭà¼ĭà¼ĭà¼ĭà¼ĭà¼ĭà¼ĭà¼ĭà¼ĭà¼ĭà¼ĭà¼ĭà¼ĭà¼ĭà¼ĭà¼ĭà¼ĭà¼ĭà¼ĭà¼ĭà¼ĭà¼ĭà¼ĭà¼ĭà¼ĭà¼ĭà¼ĭà¼ĭà¼ĭà¼ĭà¼ĭà¼ĭà¼ĭà¼ĭà¼ĭà¼ĭà¼ĭà¼ĭà¼ĭà¼ĭà¼ĭà¼ĭà¼ĭà¼ĭà¼ĭà¼ĭà¼ĭà¼ĭà¼ĭà¼ĭà¼ĭà¼ĭà¼ĭà¼ĭà¼ĭà¼ĭà¼ĭà¼ĭà¼ĭà¼ĭà¼ĭà¼ĭà¼ĭà¼ĭà¼ĭà¼ĭà¼ĭà¼ĭà¼ĭà¼ĭà¼ĭà¼ĭà¼ĭà¼ĭà¼ĭà¼ĭà¼ĭà¼ĭ à¼ĭà¼ĭà¼ĭ
à¾²à½½ à½¾à¼į
Ġ à½ĸà½ıà½Ĥà½¦
Ġ à½¡à½£
à½¦ à½Ĥà½¦à½£
à½ĸ à½Į
à½Ķ à½ĸà½¦à½ĺ
à¾± à¾ĥà¼ĭ
à½ł à½łà½ĸ
à½£ à½ĺà½ģ
à½´à¼ĭ à¼ĭà¼ĭ
à¾Ĵ à½±à½²
à½ĺà½¦ à½Ķà½Ģ
à¾£ à¾¤à½ºà¼ĭ
à¾¡ à¼µà½¼à¼ĭ
à½ħà½ĵ à½Ĥà½Ħ
à½Ľ à½ħ
à½¨ à½¨à½ł
à½ĵà½Ħ à½ĵà½¦
à½ĸà½ħà½¦ à½¦
à½ĸà½¦à½ĺ à½Ķà½ł
à¾¡à½¼ à½¼à¼ĭ
à½´à¼į à¼ĭà¼ĭà¼ĭ
à½Ĥà½ıà½ĵ à½£
à½Ĥà½ıà½ĵ à½ĸà½ŀ
à¼§ à¼¥à¼§
à¼© à¼¦à¼§
à½Į à½ĳ
à¾µ à¾ĥà¼ĭ
à¾Ħ à¼µà¼ĭ
à¼¡à¼§ à¼©à¼¦
à¼¡à¼¦ à¼¢à¼§
à¼¡à¼¦ à¼¥à¼ł
à¼¡à¼¨ à¼¤à¼ł
à¼¡à¼¨ à¼¥à¼¡
à¼¡à¼¨ à¼¦à¼¨
à¼¡à¼¨ à¼¨à¼£
à¼ĭà¾¢ à½²à½¿à¼į
à¾º à½±à½²à½¿à¼ĭ
à¼¡à¼¢à¼ł à¼¦
à½ľ à½Ħ
à¼łà¼łà¼łà¼łà¼łà¼łà¼łà¼ł à¼łà¼łà¼ł
à¼įà¼ĭà¼ĭà¼ĭà¼ĭà¼ĭà¼ĭà¼ĭà¼ĭà¼ĭà¼ĭà¼ĭà¼ĭà¼ĭà¼ĭà¼ĭà¼ĭà¼ĭà¼ĭà¼ĭà¼ĭà¼ĭà¼ĭà¼ĭà¼ĭà¼ĭà¼ĭà¼ĭà¼ĭà¼ĭà¼ĭà¼ĭà¼ĭà¼ĭà¼ĭà¼ĭà¼ĭà¼ĭà¼ĭà¼ĭà¼ĭà¼ĭà¼ĭà¼ĭà¼ĭà¼ĭà¼ĭà¼ĭà¼ĭ à¼ĭà¼ĭà¼ĭà¼ĭà¼ĭà¼ĭà¼ĭà¼ĭà¼ĭà¼ĭà¼ĭà¼ĭ
Ġ à½Ĥà½¡à½Ĥ
Ġ à½Ļà½Ģ
à½ĵ à½Ĥà½ı
à½²à¼ĭ à¾Ľà¼ĭ
à½ºà¼ĭ à¼Ŀà¼į
à½ķ à½ĺà½¢
à½ķ à½łà½Ħ
à½ģ à½ĳà½Ħ
à½ļ à½¤
à¾³ à½»à¼į
à¾© à¾ªà½²à¼ĭ
à½ĺà½Ĳ à½ĵ
à½§ à½Ĭ
à¼¡ à¼¡à¼©à¼¨
à½Ķà½ĳ à½ĵ
à¼ł à¼¡à¼¡
à½ļà½Ħà½¦ à½Ķà½ł
à¼© à¼§à¼ł
à¼© à¼¥à¼¦
à¼© à¼¥à¼¢
à½ķà½Ĭ à½ħ
à¾µ à¾ŀà½´à¼ĭ
à¼¡à¼ł à¼¡à¼§
à¾²à¼įà¼į à¼įà¼į
à¾ļ à½½à¼į
à¼¡à¼§ à¼£à¼¤
à¼¡à¼¨ à¼§à¼¡
à¼ĭà¼¹ à½¼à¼ĭ
Ġà¼ł à¼łà¼łà¼łà¼ł
à¾¡à¾·à½¼à¼ĭ à¾ħ
à¾¼ à½²à¼ĭ
à¾ŀà¾ŀ à¼į
à½´à¼ĭà½Ī à¾²à½ºà¼ĭ
Ġĉĉ ĉĉĉĉ
à¼įà¼ĭà¼ĭà¼ĭà¼ĭà¼ĭà¼ĭà¼ĭà¼ĭà¼ĭà¼ĭà¼ĭà¼ĭà¼ĭà¼ĭà¼ĭà¼ĭà¼ĭà¼ĭà¼ĭà¼ĭà¼ĭà¼ĭà¼ĭà¼ĭà¼ĭà¼ĭà¼ĭà¼ĭà¼ĭà¼ĭà¼ĭà¼ĭ à¼ĭà¼ĭà¼ĭà¼ĭà¼ĭà¼ĭà¼ĭ
Ġ à½£à½Ħ
à½¦ à½£à½ĺ
à½¦ à½ĺà½ł
à½ĳ à½ĵà½ł
à½Ĥ à½Ĥà½ĳ
à½Ĥ à½ª
à½ĸ à½ĺà½īà½ĺ
à½ĺ à½¢à½Ħ
à¼į à¼ĭà¼įà¼į
à¾± à½½à½¿à¼į
à¾Ł à¾Łà½ºà¼į
à½Ĩ à½¤à½¦
à¾£ à¾²à¼ĭ
à½ĵà½¦ à½ĸà½ĳà½Ĥ
à¾¡ à½»à¼ĭ
à½łà½ Ĭ
à¾© à¾±à¼ĭ
à¾Ĳà¾±à½º à¼·
à½¨ à½łà½Ħ
à½ĳà½Ģ à½łà½Ĳ
à½ĺà½ļà½ĺà½¦ à½ĺ
Ġà¼ Ģ
à¾ľ à½²à¼įà¼į
à¼© à¼£à¼§
à¼© à¼¥à¼¨
à½Ĺ à½Łà½ĩ
à¾ª à¾Ńà¼ĭ
à¼¡à¼¥ à¼¢à¼§
à¼¡à¼§ à¼¨à¼¡
à¼¡à¼¦ à¼¤à¼§
à½« à½Ĥà½¥
à¾ł à½¼
à½¼à¼· à¼į
à¼įà¼ĭà¼ĭà¼ĭà¼ĭà¼ĭà¼ĭà¼ĭà¼ĭà¼ĭà¼ĭà¼ĭà¼ĭà¼ĭà¼ĭà¼ĭà¼ĭà¼ĭà¼ĭà¼ĭà¼ĭà¼ĭà¼ĭà¼ĭà¼ĭà¼ĭà¼ĭà¼ĭà¼ĭà¼ĭà¼ĭà¼ĭà¼ĭà¼ĭà¼ĭà¼ĭà¼ĭà¼ĭà¼ĭà¼ĭà¼ĭà¼ĭà¼ĭà¼ĭà¼ĭà¼ĭà¼ĭà¼ĭà¼ĭà¼ĭà¼ĭà¼ĭà¼ĭà¼ĭà¼ĭà¼ĭà¼ĭà¼ĭà¼ĭà¼ĭà¼ĭà¼ĭà¼ĭà¼ĭà¼ĭ à¼ĭà¼ĭà¼ĭà¼ĭà¼ĭà¼ĭà¼ĭà¼ĭà¼ĭ
Ġà¼½ à¼į
Ġà¼¨ à¼£
à¼©à¼ł à¼¡
à¾·à¾²à¾Ģ à½¾à¼ĭ
à¼¡à¼§à¼ł à¼§
à¼įà¼ĭà¼ĭà¼ĭà¼ĭà¼ĭà¼ĭà¼ĭà¼ĭà¼ĭà¼ĭà¼ĭà¼ĭà¼ĭà¼ĭà¼ĭà¼ĭà¼ĭà¼ĭà¼ĭà¼ĭà¼ĭà¼ĭà¼ĭà¼ĭà¼ĭà¼ĭà¼ĭà¼ĭà¼ĭà¼ĭà¼ĭà¼ĭà¼ĭà¼ĭà¼ĭà¼ĭà¼ĭà¼ĭà¼ĭà¼ĭà¼ĭà¼ĭà¼ĭà¼ĭà¼ĭà¼ĭà¼ĭà¼ĭà¼ĭà¼ĭà¼ĭà¼ĭà¼ĭà¼ĭà¼ĭà¼ĭà¼ĭà¼ĭà¼ĭà¼ĭà¼ĭà¼ĭà¼ĭà¼ĭà¼ĭà¼ĭà¼ĭà¼ĭà¼ĭà¼ĭà¼ĭà¼ĭà¼ĭà¼ĭà¼ĭà¼ĭà¼ĭà¼ĭà¼ĭà¼ĭ à¼ĭà¼ĭà¼ĭà¼ĭà¼ĭà¼ĭà¼ĭà¼ĭà¼ĭà¼ĭà¼ĭà¼ĭà¼ĭ
à¼įà¼ĭà¼ĭà¼ĭà¼ĭà¼ĭà¼ĭà¼ĭà¼ĭà¼ĭà¼ĭà¼ĭà¼ĭà¼ĭà¼ĭà¼ĭà¼ĭà¼ĭà¼ĭà¼ĭà¼ĭà¼ĭà¼ĭà¼ĭà¼ĭà¼ĭà¼ĭà¼ĭà¼ĭà¼ĭà¼ĭà¼ĭà¼ĭà¼ĭà¼ĭà¼ĭà¼ĭà¼ĭà¼ĭà¼ĭà¼ĭà¼ĭà¼ĭà¼ĭà¼ĭà¼ĭà¼ĭà¼ĭà¼ĭà¼ĭà¼ĭà¼ĭà¼ĭà¼ĭà¼ĭà¼ĭà¼ĭà¼ĭà¼ĭà¼ĭà¼ĭà¼ĭà¼ĭà¼ĭà¼ĭà¼ĭà¼ĭà¼ĭà¼ĭà¼ĭà¼ĭà¼ĭà¼ĭà¼ĭà¼ĭà¼ĭà¼ĭà¼ĭà¼ĭà¼ĭà¼ĭà¼ĭà¼ĭà¼ĭà¼ĭà¼ĭà¼ĭà¼ĭà¼ĭà¼ĭà¼ĭà¼ĭà¼ĭà¼ĭà¼ĭà¼ĭà¼ĭ à¼ĭ
à¾Īà¾Īà¾Īà¾Īà¾Īà¾Īà¾Īà¾Ī à¾Īà¾Ī
à½¿à¼įà¼Įà¼Įà¼Į à¼į
à½Łà½Ĩ à½«à½Ħ
Ġ à½ĸà½ħà½ĳ
Ġ à½Ľà½ĺ
à¼ ī
à½Ĥ à½Ķà½ĳ
à½¢ à½ĺà½ł
à½Ħ à½ĺà½ĳ
à¾² à¾·à½²
à½¡ à½Ķà½¢
à½¡ à½īà½ł
à½Ĩ à½Į
à¾Ĵ à¾·à½¼à¼ĭ
à½ĳà½Ĥ à½ķ
à½ĳà½Ĥ à½ĳà½Ĥ
à½Ł à½Ĥà½Ł
à¾³ à½¿à¼į
à¾³ à½±à¾Ģ
à½¢à½Ħ à½ĳà½ĸà½Ħ
à¾¨ à¾¨à½²à¼į
à½Ĥà½ĵà½¦ à½ı
à½¼à¼į à¼Ħà¼ħà¼ħà¼įà¼į
à¾³à½¼à¼ĭ à½Īà½²
Ġà¼ ģ
à½Ĳà½Ĥ à½¥à½ĳ
à½Ī à¾¡à½º
à½Ĺ à½Łà½ĳ
Ġà½¦ à½ĸ
à¾ļ à¾²à¾Ģà¼ĭ
à¼¡à¼£ à¼¥à¼¤
à¼¡à¼£ à¼¦à¼¨
à¼¡à¼§ à¼¤à¼¦
à¼¡à¼¨ à¼§à¼¨
à¾¶ à½¾
à¼§à¼§ à¼¦
à¾Łà½´à¼į à¼ĭà¼ĭà¼ĭà¼ĭà¼ĭ
à¼§à¼¦ à¼©
Ġà¼¡à¼ł à¼¡
à¼¡à¼¨à¼ł à¼¤
à½§à½§à½§à½§à½§à½§à½§à½§ à½§à½§à½§à½§
Ġà¼ĭà¼ĭà¼ĭà¼ĭà¼ĭà¼ĭà¼ĭà¼ĭà¼ĭà¼ĭà¼ĭà¼ĭà¼ĭà¼ĭà¼ĭà¼ĭà¼ĭà¼ĭà¼ĭà¼ĭà¼ĭà¼ĭà¼ĭà¼ĭà¼ĭà¼ĭà¼ĭà¼ĭà¼ĭà¼ĭà¼ĭà¼ĭà¼ĭà¼ĭà¼ĭà¼ĭà¼ĭà¼ĭà¼ĭà¼ĭà¼ĭà¼ĭà¼ĭà¼ĭà¼ĭà¼ĭà¼ĭà¼ĭà¼ĭà¼ĭà¼ĭà¼ĭà¼ĭà¼ĭà¼ĭà¼ĭà¼ĭà¼ĭà¼ĭà¼ĭà¼ĭà¼ĭà¼ĭà¼ĭà¼ĭà¼ĭà¼ĭà¼ĭà¼ĭà¼ĭà¼ĭà¼ĭà¼ĭà¼ĭà¼ĭà¼ĭà¼ĭà¼ĭà¼ĭà¼ĭ à¼ĭà¼ĭ
à½ķà½ŀ à½Ł
à¾²à¼ĭà½³ à½¿
Ġà¼ĭà¼ĭà¼ĭà¼ĭà¼ĭà¼ĭà¼ĭà¼ĭà¼ĭà¼ĭà¼ĭà¼ĭà¼ĭà¼ĭà¼ĭà¼ĭà¼ĭà¼ĭà¼ĭà¼ĭà¼ĭà¼ĭà¼ĭà¼ĭà¼ĭà¼ĭà¼ĭà¼ĭà¼ĭà¼ĭà¼ĭà¼ĭà¼ĭà¼ĭà¼ĭà¼ĭà¼ĭà¼ĭà¼ĭà¼ĭà¼ĭà¼ĭà¼ĭà¼ĭà¼ĭà¼ĭà¼ĭà¼ĭà¼ĭà¼ĭà¼ĭà¼ĭà¼ĭà¼ĭà¼ĭà¼ĭà¼ĭà¼ĭà¼ĭà¼ĭà¼ĭà¼ĭà¼ĭà¼ĭà¼ĭà¼ĭà¼ĭà¼ĭà¼ĭà¼ĭà¼ĭà¼ĭà¼ĭà¼ĭà¼ĭà¼ĭà¼ĭà¼ĭà¼ĭà¼ĭà¼ĭà¼ĭà¼ĭà¼ĭà¼ĭà¼ĭà¼ĭà¼ĭà¼ĭà¼ĭà¼ĭà¼ĭà¼ĭà¼ĭà¼ĭà¼ĭà¼ĭà¼ĭà¼ĭà¼ĭà¼ĭà¼ĭà¼ĭà¼ĭ à¼ĭà¼ĭà¼ĭ
à¼ĭ à½±à½²à¼į
à½¦ à½ĺà½Ĳà½ł
à½ĵ à½Ĥà½£
à½ĺ à½Ĥà½ĵ
à½Ķ à½Ķà½¢
à½Ķ à½Łà½ĸ
à½£ à½ĵà½Ħ
à½¡ à½ĸà½¢
à¾Ł à¾Ģà¼ĭ
à¾Ł à¼µà½¼
à½ĸà½¦ à½ł
à½ļ à½ĳà½Ħ
à¾¡ à½¾à¼į
à¾²à½´ à½´
à¾²à½´ à¼·à¼ĭ
à½¨ à½Ħà½¦
à¾Ĵà¾±à¼ĭ à¼º
à¾Ĺà½¼ à½¼
à¾¡à½¼ à¼·
à¾Ĳà½¼ à½¼
à½ĳà½Ģà½¢ à½ĵ
à½İ à½ĺà½ł
à¼© à¼§à¼§
à¾µ à½¾
à¾¤à¾² à½±à¼ĭ
à¼¡à¼ł à¼¦à¼¥
à¾Ńà½± à½±à½´
à¼¡à¼£ à¼¥à¼¨
à¼¡à¼¥ à¼¦à¼¥
à¼¡à¼§ à¼¡à¼£
à¾» à½´à¼į
Ġà¼£ à¼łà¼ł
à½Łà½Ĳ à½«à½¡
Ġà¼ĭà¼ĭà¼ĭà¼ĭà¼ĭà¼ĭà¼ĭà¼ĭà¼ĭà¼ĭà¼ĭà¼ĭà¼ĭà¼ĭà¼ĭà¼ĭà¼ĭà¼ĭà¼ĭà¼ĭà¼ĭà¼ĭà¼ĭà¼ĭà¼ĭà¼ĭà¼ĭà¼ĭà¼ĭà¼ĭà¼ĭà¼ĭà¼ĭà¼ĭà¼ĭà¼ĭà¼ĭà¼ĭà¼ĭà¼ĭà¼ĭà¼ĭà¼ĭà¼ĭà¼ĭà¼ĭà¼ĭà¼ĭà¼ĭà¼ĭà¼ĭà¼ĭà¼ĭà¼ĭà¼ĭà¼ĭà¼ĭà¼ĭà¼ĭà¼ĭà¼ĭà¼ĭà¼ĭà¼ĭ à¼ĭà¼ĭà¼ĭà¼ĭà¼ĭà¼ĭà¼ĭà¼ĭà¼ĭà¼ĭà¼ĭà¼ĭà¼ĭ
Ġà¼¡à¼ł à¼¤
à¼įà¼ĭà¼ĭà¼ĭà¼ĭà¼ĭà¼ĭà¼ĭà¼ĭà¼ĭà¼ĭà¼ĭà¼ĭà¼ĭà¼ĭà¼ĭà¼ĭà¼ĭà¼ĭà¼ĭà¼ĭà¼ĭà¼ĭà¼ĭà¼ĭà¼ĭà¼ĭà¼ĭà¼ĭà¼ĭà¼ĭà¼ĭà¼ĭà¼ĭà¼ĭà¼ĭà¼ĭà¼ĭà¼ĭà¼ĭà¼ĭ à¼ĭà¼ĭà¼ĭà¼ĭà¼ĭ
à¾Ķà¾· à¾±à½±à½´
Ġ à½łà½Ĥà½ł
Ġ à½ģà½ĸ
à½¦ à½ĺà½īà½ĺ
à½£ à½Ĥà½¤
à½Ĥà½¦ à½łà½ķ
à½¡ à½Ķà½ł
à¾Ĵ à¼·
à½ĸà½¦ à½ĸà½¢
à¾±à½²à¼ĭ à¼Ħà¼ħ
à½¤ à½Ļ
à½ĸà½¢ à½ģ
à½ĵà½¦ à½ĳà½Ģ
à½¡à½Ħ à½¢à½Ħ
à¾¤ à½±à¼į
à½Ķà½¦ à½ĳà½Ħ
à½Ķà½¦ à½ļ
à½Ķà½¦ à½Ĥà½ŀà½ĵ
à¾Ķ à½¿à¼ĭ
à½± à¼µà¼ĭ
à½± à½¼à½¾à¼Ķ
à¾© à¾Ĳà½¼
à½§ à½ĸà½¦
à½§ à½ķà½Ħ
à½±à¼ĭ à½±à½²à¼ĭ
à¾Ĺà½º à¼µ
à½ĸà½¤à½ĳ à½¦
à½Ĥà½ĳ à½ĳ
à½¾à¼ĭ à¾İ
à¾Ń à½±à½²à½¿à¼ĭ
à½´à¼į à¼ĭà¼į
à¾¤à¾± à¾Ģà¼ĭ
à½ĺà½ĵ à½Ĩà½ĳ
à¼· à½ºà¼į
à¼§ à¼¢à¼¡
à¼§ à¼£à¼¨
à½Ĵ à½Ĥà½ħ
à½Ĵ à½¦à½¢
à½Ĺ à½«à½Ĥ
à¾²à¼į à¼ĭ
à¾Ńà½± à½¼à½¾à¼ĭ
à¼¡à¼¦ à¼§à¼§
à¼¡à¼¨ à¼¢à¼¢
à¼ĭà¼¹ à½´à¼ĭ
à¾ĭ à½ı
à¾¶ à½±à½¾à¼ĭ
à¼§à¼ł à¼¦
à¼§à¼¨ à¼¢
à½Ĺà½ģ à½Łà½«
à¼įà¼ĭà¼ĭà¼ĭà¼ĭà¼ĭà¼ĭà¼ĭà¼ĭà¼ĭà¼ĭà¼ĭà¼ĭà¼ĭà¼ĭà¼ĭà¼ĭà¼ĭà¼ĭà¼ĭà¼ĭà¼ĭà¼ĭà¼ĭà¼ĭà¼ĭà¼ĭà¼ĭà¼ĭà¼ĭà¼ĭà¼ĭà¼ĭà¼ĭà¼ĭà¼ĭà¼ĭà¼ĭà¼ĭà¼ĭà¼ĭà¼ĭà¼ĭà¼ĭà¼ĭà¼ĭà¼ĭà¼ĭà¼ĭ à¼ĭà¼ĭà¼ĭà¼ĭà¼ĭà¼ĭà¼ĭ
à¼ĭà½±à½´à¾ĥà¼ĭ à½±à½´à¾ĥà¼ĭ
Ġ à½Īà¾±à½²
à½Ĥ à½Ĭ
à½¢ à½łà½ķ
à½´ à¾ĥ
à½ĺ à½£à½ĺ
à¾² à¾Łà½º
à¾Ł à¾Łà½ºà¼ĭ
à½ĳà½Ħ à½ĳà½ĸà½Ħ
à¾Ĳ à½±à½²
à½ĸà½¢ à½¡
à¾³ à¾Ĺà½º
à¾±à¼ĭ à½Īà½²
à½¢à½Ħ à½ĵ
à¾²à½º à½¿à¼ĭ
à½Ĥà½Ļ à½£
à¾³à½¼à¼ĭ à¼½à¼¼
à½Ħà½ĵ à½ĳ
à½ĺà½Ĳà½¢ à½Ĥ
à½ĳà½ĺà½¢ à½Ķ
à¼§ à¼¥à¼¡
à½¦à½Ħ à½ł
à¼¡à¼£ à¼¡à¼¢
à¼ĭà¾¢ à¾Ńà¼ĭ
à¼įà¼ĭà¼ĭà¼ĭà¼ĭà¼ĭà¼ĭà¼ĭà¼ĭà¼ĭà¼ĭà¼ĭà¼ĭà¼ĭà¼ĭà¼ĭà¼ĭà¼ĭà¼ĭà¼ĭà¼ĭà¼ĭà¼ĭà¼ĭà¼ĭà¼ĭà¼ĭà¼ĭà¼ĭà¼ĭà¼ĭà¼ĭà¼ĭà¼ĭà¼ĭà¼ĭà¼ĭà¼ĭà¼ĭà¼ĭà¼ĭà¼ĭà¼ĭà¼ĭà¼ĭà¼ĭà¼ĭà¼ĭà¼ĭà¼ĭà¼ĭà¼ĭà¼ĭà¼ĭà¼ĭà¼ĭà¼ĭà¼ĭà¼ĭà¼ĭà¼ĭà¼ĭà¼ĭà¼ĭà¼ĭ à¼ĭà¼ĭà¼ĭà¼ĭà¼ĭà¼ĭ
à¾·à½º à½ºà¼ĭ
à¾º à½ºà¼ĭ
à¼įà¼ĭà¼ĭà¼ĭà¼ĭà¼ĭà¼ĭà¼ĭà¼ĭà¼ĭà¼ĭà¼ĭà¼ĭà¼ĭà¼ĭà¼ĭà¼ĭ à¼ĭà¼ĭà¼ĭà¼ĭà¼ĭà¼ĭà¼ĭà¼ĭà¼ĭà¼ĭà¼ĭà¼ĭà¼ĭà¼ĭà¼ĭ
à½Ķà½ķ à½ĸà½ĸ
Ġà¼ĭà¼ĭà¼ĭà¼ĭà¼ĭà¼ĭà¼ĭà¼ĭà¼ĭà¼ĭà¼ĭà¼ĭà¼ĭà¼ĭà¼ĭà¼ĭà¼ĭà¼ĭà¼ĭà¼ĭà¼ĭà¼ĭà¼ĭà¼ĭà¼ĭà¼ĭà¼ĭà¼ĭà¼ĭà¼ĭà¼ĭà¼ĭà¼ĭà¼ĭà¼ĭà¼ĭà¼ĭà¼ĭà¼ĭà¼ĭà¼ĭà¼ĭà¼ĭà¼ĭà¼ĭà¼ĭà¼ĭà¼ĭà¼ĭà¼ĭà¼ĭà¼ĭà¼ĭà¼ĭà¼ĭà¼ĭà¼ĭà¼ĭà¼ĭà¼ĭà¼ĭà¼ĭà¼ĭà¼ĭà¼ĭà¼ĭà¼ĭà¼ĭà¼ĭà¼ĭà¼ĭà¼ĭà¼ĭà¼ĭà¼ĭà¼ĭà¼ĭà¼ĭà¼ĭà¼ĭà¼ĭà¼ĭà¼ĭà¼ĭà¼ĭà¼ĭà¼ĭà¼ĭà¼ĭà¼ĭà¼ĭà¼ĭà¼ĭà¼ĭà¼ĭà¼ĭà¼ĭà¼ĭà¼ĭà¼ĭà¼ĭà¼ĭà¼ĭà¼ĭ à¼ĭ
à¼įà¼Įà¼Įà¼Įà¼Įà¼Įà¼Įà¼Įà¼Įà¼Įà¼Įà¼Įà¼Įà¼Įà¼Įà¼Įà¼Įà¼Įà¼Įà¼Įà¼Įà¼Įà¼Įà¼Įà¼Įà¼Įà¼Įà¼Įà¼Įà¼Įà¼Įà¼Įà¼Į à¼Įà¼Įà¼Įà¼Įà¼Įà¼Įà¼Įà¼Įà¼Įà¼Įà¼Įà¼Įà¼Įà¼Įà¼Įà¼Į
Ġ à½ĺà½ī
à½² à½´à¼ĭ
à½ĸ à½ĵà½Ħ
à½Ķ à½ĵà½ĳ
à¾Ł à½¼à¼įà¼įà¼įà¼į
à¾Ł à½½
à¾Ł à¾²à½²à½¾à¼ĭ
à½Ĩ à½ı
à½ĵà½¦ à½łà½ĩ
à½ĵà½¦ à½Ĥà½ĵà½¦
à½± à½½à¼ĭ
à¾© à¾ªà¼į
à½Ļ à½Ŀ
à¾Ķà¼ĭ à¼´
à¾©à¼ĭ à¼½
à½´à¼į à¼ĭà¼ĭ
à¼ł à¼¡à¼¥
à¼ł à¼§à¼ł
à¼§ à¼¥à¼¤
à¾µ à¾ŀà½±à¼ĭ
à¾¤à¼ĭ à½´à¼ĭ
à¼¡à¼¨ à¼§à¼£
à¾ĭ à½ŀ
à½ĭ à½Į
Ġà½¤ à½Ħà½¦
à¾¶ à¾£à½±à¼ĭ
Ġà½Ķ à½£
Ġà¼¡ à¼¡à¼¦
à¼¡à¼¥à¼ł à¼§
à¼įà¼ĭà¼ĭà¼ĭà¼ĭà¼ĭà¼ĭà¼ĭà¼ĭà¼ĭà¼ĭà¼ĭà¼ĭà¼ĭà¼ĭà¼ĭà¼ĭà¼ĭà¼ĭà¼ĭà¼ĭà¼ĭà¼ĭà¼ĭà¼ĭà¼ĭà¼ĭà¼ĭà¼ĭà¼ĭà¼ĭà¼ĭà¼ĭà¼ĭà¼ĭà¼ĭà¼ĭà¼ĭà¼ĭà¼ĭà¼ĭà¼ĭà¼ĭà¼ĭà¼ĭà¼ĭà¼ĭà¼ĭà¼ĭà¼ĭà¼ĭà¼ĭà¼ĭà¼ĭà¼ĭà¼ĭà¼ĭà¼ĭà¼ĭà¼ĭà¼ĭà¼ĭà¼ĭà¼ĭà¼ĭà¼ĭà¼ĭà¼ĭà¼ĭà¼ĭà¼ĭà¼ĭà¼ĭà¼ĭà¼ĭà¼ĭà¼ĭà¼ĭà¼ĭà¼ĭà¼ĭ à¼ĭà¼ĭà¼ĭà¼ĭ
à¼įà¼ĭà¼ĭà¼ĭà¼ĭà¼ĭà¼ĭà¼ĭà¼ĭà¼ĭà¼ĭà¼ĭà¼ĭà¼ĭà¼ĭà¼ĭà¼ĭà¼ĭà¼ĭà¼ĭà¼ĭà¼ĭà¼ĭà¼ĭà¼ĭà¼ĭà¼ĭà¼ĭà¼ĭà¼ĭà¼ĭà¼ĭà¼ĭà¼ĭà¼ĭà¼ĭà¼ĭà¼ĭà¼ĭà¼ĭà¼ĭà¼ĭà¼ĭà¼ĭà¼ĭà¼ĭà¼ĭà¼ĭà¼ĭà¼ĭà¼ĭà¼ĭà¼ĭà¼ĭà¼ĭà¼ĭà¼ĭà¼ĭà¼ĭà¼ĭà¼ĭà¼ĭà¼ĭà¼ĭà¼ĭà¼ĭà¼ĭà¼ĭà¼ĭà¼ĭà¼ĭà¼ĭà¼ĭà¼ĭà¼ĭà¼ĭà¼ĭà¼ĭà¼ĭà¼ĭà¼ĭ à¼ĭà¼ĭà¼ĭà¼ĭà¼ĭà¼ĭà¼ĭà¼ĭà¼ĭ
à¼įà¼ĭà¼ĭà¼ĭà¼ĭà¼ĭà¼ĭà¼ĭà¼ĭà¼ĭà¼ĭà¼ĭà¼ĭà¼ĭà¼ĭà¼ĭà¼ĭà¼ĭà¼ĭà¼ĭà¼ĭà¼ĭà¼ĭà¼ĭà¼ĭà¼ĭà¼ĭà¼ĭà¼ĭà¼ĭà¼ĭà¼ĭà¼ĭà¼ĭà¼ĭà¼ĭà¼ĭà¼ĭà¼ĭà¼ĭà¼ĭà¼ĭà¼ĭà¼ĭà¼ĭà¼ĭà¼ĭà¼ĭà¼ĭ à¼ĭà¼ĭà¼ĭà¼ĭ
à½łà½ł à½łà½ł
à½¼à¼įà¼įà¼Ī à¼įà¼į
Ġà¼ĭà¼ĭà¼ĭà¼ĭà¼ĭà¼ĭà¼ĭà¼ĭà¼ĭà¼ĭà¼ĭà¼ĭà¼ĭà¼ĭà¼ĭà¼ĭà¼ĭà¼ĭà¼ĭà¼ĭà¼ĭà¼ĭà¼ĭà¼ĭà¼ĭà¼ĭà¼ĭà¼ĭà¼ĭà¼ĭà¼ĭà¼ĭà¼ĭà¼ĭà¼ĭà¼ĭà¼ĭà¼ĭà¼ĭà¼ĭà¼ĭà¼ĭà¼ĭà¼ĭà¼ĭà¼ĭà¼ĭà¼ĭà¼ĭà¼ĭà¼ĭà¼ĭà¼ĭà¼ĭà¼ĭà¼ĭà¼ĭà¼ĭà¼ĭà¼ĭà¼ĭà¼ĭà¼ĭà¼ĭà¼ĭà¼ĭà¼ĭà¼ĭà¼ĭà¼ĭà¼ĭà¼ĭà¼ĭà¼ĭà¼ĭà¼ĭà¼ĭà¼ĭà¼ĭà¼ĭà¼ĭà¼ĭà¼ĭà¼ĭà¼ĭà¼ĭà¼ĭà¼ĭà¼ĭà¼ĭà¼ĭà¼ĭà¼ĭà¼ĭà¼ĭà¼ĭ à¼ĭà¼ĭà¼ĭà¼ĭà¼ĭà¼ĭ
Ġà¼ĭà¼ĭà¼ĭà¼ĭà¼ĭà¼ĭà¼ĭà¼ĭà¼ĭà¼ĭà¼ĭà¼ĭà¼ĭà¼ĭà¼ĭà¼ĭà¼ĭà¼ĭà¼ĭà¼ĭà¼ĭà¼ĭà¼ĭà¼ĭà¼ĭà¼ĭà¼ĭà¼ĭà¼ĭà¼ĭà¼ĭà¼ĭà¼ĭà¼ĭà¼ĭà¼ĭà¼ĭà¼ĭà¼ĭà¼ĭà¼ĭà¼ĭà¼ĭà¼ĭà¼ĭà¼ĭà¼ĭà¼ĭà¼ĭà¼ĭà¼ĭà¼ĭà¼ĭà¼ĭà¼ĭà¼ĭà¼ĭà¼ĭà¼ĭà¼ĭà¼ĭà¼ĭà¼ĭà¼ĭà¼ĭà¼ĭà¼ĭà¼ĭà¼ĭà¼ĭà¼ĭà¼ĭà¼ĭà¼ĭà¼ĭà¼ĭà¼ĭà¼ĭà¼ĭà¼ĭà¼ĭà¼ĭà¼ĭà¼ĭà¼ĭà¼ĭà¼ĭà¼ĭà¼ĭà¼ĭà¼ĭà¼ĭà¼ĭà¼ĭà¼ĭà¼ĭà¼ĭà¼ĭà¼ĭà¼ĭà¼ĭà¼ĭà¼ĭà¼ĭ à¼ĭà¼ĭà¼ĭà¼ĭà¼ĭ
à¼ĭà¾¥ à¼ĭ
Ġ à½ļà½£
à½ĸ à½£à½ĺ
à½ĸ à½ļà½ĵ
à½¢ à½Ĥà½¦à½Ħ
à½¢ à½Ĥà½£
à½ĵ à½ĸà½Ł
à½ĺ à½ĸà½¤à½ĳ
à½ĺ à½Ĥà½ĳ
à¼ĭà¼į à¼ĭà¼ĭà¼ĭà¼ĭà¼ĭà¼ĭà¼ĭ
à¾¡ à½¼à¼įà¼įà¼įà¼į
à¾¡ à¾²à½±
à½ĸà½ħ à½ĳà½Ķà½ł
à¾· à¾¨à¼ĭ
à¾²à½¼ à¾ĥà¼ĭ
à¾Ļ à¾±à½±à¼ĭ
à½£à½ĺ à½ĸà½¦
à½İ à½Ĳ
à½¡à½ĵ à½¡
à¼§ à¼¢à¼¢
à¼§ à¼¥à¼©
à½ħà½Ĥ à½Ĥà½¡
à½ķà½ĺ à½Ķà½¢
à¾²à½±à½²à¼ĭ à¼½à¼¼
à¼¡à¼¤ à¼§à¼¨
à¼¡à¼§ à¼¤à¼¡
à¼¡à¼¦ à¼§à¼£
à¾´ à¼įà¼į
à¾²à½± à½¼à½¾à¼ĭ
Ġà½Ģ à½Ģ
à¼©à¼© à¼¤
à¼§à¼¦ à¼¤
à¼łà¼łà¼łà¼łà¼łà¼łà¼łà¼ł à¼łà¼ł
à¼¡à¼¡à¼¤ à¼¢
à¼įà¼ĭà¼ĭà¼ĭà¼ĭà¼ĭà¼ĭà¼ĭà¼ĭà¼ĭà¼ĭà¼ĭà¼ĭà¼ĭà¼ĭà¼ĭà¼ĭà¼ĭà¼ĭà¼ĭà¼ĭà¼ĭà¼ĭà¼ĭà¼ĭà¼ĭà¼ĭà¼ĭà¼ĭà¼ĭà¼ĭà¼ĭà¼ĭà¼ĭà¼ĭà¼ĭà¼ĭà¼ĭà¼ĭà¼ĭà¼ĭà¼ĭà¼ĭà¼ĭà¼ĭà¼ĭà¼ĭà¼ĭà¼ĭà¼ĭà¼ĭà¼ĭà¼ĭà¼ĭà¼ĭà¼ĭà¼ĭà¼ĭà¼ĭà¼ĭà¼ĭà¼ĭà¼ĭà¼ĭà¼ĭà¼ĭà¼ĭà¼ĭà¼ĭà¼ĭà¼ĭà¼ĭà¼ĭà¼ĭà¼ĭà¼ĭà¼ĭà¼ĭà¼ĭà¼ĭà¼ĭ à¼ĭ
à½Łà½Ĩ à½«
à½Ĩà½Ĩ à½Ĩà½Ĩ
à¼įà¼ĭà¼ĭà¼ĭà¼ĭà¼ĭà¼ĭà¼ĭà¼ĭà¼ĭà¼ĭà¼ĭà¼ĭà¼ĭà¼ĭà¼ĭà¼ĭà¼ĭà¼ĭà¼ĭà¼ĭà¼ĭà¼ĭà¼ĭà¼ĭà¼ĭà¼ĭà¼ĭà¼ĭà¼ĭà¼ĭà¼ĭà¼ĭà¼ĭà¼ĭà¼ĭà¼ĭà¼ĭà¼ĭà¼ĭà¼ĭà¼ĭà¼ĭà¼ĭà¼ĭà¼ĭà¼ĭà¼ĭà¼ĭà¼ĭà¼ĭà¼ĭà¼ĭà¼ĭà¼ĭà¼ĭà¼ĭà¼ĭà¼ĭà¼ĭà¼ĭà¼ĭà¼ĭà¼ĭà¼ĭà¼ĭà¼ĭà¼ĭà¼ĭà¼ĭà¼ĭà¼ĭà¼ĭà¼ĭà¼ĭà¼ĭà¼ĭà¼ĭà¼ĭà¼ĭà¼ĭà¼ĭà¼ĭà¼ĭà¼ĭà¼ĭà¼ĭà¼ĭà¼ĭà¼ĭà¼ĭà¼ĭà¼ĭà¼ĭà¼ĭà¼ĭà¼ĭà¼ĭà¼ĭà¼ĭà¼ĭà¼ĭà¼ĭà¼ĭà¼ĭ à¼ĭà¼ĭ
Ġ à½ĸà½¤à½Ĥà½¦
Ġ à¼¢à¼łà¼¡à¼¤
à½¦ à½ĺà½¢
à½ĸ à½ĵà½Ĥ
à½¼ à½²
à½Ķ à½Ĥà½ĵ
à½Ĥà½¦ à½ĳà½ĸ
à½¡ à½ĳà½Ħ
à¾Ł à½±à¼įà¼į
à½ĺà½¦ à½Ĳ
à¾Ĳ à½ºà¼įà¼į
à¾±à¼ĭ à½±
à¾¦ à½²à½¾à¼ĭ
à½ħà½ĵ à½ĸ
à½Ľ à½£à½¦
à½²à¼į à¼Įà¼Įà¼Įà¼Į
à½ĸà½¦à½ĺ à½Ķà½¦
à½Ĥà½¦à½Ħ à½ĸà½ł
à½İ à½Ĥ
à¾ľ à½±à¼į
à½Ĵ à½¢à½¦
à½Ĵ à½ķà½Ĳ
à¼© à¼£à¼ł
à½ĺà½ĳà½ł à½¦
Ġà½£ à½ĸ
à¼¡à¼ł à¼¥à¼¤
à½ĳà½Ĥà½¦ à½ĳ
à¼¡à¼¦ à¼¡à¼¢
à½Ķà½£ à½Ķà½¦
à¾¾à¾¾à¾¾à¾¾ à¾¾
à¼įà¼ĭà¼ĭà¼ĭà¼ĭà¼ĭà¼ĭà¼ĭà¼ĭà¼ĭà¼ĭà¼ĭà¼ĭà¼ĭà¼ĭà¼ĭà¼ĭà¼ĭà¼ĭà¼ĭà¼ĭà¼ĭà¼ĭà¼ĭà¼ĭà¼ĭà¼ĭà¼ĭà¼ĭà¼ĭà¼ĭà¼ĭà¼ĭ à¼ĭà¼ĭà¼ĭà¼ĭ
à¾¨à¾¨ à½¿à¼į
à¼įà¼ĭà¼ĭà¼ĭà¼ĭà¼ĭà¼ĭà¼ĭà¼ĭà¼ĭà¼ĭà¼ĭà¼ĭà¼ĭà¼ĭà¼ĭà¼ĭà¼ĭà¼ĭà¼ĭà¼ĭà¼ĭà¼ĭà¼ĭà¼ĭà¼ĭà¼ĭà¼ĭà¼ĭà¼ĭà¼ĭà¼ĭà¼ĭà¼ĭà¼ĭà¼ĭà¼ĭà¼ĭà¼ĭà¼ĭà¼ĭà¼ĭà¼ĭà¼ĭà¼ĭà¼ĭà¼ĭà¼ĭà¼ĭà¼ĭà¼ĭà¼ĭà¼ĭà¼ĭà¼ĭà¼ĭà¼ĭà¼ĭà¼ĭà¼ĭà¼ĭà¼ĭà¼ĭà¼ĭà¼ĭà¼ĭà¼ĭà¼ĭà¼ĭà¼ĭà¼ĭà¼ĭà¼ĭà¼ĭà¼ĭà¼ĭà¼ĭà¼ĭà¼ĭà¼ĭà¼ĭà¼ĭà¼ĭà¼ĭà¼ĭà¼ĭà¼ĭà¼ĭà¼ĭà¼ĭà¼ĭà¼ĭà¼ĭà¼ĭà¼ĭà¼ĭà¼ĭà¼ĭà¼ĭà¼ĭà¼ĭà¼ĭà¼ĭà¼ĭà¼ĭà¼ĭà¼ĭà¼ĭà¼ĭà¼ĭà¼ĭà¼ĭà¼ĭ à¼ĭà¼ĭà¼ĭà¼ĭà¼ĭà¼ĭ
à¼ĭ à¾ľà¼ĭ
à½¦ à½Łà½ĸ
à½ĸ à½£à½Ĥ
à½ĵ à½łà½ķ
à½º à½´
à¾² à¾Ł
à½Ģ à½īà½ł
à¾Ł à¾²à½¿à¼ĭ
à½ĳà½Ħ à½ĺà½Ĩ
à½Ķà½ł à½¤
à½ĺà½¦ à½ĳà½Ķà½¦
à¾¡ à¼ĭà¼½
à¾¨ à¾³à½¼
à¾²à¼ĭ à¼º
à½ĩ à½Ĥà½¦
à½ĺà½ļà½ĵ à½ĳà½Ħ
à¼ĭà¼ĭ à¼½
à½£à½ĺ à½¡
à½ĸà½ı à½¦
à¾Ļà½º à½º
à½´à¼į à¼Ī
à½´à¼į à¼Įà¼Įà¼Į
à¾Ĵà¾²à¼ĭ à¼ĳ
à½ºà¼įà¼į à¼Į
à½Ĭ à½¨
à¼ł à¼¡à¼§
à¼§ à¼£à¼¥
à¾·à½¼à¼ĭ à¼¼
à¾µ à¾ŀà¼į
à½ħà½¢ à½Į
à¼¡à¼¤ à¼§à¼¦
à¾Ľ à½¾à¼į
à¼¡à¼¨ à¼¡à¼©
à¾¦à¾· à½ºà¼įà¼į
à¼ĭà½µ à¾Ĥà¼ĭ
à¼įà¼½ à¼įà¼į
à¼§à¼© à¼¤
Ġà¼© à¼¤
Ġà¼¡à¼¢ à¼§
à½±à½¼ à½´à½¾à¼ĭ
à¾±à¾Ń à¼ĭà¼´
Ġà¼´ à¼´
Ġ à½Ĩà½¦
à½² à¼µà¼į
à¾Ł à¾Łà½´à¼ĭ
à¾Ĵ à½¾à¼į
à½Ķà½¢ à½Ĥà½ı
à½Ķà½¢ à½Ĩà½Ĥà½¦
à½¤ à½£à½¦
à½¡à½Ħ à½ĺà½ĳ
à½ĺà½Ĳ à½Ĳ
à½Ļ à½łà½ĺ
à½ħà½ĵ à½ı
à¾±à½ºà¼ĭ à¼Ħà¼ħà¼įà¼į
à½¨ à½Ł
à½łà½ĳà½¦ à½Ķà½¢
à¾Ĵà½¼à¼ĭ à¼Ħà¼ħà¼įà¼į
à¾Ĵà¾²à¼ĭ à¼½
à½İ à½łà½ĺ
à½£à½ĵ à½ħ
à¼ł à¼¦à¼ł
à¾µ à½±à½´à½¾à¼ĭ
à¼¡à¼ł à¼¥à¼©
à¾¡à¾·à¼ĭ à¾İ
à¼¡à¼¤ à¼¤à¼ł
à¼¡à¼¥ à¼¦à¼¦
à¼Ħà¼ħ à¼Ķ
Ġà¼¡ à¼¡à¼¥
à¼ĭà¾§ à½ºà¼į
à¼§à¼§ à¼¡
Ġà¼¨ à¼¨
à½Ħà½Ķ à½ĸà½ł
à¾·à½±à½´ à½¿à¼ĭ
à¼įà¼ĭà¼ĭà¼ĭà¼ĭà¼ĭà¼ĭà¼ĭà¼ĭà¼ĭà¼ĭà¼ĭà¼ĭà¼ĭà¼ĭà¼ĭà¼ĭà¼ĭà¼ĭà¼ĭà¼ĭà¼ĭà¼ĭà¼ĭà¼ĭà¼ĭà¼ĭà¼ĭà¼ĭà¼ĭà¼ĭà¼ĭà¼ĭà¼ĭà¼ĭà¼ĭà¼ĭà¼ĭà¼ĭà¼ĭà¼ĭà¼ĭà¼ĭà¼ĭà¼ĭà¼ĭà¼ĭà¼ĭà¼ĭà¼ĭà¼ĭà¼ĭà¼ĭà¼ĭà¼ĭà¼ĭà¼ĭà¼ĭà¼ĭà¼ĭà¼ĭà¼ĭà¼ĭà¼ĭà¼ĭà¼ĭà¼ĭà¼ĭà¼ĭà¼ĭà¼ĭà¼ĭà¼ĭà¼ĭà¼ĭà¼ĭà¼ĭà¼ĭà¼ĭà¼ĭà¼ĭà¼ĭà¼ĭà¼ĭà¼ĭà¼ĭà¼ĭà¼ĭà¼ĭà¼ĭà¼ĭà¼ĭà¼ĭà¼ĭà¼ĭà¼ĭà¼ĭà¼ĭà¼ĭà¼ĭà¼ĭà¼ĭà¼ĭà¼ĭà¼ĭà¼ĭà¼ĭà¼ĭà¼ĭà¼ĭà¼ĭà¼ĭà¼ĭ à¼ĭ
Ġà¼ĭà¼ĭà¼ĭà¼ĭà¼ĭà¼ĭà¼ĭà¼ĭà¼ĭà¼ĭà¼ĭà¼ĭà¼ĭà¼ĭà¼ĭà¼ĭà¼ĭà¼ĭà¼ĭà¼ĭà¼ĭà¼ĭà¼ĭà¼ĭà¼ĭà¼ĭà¼ĭà¼ĭà¼ĭà¼ĭà¼ĭà¼ĭà¼ĭà¼ĭà¼ĭà¼ĭà¼ĭà¼ĭà¼ĭà¼ĭà¼ĭà¼ĭà¼ĭà¼ĭà¼ĭà¼ĭà¼ĭà¼ĭà¼ĭà¼ĭà¼ĭà¼ĭà¼ĭà¼ĭà¼ĭà¼ĭà¼ĭà¼ĭà¼ĭà¼ĭà¼ĭà¼ĭà¼ĭà¼ĭà¼ĭà¼ĭà¼ĭà¼ĭà¼ĭà¼ĭà¼ĭà¼ĭà¼ĭà¼ĭà¼ĭà¼ĭà¼ĭà¼ĭà¼ĭà¼ĭà¼ĭà¼ĭà¼ĭà¼ĭà¼ĭà¼ĭà¼ĭà¼ĭà¼ĭà¼ĭà¼ĭà¼ĭà¼ĭà¼ĭà¼ĭà¼ĭà¼ĭà¼ĭà¼ĭà¼ĭà¼ĭà¼ĭà¼ĭà¼ĭ à¼ĭà¼ĭ
à½Ĥ à½łà½Ľ
à½Ħ à½łà½ķ
à½Ķ à½£à½ĺ
à½²à¼ĭ à½¾à¼į
à½£ à½ĺà½ļ
à¾² à½½à¼į
à¾² à¼µà½¼
à½¼à¼ĭ à¼Įà¼į
à½Ģ à½łà½ĳ
à¾Ł à½¾à¼Ķ
à½ĸà½¦ à½Ł
à½ģ à½ª
à½ĺà½¦ à½¡à½Ħ
à½Ķà½¢ à½ī
à½£à½¦ à½¡à½Ħ
à¾Ļ à½¾à¼ĭ
à½łà½ĩ à½Ħà½¦
à½ħà½ĵ à½łà½ĳ
à½§ à½Ķ
à¾Ĺà½ºà¼ĭ à¼¸
à½Ĥà½¡ à½Ĳà½Ĳ
à½ĺà½Ĳà½ł à½¦
à½ķà½ĵ à½Ķà½ł
à½Ŀ à½ļà½Ķà½Ķ
à¾¤à¾±à½² à¼Ķ
à½Łà½¦ à½Ģ
à½Ĺ à½Łà½Ĥ
à½½ à¼Ķ
à¼ĭà¾ ģ
à¼¡à¼§ à¼¤à¼©
à¼¡à¼§ à¼£à¼¢
à¼¡à¼¦ à¼©à¼©
à¼¡à¼¦ à¼©à¼¨
à¼¡à¼¦ à¼§à¼¤
à¼¡à¼¨ à¼¡à¼ł
à¾¨à½¼à¼ĭ à¼¸
à½łà½ĳà½¢ à½¢
à½Ĥà½Ķ à½ı
à¼įà¼ĭà¼ĭà¼ĭà¼ĭà¼ĭà¼ĭà¼ĭà¼ĭà¼ĭà¼ĭà¼ĭà¼ĭà¼ĭà¼ĭà¼ĭà¼ĭà¼ĭà¼ĭà¼ĭà¼ĭà¼ĭà¼ĭà¼ĭà¼ĭà¼ĭà¼ĭà¼ĭà¼ĭà¼ĭà¼ĭà¼ĭà¼ĭà¼ĭà¼ĭà¼ĭà¼ĭà¼ĭà¼ĭà¼ĭà¼ĭà¼ĭà¼ĭà¼ĭà¼ĭà¼ĭà¼ĭà¼ĭà¼ĭà¼ĭà¼ĭà¼ĭà¼ĭà¼ĭà¼ĭà¼ĭà¼ĭà¼ĭà¼ĭà¼ĭà¼ĭà¼ĭà¼ĭà¼ĭà¼ĭ à¼ĭà¼ĭ
à¼§à¼¦ à¼¨
à½Ĥà½Ŀ à½«
à¾·à¾Ń à½¿à¼į
à½ľ à½ł
à¼¡à¼¥à¼ł à¼©
Ġà¼ĭà¼ĭà¼ĭà¼ĭà¼ĭà¼ĭà¼ĭà¼ĭà¼ĭà¼ĭà¼ĭà¼ĭà¼ĭà¼ĭà¼ĭà¼ĭ à¼ĭà¼ĭà¼ĭà¼ĭà¼ĭà¼ĭ
Ġ à½ĵà½ĺà½¦
Ġ à½¦à½Ħ
à½¦ à½īà½ĺà½¦
à½¦ à½īà½ĵ
à½Ĥ à½Ĥà½ĵ
à½ĸ à½ĺà½Ĳà½ł
à½£ à½Ĥà½¦à½Ħ
à½Ģ à½Ĥà½¦
à½Ĩ à½ĳà½ĳ
à½ı à½ĵà½¦
à½ļ à½¨
à½ļ à½İ
à½Ķà½¢ à½¢à½ĸ
à¾Ĳ à½±à½´à¼ĭ
à½Ħà½¦ à½ĳà½Ĥ
à¾¤ à¾¡à½¼à¼ĭ
à¾Ķ à½¼à¼įà¼įà¼įà¼į
à¾· à¾±à½ºà½¿à¼ĭ
à½ĺà½ļà½ĵ à½ĳ
à½Ĥà½Ļ à½Ħà½¦
à¾¤à¾±à½²à¼ĭ à½Īà½¼
à¼£ à¼łà¼łà¼łà¼ł
à¼§ à¼¤à¼¦
à¼¨ à¼¢à¼¤
à¼¨ à¼£à¼ł
à½łà½Ĥà½Ĥ à½Ĥà½¡
à¾µ à¾³à¾Ģà¼ĭ
à¼¡à¼¢ à¼¦à¼¥
à½¢à½ı à½ł
à¾ŀ à½±à½¾à¼į
à¼¡à¼¥ à¼¤à¼£
à¼¡à¼¦ à¼¦à¼¨
à¼¡à¼¦ à¼©à¼¤
à¾·à¾±à½¼ à½¿à¼į
à¾Łà½ºà¼ĭà¼ĳ à¼ĳ
à¾¡à¾² à½¿à¼į
à¼¨à¼ł à¼¨
à¼§à¼¨ à¼¦
Ġà¼ĭà¼ĭà¼ĭà¼ĭà¼ĭà¼ĭà¼ĭà¼ĭà¼ĭà¼ĭà¼ĭà¼ĭà¼ĭà¼ĭà¼ĭà¼ĭà¼ĭà¼ĭà¼ĭà¼ĭà¼ĭà¼ĭà¼ĭà¼ĭà¼ĭà¼ĭà¼ĭà¼ĭà¼ĭà¼ĭà¼ĭà¼ĭà¼ĭà¼ĭà¼ĭà¼ĭà¼ĭà¼ĭà¼ĭà¼ĭà¼ĭà¼ĭà¼ĭà¼ĭà¼ĭà¼ĭà¼ĭà¼ĭà¼ĭà¼ĭà¼ĭà¼ĭà¼ĭà¼ĭà¼ĭà¼ĭà¼ĭà¼ĭà¼ĭà¼ĭà¼ĭà¼ĭà¼ĭà¼ĭà¼ĭà¼ĭà¼ĭà¼ĭà¼ĭà¼ĭà¼ĭà¼ĭà¼ĭà¼ĭà¼ĭà¼ĭà¼ĭà¼ĭà¼ĭà¼ĭà¼ĭà¼ĭà¼ĭà¼ĭà¼ĭà¼ĭà¼ĭà¼ĭà¼ĭà¼ĭà¼ĭà¼ĭà¼ĭà¼ĭà¼ĭà¼ĭ à¼ĭà¼ĭà¼ĭà¼ĭà¼ĭ
à¼įà¼ĭà¼ĭà¼ĭà¼ĭà¼ĭà¼ĭà¼ĭà¼ĭà¼ĭà¼ĭà¼ĭà¼ĭà¼ĭà¼ĭà¼ĭà¼ĭà¼ĭà¼ĭà¼ĭà¼ĭà¼ĭà¼ĭà¼ĭà¼ĭà¼ĭà¼ĭà¼ĭà¼ĭà¼ĭà¼ĭà¼ĭà¼ĭ à¼ĭà¼ĭà¼ĭà¼ĭà¼ĭà¼ĭà¼ĭà¼ĭà¼ĭà¼ĭà¼ĭà¼ĭà¼ĭà¼ĭà¼ĭ
Ġ à½łà½ļà½£
à½¦ à½ĳà½Ĥà½ł
à½ĳ à½ĳà½Ģ
à½¢ à½Ĳà½ĺà½¦
à½ĵ à½ĸà½¦à½ĺ
à½ĵ à½Łà½Ħ
à½£ à½£à½ĺ
à½£ à½ĸà½¤à½ĳ
à½£ à½ĸà½ĸ
à½ĳà½Ħ à½łà½ģ
à½ĳà½Ħ à½ĺà½Ħ
à½Ķà½¢ à½ĸà½ŀ
à½Ķà½¢ à½ĸà½£
à½ĳà½Ĥ à½ĸà½¢
à½Ħà½¦ à½Ħ
à¾¡ à¾Ńà¼ĭ
à¾³ à¾º
à¾²à½´ à½¾
à½ĺà½Ĳ à½ĸ
à¾¨ à¼ĭà¼½
à½ĳà½ĺ à½ŀ
à½Ĥà½ĵà½¦ à½Ħà½ĵ
à½¨ à½¢à½ł
à½¢à½ĸ à½ĵ
à½ĸà½Ĥ à½Ļ
à¾Ĵà¾²à¼ĭ à¼Ħà¼ħà¼įà¼į
à½İ à½§
à½ĺà½ļà½ĺà½¦ à½Ģ
à¾·à½´ à½¾
à½ļà½Ħà½¦ à½Ķ
à¼ĳ à¼ĳ
à¾ª à¾²à¼ĭ
à¼¡à¼¢ à¼§à¼ł
à¾Ħ à¾Ħà¼į
à¼¡à¼¨ à¼¢à¼¥
à¼¡à¼¨ à¼¢à¼¨
à¼¡à¼¨ à¼¤à¼¨
à½±à½¾à¼į à¼Įà¼Įà¼Į
à½ĭ à½£à½¦
à½¦à½Ķ à½Ĥ
à¾´ à½¿à¼ĭ
à½±à¾Ģ à¼Ķ
Ġà¼Ħà¼ħà¼ħ à¼įà¼Ħà¼ħà¼įà¼į
à½¦ à½ĸà½¦à½ĺà½¦
à½ĳ à½ĺà½ļà½ĵ
à½Ħ à½ĩ
à½Ķ à½ħà½¦
à½£ à½¢à½Ĥ
à½¡ à½Ĭà½ł
à¾Ł à¾²à½¼à¼ĭ
à¾Ĵ à¾Ĳà½¼
à¾±à½²à¼ĭ à¼ĭ
à½¤ à½§
à¾£ à¾³à½¼
à½Ł à½ĸà½ł
à¾¡ à¾¡à¾·
à¾³ à¾¤à½º
à¾²à½¼ à½¾à¼Ķ
à½ĳà½Ķ à½ĳà½Ħ
à½¾ à½¾
à¾©à½¼ à½¼
à½¿ à¼ĭà¼Ħà¼ħà¼įà¼į
à¾¤à½º à¼Ķ
à¼¨ à¼¥à¼ł
à¼¡à¼¢ à¼©à¼§
à¼¡à¼£ à¼¡à¼¤
à¼¡à¼£ à¼§à¼¥
à¼¡à¼¤ à¼£à¼¤
à½Łà½Ħ à½Ł
à¼¡à¼§ à¼£à¼¦
à¼¡à¼¦ à¼£à¼¡
à¼ĭà¾¢ à¾±à½±à¼ĭ
à½ĥ à½ĸà½Ľ
à¾Ļà½± à½¼à¼ĭ
à½Ķà½Ķ à½Ķà½ķ
à¼¡à¼¤à¼ł à¼¨
à¼įà¼ĭà¼ĭà¼ĭà¼ĭà¼ĭà¼ĭà¼ĭà¼ĭà¼ĭà¼ĭà¼ĭà¼ĭà¼ĭà¼ĭà¼ĭà¼ĭà¼ĭà¼ĭà¼ĭà¼ĭà¼ĭà¼ĭà¼ĭà¼ĭà¼ĭà¼ĭà¼ĭà¼ĭà¼ĭà¼ĭà¼ĭà¼ĭà¼ĭà¼ĭà¼ĭà¼ĭà¼ĭà¼ĭà¼ĭà¼ĭà¼ĭà¼ĭà¼ĭà¼ĭà¼ĭà¼ĭà¼ĭà¼ĭà¼ĭà¼ĭà¼ĭà¼ĭà¼ĭà¼ĭà¼ĭà¼ĭà¼ĭà¼ĭà¼ĭà¼ĭà¼ĭà¼ĭà¼ĭà¼ĭà¼ĭà¼ĭà¼ĭà¼ĭà¼ĭà¼ĭà¼ĭà¼ĭà¼ĭà¼ĭà¼ĭà¼ĭà¼ĭà¼ĭà¼ĭà¼ĭà¼ĭà¼ĭà¼ĭà¼ĭà¼ĭà¼ĭà¼ĭà¼ĭà¼ĭà¼ĭà¼ĭà¼ĭà¼ĭà¼ĭà¼ĭà¼ĭ à¼ĭà¼ĭà¼ĭà¼ĭà¼ĭà¼ĭà¼ĭ
à¼¡à¼©à¼¦à¼¨ à¼¡à¼©à¼¦à¼©
à¼įà¼ĭà¼ĭà¼ĭà¼ĭà¼ĭà¼ĭà¼ĭà¼ĭà¼ĭà¼ĭà¼ĭà¼ĭà¼ĭà¼ĭà¼ĭà¼ĭà¼ĭà¼ĭà¼ĭà¼ĭà¼ĭà¼ĭà¼ĭà¼ĭà¼ĭà¼ĭà¼ĭà¼ĭà¼ĭà¼ĭà¼ĭà¼ĭà¼ĭà¼ĭà¼ĭà¼ĭà¼ĭà¼ĭà¼ĭà¼ĭ à¼ĭà¼ĭà¼ĭ
Ġ à¼¡à¼¥à¼ł
à½¦ à½Ģà½ł
à½ĳ à½¦à½Ħà½¦
à½Ĥ à½ĺà½ļ
à½Ĥ à½ĸà½Ĥ
à½ĸ à½Ķà½ĳ
à½ĸ à½Ŀà½Ħ
à½¢ à½ĺà½Ĥ
à½¢ à½ĵà½ĳ
à½ĵ à½ĸà½Ĥ
à½Ķ à½ĺà½ģ
à½£ à½īà½£
à½ºà¼ĭ à¼ĭ
à¾Ł à¼·à½º
à½ĸà½¦ à½ī
à½Ĳ à½Ł
à¾Ĳ à¼ĭà¼½
à½Ł à½ķà½Ł
à½¡à½Ħ à½ĸà½ĳà½Ĥ
à½Ķà½¦ à½łà½ĸ
à½Ľ à½ģ
à½Ĳà½ĺà½¦ à½Ķà½ħ
à½¨ à½ģà½¦
à¼Ķ à¼¼
à½£à½ĺ à½īà½ĺ
à½¾ à½²à¼ĭ
à½¼à¼į à¼ĭà¼ĭà¼ĭà¼ĭà¼į
à¾³à½´ à¼·
à¾¨à¾² à½¾à¼ĭ
à¾¨à¾² à¾Ģà¼į
Ġà¼ ī
à¾³à½´à¼ĭ à¼½
à½ģà½¦ à½ĺ
Ġà¼Ī à¼įà¼į
à¼¡à¼¢ à¼£à¼¥
à¼¡à¼§ à¼¥à¼£
à¼¡à¼¦ à¼£à¼ł
à¼¡à¼¦ à¼¢à¼¢
à¼¡à¼¦ à¼¥à¼¦
à¼¡à¼¨ à¼¨à¼¤
à¾ĭ à½ĵ
à½ĭ à½ĺ
à¾Ī à½Ģ
à¼©à¼§ à¼£
à¼§à¼© à¼¡
Ġà¼¨ à¼¡
à¼©à¼ł à¼¢
à¼§à¼¦ à¼¥
à¼©à¼¨ à¼¢
à¾ŀà¾ŀ à½¾à¼į
à¾¡à¾·à¼ĭà¾İ à¼¼
à½Ĥ à½ĸà½Ģ
à½ĸ à½ĺà½ĳ
à½ĸ à½ĺà½ł
à½¢ à½ĺà½ļà½ĵ
à½ĵ à½Ļà½ĺ
à½ĺ à½Ĥà½Ł
à½Ĥà½¦ à½Ł
à½Ķà½ł à½Ĥà½ł
à½ģ à½Ŀ
à¾£ à¼µà¼ĭ
à¾²à½² à¼µ
à½ĺà½Ĳ à½ĸà½¦
à½ĳà½Ķ à½ħ
à¾±à½ºà¼ĭ à¼¼
à½¨ à½Ļà½¢
à¾Ĵà½¼ à¼·
à¼¡à¼ł à¼¢à¼¤
à¼¡à¼ł à¼§à¼©
à½¼à¼ĭà¼ĳ à¾ľà¼ĭà¼ĳ
à¼¡à¼¢ à¼¡à¼ł
à¼¡à¼£ à¼§à¼¤
à¾ŀ à½²à¼į
à¼¡à¼§ à¼£à¼©
à¼¡à¼§ à¼©à¼¤
à¼¡à¼¦ à¼£à¼¥
à¼¡à¼¦ à¼§à¼ł
à¼¡à¼¦ à¼§à¼¦
à¼¡à¼¨ à¼£à¼¢
Ġà¼ł à¼£
Ġà¼¡ à¼¡à¼¤
à¼įà¼ĭà¼ĭà¼ĭà¼ĭà¼ĭà¼ĭà¼ĭà¼ĭà¼ĭà¼ĭà¼ĭà¼ĭà¼ĭà¼ĭà¼ĭà¼ĭà¼ĭà¼ĭà¼ĭà¼ĭà¼ĭà¼ĭà¼ĭà¼ĭà¼ĭà¼ĭà¼ĭà¼ĭà¼ĭà¼ĭà¼ĭà¼ĭà¼ĭà¼ĭà¼ĭà¼ĭà¼ĭà¼ĭà¼ĭà¼ĭà¼ĭà¼ĭà¼ĭà¼ĭà¼ĭà¼ĭà¼ĭà¼ĭà¼ĭà¼ĭà¼ĭà¼ĭà¼ĭà¼ĭà¼ĭà¼ĭà¼ĭà¼ĭà¼ĭà¼ĭà¼ĭà¼ĭà¼ĭà¼ĭ à¼ĭà¼ĭà¼ĭà¼ĭà¼ĭ
ĠĠĠĠĠĠĠĠ ĠĠĠĠĠĠ
à½Ķà½Ķ à½Ķ
à½´à¼ĭà½Ī à¾±à½ºà¼ĭ
à¼įà¼ĭà¼ĭà¼ĭà¼ĭà¼ĭà¼ĭà¼ĭà¼ĭà¼ĭà¼ĭà¼ĭà¼ĭà¼ĭà¼ĭà¼ĭà¼ĭà¼ĭà¼ĭà¼ĭà¼ĭà¼ĭà¼ĭà¼ĭà¼ĭà¼ĭà¼ĭà¼ĭà¼ĭà¼ĭà¼ĭà¼ĭà¼ĭà¼ĭà¼ĭà¼ĭà¼ĭà¼ĭà¼ĭà¼ĭà¼ĭà¼ĭà¼ĭà¼ĭà¼ĭà¼ĭà¼ĭà¼ĭà¼ĭ à¼ĭà¼ĭà¼ĭà¼ĭà¼ĭà¼ĭà¼ĭà¼ĭà¼ĭ
à¿ İ
à½ģà½ģ à½ģ
Ġà¼ĭà¼ĭà¼ĭà¼ĭà¼ĭà¼ĭà¼ĭà¼ĭà¼ĭà¼ĭà¼ĭà¼ĭà¼ĭà¼ĭà¼ĭà¼ĭà¼ĭà¼ĭà¼ĭà¼ĭà¼ĭà¼ĭà¼ĭà¼ĭà¼ĭà¼ĭà¼ĭà¼ĭà¼ĭà¼ĭà¼ĭà¼ĭà¼ĭà¼ĭà¼ĭà¼ĭà¼ĭà¼ĭà¼ĭà¼ĭà¼ĭà¼ĭà¼ĭà¼ĭà¼ĭà¼ĭà¼ĭà¼ĭà¼ĭà¼ĭà¼ĭà¼ĭà¼ĭà¼ĭà¼ĭà¼ĭà¼ĭà¼ĭà¼ĭà¼ĭà¼ĭà¼ĭà¼ĭà¼ĭà¼ĭà¼ĭà¼ĭà¼ĭà¼ĭà¼ĭà¼ĭà¼ĭà¼ĭà¼ĭà¼ĭà¼ĭà¼ĭà¼ĭà¼ĭà¼ĭà¼ĭà¼ĭà¼ĭà¼ĭà¼ĭà¼ĭà¼ĭà¼ĭà¼ĭà¼ĭà¼ĭà¼ĭà¼ĭà¼ĭà¼ĭà¼ĭ à¼ĭà¼ĭà¼ĭà¼ĭà¼ĭà¼ĭà¼ĭà¼ĭà¼ĭà¼ĭà¼ĭà¼ĭà¼ĭà¼ĭ
Ġ à½īà½Ĥ
Ġ à¾Īà¾Ī
à¼ĭ à¾±à½º
à½¦ à½Ķà½Ĥà½¦
à½ĸ à½Ĳà½ĸ
à½¼ à½º
à½ºà¼ĭ à¼į
à¾Ł à¾Łà½¾à¼ĭ
à½Ĳ à½ĸà½¦à½ĺ
à½¤ à½ĳà½Ĥ
à½¤ à½Ĥà½¦à½£
à¾Ĳ à½±à½¿à¼ĭ
à½Ħà½¦ à½ĩ
à½ĵà½¦ à½ĳà½Ħ
à½£à½¦ à½łà½Ĥ
à½Ķà½¦ à½Ĥà½Ł
à¾Ķ à¼µà¼ĭ
à¾²à½¼ à½¾à¼į
à¾Ļ à½±à¼įà¼į
à¾¨ à½ºà¼įà¼į
à¾¦ à½±à½¿à¼į
à½Ľ à½İ
à½Ĥà½ħ à½Ĳ
à½Ĥà½ı à½¦
à¼Ķ à¼į
à½Ħà½ĵ à½Ĥ
à¾ķ à½´à¼ĭ
à½£à½Ĥà½¦ à½ŀ
à¼ł à¼¡à¼¤
à¼· à¼ĭà¼·
à½Ĵ à½ķà½Ľ
à¾±à½¼à¼ĭ à½Īà½²
à½¡à½Ĥ à½¥
à½łà½ļà½Ħ à½¢
à¼¡à¼£ à¼¦à¼£
à¾¡à¾· à½»à¼ĭ
à¼¡à¼¥ à¼¡à¼¦
à¼¡à¼§ à¼¥à¼¥
à¼¡à¼§ à¼¤à¼¢
à¼¡à¼¦ à¼©à¼ł
à¼¡à¼¨ à¼¨à¼§
à¾¥ à¾±à½¼
à½´à½¾à¼ĭ à½±à½´à¾ĥà¼ĭ
à½²à¼ĭà¼¼ à¼½
Ġà¼ĭà¼ĭà¼ĭà¼ĭà¼ĭà¼ĭà¼ĭà¼ĭà¼ĭà¼ĭà¼ĭà¼ĭà¼ĭà¼ĭà¼ĭà¼ĭà¼ĭà¼ĭà¼ĭà¼ĭà¼ĭà¼ĭà¼ĭà¼ĭà¼ĭà¼ĭà¼ĭà¼ĭà¼ĭà¼ĭà¼ĭà¼ĭà¼ĭà¼ĭà¼ĭà¼ĭà¼ĭà¼ĭà¼ĭà¼ĭà¼ĭà¼ĭà¼ĭà¼ĭà¼ĭà¼ĭà¼ĭà¼ĭà¼ĭà¼ĭà¼ĭà¼ĭà¼ĭà¼ĭà¼ĭà¼ĭà¼ĭà¼ĭà¼ĭà¼ĭà¼ĭà¼ĭà¼ĭà¼ĭ à¼ĭà¼ĭà¼ĭà¼ĭà¼ĭà¼ĭà¼ĭà¼ĭà¼ĭà¼ĭ
à¾¨à¾± à¾Ģ
à½į à½ĺ
à¼§à¼¨ à¼¡
à¾° à½¿à¼ĭ
à¼¡à¼§à¼ł à¼£
à½Ĺà½ģ à½¡
à½Ĵà½Ĳ à½Ĥà½Ł
à½¼à¼ĭà½Ī à½ºà¼ĭ
à¼įà¼ĭà¼ĭà¼ĭà¼ĭ à¼ĭà¼¼
à¼įà¼įà¼įà¼įà¼įà¼įà¼įà¼įà¼įà¼įà¼įà¼įà¼įà¼įà¼įà¼į à¼įà¼įà¼įà¼įà¼įà¼įà¼įà¼įà¼įà¼įà¼įà¼įà¼įà¼įà¼įà¼į
à½ĺà½Į à½İà½£
Ġ à½Ĥà½ŀà½Ĥ
à½Ĥ à½ĸà½Ģà½ł
à½ĸ à½ĳà½ĸà½Ħ
à½Ħ à½Ĥà½ı
à½Ħ à½ĺà½Ĥ
à½ĺ à½ĺà½Ħ
à½Ģ à½ĺà½¦
à½Ĳ à½Ļ
à½Ĳ à½ĸà½¤
à½Ħà½¦ à½ħà½ĵ
à½łà½Ĥ à½łà½ĺ
à½¡à½Ħ à½ł
à¾· à¾³à½±à¾Ģà¼ĭ
à½Ļ à½§
à¾¦ à½±à½¾à¼ĭ
à½ĺà½Ĩ à½Ħ
à½ĺà½Ħ à½ĸ
à½ĳà½Ģ à½Ħ
à¼Ķ à¼½
à¾Ĵà¾²à½´ à¼·
à¾Ĳà½´à¼ĭ à¼Ħà¼ħà¼įà¼į
à½łà½Ĳ à½ĳà½ĳ
à½Ħà½Ĥ à½£
à½ĸà½£ à½ł
à¾£à½¼ à¼Ķ
à½¦à½ĺ à½ŀ
à¾ľ à¾»à¼ĭ
à¼© à¼¦à¼¨
à½łà½Ľà½ĺ à½ĸ
à½¢à½Ĥ à½£à½¦
à½ĺà½īà½ĵ à½¡
à¼¡à¼ł à¼¢à¼ł
à¼¡à¼¢ à¼¦à¼¨
à¼ĭà¾ ŀ
à¾ŀ à½º
à¾¡à¾· à¾±à¼į
à¼¡à¼¦ à¼¨à¼§
à¼¡à¼¨ à¼§à¼¢
à¾¦à¾²à½º à½º
à¼ĭà½² à½¾
à½© à½¦à½¢
à¾ļà¼ĭ à½¶
à½Ŀà½¢ à½¡
Ġà¼ł à¼¨
à¼¡à¼łà¼ł à¼¢
à¾±à¼ĭà¼ĳ à¼ĳ
à½¼à½¾ à½¼à¼ĭ
Ġà¼¡à¼¢ à¼¡
à¾µà¾¨ à½±à½¾à¼į
à¼įà¼ĭà¼ĭà¼ĭà¼ĭà¼ĭà¼ĭà¼ĭà¼ĭà¼ĭà¼ĭà¼ĭà¼ĭà¼ĭà¼ĭà¼ĭà¼ĭà¼ĭà¼ĭà¼ĭà¼ĭà¼ĭà¼ĭà¼ĭà¼ĭà¼ĭà¼ĭà¼ĭà¼ĭà¼ĭà¼ĭà¼ĭà¼ĭà¼ĭà¼ĭà¼ĭà¼ĭà¼ĭà¼ĭà¼ĭà¼ĭà¼ĭà¼ĭà¼ĭà¼ĭà¼ĭà¼ĭà¼ĭà¼ĭà¼ĭà¼ĭà¼ĭà¼ĭà¼ĭà¼ĭà¼ĭà¼ĭà¼ĭà¼ĭà¼ĭà¼ĭà¼ĭà¼ĭà¼ĭà¼ĭà¼ĭà¼ĭà¼ĭà¼ĭà¼ĭà¼ĭà¼ĭà¼ĭà¼ĭà¼ĭà¼ĭà¼ĭà¼ĭà¼ĭà¼ĭà¼ĭà¼ĭà¼ĭà¼ĭà¼ĭà¼ĭà¼ĭà¼ĭà¼ĭà¼ĭà¼ĭà¼ĭà¼ĭà¼ĭà¼ĭà¼ĭà¼ĭà¼ĭà¼ĭà¼ĭà¼ĭà¼ĭà¼ĭà¼ĭà¼ĭà¼ĭà¼ĭà¼ĭà¼ĭà¼ĭà¼ĭà¼ĭà¼ĭà¼ĭà¼ĭà¼ĭà¼ĭà¼ĭà¼ĭà¼ĭà¼ĭà¼ĭà¼ĭà¼ĭà¼ĭà¼ĭà¼ĭà¼ĭà¼ĭ à¼ĭà¼ĭà¼ĭà¼ĭà¼ĭà¼ĭà¼ĭà¼ĭà¼ĭà¼ĭà¼ĭà¼ĭà¼ĭ
à¼įà¼ĭà¼ĭà¼ĭà¼ĭà¼ĭà¼ĭà¼ĭà¼ĭà¼ĭà¼ĭà¼ĭà¼ĭà¼ĭà¼ĭà¼ĭà¼ĭà¼ĭà¼ĭà¼ĭà¼ĭà¼ĭà¼ĭà¼ĭà¼ĭà¼ĭà¼ĭà¼ĭà¼ĭà¼ĭà¼ĭà¼ĭà¼ĭ à¼ĭ
Ġ à¾Īà¾Īà¾Īà¾Ī
Ġ à¼¡à¼¤à¼ł
à½Ĥ à½ĸà½ł
à½º à½²
à¾± à¾Łà½¼
à½²à¼ĭ à½´à¼ĭ
à½²à¼ĭ à¼Ŀà¼Ŀà¼Ŀ
à½¼à¼ĭ à¾ħà¼ĭ
à½Ķà½ł à½ļ
à½Ĩ à½ĳà½Ķà½ł
à½ģ à½łà½ĳ
à½ĸà½¢ à½ĺà½ļ
à½ĵà½¦ à½¢à½Ħ
à½ĵà½¦ à½Ĥà½ŀà½ĵ
à½¡à½Ħ à½łà½ĩ
à½¡à½Ħ à½Ĥà½Ł
à½Ķà½¦ à½Ķà½¦
à¾Ķ à½²à¼ĭ
à¾© à½¿à¼ĭ
à½ĸà½Ł à½łà½ĸà½¢
à¾²à½¼à¼ĭ à¼¸
à½¾ à½¾à¼į
à¾Ĳà½´à¼ĭ à¼Ī
à½Ķà½ĳ à½¦
à½Ĥà½ĵà½Ħ à½ĸ
à¼¢ à¼¡à¼łà¼ł
à½±à½²à¼ĭ à¼ĳ
à¾£à½¼ à½¿à¼į
à¾Ĵà¾² à½±à¼ĭ
à¼ł à¼¡à¼£
à¼§ à¼¥à¼¢
à¼§ à¼¥à¼£
à½¾à¼į à¼Įà¼Įà¼Įà¼Į
à½Ĵ à½¢à½ł
à¾µ à½±à½²à½¾à¼ĭ
à¾²à¼į à¼½
à¼¡à¼ł à¼§à¼¥
à¾ŀ à½±à½²
à¼¡à¼¤ à¼¡à¼£
à¼¡à¼§ à¼¨à¼£
à¾ªà¼ĭ à½±à¼ĭ
à¼¡à¼¦ à¼£à¼¦
à¼¡à¼¨ à¼£à¼¡
à½ĭ à½īà½ł
à¾¶ à¾²à¾Ģà¼ĭ
à¾·à¾± à½½à¼ĭ
Ġà¼ł à¼¡
Ġà¼ł à¼¥
à¼§à¼© à¼¢
à½Ĵà½¡ à½¥
à¼¡à¼£à¼ł à¼©
à¼¡à¼§à¼ł à¼¢
à¼¡à¼¨à¼ł à¼©
à¾±à½²à¼ĭà¼¼ à¼½
à¼įà¼ĭà¼ĭà¼ĭà¼ĭà¼ĭà¼ĭà¼ĭà¼ĭà¼ĭà¼ĭà¼ĭà¼ĭà¼ĭà¼ĭà¼ĭà¼ĭà¼ĭà¼ĭà¼ĭà¼ĭà¼ĭà¼ĭà¼ĭà¼ĭà¼ĭà¼ĭà¼ĭà¼ĭà¼ĭà¼ĭà¼ĭà¼ĭà¼ĭà¼ĭà¼ĭà¼ĭà¼ĭà¼ĭà¼ĭà¼ĭà¼ĭà¼ĭà¼ĭà¼ĭà¼ĭà¼ĭà¼ĭà¼ĭà¼ĭà¼ĭà¼ĭà¼ĭà¼ĭà¼ĭà¼ĭà¼ĭà¼ĭà¼ĭà¼ĭà¼ĭà¼ĭà¼ĭà¼ĭà¼ĭà¼ĭà¼ĭà¼ĭà¼ĭà¼ĭà¼ĭà¼ĭà¼ĭà¼ĭà¼ĭà¼ĭà¼ĭà¼ĭà¼ĭà¼ĭà¼ĭ à¼ĭà¼ĭà¼ĭà¼ĭà¼ĭà¼ĭà¼ĭà¼ĭà¼ĭà¼ĭà¼ĭà¼ĭ
à½² à½²à¼į
à½ĳ à½Ĭ
à½Ĥ à½ĳà½Ģà½¢
à½ĸ à½Ĥà½ĵ
à½Ħ à½ĺà½ļà½ĺà½¦
à½Ķ à½Ĥà½¦à½Ħ
à½Ķ à½īà½ĵ
à½ºà¼ĭ à¾Ĵ
à¾Ł à¾¤à½ºà¼į
à½ı à½ŀ
à½ĺà½¦ à½ļ
à½ĺà½¦ à½ĺà½īà½ĺ
à½Ķà½¢ à½łà½ģ
à½ĸà½¢ à½ĺà½Ĳ
à½ĸà½ŀ à½Ħ
à¾· à¾²à½¼à¼ĭ
à½ĺà½Ĳ à½Ķ
à½ĳà½Ķ à½£à½Ĥ
à½Ĥà½ĵà½¦ à½Ĥ
à½ħà½ĳ à½ĸà½¦
à½±à¼ĭ à¼Ī
à¾¡à½´ à½¿à¼į
à½Ĥà½ĳ à½łà½ĺ
à½łà½ĳà½¦ à½¦
à½Ļà½ĺ à½ĺ
à¾Ń à½¼à¼įà¼į
à½±à½´ à¾Ĥ
à¼ĭà¼ Ħà¼į
à½Ķà½ĳ à½¨
à¼ł à¼¡à¼¢
à¼§ à¼¤à¼¨
à¼¨ à¼¡à¼¦
à¼¨ à¼£à¼¨
à¼¨ à¼¤à¼¤
à¾¦à¾² à¾¤à½º
à¼¡à¼ł à¼łà¼łà¼łà¼ł
à¼¡à¼¢ à¼¡à¼¦
à¼¡à¼§ à¼¢à¼¥
à¼¡à¼§ à¼§à¼¥
à¼¡à¼§ à¼¨à¼¥
à¼¡à¼¦ à¼¦à¼ł
à¼¡à¼¨ à¼£à¼¦
à¼¡à¼¨ à¼¤à¼§
à¼¡à¼¡ à¼¡à¼ł
Ġà¼ĭà¼ĭà¼ĭà¼ĭà¼ĭà¼ĭà¼ĭà¼ĭà¼ĭà¼ĭà¼ĭà¼ĭà¼ĭà¼ĭà¼ĭà¼ĭà¼ĭà¼ĭà¼ĭà¼ĭà¼ĭà¼ĭà¼ĭà¼ĭà¼ĭà¼ĭà¼ĭà¼ĭà¼ĭà¼ĭà¼ĭà¼ĭà¼ĭà¼ĭà¼ĭà¼ĭà¼ĭà¼ĭà¼ĭà¼ĭà¼ĭà¼ĭà¼ĭà¼ĭà¼ĭà¼ĭà¼ĭà¼ĭà¼ĭà¼ĭà¼ĭà¼ĭà¼ĭà¼ĭà¼ĭà¼ĭà¼ĭà¼ĭà¼ĭà¼ĭà¼ĭà¼ĭà¼ĭà¼ĭ à¼ĭà¼ĭà¼ĭà¼ĭà¼ĭà¼ĭà¼ĭà¼ĭà¼ĭà¼ĭà¼ĭ
à¼¡à¼łà¼ł à¼£
à¼¡à¼¢à¼ł à¼§
Ġà¼ĭà¼ĭà¼ĭà¼ĭà¼ĭà¼ĭà¼ĭà¼ĭà¼ĭà¼ĭà¼ĭà¼ĭà¼ĭà¼ĭà¼ĭà¼ĭà¼ĭà¼ĭà¼ĭà¼ĭà¼ĭà¼ĭà¼ĭà¼ĭà¼ĭà¼ĭà¼ĭà¼ĭà¼ĭà¼ĭà¼ĭà¼ĭà¼ĭà¼ĭà¼ĭà¼ĭà¼ĭà¼ĭà¼ĭà¼ĭà¼ĭà¼ĭà¼ĭà¼ĭà¼ĭà¼ĭà¼ĭà¼ĭà¼ĭà¼ĭà¼ĭà¼ĭà¼ĭà¼ĭà¼ĭà¼ĭà¼ĭà¼ĭà¼ĭà¼ĭà¼ĭà¼ĭà¼ĭà¼ĭà¼ĭà¼ĭà¼ĭà¼ĭà¼ĭà¼ĭà¼ĭà¼ĭà¼ĭà¼ĭà¼ĭà¼ĭà¼ĭà¼ĭà¼ĭà¼ĭà¼ĭà¼ĭà¼ĭà¼ĭà¼ĭà¼ĭà¼ĭà¼ĭà¼ĭà¼ĭà¼ĭà¼ĭà¼ĭà¼ĭà¼ĭà¼ĭ à¼ĭà¼ĭà¼ĭà¼ĭà¼ĭà¼ĭà¼ĭà¼ĭà¼ĭà¼ĭà¼ĭà¼ĭ
Ġ à½ĸà½ĸà½¦
à¾ ĵ
à½² à½´
à½ĳ à½Ľ
à½¼ à½²à¼ĭ
à½¢ à½Ĥà½ĳ
à½ĵ à½Ĥà½Ļ
à½ĵ à½ĵà½łà½Ħ
à½ĺ à½łà½ķ
à½Ķ à½ĺà½ĵ
à½´à¼ĭ à¼ŀà¼į
à½ĳà½Ħ à½ĸà½¦à½ĺ
à¾Ĵà¾± à½±à¼ĭ
à¾¡ à½½
à¾¨ à½±à½¿à¼į
à½¼à¼į à¼ĳà¼į
à¾Ĳà¾±à½¼ à½¼
à½ĵà½ĺ à½¡à½Ħ
à¾Ķà½¼ à½¼à¼ĭ
à¾¤à¾± à¼µà½²à¼ĭ
à½¥ à½¨
à½Ĭ à½Ľ
à¾³à½² à¼·
à¼§ à¼¤à¼¥
à¼§ à¼©à¼©
à¾±à¼į à¼ĭ
à¼© à¼¡à¼£
à¼© à¼¨à¼ł
à¼© à¼łà¼łà¼ł
à½Ĺ à½ĳà½Ĥ
à½¼à¼įà¼įà¼įà¼į à¼ĭ
à½ĳà½ĺà½ĵ à½Ķ
à¼ĭà¼´ à¼ĭ
à¼¡à¼ł à¼£à¼¢
à¼¡à¼ł à¼©à¼¢
à¼¡à¼¢ à¼§à¼¦
à¼ĭà¾ ´
à¼¡à¼¥ à¼¤à¼¦
à¼¡à¼¦ à¼¤à¼©
à¼¡à¼¦ à¼¥à¼©
à¼¡à¼¨ à¼¡à¼¡
à½±à½²à¼į à¼Įà¼Įà¼Į
à¾ĭ à½ĳ
à¼¸ à¼ĭ
à½ķà½Ŀ à½ļà½Ķà½Ķ
à½¨à½¨ à½¦
à½´à¼ĭà¼ĳ à¼ĳ
à½¼à¼ĭà½ºà¼ĭ à½¼
à½¼à¼ĭà¼½ à¼į
Ġà¼¡à¼¢ à¼¢
à¼¡à¼¡à¼¨ à¼©
à¼įà¼ĭà¼ĭà¼ĭà¼ĭà¼ĭà¼ĭà¼ĭà¼ĭà¼ĭà¼ĭà¼ĭà¼ĭà¼ĭà¼ĭà¼ĭà¼ĭà¼ĭà¼ĭà¼ĭà¼ĭà¼ĭà¼ĭà¼ĭà¼ĭà¼ĭà¼ĭà¼ĭà¼ĭà¼ĭà¼ĭà¼ĭà¼ĭà¼ĭà¼ĭà¼ĭà¼ĭà¼ĭà¼ĭà¼ĭà¼ĭà¼ĭà¼ĭà¼ĭà¼ĭà¼ĭà¼ĭà¼ĭà¼ĭà¼ĭà¼ĭà¼ĭà¼ĭà¼ĭà¼ĭà¼ĭà¼ĭà¼ĭà¼ĭà¼ĭà¼ĭà¼ĭà¼ĭà¼ĭà¼ĭà¼ĭà¼ĭà¼ĭà¼ĭà¼ĭà¼ĭà¼ĭà¼ĭà¼ĭà¼ĭà¼ĭà¼ĭà¼ĭà¼ĭà¼ĭà¼ĭà¼ĭà¼ĭà¼ĭà¼ĭà¼ĭà¼ĭà¼ĭà¼ĭà¼ĭà¼ĭà¼ĭà¼ĭà¼ĭà¼ĭà¼ĭà¼ĭ à¼ĭà¼ĭà¼ĭà¼ĭà¼ĭà¼ĭà¼ĭà¼ĭà¼ĭà¼ĭà¼ĭà¼ĭ
à¼įà¼ĭà¼ĭà¼ĭà¼ĭà¼ĭà¼ĭà¼ĭà¼ĭà¼ĭà¼ĭà¼ĭà¼ĭà¼ĭà¼ĭà¼ĭà¼ĭà¼ĭà¼ĭà¼ĭà¼ĭà¼ĭà¼ĭà¼ĭà¼ĭà¼ĭà¼ĭà¼ĭà¼ĭà¼ĭà¼ĭà¼ĭà¼ĭ à¼ĭà¼ĭà¼ĭà¼ĭà¼ĭ
Ġà¼ĭà¼ĭà¼ĭà¼ĭà¼ĭà¼ĭà¼ĭà¼ĭà¼ĭà¼ĭà¼ĭà¼ĭà¼ĭà¼ĭà¼ĭà¼ĭà¼ĭà¼ĭà¼ĭà¼ĭà¼ĭà¼ĭà¼ĭà¼ĭà¼ĭà¼ĭà¼ĭà¼ĭà¼ĭà¼ĭà¼ĭà¼ĭà¼ĭà¼ĭà¼ĭà¼ĭà¼ĭà¼ĭà¼ĭà¼ĭà¼ĭà¼ĭà¼ĭà¼ĭà¼ĭà¼ĭà¼ĭà¼ĭà¼ĭà¼ĭà¼ĭà¼ĭà¼ĭà¼ĭà¼ĭà¼ĭà¼ĭà¼ĭà¼ĭà¼ĭà¼ĭà¼ĭà¼ĭà¼ĭà¼ĭà¼ĭà¼ĭà¼ĭà¼ĭà¼ĭà¼ĭà¼ĭà¼ĭà¼ĭà¼ĭà¼ĭà¼ĭà¼ĭà¼ĭà¼ĭà¼ĭà¼ĭà¼ĭà¼ĭà¼ĭà¼ĭà¼ĭà¼ĭà¼ĭà¼ĭà¼ĭà¼ĭà¼ĭà¼ĭà¼ĭà¼ĭà¼ĭà¼ĭà¼ĭà¼ĭà¼ĭà¼ĭà¼ĭà¼ĭà¼ĭà¼ĭà¼ĭà¼ĭà¼ĭà¼ĭà¼ĭà¼ĭ à¼ĭà¼ĭà¼ĭà¼ĭà¼ĭ
Ġ à½ĸà½ŀà½ĳ
Ġ à½łà½ķà½¢
à½¦ à½Ħà½ĵ
à½² à½¾à¼Ķ
à½ĸ à½ĸà½¤
à½¢ à½łà½ķà½Ĥà½¦
à½ĵ à½ĳà½Ķà½£
à½Ħ à½ħà½ĵ
à¾± à¾Ńà¼įà¼į
à½£ à½łà½Ĩ
à½£ à½¡à½ĵ
à½´à¼ĭ à¼Ŀ
à¾Ł à¾±à½±à½¾à¼ĭ
à½ħ à½ĳà½Ĥ
à¾Ĵ à½±à½´
à½ĺà½¦ à½ĺà½Ĳ
à½ī à½ī
à½Ķà½¢ à½Ģ
à½ĳà½Ĥ à½ĺà½Ĳ
à½Ł à½ŀ
à½ĸà½ŀ à½ĸ
à¾· à¾ĥà¼į
à¾© à¾©à½²à¼ĭ
à½Ļ à½ŀ
à½¢à½Ħ à½Ħ
à¾²à½¼ à½¾à½¿à¼ĭ
à½Ľ à½Ĭ
à½ĩ à½¡
à¾« à½¾à¼ĭ
à½Ļà½ĺ à½ĵ
à¾¦à¾± à¼į
à½ĳà½ĳ à½Ķà½¦
à½Ĩà½ĳ à½Ķà½¢
à½ĺà½ĵ à½ĵà½ĳ
à¼§ à¼¥à¼¨
à½Ĵ à½ĸà½ĵ
à½Ĵ à½¡à½ķ
à¼© à¼¥à¼ł
à¼© à¼¤à¼©
à¼ĭà½Ī à¾¤à¾±à½¼
Ġà½¦ à½Ķ
à¾ļ à¾²à½²à¼ĭ
à¾ļ à½»à¼ĭ
à¼¡à¼£ à¼©à¼¢
à¼¡à¼¤ à¼¢à¼ł
à¼¡à¼¤ à¼¢à¼©
à¼¡à¼¥ à¼łà¼łà¼ł
à¼¡à¼¥ à¼¨à¼©
à¼¡à¼§ à¼©à¼¥
à¼¡à¼¦ à¼¡à¼£
à¾²à½¼à¼į à¼½
à¼¡à¼¨ à¼¨à¼¡
à¼¡à¼¡ à¼¡à¼£
Ġà¼Ħà¼ħ à¼Ħà¼ħà¼įà¼į
à¾·à½±à½² à½¿à¼į
à¾·à½±à½² à½¿à¼įà¼į
Ġà¼ĭà¼ĭà¼ĭà¼ĭà¼ĭà¼ĭà¼ĭà¼ĭà¼ĭà¼ĭà¼ĭà¼ĭà¼ĭà¼ĭà¼ĭà¼ĭà¼ĭà¼ĭà¼ĭà¼ĭà¼ĭà¼ĭà¼ĭà¼ĭà¼ĭà¼ĭà¼ĭà¼ĭà¼ĭà¼ĭà¼ĭà¼ĭà¼ĭà¼ĭà¼ĭà¼ĭà¼ĭà¼ĭà¼ĭà¼ĭà¼ĭà¼ĭà¼ĭà¼ĭà¼ĭà¼ĭà¼ĭà¼ĭà¼ĭà¼ĭà¼ĭà¼ĭà¼ĭà¼ĭà¼ĭà¼ĭà¼ĭà¼ĭà¼ĭà¼ĭà¼ĭà¼ĭà¼ĭà¼ĭ à¼ĭà¼ĭà¼ĭà¼ĭà¼ĭà¼ĭà¼ĭà¼ĭ
à½²à¼ĭà¼½ à¼½
à½Ĵà½¦ à½¡
à½¼à½¼ à½¼
à¼įà¼ĭà¼ĭà¼ĭà¼ĭà¼ĭà¼ĭà¼ĭà¼ĭà¼ĭà¼ĭà¼ĭà¼ĭà¼ĭà¼ĭà¼ĭà¼ĭà¼ĭà¼ĭà¼ĭà¼ĭà¼ĭà¼ĭà¼ĭà¼ĭà¼ĭà¼ĭà¼ĭà¼ĭà¼ĭà¼ĭà¼ĭà¼ĭà¼ĭà¼ĭà¼ĭà¼ĭà¼ĭà¼ĭà¼ĭà¼ĭà¼ĭà¼ĭà¼ĭà¼ĭà¼ĭà¼ĭà¼ĭà¼ĭà¼ĭà¼ĭà¼ĭà¼ĭà¼ĭà¼ĭà¼ĭà¼ĭà¼ĭà¼ĭà¼ĭà¼ĭà¼ĭà¼ĭà¼ĭà¼ĭà¼ĭà¼ĭà¼ĭà¼ĭà¼ĭà¼ĭà¼ĭà¼ĭà¼ĭà¼ĭà¼ĭà¼ĭà¼ĭà¼ĭà¼ĭà¼ĭà¼ĭà¼ĭà¼ĭà¼ĭà¼ĭà¼ĭà¼ĭà¼ĭà¼ĭà¼ĭà¼ĭà¼ĭà¼ĭà¼ĭà¼ĭà¼ĭ à¼ĭà¼ĭ
Ġ à½Ĥà½ıà½ĳ
Ġ à½ĵà½¢
à¼ĭ à½±à½²
à½Ĥ à½ĸà½Ł
à½ĸ à½ĸà½¤à½ĳ
à½ĵ à½ĺà½Ľ
à½Ħ à½ĺà½¢
à½ĺ à½ĸà½ł
à¾± à¼·à½ºà¼ĭ
à½Ĥà½¦ à½łà½ģ
à¾Ł à¾±à½¾à¼į
à¾Ł à¼·à½ºà¼ĭ
à½Ķà½ł à½ĸà½ł
à¾Ĵ à¾Ĺà½¼
à½ģ à½ĳà½Ķ
à½Ķà½¢ à½ĳà½ĺ
à¾Ĳ à¾±à½²à¼į
à½Ħà½¦ à½¡à½Ħ
à½Ł à½ĳà½ĺ
à½£à½¦ à½Ķ
à¾±à¼ĭ à½±à¼ĭ
à½¡à½Ħ à½ĺà½Ħ
à½Ķà½¦ à½Ĥà½Ħ
à¾· à¾Ĵ
à½± à½¼à¼į
à¾© à½½
à¾¨ à¼ĭà¼¼
à¾¦ à¾¦à½¼à¼ĭ
à¾±à½ºà¼ĭ à¼½
à¾Ń à¼ĭà¼½
à½Ĥà½¦à½£ à½ĳ
à½ĵà½ĺ à½ĸ
à½Ĳà½ĸà½¦ à½£
à¾Ĳà¾± à¾±à½¼
à¾Ĳà¾± à½»
à½¼à½¾à¼ĭ à¼½
à½ĵà½ĳ à½¢
à½Ŀ à½Ĥà½¦
à½ĸà½ıà½Ħ à½ĸ
à¾¤à¾²à½¼ à½¼
à¼¥ à¼łà¼łà¼łà¼ł
à¾²à½ºà¼ĭ à½Ī
à½Ĵ à½ĸà½Ľ
à½Ĵ à½Ĥà½¥à½¢
à¼© à¼¥à¼§
à¼¨ à¼¤à¼¦
à½ķà½Ĭ à½Ĭà½Ĭ
à¼¡à¼¢ à¼©à¼¢
à¼¡à¼£ à¼¨à¼¦
à¼¡à¼¥ à¼§à¼ł
à¼¡à¼§ à¼¨à¼§
à¼¡à¼¨ à¼¥à¼¢
à¾ĭ à½ģ
à½ĭ à½ĭ
à¾´ à½ºà¼ĭà¼´
Ġà¼§ à¼łà¼ł
à¼©à¼ł à¼©à¼ł
Ġà½ı à½Ĥà½¦
à½¢à½Ķ à½ĸà½¦
à¼¡à¼¨à¼ł à¼¥
à¼įà¼ĭà¼ĭà¼ĭà¼ĭà¼ĭà¼ĭà¼ĭà¼ĭà¼ĭà¼ĭà¼ĭà¼ĭà¼ĭà¼ĭà¼ĭà¼ĭà¼ĭà¼ĭà¼ĭà¼ĭà¼ĭà¼ĭà¼ĭà¼ĭà¼ĭà¼ĭà¼ĭà¼ĭà¼ĭà¼ĭà¼ĭà¼ĭà¼ĭà¼ĭà¼ĭà¼ĭà¼ĭà¼ĭà¼ĭà¼ĭà¼ĭà¼ĭà¼ĭà¼ĭà¼ĭà¼ĭà¼ĭà¼ĭà¼ĭà¼ĭà¼ĭà¼ĭà¼ĭà¼ĭà¼ĭà¼ĭà¼ĭà¼ĭà¼ĭà¼ĭà¼ĭà¼ĭà¼ĭà¼ĭà¼ĭà¼ĭà¼ĭà¼ĭà¼ĭà¼ĭà¼ĭà¼ĭà¼ĭà¼ĭà¼ĭà¼ĭà¼ĭà¼ĭà¼ĭà¼ĭà¼ĭà¼ĭà¼ĭà¼ĭà¼ĭà¼ĭà¼ĭà¼ĭà¼ĭà¼ĭà¼ĭà¼ĭà¼ĭà¼ĭà¼ĭà¼ĭ à¼ĭà¼ĭà¼ĭà¼ĭà¼ĭà¼ĭ
Ġà¼Įà¼Įà¼Įà¼Įà¼Įà¼Įà¼Įà¼Įà¼Įà¼Įà¼Įà¼Įà¼Įà¼Įà¼Įà¼Įà¼Įà¼Įà¼Įà¼Įà¼Įà¼Įà¼Įà¼Įà¼Įà¼Įà¼Įà¼Įà¼Įà¼Įà¼Įà¼Įà¼Į à¼Į
à½¦ à½Ĥà½¦à½Ħ
à½¦ à½łà½Ĩà½ĳ
à½ĳ à½ĵà½ĺ
à½ĵ à½£à½ĵ
à¼į à¼Ħà¼ħà¼į
à½Ķ à½ĺà½īà½ĺ
à½Ķ à½ĸà½¦à½£
à¾± à½±à¼Ķ
à½Ĥà½¦ à½¦à½ĺ
à¾² à¾¤à¾²à½²
à½¼à¼ĭ à¾Ĵ
à¾Ł à¾¤à¾±à½¼
à½ħ à½ģ
à½ĸà½¦ à½¨
à½Ĳ à½łà½Ħ
à½ı à½Ħà½ł
à½Ķà½¢ à½ļ
à½¤ à½łà½ĳ
à¾Ĳ à¼Ķ
à½ĵà½¦ à½¦à½Ħà½¦
à½Ł à½Ĥà½£
à½ĸà½ħ à½łà½ĸ
à¾· à½´à¼įà¼į
à½Ĥà½Ħ à½łà½ĳ
à½ĩ à½Ķ
à¾Łà½ºà¼į à¼Ħà¼ħà¼įà¼į
à½Ĥà½ĵ à½ĺà½¦
à¾Ĳà¾± à¾Ĺà½º
à½£à½ĵ à½Ĥà½ī
à¾·à½¼à¼ĭ à¼Ħà¼ħà¼įà¼į
à¾·à½²à¼ĭ à½Īà½¼
à½łà½Ĥà½Ĥ à½Ķà½¢
Ġà½¢ à½Ģ
à¼¡à¼§ à¼¥à¼¦
à¼Ģ à½¨à½¢
à¼ĭà¾¢ à½º
à¾´ à½¿à¼į
à½ĥ à½ĳà½Ħ
Ġà¼ł à¼łà¼łà¼łà¼łà¼ł
à¼§à¼© à¼¥
à¼¡à¼¢à¼¨ à¼¤
à½ºà¼ĭà¼½ à¼½
à¼¡à¼§à¼ł à¼©
Ġà¼¡à¼¢ à¼¥
Ġà¼¡à¼¤ à¼¥
à½ĸà½¤à½Ĳ à½ĸà½ĸà½ĸ
Ġ à½Ķà½łà½ĺ
Ġ à¼¡à¼©à¼¥à¼©
à½ĳ à½łà½ļ
à½ĳ à½ħà½Ĥ
à½¢ à½Ĥà½¡
à½ĵ à½£à½Ĥ
à¾Ł à¾Ģ
à½ĳà½Ħ à½ĸà½Ģ
à½Ĩ à½Ĥà½ħ
à½ĸà½¦ à½Ĭ
à½ģ à½¢à½¦
à½¤ à½ĵà½¦
à½ĸà½¢ à½ĳà½Ħ
à¾£ à½´à¼į
à½£à½¦ à½ı
à½Ķà½¦ à½¢à½Ħ
à½Ĥà½Ħ à½ĺ
à¾¨ à¼µà¼ĭ
à¾±à½ºà¼ĭ à½Īà¾¤à¾±à½²
à½¨ à½ĳà½Ģà½¢
à½łà½ķ à½¦
à½§ à½łà½ĺ
à¾« à¼·à½¼
à¾Ļà½² à¼·
à½ĺà½ī à½¦
à¾Ļà½º à¼įà¼į
à½ĺà½ģà½ł à½ĳà½Ħ
à½İ à½¨
à½¼à½¾à¼ĭ à¼ĳ
à½Ŀ à½ī
à¾Łà½ºà¼įà¼į à¼įà¼į
à½Ī à¾Ĺà½º
à½£à½Ħ à½ł
à¾µ à½±à½¿à¼ĭ
à¾¤à¾² à¼į
Ġà½£ à½¢
à½ŀà½Ħ à½¥
à¼¡à¼¢ à¼£à¼ł
à¼¡à¼¢ à¼§à¼§
à¾ļ à½²à¼įà¼į
à¾ŀ à½±à½´
à¼¡à¼¤ à¼©à¼¨
à¼¡à¼§ à¼¡à¼¦
à¼¡à¼¦ à¼§à¼¢
à¾¦à¾· à½¾à¼ĭ
à½© à½Ľ
à¾¶ à¾£
à½ĵà½Ķ à½ķ
à¼¤à¼¤ à¼¤à¼¤
Ġà¼ĭà¼ĭà¼ĭà¼ĭà¼ĭà¼ĭà¼ĭà¼ĭà¼ĭà¼ĭà¼ĭà¼ĭà¼ĭà¼ĭà¼ĭà¼ĭà¼ĭà¼ĭà¼ĭà¼ĭà¼ĭà¼ĭà¼ĭà¼ĭà¼ĭà¼ĭà¼ĭà¼ĭà¼ĭà¼ĭà¼ĭà¼ĭà¼ĭà¼ĭà¼ĭà¼ĭà¼ĭà¼ĭà¼ĭà¼ĭà¼ĭà¼ĭà¼ĭà¼ĭà¼ĭà¼ĭà¼ĭà¼ĭà¼ĭà¼ĭà¼ĭà¼ĭà¼ĭà¼ĭà¼ĭà¼ĭà¼ĭà¼ĭà¼ĭà¼ĭà¼ĭà¼ĭà¼ĭà¼ĭ à¼ĭà¼ĭà¼ĭà¼ĭà¼ĭ
Ġà¼ĭà¼ĭà¼ĭà¼ĭà¼ĭà¼ĭà¼ĭà¼ĭà¼ĭà¼ĭà¼ĭà¼ĭà¼ĭà¼ĭà¼ĭà¼ĭà¼ĭà¼ĭà¼ĭà¼ĭà¼ĭà¼ĭà¼ĭà¼ĭà¼ĭà¼ĭà¼ĭà¼ĭà¼ĭà¼ĭà¼ĭà¼ĭà¼ĭà¼ĭà¼ĭà¼ĭà¼ĭà¼ĭà¼ĭà¼ĭà¼ĭà¼ĭà¼ĭà¼ĭà¼ĭà¼ĭà¼ĭà¼ĭà¼ĭà¼ĭà¼ĭà¼ĭà¼ĭà¼ĭà¼ĭà¼ĭà¼ĭà¼ĭà¼ĭà¼ĭà¼ĭà¼ĭà¼ĭà¼ĭ à¼ĭà¼ĭà¼ĭà¼ĭà¼ĭà¼ĭà¼ĭà¼ĭà¼ĭà¼ĭà¼ĭà¼ĭà¼ĭà¼ĭà¼ĭ
à¼§à¼¨ à¼¤
à½ºà½º à½º
Ġà¼¡à¼ł à¼¨
à¼¡à¼¢à¼ł à¼£
à½ľ à½¦
à¼¡à¼¥à¼ł à¼¤
à¼įà¼ĭà¼ĭà¼ĭà¼ĭà¼ĭà¼ĭà¼ĭà¼ĭà¼ĭà¼ĭà¼ĭà¼ĭà¼ĭà¼ĭà¼ĭà¼ĭà¼ĭà¼ĭà¼ĭà¼ĭà¼ĭà¼ĭà¼ĭà¼ĭà¼ĭà¼ĭà¼ĭà¼ĭà¼ĭà¼ĭà¼ĭà¼ĭà¼ĭà¼ĭà¼ĭà¼ĭà¼ĭà¼ĭà¼ĭà¼ĭà¼ĭà¼ĭà¼ĭà¼ĭà¼ĭà¼ĭà¼ĭà¼ĭà¼ĭà¼ĭà¼ĭà¼ĭà¼ĭà¼ĭà¼ĭà¼ĭà¼ĭà¼ĭà¼ĭà¼ĭà¼ĭà¼ĭà¼ĭà¼ĭà¼ĭà¼ĭà¼ĭà¼ĭà¼ĭà¼ĭà¼ĭà¼ĭà¼ĭà¼ĭà¼ĭà¼ĭà¼ĭà¼ĭà¼ĭà¼ĭà¼ĭà¼ĭà¼ĭà¼ĭà¼ĭà¼ĭà¼ĭà¼ĭà¼ĭà¼ĭà¼ĭà¼ĭà¼ĭà¼ĭà¼ĭà¼ĭà¼ĭà¼ĭà¼ĭà¼ĭà¼ĭà¼ĭà¼ĭà¼ĭà¼ĭà¼ĭà¼ĭà¼ĭà¼ĭà¼ĭà¼ĭà¼ĭ à¼ĭà¼ĭà¼ĭà¼ĭà¼ĭ
à¼įà¼ĭà¼ĭà¼ĭà¼ĭà¼ĭà¼ĭà¼ĭà¼ĭà¼ĭà¼ĭà¼ĭà¼ĭà¼ĭà¼ĭà¼ĭà¼ĭà¼ĭà¼ĭà¼ĭà¼ĭà¼ĭà¼ĭà¼ĭà¼ĭà¼ĭà¼ĭà¼ĭà¼ĭà¼ĭà¼ĭà¼ĭà¼ĭà¼ĭà¼ĭà¼ĭà¼ĭà¼ĭà¼ĭà¼ĭà¼ĭà¼ĭà¼ĭà¼ĭà¼ĭà¼ĭà¼ĭà¼ĭà¼ĭà¼ĭà¼ĭà¼ĭà¼ĭà¼ĭà¼ĭà¼ĭà¼ĭà¼ĭà¼ĭà¼ĭà¼ĭà¼ĭà¼ĭà¼ĭà¼ĭà¼ĭà¼ĭà¼ĭà¼ĭà¼ĭà¼ĭà¼ĭà¼ĭà¼ĭà¼ĭà¼ĭà¼ĭà¼ĭà¼ĭà¼ĭà¼ĭà¼ĭà¼ĭà¼ĭà¼ĭà¼ĭà¼ĭà¼ĭà¼ĭà¼ĭà¼ĭà¼ĭà¼ĭà¼ĭà¼ĭà¼ĭà¼ĭà¼ĭà¼ĭà¼ĭà¼ĭà¼ĭà¼ĭà¼ĭà¼ĭ à¼ĭà¼ĭà¼ĭ
Ġ à½Ģà½ł
à¼ĭ à¾ļà¼ĭ
à½Ĥ à½ĸà½ı
à½ĸ à½Ĳà½ĸà½¦
à½ĵ à½Ĳà½Ħ
à½º à¼µà¼į
à½ºà¼ĭ à¼Ħà¼ħà¼į
à¾² à¼µà½¼à¼ĭ
à¾Ł à¾£à¼ĭ
à½ĳà½Ħ à½Ĳà½ĸà½¦
à½ĸà½¦ à½ĳà½Ĥ
à½ķ à½¢à½Ħ
à½ģ à½łà½ĸ
à¾¡ à¾²à½±à½²à¼ĭ
à¾³ à¼µ
à½ĸà½ŀ à½Ĥà½ĵà½¦
à½± à¼įà¼įà¼į
à½Ĥà½ī à½ĺà½¦
à¾© à¼·
à½¨ à½Ķà½¢
à½ĸà½ĳà½Ĥ à½ĸ
à½ĸà½¤ à½Ĥà½¤
à½ĸà½Ģ à½ĸà½¦
à½±à¼ĭ à¼º
à¾Ń à¾°à¼ĭ
à½Ĥà½¢ à½Ĥ
à½¡à½¦ à½Ķ
à¼© à¼¥à¼©
à¼ĭà½Ī à¾¦à¾·à½º
à¼¨ à¼¦à¼¦
Ġà¼ĭ à¼ĭà¼įà¼į
à¾µ à½²à½¿à¼į
à¼¡à¼ł à¼©à¼¦
à¾ļ à½´à¼į
à¼¡à¼¥ à¼¤à¼¢
à¼¡à¼¨ à¼¢à¼©
à¼¡à¼¨ à¼©à¼¡
à¼įà¼½ à¼¼
à½ĵà½Ķ à½ĸ
à¾Łà¾Ń à½²à¼ĭ
Ġà¼ł à¼©
Ġà¼¡ à¼¡à¼©
Ġà¼ĭà¼ĭà¼ĭà¼ĭà¼ĭà¼ĭà¼ĭà¼ĭà¼ĭà¼ĭà¼ĭà¼ĭà¼ĭà¼ĭà¼ĭà¼ĭà¼ĭà¼ĭà¼ĭà¼ĭà¼ĭà¼ĭà¼ĭà¼ĭà¼ĭà¼ĭà¼ĭà¼ĭà¼ĭà¼ĭà¼ĭà¼ĭà¼ĭà¼ĭà¼ĭà¼ĭà¼ĭà¼ĭà¼ĭà¼ĭà¼ĭà¼ĭà¼ĭà¼ĭà¼ĭà¼ĭà¼ĭà¼ĭà¼ĭà¼ĭà¼ĭà¼ĭà¼ĭà¼ĭà¼ĭà¼ĭà¼ĭà¼ĭà¼ĭà¼ĭà¼ĭà¼ĭà¼ĭà¼ĭ à¼ĭà¼ĭà¼ĭà¼ĭà¼ĭà¼ĭà¼ĭà¼ĭà¼ĭà¼ĭà¼ĭà¼ĭà¼ĭà¼ĭ
à¼¨à¼ł à¼¥
à½į à½¡
à¼¡à¼łà¼ł à¼¡
Ġà¼¡à¼ł à¼¦
à½ľ à½¥
à¼¡à¼¨à¼ł à¼£
à¾µà½² à½¾à¼į
à¼¡à¼¦à¼ł à¼£
à¼¡à¼¡à¼¥ à¼¨
à½²à¼ĭà¼Ī à¼į
à¾·à¾²à½´ à¾ĥà¼Ķ
à¼ĭà¾¾à¾¾à¾¾à¾¾à¾¾ à¾¾
Ġ à½Ĵ
Ġ à½ĸà½¦à½ĺà½¦
Ġ à½īà½£
Ġ à½ĺà½ĵà½ĵ
à½ĳ à½ĵà½Ħ
à½ĳ à½Ĥà½¦à½Ħ
à½ĳà½Ħ à½ĳà½ĺ
à½Ĩ à½ŀ
à¾£ à½±à½¾à¼į
à½Ħà½¦ à½ĸà½ŀ
à½łà½Ĥ à½ħ
à½łà½ĸ à½ħ
à¾¤ à¾³à½¼
à¾· à¾³à½±à¼ĭ
à¾© à½½à¼įà¼į
à¾Ļ à¾·à½º
à¾Łà¼ĭ à¼¸
à½ĺà½ģ à½¡
à½Ĥà½ŀà½ĵ à½ĳà½ĸà½Ħ
à¾²à½¼à¼ĭ à¼º
à½¾ à½¿à¼įà¼į
à½ĺà½Ľà½ĳ à½ħ
à½Ĩà½Ĥà½¦ à½¢
à½ĳà½Ķà½£ à½£
à½ĺà½¢ à½¢
à¼© à¼¦à¼¥
Ġà¼į à¼ĭà¼į
à¼¨ à¼£à¼£
à½Ĩà½Ĥ à½łà½ĳ
à½Ģà½ĵ à½Ģ
à¼¡à¼£ à¼¡à¼ł
à¼¡à¼¤ à¼£à¼¥
à¼¡à¼¤ à¼©à¼£
à¼¡à¼¦ à¼¢à¼¥
à¼¡à¼¦ à¼¢à¼£
à¼¡à¼¨ à¼£à¼©
à¼¡à¼¨ à¼§à¼§
à¾ľà¼ĭ à½±à¼ĭ
à¼ĭà¼ĭà¼ĭà¼ĭà¼ĭ à¼ĭà¼į
à½© à½£à½¦
à¼ĭà¾¢ à½±à½´à¼ĭ
à¼ĭà¾¢ à½²à½¾à¼ĭ
à½¦à½Ķ à½Ĩ
à¾´ à½ºà¼į
à½Ĵà½¥ à½Ħà½¥
Ġà¼¡ à¼¡à¼§
à¼¨à¼¨ à¼¨
Ġà¼¡à¼£ à¼©
à¼įà¼ĭà¼ĭà¼ĭà¼ĭà¼ĭà¼ĭà¼ĭà¼ĭà¼ĭà¼ĭà¼ĭà¼ĭà¼ĭà¼ĭà¼ĭà¼ĭà¼ĭà¼ĭà¼ĭà¼ĭà¼ĭà¼ĭà¼ĭà¼ĭà¼ĭà¼ĭà¼ĭà¼ĭà¼ĭà¼ĭà¼ĭà¼ĭà¼ĭà¼ĭà¼ĭà¼ĭà¼ĭà¼ĭà¼ĭà¼ĭà¼ĭà¼ĭà¼ĭà¼ĭà¼ĭà¼ĭà¼ĭà¼ĭà¼ĭà¼ĭà¼ĭà¼ĭà¼ĭà¼ĭà¼ĭà¼ĭà¼ĭà¼ĭà¼ĭà¼ĭà¼ĭà¼ĭà¼ĭà¼ĭà¼ĭà¼ĭà¼ĭà¼ĭà¼ĭà¼ĭà¼ĭà¼ĭà¼ĭà¼ĭà¼ĭà¼ĭà¼ĭà¼ĭà¼ĭà¼ĭà¼ĭà¼ĭà¼ĭà¼ĭà¼ĭà¼ĭà¼ĭà¼ĭà¼ĭà¼ĭà¼ĭà¼ĭà¼ĭà¼ĭà¼ĭà¼ĭà¼ĭà¼ĭà¼ĭà¼ĭà¼ĭà¼ĭà¼ĭà¼ĭà¼ĭà¼ĭà¼ĭà¼ĭà¼ĭà¼ĭà¼ĭà¼ĭà¼ĭà¼ĭà¼ĭà¼ĭà¼ĭà¼ĭà¼ĭà¼ĭà¼ĭà¼ĭà¼ĭà¼ĭà¼ĭà¼ĭà¼ĭà¼ĭà¼ĭà¼ĭà¼ĭà¼ĭà¼ĭà¼ĭà¼ĭà¼ĭà¼ĭà¼ĭà¼ĭà¼ĭà¼ĭà¼ĭà¼ĭà¼ĭ à¼ĭ
à¼įà¼ĭà¼ĭà¼ĭà¼ĭà¼ĭà¼ĭà¼ĭà¼ĭà¼ĭà¼ĭà¼ĭà¼ĭà¼ĭà¼ĭà¼ĭà¼ĭà¼ĭà¼ĭà¼ĭà¼ĭà¼ĭà¼ĭà¼ĭà¼ĭà¼ĭà¼ĭà¼ĭà¼ĭà¼ĭà¼ĭà¼ĭà¼ĭà¼ĭà¼ĭà¼ĭà¼ĭà¼ĭà¼ĭà¼ĭà¼ĭà¼ĭà¼ĭà¼ĭà¼ĭà¼ĭà¼ĭà¼ĭà¼ĭà¼ĭà¼ĭà¼ĭà¼ĭà¼ĭà¼ĭà¼ĭà¼ĭà¼ĭà¼ĭà¼ĭà¼ĭà¼ĭà¼ĭà¼ĭà¼ĭà¼ĭà¼ĭà¼ĭà¼ĭà¼ĭà¼ĭà¼ĭà¼ĭà¼ĭà¼ĭà¼ĭà¼ĭà¼ĭà¼ĭà¼ĭà¼ĭà¼ĭà¼ĭà¼ĭà¼ĭà¼ĭà¼ĭà¼ĭà¼ĭà¼ĭà¼ĭà¼ĭà¼ĭà¼ĭà¼ĭà¼ĭà¼ĭà¼ĭà¼ĭà¼ĭà¼ĭà¼ĭà¼ĭà¼ĭà¼ĭ à¼ĭà¼ĭà¼ĭà¼ĭà¼ĭ
Ġ à½ģà½ĺ
Ġ à¼¡à¼¢à¼¨
à½¦ à½«à½Ĥ
à½² à½±
à½ĳ à½Į
à½ĳ à½ĵà½¢
à½ĸ à½ĺà½ļ
à½ĵ à½ĺà½Ĳà½ł
à½Ħ à½ĳà½ĸà½Ħ
à½Ħ à½£à½Ĥ
à½Ķ à½Ķà½¦
à½²à¼ĭ à¼ĭà¼ĭ
à½£ à½ĳà½Ķà½£
à½ī à½¡
à½¤ à½Ĩ
à¾³ à½¾à¼į
à½¡à½Ħ à½Łà½ĸ
à½Ķà½¦ à½Ĥà½ĵà½¦
à½Ķà½¦ à½łà½ģ
à½ĳà½ĸ à½Ł
à½¢à½ĸ à½Ħ
à¾« à½±à½´à¼ĭ
à½ĺà½Ľ à½ĵ
à¾Ń à½´
à½ĳà½Ĥà½ł à½£
à½ģà½ĺà½¦ à½£
à½Ħà½Ĥ à½ł
à¾¤à¾±à½²à¼ĭ à¼Ħà¼ħà¼įà¼į
à½ķà½ĵ à½Ķà½¢
à½ĺà½Ĳà½¢ à½ķ
à¾¨à½² à½¿à¼į
à¼ł à¼¡à¼¦
à¼© à¼¡à¼¢
à¼¨ à¼£à¼¡
à½ķà½Ĭ à½ĸ
à½ķà½Ĭ à½¢à½Ħ
à¾µ à¾³à½±à¾Ģà¼ĭ
à½²à¼Ķ à¼ĭà¼ĭà¼ĭ
à¾¦à¾² à½±
à½ĸà½ĵ à½ĸ
à¼¡à¼£ à¼¥à¼ł
à¼¡à¼£ à¼§à¼£
à¼¡à¼¤ à¼¥à¼ł
à¼¡à¼¤ à¼§à¼£
à¼¡à¼§ à¼¢à¼¦
à¼¡à¼¦ à¼¤à¼£
à¼¡à¼¨ à¼¡à¼¤
à¼¡à¼¨ à¼¦à¼©
à¼¡à¼¨ à¼§à¼¤
à¼ĭà¼ĭà¼ĭ à¼ĭà¼įà¼į
à¼ĭà¾¢ à½²à½¿à¼ĭ
à½ĵà½Ķ à½ļ
à¾²à½± à½¿à¼į
à½Ħà½Ķ à½Ĩ
Ġà¼¡à¼£ à¼¥
Ġà¼ĭà¼ĭà¼ĭà¼ĭà¼ĭà¼ĭà¼ĭà¼ĭà¼ĭà¼ĭà¼ĭà¼ĭà¼ĭà¼ĭà¼ĭà¼ĭ à¼ĭà¼ĭà¼ĭà¼ĭà¼ĭà¼ĭà¼ĭ
à½Ĺà½Ĳà½Ħ à½¥
Ġà¼Įà¼Įà¼Įà¼Įà¼Įà¼Įà¼Įà¼Įà¼Įà¼Įà¼Įà¼Įà¼Įà¼Įà¼Įà¼Įà¼Įà¼Įà¼Įà¼Įà¼Įà¼Įà¼Įà¼Įà¼Įà¼Įà¼Įà¼Įà¼Įà¼Įà¼Įà¼Įà¼Į à¼Įà¼Įà¼Įà¼Į
à¾·à¾²à½´ à¾ĥà¼į
à½Ĵà½ķà½ŀ à½Ł
à¾²à¾²à¾²à¾² à¾²à¾²à¾²à¾²
Ġ à½Ĥà½ĺ
à¼ Ĳ
à¼ĭ à¾³à¼ĭ
à½² à½¼
à½ĳ à½£à½Ĥ
à½ĳ à½ĵà½Ĥ
à½Ĥ à½Ĳà½ĺà½¦
à½ĸ à½īà½ĺà½¦
à½ĵ à½ĺà½Ľà½ĳ
à¼į à¼ħà¼įà¼į
à½Ķ à½ĺà½Ĥ
à½ºà¼ĭ à½±à½´à¾ĥà¼ĭ
à¾² à¼µà½²
à½¡ à½£à½¦
à½¡ à½łà½Ħ
à½ķ à½Ģà½Ĥ
à¾Ĳ à½½à¼ĭ
à¾±à½º à½ºà¼į
à½£à½¦ à½ł
à½£à½¦ à½ī
à¾±à¼ĭ à½Ī
à½ºà¼į à¼ĭà¼ĭ
à½Ķà½¦ à½¢à½ĸ
à½Ĥà½ŀ à½ĸ
à¾© à½±à¼į
à½Ĥà½Ħ à½ļ
à¾Ĳà¾±à½º à½ºà¼ĭ
à¾³à¼ĭ à¼´
à¾Łà½ºà¼ĭ à¼º
à¾³à½¼à¼ĭ à¼¼
à¾£à¼ĭ à¼¼
à½ĵà½ĺà½¦ à½¢
à¾Ĵà¾² à¾¡à½¼
à½Ĺ à½©à½¡
à½ģà½Ĥ à½Ĥ
à¼ĭà¼ĳ à¼¸
à¼¨ à¼¢à¼¨
à¼¨ à¼£à¼§
à¼¨ à¼¨à¼ł
à¾µ à½±à½´
à¾²à½±à½²à¼ĭ à¼½
à¼¡à¼ł à¼¡à¼¦
à¼¡à¼£ à¼¤à¼§
à¼¡à¼¤ à¼¡à¼¢
à¼¡à¼¤ à¼¤à¼¡
à¼¡à¼§ à¼¦à¼£
à¼¡à¼¦ à¼¦à¼©
à¼¡à¼¦ à¼¨à¼¥
à½ĭ à½ŀ
à½ĭ à½İ
Ġà¼ł à¼¦
Ġà½¨ à½Ģ
à½į à½ĳ
à¼¨à¼© à¼¢
à½Ĳà½Ĳ à½łà½ĸ
à½ľ à½ĳ
à¼¡à¼¤à¼ł à¼§
à¼¡à¼§à¼ł à¼¤
Ġà¼¡à¼£ à¼£
à½ºà¼ĭà½Ī à½²à¼ĭ
à½§à½§à½§à½§à½§à½§à½§à½§ à½§à½§à½§
Ġà¼¢à¼ł à¼¢
à¼įà¼ĭà¼ĭà¼ĭà¼ĭà¼ĭà¼ĭà¼ĭà¼ĭà¼ĭà¼ĭà¼ĭà¼ĭà¼ĭà¼ĭà¼ĭà¼ĭà¼ĭà¼ĭà¼ĭà¼ĭà¼ĭà¼ĭà¼ĭà¼ĭà¼ĭà¼ĭà¼ĭà¼ĭà¼ĭà¼ĭà¼ĭà¼ĭà¼ĭà¼ĭà¼ĭà¼ĭà¼ĭà¼ĭà¼ĭà¼ĭà¼ĭà¼ĭà¼ĭà¼ĭà¼ĭà¼ĭà¼ĭà¼ĭà¼ĭà¼ĭà¼ĭà¼ĭà¼ĭà¼ĭà¼ĭà¼ĭà¼ĭà¼ĭà¼ĭà¼ĭà¼ĭà¼ĭà¼ĭà¼ĭà¼ĭà¼ĭà¼ĭà¼ĭà¼ĭà¼ĭà¼ĭà¼ĭà¼ĭà¼ĭà¼ĭà¼ĭà¼ĭà¼ĭà¼ĭà¼ĭà¼ĭà¼ĭà¼ĭà¼ĭà¼ĭà¼ĭà¼ĭà¼ĭà¼ĭà¼ĭà¼ĭà¼ĭà¼ĭà¼ĭà¼ĭà¼ĭà¼ĭà¼ĭà¼ĭà¼ĭà¼ĭà¼ĭà¼ĭà¼ĭà¼ĭà¼ĭà¼ĭà¼ĭà¼ĭà¼ĭà¼ĭà¼ĭ à¼ĭà¼ĭ
à¼ĭà¼įà¼ĭà¼ĭà¼ĭà¼ĭà¼ĭà¼ĭà¼ĭà¼ĭà¼ĭà¼ĭà¼ĭà¼ĭà¼ĭà¼ĭà¼ĭà¼ĭà¼ĭà¼ĭà¼ĭà¼ĭà¼ĭà¼ĭà¼ĭà¼ĭà¼ĭà¼ĭà¼ĭà¼ĭà¼ĭà¼ĭà¼ĭà¼ĭà¼ĭà¼ĭà¼ĭà¼ĭà¼ĭà¼ĭà¼ĭà¼ĭà¼ĭà¼ĭà¼ĭà¼ĭà¼ĭà¼ĭà¼ĭà¼ĭà¼ĭà¼ĭà¼ĭà¼ĭà¼ĭà¼ĭà¼ĭà¼ĭà¼ĭà¼ĭà¼ĭà¼ĭà¼ĭà¼ĭà¼ĭà¼ĭ à¼ĭà¼ĭà¼ĭà¼ĭà¼ĭà¼ĭà¼ĭà¼ĭà¼ĭà¼ĭà¼ĭà¼ĭà¼ĭà¼ĭà¼ĭà¼ĭà¼ĭà¼ĭà¼ĭà¼ĭà¼ĭà¼ĭà¼ĭà¼ĭà¼ĭà¼ĭà¼ĭà¼ĭà¼ĭà¼ĭà¼ĭà¼ĭ
Ġ à½Ħà½£
Ġ à½Ĥà½īà½ł
à½¦ à½ĺà½ģ
à½¢ à½¦à½¢
à½Ħ à½ĸà½Ģ
à½Ħ à½ĺà½ļà½ĵ
à½Ħ à½£à½ĺ
à½ĺ à½ĺà½ģà½ł
à½Ķ à½ĳà½Ĥà½ł
à½Ķ à½ļà½ĳ
à½£ à½Ĥà½ĳà½ĺà½¦
à½´à¼ĭ à¼Ħà¼ħà¼į
à½´à¼ĭ à¾¾à¼į
à¾Ł à¾²à½¼
à½Ĩ à½ħ
à½ķ à½¡à½ĵà½¡
à½Ĳ à½ī
à½Ĳ à½ĸà½¢
à½Ĳ à½Ģà½ł
à½Ķà½¢ à½ĸà½ŀà½Ĥ
à½ĳà½Ĥ à½łà½Ĥ
à½Ħà½¦ à½ģ
à¾¡ à¼·à¼ĭ
à¾¡ à½±à½²à¼į
à½£à½¦ à½īà½ĺà½¦
à½¡à½Ħ à½ļ
à¾¤ à½²à¼į
à¾Ķ à½²
à¾· à¾±à½ºà¼į
à¾· à¾Ńà¼į
à¾· à½½à¼įà¼į
à¾© à¾Ģ
à¾²à½² à¾ĥà¼ĭ
à½ĳà½ĸà½Ħ à½£
à½ĩ à½Ģ
à½¾ à¾Ģà¼ĭ
à½Ļà½ĺ à½£
à½Ĩà½Ĥà½¦ à½ĸ
à½İ à½ī
à½£à½Ĥà½¦ à½¢
à½Łà½Ĥ à½ĳà½Ħ
à¾¤à½¼ à¼Ķ
à¾±à½²à¼į à¼ĭ
à½¦à½ĺ à½ĺ
à½ĳà½Ĥà½Ĥ à½ĳà½ĸ
à½ĸà½ıà½ĸ à½Ķ
à¾¦à¼ĭ à¾¾
à½Ĵ à½Ĳà½Ģà½¡
à½ĸà½¦à½ĺà½¦ à½Ķà½ł
à¾ª à½¿à¼į
à¼¡à¼¢ à¼¥à¼ł
à¼¡à¼¢ à¼łà¼łà¼ł
à¼¡à¼£ à¼¢à¼¢
à¼¡à¼§ à¼¡à¼©
à¼¡à¼§ à¼§à¼¦
à¾ªà¼ĭ à½±à½´à¾ĥà¼ĭ
à¼¡à¼¦ à¼¦à¼¥
à¾ĭ à½Ĥà½¦
à¼¡à¼¡ à¼¡à¼¥
à¼Ī à¼ĭ
à¾ŀà¼ĭ à½±à¼ĭ
à¾¨à½±à¼ĭ à¼´
à¾´ à½±à½²à¼ĭ
à¼©à¼© à¼¥
à¼ĭà½¼à¼ĭà½ºà¼ĭ à½¾à¼ĭ
Ġà¼¡à¼£ à¼¦
Ġà¼ĭà¼ĭà¼ĭà¼ĭà¼ĭà¼ĭà¼ĭà¼ĭà¼ĭà¼ĭà¼ĭà¼ĭà¼ĭà¼ĭà¼ĭà¼ĭ à¼ĭà¼ĭà¼ĭà¼ĭà¼ĭà¼ĭà¼ĭà¼ĭ
à¼įà¼ĭà¼ĭà¼ĭà¼ĭà¼ĭà¼ĭà¼ĭà¼ĭà¼ĭà¼ĭà¼ĭà¼ĭà¼ĭà¼ĭà¼ĭà¼ĭà¼ĭà¼ĭà¼ĭà¼ĭà¼ĭà¼ĭà¼ĭà¼ĭà¼ĭà¼ĭà¼ĭà¼ĭà¼ĭà¼ĭà¼ĭà¼ĭà¼ĭà¼ĭà¼ĭà¼ĭà¼ĭà¼ĭà¼ĭà¼ĭà¼ĭà¼ĭà¼ĭà¼ĭà¼ĭà¼ĭà¼ĭà¼ĭà¼ĭà¼ĭà¼ĭà¼ĭà¼ĭà¼ĭà¼ĭà¼ĭà¼ĭà¼ĭà¼ĭà¼ĭà¼ĭà¼ĭà¼ĭà¼ĭà¼ĭà¼ĭà¼ĭà¼ĭà¼ĭà¼ĭà¼ĭà¼ĭà¼ĭà¼ĭà¼ĭà¼ĭà¼ĭà¼ĭà¼ĭà¼ĭà¼ĭà¼ĭà¼ĭà¼ĭà¼ĭà¼ĭà¼ĭà¼ĭà¼ĭà¼ĭà¼ĭà¼ĭà¼ĭà¼ĭà¼ĭà¼ĭà¼ĭà¼ĭà¼ĭà¼ĭà¼ĭà¼ĭà¼ĭà¼ĭà¼ĭà¼ĭà¼ĭà¼ĭà¼ĭà¼ĭà¼ĭà¼ĭà¼ĭà¼ĭà¼ĭà¼ĭà¼ĭà¼ĭà¼ĭà¼ĭà¼ĭà¼ĭà¼ĭà¼ĭà¼ĭà¼ĭà¼ĭà¼ĭ à¼ĭà¼ĭà¼ĭà¼ĭà¼ĭà¼ĭà¼ĭà¼ĭà¼ĭà¼ĭà¼ĭà¼ĭ
Ġà¼ĭà¼ĭà¼ĭà¼ĭà¼ĭà¼ĭà¼ĭà¼ĭà¼ĭà¼ĭà¼ĭà¼ĭà¼ĭà¼ĭà¼ĭà¼ĭà¼ĭà¼ĭà¼ĭà¼ĭà¼ĭà¼ĭà¼ĭà¼ĭà¼ĭà¼ĭà¼ĭà¼ĭà¼ĭà¼ĭà¼ĭà¼ĭà¼ĭà¼ĭà¼ĭà¼ĭà¼ĭà¼ĭà¼ĭà¼ĭà¼ĭà¼ĭà¼ĭà¼ĭà¼ĭà¼ĭà¼ĭà¼ĭà¼ĭà¼ĭà¼ĭà¼ĭà¼ĭà¼ĭà¼ĭà¼ĭà¼ĭà¼ĭà¼ĭà¼ĭà¼ĭà¼ĭà¼ĭà¼ĭà¼ĭà¼ĭà¼ĭà¼ĭà¼ĭà¼ĭà¼ĭà¼ĭà¼ĭà¼ĭà¼ĭà¼ĭà¼ĭà¼ĭà¼ĭà¼ĭà¼ĭà¼ĭà¼ĭà¼ĭà¼ĭà¼ĭà¼ĭà¼ĭà¼ĭà¼ĭà¼ĭà¼ĭà¼ĭà¼ĭà¼ĭà¼ĭà¼ĭà¼ĭà¼ĭà¼ĭà¼ĭà¼ĭà¼ĭà¼ĭà¼ĭà¼ĭà¼ĭà¼ĭà¼ĭà¼ĭà¼ĭà¼ĭ à¼ĭà¼ĭ
Ġà¼ĭà¼ĭà¼ĭà¼ĭà¼ĭà¼ĭà¼ĭà¼ĭà¼ĭà¼ĭà¼ĭà¼ĭà¼ĭà¼ĭà¼ĭà¼ĭà¼ĭà¼ĭà¼ĭà¼ĭà¼ĭà¼ĭà¼ĭà¼ĭà¼ĭà¼ĭà¼ĭà¼ĭà¼ĭà¼ĭà¼ĭà¼ĭà¼ĭà¼ĭà¼ĭà¼ĭà¼ĭà¼ĭà¼ĭà¼ĭà¼ĭà¼ĭà¼ĭà¼ĭà¼ĭà¼ĭà¼ĭà¼ĭ à¼ĭà¼ĭà¼ĭà¼ĭà¼ĭà¼ĭà¼ĭà¼ĭà¼ĭà¼ĭà¼ĭà¼ĭà¼ĭà¼ĭà¼ĭ
à½¦ à½ĸà½Łà½Ħ
à½¢ à½ĺà½ļ
à½ĵ à½ª
à½Ħ à½Ľ
à½ĺ à½ĸà½ŀà½Ĥ
à½Ķ à½ĺà½¢
à½²à¼ĭ à½¾
à½¡ à½Ŀ
à½¡ à½Ģà½ł
à¾Ł à½½à¼įà¼į
à½ħ à½łà½ĺ
à½ĸà½¦ à½ĺà½Ĳ
à½ģ à½ĺà½ģ
à½Ħà½¦ à½ĸà½¢
à¾¡ à¾²à½²à¼į
à½¡à½Ħ à½ĳà½ĺ
à¾¤ à¾©à½¼à¼ĭ
à½Ķà½¦ à½¡à½Ħ
à¾Ļ à½½à½¾à¼į
à¾Ĵà¾±à½´à¼ĭ à¼Ī
à¾³à½¼à¼ĭ à¼ĳ
à½Ĩà½Ĥà½¦ à½Ķà½¢
à¼ĭà¼ Ĳ
à½łà½Ĳ à½£
à½Ĥà½ıà½ĵ à½Ĥà½ī
à½ĸà½ŀà½Ĥ à½¢
à½±à½²à¼ĭ à½Īà½¼
à½īà½ĵ à½Ķ
à¼¤ à¼łà¼łà¼łà¼ł
à¾²à½ºà¼ĭ à¼´
à¾¦à¼ĭ à¾İ
à½Ĥà½ĳà½ĺà½¦ à½Ħà½Ĥ
à¾ª à¾«à¾«
à¼¡à¼¥ à¼¦à¼¤
à¾¥ à¼ĭà¼´
à¼£à¼£ à¼£à¼£
Ġà¼ĭà¼ĭà¼ĭà¼ĭà¼ĭà¼ĭà¼ĭà¼ĭà¼ĭà¼ĭà¼ĭà¼ĭà¼ĭà¼ĭà¼ĭà¼ĭà¼ĭà¼ĭà¼ĭà¼ĭà¼ĭà¼ĭà¼ĭà¼ĭà¼ĭà¼ĭà¼ĭà¼ĭà¼ĭà¼ĭà¼ĭà¼ĭà¼ĭà¼ĭà¼ĭà¼ĭà¼ĭà¼ĭà¼ĭà¼ĭà¼ĭà¼ĭà¼ĭà¼ĭà¼ĭà¼ĭà¼ĭà¼ĭà¼ĭà¼ĭà¼ĭà¼ĭà¼ĭà¼ĭà¼ĭà¼ĭà¼ĭà¼ĭà¼ĭà¼ĭà¼ĭà¼ĭà¼ĭà¼ĭ à¼ĭà¼ĭà¼ĭà¼ĭà¼ĭà¼ĭ
ĠĠĠĠĠĠĠĠ ĠĠĠĠĠĠĠ
à¼įà¼ĭà¼ĭà¼ĭ à¼ĭà¼į
à¼¡à¼¥à¼ł à¼£
à¾ŀà¾ŀ à½±à½²à¼ĭ
à¼¡à¼¨à¼ł à¼§
à¼¡à¼¡à¼© à¼£
à¾¾à¾¾à¾¾à¾¾ à¾¾à¾¾
à¼įà¼ĭà¼ĭà¼ĭà¼ĭà¼ĭà¼ĭà¼ĭà¼ĭà¼ĭà¼ĭà¼ĭà¼ĭà¼ĭà¼ĭà¼ĭà¼ĭà¼ĭà¼ĭà¼ĭà¼ĭà¼ĭà¼ĭà¼ĭà¼ĭà¼ĭà¼ĭà¼ĭà¼ĭà¼ĭà¼ĭà¼ĭà¼ĭà¼ĭà¼ĭà¼ĭà¼ĭà¼ĭà¼ĭà¼ĭà¼ĭà¼ĭà¼ĭà¼ĭà¼ĭà¼ĭà¼ĭà¼ĭà¼ĭà¼ĭà¼ĭà¼ĭà¼ĭà¼ĭà¼ĭà¼ĭà¼ĭà¼ĭà¼ĭà¼ĭà¼ĭà¼ĭà¼ĭà¼ĭà¼ĭà¼ĭà¼ĭà¼ĭà¼ĭà¼ĭà¼ĭà¼ĭà¼ĭà¼ĭà¼ĭà¼ĭà¼ĭà¼ĭà¼ĭà¼ĭà¼ĭà¼ĭà¼ĭà¼ĭà¼ĭà¼ĭà¼ĭà¼ĭà¼ĭà¼ĭà¼ĭà¼ĭà¼ĭà¼ĭà¼ĭà¼ĭà¼ĭà¼ĭà¼ĭà¼ĭà¼ĭà¼ĭà¼ĭà¼ĭà¼ĭà¼ĭà¼ĭà¼ĭà¼ĭà¼ĭà¼ĭà¼ĭà¼ĭ à¼ĭà¼ĭà¼ĭà¼ĭ
à½±à¾Ģ à½¾à¼į
Ġà¼´ à¼´à¼´
à¾Łà¼µ à½ºà¼į
Ġ à½łà½ĳà½ĸ
à½¦ à½Ĥà½¤
à½Ĥ à½Ĥà½¥
à½ĸ à½ĸà½£
à½Ħ à½Ĥà½¤
à½Ħ à½Ļà½ĺ
à½Ķ à½ĸà½¤
à½Ķ à½ĳà½Ķà½£
à½Ķ à½¡à½ĵ
à½²à¼ĭ à¾¡
à½Ĩ à½ĳà½ĸ
à½ģ à½ĺà½Ĳà½ł
à½Ķà½¢ à½ĸà½Ł
à¾£ à¾Łà¼ĭ
à½ĵà½¦ à½ı
à¾¡ à¾Ńà½²à¼ĭ
à½Ķà½¦ à½ł
à¾¦ à½±à½´
à½ħà½ĵ à½Ħ
à½¨ à½ĩ
à½łà½ĳà½¦ à½¤
à¾Ĳà½´à¼ĭ à¼½
à½Ļà½ĺ à½ī
à¾Ķà½¼ à¼·
à¾Ĳà¾± à¾¡à½ºà¼ĭ
à½ģà½Ħ à½ĳ
à½İ à½Ħ
à½¤à½¢ à½ķ
à½ĵà½ĺà½¦ à½ĳà½Ħ
à¾ľ à½±à½²à¼įà¼į
à¼¨ à¼£à¼¢
à½ķà½Ĭ à½¢
à½ĺà½ĩà½£ à½ĳ
à¾²à¼įà¼į à¼į
à¼¡à¼¢ à¼¡à¼£
à¾ŀ à½¾à¼Ķ
à¼¡à¼¥ à¼¡à¼¨
à¼¡à¼¥ à¼©à¼¥
à¾Ľ à½±à½²à¼į
à¼¡à¼¦ à¼¤à¼¦
à¼¡à¼¦ à¼©à¼¥
à¼¡à¼¨ à¼£à¼¥
à½Ĺà½¥ à½Ħà½¥
à¼©à¼§ à¼¥
Ġà¼ĭà¼ĭà¼ĭà¼ĭà¼ĭà¼ĭà¼ĭà¼ĭà¼ĭà¼ĭà¼ĭà¼ĭà¼ĭà¼ĭà¼ĭà¼ĭà¼ĭà¼ĭà¼ĭà¼ĭà¼ĭà¼ĭà¼ĭà¼ĭà¼ĭà¼ĭà¼ĭà¼ĭà¼ĭà¼ĭà¼ĭà¼ĭà¼ĭà¼ĭà¼ĭà¼ĭà¼ĭà¼ĭà¼ĭà¼ĭà¼ĭà¼ĭà¼ĭà¼ĭà¼ĭà¼ĭà¼ĭà¼ĭà¼ĭà¼ĭà¼ĭà¼ĭà¼ĭà¼ĭà¼ĭà¼ĭà¼ĭà¼ĭà¼ĭà¼ĭà¼ĭà¼ĭà¼ĭà¼ĭ à¼ĭà¼ĭà¼ĭà¼ĭà¼ĭà¼ĭà¼ĭà¼ĭà¼ĭà¼ĭà¼ĭà¼ĭ
à¼łà¼łà¼łà¼łà¼łà¼łà¼łà¼ł à¼łà¼łà¼łà¼ł
à¼¡à¼¡à¼ł à¼¦
Ġà¼¡à¼¢ à¼©
Ġà¼¡à¼¤ à¼¢
Ġ à¼¡à¼¦à¼ł
à½¦ à½łà½ļ
à½¦ à½Ĥà½ĵà½Ħ
à½¦ à½ĺà½ĵà½ĵ
à½¦ à½§à½¦
à½¦ à½Łà½«
à½¢ à½Ķà½Ĥà½¦
à½´ à½²à¼ĭ
à½£ à½ĳà½Ģ
à½£ à½ĸà½Ģà½ł
à½£ à½ĳà½ĳ
à½ŀ à½ĺà½¦
à½Ģ à½ĵà½¦
à½ĳà½Ħ à½£à½¦
à½Ķà½ł à½Ĩ
à½Ĳ à½ĺà½¢
à½ģ à½Łà½¦
à½ļ à½ı
à½ī à½ĵà½ĳ
à¾¡ à¾Ħ
à¾±à½´ à¼·à¼ĭ
à¾¤ à½ºà¼įà¼į
à¾· à½½
à¾· à½¾à¼Ķ
à¾© à½±à½´à¼ĭ
à½ĺà½ļ à½ĸ
à¾Ļ à½±à½²à¼į
à½Ĥà½Ħ à½ł
à½ĳà½ĺ à½Ľ
à½łà½ģ à½ĳ
à¾Ĵà¾±à½´à¼ĭ à½Īà¾±à½²
à¾Ĳà¾±à½ºà¼ĭ à½Īà½²
à¾Ń à¼ĭà¼´
à½ĳà½Ĥà½ł à½ŀ
à¼ĭà¼ĭà¼ĭà¼ĭ à¼ĭà¼įà¼į
à½ĸà½Ģà½ł à½ĺ
à½Ĳà½ĸà½¦ à½ĺà½ģà½¦
à½ıà½ĵ à½£
à½¥ à½Ĳ
à½łà½Ĥà½£ à½ĸà½¢
à½Ĵ à½Ĥà½ŀ
à¼© à¼¢à¼©
à¼© à¼£à¼¦
à¼© à¼£à¼©
à½Ĺ à½Ĳà½Ģà½¡
à½ĸà½¦à½£ à½ĸ
à¼¨ à¼¡à¼§
à½Į à½Ļ
à½łà½ĳà½ĸ à½ĺ
à¾²à½±à½² à½²à¼ĭ
à¼ĭà¼¼ à¼ĭ
à¾ŀ à½ºà¼į
à¼¡à¼¤ à¼£à¼£
à¼¡à¼¦ à¼¡à¼ł
à¼¡à¼¦ à¼©à¼£
à¼¡à¼¨ à¼¢à¼¡
à½ĺà½ĺ à½ĺ
à½ĭ à½ĸ
à¾·à½± à½ºà¼ĭ
à¼ĭà¼Ŀ à¼Ŀà¼Ŀà¼Ŀà¼Ŀ
Ġà¼ĭà¼ĭà¼ĭà¼ĭà¼ĭà¼ĭà¼ĭà¼ĭà¼ĭà¼ĭà¼ĭà¼ĭà¼ĭà¼ĭà¼ĭà¼ĭà¼ĭà¼ĭà¼ĭà¼ĭà¼ĭà¼ĭà¼ĭà¼ĭà¼ĭà¼ĭà¼ĭà¼ĭà¼ĭà¼ĭà¼ĭà¼ĭà¼ĭà¼ĭà¼ĭà¼ĭà¼ĭà¼ĭà¼ĭà¼ĭà¼ĭà¼ĭà¼ĭà¼ĭà¼ĭà¼ĭà¼ĭà¼ĭà¼ĭà¼ĭà¼ĭà¼ĭà¼ĭà¼ĭà¼ĭà¼ĭà¼ĭà¼ĭà¼ĭà¼ĭà¼ĭà¼ĭà¼ĭà¼ĭ à¼ĭà¼ĭà¼ĭ
Ġà¼ĭà¼ĭà¼ĭà¼ĭà¼ĭà¼ĭà¼ĭà¼ĭà¼ĭà¼ĭà¼ĭà¼ĭà¼ĭà¼ĭà¼ĭà¼ĭà¼ĭà¼ĭà¼ĭà¼ĭà¼ĭà¼ĭà¼ĭà¼ĭà¼ĭà¼ĭà¼ĭà¼ĭà¼ĭà¼ĭà¼ĭà¼ĭà¼ĭà¼ĭà¼ĭà¼ĭà¼ĭà¼ĭà¼ĭà¼ĭà¼ĭà¼ĭà¼ĭà¼ĭà¼ĭà¼ĭà¼ĭà¼ĭà¼ĭà¼ĭà¼ĭà¼ĭà¼ĭà¼ĭà¼ĭà¼ĭà¼ĭà¼ĭà¼ĭà¼ĭà¼ĭà¼ĭà¼ĭà¼ĭ à¼ĭà¼ĭà¼ĭà¼ĭà¼ĭà¼ĭà¼ĭ
à¾¼ à¾Ģ
Ġà¼¡à¼¢ à¼¦
Ġà¼¡à¼£ à¼¤
à¼¡à¼¡à¼¥ à¼£
à¼ĭà½±à¼ĭ à½±à½²à¼ĭ
à½Ķà½Ĳà½ĺà½¦ à½Ķà½ħ
Ġà¼Įà¼Įà¼Įà¼Įà¼Įà¼Įà¼Įà¼Įà¼Įà¼Įà¼Įà¼Įà¼Įà¼Įà¼Įà¼Įà¼Įà¼Įà¼Įà¼Įà¼Įà¼Įà¼Įà¼Įà¼Įà¼Įà¼Įà¼Įà¼Įà¼Įà¼Įà¼Įà¼Į à¼Įà¼Į
à¼Īà¼Īà¼Īà¼Ī à¼Īà¼Īà¼Īà¼Ī
Ġ à¾ĭà½Ĥ
à½¦ à½łà½Ĩ
à½¦ à½ķà½ĵ
à½¦ à½¦à½¢
à½ĳ à½łà½Ľ
à½ĸ à½Ĥà½¦à½£
à½ĸ à½ĵà½ĵ
à½ĵ à½ĸà½ħà½¦
à½ĵ à½īà½ĺà½¦
à½ĵ à½Ĥà½¦à½Ħ
à½Ķ à½ĺà½ģà½ł
à½£ à½ļà½ĳ
à½Ĥà½¦ à½ĩ
à½Ĥà½¦ à½ĵà½ĳ
à½ĳà½Ħ à½Ĥà½ħ
à¾±à½²à¼ĭ à¼Ŀ
à½ī à½¨
à½ĸà½¢ à½ĳà½ĺ
à½ĵà½¦ à½łà½ģ
à¾· à¾²à½±à¾Ģ
à½± à¾·à½²à¼ĭ
à¾²à½² à¼µà¼ĭ
à½Ļ à½¨
à¾Ļ à½±à½´
à¾Ļ à¾¦à¾·à½º
à½¨ à½Ģà½¢
à½ĳà½ĸà½Ħ à½¢
à½łà½ķ à½ł
à½±à¼ĭ à½±à¼ĭ
à¼ĭà¼ĭ à¼º
à½¼à¼į à¼Įà¼Įà¼Į
à½´à¼į à¼Į
à½Łà½¦ à½ĳà½Ħ
à¼ĭà½Ī à¾Ļà½º
à¾¡à¼ĭ à½º
à¼¨ à¼¢à¼¦
à½¼à¼įà¼įà¼įà¼į à¼Ī
à¾µ à½±à½²à¼į
à¾·à½¼ à½¼à¼ĭ
à¼¡à¼ł à¼£à¼¤
à¾Łà½¼à¼ĭ à½Īà½²
à¼¡à¼¢ à¼¢à¼¥
à¼¡à¼¢ à¼¦à¼§
à¼¡à¼£ à¼¡à¼£
à½¨à½¢ à½Ĳ
à¼¡à¼¥ à¼¥à¼¤
à½¾à¼įà¼į à¼Ī
à¾Ĵà¾±à¼į à¼½
à¼įà¼įà¼įà¼į à¼Ħà¼ħà¼ħà¼įà¼į
à½ķà½¥ à½Ħà½¥
à¼©à¼§ à¼¦
à¼¨à¼ł à¼£
à¼įà¼ĭà¼ĭà¼ĭà¼ĭà¼ĭà¼ĭà¼ĭà¼ĭà¼ĭà¼ĭà¼ĭà¼ĭà¼ĭà¼ĭà¼ĭà¼ĭà¼ĭà¼ĭà¼ĭà¼ĭà¼ĭà¼ĭà¼ĭà¼ĭà¼ĭà¼ĭà¼ĭà¼ĭà¼ĭà¼ĭà¼ĭà¼ĭà¼ĭà¼ĭà¼ĭà¼ĭà¼ĭà¼ĭà¼ĭà¼ĭà¼ĭà¼ĭà¼ĭà¼ĭà¼ĭà¼ĭà¼ĭà¼ĭà¼ĭà¼ĭà¼ĭà¼ĭà¼ĭà¼ĭà¼ĭà¼ĭà¼ĭà¼ĭà¼ĭà¼ĭà¼ĭà¼ĭà¼ĭà¼ĭà¼ĭà¼ĭà¼ĭà¼ĭà¼ĭà¼ĭà¼ĭà¼ĭà¼ĭà¼ĭà¼ĭà¼ĭà¼ĭà¼ĭà¼ĭà¼ĭà¼ĭà¼ĭà¼ĭà¼ĭà¼ĭà¼ĭà¼ĭà¼ĭà¼ĭà¼ĭà¼ĭà¼ĭà¼ĭà¼ĭà¼ĭà¼ĭà¼ĭà¼ĭà¼ĭà¼ĭà¼ĭà¼ĭà¼ĭà¼ĭà¼ĭà¼ĭà¼ĭà¼ĭà¼ĭà¼ĭà¼ĭà¼ĭ à¼ĭà¼ĭà¼ĭà¼ĭà¼ĭà¼ĭà¼ĭà¼ĭà¼ĭà¼ĭà¼ĭà¼ĭà¼ĭà¼ĭ
à¼ĭà¼ħ à¼¼
à½ĸà½¤à½Ĳà½Ĳ à½Ĳ
Ġ à½ĺà½Ħà½£
à½Ĥ à½łà½ķà½Ĥà½¦
à½¢ à½ĵà½Ħ
à½Ħ à½ĸà½£
à½ĺ à½ĳà½Ģ
à¾² à½¿à¼įà¼į
à¾² à¾Ĥà¼ĭ
à½´à¼ĭ à¼įà¼į
à½¡ à½ıà½ĵ
à¾Ł à¾²à½±à¾Ģ
à½Ĩ à½Ĥà½¢
à½ĸà½¦ à½ļ
à½ķ à½ħà½Ħ
à½ĸà½¢ à½ĸà½Ł
à¾£ à¾Ĺà½¼
à¾£ à½²à½¿à¼į
à½Ħà½¦ à½Ħà½¦
à¾±à½´ à½¾à¼ĭ
à½¡à½Ħ à½ĺà½Ĳ
à½¡à½Ħ à½Ĥà½ĵà½¦
à¾· à½¼à½¾à¼ĭ
à¾²à¼ĭ à½¼
à½ħà½ĵ à½Ĥà½ŀà½ĵ
à½ĺà½Ĩ à½ł
à½¨ à½ĳà½¦
à¾³à¼ĭ à½¼
à½ĳà½Ķà½ł à½ŀ
à½łà½Ĳ à½ĳà½Ķà½ł
à¾¡à½ºà¼ĭ à¼½
à¾¡à½ºà¼ĭ à¼ĳ
à¾¨à½² à¼·à¼ĭ
à¾³à½´à¼ĭ à¼¼
à½Ĵ à½Ĳà½Ģ
à¼© à¼¢à¼¤
à¼© à¼¥à¼¡
à¼¨ à¼¢à¼©
à¼¨ à¼¤à¼£
à½ĸà½¦à½ĺà½¦ à½ĺ
à½ĵà½ĵ à½ıà½ĵ
à¾µ à¾¨à½±
à½Ĩà½Ĥ à½ĸ
à¼¡à¼¢ à¼¡à¼§
à¼¡à¼¥ à¼¨à¼£
à¼¡à¼§ à¼¨à¼¤
à¾Ľ à½½à¼ĭ
à¼¡à¼¨ à¼¢à¼¤
à¾ł à½º
Ġà¼įà¼į à¼ĭ
à¾²à½± à½ºà¼ĭ
à½²à¼ĭà½Ī à¾¡à½º
à¼¨à¼ł à¼§
à¾·à½±à½´ à¼Ķ
à¼įà¼ĭà¼ĭà¼ĭà¼ĭà¼ĭà¼ĭà¼ĭà¼ĭà¼ĭà¼ĭà¼ĭà¼ĭà¼ĭà¼ĭà¼ĭà¼ĭà¼ĭà¼ĭà¼ĭà¼ĭà¼ĭà¼ĭà¼ĭà¼ĭà¼ĭà¼ĭà¼ĭà¼ĭà¼ĭà¼ĭà¼ĭà¼ĭà¼ĭà¼ĭà¼ĭà¼ĭà¼ĭà¼ĭà¼ĭà¼ĭà¼ĭà¼ĭà¼ĭà¼ĭà¼ĭà¼ĭà¼ĭà¼ĭà¼ĭà¼ĭà¼ĭà¼ĭà¼ĭà¼ĭà¼ĭà¼ĭà¼ĭà¼ĭà¼ĭà¼ĭà¼ĭà¼ĭà¼ĭà¼ĭà¼ĭà¼ĭà¼ĭà¼ĭà¼ĭà¼ĭà¼ĭà¼ĭà¼ĭà¼ĭà¼ĭà¼ĭà¼ĭà¼ĭà¼ĭà¼ĭà¼ĭà¼ĭà¼ĭà¼ĭà¼ĭà¼ĭà¼ĭà¼ĭà¼ĭà¼ĭà¼ĭà¼ĭà¼ĭà¼ĭà¼ĭà¼ĭà¼ĭà¼ĭà¼ĭà¼ĭà¼ĭà¼ĭà¼ĭà¼ĭà¼ĭà¼ĭà¼ĭà¼ĭà¼ĭà¼ĭà¼ĭà¼ĭà¼ĭà¼ĭà¼ĭà¼ĭà¼ĭà¼ĭà¼ĭà¼ĭà¼ĭà¼ĭà¼ĭà¼ĭà¼ĭà¼ĭà¼ĭà¼ĭ à¼ĭà¼ĭà¼ĭà¼ĭà¼ĭà¼ĭà¼ĭà¼ĭ
à½ĸà½ĸà½ĸà½ĸà½ĸà½ĸà½ĸà½ĸ à½ĸà½ĸà½ĸ
Ġà¼ĭà¼ĭà¼ĭà¼ĭà¼ĭà¼ĭà¼ĭà¼ĭà¼ĭà¼ĭà¼ĭà¼ĭà¼ĭà¼ĭà¼ĭà¼ĭà¼ĭà¼ĭà¼ĭà¼ĭà¼ĭà¼ĭà¼ĭà¼ĭà¼ĭà¼ĭà¼ĭà¼ĭà¼ĭà¼ĭà¼ĭà¼ĭà¼ĭà¼ĭà¼ĭà¼ĭà¼ĭà¼ĭà¼ĭà¼ĭà¼ĭà¼ĭà¼ĭà¼ĭà¼ĭà¼ĭà¼ĭà¼ĭà¼ĭà¼ĭà¼ĭà¼ĭà¼ĭà¼ĭà¼ĭà¼ĭà¼ĭà¼ĭà¼ĭà¼ĭà¼ĭà¼ĭà¼ĭà¼ĭà¼ĭà¼ĭà¼ĭà¼ĭà¼ĭà¼ĭà¼ĭà¼ĭà¼ĭà¼ĭà¼ĭà¼ĭà¼ĭà¼ĭà¼ĭà¼ĭà¼ĭà¼ĭà¼ĭà¼ĭà¼ĭà¼ĭà¼ĭà¼ĭà¼ĭà¼ĭà¼ĭà¼ĭà¼ĭà¼ĭà¼ĭà¼ĭ à¼ĭà¼ĭà¼ĭà¼ĭà¼ĭà¼ĭà¼ĭà¼ĭà¼ĭà¼ĭà¼ĭà¼ĭà¼ĭà¼ĭà¼ĭ
à½Ĺà½Ĵ à½Ĵ
à¾·à¾²à½±à½´ à½¾à¼Ķ
Ġ à½ģà½Ĥ
Ġ à½ĳà½ĺà½ĵ
à½Ĥ à½ĸà½¦à½ĺ
à½Ĥ à½Ĥà½¦à½Ħ
à½ĵ à½Łà½ĸ
à½Ħ à½Ĥà½ĵ
à½Ħ à½Ħà½Ĥ
à½ĺ à½łà½Ľ
à½ĺ à½Ģà½¦
à½Ķ à½ĸà½£
à½Ķ à½ĵà½ł
à½ł à½ĵà½¦
à½£ à½łà½ķà½Ĥà½¦
à½Ĥà½¦ à½ĸà½ł
à¾² à½¾à½¿à¼ĭ
à½´à¼ĭ à¼ĭà¼įà¼į
à½´à¼ĭ à¼Ŀà¼įà¼į
à½¼à¼ĭ à¾¾
à½ĳà½Ħ à½Ĥà½ı
à½ķ à½Ģà½ł
à½ĳà½Ĥ à½Ļ
à¾£ à½¾à¼įà¼į
à½Ł à½Ĥà½ĵ
à¾¡ à¾±
à½¡à½Ħ à½¡à½Ħ
à½Ķà½¦ à½ĺà½Ħ
à½ĺà½Ĳ à½łà½Ĥà½ī
à½Ľ à½Ŀ
à½ĸà½¤ à½ĳà½ĸ
à½ĳà½Ģ à½łà½ĺ
à¾« à¾«à¼į
à½ĸà½ħà½¦ à½Ķà½¦
à½£à½Ĥà½¦ à½Ķ
à¾·à½´ à¾ĥà¼ĭ
à½Ĺ à½ķà½Ĳà½Ĥ
à¾¤à¾²à½² à½²
à½ĺà½ļà½¢ à½ĳ
à¾·à½¼ à¾ħà¼ĭ
à½ĳà½ĵ à½Ķ
à¼¡à¼¤ à¼¢à¼¨
à¼¡à¼¤ à¼£à¼¡
à¼¡à¼§ à¼¤à¼¨
à¼¡à¼§ à¼¨à¼¢
à¾¦à¾· à¾±à¼ĭ
à¼ĭà¼¹ à¾Ģ
à¼Ģ à½ĸà½¦
à½ĭ à½ĵà½ł
à¾±à½± à½¿à¼įà¼į
Ġà¼ĭà¼ĭà¼ĭà¼ĭà¼ĭà¼ĭà¼ĭà¼ĭà¼ĭà¼ĭà¼ĭà¼ĭà¼ĭà¼ĭà¼ĭà¼ĭà¼ĭà¼ĭà¼ĭà¼ĭà¼ĭà¼ĭà¼ĭà¼ĭà¼ĭà¼ĭà¼ĭà¼ĭà¼ĭà¼ĭà¼ĭà¼ĭà¼ĭà¼ĭà¼ĭà¼ĭà¼ĭà¼ĭà¼ĭà¼ĭà¼ĭà¼ĭà¼ĭà¼ĭà¼ĭà¼ĭà¼ĭà¼ĭà¼ĭà¼ĭà¼ĭà¼ĭà¼ĭà¼ĭà¼ĭà¼ĭà¼ĭà¼ĭà¼ĭà¼ĭà¼ĭà¼ĭà¼ĭà¼ĭ à¼ĭà¼ĭ
à¼¨à¼¨ à¼§
à¾° à½´
à½Ĳà½Ĳ à½§
à¼¡à¼¡à¼£ à¼¢
à¼¡à¼¡à¼¢ à¼§
à¼¡à¼¡à¼© à¼¢
à¿ ĭ
à¼įà¼ĭà¼ĭà¼ĭà¼ĭà¼ĭà¼ĭà¼ĭà¼ĭà¼ĭà¼ĭà¼ĭà¼ĭà¼ĭà¼ĭà¼ĭà¼ĭà¼ĭà¼ĭà¼ĭà¼ĭà¼ĭà¼ĭà¼ĭà¼ĭà¼ĭà¼ĭà¼ĭà¼ĭà¼ĭà¼ĭà¼ĭà¼ĭ à¼ĭà¼ĭà¼ĭ
à¼ļ à¼į
à¾¨à¾²à¾±à½´ à½¾à¼į
Ġ à½ĸà½¦à½Ĥà½¦
à½¦ à½ĺà½Ľ
à½² à½²à¼įà¼į
à½ĸ à½ĺà½Ĥ
à½Ķ à½£à½ĵ
à½Ķ à½Łà½Ĥ
à½Ķ à½ļà½ĵ
à½Ĥà½¦ à½Ĥà½Ł
à¾² à½±à½´à¾ĥà¼į
à½ĳà½Ħ à½Ĥà½¡
à½Ĩ à½Ķà½¦
à¾±à½²à¼ĭ à¼İ
à½Ĳ à½ģ
à½ģ à½£à½ł
à½ı à½ħ
à½ĺà½¦ à½¢à½Ħ
à½¤ à½Ľ
à½Ł à½¡
à½łà½ĸ à½¤
à½Ķà½¦ à½ĸà½ĳ
à¾Ķ à½±à¼ĭ
à¾Ķ à¾·à½¿à¼ĭ
à½Ĥà½Ħ à½ħ
à½ħà½ĳ à½£à½¦
à½§ à½Ļ
à½£à½ĺ à½¤
à½ĳà½Ķà½ł à½ĵ
à¾Ń à½´à¼ĭ
à½£à½Ĥ à½ł
à¾Ĳà¾± à¼·à½º
à½İ à½¥
à½Ķà½ĳ à½¢
à½ıà½ĵ à½ĳ
à½ļà½Ħ à½ĸ
à¼¢ à¼¡à¼£à¼¨
à½±à½²à¼ĭ à½Ī
à¾©à½² à¼·à¼ĭ
à¾Ĵà¾² à¾·à½²
à¼ħ à¼į
à½Ĵ à½Ĵà½İ
à¼© à¼¢à¼ł
à¼© à¼¥à¼¥
à½Ĺ à½Łà½ģ
à¾¡à¼ĭ à½¼
à¼¨ à¼¡à¼©
à¼¨ à¼¢à¼¥
à¾Ķà½¼à¼ĭ à¼ĳ
à½ĸà½Ģà½Ĥ à½Ķà½ł
à¾µ à¾ļà¼į
à½ĺà½£ à½Ŀà½¢à½¡
à½½ à½¿à¼įà¼į
à¼ĭà¼¼ à¼į
à¼¡à¼¢ à¼¤à¼§
à¾ļ à¾±à¼ĭ
à¾ŀ à½½à¼ĭ
à¼¡à¼¤ à¼¥à¼£
à¼¡à¼¨ à¼£à¼£
à¾ł à½±à½´
à½ĥ à½Ŀ
à¾ĳ à½²
Ġà¼¡à¼ł à¼§
à¾±à½²à¼ĭà¼ĳ à¼ĳ
à¼¡à¼¤à¼ł à¼¤
à¼¡à¼¡à¼¢ à¼¤
Ġà¼ĭà¼ĭà¼ĭà¼ĭà¼ĭà¼ĭà¼ĭà¼ĭà¼ĭà¼ĭà¼ĭà¼ĭà¼ĭà¼ĭà¼ĭà¼ĭ à¼ĭà¼ĭà¼ĭà¼ĭà¼ĭà¼ĭà¼ĭà¼ĭà¼ĭ
à½ĸà½¤à½Ĳ à½ĸà½¤à½Ĳ
à¼Įà¼Įà¼Įà¼Įà¼Įà¼Įà¼Įà¼Įà¼Įà¼Įà¼Įà¼Įà¼Įà¼Įà¼Įà¼Įà¼Įà¼Įà¼Įà¼Įà¼Įà¼Įà¼Įà¼Įà¼Įà¼Įà¼Įà¼Įà¼Įà¼Įà¼Įà¼Įà¼Įà¼Įà¼Įà¼Įà¼Įà¼Įà¼Įà¼Įà¼Įà¼Įà¼Įà¼Įà¼Įà¼Įà¼Įà¼Įà¼Įà¼Įà¼Įà¼Įà¼Įà¼Įà¼Įà¼Įà¼Įà¼Įà¼Įà¼Įà¼Įà¼Įà¼Įà¼Į à¼Įà¼Įà¼Įà¼Įà¼Įà¼Įà¼Įà¼Įà¼Įà¼Įà¼Įà¼Įà¼Įà¼Įà¼Įà¼Į
Ġ à¾ĭà½¢
à½Ĥ à½ĺà½ģ
à½¼ à½¼à½¾à¼ĭ
à½¢ à½ħà½ĵ
à½Ħ à½Ĥà½¦à½£
à¼į à¼Ķ
à½£ à½Ħà½Ĥ
à½Ĥà½¦ à½ĳà½ĸà½Ħ
à½Ĳ à½łà½ĺ
à½ģ à½ĳà½Ĥ
à¾Ĳ à¾²à½¼à¼ĭ
à¾£ à¾©à½¼
à½ĵà½¦ à½ĸà½¤à½ĳ
à¾¡ à¾²à½ºà¼į
à¾±à½¼ à¼µ
à½¡à½Ħ à½ĩ
à½ĳà½ĺ à½ĸà½ħà½ł
à½¨ à½ĸà½ĳ
à½ĸà½Ģ à½łà½Ĥ
à½ĸà½Ģ à½¢à½ĳ
à½ĸà½ħà½¦ à½¤
à¾Ń à¾±à¼ĭ
à¾¡à½¼ à½¾à¼ĭ
à¾£à¼ĭ à¼º
à¾Ĵà½¼à¼ĭ à¼¼
à½Ĳà½Ĥ à½Ķ
à½Ģà½¢ à½¦
à¼© à¼¡à¼¨
à¼© à¼¦à¼¡
à½ķà½Ĭ à½ĺ
à¾ª à½¼
à¾¡à¾· à½±à½¾à¼ĭ
à¼¡à¼¤ à¼¨à¼¡
à¼¡à¼¦ à¼¤à¼ł
à½ĵà½Ķ à½Ĩ
à½ĥ à½Į
ĉĉ Ġĉĉĉ
Ġà¼ĭà¼ĭà¼ĭà¼ĭà¼ĭà¼ĭà¼ĭà¼ĭà¼ĭà¼ĭà¼ĭà¼ĭà¼ĭà¼ĭà¼ĭà¼ĭà¼ĭà¼ĭà¼ĭà¼ĭà¼ĭà¼ĭà¼ĭà¼ĭà¼ĭà¼ĭà¼ĭà¼ĭà¼ĭà¼ĭà¼ĭà¼ĭà¼ĭà¼ĭà¼ĭà¼ĭà¼ĭà¼ĭà¼ĭà¼ĭà¼ĭà¼ĭà¼ĭà¼ĭà¼ĭà¼ĭà¼ĭà¼ĭà¼ĭà¼ĭà¼ĭà¼ĭà¼ĭà¼ĭà¼ĭà¼ĭà¼ĭà¼ĭà¼ĭà¼ĭà¼ĭà¼ĭà¼ĭà¼ĭ à¼ĭ
Ġà¼¡à¼¢ à¼£
à¾²à¼ĭà½µ à¾ĥà¼ĭ
à¼¡à¼¢à¼£à¼¤ à¼¥à¼¦
Ġ à½Ħà½ĺ
à¼ĭ à½¿à¼į
à½¦ à½ĸà½£
à½Ĥ à½Ĥà½¦à½£
à½Ħ à½ĺà½ļ
à½Ķ à½ħà½ĳ
à½Ķ à½ĺà½Ĳà½¢
à¾² à¾±à½ºà¼ĭ
à½ŀ à½łà½ĺ
à¾Ł à¾¶à¾±à¼ĭ
à½ĳà½Ħ à½ħ
à½ĺà½¦ à½Ļà½ĺ
à½ĳà½Ĥ à½ĸà½ĳà½Ĥ
à½łà½ §
à½Ķà½¦ à½ĺà½Ĩ
à½Ļ à½łà½Ħ
à¾Ļ à½»
à¾²à¼ĭ à¼ĳà¼į
à¾©à¼ĭ à½±à½´à¾ĥà¼į
à½ĳà½Ĥà½ł à½Ħ
à½ĵà½ĺ à½ĺ
à½łà½Ĳ à½ĳà½Ķ
à½ĵà½ĺà½¦ à½ĸ
à½ĸà½¦à½ĺà½¦ à½ĺà½¦
à½ĸà½¦à½ĺà½¦ à½ĵà½¦
à¾µ à¼ĭà¼Ħà¼ħà¼įà¼į
à½īà½£ à½ĸ
à¼¡à¼ł à¼¢à¼¡
à¼¡à¼ł à¼£à¼¡
à¼¡à¼ł à¼§à¼ł
à¼¡à¼¢ à¼¤à¼¦
à¼ĭà¾ ¶
à¼¡à¼£ à¼¤à¼ł
à¼¡à¼¤ à¼¡à¼¨
à¼¡à¼¤ à¼¦à¼©
à¼¡à¼¤ à¼©à¼¢
à¼¡à¼¥ à¼¢à¼¦
à¼¡à¼¥ à¼¨à¼¨
à¼¡à¼§ à¼¢à¼¢
à¾Ľ à½²à½¿à¼į
à¼¡à¼¦ à¼£à¼¤
à½© à½ģ
à½¦à½Ķ à½¡
à¾´ à½±à½´à¼ĭ
à¼©à¼© à¼¨
à¾º à½ºà¼į
à¼¡à¼łà¼ł à¼¥
à¼įà¼Ī à¼į
Ġà¼¡à¼¥ à¼¥
Ġà¼¡à¼¥ à¼¨
Ġà¼¡à¼¤ à¼¦
à¼įà¼ĭà¼ĭà¼ĭà¼ĭà¼ĭà¼ĭà¼ĭà¼ĭà¼ĭà¼ĭà¼ĭà¼ĭà¼ĭà¼ĭà¼ĭà¼ĭà¼ĭà¼ĭà¼ĭà¼ĭà¼ĭà¼ĭà¼ĭà¼ĭà¼ĭà¼ĭà¼ĭà¼ĭà¼ĭà¼ĭà¼ĭà¼ĭà¼ĭà¼ĭà¼ĭà¼ĭà¼ĭà¼ĭà¼ĭà¼ĭà¼ĭà¼ĭà¼ĭà¼ĭà¼ĭà¼ĭà¼ĭà¼ĭà¼ĭà¼ĭà¼ĭà¼ĭà¼ĭà¼ĭà¼ĭà¼ĭà¼ĭà¼ĭà¼ĭà¼ĭà¼ĭà¼ĭà¼ĭà¼ĭà¼ĭà¼ĭà¼ĭà¼ĭà¼ĭà¼ĭà¼ĭà¼ĭà¼ĭà¼ĭà¼ĭà¼ĭà¼ĭà¼ĭà¼ĭà¼ĭà¼ĭà¼ĭà¼ĭà¼ĭà¼ĭà¼ĭà¼ĭà¼ĭà¼ĭà¼ĭà¼ĭà¼ĭà¼ĭà¼ĭà¼ĭà¼ĭà¼ĭà¼ĭà¼ĭà¼ĭà¼ĭà¼ĭà¼ĭà¼ĭà¼ĭà¼ĭà¼ĭà¼ĭà¼ĭà¼ĭà¼ĭà¼ĭà¼ĭà¼ĭà¼ĭà¼ĭà¼ĭà¼ĭà¼ĭà¼ĭà¼ĭà¼ĭà¼ĭà¼ĭà¼ĭà¼ĭà¼ĭà¼ĭ à¼ĭà¼ĭà¼ĭà¼ĭ
à¼įà¼ĭà¼ĭà¼ĭà¼ĭà¼ĭà¼ĭà¼ĭà¼ĭà¼ĭà¼ĭà¼ĭà¼ĭà¼ĭà¼ĭà¼ĭà¼ĭà¼ĭà¼ĭà¼ĭà¼ĭà¼ĭà¼ĭà¼ĭà¼ĭà¼ĭà¼ĭà¼ĭà¼ĭà¼ĭà¼ĭà¼ĭà¼ĭà¼ĭà¼ĭà¼ĭà¼ĭà¼ĭà¼ĭà¼ĭà¼ĭà¼ĭà¼ĭà¼ĭà¼ĭà¼ĭà¼ĭà¼ĭà¼ĭà¼ĭà¼ĭà¼ĭà¼ĭà¼ĭà¼ĭà¼ĭà¼ĭà¼ĭà¼ĭà¼ĭà¼ĭà¼ĭà¼ĭà¼ĭà¼ĭà¼ĭà¼ĭà¼ĭà¼ĭà¼ĭà¼ĭà¼ĭà¼ĭà¼ĭà¼ĭà¼ĭà¼ĭà¼ĭà¼ĭà¼ĭà¼ĭà¼ĭà¼ĭà¼ĭà¼ĭà¼ĭà¼ĭà¼ĭà¼ĭà¼ĭà¼ĭà¼ĭà¼ĭà¼ĭà¼ĭà¼ĭà¼ĭà¼ĭà¼ĭà¼ĭà¼ĭà¼ĭà¼ĭà¼ĭà¼ĭà¼ĭà¼ĭà¼ĭà¼ĭà¼ĭà¼ĭà¼ĭà¼ĭà¼ĭà¼ĭà¼ĭà¼ĭà¼ĭà¼ĭà¼ĭà¼ĭà¼ĭà¼ĭà¼ĭà¼ĭà¼ĭà¼ĭà¼ĭà¼ĭ à¼ĭà¼ĭà¼ĭà¼ĭà¼ĭà¼ĭà¼ĭ
à¼įà¼ĭà¼ĭà¼ĭà¼ĭà¼ĭà¼ĭà¼ĭà¼ĭà¼ĭà¼ĭà¼ĭà¼ĭà¼ĭà¼ĭà¼ĭà¼ĭà¼ĭà¼ĭà¼ĭà¼ĭà¼ĭà¼ĭà¼ĭà¼ĭà¼ĭà¼ĭà¼ĭà¼ĭà¼ĭà¼ĭà¼ĭà¼ĭà¼ĭà¼ĭà¼ĭà¼ĭà¼ĭà¼ĭà¼ĭà¼ĭà¼ĭà¼ĭà¼ĭà¼ĭà¼ĭà¼ĭà¼ĭà¼ĭà¼ĭà¼ĭà¼ĭà¼ĭà¼ĭà¼ĭà¼ĭà¼ĭà¼ĭà¼ĭà¼ĭà¼ĭà¼ĭà¼ĭà¼ĭà¼ĭà¼ĭà¼ĭà¼ĭà¼ĭà¼ĭà¼ĭà¼ĭà¼ĭà¼ĭà¼ĭà¼ĭà¼ĭà¼ĭà¼ĭà¼ĭà¼ĭà¼ĭà¼ĭà¼ĭà¼ĭà¼ĭà¼ĭà¼ĭà¼ĭà¼ĭà¼ĭà¼ĭà¼ĭà¼ĭà¼ĭà¼ĭà¼ĭà¼ĭà¼ĭà¼ĭà¼ĭà¼ĭà¼ĭà¼ĭà¼ĭà¼ĭà¼ĭà¼ĭà¼ĭà¼ĭà¼ĭà¼ĭà¼ĭ à¼ĭà¼ĭà¼ĭà¼ĭà¼ĭà¼ĭà¼ĭ
Ġà¼ĭà¼ĭà¼ĭà¼ĭà¼ĭà¼ĭà¼ĭà¼ĭà¼ĭà¼ĭà¼ĭà¼ĭà¼ĭà¼ĭà¼ĭà¼ĭà¼ĭà¼ĭà¼ĭà¼ĭà¼ĭà¼ĭà¼ĭà¼ĭà¼ĭà¼ĭà¼ĭà¼ĭà¼ĭà¼ĭà¼ĭà¼ĭà¼ĭà¼ĭà¼ĭà¼ĭà¼ĭà¼ĭà¼ĭà¼ĭà¼ĭà¼ĭà¼ĭà¼ĭà¼ĭà¼ĭà¼ĭà¼ĭ à¼ĭà¼ĭ
Ġ à½łà½ĸà½ĳ
Ġ à¼¡à¼©à¼ł
à¼ ¹
à¼ĭ à¾²à¼ĭ
à½¦ à½ĺà½ļà½ĺà½¦
à½² à½²à¼·à¼ĭ
à½ĺ à½łà½Ĥà½Ĥà½¦
à½Ĥà½¦ à½ĸà½ĳ
à½Ĥà½¦ à½łà½Ľ
à½Ĥà½¦ à½Ķà½ĳ
à¾Ł à¾Łà½±à½²à¼ĭ
à¾Ĵ à¾Ĵà¾·
à½ķ à½Ķà½Ķà½Ķà½ĸà½ļà½ķà½Ľ
à½Ĳ à½ĺà½£
à½ĺà½¦ à½ĳà½ĺ
à½ĺà½¦ à½ĩ
à½ļ à½Ĳ
à½ĳà½Ĥ à½¡à½Ħ
à¾Ķ à¼µ
à¾²à¼ĭ à½²
à½ĳà½ĺ à½ĺ
à½Ĥà½ĵà½¦ à½ĺà½£
à½²à¼į à¼Ī
à½ĸà½Ģ à½łà½ĳ
à½ĺà½ļà½ĵ à½ĺà½¢
à¾¡à½¼à¼ĭ à¼ĳ
à¾Ĵà¾±à½´à¼ĭ à¼ĭ
à½Ļà½ĺ à½¡à½Ħ
à½ĺà½ī à½ĵà½ĳ
à¾¤à¾±à½²à¼ĭ à¼¼
à¾¤à¾±à½²à¼ĭ à½Īà¾±à½º
à½Łà½ĸ à½Ħ
à½¾à¼į à¼ĭà¼ĭà¼ĭà¼ĭà¼ĭ
à¼© à¼¥à¼¤
à½Ĺ à½Ĳà½ĸ
à¼½ à¼Ħà¼įà¼į
à¼¨ à¼¦à¼ł
à½ĸà½ĸ à½Ķ
à½ĸà½Ģà½Ĥ à½Ķ
à¾µ à¾±à¼į
à¾µ à¾¼à½±à¾Ģà¼ĭ
à¼ĭà¼´ à¼´à¼´
à¼¡à¼ł à¼¨à¼ł
à¼¡à¼¢ à¼£à¼©
à¼¡à¼¢ à¼§à¼¡
à¾ļ à¾²à¼ĭà½³à½¿
à¼¡à¼£ à¼£à¼©
à¼¡à¼¤ à¼¡à¼§
à¼¡à¼§ à¼¡à¼¥
à¼¡à¼§ à¼¦à¼¤
à¾Ľ à½¼
à¼¡à¼¡ à¼¡à¼©
à¼¡à¼¡ à¼¡à¼¨
à½¦à½¦ à½ĵ
à¼ĭà¾¢ à¾²à¾Ģà¼ĭ
à¾¶ à¾Ńà¼į
à¼ĭà¾§ à¼ĭ
à¼©à¼© à¼¡
à¾º à½±à½¾à¼ĭ
à½ĸà½ĸà½ĸà½ĸ à½ĸà½¦
Ġà¼ĭà¼ĭà¼ĭà¼ĭà¼ĭà¼ĭà¼ĭà¼ĭà¼ĭà¼ĭà¼ĭà¼ĭà¼ĭà¼ĭà¼ĭà¼ĭà¼ĭà¼ĭà¼ĭà¼ĭà¼ĭà¼ĭà¼ĭà¼ĭà¼ĭà¼ĭà¼ĭà¼ĭà¼ĭà¼ĭà¼ĭà¼ĭà¼ĭà¼ĭà¼ĭà¼ĭà¼ĭà¼ĭà¼ĭà¼ĭà¼ĭà¼ĭà¼ĭà¼ĭà¼ĭà¼ĭà¼ĭà¼ĭà¼ĭà¼ĭà¼ĭà¼ĭà¼ĭà¼ĭà¼ĭà¼ĭà¼ĭà¼ĭà¼ĭà¼ĭà¼ĭà¼ĭà¼ĭà¼ĭ à¼ĭà¼ĭà¼ĭà¼ĭ
à¾©à¾Ń à¼Ķ
à¼¨à¼¨ à¼¦
Ġà¼¡à¼ł à¼¥
à¼¡à¼£à¼ł à¼¦
à¼¡à¼£à¼ł à¼¨
à¼¡à¼¡à¼£ à¼¦
à¾ļà½± à¾Ģà½¿à¼ĭ
à½´à¼ĭà½Ī à¾±à½²à¼ĭ
à¾·à½» à½¾à¼į
Ġà¼Įà¼Įà¼Įà¼Įà¼Įà¼Įà¼Įà¼Įà¼Įà¼Įà¼Įà¼Įà¼Įà¼Įà¼Įà¼Įà¼Į à¼Įà¼Įà¼Įà¼Įà¼Įà¼Įà¼Įà¼Įà¼Įà¼Įà¼Įà¼Įà¼Įà¼Įà¼Į
à¾²à¼ĭà½µ à½¾à¼ĭ
à¾¨à¾¼à¾» à½´à½¾à¼ĭ
à¼ĭà¼ģ à¾ĥ
Ġ à½ħà½Ħ
Ġ à¼¢à¼łà¼łà¼ł
à¼ĭ à½±à½´à½¾à¼ĭ
à½Ĥ à½Ĥà½¤
à½Ħ à½ĸà½Ĥ
à½ĺ à½łà½ĩ
à½Ķ à½Ĳà½ĸà½¦
à½ł à½ĸà½ŀ
à½£ à½ĸà½Łà½Ħ
à½ŀ à½ŀ
à½Ģ à½łà½Ĥ
à¾Ł à¾±à½±
à¾Ł à¾Łà½²à½¿à¼į
à½ķ à½ĳà½Ħ
à½Ĳ à½İ
à½Ķà½¢ à½Ĥà½ŀà½ĵ
à½ĳà½Ĥ à½Ĥà½ħ
à½¤ à½Ĥà½Ħ
à½ĸà½¢ à½łà½ĩ
à¼ĭà¼į à¼ĭà¼ĭà¼ĭà¼ĭà¼ĭà¼ĭà¼ĭà¼ĭà¼ĭà¼ĭà¼ĭà¼ĭà¼ĭà¼ĭà¼ĭà¼ĭà¼ĭà¼ĭà¼ĭà¼ĭà¼ĭà¼ĭà¼ĭà¼ĭà¼ĭà¼ĭà¼ĭà¼ĭà¼ĭà¼ĭà¼ĭà¼ĭà¼ĭà¼ĭà¼ĭà¼ĭà¼ĭà¼ĭà¼ĭà¼ĭà¼ĭà¼ĭà¼ĭà¼ĭà¼ĭà¼ĭà¼ĭà¼ĭ
à½Ł à½ĳà½Ħ
à½ĳà½ĺ à½Ľà½ĳ
à¾Łà¼ĭ à½²
à½ĸà½ĳà½Ĥ à½ĳà½Ĥ
à½łà½ķ à½Į
à¼Ķ à¼ĭà¼ĭà¼ĭà¼ĭ
à¾·à¼ĭ à¼Ī
à¾Ĵà¾±à½´à¼ĭ à½Īà½¼
à½łà½ĳà½¦ à½ĺ
à½ĸà½¦à½ĺ à½ĸ
à½ĺà½ģà½ł à½¦
à¼¡ à¼¡à¼¨à¼ł
à½ĵà½Ĥ à½Ĥà½¡
Ġà¼ Ĭ
à¾²à½ºà¼ĭ à½Īà½¼
à½Ĵ à½ķà½Ł
à¼© à¼¤à¼ł
à¼¨ à¼¥à¼¡
à½ĵà½¢ à½łà½Ĥ
à¼¡à¼ł à¼©à¼§
à¼¡à¼ł à¼§à¼¦
à¼¡à¼¢ à¼§à¼©
à¾ļ à¾±à½±à¼ĭ
à¾¡à¾· à½²à¼įà¼į
à¼¡à¼¤ à¼¤à¼©
à¼¡à¼§ à¼¡à¼¢
à¼¡à¼§ à¼£à¼¡
à¼¡à¼§ à¼¦à¼¦
à¼¡à¼§ à¼¦à¼¡
à¼¡à¼¦ à¼¢à¼¡
à¼¡à¼¦ à¼¦à¼¤
à¾ĭ à½§
à¾²à½²à¼į à¼½
à¾» à¼Ķ
à¼ĭà¼ĭà¼ĭà¼ĭà¼ĭà¼ĭà¼ĭà¼ĭà¼ĭà¼ĭà¼ĭà¼ĭà¼ĭà¼ĭà¼ĭà¼ĭà¼ĭà¼ĭà¼ĭà¼ĭà¼ĭà¼ĭà¼ĭà¼ĭà¼ĭà¼ĭà¼ĭà¼ĭà¼ĭà¼ĭà¼ĭà¼ĭà¼ĭà¼ĭà¼ĭà¼ĭà¼ĭà¼ĭà¼ĭà¼ĭà¼ĭà¼ĭà¼ĭà¼ĭà¼ĭà¼ĭà¼ĭà¼ĭà¼ĭà¼ĭà¼ĭà¼ĭà¼ĭà¼ĭà¼ĭà¼ĭà¼ĭà¼ĭà¼ĭà¼ĭà¼ĭà¼ĭà¼ĭà¼ĭ à¼ĭà¼ĭà¼ĭà¼ĭà¼ĭà¼ĭà¼ĭà¼ĭà¼ĭà¼ĭà¼ĭà¼ĭà¼ĭà¼ĭà¼ĭà¼ĭà¼ĭà¼ĭà¼ĭà¼ĭà¼ĭà¼ĭà¼ĭà¼ĭà¼ĭà¼ĭà¼ĭà¼ĭà¼ĭà¼ĭà¼ĭà¼ĭà¼ĭà¼ĭà¼ĭà¼ĭà¼ĭà¼ĭà¼ĭà¼ĭà¼ĭà¼ĭà¼ĭà¼ĭà¼ĭà¼ĭà¼ĭà¼ĭ
à¾´ à½¾à¼ĭ
à¾·à¾² à¾ĥà¼ĭ
Ġà¼¥ à¼łà¼ł
à½į à½Ģà½ł
à¾° à¼įà¼į
à¼įà¼ĭà¼ĭà¼ĭà¼ĭà¼ĭà¼ĭà¼ĭà¼ĭà¼ĭà¼ĭà¼ĭà¼ĭà¼ĭà¼ĭà¼ĭà¼ĭà¼ĭà¼ĭà¼ĭà¼ĭà¼ĭà¼ĭà¼ĭà¼ĭà¼ĭà¼ĭà¼ĭà¼ĭà¼ĭà¼ĭà¼ĭà¼ĭà¼ĭà¼ĭà¼ĭà¼ĭà¼ĭà¼ĭà¼ĭà¼ĭà¼ĭà¼ĭà¼ĭà¼ĭà¼ĭà¼ĭà¼ĭà¼ĭà¼ĭà¼ĭà¼ĭà¼ĭà¼ĭà¼ĭà¼ĭà¼ĭà¼ĭà¼ĭà¼ĭà¼ĭà¼ĭà¼ĭà¼ĭà¼ĭà¼ĭà¼ĭà¼ĭà¼ĭà¼ĭà¼ĭà¼ĭà¼ĭà¼ĭà¼ĭà¼ĭà¼ĭà¼ĭà¼ĭà¼ĭà¼ĭà¼ĭà¼ĭà¼ĭà¼ĭà¼ĭà¼ĭà¼ĭà¼ĭà¼ĭà¼ĭà¼ĭà¼ĭà¼ĭà¼ĭà¼ĭà¼ĭà¼ĭà¼ĭà¼ĭà¼ĭà¼ĭà¼ĭà¼ĭà¼ĭà¼ĭà¼ĭà¼ĭà¼ĭà¼ĭà¼ĭà¼ĭà¼ĭ à¼ĭà¼ĭà¼ĭà¼ĭà¼ĭà¼ĭà¼ĭà¼ĭ
à¼įà¼ĭà¼ĭà¼ĭà¼ĭà¼ĭà¼ĭà¼ĭà¼ĭà¼ĭà¼ĭà¼ĭà¼ĭà¼ĭà¼ĭà¼ĭà¼ĭà¼ĭà¼ĭà¼ĭà¼ĭà¼ĭà¼ĭà¼ĭà¼ĭà¼ĭà¼ĭà¼ĭà¼ĭà¼ĭà¼ĭà¼ĭà¼ĭà¼ĭà¼ĭà¼ĭà¼ĭà¼ĭà¼ĭà¼ĭà¼ĭà¼ĭà¼ĭà¼ĭà¼ĭà¼ĭà¼ĭà¼ĭà¼ĭà¼ĭà¼ĭà¼ĭà¼ĭà¼ĭà¼ĭà¼ĭà¼ĭà¼ĭà¼ĭà¼ĭà¼ĭà¼ĭà¼ĭà¼ĭà¼ĭà¼ĭà¼ĭà¼ĭà¼ĭà¼ĭà¼ĭà¼ĭà¼ĭà¼ĭà¼ĭà¼ĭà¼ĭà¼ĭà¼ĭà¼ĭà¼ĭà¼ĭà¼ĭà¼ĭà¼ĭà¼ĭà¼ĭà¼ĭà¼ĭà¼ĭà¼ĭà¼ĭà¼ĭà¼ĭà¼ĭà¼ĭà¼ĭà¼ĭà¼ĭà¼ĭà¼ĭà¼ĭà¼ĭà¼ĭà¼ĭà¼ĭà¼ĭà¼ĭà¼ĭà¼ĭà¼ĭà¼ĭà¼ĭ à¼ĭà¼ĭà¼ĭà¼ĭà¼ĭà¼ĭà¼ĭà¼ĭà¼ĭà¼ĭà¼ĭà¼ĭà¼ĭà¼ĭà¼ĭ
Ġà¼ĭà¼ĭà¼ĭà¼ĭà¼ĭà¼ĭà¼ĭà¼ĭà¼ĭà¼ĭà¼ĭà¼ĭà¼ĭà¼ĭà¼ĭà¼ĭà¼ĭà¼ĭà¼ĭà¼ĭà¼ĭà¼ĭà¼ĭà¼ĭà¼ĭà¼ĭà¼ĭà¼ĭà¼ĭà¼ĭà¼ĭà¼ĭà¼ĭà¼ĭà¼ĭà¼ĭà¼ĭà¼ĭà¼ĭà¼ĭà¼ĭà¼ĭà¼ĭà¼ĭà¼ĭà¼ĭà¼ĭà¼ĭà¼ĭà¼ĭà¼ĭà¼ĭà¼ĭà¼ĭà¼ĭà¼ĭà¼ĭà¼ĭà¼ĭà¼ĭà¼ĭà¼ĭà¼ĭà¼ĭà¼ĭà¼ĭà¼ĭà¼ĭà¼ĭà¼ĭà¼ĭà¼ĭà¼ĭà¼ĭà¼ĭà¼ĭà¼ĭà¼ĭà¼ĭà¼ĭà¼ĭà¼ĭà¼ĭà¼ĭà¼ĭà¼ĭà¼ĭà¼ĭà¼ĭà¼ĭà¼ĭà¼ĭà¼ĭà¼ĭà¼ĭà¼ĭà¼ĭà¼ĭà¼ĭà¼ĭà¼ĭà¼ĭà¼ĭà¼ĭà¼ĭà¼ĭà¼ĭà¼ĭà¼ĭà¼ĭà¼ĭà¼ĭ à¼ĭ
Ġà¼ĭà¼ĭà¼ĭà¼ĭà¼ĭà¼ĭà¼ĭà¼ĭà¼ĭà¼ĭà¼ĭà¼ĭà¼ĭà¼ĭà¼ĭà¼ĭà¼ĭà¼ĭà¼ĭà¼ĭà¼ĭà¼ĭà¼ĭà¼ĭà¼ĭà¼ĭà¼ĭà¼ĭà¼ĭà¼ĭà¼ĭà¼ĭà¼ĭà¼ĭà¼ĭà¼ĭà¼ĭà¼ĭà¼ĭà¼ĭà¼ĭà¼ĭà¼ĭà¼ĭà¼ĭà¼ĭà¼ĭà¼ĭà¼ĭà¼ĭà¼ĭà¼ĭà¼ĭà¼ĭà¼ĭà¼ĭà¼ĭà¼ĭà¼ĭà¼ĭà¼ĭà¼ĭà¼ĭà¼ĭà¼ĭà¼ĭà¼ĭà¼ĭà¼ĭà¼ĭà¼ĭà¼ĭà¼ĭà¼ĭà¼ĭà¼ĭà¼ĭà¼ĭà¼ĭà¼ĭà¼ĭà¼ĭà¼ĭà¼ĭà¼ĭà¼ĭà¼ĭà¼ĭà¼ĭà¼ĭà¼ĭà¼ĭà¼ĭà¼ĭà¼ĭà¼ĭà¼ĭà¼ĭà¼ĭà¼ĭà¼ĭà¼ĭà¼ĭà¼ĭà¼ĭà¼ĭà¼ĭà¼ĭà¼ĭà¼ĭà¼ĭà¼ĭ à¼ĭà¼ĭà¼ĭ
Ġà¼ĭà¼ĭà¼ĭà¼ĭà¼ĭà¼ĭà¼ĭà¼ĭà¼ĭà¼ĭà¼ĭà¼ĭà¼ĭà¼ĭà¼ĭà¼ĭà¼ĭà¼ĭà¼ĭà¼ĭà¼ĭà¼ĭà¼ĭà¼ĭà¼ĭà¼ĭà¼ĭà¼ĭà¼ĭà¼ĭà¼ĭà¼ĭà¼ĭà¼ĭà¼ĭà¼ĭà¼ĭà¼ĭà¼ĭà¼ĭà¼ĭà¼ĭà¼ĭà¼ĭà¼ĭà¼ĭà¼ĭà¼ĭ à¼ĭà¼ĭà¼ĭà¼ĭà¼ĭà¼ĭà¼ĭà¼ĭà¼ĭà¼ĭà¼ĭà¼ĭà¼ĭà¼ĭ
à¼ĭà¼ı à¼ı
à¼ĭà¼Įà¼Įà¼Įà¼Įà¼Įà¼Įà¼Įà¼Įà¼Įà¼Įà¼Įà¼Įà¼Įà¼Įà¼Įà¼Įà¼Įà¼Įà¼Įà¼Įà¼Įà¼Įà¼Įà¼Įà¼Įà¼Įà¼Įà¼Įà¼Įà¼Įà¼Įà¼Įà¼Įà¼Įà¼Įà¼Įà¼Įà¼Įà¼Įà¼Įà¼Įà¼Įà¼Įà¼Įà¼Įà¼Įà¼Įà¼Įà¼Įà¼Įà¼Įà¼Įà¼Įà¼Įà¼Įà¼Įà¼Įà¼Įà¼Įà¼Įà¼Įà¼Įà¼Įà¼Įà¼Į à¼Įà¼Įà¼Įà¼Įà¼Įà¼Įà¼Įà¼Įà¼Įà¼Įà¼Įà¼Įà¼Įà¼Įà¼Įà¼Į
à¼ĭà¾ł à¼ĭ
Ġ à½ĺà½Ĥà½¢
Ġ à½ĺà½ģà½£
à½¦ à½ĸà½ĸ
à½² à½²à½²à¼ĭ
à½Ĥ à½ĸà½Ļ
à½ĸ à½ĺà½ģ
à½ĸ à½ĺà½ļà½ĵ
à½¢ à½ĭ
à½ĵ à½¡à½ĵ
à½ĺ à½Ĥà½ĵà½¦
à½ĺ à½Ķà½ĳ
à½²à¼ĭ à¼ĭà¼į
à½ºà¼ĭ à¾¾à¼į
à½¡ à½«à½Ħ
à¾Ł à¼µà½ºà¼ĭ
à¾Ĵ à½ºà¼įà¼į
à¾Ĵ à½½
à½ĸà½¦ à½łà½ĸ
à½Ĳ à½£à½ĺ
à½ģ à½¥
à½ı à½Ĳà½ĳà½ĳ
à½ĺà½¦ à½Ĥà½¦
à½ļ à½ŀ
à¾Ĳ à¾µà¾±à¼ĭ
à½Ħà½¦ à½ķ
à½Ł à½ĸà½ĳ
à¾¡ à¼·à½¼
à¾³ à¼·à½¼
à½łà½ĸ à½ĳà½Ķ
à½¡à½Ħ à½Ķ
à½Ķà½¦ à½Ł
à½ĳà½ĸ à½ħà½¦
à¾© à¾Ģà¼ĭ
à¾¨ à½½à¼ĭ
à½¨ à½ĸà½¢
à½§ à½ĺà½¦
à¾·à¼ĭ à¼Ŀ
à½ĸà½¦à½ĺ à½ĺ
à½łà½Ĩ à½ĳà½Ķ
à½ĳà½Ķà½£ à½¢
à½Ĥà½¢ à½ĳ
à¾³à½² à½²
à¾³à½´à¼ĭ à¼Ħà¼ħà¼įà¼į
à½Ĥà½Ļà½Ħ à½ĸ
à¼© à¼£à¼£
à½Ĺ à½¨
à¼¨ à¼§à¼§
à¼ĭà¼½ à¼Ī
à½ĸà½¤à½Ĥà½¦ à½Ķà½¢
à¼¡à¼ł à¼¡à¼¤
à¼ĭà¾ ĩ
à¼¡à¼£ à¼¤à¼¢
à½¨à½¢ à½ĳ
à½±à½¾à¼ĭ à¼ĳ
à¾¡à¾· à½±à½´
à¼¡à¼§ à¼¦à¼©
à½ĭ à½ģ
à½¦à½Ķ à½ı
Ġà¼ł à¼¢
à¼£à¼¨ à¼¢à¼¤
à½Ĥà½¦à½Ķ à½ĸ
à½Ĥà½Ķ à½ĺ
Ġà¼ĭà¼ĭà¼ĭ à¼ĭà¼į
à½Ħà½Ķ à½ŀ
à½Ĺà½¡ à½«à½Ĥ
à¾° à½´à¼ĭ
Ġà¼¡à¼£ à¼¨
à½ºà¼ĭà½Ī à¾¤à¾±à½²
Ġà¼¡à¼¤ à¼¡
Ġà¼¡à¼¦ à¼¡
Ġà¼łà¼ł à¼§
à½±à¾Ģ à¼įà¼į
à½Ļà½ĵà½ĳ à½ĵ
à¾²à¼ĭà½µ à¾ĥà¼į
à¼¡à¼£à¼¥à¼¦ à¼¡à¼¤à¼¡à¼¥
ĉĉĠĉĉĉ Ġĉĉĉ
Ġ à½Ĥà½¦à½ĵ
Ġ à½¨à½ĺ
à¼ĭ à¾Ĳà¼ĭ
à¼ĭ à¾¤à½ºà¼ĭ
à½¦ à½ĸà½¤
à½¦ à½ĵà½ĵ
à½Ĥ à½ĸà½Łà½Ħ
à½Ĥ à½ĺà½ĵ
à½¢ à½Ķà½łà½ĳ
à½ĺ à½ĳà½Ĥà½ł
à½ĺ à½ĺà½ĵ
à½ĺ à½¡à½¦
à½Ķ à½ĸà½Ļ
à½Ķ à½ĺà½Ľà½ĳà½Ķ
à½ł à½Ģà½ł
à½£ à½£à½ĵ
à½£ à½Ķà½ĺ
à¾² à¾²à½²à¼ĭ
à¾² à¾Ĺà½¼à¼ĭ
à½¡ à½łà½ĳ
à½ĳà½Ħ à½ı
à½ĳà½Ħ à½Ł
à½ĳà½Ħ à½ĸà½ħ
à½Ĳ à½¤
à½ļ à½ķ
à½Ķà½¢ à½ı
à½Ķà½¢ à½Ĥà½¦à½£
à½ĸà½¢ à½ļ
à½¼à¼įà¼į à¼ĭà¼ĭà¼ĭà¼ĭà¼ĭ
à¼ĭà¼į à¼ĭà¼įà¼į
à¾¡ à½±à½´
à¾³ à½±à½²à¼į
à¾±à¼ĭ à¼Ī
à½¡à½Ħ à½Ģ
à½ºà¼į à¼Įà¼Įà¼Įà¼Į
à½Ķà½¦ à½ı
à½ĳà½ĸ à½Łà½Ħ
à½Ĥà½Ħ à½ģ
à¾²à½º à½¾à¼į
à½¨ à½Ħà½ł
à½ĸà½ĳà½Ĥ à½łà½ĳ
à½¢à½ĸ à½¤
à¾Ĺà½ºà¼ĭ à¼½à¼¼
à½łà½ĳà½¦ à½ĸ
à¾Łà½ºà¼ĭ à¼Ī
à½ĺà½Ĳà½ł à½ł
à¾Ĳà½¼ à¼·
à½ĺà½ģà½ł à½¢
à½´à¼į à¼¼
à½Łà½ĳ à½ħ
à½Ŀ à½Į
à½Ŀ à½ĳà½ı
à¼ł à¼¡à¼¨
à¾ľ à¾²à¼ĭ
à¾±à½²à¼įà¼į à¼į
à¼© à¼¡à¼¤
à¼© à¼¤à¼£
à¼¨ à¼¡à¼¨
à¼¨ à¼¦à¼¡
à¾¦à¾² à¼įà¼į
à¾¦à¾² à½ºà¼į
à¾ª à½±à½²à¼ĭ
à¾²à½±à½² à¾ĥà¼ĭ
à¾ŀ à½±à½¾à¼ĭ
à¼¡à¼§ à¼§à¼¨
à¼¡à¼§ à¼§à¼£
à¾» à½±à½¾à¼ĭ
à¾¶ à½¼à¼ĭ
à¾·à¾² à½±à½¾à¼ĭ
Ġà½Ĳ à½Ĳ
à¼¡à¼łà¼ł à¼¦
à½Ħà½Ķ à½ĸà½¢
à½Ŀà½£ à½Ĭ
à¼¡à¼¢à¼¨ à¼¥
à½ľ à½¤
à¼¡à¼¡à¼¢ à¼¢
Ġà¼¡à¼¤ à¼£
à¾Īà¾Īà¾Īà¾Īà¾Īà¾Īà¾Īà¾Ī à¾Īà¾Īà¾Īà¾Īà¾Īà¾Īà¾Īà¾Ī
Ġ à½łà½Ĩà½Ħ
Ġ à½īà½ĺ
Ġ à½¤à½ĺ
Ġ à½ĸà½Ģà½£
à½¦ à½ĸà½Ļ
à½¦ à½ģà½¦
à½² à¾ĥ
à½ĸ à½ĺà½¢
à½¢ à½£à½ĺ
à½¢ à½ĸà½ħà½¦
à½ĺ à½ĳà½ĸà½Ħ
à½Ķ à½ĺà½¦
à½Ķ à½Ĥà½¤
à½ł à½ĺà½ĳ
à½Ķà½ł à½¨
à½Ĩ à½ĸà½¢
à½ĸà½¦ à½ĺà½ĳ
à½Ĳ à½ĭ
à½ģ à½ĺà½Ĥ
à½ĺà½¦ à½Ĥà½ŀà½ĵ
à½Ķà½¢ à½ĸà½ĳà½Ĥ
à½ĳà½Ĥ à½Ĥà½ŀà½ĵ
à¾£ à½±à½²
à¼ĭà¼į à¼ĭà¼ĭà¼ĭà¼ĭ
à¾¡ à¾Ĳà½¼
à¾±à½º à½¿à¼į
à¾²à½´ à½¾à¼Ķ
à¾¤ à½»à¼ĭ
à¾© à½¾
à¾²à½² à½¾à½¿à¼ĭ
à½¢à½Ħ à½¢à½Ħ
à¾Ń à½±à½²à½¿à¼į
à½Ĥà½¦à½£ à½¢
à¾©à½¼ à¼·
à½Ĩà½Ĥà½¦ à½Ķà½¦
à½ģà½ĺà½¦ à½ĵ
à½ĺà½ģà½ł à½Ħ
à¾¨à½¼ à¼·
à½ĳà½ĳ à½¦
à½łà½Ħ à½ĵ
à½Ĥà½ıà½ĵ à½ĳ
à½İ à½ŀ
à¼¢ à¼¡à¼£à¼©
à¾ľ à¾·à¼į
à½Ĥà½ĳà½ĺà½¦ à½Ķ
à¾±à¼į à¼Į
à½Ĵ à½ĸà½¢
à½ķà½Ĭ à½¨
à½ĸà½¦à½Ĥà½¦ à½Ķ
à¾µ à¾¼à¾Ģà¼ĭ
à¼¡à¼ł à¼¡à¼©
à¼¡à¼ł à¼£à¼ł
à¼¡à¼£ à¼¢à¼ł
à¼¡à¼£ à¼§à¼ł
à¾¡à¾· à¾ĥà¼į
à¼¡à¼¨ à¼¡à¼¨
à¼ĭà¼¹ à¾Ģà¼įà¼į
à½Ķà½£ à½Ķà½ĵ
Ġà¼¡ à¼¡à¼¨
à½Ķà½ĺ à½Ķà½¡
à½ķà½ħ à½Ł
à¾º à½²à¼ĭ
à¾ĳ à¾Ĵà¾Ĵà¾·
Ġà¼¡à¼¢ à¼¤
Ġà¼¡à¼¦ à¼§
Ġà¼¡à¼¦ à¼¨
à½¼à¼ĭà¾İ à¼į
Ġà¼ĭà¼ĭà¼ĭà¼ĭà¼ĭà¼ĭà¼ĭà¼ĭà¼ĭà¼ĭà¼ĭà¼ĭà¼ĭà¼ĭà¼ĭà¼ĭà¼ĭà¼ĭà¼ĭà¼ĭà¼ĭà¼ĭà¼ĭà¼ĭà¼ĭà¼ĭà¼ĭà¼ĭà¼ĭà¼ĭà¼ĭà¼ĭà¼ĭà¼ĭà¼ĭà¼ĭà¼ĭà¼ĭà¼ĭà¼ĭ à¼ĭà¼ĭà¼ĭ
à¾ªà¼ĭà½±à½´à¾ĥà¼ĭ à½±à¼ĭ
Ġ à½¢à½ĸà½¦
Ġ à½ĺà½Ľà½ł
Ġ à½Ĥà½ĸ
Ġ à½Łà½ĺ
Ġ à¼¡à¼§à¼ł
à¾ ¬
à½Ĥ à½ĺà½Ľ
à½Ĥ à½Ĥà½Ļ
à½ĸ à½Ĩà½Ĥ
à½¢ à½ĺà½Ľà½ĳ
à½¢ à½Ķà½¡
à½Ħ à½Ļ
à½ĺ à½ĺà½ĳ
à½ĺ à½ĸà½Ĥ
à½ĺ à½Ģà½ł
à½Ķ à½ĸà½Ģà½ł
à½²à¼ĭ à½¼à¼ĭà½¼
à½Ĥà½¦ à½ĳà½ĺ
à½¡ à½£à½Ĥ
à½Ģ à½¡à½Ħ
à½Ĩ à½Ĥà½£
à½ħ à½Ĥà½£
à¾Ĵ à½½à¼ĭ
à½Ĳ à½Ĥà½¢
à½ģ à½§
à½ģ à½īà½ł
à½ĺà½¦ à½łà½Ĥ
à½ĺà½¦ à½Ĥà½ħ
à½Ķà½¢ à½¢à½Ħ
à½Ķà½¢ à½ĺà½Ľ
à¾£ à¾£à½²à¼ĭ
à½ĵà½¦ à½Ł
à½ĵà½¦ à½Ķà½¦
à½ĵà½¦ à½Ĥà½Ħ
à¼ĭà¼į à¼º
à¾¡ à¼įà¼½
à¾³ à½±à¾Ģà½¾à¼ĭ
à¾Ĵà¾±à½´ à¼µà¼ĭ
à½ĺà½ĳ à½łà½ĺ
à¾©à¼ĭ à¼ĳ
à½ģà½ĺà½¦ à½ĺ
à½ĸà½Ģà½ł à½¢
à½ģà½Ħ à½Ķ
à½İ à½Ľ
à¾©à½ºà¼ĭ à¼¼
à½Ĭ à½Ķ
à¾²à½´à¼ĭ à¼½
à½ĸà½ıà½Ħ à½ĸà½ł
à¼ł à¼¢à¼¤
à¼© à¼¢à¼£
à¾·à½²à¼ĭ à½Īà¾·à½²
à¼ĭà¼½ à¼ĭà¼ĭà¼ĭà¼ĭà¼ĭ
à¼ĭà¼Ħà¼ħà¼įà¼į à¼į
à¾ļ à½¾
à¼¡à¼¤ à¼¤à¼¤
à¼¡à¼¥ à¼¦à¼§
à¾Ľ à¾ľà¾ľ
à¼¡à¼¦ à¼£à¼¢
Ġà½ĵ à½ĸ
à¾¶ à¾±à½±à¼ĭ
à½¦à½Ķ à½ĳà½Ħ
à¾·à½± à¾Ģà¼ĭ
Ġà¼¤ à¼łà¼ł
à½Ĺà½Ĥ à½Ŀà½Ĥ
à½Ĺà½Ĥ à½Ĳà½ķ
à½²à¼ĭà¼½ à¼ĭ
à¾İ à¼į
à¼ĭà¼ĭà¼ĭà¼ĭà¼ĭà¼ĭ à¼ĭà¼į
à½Ķà½ĳà½Ĥ à½Ķà½Ĥ
à¼¡à¼£à¼ł à¼¢
à¾ŀà¾ŀ à½²
à¾ŀà¾ŀ à½½à¼ĭ
Ġà¼¡à¼£ à¼¢
Ġà¼¡à¼¥ à¼§
Ġà¼ĭà¼ĭà¼ĭà¼ĭà¼ĭà¼ĭà¼ĭà¼ĭà¼ĭà¼ĭà¼ĭà¼ĭà¼ĭà¼ĭà¼ĭà¼ĭ à¼ĭà¼ĭà¼ĭà¼ĭà¼ĭà¼ĭà¼ĭà¼ĭà¼ĭà¼ĭ
à¼¡à¼¦à¼ł à¼¥
à½¼à¼įà¼½ à¼į
à¼įà¼ĭà¼ĭà¼ĭà¼ĭà¼ĭà¼ĭà¼ĭà¼ĭà¼ĭà¼ĭà¼ĭà¼ĭà¼ĭà¼ĭà¼ĭà¼ĭà¼ĭà¼ĭà¼ĭà¼ĭà¼ĭà¼ĭà¼ĭà¼ĭà¼ĭà¼ĭà¼ĭà¼ĭà¼ĭà¼ĭà¼ĭà¼ĭà¼ĭà¼ĭà¼ĭà¼ĭà¼ĭà¼ĭà¼ĭà¼ĭà¼ĭà¼ĭà¼ĭà¼ĭà¼ĭà¼ĭà¼ĭà¼ĭà¼ĭà¼ĭà¼ĭà¼ĭà¼ĭà¼ĭà¼ĭà¼ĭà¼ĭà¼ĭà¼ĭà¼ĭà¼ĭà¼ĭà¼ĭà¼ĭà¼ĭà¼ĭà¼ĭà¼ĭà¼ĭà¼ĭà¼ĭà¼ĭà¼ĭà¼ĭà¼ĭà¼ĭà¼ĭà¼ĭà¼ĭà¼ĭà¼ĭà¼ĭà¼ĭà¼ĭà¼ĭà¼ĭà¼ĭà¼ĭà¼ĭà¼ĭà¼ĭà¼ĭà¼ĭà¼ĭà¼ĭà¼ĭà¼ĭà¼ĭà¼ĭà¼ĭà¼ĭà¼ĭà¼ĭà¼ĭà¼ĭà¼ĭà¼ĭà¼ĭà¼ĭà¼ĭà¼ĭà¼ĭ à¼ĭà¼ĭà¼ĭ
à½Ĵà½ķ à½ŀà½Ħ
à½Łà½Ĩ à½¡
Ġ à½£à½ł
Ġ à½Ķà½łà½Ħ
Ġ à½ĺà½ĺ
Ġ à½Ĥà½¦à½¦
Ġ à½Ĳà½ł
à¼ĭ à¾Ĵà¼ĭ
à½ĳ à½ĺà½ļà½ĺà½¦
à½Ĥ à½ĳà½Ĥà½ł
à½¢ à½ĳà½Ģ
à½ĵ à½Ģà½ĵ
à½º à¾ĥ
à½Ķ à½£à½Ĥ
à½Ķ à½ģà½ĺà½¦
à½Ķ à½ĳà½ĺà½ł
à¾± à¾¤à¾±à½²à¼ĭ
à¾± à¾¤à½ºà¼ĭ
à½ºà¼ĭ à¼Ħà¼įà¼į
à½Ĥà½¦ à½¢à½ĸ
à½¼à¼ĭ à¼Įà¼įà¼į
à¾Ł à¾±à½¿à¼į
à½ķ à½¤
à½Ĳ à½ĵà½Ħ
à½ģ à½ĸà½¢
à½ĺà½¦ à½ĸà½ĳà½Ĥ
à½ĺà½¦ à½¦à½ĺ
à½ĳà½Ĥ à½ĩ
à½łà½ĳ à½łà½ĸ
à¾Ĵà¾± à½¾à¼ĭ
à¾£ à¾Ģà¼ĭ
à¾£ à½¿à¼įà¼į
à½Ħà½¦ à½Ĥà½¦
à¾³ à¾Łà½¼
à½ĸà½ł à½¦
à½¡à½Ħ à½Ĥà½ī
à¾Ĺ à¼µà½º
à½ĳà½ĸ à½Ļ
à½± à½¾à¼įà¼įà¼įà¼į
à¾¨ à¾±à½±à¼ĭ
à½ĳà½ĺ à½ģà½ł
à½ĳà½Ķ à½ļ
à½ĳà½Ķ à½ĳà½Ħà½Ķ
à½Ĥà½ŀà½ĵ à½ĸ
à¾Ĺà½ºà¼ĭ à¼ŀà¼į
à½Ĥà½¤ à½Ħà½¦
à½£à½Ĥ à½Ĥà½¡
à½ĺà½Ĳà½ł à½¢
à½ĺà½¢ à½łà½Ĥ
à¾Ĳà¾± à¼·
à½łà½Ħ à½¥
à¾Ĵà¾²à½¼ à½¼
à½Ĵ à½ĩ
à½¤à½¦ à½ł
à½łà½ĳà½ĸ à½Ħ
à½Ĩà½Ĥ à½Ĥ
à½¼à¼Ķ à¼Ī
à½ĸà½ĺ à½Ķ
à¾Łà½²à¼ĭ à¼´
à¼¡à¼¢ à¼¡à¼¢
à¼¡à¼¢ à¼¥à¼¢
à¾¡à¾· à¾²à¾Ģà¼ĭ
à¾¡à¾· à½½à¼ĭ
à¼¡à¼¤ à¼£à¼¦
à¼¡à¼¦ à¼¨à¼¦
à¼¡à¼¦ à¼¨à¼¤
à¾ł à½»à¼ĭ
à¾·à¾± à½¾
à¾´ à½´
à½Ķà½ĳà½Ħ à½Ķà½¦
à¼£à¼¨ à¼¦à¼¢
à¾±à¾Ńà¼ĭ à¾İ
à¼ĭà¼Ŀ à¼Ŀà¼Ŀà¼Ŀà¼Ŀà¼Ŀà¼Ŀà¼Ŀà¼Ŀ
à¼ĭà¾§ à¾±à½±
à½Ķà½ĸ à½Ķà½¦
à¼©à¼ł à¼¨
à½į à½§
à½į à½īà½ł
à¼©à¼¨ à¼¤
à½Łà½ĩ à½«à½Ĥà½¥
à¾° à½´à½¾à¼ĭ
à¼¡à¼¡à¼¦ à¼¦
Ġà¼¡à¼¨ à¼¢
à¾Łà¾² à½±à¼į
à¼ĭà¼Į à¼Įà¼Įà¼Įà¼Įà¼Įà¼Įà¼Įà¼Įà¼Įà¼Įà¼Įà¼Įà¼Įà¼Įà¼Įà¼Į
Ġà¼ĭà¼ĭà¼ĭà¼ĭà¼ĭà¼ĭà¼ĭà¼ĭà¼ĭà¼ĭà¼ĭà¼ĭà¼ĭà¼ĭà¼ĭà¼ĭà¼ĭà¼ĭà¼ĭà¼ĭà¼ĭà¼ĭà¼ĭà¼ĭà¼ĭà¼ĭà¼ĭà¼ĭà¼ĭà¼ĭà¼ĭà¼ĭà¼ĭà¼ĭà¼ĭà¼ĭà¼ĭà¼ĭà¼ĭà¼ĭà¼ĭà¼ĭà¼ĭà¼ĭà¼ĭà¼ĭà¼ĭà¼ĭ à¼ĭà¼ĭà¼ĭà¼ĭà¼ĭà¼ĭà¼ĭà¼ĭà¼ĭà¼ĭà¼ĭà¼ĭà¼ĭ
à½£à½Ķà½ł à½ģ
à¼ĭà¾£à¼ĭ à½±à¼ĭ
à½Ģà½ĺà½£ à½¤
Ġ à½¡à½Ħà½¦
Ġ à½Ĥà½¤à½ĺ
Ġ à¼¢à¼łà¼¡à¼£
Ġ à½ĸà½ĸà½ĸ
à½¦ à½łà½Ĳ
à½ĳ à½ĸà½¦à½ĺ
à½ĸ à½ĸà½Ļ
à½¢ à½ĺà½¢
à½ĵ à½ŀà½Ĥ
à½ĵ à½Ļà½ĵ
à½ĺ à½ĸà½ıà½Ħ
à½ĺ à½Ģà½¢
à½Ķ à½ĸà½ıà½Ħ
à½Ķ à½ĵà½ĵ
à½£ à½ļà½Ħà½¦
à¾² à¼µà½²à¼ĭ
à½¡ à½ĺà½ļà½ĵ
à¾Ł à¾±à½²
à½ĳà½Ħ à½łà½Ĩ
à½ħ à½ļ
à¾±à½²à¼ĭ à½¼à¼ĭ
à½Ĳ à½ĺà½ł
à½ĺà½¦ à½Ł
à½Ħà½¦ à½ļ
à¾³ à½±à¾Ģà¼į
à¾±à¼ĭ à½º
à¾¤ à¾Ĳà¾±à½º
à½Ķà½¦ à½ĸà½ħ
à¾²à½² à½±à¼ĭ
à½ĺà½Ħ à½łà½ĸ
à¾±à½ºà¼ĭ à½Ī
à½ĸà½ĳà½Ĥ à½£à½¦
à½ĸà½Ģ à½Ģ
à¼ĭà¼ĭ à¼ĭà¼¼
à½ĳà½Ķà½ł à½£
à½ĺà½Ľà½ĳ à½Ķà½¦
à½ĸà½Łà½Ħ à½ĸ
à½Ĥà½ıà½ĵ à½Ĥà½¦
à½Ĳà½£ à½ĸ
à½ĵà½ĳ à½£
à½Ŀ à½¥
à½Ĵ à½ĸà½Łà½Ħ
à¾·à½¼à¼ĭ à¼½
à½ģà½Ĥ à½Ķ
à½ŀà½Ĥ à½ĸà½ĳ
à½Į à½Ħ
à½ħà½Ħ à½ĺ
à½ĸà½¦à½Ĥà½¦ à½Ķà½ł
à¾µ à½±à½¿à¼į
à¾µ à¾¨à¾²à¾±à½´à½¾à¼ĭ
à¾²à½±à½²à¼ĭ à¼´
à¼¡à¼¢ à¼¡à¼¥
à¼¡à¼¢ à¼©à¼©
à¼¡à¼¢ à¼¥à¼¥
à¾Ħ à¾Ħà¼ĭ
à¼¡à¼£ à¼¨à¼¨
à½´à¼Ķ à¼ĭ
à¼¡à¼§ à¼¡à¼¡
à¼¡à¼§ à¼¦à¼¥
à¼¡à¼¦ à¼¡à¼¥
à¼¡à¼¦ à¼§à¼¡
à¼¡à¼¦ à¼¨à¼©
à¼ĭà¼¹ à½²
à¾ĭ à½¤
à¼ĭà½¼ à¾¥
à¾·à¾± à¾ĥà¼ĭ
à¼ĭà¼Ī à¼įà¼į
à¼ĭà¾İ à¼įà¼įà¼įà¼į
à¼©à¼§ à¼¡
à¼©à¼¨ à¼£
à¼©à¼¨ à¼©
à¼¨à¼¨ à¼©
à¼¡à¼¨à¼ł à¼¢
à¼ĭà¾ĵ à½¼à¼ĭ
Ġà¼Į à¼Į
à½±à½¼ à¾ĥ
à¿ Ĳ
à½ĸà½ĸà½ĸà½ĸà½ĸà½ĸà½ĸà½ĸ à½ĸà½ĸà½ĸà½ĸ
à¼Īà¼Ī à¼Ī
à¼įà¼ĭà¼ĭà¼ĭà¼ĭà¼ĭà¼ĭà¼ĭà¼ĭà¼ĭà¼ĭà¼ĭà¼ĭà¼ĭà¼ĭà¼ĭà¼ĭà¼ĭà¼ĭà¼ĭà¼ĭà¼ĭà¼ĭà¼ĭà¼ĭà¼ĭà¼ĭà¼ĭà¼ĭà¼ĭà¼ĭà¼ĭà¼ĭà¼ĭà¼ĭà¼ĭà¼ĭà¼ĭà¼ĭà¼ĭà¼ĭà¼ĭà¼ĭà¼ĭà¼ĭà¼ĭà¼ĭà¼ĭà¼ĭà¼ĭà¼ĭà¼ĭà¼ĭà¼ĭà¼ĭà¼ĭà¼ĭà¼ĭà¼ĭà¼ĭà¼ĭà¼ĭà¼ĭà¼ĭà¼ĭà¼ĭà¼ĭà¼ĭà¼ĭà¼ĭà¼ĭà¼ĭà¼ĭà¼ĭà¼ĭà¼ĭà¼ĭà¼ĭà¼ĭà¼ĭà¼ĭà¼ĭà¼ĭà¼ĭà¼ĭà¼ĭà¼ĭà¼ĭà¼ĭà¼ĭà¼ĭà¼ĭà¼ĭà¼ĭà¼ĭà¼ĭà¼ĭà¼ĭà¼ĭà¼ĭà¼ĭà¼ĭà¼ĭà¼ĭà¼ĭà¼ĭà¼ĭà¼ĭà¼ĭà¼ĭà¼ĭà¼ĭà¼ĭ à¼ĭà¼ĭà¼ĭà¼ĭà¼ĭà¼ĭà¼ĭà¼ĭà¼ĭà¼ĭ
Ġ à½ĸà½Ģà½Ĥ
Ġ à½Ķà½Ĥà½¦
à½ĳ à½ĳà½Ĥà½ł
à½ĵ à½Ĥà½ĵ
à½Ħ à½ĳà½Ĥà½ł
à½Ķ à½Ļà½ĵ
à½£ à½£à½Ĥ
à½£ à½īà½ĺà½¦
à½£ à½£à½¢
à½ºà¼ĭ à½±
à½ŀ à½Ł
à½ĳà½Ħ à½¢à½ĸ
à½Ĩ à½¥
à¾Ĵ à¾Ĵà½ºà¼ĭ
à½Ĳ à½ħ
à½Ĳ à½¨
à½Ĳ à½Ĳà½ł
à½ģ à½ĵà½¦
à¾Ĳ à¾µà¾¨
à¾£ à¾Ĳà½¼
à¾£ à½²à½¾à¼ĭ
à½£à½¦ à½ĺà½Ħ
à½ºà¼į à¼ĭà¼ĭà¼ĭ
à¾Ķ à¾·à½¾à¼į
à¾· à¾Ńà½ºà¼ĭ
à½± à¾±à½²à¼ĭ
à¾© à¼·à½ºà¼ĭ
à¾¦ à½±à½¿à¼ĭ
à½ħà½ĵ à½Ģ
à½Ľ à½ļ
à½¨ à½¡à½¦
à½ĸà½ĳà½Ĥ à½ģ
à½ĩ à½łà½Ħ
à¾Ķà¼ĭ à¼¸
à¾¦à¾± à½½
à½İ à½łà½Ħ
à½¿ à¼ĭà¼½
à½Ŀ à½Ł
à½ĳà½Ķà½Ĥ à½ĺ
à¾³à½´à¼ĭ à¼ĳ
à½ĵà½ĺà½¦ à½¦
à¼· à½´à¼ĭ
à¾¡à½´à¼ĭ à¼ĳ
à½Ĵ à½Ĥà½Ł
à½Ĵ à½łà½«
à¼© à¼¦à¼¦
à½Ĺ à½Ĺ
à¼¨ à¼£à¼¤
à¼¨ à¼¦à¼§
à½ĵà½ł à½Ħà½¦
à½ĸà½ĸ à½Ħ
Ġà¼Ī à¼ĭà¼ĭà¼ĭà¼ĭà¼ĭ
à¾£à½´ à½¿à¼ĭ
à¼¡à¼¢ à¼¦à¼¤
à¼¡à¼¢ à¼¦à¼£
à¾²à¾Ģ à¼Ķ
à¼¡à¼£ à¼łà¼łà¼ł
à¼¡à¼£ à¼¨à¼¢
à¼¡à¼¤ à¼¤à¼¦
à¼¡à¼§ à¼¦à¼¨
à¾ĭ à½Ĩ
à¼ĭà½²à¼ĭ à½±à¼ĭ
à¾¶ à¾²à¾Ģ
à¾Łà¾Ń à½¾à¼įà¼į
à½¼à¼· à¼ĭà¼ĳ
à½Ĵà½Ĥ à½Ĳ
à¾ĳ à½²à¼ĭ
à¼¨à¼© à¼¥
à¼¡à¼¡à¼ł à¼£
Ġà¼ĭà¼ĭà¼ĭà¼ĭà¼ĭà¼ĭà¼ĭà¼ĭà¼ĭà¼ĭà¼ĭà¼ĭà¼ĭà¼ĭà¼ĭà¼ĭ à¼ĭà¼ĭà¼ĭà¼ĭà¼ĭà¼ĭà¼ĭà¼ĭà¼ĭà¼ĭà¼ĭ
Ġà¼¡à¼§ à¼©
à¾¦à¾¦ à½¿à¼ĭ
à¼įà¼ĭà¼ĭà¼ĭà¼ĭà¼ĭà¼ĭà¼ĭà¼ĭà¼ĭà¼ĭà¼ĭà¼ĭà¼ĭà¼ĭà¼ĭà¼ĭà¼ĭà¼ĭà¼ĭà¼ĭà¼ĭà¼ĭà¼ĭà¼ĭà¼ĭà¼ĭà¼ĭà¼ĭà¼ĭà¼ĭà¼ĭà¼ĭà¼ĭà¼ĭà¼ĭà¼ĭà¼ĭà¼ĭà¼ĭà¼ĭà¼ĭà¼ĭà¼ĭà¼ĭà¼ĭà¼ĭà¼ĭà¼ĭà¼ĭà¼ĭà¼ĭà¼ĭà¼ĭà¼ĭà¼ĭà¼ĭà¼ĭà¼ĭà¼ĭà¼ĭà¼ĭà¼ĭà¼ĭà¼ĭà¼ĭà¼ĭà¼ĭà¼ĭà¼ĭà¼ĭà¼ĭà¼ĭà¼ĭà¼ĭà¼ĭà¼ĭà¼ĭà¼ĭà¼ĭà¼ĭà¼ĭà¼ĭà¼ĭà¼ĭà¼ĭà¼ĭà¼ĭà¼ĭà¼ĭà¼ĭà¼ĭà¼ĭà¼ĭà¼ĭà¼ĭà¼ĭà¼ĭà¼ĭà¼ĭà¼ĭà¼ĭà¼ĭà¼ĭà¼ĭà¼ĭà¼ĭà¼ĭà¼ĭà¼ĭà¼ĭà¼ĭà¼ĭà¼ĭà¼ĭà¼ĭà¼ĭà¼ĭà¼ĭà¼ĭà¼ĭà¼ĭà¼ĭà¼ĭà¼ĭà¼ĭà¼ĭà¼ĭà¼ĭ à¼ĭà¼ĭà¼ĭà¼ĭà¼ĭ
à¼ĭà¼Į à¼Įà¼Įà¼Įà¼Įà¼Įà¼Įà¼Įà¼Įà¼Įà¼Įà¼Įà¼Įà¼Įà¼Įà¼Įà¼Įà¼Įà¼Įà¼Įà¼Įà¼Įà¼Įà¼Įà¼Įà¼Įà¼Įà¼Įà¼Įà¼Įà¼Įà¼Įà¼Įà¼Įà¼Įà¼Įà¼Įà¼Įà¼Įà¼Įà¼Įà¼Įà¼Įà¼Įà¼Įà¼Įà¼Įà¼Įà¼Į
à½²à¼ĭà½¼à¼ĭà½ºà¼ĭ à½ºà¼ĭ
à¾·à½» à½¾à½¿à¼ĭ
à½Ģà½Ģà½Ģà½Ģ à½Ģà½Ģ
à¾ĩ à¼ĭ
Ġ à¼¡à¼©à¼¦
à¼ĭ à¾ķ
à½ĵ à½łà½Ĩ
à½ĵ à½ĺà½ļà½ĺà½¦
à½ĵ à½Ķà½łà½ĺ
à½´ à¾Ħà¼·à¼ĭ
à½Ķ à½ĸà½Łà½Ħ
à½Ķ à½Įà½İ
à¾± à¾ĥà¼į
à½ł à½Ķà½ł
à½£ à½łà½ļ
à½£ à½Ķà½£
à½ºà¼ĭ à¿İ
à½Ĥà½¦ à½ĸà½Ł
à¾² à¾¤à¾±à½²à¼ĭ
à¾² à¾«à½º
à½¡ à½¦à½¢
à¾Ĵ à¼ĭà¼½
à½ĸà½¦ à½Ĥà½Ħ
à½ĸà½¦ à½ĺà½Ħ
à½ı à½ĸà½¦
à½¤ à½ħ
à½¼à¼įà¼į à¼ĭà¼ĭà¼ĭà¼ĭà¼ĭà¼ĭà¼ĭà¼ĭà¼ĭà¼ĭà¼ĭà¼ĭà¼ĭà¼ĭà¼ĭà¼ĭ
à½Ħà½¦ à½¨
à½Ħà½¦ à½Ĥà½ŀà½ĵ
à½ĵà½¦ à½Ĥà½Ł
à¾¡ à½¾
à¾¡ à¾¡à½º
à½łà½Ĥ à½ĸà½¦
à½łà½Ĥ à½Ĭ
à½ĸà½ŀ à½Ĥà½ŀ
à½£à½¦ à½ļ
à¾±à¼ĭ à½µ
à½Ļ à½Ħà½¦
à¾Ļ à¼·à½²
à¾³à½¼ à½¾à¼ĭ
à½ĸà½Ł à½ĺ
à½ĺà½ļà½ĵ à½ĺà½ł
à¾Ń à¾Ģà¼ĭ
à½Ĥà½¦à½£ à½Ĥ
à¼¡ à¼¡à¼§à¼ł
à½Łà½ĳ à½¦
à¾¨à¾²à¼ĭ à¼ĳ
à½Ŀ à½ħ
à½łà½ĸà½¢ à½ĸ
à½Ī à¾¡à½ºà¼ĭ
à½±à¼į à¼Įà¼Įà¼Įà¼Į
à¼ĭà½Ī à¾«à½¼
à½Ĺ à½ĸà½ĳ
à½ķà½Ĭ à½ŀ
à¼ĭà¼´ à¼įà¼į
à¼¡à¼ł à¼¢à¼¦
à¼¡à¼ł à¼¥à¼ł
à¾Ħ à½¾à¼ĭ
à¼¢à¼ł à¼¡à¼¢à¼ł
à¼¡à¼£ à¼¢à¼¤
à¼¡à¼¥ à¼¢à¼¤
à¼¡à¼¦ à¼¨à¼¨
à½±à½²à¼į à¼Įà¼Įà¼Įà¼Į
à¾ĭ à½¡
à¼ĭà¾¢ à¾±à¼į
à½Ĳà½ł à½ĵ
à¾·à¾± à½½à½¿à¼ĭ
à¾·à½º à½¿à¼ĭ
à¼©à¼¨ à¼¡
à½¼à¼ĭà¼½ à¼įà¼į
à¼¡à¼¦à¼ł à¼¤
à¾ªà¾«à¾« à¾·
Ġ à½ĸà½ħà½¢
à½¦ à½ĸà½ħà½¦
à½¦ à½ĳà½Ģà½¢
à½² à¾Ħ
à½ĸ à½Ħà½Ĥ
à½¼ à¾Ħà¼·
à½ĵ à½ļà½ĳ
à½ĵ à½Ĥà½Łà½ł
à½Ħ à½Ķà½Ħ
à½ĺ à½łà½ĳà½¦
à½ĺ à½ĺà½Ĥ
à½£ à½«à½Ĥ
à½ºà¼ĭ à¼Ŀ
à½Ĥà½¦ à½ĳà½Ķ
à½Ĥà½¦ à½łà½ĩ
à¾Ł à¾Łà½¾à¼į
à½Ķà½ł à½Ĥà½£
à½ģ à½¤à½¦
à½ı à½ĭ
à¾±à½² à½¿à¼į
à½ī à½ĺà½Ĩ
à½¤ à½ĸà½¢
à¾Ĵà¾± à½¾
à½Ł à½¤
à½ĸà½ł à½Ĩ
à½ĸà½ł à½ĸà½ł
à½£à½¦ à½Ĳà½ĺà½¦
à¾Ĺ à¼·à½¼
à¾Ķ à¼·à½¼
à½Ĥà½ŀ à½Ĥà½ĳ
à¾²à½¼ à½¾
à¾²à¼ĭ à¼Ī
à¾²à¼ĭ à¼ŀ
à¾¦ à¾¦à¾·
à¾¦ à¼ĭà¼ŀ
à½Ĥà½ĵà½¦ à½ĸ
à½ĺà½ģ à½ĺà½¦
à½ħà½ĳ à½łà½ĳ
à½²à¼į à¼Įà¼Įà¼Įà¼Įà¼Įà¼Įà¼Įà¼Įà¼Įà¼Įà¼Įà¼Įà¼Įà¼Įà¼Įà¼Įà¼Įà¼Įà¼Įà¼Įà¼Įà¼Įà¼Įà¼Įà¼Įà¼Įà¼Įà¼Įà¼Įà¼Įà¼Įà¼Įà¼Įà¼Įà¼Įà¼Įà¼Įà¼Įà¼Įà¼Įà¼Įà¼Įà¼Įà¼Įà¼Įà¼Įà¼Įà¼Įà¼Įà¼Įà¼Įà¼Įà¼Įà¼Įà¼Įà¼Įà¼Įà¼Įà¼Įà¼Įà¼Įà¼Įà¼Įà¼Įà¼Įà¼Įà¼Įà¼Įà¼Įà¼Įà¼Įà¼Įà¼Įà¼Įà¼Įà¼Įà¼Įà¼Įà¼Įà¼Į
à½¨ à½¢à½Ħ
à½ĳà½ĸà½Ħ à½ĺ
à½ĳà½ĸà½Ħ à½ĳà½Ħ
à½ĸà½Ģ à½ĵà½ĳ
à½±à¼ĭ à¾Ģ
à½£à½ĺ à½ī
à½ĳà½Ķà½ł à½¡
à¾£à¼ĭ à¾İ
à½ĺà½ģà½ł à½ĺà½Ĳà½ł
à¾¨à½¼ à¼Ķ
à¾¡à½ºà¼ĭ à¼Ħà¼ħà¼įà¼į
à½ķà½ĵ à½Ĥà½ĳà½Ĥà½¦
à½±à½²à¼ĭ à¼Ħà¼ħà¼įà¼į
à½Ŀ à½ĵà½¦
à½ĸà½Ľ à½¢
à½Ĵ à½ķà½Ĥ
à¼ĭà½Ī à¾±à½¼
à½Ĺ à½Į
à½ķà½Ĭ à½Ĥ
à½Į à½¡
à½łà½Ĥà½Ĥà½¦ à½Ķ
à¼¡à¼ł à¼¢à¼¥
à¼¡à¼¢ à¼¤à¼¢
à¼¡à¼£ à¼£à¼£
à¼¡à¼£ à¼¦à¼¡
à¼¡à¼¥ à¼¨à¼ł
à¼¡à¼¥ à¼¦à¼¨
à¼¡à¼§ à¼¤à¼¥
à¼¡à¼¦ à¼©à¼¡
à¼Ģ à½Į
à½© à½Ĥ
à½¦à½Ķ à½¤
à¾Ĵà½± à½¿à¼į
à¾Ħà¼į à¼Įà¼Įà¼Įà¼Į
Ġà¼Ķ à¼į
Ġà¼½ à¼įà¼į
à½į à½¢
à½ľ à½ĵ
à¾ŀà¾ŀ à½´
à¼¡à¼¡à¼¢ à¼¡
Ġà¼¡à¼¥ à¼©
à¼¡à¼¡à¼¤ à¼§
Ġà¼¡à¼¤ à¼¨
Ġà¼¡à¼§ à¼¥
Ġà¼¡à¼© à¼¢
à¼įà¼ĭà¼ĭà¼ĭà¼ĭà¼ĭà¼ĭà¼ĭà¼ĭà¼ĭà¼ĭà¼ĭà¼ĭà¼ĭà¼ĭà¼ĭà¼ĭà¼ĭà¼ĭà¼ĭà¼ĭà¼ĭà¼ĭà¼ĭà¼ĭà¼ĭà¼ĭà¼ĭà¼ĭà¼ĭà¼ĭà¼ĭà¼ĭà¼ĭà¼ĭà¼ĭà¼ĭà¼ĭà¼ĭà¼ĭà¼ĭà¼ĭà¼ĭà¼ĭà¼ĭà¼ĭà¼ĭà¼ĭà¼ĭà¼ĭà¼ĭà¼ĭà¼ĭà¼ĭà¼ĭà¼ĭà¼ĭà¼ĭà¼ĭà¼ĭà¼ĭà¼ĭà¼ĭà¼ĭà¼ĭà¼ĭà¼ĭà¼ĭà¼ĭà¼ĭà¼ĭà¼ĭà¼ĭà¼ĭà¼ĭà¼ĭà¼ĭà¼ĭà¼ĭà¼ĭà¼ĭà¼ĭà¼ĭà¼ĭà¼ĭà¼ĭà¼ĭà¼ĭà¼ĭà¼ĭà¼ĭà¼ĭà¼ĭà¼ĭà¼ĭà¼ĭà¼ĭà¼ĭà¼ĭà¼ĭà¼ĭà¼ĭà¼ĭà¼ĭà¼ĭà¼ĭà¼ĭà¼ĭà¼ĭà¼ĭà¼ĭà¼ĭà¼ĭà¼ĭà¼ĭà¼ĭà¼ĭà¼ĭà¼ĭà¼ĭà¼ĭà¼ĭà¼ĭà¼ĭà¼ĭà¼ĭà¼ĭà¼ĭà¼ĭ à¼ĭà¼ĭà¼ĭ
à¾Īà¾Īà¾Īà¾Īà¾Īà¾Īà¾Īà¾Ī à¾Īà¾Īà¾Ī
Ġà¼ĭà¼ĭà¼ĭà¼ĭà¼ĭà¼ĭà¼ĭà¼ĭà¼ĭà¼ĭà¼ĭà¼ĭà¼ĭà¼ĭà¼ĭà¼ĭà¼ĭà¼ĭà¼ĭà¼ĭà¼ĭà¼ĭà¼ĭà¼ĭà¼ĭà¼ĭà¼ĭà¼ĭà¼ĭà¼ĭà¼ĭà¼ĭà¼ĭà¼ĭà¼ĭà¼ĭà¼ĭà¼ĭà¼ĭà¼ĭà¼ĭà¼ĭà¼ĭà¼ĭà¼ĭà¼ĭà¼ĭà¼ĭà¼ĭà¼ĭà¼ĭà¼ĭà¼ĭà¼ĭà¼ĭà¼ĭà¼ĭà¼ĭà¼ĭà¼ĭà¼ĭà¼ĭà¼ĭà¼ĭà¼ĭà¼ĭà¼ĭà¼ĭà¼ĭà¼ĭà¼ĭà¼ĭà¼ĭà¼ĭà¼ĭà¼ĭà¼ĭà¼ĭà¼ĭà¼ĭà¼ĭà¼ĭà¼ĭà¼ĭà¼ĭà¼ĭà¼ĭà¼ĭà¼ĭà¼ĭà¼ĭà¼ĭà¼ĭà¼ĭà¼ĭà¼ĭà¼ĭà¼ĭà¼ĭà¼ĭà¼ĭà¼ĭà¼ĭà¼ĭà¼ĭà¼ĭà¼ĭà¼ĭà¼ĭà¼ĭà¼ĭà¼ĭ à¼ĭà¼ĭà¼ĭà¼ĭ
Ġà¼ĭà¼ĭà¼ĭà¼ĭà¼ĭà¼ĭà¼ĭà¼ĭà¼ĭà¼ĭà¼ĭà¼ĭà¼ĭà¼ĭà¼ĭà¼ĭà¼ĭà¼ĭà¼ĭà¼ĭà¼ĭà¼ĭà¼ĭà¼ĭà¼ĭà¼ĭà¼ĭà¼ĭà¼ĭà¼ĭà¼ĭà¼ĭà¼ĭà¼ĭà¼ĭà¼ĭà¼ĭà¼ĭà¼ĭà¼ĭà¼ĭà¼ĭà¼ĭà¼ĭà¼ĭà¼ĭà¼ĭà¼ĭà¼ĭà¼ĭà¼ĭà¼ĭà¼ĭà¼ĭà¼ĭà¼ĭà¼ĭà¼ĭà¼ĭà¼ĭà¼ĭà¼ĭà¼ĭà¼ĭà¼ĭà¼ĭà¼ĭà¼ĭà¼ĭà¼ĭà¼ĭà¼ĭà¼ĭà¼ĭà¼ĭà¼ĭà¼ĭà¼ĭà¼ĭà¼ĭà¼ĭà¼ĭà¼ĭà¼ĭà¼ĭà¼ĭà¼ĭà¼ĭà¼ĭà¼ĭà¼ĭà¼ĭà¼ĭà¼ĭà¼ĭà¼ĭà¼ĭà¼ĭà¼ĭà¼ĭà¼ĭà¼ĭà¼ĭà¼ĭà¼ĭà¼ĭà¼ĭà¼ĭà¼ĭà¼ĭà¼ĭà¼ĭ à¼ĭà¼ĭà¼ĭà¼ĭà¼ĭà¼ĭà¼ĭà¼ĭà¼ĭ
à¼ĭà¾µà¼ĭ à½´à¼ĭ
à¾²à½±à½²à½¿ à½¿à¼ĭ
Ġ à½ħà½Ĥ
Ġ à½ķà½ĸ
Ġ à½łà½Ĳà½ĸ
Ġ à½Ĥà½¡à½ł
à½¦ à½ĳà½Ķà½ł
à½Ĥ à½ĺà½Ľà½ĳ
à½¢ à½£à½ĵ
à½º à½´à¼ĭ
à½²à¼ĭ à¼Ŀà¼Ŀà¼įà¼į
à¾² à¾±à½±à¼ĭ
à½ĳà½Ħ à½ģà½ĺà½¦
à½Ķà½ł à½ķà½Ĥà½¦
à½ħ à½ĸà½¤à½ĳ
à¾Ĵ à¾³à½¼
à¾Ĵ à¼Ķ
à¾±à½²à¼ĭ à¼Ŀà¼Ŀà¼Ŀ
à½Ĳ à½Ŀ
à½ļ à½ī
à½ī à½Ħà½¦
à½ĳà½Ĥ à½łà½ĩ
à¾Ĳ à¾Ľ
à¾Ĳ à¾µà½²à¼ĭ
à¼ĭà¼į à¼ĭà¼ĭà¼ĭà¼ĭà¼ĭà¼ĭà¼ĭà¼ĭà¼ĭà¼ĭà¼ĭà¼ĭà¼ĭà¼ĭà¼ĭà¼ĭ
à½£à½¦ à½¢à½ĸ
à¾¤ à½±à½¾à¼ĭ
à¾Ķ à¾Ĺà½¼
à½Ĥà½ŀ à½Ĥà½£
à½Ļ à½Ł
à½Ļ à½ĺà½łà½ĺ
à¾Ļ à½¼à¼ĭà¼Ħà¼ħà¼įà¼į
à¾¨ à¾Ģà¼ĭ
à¾Łà¼ĭ à¼Ī
à¾Łà¼ĭ à¾İ
à½Ľ à½Ĥà½ı
à¾³à¼ĭ à¼Ī
à½£à½ĺ à½łà½ĳ
à¾Ĳà½´à¼ĭ à½Īà½²
à¾Ń à¾±à½±à¼ĭ
à½ĳà½Ĥà½ł à½ĸà½¦
à½Ĩà½Ĥà½¦ à½ĺ
à½ģà½ĺà½¦ à½Ĥà½Ħ
à½ĳà½ĳ à½¢
à½İ à½ļ
à½ıà½ĵ à½ĸ
à¼ł à¼¢à¼¥
à¼ł à¼¢à¼£
à¼· à½´
à½Ī à¾·à½²à¼ĭ
à¾ľ à½´
à½Ĺ à½£à½¦
à½Ĺ à½¡à½Ħ
à½Ĺ à½Ĥà½Ħ
Ġà¼į à¼ĭà¼įà¼į
à¼¨ à¼§à¼ł
à¼¨ à¼¦à¼¢
à½ĵà½ĵ à½Ĥà½¦
à½Ķà½ĵ à½Ķ
à½Ħà½¢ à½łà½Ľ
à¼¡à¼£ à¼¢à¼£
à¼¡à¼£ à¼§à¼¨
à¼¡à¼£ à¼¨à¼©
à¾ŀ à½¼
à¼¡à¼¤ à¼¤à¼¥
à¼¡à¼¤ à¼¥à¼¡
à¼¡à¼§ à¼¤à¼£
à¾Ľ à½±à½¿à¼ĭ
à¼¡à¼¦ à¼¢à¼¨
à¼¡à¼¦ à¼¦à¼¡
à¼Ģ à½Ĩ
à¾ł à¾±à½±à¼ĭ
à¾» à¾»à¼ĭ
à¾¶ à½º
à½ĵà½Ķ à½ŀ
à¼ĭà¼ŀ à¼ŀà¼ŀ
à¾·à¾£ à½±à½¾à¼į
à½¼à¼ĭà½ºà¼ĭ à½¾à¼ĭ
à¾ªà½±à¼ĭ à¼Ħà¼ħà¼įà¼į
à¼¡à¼¡à¼¦ à¼©
à¼¡à¼¡à¼§ à¼£
Ġà¼¡à¼¤ à¼§
Ġà¼¡à¼§ à¼§
Ġà¼¡à¼¨ à¼¥
Ġà¼¡à¼¨ à¼©
Ġà¼ĭà¼ĭà¼ĭà¼ĭà¼ĭà¼ĭà¼ĭà¼ĭà¼ĭà¼ĭà¼ĭà¼ĭà¼ĭà¼ĭà¼ĭà¼ĭà¼ĭà¼ĭà¼ĭà¼ĭà¼ĭà¼ĭà¼ĭà¼ĭà¼ĭà¼ĭà¼ĭà¼ĭà¼ĭà¼ĭà¼ĭà¼ĭà¼ĭà¼ĭà¼ĭà¼ĭà¼ĭà¼ĭà¼ĭà¼ĭà¼ĭà¼ĭà¼ĭà¼ĭà¼ĭà¼ĭà¼ĭà¼ĭ à¼ĭà¼ĭà¼ĭà¼ĭà¼ĭà¼ĭà¼ĭà¼ĭà¼ĭà¼ĭ
à¼įà¼ĭà¼ĭà¼ĭà¼ĭà¼ĭà¼ĭà¼ĭà¼ĭà¼ĭà¼ĭà¼ĭà¼ĭà¼ĭà¼ĭà¼ĭà¼ĭà¼ĭà¼ĭà¼ĭà¼ĭà¼ĭà¼ĭà¼ĭà¼ĭà¼ĭà¼ĭà¼ĭà¼ĭà¼ĭà¼ĭà¼ĭà¼ĭà¼ĭà¼ĭà¼ĭà¼ĭà¼ĭà¼ĭà¼ĭà¼ĭà¼ĭà¼ĭà¼ĭà¼ĭà¼ĭà¼ĭà¼ĭà¼ĭà¼ĭà¼ĭà¼ĭà¼ĭà¼ĭà¼ĭà¼ĭà¼ĭà¼ĭà¼ĭà¼ĭà¼ĭà¼ĭà¼ĭà¼ĭà¼ĭà¼ĭà¼ĭà¼ĭà¼ĭà¼ĭà¼ĭà¼ĭà¼ĭà¼ĭà¼ĭà¼ĭà¼ĭà¼ĭà¼ĭà¼ĭà¼ĭà¼ĭà¼ĭà¼ĭà¼ĭà¼ĭà¼ĭà¼ĭà¼ĭà¼ĭà¼ĭà¼ĭà¼ĭà¼ĭà¼ĭà¼ĭà¼ĭà¼ĭà¼ĭà¼ĭà¼ĭà¼ĭà¼ĭà¼ĭà¼ĭà¼ĭà¼ĭà¼ĭà¼ĭà¼ĭà¼ĭà¼ĭà¼ĭà¼ĭà¼ĭà¼ĭà¼ĭà¼ĭà¼ĭà¼ĭà¼ĭà¼ĭà¼ĭà¼ĭà¼ĭà¼ĭà¼ĭà¼ĭà¼ĭà¼ĭà¼ĭà¼ĭà¼ĭà¼ĭà¼ĭà¼ĭà¼ĭà¼ĭà¼ĭà¼ĭà¼ĭà¼ĭà¼ĭà¼ĭà¼ĭ à¼ĭà¼ĭà¼ĭà¼ĭ
à½¦à½¦à½¦à½¦ à½¦à½¦
Ġà¼Įà¼Įà¼Įà¼Įà¼Įà¼Įà¼Įà¼Įà¼Įà¼Įà¼Įà¼Įà¼Įà¼Įà¼Įà¼Įà¼Į à¼Įà¼Įà¼Įà¼Įà¼Įà¼Įà¼Įà¼Įà¼Įà¼Įà¼Įà¼Įà¼Įà¼Į
Ġ à½łà½Ĥà½Ĥ
Ġ à½ĳà½ĵ
Ġ à½łà½Ĥà½ĵ
Ġ à½ĭ
Ġ à¼¡à¼©à¼¥
à½¦ à½ĵà½Ĥ
à½ĳ à½Łà½¦
à½Ĥ à½łà½ĩà½ĺ
à½Ĥ à½ĸà½ĸ
à½ĸ à½£à½Ĥà½¦
à½¢ à½Ĥà½ĵ
à½¢ à½ĺà½ĵ
à½¢ à½ļà½ĵ
à½¢ à½Łà½Ħ
à½ĵ à½ĸà½£
à½ĵ à½Ģà½ł
à½º à½ºà¼·à¼ĭ
à½²à¼ĭ à¾©
à½²à¼ĭ à¾¤à¼ĭ
à½Ĥà½¦ à½§
à¾² à¾±à½¼à¼ĭ
à½´à¼ĭ à¼Ħà¼įà¼į
à½¡ à½ģà½ĸ
à½Ģ à½ĸà½¦
à¾Ł à¾±à½¾à¼ĭ
à½ĳà½Ħ à½łà½Ĥà½Ĥ
à½Ĳ à½ĵà½¡
à¾£ à½±à½¿à¼ĭ
à½Ł à½ĸà½ħ
à¾¡ à¼·à½º
à¾±à¼ĭ à¼Ħà¼ħà¼į
à¾Łà½¼ à¾ħ
à¾· à¾Ńà½±
à¾· à¾£à½²à¼ĭ
à½Ĥà½ī à½Ħ
à½Ļ à½ĺà½ģ
à½¢à½Ħ à½ł
à¾¨ à¼ĭà¼ĳ
à½ĺà½Ĩ à½ĺ
à½¨ à½łà½ĳ
à½¨ à½ĳà½ĸ
à¾³à¼ĭ à½´
à¾« à¾Ļà¼ĭ
à¾Ĺà½º à½¿à¼ĭ
à¾Ń à¼ĭà¼Ħà¼ħà¼įà¼į
à¾Ĳà½´ à½¾à¼ĭ
à¾¦à¾± à½¿à¼į
à½ĳà½ĳ à½£
à¾¡à½ºà¼ĭ à½Ī
à½ĸà½ŀà½Ĥ à½ģ
à¾¤à¾²à½´ à¼į
à¾²à½´à¼ĭ à¼Ħà¼ħà¼įà¼į
à½Łà½ĸ à½Ķ
à½ĵà½ĺà½¦ à½ĺ
à¼ł à¼¡à¼©
à½Ĵ à½łà½ĳ
à¼© à¼£à¼¤
à¼ĭà½Ī à¾¤à½ºà¼ĭ
à½Ĺ à½Ĥà½ŀ
à½ĸà½¦à½£ à½ĸà½¢
à¼ĭà¼ĳ à¼įà¼į
à¼¨ à¼¤à¼§
à½Į à½Ĭ
à¾µ à½½à¼į
à¾µ à½´à½¾à¼į
à¾µ à¾ļà½±à¼į
à½» à½¾à½¿à¼ĭ
à¾«à½´ à½¿à¼į
à¾ª à½»à¼ĭ
à¼¡à¼ł à¼¤à¼¥
à¼¡à¼ł à¼¦à¼¤
à¼¼ à¼½
à¼¡à¼£ à¼£à¼¤
à¼¡à¼¥ à¼¡à¼§
à¼¡à¼¥ à¼¡à¼¡
à¼¡à¼¦ à¼©à¼¢
à¾¦à¾· à½±à½´
à¾Ńà½¼à¼ĭ à¼Ī
à¼įà¼įà¼į à¼ĭ
à½į à½ı
Ġà½ħ à½¦
à¾¼ à½±à½²à¼ĭ
à¼¡à¼¡à¼¤ à¼£
Ġà¼¡à¼¤ à¼©
à½Ĵà½ħ à½«à½Ħ
à¼įà¼ĭà¼ĭà¼ĭà¼ĭà¼ĭà¼ĭà¼ĭà¼ĭà¼ĭà¼ĭà¼ĭà¼ĭà¼ĭà¼ĭà¼ĭà¼ĭà¼ĭà¼ĭà¼ĭà¼ĭà¼ĭà¼ĭà¼ĭà¼ĭà¼ĭà¼ĭà¼ĭà¼ĭà¼ĭà¼ĭà¼ĭà¼ĭà¼ĭà¼ĭà¼ĭà¼ĭà¼ĭà¼ĭà¼ĭà¼ĭà¼ĭà¼ĭà¼ĭà¼ĭà¼ĭà¼ĭà¼ĭà¼ĭà¼ĭà¼ĭà¼ĭà¼ĭà¼ĭà¼ĭà¼ĭà¼ĭà¼ĭà¼ĭà¼ĭà¼ĭà¼ĭà¼ĭà¼ĭà¼ĭà¼ĭà¼ĭà¼ĭà¼ĭà¼ĭà¼ĭà¼ĭà¼ĭà¼ĭà¼ĭà¼ĭà¼ĭà¼ĭà¼ĭà¼ĭà¼ĭà¼ĭà¼ĭà¼ĭà¼ĭà¼ĭà¼ĭà¼ĭà¼ĭà¼ĭà¼ĭà¼ĭà¼ĭà¼ĭà¼ĭà¼ĭà¼ĭà¼ĭà¼ĭà¼ĭà¼ĭà¼ĭà¼ĭà¼ĭà¼ĭà¼ĭà¼ĭà¼ĭà¼ĭà¼ĭà¼ĭà¼ĭà¼ĭà¼ĭà¼ĭà¼ĭà¼ĭà¼ĭà¼ĭà¼ĭà¼ĭà¼ĭà¼ĭà¼ĭà¼ĭà¼ĭà¼ĭà¼ĭà¼ĭà¼ĭà¼ĭà¼ĭà¼ĭà¼ĭà¼ĭà¼ĭà¼ĭà¼ĭà¼ĭà¼ĭà¼ĭà¼ĭà¼ĭà¼ĭà¼ĭ à¼ĭà¼ĭ
à¼ĭà¾¾à¾¾ à¼įà¼į
Ġ à½ĸà½¦à½£
Ġ à½ĵà½ł
Ġ à½¨à½ĵ
Ġ à¼¡à¼©à¼§
à¼ĭ à¾«
à¾ Ĩ
à½¦ à½ģà½ĺà½¦
à½¦ à½Ķà½łà½ĺ
à½ĸ à½ĸà½ħà½¦
à½ĸ à½ĺà½ĵ
à½¢ à½Ĥà½¦à½£
à½ĺ à½Ļà½ĺ
à½ĺ à½Ĥà½¦à½£
à½Ķ à½Ĥà½¢
à½Ķ à½ķà½ĸ
à½ł à½Ķà½¦
à½Ģ à½Ĥà½ĵà½ĺ
à¾Ĵ à¼·à¼ĭ
à½ĸà½¦ à½£à½¦
à½Ĳ à½ħà½ĳ
à½Ķà½¢ à½Łà½ĳ
à½ĸà½¢ à½Ģ
à½ĵà½¦ à½ĺà½Ħ
à¼ĭà¼į à¼ĭà¼ĭà¼ĭà¼ĭà¼ĭà¼ĭà¼ĭà¼ĭà¼ĭà¼ĭà¼ĭà¼ĭà¼ĭà¼ĭà¼ĭà¼ĭà¼ĭà¼ĭà¼ĭà¼ĭà¼ĭà¼ĭà¼ĭà¼ĭà¼ĭà¼ĭà¼ĭà¼ĭà¼ĭà¼ĭà¼ĭà¼ĭ
à½Ł à½ģà½Ħ
à¾³ à¾±à¼ĭ
à½¡à½Ħ à½łà½ģ
à½Ķà½¦ à½ĺà½Ĳ
à½Ķà½¦ à½¦à½¦
à½± à½»à¼į
à½Ĥà½Ħ à½£à½Ĥà½¦
à¾¨ à¾²à½¼à¼ĭ
à¾¨ à¼µ
à½ĸà½ĳ à½Ģà½¢
à½ĺà½Ĩ à½ĸ
à¾²à½º à¾ĥà¼ĭ
à½ħà½ĳ à½¤
à½§ à½Ŀ
à¾³à¼ĭ à¼ĭ
à½ĩ à½§
à¾« à½½à¼į
à½ĺà½ļà½ĵ à½¢
à½ĺà½ļà½ĵ à½ĵ
à¾¡à½¼à¼ĭ à½Īà½²
à½£à½ĺ à½¡à½ĵ
à½ĸà½Ĥ à½Ĭ
à½¼à¼į à¼ĭà¼ĭà¼ĭà¼ĭà¼ĭà¼ĭà¼ĭà¼ĭà¼ĭà¼ĭà¼ĭà¼ĭà¼ĭà¼ĭà¼ĭà¼ĭà¼ĭà¼ĭà¼ĭà¼ĭà¼ĭà¼ĭà¼ĭà¼ĭà¼ĭà¼ĭà¼ĭà¼ĭà¼ĭà¼ĭà¼ĭà¼ĭà¼ĭà¼ĭà¼ĭà¼ĭà¼ĭà¼ĭà¼ĭà¼ĭà¼ĭà¼ĭà¼ĭà¼ĭà¼ĭà¼ĭà¼ĭà¼ĭà¼ĭà¼ĭà¼ĭà¼ĭà¼ĭà¼ĭà¼ĭà¼ĭà¼ĭà¼ĭà¼ĭà¼ĭà¼ĭà¼ĭà¼ĭà¼ĭà¼ĭà¼ĭà¼ĭà¼ĭà¼ĭà¼ĭà¼ĭà¼ĭà¼ĭà¼ĭà¼ĭà¼ĭà¼ĭà¼ĭà¼ĭà¼ĭ
à½£à½Ĥ à½ĺ
à½ĵà½ĺ à½ī
à½Ĥà½¦à½Ħ à½ĸ
à½ĺà½ģà½ĵ à½Ĥ
à½Ĭ à½ģ
à½Ĭ à½Ģà½ł
à½£à½Ĥà½¦ à½ĳ
à¾Ĵà¾² à¼µà¼ĭ
à¾²à½ºà¼ĭ à¼½
à¼© à¼¤à¼¥
à¼¨ à¼§à¼©
à¾Ĳà¾² à½±à½²à¼ĭ
à½ĵà½Ĥà½¦ à½ļà½£
à½Ĥà½ĳà½Ĥà½¦ à½Ķà½ł
à¼µ à½²à¼į
à¼¡à¼¢ à¼¡à¼¤
à¼¡à¼£ à¼§à¼©
à¼¡à¼£ à¼¤à¼£
à¼¡à¼£ à¼¥à¼£
à¼¡à¼¤ à¼©à¼©
à¼¡à¼§ à¼¦à¼§
Ġà¼Ħà¼ħà¼įà¼į à¼į
à½ķà½¦ à½ķà½ĺ
à¾ł à½¾
à¾ł à¾¡à¾¡à¾·
à¾Ĳà½´à¼į à¼½
à½ĥ à½§
à½¨à½ł à½¢
Ġà¼ł à¼łà¼łà¼łà¼łà¼łà¼łà¼łà¼ł
Ġà¼ĭà¼ĭà¼ĭà¼ĭà¼ĭ à¼ĭà¼įà¼į
à½į à½Ķ
à¼¨à¼¨ à¼¥
à¼¨à¼© à¼¤
à¼¡à¼£à¼ł à¼¥
à¼¡à¼¡à¼§ à¼¡
à½Ĺà½Ħ à½¡
à½±à½¼ à½´à¾ĥà¼ĭ
à¾¦à¾¦ à½±à½²à¼ĭ
Ġà¼Įà¼Įà¼Įà¼Įà¼Įà¼Įà¼Įà¼Įà¼Įà¼Įà¼Įà¼Įà¼Įà¼Įà¼Įà¼Įà¼Įà¼Įà¼Įà¼Įà¼Įà¼Įà¼Įà¼Įà¼Įà¼Įà¼Įà¼Įà¼Įà¼Įà¼Įà¼Įà¼Į à¼Įà¼Įà¼Įà¼Įà¼Į
à½Ĺà½Ĵ à½Ĵà½ĵ
à¾·à¾²à½±à½´ à½¾à½¿à¼ĭ
à¾·à½» à½¾à¼Ķ
à¼ĭà¼µ à¼µ
à¼»à¼» à¼»à¼»
à¾Ĳà¾µà¾¨ à¾³à¾º
Ġ à½ĺà½īà½ĵ
Ġ à¼ĭà¼įà¼įà¼į
à½¦ à½ĸà½ıà½ĸ
à½ĳ à½īà½ĺà½¦
à½ĳ à½ĵà½łà½Ħ
à½Ĥ à½ĳà½ĺà½¢
à½ĵ à½ĸà½¤
à½ĵ à½ģà½ĺà½¦
à½ĵ à½łà½Ĥà½£
à½Ħ à½İ
à½ĺ à½ıà½ł
à½²à¼ĭ à¾¤
à½²à¼ĭ à¾Ļ
à½²à¼ĭ à¼·
à½£ à½ĸà½Ļ
à½Ĥà½¦ à½ĸà½Łà½Ħ
à½¡ à½ģà½ĺà½¦
à½Ĩ à½ĵà½¦
à½ĸà½¦ à½ĺà½ļ
à½ģ à½ĺà½ĳ
à½ģ à½ĵà½ĳ
à½ģ à½¤à½ł
à½ļ à½ĳà½Ĥ
à¾Ĳ à¾Łà½ºà¼į
à½Ħà½¦ à½ī
à½ĵà½¦ à½ĸà½ĳ
à½ĵà½¦ à½Ĥà½ħ
à½Ł à½ļà½Ĥ
à½£à½¦ à½ĸà½ĳà½Ĥ
à½£à½¦ à½Ĥà½Ł
à½£à½¦ à½£à½Ħà½¦
à½Ķà½¦ à½¨
à½± à¾±à½²
à¾© à¾²à½º
à½Ĥà½ĵà½¦ à½Ĥà½¦
à½Ĥà½ĵà½¦ à½Ĥà½ŀà½ĵ
à¾Łà½º à¼µà¼į
à½¢à½ĸ à½Ľ
à½Ĥà½ŀà½ĵ à½Ĥà½Ħ
à¾Ķà¼ĭ à¼º
à¾Ĳà¾±à½ºà¼ĭ à¼º
à¾Łà½ºà¼ĭ à¼½
à½łà½Ĩ à½ĸà½¦
à½łà½Ĩ à½ĳà½Ķà½ł
à½Ĥà½ĵ à½Ķ
à½£à½Ĥ à½ĸà½ŀ
à¾¨à½¼ à½¼
à½Łà½ĳ à½Ł
à½ıà½ĵ à½ĵ
à¾¤à¾± à½±à½²à¼ĭ
à½¤à½¢ à½ĳ
à½±à½´à¾ĥ à¼ĭà¼½
à½¢à½¦ à½ĵ
à½Ĵ à½Ĵ
à¼© à¼¤à¼§
à½Ķà½İ à½ł
à½Į à½¤
à½ļà½¢ à½ĳ
à¾µ à¾¼à¼ĭ
à¾Ĵà½´ à½¿à¼į
Ġà¼¼ à¼Ī
à¼¡à¼ł à¼¦à¼ł
à¼¢à¼ł à¼¢à¼¢
à¼¡à¼£ à¼¤à¼¥
à¼¡à¼¥ à¼§à¼£
à¾¥ à¾¦à¾¦à¾·
à¼ĭà¼¹ à½²à¼įà¼į
à¾¨à½º à½ºà¼ĭ
à½ĵà½Ķ à½Ģ
à¾´ à½±
à½Ĥà½¦à½Ķ à½ĺ
à¼©à¼§ à¼¢
à¼©à¼§ à¼¤
à¼łà¼łà¼ł à¼¡
à¾ĳ à½±à½¿à¼ĭ
à¼¨à¼¨ à¼¤
à¼¡à¼¢à¼ł à¼¡
à¼¡à¼¡à¼£ à¼¡
Ġà¼¡à¼¥ à¼¡
Ġà¼¡à¼© à¼£
à½ķà½ŀ à½Ĳ
Ġà¼Įà¼Įà¼Įà¼Įà¼Įà¼Įà¼Įà¼Įà¼Įà¼Įà¼Įà¼Įà¼Įà¼Įà¼Įà¼Įà¼Įà¼Įà¼Įà¼Įà¼Įà¼Įà¼Įà¼Įà¼Įà¼Įà¼Įà¼Įà¼Įà¼Įà¼Įà¼Įà¼Į à¼Įà¼Įà¼Įà¼Įà¼Įà¼Įà¼Įà¼Į
à¾Īà¾Īà¾Īà¾Īà¾Īà¾Īà¾Īà¾Ī à¾Īà¾Īà¾Īà¾Ī
à½ĵà½ĳà½Ĥ à½¡
à¼ĭà¿ ģ
à¼Ħà¼ħà¼ħ à¼į
Ġ à½ķà½¦
Ġ à¼¡à¼©à¼¨
Ġ à½ıà½ı
à½ĳ à½ĳà½Ķà½£
à½Ĥ à½ķà½ĵ
à½Ĥ à½Ķà½łà½ĺ
à½Ĥ à½łà½Ľà½ĺ
à½¼ à¾Ĥà¼ĭ
à½º à½¾à½¿à¼ĭ
à½Ħ à½ķà½ĵ
à½ĺ à½Ĥà½ŀ
à½ĺ à½ĺà½ļ
à½ĺ à½ĺà½ģ
à¼į à¼Ħà¼ħ
à½Ķ à½ĺà½ł
à½Ķ à½ķà½ĵ
à½Ķ à½Ĥà½¦à½¢
à½ł à½Ħà½Ĥ
à¾² à¾±à½¾à¼ĭ
à½¡ à½¤à½¦
à½ŀ à½ĵà½¦
à½Ģ à½ĺà½Ĳà½ı
à½ĳà½Ħ à½Ĥà½ŀ
à½Ĳ à½ķà½¢
à½Ĳ à½Ĳà½ĸ
à½ģ à½ĸà½ĳ
à½ĺà½¦ à½Ħà½¦
à¾¡ à¾¤à½º
à¾±à½º à¼µà¼ĭ
à½łà½Ĥ à½Ł
à½¡à½Ħ à½ĳà½ĸ
à½¡à½Ħ à½ĸà½ĳ
à½Ķà½¦ à½ĩ
à¾Ļ à¾Ļà½º
à¾Ļ à½±à½²
à½ħà½ĵ à½¡à½Ħ
à¾Ĵà¾±à½´ à¼µ
à½ĳà½Ģ à½ª
à¼Ķ à¼ĭà¼ĭà¼ĭà¼ĭà¼ĭà¼¼
à½ĺà½ĳ à½Ĥà½¦
à½łà½Ĩ à½ĳà½ĳ
à¾Ĳà¾±à½¼ à¼Ķ
à¾Ķà½¼ à¼·à¼ĭ
à½ļà½ĳ à½¦
à¾Ĵà½¼à¼ĭ à¼º
à¼¡ à¼¡à¼©à¼¥
à¼¡ à¼¡à¼©à¼ł
à¾Łà½´ à¼·
à¾Łà½´ à¼įà¼įà¼į
à½Ŀ à½ļ
à¾·à½´ à¼·
à¾¡à½º à½¿à¼ĭ
à½Ģà½¢ à½ī
à¾²à½ºà¼ĭ à¼ĳ
à¼¨ à¼£à¼©
à½ļà½£ à½ĳ
à½Ĩà½Ĥ à½ķ
à½ĵà½Ĥà½¦ à½¦
à½Ĥà½ĳà½Ĥà½¦ à½Ķ
à¾ª à¼ĭà¼´
à¼¡à¼ł à¼¡à¼£
à¼¡à¼ł à¼¥à¼¨
à¼¡à¼ł à¼§à¼¨
à¼¡à¼¢ à¼¥à¼¨
à¾ļ à¾²à½¼
à¼ĭà¾ »
à¼ĭà¾ Ĩ
à½¢à½ı à½Ĥà½¦
à¼¡à¼¤ à¼¨à¼©
à¼¡à¼¥ à¼¦à¼ł
à¾±à½±à¼ĭ à¼´
à¾ł à½±à½²à¼į
à¼ĭà¼ĭà¼ĭà¼ĭà¼ĭ à¼ĭà¼įà¼į
à¼ĭà¾¢ à½±à½¾à¼į
à½ĵà½¡ à½ķà½¡
à¼ĭà¼Ī à¼ĭà¼ĭà¼ĭà¼ĭà¼ĭ
à½ķà½¥ à½Ĳ
à½¨à½¨ à½¨
à¼£à¼¨ à¼¦à¼¡
à¾·à¾Ń à½²à¼į
à½²à½² à½²
à¼¡à¼¡à¼¢ à¼¦
Ġà¼¡à¼¥ à¼£
Ġà¼¡à¼¥ à¼¦
à¼¡à¼¡à¼§ à¼©
Ġà¼¡à¼§ à¼¤
Ġà¼¢à¼ł à¼¡à¼§
à¾¨à¾¨ à½¾à¼ĭ
à¼įà¼ĭà¼ĭà¼ĭà¼ĭà¼ĭà¼ĭà¼ĭà¼ĭà¼ĭà¼ĭà¼ĭà¼ĭà¼ĭà¼ĭà¼ĭà¼ĭà¼ĭà¼ĭà¼ĭà¼ĭà¼ĭà¼ĭà¼ĭà¼ĭà¼ĭà¼ĭà¼ĭà¼ĭà¼ĭà¼ĭà¼ĭà¼ĭà¼ĭà¼ĭà¼ĭà¼ĭà¼ĭà¼ĭà¼ĭà¼ĭà¼ĭà¼ĭà¼ĭà¼ĭà¼ĭà¼ĭà¼ĭà¼ĭà¼ĭà¼ĭà¼ĭà¼ĭà¼ĭà¼ĭà¼ĭà¼ĭà¼ĭà¼ĭà¼ĭà¼ĭà¼ĭà¼ĭà¼ĭà¼ĭà¼ĭà¼ĭà¼ĭà¼ĭà¼ĭà¼ĭà¼ĭà¼ĭà¼ĭà¼ĭà¼ĭà¼ĭà¼ĭà¼ĭà¼ĭà¼ĭà¼ĭà¼ĭà¼ĭà¼ĭà¼ĭà¼ĭà¼ĭà¼ĭà¼ĭà¼ĭà¼ĭà¼ĭà¼ĭà¼ĭà¼ĭà¼ĭà¼ĭà¼ĭà¼ĭà¼ĭà¼ĭà¼ĭà¼ĭà¼ĭà¼ĭà¼ĭà¼ĭà¼ĭà¼ĭà¼ĭà¼ĭà¼ĭ à¼ĭà¼ĭà¼ĭà¼ĭà¼ĭà¼ĭà¼ĭà¼ĭà¼ĭà¼ĭà¼ĭ
Ġà¼Įà¼Įà¼Įà¼Įà¼Įà¼Įà¼Įà¼Įà¼Įà¼Įà¼Įà¼Įà¼Įà¼Įà¼Įà¼Įà¼Įà¼Įà¼Įà¼Įà¼Įà¼Įà¼Įà¼Įà¼Įà¼Įà¼Įà¼Įà¼Įà¼Įà¼Įà¼Įà¼Į à¼Įà¼Įà¼Į
à½Ļà½ļ à½Ľà½Ľ
ĉĉĉĉ ĉĉ
Ġ à½¢à½ĺ
Ġ à½ģà½¢
Ġ à¼¢à¼łà¼¡à¼¥
à¼ĭ à¾Ń
à½¦ à½ĸà½ħà½ł
à½¦ à½ĺà½īà½ĵ
à½² à¼¸
à½² à¾Ħà¼ĭ
à½ĳ à½ĳà½Ķà½Ĥ
à½Ĥ à½ĸà½¤à½ĳ
à½Ĥ à½ĺà½ģà½¦
à½ĸ à½Ĩà½Ĥà½¦
à½¢ à½Ĳà½£
à½ĵ à½ĳà½Ģà½¢
à½ĵ à½ķà½ĵ
à½ĵ à½ļà½Ħà½¦
à½ĵ à½¡à½Ĥ
à½Ħ à½Ħà½ĵ
à½ĺ à½Ĥà½¡à½¦
à¾± à¾Ļà½¼
à¾± à½¾à¼Ķ
à¾± à½½à¼įà¼į
à½²à¼ĭ à¼Ħà¼ħà¼ħà¼įà¼į
à½ºà¼ĭ à¾³
à½Ĥà½¦ à½Ķà½ĵ
à½´à¼ĭ à¼µ
à¾Ł à¾Łà½¼à¼ĭ
à¾Ł à¾¡à½ºà¼įà¼į
à¾Ł à¾±à½¿à¼ĭ
à½ĳà½Ħ à½Ĥà½ĵ
à½Ķà½ł à½¦
à½Ķà½ł à½¢
à¾±à½²à¼ĭ à½²à¼ĭ
à½ĺà½¦ à½¢à½ĸ
à½Ķà½¢ à½ħ
à¾Ĳ à½¾
à¾Ĳ à¼µ
à¾£ à¾¤
à½Ħà½¦ à½ł
à½ĵà½¦ à½ĵà½¦
à½ĵà½¦ à½ĺà½Ĳ
à¾³ à¾Ĵà¾²à½¼à¼ĭ
à¾· à¾±à¼įà¼į
à¾· à½»à¼į
à¾Ļ à½±à½¿à¼į
à½Ĥà½Ħ à½ĵà½¦
à¾¦ à½¾
à¾¦ à½²à½¿à¼į
à¾¦ à¾¦à¼į
à½¨ à½Ĥà½ī
à½¨ à½ģà½ĸ
à½¨ à½ĳà½ł
à½¢à½ĸ à½ĸà½¦
à½ĳà½Ģ à½ĸ
à¾« à¾·à½²à¼ĭ
à½Ļà½ĺ à½¡
à¾Ļà½² à¼µ
à½ĵà½ĺ à½£
à½ĵà½ĺ à½¤
à½ĵà½ĺ à½īà½ĺ
à½ĺà½ī à½Ľ
à¼¡ à¼¡à¼¢à¼¨
à¾Ĵà¾²à¼ĭ à¼¼
à½İ à½ķ
à½Ĥà½£ à½ĵ
à½ĸà½£ à½ĸ
à¼¢ à¼¡à¼¤à¼£
à¼ł à¼¨à¼ł
à½Ħà½Ħ à½ł
à¼© à¼¤à¼¤
à¼© à¼¦à¼£
à½Ĺ à½ķà½Ł
à½łà½Ĳà½ĳ à½Ķà½¢
à½½ à½¾
à½¢à½Ĥà½¦ à½Ķ
à½±à½´à¾ĥà¼Ķ à¼ĭà¼ĭà¼ĭ
à¼¡à¼ł à¼©à¼¤
Ġà½¢ à½¢
à¾²à¾Ģ à½±à¼ĭ
à¼¡à¼£ à¼¨à¼¡
à¾¤à½ºà¼ĭ à¼¸
à¼¡à¼¨ à¼¡à¼¢
à¾¦à¾· à¼įà¼į
à¼ĭà½¼ à¾ħ
à½¦à½Ķ à½ļ
à½ĵà½Ķ à½ĳà½Ħ
à½ĥ à½ĳ
à½ĥ à½¤
à¼ĭà¼Ī à¼Īà¼į
à½Ķà½ĺ à½Ķà½Ĥà½ı
à¼¡à¼łà¼ł à¼©
à¼©à¼¨ à¼¥
à½¢à½Ķ à½ĸà½ł
à½¼à¼ĭà¼½ à¼ĭ
à¼¡à¼£à¼ł à¼£
à¾ŀà¾ŀ à½±
à½Ĺà½« à½Ħ
Ġà¼¡à¼¥ à¼¤
à½ºà¼ĭà½Ī à¾·à½²à¼ĭ
Ġà¼¡à¼§ à¼£
Ġà¼¡à¼¦ à¼¥
à¼įà¼ĭà¼ĭà¼ĭà¼ĭà¼ĭà¼ĭà¼ĭà¼ĭà¼ĭà¼ĭà¼ĭà¼ĭà¼ĭà¼ĭà¼ĭà¼ĭà¼ĭà¼ĭà¼ĭà¼ĭà¼ĭà¼ĭà¼ĭà¼ĭà¼ĭà¼ĭà¼ĭà¼ĭà¼ĭà¼ĭà¼ĭà¼ĭà¼ĭà¼ĭà¼ĭà¼ĭà¼ĭà¼ĭà¼ĭà¼ĭà¼ĭà¼ĭà¼ĭà¼ĭà¼ĭà¼ĭà¼ĭà¼ĭà¼ĭà¼ĭà¼ĭà¼ĭà¼ĭà¼ĭà¼ĭà¼ĭà¼ĭà¼ĭà¼ĭà¼ĭà¼ĭà¼ĭà¼ĭà¼ĭà¼ĭà¼ĭà¼ĭà¼ĭà¼ĭà¼ĭà¼ĭà¼ĭà¼ĭà¼ĭà¼ĭà¼ĭà¼ĭà¼ĭà¼ĭà¼ĭà¼ĭà¼ĭà¼ĭà¼ĭà¼ĭà¼ĭà¼ĭà¼ĭà¼ĭà¼ĭà¼ĭà¼ĭà¼ĭà¼ĭà¼ĭà¼ĭà¼ĭà¼ĭà¼ĭà¼ĭà¼ĭà¼ĭà¼ĭà¼ĭà¼ĭà¼ĭà¼ĭà¼ĭà¼ĭà¼ĭà¼ĭà¼ĭà¼ĭà¼ĭà¼ĭà¼ĭà¼ĭà¼ĭà¼ĭà¼ĭà¼ĭà¼ĭà¼ĭà¼ĭà¼ĭà¼ĭà¼ĭà¼ĭ à¼ĭà¼ĭà¼ĭà¼ĭà¼ĭà¼ĭà¼ĭà¼ĭà¼ĭà¼ĭà¼ĭ
Ġà¼Įà¼Įà¼Įà¼Įà¼Įà¼Įà¼Įà¼Įà¼Įà¼Įà¼Įà¼Įà¼Įà¼Įà¼Įà¼Įà¼Įà¼Įà¼Įà¼Įà¼Įà¼Įà¼Įà¼Įà¼Įà¼Įà¼Įà¼Įà¼Įà¼Įà¼Įà¼Įà¼Į à¼Įà¼Įà¼Įà¼Įà¼Įà¼Įà¼Įà¼Įà¼Įà¼Įà¼Įà¼Įà¼Įà¼Įà¼Įà¼Įà¼Įà¼Įà¼Įà¼Įà¼Įà¼Įà¼Įà¼Įà¼Įà¼Įà¼Įà¼Įà¼Įà¼Įà¼Įà¼Į
ã Ģ
Ġ à½łà½ĳà½ĺ
à¼ĭ à¾¨à½¼
à¼ĭ à½»à¼ĭ
à½¦ à½ĳà½ĳ
à½ĳ à½ģà½Ħ
à½ĳ à½ĵà½ĵ
à½Ĥ à½ĺà½ģà½ĵ
à½Ĥ à½ĸà½£
à½¢ à½Ĥà½ıà½ĵ
à½ĵ à½łà½ĩà½ĺ
à½ĵ à½¡à½¦
à½º à½»à¼ĭ
à½Ħ à½ĸà½¤à½ĳ
à½Ħ à½ĸà½¦à½ĺ
à½ĺ à½£à½Ĥ
à½ĺ à½ĸà½¦à½ĺà½¦
à½Ķ à½Ģà½¢
à½²à¼ĭ à½²à½¿à¼ĭ
à½Ĥà½¦ à½¡à½Ħ
à½Ĥà½¦ à½¢à½Ħ
à½Ĥà½¦ à½ĺà½Ħ
à¾² à¾«
à¾² à½»à½¿à¼ĭ
à½´à¼ĭ à¼ĭà¼ĭà¼ĭ
à½¡ à½ħ
à½¡ à½ĩ
à½Ĩ à½łà½ĳ
à½Ĩ à½Ĥà½ī
à½Ĩ à½Ļ
à¾Ĵ à¾·à¼į
à½ĸà½¦ à½Ĥà½ŀà½ĵ
à½ģ à½£à½¦
à½ĳà½Ĥ à½łà½ģ
à½ĳà½Ĥ à½ĺà½Ħ
à½¤ à½ĺà½ĩ
à¾Ĵà¾± à½ºà¼į
à¾Ĵà¾± à¼įà¼įà¼į
à½ĸà½¢ à½Ĥà½ı
à½Ħà½¦ à½Ł
à½ĵà½¦ à½ĺà½Ĩ
à½Ł à½ħ
à¾¡ à½±à½¿à¼ĭ
à¾¡ à¾±à½±
à½łà½Ĥ à½ŀ
à½£à½¦ à½§
à¾¤ à¾¤à½²à¼ĭ
à½Ķà½¦ à½ħ
à½Ķà½¦ à½ĳà½ĸ
à¾· à¾¡à½¼
à¾· à¾©à½¼à¼ĭ
à¾²à½² à½¾à¼Ķ
à½ĺà½Ĳ à½ª
à¾Łà½º à¼µà¼ĭ
à½ĸà½ĳ à½ı
à½ĺà½Ĩ à½Ķ
à½Ľ à½Ĳ
à¾±à½ºà¼ĭ à½Īà¾±à½º
à½¢à½ĸ à½¤à½Ĥà½¦
à½ĩ à½łà½ĺ
à¼ĭà¼ĭ à¼Į
à¾¡à½¼à¼ĭ à¼Ħà¼ħà¼įà¼į
à¾²à½²à¼ĭ à¾İ
à¾Ĳà¾±à½ºà¼ĭ à¼¼
à½ĺà½Ĳà½ł à½ĵ
à¾Ĵà½¼à¼ĭ à¼ĳ
à¾³à½´ à½´à¼ĭ
à¼¡ à¼¡à¼¢à¼ł
à½Ĳà½ĸà½¦ à½¢
à½ıà½ĵ à½ı
à¾¨à¾² à¾±à½²
à½ĵà½Ĥ à½¥
à½¦à½¢ à½Ķ
à½łà½Ĥà½£ à½£
à¾©à½º à½ºà¼ĭ
à½Ĵ à½Łà½Ĳà½«
à¼© à¼£à¼¨
à½Ĺ à½ĺà½Ĳà½ł
à½ĸà½ĸ à½ĺ
à¾²à¼į à¼Ī
à¼¡à¼ł à¼¨à¼¢
à¾Ĳà¾±à½´ à¼į
Ġà½¢ à½ĳ
à¼¡à¼¢ à¼¢à¼£
à¼¡à¼¢ à¼©à¼¥
à¼¡à¼£ à¼¢à¼¨
à¼¡à¼£ à¼£à¼¢
à¼¡à¼£ à¼¦à¼§
à¼¡à¼£ à¼§à¼¢
à¼¡à¼¥ à¼¢à¼ł
à¼¡à¼¥ à¼¢à¼£
à¼¡à¼¥ à¼£à¼§
à¼¡à¼¥ à¼§à¼¡
à¼¡à¼¥ à¼©à¼¤
à¼¡à¼¦ à¼¡à¼¤
à¼¡à¼¦ à¼£à¼£
à¼¡à¼¦ à¼¥à¼§
à¼¡à¼¨ à¼¡à¼§
à½© à½Ļ
à¼ĭà¾¢ à½±à½¾à¼ĭ
à¼ĭà½¼ à½º
à½ĥ à½Ģ
à½Ĥà½Ķ à½¡
à½Ħà½Ķ à½ķ
Ġà¼ĭà¼į à¼ĭà¼ĭà¼ĭ
à¼¡à¼¥à¼ł à¼¥
Ġà¼¡à¼£ à¼§
Ġà¼¡à¼¤ à¼¤
à½¼à¼ĭà½Ī à¾±à½²à¼ĭ
Ġà¼¡à¼© à¼¤
à½¢à½Ķà½ł à½Ĥ
à¼įà¼ĭà¼ĭà¼ĭà¼ĭà¼ĭà¼ĭà¼ĭà¼ĭà¼ĭà¼ĭà¼ĭà¼ĭà¼ĭà¼ĭà¼ĭà¼ĭà¼ĭà¼ĭà¼ĭà¼ĭà¼ĭà¼ĭà¼ĭà¼ĭà¼ĭà¼ĭà¼ĭà¼ĭà¼ĭà¼ĭà¼ĭà¼ĭà¼ĭà¼ĭà¼ĭà¼ĭà¼ĭà¼ĭà¼ĭà¼ĭà¼ĭà¼ĭà¼ĭà¼ĭà¼ĭà¼ĭà¼ĭà¼ĭà¼ĭà¼ĭà¼ĭà¼ĭà¼ĭà¼ĭà¼ĭà¼ĭà¼ĭà¼ĭà¼ĭà¼ĭà¼ĭà¼ĭà¼ĭà¼ĭà¼ĭà¼ĭà¼ĭà¼ĭà¼ĭà¼ĭà¼ĭà¼ĭà¼ĭà¼ĭà¼ĭà¼ĭà¼ĭà¼ĭà¼ĭà¼ĭà¼ĭà¼ĭà¼ĭà¼ĭà¼ĭà¼ĭà¼ĭà¼ĭà¼ĭà¼ĭà¼ĭà¼ĭà¼ĭà¼ĭà¼ĭà¼ĭà¼ĭà¼ĭà¼ĭà¼ĭà¼ĭà¼ĭà¼ĭà¼ĭà¼ĭà¼ĭà¼ĭà¼ĭà¼ĭà¼ĭà¼ĭà¼ĭ à¼ĭà¼ĭà¼ĭà¼ĭà¼ĭà¼ĭà¼ĭà¼ĭà¼ĭà¼ĭà¼ĭà¼ĭà¼ĭ
Ġà¼ĭà¼ĭà¼ĭà¼ĭà¼ĭà¼ĭà¼ĭà¼ĭà¼ĭà¼ĭà¼ĭà¼ĭà¼ĭà¼ĭà¼ĭà¼ĭà¼ĭà¼ĭà¼ĭà¼ĭà¼ĭà¼ĭà¼ĭà¼ĭà¼ĭà¼ĭà¼ĭà¼ĭà¼ĭà¼ĭà¼ĭà¼ĭ à¼ĭà¼ĭà¼ĭà¼ĭà¼ĭà¼ĭà¼ĭà¼ĭà¼ĭà¼ĭà¼ĭà¼ĭà¼ĭà¼ĭà¼ĭ
à½¦à½« à½ķ
à¼ĭà¼įà¼ĭà¼ĭà¼ĭà¼ĭà¼ĭà¼ĭà¼ĭà¼ĭà¼ĭà¼ĭà¼ĭà¼ĭà¼ĭà¼ĭà¼ĭà¼ĭà¼ĭà¼ĭà¼ĭà¼ĭà¼ĭà¼ĭà¼ĭà¼ĭà¼ĭà¼ĭà¼ĭà¼ĭà¼ĭà¼ĭà¼ĭà¼ĭà¼ĭà¼ĭà¼ĭà¼ĭà¼ĭà¼ĭà¼ĭà¼ĭà¼ĭà¼ĭà¼ĭà¼ĭà¼ĭà¼ĭà¼ĭà¼ĭà¼ĭà¼ĭà¼ĭà¼ĭà¼ĭà¼ĭà¼ĭà¼ĭà¼ĭà¼ĭà¼ĭà¼ĭà¼ĭà¼ĭà¼ĭà¼ĭ à¼ĭà¼ĭà¼ĭà¼ĭà¼ĭà¼ĭà¼ĭà¼ĭà¼ĭà¼ĭà¼ĭà¼ĭà¼ĭà¼ĭà¼ĭà¼ĭà¼ĭà¼ĭà¼ĭà¼ĭà¼ĭà¼ĭà¼ĭà¼ĭà¼ĭà¼ĭà¼ĭà¼ĭà¼ĭà¼ĭà¼ĭà¼ĭà¼ĭà¼ĭà¼ĭà¼ĭà¼ĭà¼ĭà¼ĭà¼ĭà¼ĭà¼ĭà¼ĭà¼ĭà¼ĭà¼ĭà¼ĭà¼ĭ
à½ķà½ħà½Ħ à½¥
ãĢ Ģ
Ġ à½¼
Ġ à½¤à½ĵ
Ġ âĢ
à½¦ à½ļà½ĳ
à½ĸ à½Ĳà½Ĥà½¦
à½ĸ à½Ķà½Ģ
à½¢ à½łà½Ĩ
à½ĵ à½ĸà½ı
à½ĺ à½ĸà½Ģ
à½Ķ à½ĸà½ı
à½Ķ à½Ħà½ĵ
à½£ à½ĺà½Ľ
à½£ à½Ķà½łà½ĸ
à½Ĥà½¦ à½ĸà½¤à½ĳ
à½Ĥà½¦ à½Ķà½ĳà½Ħà½Ķ
à½¡ à½Ĥà½¡
à¾Ł à¾¶à¼ĭ
à½ĸà½¦ à½ĳà½ĸ
à½ĸà½¦ à½Ĥà½ĵà½¦
à½ģ à½¡à½Ħ
à½ı à½ĳà½Ħ
à½ı à½ĳà½ł
à½ĺà½¦ à½Ĥà½ĵà½¦
à½ļ à½ĸà½ł
à½ļ à½Ŀ
à½Ķà½¢ à½Ł
à½ĸà½¢ à½Ĳ
à¾¡ à¾¤à¾±à½¼
à¾±à½º à½¾à¼ĭ
à½łà½Ĥ à½¡
à½łà½Ĥ à½ı
à½¡à½Ħ à½ĸà½ħ
à½Ķà½¦ à½ĳà½ĺ
à½Ķà½¦ à½¦à½Ħà½¦
à¾Ļ à¾¤à¾²à½²
à¾¨ à¾²à½ºà¼įà¼į
à½Ľ à½ĵà½ł
à½Ľ à½¤à½ł
à½¨ à½ĳà½ĺà½¢
à½ĸà½ĳà½Ĥ à½ŀ
à½łà½Ľ à½ĺà½¦
à½§ à½łà½Ħ
à½ĸà½¤ à½ĳà½Ģ
à½ĺà½ļà½ĵ à½£
à½ĸà½¤à½ĳ à½ĵà½¦
à½¦à½Ħà½¦ à½¦
à½¾à¼ĭ à½±à¼ĭ
à½£à½Ĥ à½ĸà½ħ
à½±à½´ à½¿à¼įà¼į
à½¥ à½łà½ĺ
à½ĸà½ŀà½Ĥ à½Ķà½ł
à¼¢ à¼¢à¼¥à¼ł
à½Ŀ à½ĵà½ł
à½ĳà½Ķà½Ĥ à½Ķà½ł
à¾¡à½² à¼·
à¼© à¼¦à¼©
à¼¨ à¼¦à¼¤
à¼ĳ à¼ĭ
à¾µ à¾±à½¾à¼ĭ
à¾µ à¾ļà½²à¼į
à½Ĥà½ĳà½Ĥà½¦ à½Ķà½¢
à¼¡à¼ł à¼¤à¼¦
à¼¡à¼ł à¼©à¼ł
à¾Ĺà½ºà¼į à¼½
à¼¡à¼¢ à¼¦à¼¡
à¾Ħ à¼·à½²à¼ĭ
à¼¡à¼£ à¼§à¼¦
à¼¡à¼£ à¼©à¼£
à¼¡à¼¤ à¼¥à¼¢
à¼¡à¼¤ à¼¥à¼¤
à¼¡à¼¥ à¼¢à¼¥
à¼¡à¼¥ à¼£à¼¥
à¼¡à¼¥ à¼©à¼ł
à¾Ľ à½ºà¼į
à½ĸà½¦à½Ħ à½ĺà½Ĩ
à¼¡à¼¦ à¼¡à¼©
à¼ĭà½µ à½¾
Ġà¼įà¼į à¼Ī
à¾» à½±à½´
à¾» à½´à½¿à¼į
à¾¨à½º à½º
à¾¶ à¾£à¼ĭ
à½¦à½Ķ à½ĸà½¦
à½ĥ à½Ŀà½ĵ
à¾·à¾² à½±à¼į
à¼ĭà¼Ī à¼Ķ
à½ĸà½ĸà½ĸà½ĸ à½ĸà½ĸà½¦
à½ºà¼ĭà¼½ à¼į
à¼ĭà½¼à¼ĭà½ºà¼ĭ à½¼
à¼ĭà¼įà¼½ à¼ĭà¼ĭà¼ĭà¼ĭà¼ĭ
à½Ķà½¡à½Ħ à½Ķ
à¼¡à¼¡à¼¦ à¼§
Ġà½Ļ à½ı
à¼¡à¼¡à¼¤ à¼¤
Ġà¼¡à¼§ à¼¡
Ġà¼¡à¼¦ à¼©
Ġà¼¡à¼¨ à¼§
à¼ĭà¼Į à¼Ī
Ġà¼ĭà¼ĭà¼ĭà¼ĭà¼ĭà¼ĭà¼ĭà¼ĭà¼ĭà¼ĭà¼ĭà¼ĭà¼ĭà¼ĭà¼ĭà¼ĭà¼ĭà¼ĭà¼ĭà¼ĭà¼ĭà¼ĭà¼ĭà¼ĭà¼ĭà¼ĭà¼ĭà¼ĭà¼ĭà¼ĭà¼ĭà¼ĭà¼ĭà¼ĭà¼ĭà¼ĭà¼ĭà¼ĭà¼ĭà¼ĭà¼ĭà¼ĭà¼ĭà¼ĭà¼ĭà¼ĭà¼ĭà¼ĭ à¼ĭà¼ĭà¼ĭà¼ĭà¼ĭà¼ĭà¼ĭà¼ĭà¼ĭà¼ĭà¼ĭà¼ĭ
Ġà¼ĭà¼ĭà¼ĭà¼ĭà¼ĭà¼ĭà¼ĭà¼ĭà¼ĭà¼ĭà¼ĭà¼ĭà¼ĭà¼ĭà¼ĭà¼ĭà¼ĭà¼ĭà¼ĭà¼ĭà¼ĭà¼ĭà¼ĭà¼ĭà¼ĭà¼ĭà¼ĭà¼ĭà¼ĭà¼ĭà¼ĭà¼ĭà¼ĭà¼ĭà¼ĭà¼ĭà¼ĭà¼ĭà¼ĭà¼ĭà¼ĭà¼ĭà¼ĭà¼ĭà¼ĭà¼ĭà¼ĭà¼ĭ à¼ĭà¼ĭà¼ĭà¼ĭà¼ĭà¼ĭà¼ĭà¼ĭà¼ĭ
Ġà¼Įà¼Įà¼Įà¼Įà¼Įà¼Įà¼Įà¼Įà¼Įà¼Įà¼Įà¼Įà¼Įà¼Įà¼Įà¼Įà¼Į à¼Įà¼Įà¼Įà¼Įà¼Įà¼Įà¼Įà¼Įà¼Įà¼Įà¼Įà¼Įà¼Į
à½²à¼ĭà¼Ŀ à¼Ķ
à¼įà¼ĳ à¼ĳà¼į
Ġ à½Ĥà½ĳà½ĸ
Ġ à½ĳà½Ķà½Ħ
à½¦ à½Ĳà½ĸà½¦
à½¦ à½ĺà½ģà½¦
à½ĳ à½ĳà½Ģà½ł
à½ĸ à½ĸà½Łà½Ħ
à½¢ à½¦à½ĺ
à½Ħ à½ĳà½Ģà½¢
à½Ħ à½Ĥà½¦à½Ħ
à½ĺ à½Ĥà½Ļ
à½ĺ à½Ķà½£
à½Ķ à½ĸà½ħà½¦
à½Ķ à½ģà½¦
à½²à¼ĭ à¾¨
à½ºà¼ĭ à½¼à¼ĭ
à½ºà¼ĭ à½±à½´à¾ĥà¼į
à¾² à¾«à½¼
à½´à¼ĭ à¼ĭà¼į
à½´à¼ĭ à¾Ħ
à½ŀ à½£à½Ĥ
à¾Ł à½±à½²à¼įà¼į
à½ĳà½Ħ à½łà½ķ
à½ĳà½Ħ à½ĵà½Ħ
à½ĳà½Ħ à½£à½ĺ
à½ĳà½Ħ à½¦à½Ħà½¦
à½Ĩ à½ģ
à½Ĩ à½ī
à¾Ĵ à¾¡à½¼à¼ĭ
à½ĸà½¦ à½Ĥà½ī
à½ĸà½¦ à½ĺà½Ĩ
à½ģ à½ĸà½Ģ
à½ĺà½¦ à½Ĥà½¦à½ĵ
à¾±à½² à¼·à¼į
à½ī à½ĵà½¦
à½ĸà½¢ à½ĺà½Ħ
à½ĸà½¢ à½ĸà½ıà½Ĥà½¦
à½¼à¼įà¼į à¼ĭà¼ĭà¼ĭà¼ĭà¼ĭà¼ĭà¼ĭà¼ĭà¼ĭà¼ĭà¼ĭà¼ĭà¼ĭà¼ĭà¼ĭà¼ĭà¼ĭà¼ĭà¼ĭà¼ĭà¼ĭà¼ĭà¼ĭà¼ĭà¼ĭà¼ĭà¼ĭà¼ĭà¼ĭà¼ĭà¼ĭà¼ĭà¼ĭà¼ĭà¼ĭà¼ĭà¼ĭà¼ĭà¼ĭà¼ĭà¼ĭà¼ĭà¼ĭà¼ĭà¼ĭà¼ĭà¼ĭà¼ĭà¼ĭà¼ĭà¼ĭà¼ĭà¼ĭà¼ĭà¼ĭà¼ĭà¼ĭà¼ĭà¼ĭà¼ĭà¼ĭà¼ĭà¼ĭà¼ĭà¼ĭà¼ĭà¼ĭà¼ĭà¼ĭà¼ĭà¼ĭà¼ĭà¼ĭà¼ĭà¼ĭà¼ĭà¼ĭà¼ĭà¼ĭà¼ĭ
à½Ħà½¦ à½Ĳ
à½Ł à½ĳà½Ĥ
à½Ł à½łà½ĳ
à¾¡ à¾Ł
à¾³ à½²à¼įà¼į
à½£à½¦ à½ĩ
à½¡à½Ħ à½¢à½ĸ
à¾Ĺ à½²à¼įà¼į
à¾¤ à¼Ķ
à¾¤ à½½
à½Ķà½¦ à½ĳà½Ķ
à¾Łà½¼ à¼µ
à½ĳà½ĸ à½ı
à¾Ķ à¾·à½ºà¼į
à½Ĥà½ŀ à½Ĥà½ħ
à½Ļ à½ĺà½ļ
à¾Ļ à¼µà½²
à½Ĥà½Ħ à½ĸà½¦
à½Ĥà½Ħ à½¤
à¾¨ à¾Ĺà½º
à½Ĥà½ĵà½¦ à½Ĳ
à½Ľ à½ķ
à½Ľ à½ĵà½¦
à¾³à½¼ à¼µ
à½Ĳà½ĺà½¦ à½ĳ
à½¨ à½£à½ł
à½¢à½ĸ à½Ļ
à½łà½Ľ à½ĸà½¦
à¾·à¼ĭ à¼º
à½ĸà½¤à½ĳ à½ĵ
à½ĸà½ħà½¦ à½¢
à½²à¼įà¼į à¼ĭ
à¾³à½¼à¼ĭ à½¼
à¾£à¼ĭ à¼ĳ
à½ĺà½¢ à½łà½Ľ
à½ĸà½Ģà½ł à½Ħ
à¼ł à¼¢à¼¢
à½Ī à¾¡à½¼
à¾Ģ à½¾à¼į
à½Ĵ à½ķà½Łà½¥
à¼© à¼¦à¼¢
à¼¨ à¼¦à¼£
à¼ĭà¼ĭà¼ĭà¼ĭà¼ĭà¼ĭà¼ĭà¼ĭà¼ĭà¼ĭà¼ĭà¼ĭà¼ĭà¼ĭà¼ĭà¼ĭ à¼ĭà¼ĭ
à½ĸà½ĵ à½Ķ
à¼¡à¼ł à¼£à¼¥
à¾Ńà½± à¾Ģà¼ĭ
à¼¡à¼¢ à¼£à¼£
à¼¡à¼¢ à¼¤à¼£
à¼ĭà¾ Ľ
à¼¡à¼£ à¼£à¼§
à¼¡à¼£ à¼©à¼¦
à¼¡à¼£ à¼¨à¼£
à¼¡à¼¤ à¼§à¼ł
à¼¡à¼¤ à¼©à¼¡
à¼¡à¼¥ à¼¡à¼¢
à¼¡à¼¥ à¼¥à¼¦
à¼¡à¼¥ à¼§à¼§
à¼¡à¼¦ à¼¢à¼¦
à¾ĭ à½ĺà½Ĩ
à¼Ģ à½ģà½¢
à¾ł à½±à½¾à¼ĭ
à¼ĭà¾¢ à¾Ńà½¾à¼į
à½ĭ à½ĸà½Ľ
à¾¦à¾·à½±à½²à¼ĭ à½Ī
à¾Ĺà½¼à¼ĭ à¼·à¼ĭ
Ġà¼ĭà¼ĭà¼ĭà¼ĭà¼ĭà¼ĭà¼ĭà¼ĭà¼ĭà¼ĭà¼ĭà¼ĭà¼ĭà¼ĭà¼ĭà¼ĭà¼ĭà¼ĭà¼ĭà¼ĭà¼ĭà¼ĭà¼ĭà¼ĭà¼ĭà¼ĭà¼ĭà¼ĭà¼ĭà¼ĭà¼ĭà¼ĭà¼ĭà¼ĭà¼ĭà¼ĭà¼ĭà¼ĭà¼ĭà¼ĭà¼ĭà¼ĭà¼ĭà¼ĭà¼ĭà¼ĭà¼ĭà¼ĭà¼ĭà¼ĭà¼ĭà¼ĭà¼ĭà¼ĭà¼ĭà¼ĭà¼ĭà¼ĭà¼ĭà¼ĭà¼ĭà¼ĭà¼ĭà¼ĭ à¼ĭà¼ĭà¼ĭà¼ĭà¼ĭà¼ĭà¼ĭà¼ĭà¼ĭà¼ĭà¼ĭà¼ĭà¼ĭà¼ĭà¼ĭà¼ĭà¼ĭà¼ĭà¼ĭà¼ĭà¼ĭà¼ĭà¼ĭà¼ĭà¼ĭà¼ĭà¼ĭà¼ĭà¼ĭà¼ĭà¼ĭà¼ĭà¼ĭà¼ĭà¼ĭà¼ĭà¼ĭà¼ĭà¼ĭà¼ĭà¼ĭà¼ĭà¼ĭà¼ĭà¼ĭà¼ĭà¼ĭà¼ĭà¼ĭà¼ĭà¼ĭà¼ĭà¼ĭà¼ĭà¼ĭà¼ĭà¼ĭà¼ĭà¼ĭà¼ĭà¼ĭà¼ĭà¼ĭà¼ĭà¼ĭà¼ĭà¼ĭà¼ĭà¼ĭà¼ĭà¼ĭà¼ĭà¼ĭà¼ĭà¼ĭà¼ĭà¼ĭà¼ĭà¼ĭà¼ĭ
Ġà¼© à¼©à¼©
à½į à½ķ
à¼¡à¼¤à¼ł à¼¡
à¼¡à¼¡à¼ł à¼¢
à¼¡à¼§à¼ł à¼¡
à¼¡à¼¡à¼¦ à¼¢
à¼ĭà¾¨à¼ĭ à½±à¼ĭ
à¾Ĵà¾· à½¾
à¼įà¼ĭà¼ĭà¼ĭà¼ĭà¼ĭà¼ĭà¼ĭà¼ĭà¼ĭà¼ĭà¼ĭà¼ĭà¼ĭà¼ĭà¼ĭà¼ĭà¼ĭà¼ĭà¼ĭà¼ĭà¼ĭà¼ĭà¼ĭà¼ĭà¼ĭà¼ĭà¼ĭà¼ĭà¼ĭà¼ĭà¼ĭà¼ĭà¼ĭà¼ĭà¼ĭà¼ĭà¼ĭà¼ĭà¼ĭà¼ĭà¼ĭà¼ĭà¼ĭà¼ĭà¼ĭà¼ĭà¼ĭà¼ĭà¼ĭà¼ĭà¼ĭà¼ĭà¼ĭà¼ĭà¼ĭà¼ĭà¼ĭà¼ĭà¼ĭà¼ĭà¼ĭà¼ĭà¼ĭà¼ĭà¼ĭà¼ĭà¼ĭà¼ĭà¼ĭà¼ĭà¼ĭà¼ĭà¼ĭà¼ĭà¼ĭà¼ĭà¼ĭà¼ĭà¼ĭà¼ĭà¼ĭà¼ĭà¼ĭà¼ĭà¼ĭà¼ĭà¼ĭà¼ĭà¼ĭà¼ĭà¼ĭà¼ĭà¼ĭà¼ĭà¼ĭà¼ĭà¼ĭà¼ĭà¼ĭà¼ĭà¼ĭà¼ĭà¼ĭà¼ĭà¼ĭà¼ĭà¼ĭà¼ĭà¼ĭà¼ĭà¼ĭà¼ĭà¼ĭà¼ĭà¼ĭà¼ĭà¼ĭà¼ĭà¼ĭà¼ĭà¼ĭà¼ĭà¼ĭà¼ĭà¼ĭà¼ĭà¼ĭà¼ĭ à¼ĭ
à½±à½¾ à½¿à¼į
Ġà¼Įà¼Įà¼Įà¼Įà¼Įà¼Įà¼Įà¼Įà¼Įà¼Įà¼Įà¼Įà¼Įà¼Įà¼Įà¼Įà¼Įà¼Įà¼Įà¼Įà¼Įà¼Įà¼Įà¼Įà¼Įà¼Įà¼Įà¼Įà¼Įà¼Įà¼Įà¼Įà¼Į à¼Įà¼Įà¼Įà¼Įà¼Įà¼Įà¼Į
Ġà¼ĭà¼ĭà¼ĭà¼ĭà¼ĭà¼ĭà¼ĭà¼ĭà¼ĭà¼ĭà¼ĭà¼ĭà¼ĭà¼ĭà¼ĭà¼ĭà¼ĭà¼ĭà¼ĭà¼ĭà¼ĭà¼ĭà¼ĭà¼ĭà¼ĭà¼ĭà¼ĭà¼ĭà¼ĭà¼ĭà¼ĭà¼ĭà¼ĭà¼ĭà¼ĭà¼ĭà¼ĭà¼ĭà¼ĭà¼ĭà¼ĭà¼ĭà¼ĭà¼ĭà¼ĭà¼ĭà¼ĭà¼ĭ à¼ĭà¼ĭà¼ĭà¼ĭà¼ĭà¼ĭà¼ĭ
à¼įà¼ĭà¼ĭà¼ĭà¼ĭà¼ĭà¼ĭà¼ĭà¼ĭà¼ĭà¼ĭà¼ĭà¼ĭà¼ĭà¼ĭà¼ĭà¼ĭà¼ĭà¼ĭà¼ĭà¼ĭà¼ĭà¼ĭà¼ĭà¼ĭà¼ĭà¼ĭà¼ĭà¼ĭà¼ĭà¼ĭà¼ĭà¼ĭà¼ĭà¼ĭà¼ĭà¼ĭà¼ĭà¼ĭà¼ĭà¼ĭà¼ĭà¼ĭà¼ĭà¼ĭà¼ĭà¼ĭà¼ĭà¼ĭà¼ĭà¼ĭà¼ĭà¼ĭà¼ĭà¼ĭà¼ĭà¼ĭà¼ĭà¼ĭà¼ĭà¼ĭà¼ĭà¼ĭà¼ĭà¼ĭà¼ĭà¼ĭà¼ĭà¼ĭà¼ĭà¼ĭà¼ĭà¼ĭà¼ĭà¼ĭà¼ĭà¼ĭà¼ĭà¼ĭà¼ĭà¼ĭà¼ĭà¼ĭà¼ĭà¼ĭà¼ĭà¼ĭà¼ĭà¼ĭà¼ĭà¼ĭà¼ĭà¼ĭà¼ĭà¼ĭà¼ĭà¼ĭà¼ĭà¼ĭà¼ĭà¼ĭà¼ĭà¼ĭà¼ĭà¼ĭà¼ĭà¼ĭà¼ĭà¼ĭà¼ĭà¼ĭà¼ĭà¼ĭà¼ĭà¼ĭà¼ĭà¼ĭà¼ĭà¼ĭà¼ĭà¼ĭà¼ĭà¼ĭà¼ĭà¼ĭà¼ĭà¼ĭà¼ĭà¼ĭà¼ĭà¼ĭà¼ĭà¼ĭà¼ĭà¼ĭà¼ĭà¼ĭà¼ĭà¼ĭà¼ĭà¼ĭà¼ĭà¼ĭà¼ĭà¼ĭ à¼ĭà¼ĭà¼ĭà¼ĭà¼ĭà¼ĭ
ĠĠĠĠĠĠĠĠĠĠĠĠĠĠĠĠĠĠĠĠĠĠĠĠĠĠĠĠĠĠĠĠ ĠĠĠĠĠĠĠĠĠĠĠĠĠĠĠĠ
à½¼à¼įà¼Ī à¼į
à¾¸ à¼ĭ
Ġà¼Ħ à¼Ķ
à¼ĭà¾¬ à½²à¼ĭ
à½Ķà½Ķà½Ķ à½ķà½Ŀà½ļà½Ķà½Ķ
Ġ à¼ĭà¼½
Ġ à½¡à½Ĥ
Ġ à½Łà½Ħ
Ġ à¼¡à¼©à¼¥à¼¨
à½¦ à½ĳà½¢
à½² à½¼à¼ĭ
à½ĳ à½ĺà½Ĳà½ł
à½ĳ à½łà½ķà½Ĥà½¦
à½¢ à½ĺà½Ĳà½ł
à½¢ à½īà½ĺà½¦
à½Ħ à½Ŀ
à½ĺ à½Ĥà½¤
à½Ķ à½Ķà½ĳ
à½Ķ à½ĺà½ģà½¦
à½Ķ à½ļà½Ħ
à½Ķ à½ĸà½Ģà½Ĥ
à½ºà¼ĭ à¾²
à½Ĥà½¦ à½ĺà½¦
à¾² à¾«à½²
à¾² à½¾à¼Ķ
à½¡ à½¢à½¦
à½¼à¼ĭ à½Īà½¼
à½¼à¼ĭ à¼ı
à½ħ à½İ
à¾Ĵ à½´à¼įà¼į
à½ĸà½¦ à½łà½Ĥ
à½ĸà½¦ à½ĸà½ŀ
à½ĸà½¦ à½Ĳà½ĺà½¦
à¾±à½²à¼ĭ à¾£
à½ķ à½«
à½Ĳ à½Ĭ
à½Ķà½¢ à½łà½ķà½Ĥà½¦
à½ĳà½Ĥ à½ļ
à½ĵà½¦ à½Ķà½¢
à½ĸà½ŀ à½Ķ
à½£à½¦ à½ĳà½ĸ
à½ºà¼į à¼ĭà¼į
à¾© à½±à½²à¼į
à¾¨ à¾±à¼į
à½Ľ à½ĳà½Ħ
à½ĸà½ĳà½Ĥ à½ł
à½ĸà½Ł à½£
à½¢à½ĸ à½ĺ
à½Ĥà½ı à½Ķ
à¾²à½¼à¼ĭ à¼ĳà¼į
à½ĩ à½¤
à½ĵà½Ħ à½Ħ
à½£à½ĺ à½ŀ
à½£à½ĺ à½ĺà½Ĳ
à½Ĥà½ĳ à½ĵà½ĳ
à¾Ĺà½¼ à¼µ
à¾¦à¾±à½¼ à¼Ķ
à¾Ĳà¾±à½¼ à¼·
à½ģà½ĺà½¦ à½ĳ
à½Ħà½Ĥ à½ĸ
à½¿ à¼ĭà¼º
à¾¨à½² à½²
à½ŀà½ĸà½¦ à½Ģ
à¾©à½² à½²
à½Łà½ĸ à½ĸà½ĸ
à½Ĥà½¡à½¦ à½Ĥà½¡
à½ĳà½Ĥà½Ĥ à½Ķà½¢
à¾Ģ à½¾
à½Ĵ à½Ĥà½ĳ
à¾·à½¼à¼ĭ à¼´
à¼© à¼¦à¼¤
à½Ĺ à½Ĥà½¥
à¾·à½²à¼ĭ à¼ŀ
à¼¨ à¼£à¼¥
à¼¨ à¼§à¼£
à¼¨ à¼§à¼¤
à¾±à½´à¼ĭ à¼ĳ
à½Ķà½İ à½Ĩ
Ġà¼Ī à¼Ī
à½łà½ĳà½ł à½ĸà½ł
à¾Łà½²à¼ĭ à¼Ħà¼ħà¼įà¼į
à¼¡à¼ł à¼£à¼§
Ġà½¢ à½ĵ
à¼¡à¼¢ à¼¡à¼©
à¼¡à¼¢ à¼¦à¼¢
à½ĳà½Ĥà½¦ à½¦
à¼¡à¼£ à¼©à¼§
à¼¡à¼£ à¼¥à¼¢
à¼¡à¼£ à¼¦à¼©
à¼¡à¼¤ à¼¡à¼¡
à¼¡à¼¤ à¼¢à¼¦
à¼¡à¼¥ à¼¥à¼§
à¼Ģ à½ł
à½« à½Łà½«
à¾¡à½ºà¼į à¼½
à½© à½ĸà½Ľ
Ġà¼įà¼į à¼įà¼įà¼įà¼įà¼įà¼įà¼įà¼įà¼įà¼įà¼įà¼įà¼įà¼įà¼įà¼įà¼įà¼įà¼įà¼įà¼įà¼įà¼įà¼įà¼įà¼įà¼įà¼įà¼įà¼įà¼įà¼į
à¾±à½ºà¼į à¼½
à¼¢à¼¥ à¼łà¼łà¼ł
à¾¶ à½½à¼ĭ
à½ĵà½Ķ à½£à½¦
à½Ĥà½İ à½Ħ
à¾£à½º à½¿à¼į
à¾¤à¾²à½²à¼ĭ à½Īà½º
à½Ĥà½Ķ à½ĸ
à¼ĭà¾§ à½¾à¼ĭ
à¼ĭà¾§ à½´à¼į
à½²à¼ĭà½Ī à½¼à¼ĭ
à½ķà½ħ à½«à½Ħà½¥
à¾²à½¼à¼Ķ à¼ĭ
à½į à½ĸ
à¼¡à¼łà¼ł à¼§
à½Ħà½Ķ à½ĸà½¦
à¾Ļà½± à½ºà¼ĭ
Ġà¼¡à¼£ à¼¡
à¼¡à¼¡à¼¢ à¼©
Ġà¼¡à¼¥ à¼¢
à¼¡à¼¦à¼ł à¼¢
à¼¡à¼¦à¼ł à¼©
à¼¡à¼¡à¼¨ à¼§
à¼¡à¼¡à¼¨ à¼¢à¼¡à¼¢
à¾Ĵà¾· à½±à½¾à¼ĭ
à¿ ĩ
Ġà¼¢à¼ł à¼¨
à¼įà¼ĭà¼ĭà¼ĭà¼ĭà¼ĭà¼ĭà¼ĭà¼ĭà¼ĭà¼ĭà¼ĭà¼ĭà¼ĭà¼ĭà¼ĭà¼ĭà¼ĭà¼ĭà¼ĭà¼ĭà¼ĭà¼ĭà¼ĭà¼ĭà¼ĭà¼ĭà¼ĭà¼ĭà¼ĭà¼ĭà¼ĭà¼ĭà¼ĭà¼ĭà¼ĭà¼ĭà¼ĭà¼ĭà¼ĭà¼ĭà¼ĭà¼ĭà¼ĭà¼ĭà¼ĭà¼ĭà¼ĭà¼ĭà¼ĭà¼ĭà¼ĭà¼ĭà¼ĭà¼ĭà¼ĭà¼ĭà¼ĭà¼ĭà¼ĭà¼ĭà¼ĭà¼ĭà¼ĭà¼ĭà¼ĭà¼ĭà¼ĭà¼ĭà¼ĭà¼ĭà¼ĭà¼ĭà¼ĭà¼ĭà¼ĭà¼ĭà¼ĭà¼ĭà¼ĭà¼ĭà¼ĭà¼ĭà¼ĭà¼ĭà¼ĭà¼ĭà¼ĭà¼ĭà¼ĭà¼ĭà¼ĭà¼ĭà¼ĭà¼ĭà¼ĭà¼ĭà¼ĭà¼ĭà¼ĭà¼ĭà¼ĭà¼ĭà¼ĭà¼ĭà¼ĭà¼ĭà¼ĭà¼ĭà¼ĭà¼ĭà¼ĭà¼ĭà¼ĭà¼ĭà¼ĭà¼ĭà¼ĭà¼ĭà¼ĭà¼ĭà¼ĭà¼ĭà¼ĭà¼ĭà¼ĭà¼ĭà¼ĭà¼ĭ à¼ĭà¼ĭà¼ĭà¼ĭà¼ĭà¼ĭà¼ĭà¼ĭà¼ĭà¼ĭ
Ġà¼Įà¼Įà¼Įà¼Įà¼Įà¼Įà¼Įà¼Įà¼Įà¼Įà¼Įà¼Įà¼Įà¼Įà¼Įà¼Įà¼Įà¼Įà¼Įà¼Įà¼Įà¼Įà¼Įà¼Įà¼Įà¼Įà¼Įà¼Įà¼Įà¼Įà¼Įà¼Įà¼Į à¼Įà¼Įà¼Įà¼Įà¼Įà¼Įà¼Įà¼Įà¼Į
à¾Īà¾Īà¾Īà¾Īà¾Īà¾Īà¾Īà¾Ī à¾Īà¾Īà¾Īà¾Īà¾Īà¾Ī
à¾ħà¾ħ à¾ħà¼ĭ
Ġà¼ĭà¼ĭà¼ĭà¼ĭà¼ĭà¼ĭà¼ĭà¼ĭà¼ĭà¼ĭà¼ĭà¼ĭà¼ĭà¼ĭà¼ĭà¼ĭà¼ĭà¼ĭà¼ĭà¼ĭà¼ĭà¼ĭà¼ĭà¼ĭà¼ĭà¼ĭà¼ĭà¼ĭà¼ĭà¼ĭà¼ĭà¼ĭà¼ĭà¼ĭà¼ĭà¼ĭà¼ĭà¼ĭà¼ĭà¼ĭà¼ĭà¼ĭà¼ĭà¼ĭà¼ĭà¼ĭà¼ĭà¼ĭ à¼ĭà¼ĭà¼ĭà¼ĭ
Ġà¼ĭà¼ĭà¼ĭà¼ĭà¼ĭà¼ĭà¼ĭà¼ĭà¼ĭà¼ĭà¼ĭà¼ĭà¼ĭà¼ĭà¼ĭà¼ĭà¼ĭà¼ĭà¼ĭà¼ĭà¼ĭà¼ĭà¼ĭà¼ĭà¼ĭà¼ĭà¼ĭà¼ĭà¼ĭà¼ĭà¼ĭà¼ĭà¼ĭà¼ĭà¼ĭà¼ĭà¼ĭà¼ĭà¼ĭà¼ĭà¼ĭà¼ĭà¼ĭà¼ĭà¼ĭà¼ĭà¼ĭà¼ĭ à¼ĭà¼ĭà¼ĭà¼ĭà¼ĭ
à½ĸà½¤à½Ĳ à½ĸà½¤
à¼ĭà¾¹ à½²à¼ĭ
à¼ĭà¾¹ à¾±à¼ĭ
à¼ĭà¾Ŀ à¾±à¼į
à½¼à¼įà¼įà¼ĭà¼ĭà¼ĭà¼ĭà¼ĭà¼ĭà¼ĭà¼ĭà¼ĭà¼ĭà¼ĭà¼ĭà¼ĭà¼ĭà¼ĭà¼ĭà¼ĭà¼ĭà¼ĭà¼ĭà¼ĭà¼ĭà¼ĭà¼ĭà¼ĭà¼ĭà¼ĭà¼ĭà¼ĭà¼ĭà¼ĭà¼ĭà¼ĭà¼ĭà¼ĭà¼ĭà¼ĭà¼ĭà¼ĭà¼ĭà¼ĭà¼ĭà¼ĭà¼ĭà¼ĭà¼ĭà¼ĭà¼ĭà¼ĭà¼ĭà¼ĭà¼ĭà¼ĭà¼ĭà¼ĭà¼ĭà¼ĭà¼ĭà¼ĭà¼ĭà¼ĭà¼ĭà¼ĭà¼ĭ à¼ĭà¼ĭà¼ĭà¼ĭà¼ĭà¼ĭà¼ĭà¼ĭà¼ĭà¼ĭà¼ĭà¼ĭà¼ĭà¼ĭà¼ĭà¼ĭà¼ĭà¼ĭà¼ĭà¼ĭà¼ĭà¼ĭà¼ĭà¼ĭà¼ĭà¼ĭà¼ĭà¼ĭà¼ĭà¼ĭà¼ĭà¼ĭà¼ĭà¼ĭà¼ĭà¼ĭà¼ĭà¼ĭà¼ĭà¼ĭà¼ĭà¼ĭà¼ĭà¼ĭà¼ĭà¼ĭà¼ĭà¼ĭ
à½Ĭà½ĭ à½Įà½Į
Ġ à½¼à¼ĭ
Ġ à¼¢à¼łà¼łà¼¤
à¼ Ĭ
à¼ĭ à¾³à½¼à¼ĭ
à¼ĭ à¾³à½ºà¼ĭ
à¾ Ŀ
à½ĳ à½łà½Ĳ
à½Ĥ à½ĺà½Ĳà½ł
à½Ĥ à½łà½Ĳ
à½Ĥ à½ļà½Ħ
à½Ĥ à½Ĳà½¢
à½ĸ à½ĸà½Ģà½ł
à½Ħ à½ĸà½łà½ĺ
à½ĺ à½§à½ĵ
à½Ķ à½¤à½¦
à½²à¼ĭ à¼ĭà¼ĭà¼ĭ
à½Ĥà½¦ à½ĳà½Ĥà½¦
à½¡ à½ķà½¥
à½¼à¼ĭ à¼Ħà¼įà¼į
à½ŀ à½«
à½Ģ à½ĳà½ĺ
à½ķ à½ĵà½¦
à½ķ à½īà½ł
à½ĺà½¦ à½łà½Ĩà½£
à½ī à½Ľ
à½Ķà½¢ à½£à½¦
à½¤ à½¨
à½¤ à½Ģà½ł
à½ĵà½¦ à½Ĥà½ī
à½ĵà½¦ à½ĩ
à½ĵà½¦ à½ĸà½¦à½ĺ
à½Ł à½ķà½¢
à¾³ à¾«à½¼
à½ĸà½ł à½Ĥà½ł
à¾±à¼ĭ à¼įà¼į
à¾· à¾·à¼ĭ
à¾· à¾¦à¾·
à¾© à¾Ĺà½¼
à¾© à¼µà¼ĭ
à½ĺà½ļ à½Ģ
à¾¨ à½±à½¾à¼į
à½¨ à½Ĥà½ĵ
à¾« à¼·
à¾« à½¾à¼į
à½±à¼ĭ à¼ĭ
à½£à½ĺ à½¡à½Ħ
à½Ļà½ĺ à½¢
à½ĸà½¦à½ĺ à½Ķà½¢
à¾Ń à½»à¼į
à½ĺà½Ĳà½ł à½¡
à½ĺà½¢ à½£
à½ĳà½ĳ à½ł
à½ĳà½ĳ à½ĳà½ĵ
à½Ĩà½ĳ à½ĵ
à¾²à½´à¼ĭ à¼¼
à½łà½ĺ à½ŀ
à½łà½ĩà½ĺ à½Ķ
à¼ł à¼¢à¼¡
à¾©à½²à¼ĭ à¼ĳ
à½Ī à¾Ĳà¾±à½º
à¼¨ à¼§à¼¥
à¼¨ à¼¦à¼¥
à½ķà½Ĭ à½£
à½Į à½Ķà½ł
à½Į à½Ĳ
à¾Ģà¼ĭ à¾ŀà¼ĭ
à½» à¼ĭà¼½
à½» à¾ħà¼ĭ
à¾Łà½² à½¿à¼įà¼į
à¾ª à¾±à¼ĭ
à¼¡à¼ł à¼¡à¼¥
à¼ĭà¼¼ à¼½à¼¼
à½¼à¼ĭà¼ĳ à¼ĭ
à¼¡à¼¢ à¼¨à¼¡
à¼¡à¼£ à¼¢à¼¥
à¼¡à¼£ à¼¢à¼¦
à¾¡à¾· à½¾à¼įà¼įà¼įà¼į
à¾¡à¾· à¾Ńà½ºà¼į
à¼¡à¼¤ à¼£à¼ł
à¼¡à¼¥ à¼£à¼¨
à¼¡à¼¥ à¼§à¼¨
à¼¡à¼¥ à¼¨à¼§
à¼¡à¼¡ à¼¡à¼¤
à¼¡à¼¡ à¼¡à¼§
à¼ĭà¼¸ à¼ĭ
à½¦à½¦ à½Ķ
à¼ĭà¾¢ à½½à¼ĭ
à¾» à½º
à½ĥ à½¥
à½Ķà½ĳà½Ħ à½Ķà½¢
Ġà½Ģ à½Ģà½Ģ
à¼ĭà¾§ à¾±à½¿à¼ĭ
à¼ĭà½ºà¼ĭ à½¼
à¾²à½²à¼Ķ à¼ĭ
à¾ĳ à½ºà¼ĭ
à¼©à¼¨ à¼§
à½¢à½Ķ à½ķ
à¼¡à¼¢à¼ł à¼¢
à¾±à½²à¼ĭà½Ī à¾²à½ºà¼ĭ
à¼¡à¼¡à¼£ à¼¤
Ġà¼ĭà¼ĭà¼ĭà¼ĭà¼ĭà¼ĭà¼ĭà¼ĭà¼ĭà¼ĭà¼ĭà¼ĭà¼ĭà¼ĭà¼ĭà¼ĭ à¼ĭà¼ĭà¼ĭà¼ĭà¼ĭà¼ĭà¼ĭà¼ĭà¼ĭà¼ĭà¼ĭà¼ĭ
Ġà¼¡à¼§ à¼¦
[...]
