{"<s>":0,"<pad>":1,"</s>":2,"<unk>":3,"<mask>":4,"!":5,"\"":6,"#":7,"$":8,"%":9,"&":10,"'":11,"(":12,")":13,"*":14,"+":15,",":16,"-":17,".":18,"/":19,"0":20,"1":21,"2":22,"3":23,"4":24,"5":25,"6":26,"7":27,"8":28,"9":29,":":30,";":31,"<":32,"=":33,">":34,"?":35,"@":36,"A":37,"B":38,"C":39,"D":40,"E":41,"F":42,"G":43,"H":44,"I":45,"J":46,"K":47,"L":48,"M":49,"N":50,"O":51,"P":52,"Q":53,"R":54,"S":55,"T":56,"U":57,"V":58,"W":59,"X":60,"Y":61,"Z":62,"[":63,"\\":64,"]":65,"^":66,"_":67,"`":68,"a":69,"b":70,"c":71,"d":72,"e":73,"f":74,"g":75,"h":76,"i":77,"j":78,"k":79,"l":80,"m":81,"n":82,"o":83,"p":84,"q":85,"r":86,"s":87,"t":88,"u":89,"v":90,"w":91,"x":92,"y":93,"z":94,"{":95,"|":96,"}":97,"~":98,"¡":99,"¢":100,"£":101,"¤":102,"¥":103,"¦":104,"§":105,"¨":106,"©":107,"ª":108,"«":109,"¬":110,"®":111,"¯":112,"°":113,"±":114,"²":115,"³":116,"´":117,"µ":118,"¶":119,"·":120,"¸":121,"¹":122,"º":123,"»":124,"¼":125,"½":126,"¾":127,"¿":128,"À":129,"Á":130,"Â":131,"Ã":132,"Ä":133,"Å":134,"Æ":135,"Ç":136,"È":137,"É":138,"Ê":139,"Ë":140,"Ì":141,"Í":142,"Î":143,"Ï":144,"Ð":145,"Ñ":146,"Ò":147,"Ó":148,"Ô":149,"Õ":150,"Ö":151,"×":152,"Ø":153,"Ù":154,"Ú":155,"Û":156,"Ü":157,"Ý":158,"Þ":159,"ß":160,"à":161,"á":162,"â":163,"ã":164,"ä":165,"å":166,"æ":167,"ç":168,"è":169,"é":170,"ê":171,"ë":172,"ì":173,"í":174,"î":175,"ï":176,"ð":177,"ñ":178,"ò":179,"ó":180,"ô":181,"õ":182,"ö":183,"÷":184,"ø":185,"ù":186,"ú":187,"û":188,"ü":189,"ý":190,"þ":191,"ÿ":192,"Ā":193,"ā":194,"Ă":195,"ă":196,"Ą":197,"ą":198,"Ć":199,"ć":200,"Ĉ":201,"ĉ":202,"Ċ":203,"ċ":204,"Č":205,"č":206,"Ď":207,"ď":208,"Đ":209,"đ":210,"Ē":211,"ē":212,"Ĕ":213,"ĕ":214,"Ė":215,"ė":216,"Ę":217,"ę":218,"Ě":219,"ě":220,"Ĝ":221,"ĝ":222,"Ğ":223,"ğ":224,"Ġ":225,"ġ":226,"Ģ":227,"ģ":228,"Ĥ":229,"ĥ":230,"Ħ":231,"ħ":232,"Ĩ":233,"ĩ":234,"Ī":235,"ī":236,"Ĭ":237,"ĭ":238,"Į":239,"į":240,"İ":241,"ı":242,"Ĳ":243,"ĳ":244,"Ĵ":245,"ĵ":246,"Ķ":247,"ķ":248,"ĸ":249,"Ĺ":250,"ĺ":251,"Ļ":252,"ļ":253,"Ľ":254,"ľ":255,"Ŀ":256,"ŀ":257,"Ł":258,"ł":259,"Ń":260,"à¼":261,"à¼ĭ":262,"à¾":263,"½¦":264,"à½¦":265,"½²":266,"à½²":267,"½ĳ":268,"à½ĳ":269,"½Ĥ":270,"à½Ĥ":271,"½ĸ":272,"à½ĸ":273,"½¼":274,"à½¼":275,"½¢":276,"à½¢":277,"½ĵ":278,"à½ĵ":279,"½º":280,"à½º":281,"½Ħ":282,"à½Ħ":283,"½´":284,"à½´":285,"½ĺ":286,"à½ĺ":287,"à¼į":288,"½Ķ":289,"à½Ķ":290,"à¾±":291,"½ł":292,"à½ł":293,"à½²à¼ĭ":294,"½£":295,"à½£":296,"à½ºà¼ĭ":297,"à½Ĥà½¦":298,"à¾²":299,"à½´à¼ĭ":300,"½¡":301,"à½¡":302,"à½¼à¼ĭ":303,"½ŀ":304,"à½ŀ":305,"à¼įà¼į":306,"½Ģ":307,"à½Ģ":308,"ĠĊ":309,"à¾Ł":310,"à½ĳà½Ħ":311,"à½Ķà½ł":312,"½Ĩ":313,"à½Ĩ":314,"½ħ":315,"à½ħ":316,"à¾Ĵ":317,"à½ĸà½¦":318,"à¾±à½²à¼ĭ":319,"½ķ":320,"à½ķ":321,"½Ĳ":322,"à½Ĳ":323,"½ģ":324,"à½ģ":325,"½ı":326,"à½ı":327,"à½ĺà½¦":328,"à¾±à½²":329,"½ļ":330,"à½ļ":331,"½ī":332,"à½ī":333,"à½Ķà½¢":334,"à½ĳà½Ĥ":335,"½¤":336,"à½¤":337,"à½łà½ĳ":338,"à¾Ĵà¾±":339,"à¾Ĳ":340,"à½ĸà½¢":341,"à¾£":342,"à½¼à¼įà¼į":343,"à½Ħà½¦":344,"à½ĵà½¦":345,"à¼ĭà¼į":346,"½Ł":347,"à½Ł":348,"à¾¡":349,"à¾³":350,"à¾±à½º":351,"à¾±à½´":352,"à½ĸà½ł":353,"à½łà½Ĥ":354,"à½ĸà½ŀ":355,"à¾²à½´":356,"à¾±à½¼":357,"à½£à½¦":358,"à¾±à¼ĭ":359,"à½łà½ĸ":360,"à½¡à½Ħ":361,"à¾Ĺ":362,"à½ºà¼į":363,"à¾¤":364,"à½łà":365,"à½łà½":366,"à½Ķà½¦":367,"à¾Łà½¼":368,"à½ĳà½ĸ":369,"à½ĸà½ħ":370,"à¾Ķ":371,"à½Ĥà½ŀ":372,"à¾·":373,"½±":374,"à½±":375,"à½Ĥà½ī":376,"à¾©":377,"à¾²à½²":378,"à½ĺà½Ĳ":379,"½Ļ":380,"à½Ļ":381,"à½¢à½Ħ":382,"à½ĺà½ļ":383,"à¾²à½¼":384,"à¾Ļ":385,"à½Ĥà½Ħ":386,"à¾¨":387,"à¾²à¼ĭ":388,"à¾¦":389,"à½ĳà½ĺ":390,"à½ĳà½Ķ":391,"à½łà½ĩ":392,"à½Ĥà½ĵà½¦":393,"à½łà½ģ":394,"à½ħà½ĵ":395,"à¾Łà¼ĭ":396,"à¾Łà½º":397,"à½ĸà½ĳ":398,"à¾Ĵà¾±à½´":399,"à½ĺà½Ĩ":400,"½Ľ":401,"à½Ľ":402,"à¾Ĳà¾±à½º":403,"à½Ĥà½ħ":404,"à¾²à½º":405,"à¾³à½¼":406,"à½ĺà½Ħ":407,"à½ĺà½ģ":408,"à½Ĳà½ĺà½¦":409,"à½ħà½ĳ":410,"à¾±à½ºà¼ĭ":411,"à½²à¼į":412,"½¨":413,"à½¨":414,"à½ĸà½ĳà½Ĥ":415,"à½ĸà½Ł":416,"à½ĳà½ĸà½Ħ":417,"à½¢à½ĸ":418,"à½łà½ķ":419,"à½łà½Ľ":420,"à½Ĥà½ı":421,"à½Ĥà½ŀà½ĵ":422,"½§":423,"à½§":424,"à½Ĥà½Ł":425,"à¾²à½¼à¼ĭ":426,"à¾Ĺà½ºà¼ĭ":427,"à½ĸà½¤":428,"à¼ĭà¼įà¼į":429,"à½ĳà½Ģ":430,"à¾³à¼ĭ":431,"½ĩ":432,"à½ĩ":433,"à½ĸà½Ģ":434,"à¾«":435,"à¾Ĵà¾±à¼ĭ":436,"à¾Łà½ºà¼į":437,"à½ĺà½Ľ":438,"à½ĵà½Ħ":439,"à½±à¼ĭ":440,"à¾Ĺà½º":441,"à½ĺà½ļà½ĵ":442,"à¼Ķ":443,"à¼ĭà¼ĭ":444,"à¾¡à½¼à¼ĭ":445,"à¾·à¼ĭ":446,"à¾Ĵà¾±à½´à¼ĭ":447,"à½£à½ĺ":448,"à¾¡à½´":449,"à½ĸà½¤à½ĳ":450,"à¾Ķà¼ĭ":451,"à¾Ĵà¾²à½´":452,"½¾":453,"à½¾":454,"à½Ĥà½¡":455,"à½Ĥà½ĳ":456,"à¾Ĺà½¼":457,"à½¦à½Ħà½¦":458,"à½ĺà½ĳ":459,"à½łà½ĳà½¦":460,"à¾²à½²à¼ĭ":461,"à¾Ĵà½¼":462,"à¾Ĳà¾±à½ºà¼ĭ":463,"à½ĸà½ħà½¦":464,"à¾Ĳà½´à¼ĭ":465,"à½Ĥà½¤":466,"à¾¤à¾±à½¼":467,"à¾«à½¼":468,"à½²à¼įà¼į":469,"à½ĳà½Ķà½ł":470,"à½ĺà½ł":471,"à½¾à¼ĭ":472,"à½ĺà½Ľà½ĳ":473,"à¾Łà½ºà¼ĭ":474,"à½ĸà½ı":475,"à½Ļà½ĺ":476,"à½ĸà½¦à½ĺ":477,"à¾Ń":478,"à½Ĥà½¦à½£":479,"à¾Ļà½²":480,"à½łà½Ĩ":481,"à¾©à¼ĭ":482,"à¾¦à¾±à½¼":483,"à¾¡à½¼":484,"à½Ĥà½ĵ":485,"à½ĸà½Ĥ":486,"à½Ĥà½Ļ":487,"à½¼à¼į":488,"à¾Ĳà½´":489,"à½ĺà½Ĥ":490,"à½£à½Ĥ":491,"à¾©à½¼":492,"à¾³à½¼à¼ĭ":493,"à½łà½ļ":494,"à½ĺà½Ĳà½ł":495,"à½ĳà½Ĥà½ł":496,"à½Ĩà½Ĥà½¦":497,"à½±à½´":498,"à¾Ĳà½¼":499,"à¾Ĳà¾±à½¼":500,"à¾£à¼ĭ":501,"à½ĵà½ĺ":502,"à½ĸà½Ļ":503,"à½ĸà½Łà½Ħ":504,"à¾Ķà½¼":505,"à¾¦à¾±":506,"à½ģà½ĺà½¦":507,"à½ĺà½ī":508,"à½ļà½ĳ":509,"à¼ĭà¼ĭà¼ĭà¼ĭ":510,"à¾Ĵà½¼à¼ĭ":511,"à¾Ļà½º":512,"à¾³à½´":513,"à½ĳà½Ķà½£":514,"à½ĺà½¢":515,"à½ĸà½Ģà½ł":516,"à½ĺà½ģà½ł":517,"à½´à¼į":518,"à¼¡":519,"à¾¨à½¼":520,"à½Ĳà½ĸà½¦":521,"à¼ĭà¼":522,"à¾Ĳà¾±":523,"à¾Ĵà¾²à¼ĭ":524,"à½ĳà½ĳ":525,"à½łà½Ĳ":526,"à½ĳà½Ģà½¢":527,"à½īà½ĺà½¦":528,"à¾¦à¾±à½²":529,"à½Ħà½Ĥ":530,"à½łà½Ħ":531,"à¾¡à½ºà¼ĭ":532,"à½Ħà½ĵ":533,"à¾Ńà¼ĭ":534,"à½ĺà½īà½ĺ":535,"à¾¤à¾±à½²à¼ĭ":536,"à½Łà½ĳ":537,"à½ģà½Ħ":538,"à½Ĥà½ıà½ĵ":539,"à½Ĥà½¦à½Ħ":540,"½İ":541,"à½İ":542,"à½ķà½ĵ":543,"à½Ķà½ĳ":544,"à½ıà½ĵ":545,"à½Ĥà½£":546,"à½ºà¼įà¼į":547,"½¿":548,"à½¿":549,"à¾¤à¾±":550,"à½Ĥà½ĵà½Ħ":551,"à½Ĩà½ĳ":552,"à¾ķ":553,"à½ĺà½ģà½¦":554,"à¾©à½ºà¼ĭ":555,"à½łà½ķà½Ĥà½¦":556,"à¾Ĵà¾²à½²":557,"à½Ĳà½£":558,"à½£à½ĵ":559,"à¾¨à¼ĭ":560,"à½ŀà½£":561,"à¾ĥ":562,"à½¡à½ĵ":563,"à½ĺà½Ĳà½¢":564,"½¥":565,"à½¥":566,"à½ĸà½ŀà½Ĥ":567,"à¾Łà½´":568,"à¼¡à¼":569,"à¾¨à¾²":570,"à½ĺà½ģà½ĵ":571,"½Ĭ":572,"à½Ĭ":573,"à½£à½Ĥà½¦":574,"à½ĵà½Ĥ":575,"à½ĸà½£":576,"à½Łà½Ĥ":577,"à½ļà½Ħ":578,"à½Ĥà½¢":579,"à½Ĳà½¢":580,"à½¼à½¾à¼ĭ":581,"à½ĺà½ĵ":582,"à½¿à¼ĭ":583,"à¾¤à¾²à½´":584,"à½¤à½¢":585,"à¼¢":586,"à¾²à½´à¼ĭ":587,"à½ĳà½ĺà½¢":588,"à½±à½²à¼ĭ":589,"à¾¤à½¼":590,"à½±à½´à¾ĥ":591,"à½¦à½¢":592,"à¾Ĵà¾²à½¼":593,"à½ĺà½ļà½ĺà½¦":594,"à¾¨à¾²à¼ĭ":595,"Ġà¼":596,"à¾³à½²":597,"à¾¨à½²":598,"à½łà½ļà½£":599,"à½ĵà½ĳ":600,"à½ĸà½ħà½ĳ":601,"à½łà½ĺ":602,"½Ŀ":603,"à½Ŀ":604,"à½ĸà½ıà½Ħ":605,"à¾±à¼įà¼į":606,"à½´à¼įà¼į":607,"à¾Ļà½¼":608,"à½ĳà½Ķà½Ĥ":609,"à¼ĭà¼ĭà¼ĭà¼ĭà¼ĭà¼ĭà¼ĭà¼ĭ":610,"à¾³à½´à¼ĭ":611,"à¾·à½´":612,"à½īà½ĵ":613,"à½ŀà½ĸà½¦":614,"à½łà½Ĥà½£":615,"à½Ĳà½Ĥ":616,"à½ĳà½Ģà½ł":617,"à¾¡à½º":618,"à¾©à½²":619,"à¾¡à½²":620,"à½ĳà½¢":621,"à½łà½ĩà½ĺ":622,"à½Łà½ĸ":623,"à¾³à½º":624,"à½ĵà½ĺà½¦":625,"à½Ĳà½Ħ":626,"à¾£à½¼":627,"à½Ĥà½¡à½¦":628,"à¾Ĵà¾²":629,"à½łà½Ĥà½ł":630,"à¾±à½²à¼į":631,"à¼£":632,"à½ĸà½ıà½Ĥà½¦":633,"à½Ĥà½ŀà½Ĥ":634,"à¼ł":635,"à¾¤à¾²à½¼":636,"à½ĺà½ĩ":637,"à½Ĥà½¦à½¢":638,"à¾¤à¾±à½²":639,"à½ĸà½Ľ":640,"à½¡à½¦":641,"à½Ķà½łà½ĺ":642,"à¼·":643,"à½łà½Ĩà½ĳ":644,"à½±à½´à¾ĥà¼ĭ":645,"à¼§":646,"à¾Łà½ºà¼įà¼į":647,"à½Ĥà½ĳà½ĵ":648,"à½łà½ĸà½¢":649,"à½£à½ł":650,"à½ģà½¦":651,"à½¦à½ĺ":652,"à¾©à½²à¼ĭ":653,"à½Ħà½Ħ":654,"à½¢à½ĸà½¦":655,"à½Łà½¦":656,"à½Ĥà½Ļà½Ħ":657,"à½ĳà½Ĥà½Ĥ":658,"à¼¤":659,"à½ĸà½ıà½ĸ":660,"à½¡à½ĸ":661,"½Ī":662,"à½Ī":663,"à¾Ģ":664,"à½ĸà½Ļà½ĵ":665,"à¾¤à½º":666,"à¾©à½º":667,"à¼¥":668,"à½ĳà½ĺà½Ĥ":669,"à½ļà½ĵ":670,"à½±à½²":671,"à½Ģà½¢":672,"à¾²à½ºà¼ĭ":673,"à½ĺà½Ħà½ł":674,"à½£à½łà½Ħ":675,"à½Ĥà½ĵà½ĳ":676,"à¾¡à½´à¼ĭ":677,"à½Ĩà½¢":678,"à¾²à¾Ńà¼ĭ":679,"à¾ľ":680,"à¾¦à¼ĭ":681,"à¼ħ":682,"à½Ĥà½ĳà½ĺà½¦":683,"à½¢à½¦":684,"à½ļà½Ħà½¦":685,"à½±à¼į":686,"à½¾à¼į":687,"à¾±à¼į":688,"½Ĵ":689,"à½Ĵ":690,"à½łà½Ĩà½Ħ":691,"à¼¦":692,"à¾·à½¼à¼ĭ":693,"à¾±à½²à¼įà¼į":694,"à½±à½´à½¾à¼ĭ":695,"à½ħà½Ĥ":696,"à½¤à½¦":697,"à¼©":698,"Ħà¼ħ":699,"à¼ĭà½Ī":700,"½Ĺ":701,"à½Ĺ":702,"à¾¡à¼ĭ":703,"à½łà½Ĳà½ĳ":704,"Ġà¼į":705,"à½ģà½Ĥ":706,"à½Ĥà½ıà½ĺ":707,"à¾¤à¾²à½²":708,"à½łà½Ĩà½¢":709,"à¼ĭà¼Ķ":710,"à½ĸà½¦à½£":711,"à½¦à½ł":712,"à½ŀà½Ĥ":713,"à¼ĭà¼ĳ":714,"à½ĵà½łà½Ħ":715,"à¼½":716,"à¾Ĳà¾±à½²":717,"Ħà¼ħà¼įà¼į":718,"à½ĸà½Łà½ł":719,"à¾·à½²à¼ĭ":720,"à½Ģà½ł":721,"à¼¨":722,"à¾±à½´à¼ĭ":723,"à¾Ĳà¾±à¼ĭ":724,"à¾Ķà½¼à¼ĭ":725,"à½Ķà½İ":726,"à½ķà½£":727,"à¼·à¼ĭ":728,"à½ķà½Ĭ":729,"à¼ĭà¼ĭà¼ĭà¼ĭà¼ĭà¼ĭà¼ĭà¼ĭà¼ĭà¼ĭà¼ĭà¼ĭà¼ĭà¼ĭà¼ĭà¼ĭ":730,"à½ĵà½ł":731,"à½Ķà½łà½Ħ":732,"à½ĸà½¦à½ĺà½¦":733,"½Į":734,"à½Į":735,"à½¡à½¢":736,"à¼ĭà¼½":737,"à¾Ģà¼ĭ":738,"à½ĸà½łà½ĺ":739,"à½ħà½Ħ":740,"à¾¤à½´":741,"à½łà½ĳà½ĸ":742,"à½łà½Ĥà½Ĥ":743,"à½Ĥà½ŀà½£":744,"à½ĸà½ĸ":745,"à¾Ńà½±à¼ĭ":746,"à¾¨à½²à¼ĭ":747,"à½¼à¼įà¼įà¼įà¼į":748,"à½ĺà½ļà½¢":749,"à½¢à½£":750,"à¼Į":751,"à½ĺà½ĳà½ł":752,"à½ĺà½ĩà½£":753,"à½ĸà½ĸà½¦":754,"à½łà½ĸà½ĳ":755,"à½Ĥà½ł":756,"à¼ĳ":757,"à½£à½Ħ":758,"à¾¤à¾²à½¼à¼ĭ":759,"à½ĳà½ĺà½ĵ":760,"à½ļà½£":761,"à½ĵà½ĵ":762,"à½ĸà½Ģà½Ĥ":763,"à½±à½´à¼ĭ":764,"à¾Ĳà¾²":765,"à½ĸà½ħà½ł":766,"à½ĳà½Ħà½¦":767,"à½ĺà½ģà½¢":768,"à½ļà½¢":769,"à½Ĥà½ĺ":770,"à½¢à½ĺ":771,"à½Ĥà½ĳà½ĸ":772,"à½ģà½ĸ":773,"à¼Įà¼Į":774,"à½Ĥà½Ħà½¦":775,"à½Ĥà½ıà½ĳ":776,"Ġà¼Ī":777,"à½ĸà½¦à½Ĥà½¦":778,"à½¦à½Ħ":779,"à¾«à½´à¼ĭ":780,"à½Ħà½ł":781,"Ġà¼ĭ":782,"à½Ĳà½ĳ":783,"à½Ĥà½¦à½ĵ":784,"à¾µ":785,"à½łà½ĳà½ł":786,"à¾Ĵà¼ĭ":787,"à½ķà½¢":788,"½»":789,"à½»":790,"à½ĺà½£":791,"à½Ĩà½¦":792,"à½¡à½Ħà½¦":793,"½½":794,"à½½":795,"à¾Ĳà¾²à½´":796,"à¼¡à¼©":797,"à½²à¼Ķ":798,"à½±à½¿à¼ĭ":799,"à½łà½ĸà½ł":800,"à¾«à½´":801,"à½Ĩà½Ĥ":802,"à½łà½ĸà½ĸ":803,"à½¼à¼Ķ":804,"à½£à½Ħà½¦":805,"à½ĵà½¢":806,"à¾¤à¾²":807,"à½ģà½¢":808,"à½¢à½Ĥà½¦":809,"à½ķà½Ĥ":810,"à½ĸà½ĺ":811,"à½łà½Ľà½ĺ":812,"à½¢à½Ĥ":813,"à½Ħà½ĺ":814,"à½Ĩà½Ħ":815,"à½Ĥà½ĵà½ĺ":816,"à½Ĩà½ĸ":817,"à½ķà½ĺ":818,"à½¿à¼į":819,"à½Ħà½£":820,"à¾¦à¾²":821,"à½ĸà½¤à½Ĥà½¦":822,"à¼ĭà½Īà½²":823,"à½īà½£":824,"à½ķà½ĸ":825,"à¾ķà½ºà¼ĭ":826,"à½ļà½ĸ":827,"à¾²à½±à½´":828,"à½ĸà½¦à½ĳ":829,"à¾²à¾Ģà¼ĭ":830,"à¾²à¼į":831,"à½łà½ķà½Ħ":832,"à¾Łà½²à¼ĭ":833,"à¾·à½¼":834,"à½¦à½ĳ":835,"à¾¦à¾²à½´":836,"à¾Ĵà¾²à½¼à¼ĭ":837,"à¾¤à½´à¼ĭ":838,"à½łà½Ĥà½Ĥà½¦":839,"à½ĳà½ĺà½Ħà½¦":840,"à¾Ĺà½²":841,"à¾Ĵà½º":842,"à½ĵà½Ĥà½¦":843,"à½»à¼ĭ":844,"à¾Ĳà¾±à½¼à¼ĭ":845,"à½ĳà½£":846,"à¾£à½´":847,"à¾ĥà¼ĭ":848,"à¾·à½±à¼ĭ":849,"à½ĸà½Ļà½£":850,"à¾Ĳà¾²à¼ĭ":851,"à½½à¼ĭ":852,"à½ĸà½ĵ":853,"à¾Łà½²":854,"à¼łà¼ł":855,"Ġà½£":856,"à½łà½Ĳà½ĸ":857,"à½ĳà½ĵ":858,"à½ŀà½Ħ":859,"à½ĺà½ĵà½ĵ":860,"à½Ĥà½ĳà½Ĥà½¦":861,"à¾Ĵà½´":862,"à½ĺà½īà½ĵ":863,"à¾¦à½¼":864,"à¼ĭà¼Ħà¼ħà¼įà¼į":865,"à½ĸà½Ħ":866,"Ġà¼¼":867,"à¾±à½¼à¼ĭ":868,"à¾²à½±à½²à¼ĭ":869,"à¾ª":870,"à½Ļà½ĵ":871,"à½¡à½£":872,"à½łà½Ĥà½ĵ":873,"à¼ĭà¼´":874,"à½ĺà½ĳà½Ħà½¦":875,"à¾ľà½²à¼ĭ":876,"à½±à½´à¾ĥà¼Ķ":877,"à½¡à½Ĥ":878,"à¼ĭà¼ĭà¼ĭà¼ĭà¼ĭà¼ĭà¼ĭà¼ĭà¼ĭà¼ĭà¼ĭà¼ĭà¼ĭà¼ĭà¼ĭà¼ĭà¼ĭà¼ĭà¼ĭà¼ĭà¼ĭà¼ĭà¼ĭà¼ĭà¼ĭà¼ĭà¼ĭà¼ĭà¼ĭà¼ĭà¼ĭà¼ĭ":879,"à½ĺà½İ":880,"à¼¡à¼ł":881,"à¾Ĳà¾±à½´":882,"à¾Łà½¼à¼ĭ":883,"à¾«à¼ĭ":884,"à¾²à½±à½²":885,"à¾Ķà¼į":886,"à½Ĥà½Łà½ł":887,"Ġà½¢":888,"à¾Ńà½±":889,"à¼ĭà¼»":890,"Ġà¼ĳ":891,"à¼ĭà¼¼":892,"à½łà½ļà½Ħ":893,"Ġà½¦":894,"à½¢à½Ģ":895,"à½±à½´à¾ĥà¼į":896,"à½Ĩà½ł":897,"à½¼à¼ĭà¼ĳ":898,"à½ŀà½Ĥà½¦":899,"à½Łà½Ħà½¦":900,"à½ģà½ł":901,"à½£à½¢":902,"à¾¡à¾·à¼ĭ":903,"à½Ĥà½¡à½Ħ":904,"à½Ĥà½īà½ĵ":905,"à¾©à½´":906,"à¼Ħà¼ħà¼įà¼į":907,"à¼µ":908,"à½Ģà½ĵ":909,"à¾¦à½´":910,"à¾Ĺà½ºà¼į":911,"à¾²à¼įà¼į":912,"à¾·à½´à¼ĭ":913,"à½Ģà½Ħ":914,"à¼¡à¼¢":915,"à¾²à¾Ģ":916,"à½Ķà½ĵ":917,"à½ĳà½ĸà½ĸ":918,"à¾±à½±à½´":919,"à½ĸà½łà½Ħ":920,"à½ħà½¢":921,"à¾ļ":922,"à½¤à½Ĥ":923,"à¾µà¼ĭ":924,"à¼Įà¼Įà¼Įà¼Į":925,"à½Ĳà½ĸ":926,"à¾ķà½º":927,"à½ĸà½ŀà½ĳ":928,"à½ĺà½Ħà½£":929,"Ġà½ĸ":930,"à½Ħà½¢":931,"à¾ķà½²à¼ĭ":932,"à½łà½ĸà½Ħà½¦":933,"à½¢à½ł":934,"à¼ĭà¾":935,"à½ĳà½Ĥà½¦":936,"à¾©à¾Ńà¼ĭ":937,"à¾Ĳà¼ĭ":938,"à½ĳà½Ķà½¢":939,"à¾·à½²":940,"à¾Ĳà½¼à¼ĭ":941,"à¾Ļà½±à¼ĭ":942,"à½īà½Ĥ":943,"à½±à½´à½¾à¼į":944,"à½łà½ĩà½ł":945,"à½īà½ĺ":946,"à¾Ħ":947,"ĠĠ":948,"à½¢à½ı":949,"à¼¢à¼ł":950,"à¾Ĵà¾²à½º":951,"à¼¼":952,"à¼¡à¼£":953,"à½¨à½¢":954,"à½Ĥà½ĵà½ł":955,"à½ºà¼Ķ":956,"à¾Ĳà½º":957,"à½±à½¾à¼ĭ":958,"à¾ŀ":959,"à½´à¼Ķ":960,"à¾¨à½´":961,"à½ĺà½Ľà½ł":962,"à½¤à½ĺ":963,"à½Ĥà½ıà½Ħ":964,"à½ĺà½Ĩà½ĵ":965,"à½Ĥà½ĳà½Ħà½¦":966,"à¾£à½ºà¼ĭ":967,"à¾¡à¾·":968,"à¼¡à¼¤":969,"à½¨à½Ħ":970,"à¼¡à¼¥":971,"à½ĸà½¤à½ĺà½¦":972,"à½Łà½Ħ":973,"à¾¤à¾²à½º":974,"à¾¤à½ºà¼ĭ":975,"à¼¡à¼§":976,"à½ĸà½Ģà½Ħ":977,"à¾«à½²":978,"à¾Ľ":979,"à½ĸà½¦à½Ħ":980,"à¾¤à¼ĭ":981,"à¾±à½±à¼ĭ":982,"à½ŀà½ĵ":983,"à¾ªà¼ĭ":984,"à¼¡à¼¦":985,"à½Ķà½Ĥà½¦":986,"à½¤à½ĵ":987,"à¾²à¾Ń":988,"à½łà½ķà½Ħà½¦":989,"Ġà¼Ħà¼ħà¼įà¼į":990,"à¾²à½±à½²à½¿à¼ĭ":991,"à¾²à½¼à¼į":992,"à¼¡à¼¨":993,"à½Ĥà½ħà½ĵ":994,"à½łà½ĳà½ĺ":995,"à¾ľà¼ĭ":996,"à½łà½ĩà½£":997,"à¾¦à¾²à½º":998,"à½Łà½ĵ":999,"à½ĺà½ĺ":1000,"à½łà½ķà½¢":1001,"à½±à½²à¼į":1002,"à½¢à½Ħà½¦":1003,"à½Ĥà½¥":1004,"à½ıà½ł":1005,"à¾¥":1006,"à½¢à½ĵ":1007,"à½¤à½£":1008,"à½ķà½¦":1009,"à½Ĥà½ĳà½ł":1010,"à¾¦à¾·":1011,"à¼ĭà¼¹":1012,"à¾ĭ":1013,"Ġà½ļ":1014,"à¼¡à¼¡":1015,"à¼ĭà¼º":1016,"à¼Ģ":1017,"à¾²à½¼à¼įà¼į":1018,"à½Ģà½¦":1019,"à½ĺà½ĵà½¢":1020,"½µ":1021,"à½µ":1022,"à¾²à½²à¼į":1023,"à½łà½ļà½ĺà½¦":1024,"à¾Ĳà½´à¼įà¼į":1025,"à½łà½Ľà½Ĥ":1026,"à½¼à½¿à¼ĭ":1027,"à½Ĥà½ħà½ĳ":1028,"à½ĳà½ĺà½ł":1029,"à¾£à½¼à¼ĭ":1030,"à½ĺà½Ħà½¢":1031,"à¾¤à½¼à¼ĭ":1032,"à½ıà½Ħ":1033,"à½Ŀà½Ħ":1034,"à½¾à¼įà¼į":1035,"à¼ĭà½Īà¾±à½²":1036,"à½ĸà½ħà½¢":1037,"à½Ĥà½ĸ":1038,"à¼ĭà½µ":1039,"½«":1040,"à½«":1041,"à½Ĥà½¤à½ĺ":1042,"à½Ĳà½ĺ":1043,"à½Ĥà½¦à½¦":1044,"à¼ĭà½²":1045,"à¾¡à¾²à¼ĭ":1046,"Ġà½ī":1047,"à½ļà½Ĥà½¦":1048,"à¾«à½²à¼ĭ":1049,"à¾ł":1050,"à½ĳà½Ķà½¦":1051,"à½ĳà½Ķà½Ħ":1052,"à½¦à½ı":1053,"à¾·à½±à½´à¼ĭ":1054,"à¼ĭà¼¸":1055,"à½ĸà½Łà½ĳ":1056,"à½¦à½¦":1057,"à½ĳà½ĸà½£":1058,"à½ŀà½¢":1059,"½ª":1060,"à½ª":1061,"à½ģà½£":1062,"à¾Ĵà¾±à½´à¼į":1063,"à½£à½ĸ":1064,"à¾Ķà½´":1065,"à¼ĭà¼ĭà¼ĭà¼ĭà¼ĭ":1066,"à½łà½Ĩà½£":1067,"à¼´":1068,"à¾¨à½ºà¼ĭ":1069,"à¾ķà½¼":1070,"Ġà½ĵ":1071,"à½ĳà½Ĥà½¢":1072,"à½ģà½ĺ":1073,"à¾¡à½ºà¼į":1074,"à¾¨à½¼à¼ĭ":1075,"à½¤à½ĳ":1076,"à½Łà½ł":1077,"½©":1078,"à½©":1079,"à¾Łà¼į":1080,"à½¦à½ĵ":1081,"Ġà½ĳ":1082,"Ġà¼įà¼į":1083,"à¾±à½ºà¼į":1084,"à½´à½¾à¼ĭ":1085,"à½Ĥà½Łà½ĵ":1086,"à¾²à½ºà¼į":1087,"à½ĺà½Ħà½Ĥà½¦":1088,"à½¤à½ł":1089,"à¾²à¾Ĺà½¼":1090,"à½¤à½Ħ":1091,"à¼ĭà½²à¼ĭ":1092,"à¾²à½±à¼ĭ":1093,"Ġà½ķ":1094,"à½ĵà½Ł":1095,"à¼µà¼ĭ":1096,"à¼ĭà¼ĭà¼ĭ":1097,"à¾Ĳà½´à¼į":1098,"à½łà½ĩà½Ĥà½¦":1099,"à½Ĥà½ĵà½Ĥ":1100,"à½łà½ĳà½¢":1101,"à¼ĭà¾¢":1102,"à¾»":1103,"à½±à½¾à¼į":1104,"à½Ĺà½¥":1105,"à½ģà½ĳ":1106,"à½¿à¼įà¼į":1107,"à¾Ļà½´":1108,"à½ĸà½¤à½Ħ":1109,"à½Ĥà½īà½ł":1110,"à¼ĭà½¼":1111,"à½łà½ļà½ĺ":1112,"à½Ĥà½Łà½ĸ":1113,"à½Ĥà½¡à½Ĥ":1114,"à½Ķà½ī":1115,"à½Ļà½Ģ":1116,"à½²à½¾à¼ĭ":1117,"à½ĸà½¦à½Ħà½¦":1118,"à½±à¼Ķ":1119,"à¾·à¼į":1120,"à½Łà½ĺ":1121,"à¾¨à¾±à½¼":1122,"à½¨à½ĵ":1123,"à¾¨à¾±à½´":1124,"à½ıà½ĺ":1125,"à¼Įà¼Įà¼Įà¼Įà¼Įà¼Įà¼Įà¼Į":1126,"à¾Ļà½ºà¼ĭ":1127,"à¾Ľà¼ĭ":1128,"à¼¸":1129,"à½ĸà½Ļà½¦":1130,"à½ĳà½ĸà½¢":1131,"à½ļà½ĸà½¦":1132,"à½ĸà½Łà½Ħà½¦":1133,"à¾Ĵà¾±à¼į":1134,"à¾¡à¾·à½²à¼ĭ":1135,"à½¦à½ĸ":1136,"à¾²à½²à¼įà¼į":1137,"Ġà½Ł":1138,"à¾¦à¾·à¼ĭ":1139,"à½¢à½¢":1140,"à¾±à¾±à½²":1141,"à¼įà¼½":1142,"à½¡à½ł":1143,"à½Ĥà½¦à½ĳ":1144,"à¼Ī":1145,"à½Ĥà½Łà½¢":1146,"½ĭ":1147,"à½ĭ":1148,"à½ĺà½Ĥà½¢":1149,"à¼¢à¼¥":1150,"à¾Ķà¼įà¼į":1151,"à¼¢à¼£":1152,"à¾¦à¾²à¼ĭ":1153,"à½Ĥà½¡à½ł":1154,"à¾Ĵà¾±à½´à¼įà¼į":1155,"à½ĺà½ĵà½ł":1156,"à½§à½ĵ":1157,"à¼¢à¼¤":1158,"à½ĺà½§":1159,"à¾¦à½´à¼ĭ":1160,"à½ĺà½łà½ĺ":1161,"à½ĸà½¦à½ĵ":1162,"Ġà½¤":1163,"à¼ĭà¼ĭà¼ĭà¼ĭà¼ĭà¼ĭà¼ĭà¼ĭà¼ĭà¼ĭà¼ĭà¼ĭà¼ĭà¼ĭà¼ĭà¼ĭà¼ĭà¼ĭà¼ĭà¼ĭà¼ĭà¼ĭà¼ĭà¼ĭà¼ĭà¼ĭà¼ĭà¼ĭà¼ĭà¼ĭà¼ĭà¼ĭà¼ĭà¼ĭà¼ĭà¼ĭà¼ĭà¼ĭà¼ĭà¼ĭà¼ĭà¼ĭà¼ĭà¼ĭà¼ĭà¼ĭà¼ĭà¼ĭà¼ĭà¼ĭà¼ĭà¼ĭà¼ĭà¼ĭà¼ĭà¼ĭà¼ĭà¼ĭà¼ĭà¼ĭà¼ĭà¼ĭà¼ĭà¼ĭ":1164,"à½ºà¼ĭà¼ĳ":1165,"à½¢à½ĳ":1166,"à½ĵà½¡":1167,"à¾·à½ºà¼ĭ":1168,"à¾¨à½º":1169,"à¼¢à¼§":1170,"à½¼à¾ĥà¼ĭ":1171,"à½Ĳà½ł":1172,"à¾¶":1173,"à½²à¼ĭà¼ĳ":1174,"à¾³à¼į":1175,"à¾ŀà¼ĭ":1176,"à¼¢à¼¦":1177,"à¼įà¼įà¼įà¼į":1178,"à¾Ĳà½ºà¼ĭ":1179,"à¾·à¼įà¼į":1180,"à½´à½¿à¼ĭ":1181,"à½¨à½Ĥ":1182,"à½Ķà½Ħ":1183,"à½ĸà½ħà½Ħ":1184,"à¾·à¾±":1185,"à¼¢à¼łà¼ł":1186,"à½Ĭà½ł":1187,"Ġà¼£":1188,"à½ĸà½ħà½Ħà½¦":1189,"à½łà½Ĩà½Ĥà½¦":1190,"à¼£à¼ł":1191,"à¾ħ":1192,"à½ĳà½Ĥà½Ħ":1193,"à¼¢à¼©":1194,"à½łà½Ĥà½¢":1195,"à¾³à½ºà¼ĭ":1196,"à½Ĥà½¡à½¢":1197,"à½Ĥà½ŀà½¦":1198,"à½¦à½Ķ":1199,"à¾Ī":1200,"à¾Ĳà¾±à½ºà¼įà¼į":1201,"à½ıà½¦":1202,"à¾·à½¾à¼ĭ":1203,"à½¨à½ĺ":1204,"à¼¢à¼¨":1205,"à¾Ńà½¼à¼ĭ":1206,"à½ĵà½Ķ":1207,"à¾Łà¼įà¼į":1208,"à½īà½¢":1209,"à¾Ĳà¾±à½ºà¼į":1210,"Ġà¼ĭà¼ĭ":1211,"à¾¨à½±à¼ĭ":1212,"à½¢à½ĺà½¦":1213,"à½Ĵà½ĵ":1214,"à½Ĵà½¢":1215,"à¾´":1216,"½ĥ":1217,"à½ĥ":1218,"à¾¦à½º":1219,"à½¤à½Ħà½¦":1220,"à¾Ĺà½ºà¼įà¼į":1221,"à½łà½ķà½ĵ":1222,"à½ļà½ł":1223,"à¼¡à¼©à¼¥":1224,"à½łà½Ĩà½ĺ":1225,"Ġà½Ķ":1226,"à½Ļà½Ħ":1227,"à¾Ĵà¾±à¼Ķ":1228,"à½Ĵà½¥":1229,"à¼¡à¼©à¼©":1230,"à½£à½ĳ":1231,"à½ĸà½ĳà½£":1232,"à¾Łà½²à¼į":1233,"à¾±à½ºà¼įà¼į":1234,"à½łà½Ĩà½ł":1235,"à½²à¼·à¼ĭ":1236,"à¾ļà¼ĭ":1237,"à½¾à¼Ķ":1238,"à½īà½ł":1239,"à¼¡à¼©à¼¨":1240,"à½ĸà½¤à½ĺ":1241,"à¾±à¼Ķ":1242,"à¾Łà½±à¼ĭ":1243,"à½Ľà½ĺ":1244,"à½Ĳà½ĵ":1245,"à¾Ħà¼ĭ":1246,"à½ĸà½ħà½Ĥ":1247,"à¾²à½±":1248,"à½Ŀà½¢":1249,"à½łà½ĳà½Ĥ":1250,"à½¡à½ĺ":1251,"à¾¡à½²à¼ĭ":1252,"à¼įà¼įà¼į":1253,"à¾»à¼ĭ":1254,"à½īà½Ħ":1255,"à½ĸà½Ģà½ĸ":1256,"à½ĸà½Ģà½¦":1257,"Ġà½ĺ":1258,"à½±à¼įà¼į":1259,"Ġà½Ĥ":1260,"à¾·à¾±à½¼":1261,"à½Ĩà½ĵ":1262,"à¾±à½²à¼Ķ":1263,"à¾¥à¼ĭ":1264,"à½Ħà½ĳ":1265,"à¾Ĵà½±":1266,"à¼ĭà½º":1267,"à¼¢à¼¢":1268,"à½łà½Ĥà½¦":1269,"à½ĳà½Ķà½Ħà½¦":1270,"à½łà½ĳà½ĸà½¦":1271,"à¾¨à¾²à½¼":1272,"à½Ķà½ĳà½Ħ":1273,"à¾¨à¾²à½²":1274,"à¾Ĵà¾±à½²":1275,"à¾·à¾²":1276,"à½Ĥà½ıà½ĺà½¦":1277,"à½Īà½²":1278,"à¾ĭà½Ĥ":1279,"Ġà½ĳà½Ħ":1280,"à½İà½ł":1281,"à¾Ĵà½´à¼ĭ":1282,"à½ĸà½ĳà½¢":1283,"à¾Ĵà½ºà¼ĭ":1284,"à½¦à½Ĥ":1285,"à½ĺà½Ħà½¦":1286,"à½łà½Ĳà½Ĥ":1287,"à½ĸà½Ģà½£":1288,"Ġà¼º":1289,"Ġà½ĸà½¢":1290,"à½ıà½Ĥ":1291,"à½Ĩà½ĸà½¦":1292,"à½ĳà½ł":1293,"à¾Ħà¼į":1294,"à½ĩà½Ĥ":1295,"à¾Ńà½±à½¾à¼ĭ":1296,"à½ĺà½ļà½Ħ":1297,"à¾·à¾±à½¼à¼ĭ":1298,"à¼ĭà¼ĳà¼į":1299,"à¼įà¼ĭ":1300,"à½¨à½ł":1301,"ĠĠĠĠ":1302,"Ġà½¡":1303,"à½Ļà½İ":1304,"à¾¨à¾±à½¼à¼ĭ":1305,"à½ķà½Ł":1306,"Ġà½Ģ":1307,"à¾·à½±":1308,"à½ĺà½ĵà½£":1309,"à½Ŀà½ĵ":1310,"à½ıà½ĳ":1311,"à½łà½Ĩà½Ĥ":1312,"à½ķà½ł":1313,"à½ĸà½Ģà½¢":1314,"à¾Łà½ºà¼Ķ":1315,"Ġà½ĵà½¦":1316,"à¼¢à¼¡":1317,"à½§à½ł":1318,"à¼ĭà½µà¾ĥà¼ĭ":1319,"à½¦à½£":1320,"à½¼à¼įà¼įà¼į":1321,"à½łà½ģà½¢":1322,"à¾¨à¾²à½ºà¼ĭ":1323,"à½¼à¾ħ":1324,"à¾¡à¾·à½ºà¼ĭ":1325,"à½ĺà½ļà½£":1326,"à½Ĥà½¡à½ĸ":1327,"à¾±à½»à¼ĭ":1328,"à½Ĥà½ıà½¢":1329,"à¾µà½²à¼ĭ":1330,"à½Ķà½£":1331,"à½Ĥà½ĳà½ĺ":1332,"à¼ĭà¼Ī":1333,"à¼£à¼£":1334,"à¼º":1335,"à½łà½Ĩà½ĸ":1336,"à½¦à½Ģ":1337,"Ġà½Ĩ":1338,"à½ĵà½Ħà½¦":1339,"à½łà½ĳà½Ħ":1340,"à¾Ķà½´à¼ĭ":1341,"à¾Łà¾Ń":1342,"à¼ĭà¾İ":1343,"à½§à½¢":1344,"à¼¤à¼ł":1345,"à¾Ĵà¾±à¼įà¼į":1346,"à¾±à¾²à½º":1347,"à¼¦à¼ł":1348,"à¼łà¼łà¼łà¼ł":1349,"Ġà½Ķà½ł":1350,"à½¡à½Ģ":1351,"à½łà½Ľà½ĳ":1352,"à¾Īà¾Ī":1353,"à½²à¼ĭà¼´":1354,"à½ĳà½¦":1355,"à½Ĥà½İ":1356,"à¼Ħà¼ħ":1357,"à½Ħà½¥":1358,"à½ķà½Ŀ":1359,"à½ıà½¢":1360,"à¼ħà¼įà¼į":1361,"à½¼à¼·":1362,"Ġà½Ĳ":1363,"à¼£à¼¥":1364,"à¾©à¼į":1365,"à¼£à¼¤":1366,"à½Ĥà½Ĥà½¦":1367,"à½ķà½Ħà½¦":1368,"à½ĺà½łà½Ħ":1369,"à½Ļà½¢":1370,"à¾Łà½ºà¼ĭà¼ĳ":1371,"à¾Łà½´à¼ĭ":1372,"à¾łà¼ĭ":1373,"à¾¨à¼į":1374,"à¾Łà½¾à¼ĭ":1375,"à¼£à¼§":1376,"à½ĸà½¤à½£":1377,"à½ĺà½Ľà½Ħà½¦":1378,"à½Ĥà½Ĥ":1379,"à¾³à½¼à¼įà¼į":1380,"à¾¦à¾·à½±à½²à¼ĭ":1381,"à½ķà½¥":1382,"à¼Įà¼Įà¼Įà¼Įà¼Įà¼Įà¼Įà¼Įà¼Įà¼Įà¼Įà¼Įà¼Įà¼Įà¼Įà¼Į":1383,"à½ĸà½Ļà½ł":1384,"Ġà¼ł":1385,"Ġà¼ĭà¼ĭà¼ĭà¼ĭà¼ĭ":1386,"à¾´à¼ĭ":1387,"Ġà¼¡":1388,"à½¨à½¨":1389,"à¾Ļà½²à¼ĭ":1390,"à½Łà½Ĳ":1391,"à½Ĳà½Ĥà½¦":1392,"à¾Ĳà¾±à½²à¼ĭ":1393,"à¼£à¼¦":1394,"à¾¦à½²à¼ĭ":1395,"à½¡à½ĺà½¦":1396,"à½¦à½ĸà½¦":1397,"à¼£à¼©":1398,"Ġà¼¤":1399,"à¼£à¼¨":1400,"à½łà½ĸà½Ĥ":1401,"à½Ŀà½¦":1402,"à½ĺà½ģà½£":1403,"à¾¦à¾¦à¼ĭ":1404,"à½łà½ĸà½¦":1405,"à½Ķà½¢à½ĸ":1406,"à¾¨à¾²à¼įà¼į":1407,"à¾Ĵà¾²à¼įà¼į":1408,"à¾²à½¾à¼ĭ":1409,"à¾±à¾Ńà¼ĭ":1410,"à¾Ĳà¾²à½¼":1411,"à¼¥à¼ł":1412,"à½ķà½Ħ":1413,"Ġà¼¢":1414,"à½¨à½¦":1415,"à½ĸà½ħà½ĸà½¦":1416,"à½§à½§":1417,"à¼¤à¼¤":1418,"à¾¤à¾²à¼ĭ":1419,"à¾ĥà¼į":1420,"à½ĳà½Ħà½Ħà½¦":1421,"à½ĸà½ĳà½ĺà½¦":1422,"à½ĸà½¦à½Ĥ":1423,"à¾Ĵà¾²à¼į":1424,"à½¦à½łà½ĺ":1425,"à½²à¼·":1426,"à½§à½¦":1427,"à½¼à½¾à¼į":1428,"à½²à¼ĭà¼Ħà¼ħà¼įà¼į":1429,"à½¢à½¥":1430,"à¾Ĵà¾·à½¾à¼ĭ":1431,"Ġà¼Ķ":1432,"à½ĺà½Ĳà½¦":1433,"à¾Ĳà¾±à½´à¼ĭ":1434,"Ġà½¨":1435,"à½¨à½ı":1436,"Ġà½ĸà½¦":1437,"à½Ĥà½¦à½Ķ":1438,"à¾ĭà½¦":1439,"Ġà¼§":1440,"à½Ĥà½ĳà½Ħ":1441,"à¾±à½±":1442,"à¼¤à¼©":1443,"à¾Ńà¼į":1444,"à¼¡à¼©à¼§":1445,"à¾Ĵà¾±à½¼":1446,"à½ºà¼·à¼ĭ":1447,"à½Ĩà½ĺ":1448,"à½ķà½¡":1449,"à¾·à½±à½²à¼į":1450,"à½¤à½Ķ":1451,"à¾£à½º":1452,"à½Łà½¢":1453,"Ġà½ģ":1454,"à¾Ĳà½´à¼Ķ":1455,"à¾ĭà½¢":1456,"à½ĳà½Ħà½¢":1457,"à¾¤à¾²à½²à¼ĭ":1458,"à¾Ķà½¼à¼įà¼į":1459,"à¾¦à¾·à½±à½²":1460,"à½¼à¼ĭà¼ĳà¼į":1461,"à¾£à¼į":1462,"à¾©à½¼à¼ĭ":1463,"à¼ĭà¼Ŀ":1464,"à¼ĭà½µà½¾à¼ĭ":1465,"à½Ĥà½Ķ":1466,"Ġà½ŀ":1467,"à¾²à½±à½²à¼Ķ":1468,"Ġà¼Ħà¼ħ":1469,"à½´à½¿à¼į":1470,"à¾³à½²à¼ĭ":1471,"à½ĵà½Ķà½ł":1472,"à¾³à¼įà¼į":1473,"à½²à½¿à¼ĭ":1474,"à¼¤à¼§":1475,"à½łà½Ľà½ĸ":1476,"Ġà¼ĭà¼ĭà¼ĭ":1477,"à¼ĭà½¼à¼ĭ":1478,"à¼¥à¼§":1479,"à¾¨à¾±à½²":1480,"à½½à¼į":1481,"à½Ĺà½Ĥ":1482,"à¾©à½ºà¼į":1483,"à¼Ŀ":1484,"à½ĺà½Ħà½Ĥ":1485,"à¼ĭà½Īà½º":1486,"à¼ĭà¾§":1487,"à¾ľà¼į":1488,"à¾±à½¾à¼ĭ":1489,"à½Łà½ģ":1490,"à½¤à½ĸ":1491,"à¼¤à¼¥":1492,"à¼¡à¼©à¼¦":1493,"à¾ķà½´":1494,"à¾¡à½¼à¼įà¼į":1495,"à½łà½Ĥà½Ħà½¦":1496,"à¼£à¼¡":1497,"Ġà½ĳà½Ĥ":1498,"à½Ļà½ł":1499,"à¾©à½²à¼į":1500,"à½ļà½Ĥ":1501,"à½§à½ĺ":1502,"à½Ĵà½Ĥ":1503,"à¾Ĵà¾±à½º":1504,"à¼įà¼ĭà¼ĭà¼ĭà¼ĭà¼ĭ":1505,"à¾Łà¾²à¼ĭ":1506,"à½ĵà½£":1507,"à½Ĥà½ŀà½Ħ":1508,"à¾Ļà¼ĭ":1509,"à¼§à¼ł":1510,"ĉĉ":1511,"à½ĺà½ĳà½Ħ":1512,"à½Ģà½łà½Ħ":1513,"à¾±à¾Ģà¼ĭ":1514,"à½Ħà½ĸ":1515,"à½Ĥà½ĳà½£":1516,"à¾Ńà½²à¼ĭ":1517,"Ġà¼ĭà¼ĭà¼ĭà¼ĭ":1518,"à¾¡à½´à¼į":1519,"à½Ķà½ĺ":1520,"à¼¤à¼¦":1521,"à¼Ģà½ĸà½Ľ":1522,"Ġà¼¥":1523,"à¼ĭà½´":1524,"à½ĸà½ħà½Ĥà½¦":1525,"à½ģà½İ":1526,"à¾ľà½²":1527,"à½Ĥà½Łà½¦":1528,"à½Ĥà½īà½£":1529,"à¾Ĵà½¼à¼į":1530,"à¾¾":1531,"à½²à¼ĭà½Ī":1532,"à¾Ĳà½²à¼ĭ":1533,"à½ĵà½ı":1534,"à¾ķà½²":1535,"à¼¤à¼¨":1536,"Ġà½ĵà½Ħ":1537,"à¼¥à¼¦":1538,"à½Ģà½£":1539,"à¾Ńà½ºà¼ĭ":1540,"à½ĸà½ĳà½Ħ":1541,"à¾³à½´à¼į":1542,"à¾¡à¾·à½±à¼ĭ":1543,"à¾¥à½´à¼ĭ":1544,"à½ĺà½¡":1545,"à½ĳà½Ħà½Ĥà½¦":1546,"à½łà½ĩà½Ħ":1547,"à¾²à½´à¼į":1548,"à½±à½²à¼įà¼į":1549,"à¼Ħà¼ħà¼ħà¼įà¼į":1550,"à¾¡à¾²":1551,"à½Ĳà½Ģ":1552,"à½ĵà½¥":1553,"à½ĸà½¤à½ł":1554,"à½Ģà½Ģ":1555,"à½ĳà½Ķà½Ĥà½¦":1556,"à½´à¼·à¼ĭ":1557,"à½ķà½ħ":1558,"à½ĸà½Łà½¦":1559,"à¼įà¼ĭà¼ĭà¼ĭà¼ĭà¼ĭà¼ĭà¼ĭà¼ĭà¼ĭà¼ĭà¼ĭà¼ĭà¼ĭà¼ĭà¼ĭà¼ĭà¼ĭà¼ĭà¼ĭà¼ĭà¼ĭà¼ĭà¼ĭà¼ĭà¼ĭà¼ĭà¼ĭà¼ĭà¼ĭà¼ĭà¼ĭà¼ĭà¼ĭà¼ĭà¼ĭà¼ĭà¼ĭà¼ĭà¼ĭà¼ĭà¼ĭà¼ĭà¼ĭà¼ĭà¼ĭà¼ĭà¼ĭà¼ĭà¼ĭà¼ĭà¼ĭà¼ĭà¼ĭà¼ĭà¼ĭà¼ĭà¼ĭà¼ĭà¼ĭà¼ĭà¼ĭà¼ĭà¼ĭà¼ĭ":1560,"à¼©à¼©":1561,"Ġà½Ķà½¢":1562,"à¼£à¼¢":1563,"à½Ĥà½ŀà½ł":1564,"à½ĳà½İ":1565,"à¾·à½º":1566,"à¾º":1567,"à¾·à½¼à¼į":1568,"à¾Ĺà½¼à¼ĭ":1569,"à½¾à¼įà¼įà¼įà¼į":1570,"à½¨à½Ģ":1571,"à¾·à¾±à½¿à¼ĭ":1572,"à¾¦à¾·à½º":1573,"à½Ģà½ĺ":1574,"à¼¥à¼¥":1575,"à¾·à½±à½²à¼ĭ":1576,"à½²à¼ĭà¼¼":1577,"à½§à½Ħ":1578,"Ġà½łà½ĳ":1579,"à½´à¼ĭà¼ĳ":1580,"à¼ĭà¼ŀ":1581,"à½Ķà½¡":1582,"Ġà½Ļà½ĺ":1583,"à½Ķà½Ģ":1584,"à¾Łà½²à½¾à¼ĭ":1585,"à¼§à¼§":1586,"à½Ľà½¦":1587,"à¼ĭà¼ĭà¼ĭà¼ĭà¼ĭà¼ĭà¼ĭà¼ĭà¼ĭà¼ĭà¼ĭà¼ĭ":1588,"à½ĸà½¦à½ĸ":1589,"à½¤à½Ĥà½¦":1590,"à¾¤à¾²à½¼à¼įà¼į":1591,"à¾µà½ºà¼ĭ":1592,"à¾¶à¼ĭ":1593,"à¾·à¼Ķ":1594,"à¾¤à¾±à½¼à¼ĭ":1595,"à½Ĥà½¤à½Ĥà½¦":1596,"à¾·à¾±à½¼à¼Ķ":1597,"à¾¡à½ºà¼įà¼į":1598,"Ġà½£à½¦":1599,"à½ĳà½ı":1600,"à¾Ķà½¼à¼į":1601,"à½ĸà½ĳà½ł":1602,"à¾·à¾±à¼ĭ":1603,"à½ħà½Ĳ":1604,"Ġà½ĳà½Ķà½£":1605,"à½ķà½ĸà½¦":1606,"à¼¥à¼¨":1607,"à¾±à½¼à¼įà¼į":1608,"à½Ĺà½Ĩ":1609,"à½¦à½Ĥà½¦":1610,"à¾·à½±à½²":1611,"à¾ļà½²à¼ĭ":1612,"à½łà½ļà½ĸ":1613,"à¾²à½²à½¾à¼ĭ":1614,"à½ĸà½ĸà½ĸà½ĸ":1615,"à¼©à¼§":1616,"à¾«à½º":1617,"à½ºà½¾à¼ĭ":1618,"à½Ĥà½¦à½Ķà½ł":1619,"à¾£à½²à¼ĭ":1620,"à½ĺà½Ķà½¢":1621,"à¾·à¾²à½±à½´à¾ĥà¼ĭ":1622,"à¾³à½¼à¼į":1623,"à½Ķà½Ĥ":1624,"à½Ŀà½ł":1625,"à½Ĭà½ĺ":1626,"à¼¥à¼¢":1627,"Ġà¼½":1628,"Ħà¼įà¼į":1629,"à½±à¾Ģà¼ĭ":1630,"à¾¨à¾¨à¼ĭ":1631,"à¼ĭà¼¹à¾Ģà¼ĭ":1632,"à½Ĺà½ĵ":1633,"à½ĺà½Ĥà½£":1634,"à½»à¼į":1635,"à¾Ĵà½±à¼ĭ":1636,"à¾·à¾£":1637,"Ġà½Ĥà½¦":1638,"à¼Įà¼Įà¼Į":1639,"à½ĵà½Ķà½¢":1640,"à¼¥à¼©":1641,"à¾¨à¾²à¼į":1642,"à½ŀà½ł":1643,"à½Ĭà½¢":1644,"à¾Łà¾Ńà½¾à¼ĭ":1645,"à½±à½¿à¼į":1646,"à½ĵà½ĸ":1647,"à¼¤à¼¢":1648,"à½Ĥà½ħà½£":1649,"à¾²à¾±à½²":1650,"à½Ĺà½ĸ":1651,"à½ĳà½ĸà½ł":1652,"à½łà½ĩà½ĸ":1653,"à½²à½¿à¼į":1654,"à¾Ĵà½¼à¼įà¼į":1655,"à¼¤à¼¡":1656,"à½ĳà½Ĥà½ĸ":1657,"à½¨à½ĳ":1658,"à¾łà½²à¼ĭ":1659,"à½łà½ĩà½¢":1660,"à¾·à½²à¼į":1661,"à¼§à¼©":1662,"à½ºà¼ĭà½Īà½²":1663,"à½ķà½ĳ":1664,"à½Ĥà½Ĥà½¡":1665,"à¾©à¾±à½²":1666,"à½łà½ļà½¢":1667,"à½ĸà½Ħà½¦":1668,"à¼¤à¼£":1669,"à½ĸà½ĳà½¦":1670,"à½Ĵà½ĳ":1671,"à½²à¼ĭà½²":1672,"à¾¡à¼į":1673,"à½łà½Ĳà½¦":1674,"à½ĺà½Ķ":1675,"à½łà½ĩà½Ĥ":1676,"à½¼à½¿à¼į":1677,"Ġà¼ĭà¼ĭà¼ĭà¼ĭà¼ĭà¼ĭà¼ĭà¼ĭà¼ĭà¼ĭà¼ĭà¼ĭà¼ĭà¼ĭà¼ĭà¼ĭà¼ĭà¼ĭà¼ĭà¼ĭà¼ĭà¼ĭà¼ĭà¼ĭà¼ĭà¼ĭà¼ĭà¼ĭà¼ĭà¼ĭà¼ĭà¼ĭà¼ĭà¼ĭà¼ĭà¼ĭà¼ĭà¼ĭà¼ĭà¼ĭà¼ĭà¼ĭà¼ĭà¼ĭà¼ĭà¼ĭà¼ĭà¼ĭà¼ĭà¼ĭà¼ĭà¼ĭà¼ĭà¼ĭà¼ĭà¼ĭà¼ĭà¼ĭà¼ĭà¼ĭà¼ĭà¼ĭà¼ĭà¼ĭ":1678,"à½Ľà½ł":1679,"à¾·à¾±à½¼à½¿à¼ĭ":1680,"à½´à¼·":1681,"à¼¨à¼ł":1682,"à¼¡à¼©à¼¥à¼©":1683,"à½Ĺà½Ļ":1684,"à½¼à½¾à¼Ķ":1685,"à½łà½Ĩà½ĺà½¦":1686,"à¼İ":1687,"à½Ĩà½£":1688,"à½Ķà½ĸ":1689,"à½Īà¾±à½²":1690,"à½Ĥà½¦à½ĸ":1691,"à½ºà¼·":1692,"à¾²à½´à½¾à¼ĭ":1693,"Ġà¼©":1694,"Ġà¼¨":1695,"à¾±à½´à¼į":1696,"à¾łà½±à¼ĭ":1697,"à½Łà½Ĥà½¦":1698,"à¼©à¼ł":1699,"à¼ĭà½Īà½¼":1700,"à½¦à½Ķà½ł":1701,"à¼ĭà¼İ":1702,"à½´à¾ĥà¼ĭ":1703,"à¾Łà½´à¼į":1704,"à½¡à½ı":1705,"à¾³à½´à¼įà¼į":1706,"à¾¦à½²":1707,"à¼§à¼¦":1708,"à½Ĥà½¦à½Ĥ":1709,"à½ĸà½¢à½ĵ":1710,"à¼įà¼Ħà¼ħà¼įà¼į":1711,"à½ĩà½ł":1712,"à½Ģà½İ":1713,"à½£à½Ģ":1714,"à¾²à½±à½²à¼į":1715,"à¾©à¾Ń":1716,"à½¼à¼·à¼ĭ":1717,"à½§à½£":1718,"à½ģà½ĵ":1719,"à½Ĥà½¤à½Ħ":1720,"à¾Ńà½¾à¼ĭ":1721,"à½ĸà½¤à½ĵ":1722,"à¾¦à¾²à½²":1723,"à¼łà¼łà¼ł":1724,"à½Ĥà½¤à½ł":1725,"à½Ĺà½¢":1726,"à¼ĭà¼¹à½²à¼ĭ":1727,"à¼·à½¼":1728,"à¾¾à¾¾":1729,"à¾¨à¾±":1730,"à¾¨à½´à¼ĭ":1731,"à¾Łà¾¡à½¼":1732,"à¾©à½ºà¼įà¼į":1733,"à½ĸà½ħà½£":1734,"à¾¡à¾·à¼į":1735,"à¾±à½¾à¼į":1736,"à½ĸà½Ģà½ĵ":1737,"à¼¦à¼¦":1738,"à¾²à½¼à¼Ķ":1739,"½į":1740,"à½į":1741,"Ġà½ł":1742,"à¼ĭà¼Ħà¼ħ":1743,"à¾¡à¾·à½´à¼ĭ":1744,"à¾¡à¾·à½¼":1745,"à½ıà½ı":1746,"à¾²à¼Ķ":1747,"à½¨à½ĸ":1748,"à¼¥à¼¡":1749,"à¾ªà½²":1750,"à¾¤à¾±à½²à¼į":1751,"à¾¦à½±à¼ĭ":1752,"à½łà½ĳà½ĵ":1753,"à¼ĭà½ºà¼ĭ":1754,"à½łà½ĸà½Ĥà½¦":1755,"à¼§à¼¨":1756,"à½ĸà½Ļà½Ĥà½¦":1757,"à¼¡à¼łà¼ł":1758,"à½Ļà½Ĥ":1759,"à¾³à½½à¼ĭ":1760,"à½Ħà½Ķ":1761,"Ġà¼¦":1762,"à¼·à¼į":1763,"à¼¥à¼£":1764,"à½²à¼ĭà¼º":1765,"à¾µà½±à¼ĭ":1766,"à½Ĳà½ĺà½¦à½ħà½ĳ":1767,"à¼ĭà¼ĭà¼ĭà¼ĭà¼ĭà¼ĭà¼ĭà¼ĭà¼ĭà¼ĭà¼ĭà¼ĭà¼ĭà¼ĭà¼ĭà¼ĭà¼ĭà¼ĭà¼ĭà¼ĭà¼ĭà¼ĭà¼ĭà¼ĭà¼ĭà¼ĭà¼ĭà¼ĭà¼ĭà¼ĭà¼ĭà¼ĭà¼ĭà¼ĭà¼ĭà¼ĭà¼ĭà¼ĭà¼ĭà¼ĭà¼ĭà¼ĭà¼ĭà¼ĭà¼ĭà¼ĭà¼ĭà¼ĭ":1768,"à¾ľà½±à½²à¼ĭ":1769,"à½Īà½¼":1770,"à½ĳà½Ħà½Ħ":1771,"à¾±à½¿à¼į":1772,"à½Ģà½¤":1773,"à¾¦à½¼à¼ĭ":1774,"à½ĸà½Ķ":1775,"à½²à¼ĭà¼½":1776,"à¾ļà¼į":1777,"à¼·à½²":1778,"à½Ķà½ŀ":1779,"à½Ħà½¦à½¦":1780,"à¼įà¼¼":1781,"à¼¥à¼¤":1782,"à½¨à½Ļ":1783,"à¾µà¼į":1784,"à½§à½§à½§à½§":1785,"à¾Ĥ":1786,"à½ħà½£":1787,"à¼¦à¼¨":1788,"à½ĸà½¢à½ĸ":1789,"à¾²à½±à½²à½¾à¼ĭ":1790,"à½ļà½ĺ":1791,"à¾²à½±à½¾à¼ĭ":1792,"à¼¡à¼©à¼ł":1793,"à¾Ĵà¾²à½ºà¼ĭ":1794,"à½ĸà½Ļà½Ĥ":1795,"à½Ĺà½ĵà½¡":1796,"à½ĺà½¦à½Ģ":1797,"à½±à½¼à¾ĥà¼ĭ":1798,"à½Ĺà½¡":1799,"à¾µà½´à¼ĭ":1800,"à½ĸà½ŀà½ĺà½¦":1801,"à¾²à½±à¾Ģà¼ĭ":1802,"à½¼à¼ĭà¼¼":1803,"à¼¦à¼§":1804,"à¼¦à¼©":1805,"Ġà½¢à½ĸ":1806,"à½łà½ĸà½£":1807,"à½±à½¾à¼įà¼į":1808,"à¾¨à½±":1809,"à½¨à½İ":1810,"à¼·à½²à¼ĭ":1811,"à½ĺà½ĵà½ĸà½¦":1812,"à¾¨à¾±à½´à¼ĭ":1813,"à½¥à½ł":1814,"à¾¡à½±à¼ĭ":1815,"à½¢à½ī":1816,"à½īà½¦":1817,"à½ļà½¦":1818,"à¾²à½ºà¼įà¼į":1819,"ĠĠĠĠĠĠĠĠ":1820,"à½Ħà½Ĩ":1821,"à¾²à½´à¼įà¼į":1822,"à½§à½ĸ":1823,"à½łà½Ĥà½ĸ":1824,"à¾İ":1825,"à½Ķà½¢à½łà½Ĥ":1826,"à¾Īà¾Īà¾Īà¾Ī":1827,"à½Ĵà½«":1828,"à½łà½ĸà½ĸà½¦":1829,"à¾·à½±à½´":1830,"à½¡à½Ļ":1831,"à¾ºà¼ĭ":1832,"Ġà½ĸà½ĳ":1833,"à½ĸà½Ĥà½ĳ":1834,"à½ķà½Ĳà½Ĥ":1835,"à¾·à¾²à¼ĭ":1836,"à¾Ģà¼į":1837,"Ġà¼Ħà¼ħà¼ħà¼įà¼į":1838,"à½¾à½¿à¼ĭ":1839,"à¾·à¾±à½¿à¼į":1840,"à¾Ĳà¾±à¼į":1841,"Ġà½łà½ĸ":1842,"à½ĵà½Łà½«":1843,"à¼Ģà½¨":1844,"à½Ĥà½Ķà½ł":1845,"à¾Ħà½¿à¼ĭ":1846,"à½¨à½£":1847,"à½¨à½Ĭ":1848,"à½Ľà½ĵ":1849,"à¾£à½±à¼ĭ":1850,"à¾¦à½ºà¼ĭ":1851,"à½Ħà½ĸà½ł":1852,"à½Ķà½ı":1853,"à¼¦à¼¤":1854,"Ġà½ĸà½ħà½¦":1855,"à¼¦à¼¢":1856,"à½´à¼ĭà¼Ħà¼ħà¼įà¼į":1857,"à¾²à½²à¼Ķ":1858,"à¾Ńà½¾à¼į":1859,"Ġà½ı":1860,"Ġà¼ĭà¼ĭà¼ĭà¼ĭà¼ĭà¼ĭà¼ĭà¼ĭ":1861,"à¾ĳ":1862,"à¾¡à¾·à½ºà¼į":1863,"à¾¥à½¼à¼ĭ":1864,"à½ĸà½Ļà½ĳ":1865,"à¾¦à¾·à½ºà¼ĭ":1866,"à¼§à¼£":1867,"à½ĸà½ŀà½¢":1868,"à¾·à¾²à½±à½´à½¾à¼ĭ":1869,"à¾©à¼įà¼į":1870,"à½ĺà½Ĳà½Ħ":1871,"à½ĳà½ĺà½¦":1872,"à½¼à¼ĭà½ºà¼ĭ":1873,"à½Ĵà½¦":1874,"à½Ľà½§":1875,"à¾·à¾Ńà¼ĭ":1876,"à½§à½ĳ":1877,"à¼¦à¼¡":1878,"à¾±à½¿à¼ĭ":1879,"à½Łà½£":1880,"à¾Ńà½²":1881,"à½¤à½Ģ":1882,"à½ĺà½ĳà½¢":1883,"à¾ªà¼į":1884,"à½Ĥà½¡à½ĵ":1885,"à¼§à¼¥":1886,"à¼¦à¼¥":1887,"à¾¡à½¼à¼į":1888,"à¾Łà¾Ńà½¾à¼į":1889,"à¾·à¾²à¾Ģ":1890,"à½±à½¼à½¾à¼ĭ":1891,"Ġà½Ĥà½ī":1892,"à¼©à¼¨":1893,"à¼ĭà¼¹à¼ĭ":1894,"à¼¦à¼£":1895,"Ġà½ħ":1896,"à½ĸà½Ĥà½¦":1897,"à½Łà½ĩ":1898,"à½ģà½¤":1899,"à½Ķà½¢à½¢":1900,"à½Ĥà½ıà½ł":1901,"à½ºà½º":1902,"à¼¨à¼¨":1903,"à½Ĳà½ķà½Ħ":1904,"à½Ĳà½¦":1905,"à½ºà½ºà¼ĭ":1906,"ĠĠĠ":1907,"à¼ĭà½Īà½±à½²":1908,"à½±à¾ĥà¼ĭ":1909,"à¾°":1910,"à½Ĺà½ļ":1911,"à½¼à¼įà¼ĭà¼ĭà¼ĭà¼ĭà¼ĭ":1912,"Ġà½łà½ģ":1913,"à½ĸà½ıà½Ĥ":1914,"à¼ĭà¼ŀà¼į":1915,"à¾·à¾±à½¼à¼į":1916,"à¼ĭà¼Ŀà¼į":1917,"à¼¨à¼¡":1918,"à¾¡à½´à¼įà¼į":1919,"à¼Įà¼Įà¼Įà¼Įà¼Įà¼Įà¼Įà¼Įà¼Įà¼Įà¼Įà¼Įà¼Įà¼Įà¼Įà¼Įà¼Įà¼Įà¼Įà¼Įà¼Įà¼Įà¼Įà¼Įà¼Įà¼Įà¼Įà¼Įà¼Įà¼Įà¼Įà¼Į":1920,"à¾·à¾±à½±à¼ĭ":1921,"à½łà½¦":1922,"à½ĳà½Ħà½£":1923,"à¾Ķà¼Ķ":1924,"à½Ĺà½ı":1925,"à¾Ľà¼į":1926,"à½Ĥà½ĸà½¦":1927,"à¼§à¼¤":1928,"à¼ĭà¼įà¼ĭ":1929,"à¾¡à¾·à½¼à¼ĭ":1930,"à¼·à½º":1931,"à¼ĭà½µà¾ĥà¼į":1932,"Ġà½łà½Ĥ":1933,"à½ĳà½ħ":1934,"à½Ŀà½£":1935,"à¾Ĥà¼ĭ":1936,"à¾Ľà½²à¼ĭ":1937,"à¾ªà½±à¼ĭ":1938,"à½¡à½ĳ":1939,"à¼¡à¼¢à¼¨":1940,"à¾Łà½±":1941,"à¼§à¼¡":1942,"à½ºà¼ĭà¼Ħà¼ħà¼įà¼į":1943,"à¾·à¾²à¾Ģà¼ĭ":1944,"Ġà½ĳà½ĸ":1945,"à½ŀà½ĺ":1946,"Ġà½¢à½Ħ":1947,"à¼ĭà¾±":1948,"à½¦à½Ķà½¢":1949,"à½ĺà½ĵà½ĺ":1950,"à½Ĺà½£":1951,"à½Ĥà½īà½Ĥà½¦":1952,"à¼įà¼ĭà¼ĭ":1953,"à½Ħà½¦à½Ķ":1954,"à½¨à½ī":1955,"à¾Ĳà½±à¼ĭ":1956,"à½ĸà½¦à½¢":1957,"à½¢à½İ":1958,"à½ĳà½Ķà½ĳ":1959,"à½Ĭà½Ģ":1960,"à¼©à¼¦":1961,"à½¼à¼ĭà¼İ":1962,"à½Ĥà½Ķà½¢":1963,"à¾ŀà½±à¼ĭ":1964,"à¼ŀ":1965,"à¾Ĳà¾²à¾Ģà¼ĭ":1966,"à¾±à¾Ģ":1967,"à¼ĭà½Īà½²à¼ĭ":1968,"à¾ļà½±à¼ĭ":1969,"à½Ĥà½Ŀ":1970,"à½«à½¥":1971,"à½¼à¼ĭà¼ĳà¼ĳ":1972,"à½ĺà½ĳà½Ĥ":1973,"Ġà½Ĥà½Ļà½Ħ":1974,"à½ĵà½Ģ":1975,"à½¼à¼ĭà¼´":1976,"à½¼à¼ĭà½Īà½²":1977,"à½Ĥà½Ĳ":1978,"à½Ĥà½ħà½Ĥà½¦":1979,"à¼Ŀà¼Ŀ":1980,"à¼įà¼Ī":1981,"à¾²à¾±à½²à¼ĭ":1982,"à¼ĭà½Īà½ºà¼ĭ":1983,"à¼§à¼¢":1984,"à½Ĥà½ĵà½Ħà½¦":1985,"à½´à¼ĭà¼½":1986,"à¼·à½ºà¼ĭ":1987,"à½£à½Ķ":1988,"à¾¨à¾±à½²à¼ĭ":1989,"à½īà½§":1990,"à¾ŀà½²à¼ĭ":1991,"à½£à½£":1992,"à¾«à½¼à¼ĭ":1993,"à½ĺà½ĳà½¦":1994,"Ġà½Ħ":1995,"à½¢à½Ķ":1996,"à¼¨à¼©":1997,"à½²à¼ĭà½¼":1998,"à½Ĵà½ĵà½Ł":1999,"à¾±à¼ĭà¼ĳ":2000,"à¾·à¾Ń":2001,"à¼¢à¼łà¼¡à¼¡":2002,"Ġà¼¡à¼ł":2003,"à½Ķà½¢à½¦":2004,"à½¨à½¥":2005,"à½Ľà½Ķ":2006,"à¾Ļà½±":2007,"à½ĸà½¢à½Ĥ":2008,"à¾²à¾³":2009,"à½Ĺà½ĳ":2010,"à½£à½łà½ĺ":2011,"à¼©à¼£":2012,"à½Ĺà½Ĳ":2013,"à½ĳà½Ĥà½£":2014,"à¼įà¼ĭà¼ĭà¼ĭ":2015,"à¾Łà¾±à½ºà¼į":2016,"à¾Łà¾²à½²à¼ĭ":2017,"Ġà¼ĭà¼į":2018,"à¾·à¾£à½±":2019,"à¾·à½»à¼ĭ":2020,"à½Ĥà½¡à½ĺ":2021,"à¾±à½»":2022,"à½Łà½ļ":2023,"Ġà½¡à½Ħ":2024,"à¾ĥà¼Ķ":2025,"à½¡à½ķ":2026,"à½Ĥà½¤à½Ĥ":2027,"à¾¼":2028,"à¾¨à½±à½¿à¼ĭ":2029,"à¾¡à¾·à½¼à¾ħ":2030,"à¼©à¼¢":2031,"à½ĺà½¦à½ĳà½Ķà½ł":2032,"à½½à¼įà¼į":2033,"à½±à½´à¼į":2034,"à¼ĭà½Īà¾¤à¾±à½²":2035,"Ġà½Ĥà½Ħ":2036,"à½ĸà½¤à½¦":2037,"à½¼à¾ħà¼ĭ":2038,"Ġà½ĸà½ŀ":2039,"à½ĸà½¢à½Ĥà½¦":2040,"à¾³à¾Ģà¼ĭ":2041,"à½¢à½ĸà½ł":2042,"à¾Łà½¾à¼į":2043,"à¾Ńà½¼":2044,"à¾Łà¾²à½ºà¼į":2045,"à¼ĭà¼ĭà¼ĭà¼ĭà¼ĭà¼ĭ":2046,"à¾¤à½ºà¼į":2047,"à½ĺà½ĸ":2048,"à½ºà¼ĭà¼½":2049,"à¾²à½»à¼ĭ":2050,"à¾±à½²à¼ĭà¼´":2051,"à½²à½²à¼ĭ":2052,"à¼ĭà½Īà¾²à½º":2053,"à½łà½«":2054,"à½Ĵà½İ":2055,"à¼Ģà½ĺ":2056,"à¾²à¾Ńà¼į":2057,"à¼ĭà¾¢à½²à¼ĭ":2058,"à½¦à½Ħà½¦à½¢":2059,"à¼¨à¼¢":2060,"à¾¡à¾·à½¾à¼į":2061,"Ġà½ĸà½ħ":2062,"à¼ĭà¾±à½²à¼ĭ":2063,"à¾±à½²à¼ĭà¼ĳ":2064,"à½Ģà½ª":2065,"à¾Łà½¿à¼į":2066,"à¼¡à¼¢à¼ł":2067,"à½Ĳà½Ĳ":2068,"à½²à½²":2069,"à¼©à¼¥":2070,"à¼©à¼¡":2071,"à¼ĭà½¼à¼ĭà½ºà¼ĭ":2072,"à½łà½Ĳà½ĺà½¦":2073,"à¾¡à¼įà¼į":2074,"à½Ĥà½¢à½ĸ":2075,"à½Ħà½ĸà½¢":2076,"à½¦à½ĳà½Ħ":2077,"à¼¨à¼¦":2078,"à½£à½¡":2079,"à¾Ĵà½ºà¼į":2080,"à¾«à¼į":2081,"à¾±à½±à½¾à¼į":2082,"à¾¤à¾±à½´":2083,"à½Ķà½ĳà½Ĥ":2084,"à½ĵà½ŀ":2085,"à¼ĭà¼ĭà¼ĭà¼ĭà¼ĭà¼ĭà¼ĭ":2086,"à¼Ļ":2087,"à½Ĵà½ĵà½¡":2088,"à¾·à½¾à¼į":2089,"à½ĸà½ıà½ĸà½¦":2090,"½ľ":2091,"à½ľ":2092,"à½łà½ģà½Ħ":2093,"à¼ĭà¼Ŀà¼įà¼į":2094,"à½Łà½ĸà½¦":2095,"à¼¨à¼¥":2096,"à½¢à½Ħà½ĸà½ŀ":2097,"Ġà¼įà¼įà¼įà¼į":2098,"à¾²à½¾à¼į":2099,"à½«à½Ĳ":2100,"à¼ĭà¾¾":2101,"à¼ĭà¼įà¼Į":2102,"à½£à½ī":2103,"à¾¡à¾·à½¿à¼ĭ":2104,"à½ĸà½¦à½ĸà½¦":2105,"à¾©à½²à¼įà¼į":2106,"à¼©à¼¤":2107,"à½Ķà½Ķ":2108,"à½ħà½¦":2109,"à½¼à¼ĭà¼Ħà¼ħà¼įà¼į":2110,"à½ĸà½Łà½¢":2111,"à¼ĭà½µà½¾à¼į":2112,"à¾ļà½²à½¾à¼ĭ":2113,"à¾±à½²à¼·à¼ĭ":2114,"à½ĳà½ĸà½¦":2115,"à¾·à½ºà¼į":2116,"à½łà½Ľà½ł":2117,"à¾²à½¿à¼ĭ":2118,"à¼¨à¼£":2119,"à½ķà½Ľ":2120,"à½Ĺà½ļà½Ĳ":2121,"à½¼à¼ĭà¼½":2122,"à¾ľà½ºà¼ĭ":2123,"à½ĸà½¡":2124,"à½ĸà½¤à½¢":2125,"à¾·à½±à½²à½¿à¼ĭ":2126,"à½łà½¢":2127,"à½Įà½ł":2128,"à¾¤à¾²à½ºà¼ĭ":2129,"à½£à½ĸà½¢":2130,"à½±à½ºà¼ĭ":2131,"à½ķà½Ĳ":2132,"à½±à½¿à¼įà¼į":2133,"à¾ŀà¾ŀà¼ĭ":2134,"à¼¡à¼¥à¼ł":2135,"à½¼à½¾":2136,"à¾¦à¼į":2137,"à½´à¼ĭà¼¼":2138,"à¾Ĳà¼į":2139,"à½Ĩà½Ħà½¦":2140,"à¼¨à¼¤":2141,"à½ĵà½ī":2142,"à½ŀà½¦":2143,"à¼¡à¼¤à¼ł":2144,"à½Ĥà½ĵà½ĵ":2145,"à½ĸà½ī":2146,"à½ĳà½ĳà½Ħ":2147,"à½´à¼ĭà¼´":2148,"à½Ĵà½ı":2149,"à½Ĵà½¡":2150,"Ġà½§":2151,"à½¡à½Ħà½ĳà½Ĥ":2152,"à¾²à¾«à½´":2153,"Ġà½ĸà½Ģà½ł":2154,"à¼łà¼łà¼łà¼łà¼łà¼łà¼łà¼ł":2155,"à¾±à¾²à½ºà¼ĭ":2156,"à¾¤à½²à¼ĭ":2157,"à½ĺà½Ħà½ĵ":2158,"à½Ĥà½¦à½Ķà½¢":2159,"à¾Łà¾Ńà¼ĭ":2160,"à¼ĭà¾±à½²":2161,"à½ĸà½¢à½łà½Ĥ":2162,"à½ĸà½Ĥà½ĺ":2163,"à½Ģà½Ĥ":2164,"à¼¡à¼£à¼ł":2165,"à½¦à½¡":2166,"à¾±à½²à¼ĭà½Ī":2167,"à½ħà½ł":2168,"à¾¥à½ºà¼ĭ":2169,"à½łà½Ľà½¢":2170,"à¼¨à¼§":2171,"à½«à½Ĥ":2172,"à¾¤à½±à¼ĭ":2173,"à½±à½²à¼Ķ":2174,"à¼ĭà½ºà¼į":2175,"à¼¡à¼¡à¼ł":2176,"à¾Łà½±à¼į":2177,"à¾¡à¾·à½²":2178,"à¼¢à¼łà¼¡à¼£":2179,"à¼ĭà¼įà¼½":2180,"à½Ĥà½ŀà½¢":2181,"à¼¢à¼łà¼¡à¼¢":2182,"à½Ķà½¡à½Ħ":2183,"à½łà½ķà½Ĥ":2184,"à¼Ħà¼įà¼į":2185,"Ġà¼ĭà¼ĭà¼ĭà¼ĭà¼ĭà¼ĭ":2186,"à¾©à½±à¼ĭ":2187,"à¼Ģà½¦à½¢":2188,"à½Ĥà½Łà½ĸà½¦":2189,"à½²à¼ĭà¼¸":2190,"à¾ķà½ºà¼į":2191,"à¾ªà½±":2192,"à¾Łà½¿à¼ĭ":2193,"à½Ģà½łà½ĺ":2194,"à¼¡à¼§à¼ł":2195,"à½Ĭà½¦":2196,"Ġà¼Ħà¼įà¼į":2197,"à¼¢à¼łà¼¡à¼¤":2198,"à½´à¼ĭà¼º":2199,"à¼ĭà¼ĳà¼ĳ":2200,"à½Ķà½¢à½Ĥ":2201,"à¾¶à½¾à¼ĭ":2202,"à¼¢à¼łà¼łà¼ł":2203,"à¼¢à¼łà¼łà¼©":2204,"à½Ĺà½ģ":2205,"Ġà¼¡à¼¢":2206,"à½ĳà½¡":2207,"à¾Ĵà¾·à¼ĭ":2208,"à¾²à¾Ģà¼į":2209,"à¾£à½´à¼ĭ":2210,"Ġà½ĺà½ĳ":2211,"à½Ĳà½ĵà½Ł":2212,"à¾¥à½´":2213,"à½ĵà½Ķà½¦":2214,"à½±à½´à¾ĥà½¿à¼ĭ":2215,"à¼įà¼ĭà¼ĭà¼ĭà¼ĭà¼ĭà¼ĭà¼ĭà¼ĭà¼ĭà¼ĭà¼ĭà¼ĭà¼ĭà¼ĭà¼ĭà¼ĭ":2216,"à½Ĵà½ł":2217,"à½Ĵà½Ĥà½£":2218,"à¾ªà½ºà¼ĭ":2219,"à½²à¼ĭà½º":2220,"à½Ķà½łà½ĳ":2221,"à½»à½¾à¼ĭ":2222,"à¼·à½¼à¼ĭ":2223,"à½Ĥà½¦à½Ģ":2224,"à½¥à½Ĭ":2225,"à¾¤à¾²à½¼à¼į":2226,"à½¢à½ŀ":2227,"à½²à½¿à¼įà¼į":2228,"à¾±à¾¤à½º":2229,"à½łà½ļà½Ĥ":2230,"à¼įà¼Į":2231,"à¾±à½±à½²":2232,"à½Łà½«":2233,"à¾Ĺà½ºà¼Ķ":2234,"à½ĺà½ı":2235,"à¾Ńà½±à¼į":2236,"à¼¡à¼¡à¼¦":2237,"à¼ĭà½Īà¾·à½²":2238,"à¾»à½±à¼ĭ":2239,"à¾Ĵà¼į":2240,"à¾Łà½±à½²à¼ĭ":2241,"à¾Ľà½±à¼ĭ":2242,"à¾²à½²à½¿à¼ĭ":2243,"à¼¡à¼¡à¼£":2244,"à¾±à¾Ĺà½º":2245,"à¾³à¼Ķ":2246,"à½ĳà½ª":2247,"à½Ķà½£à½¦":2248,"à½¥à½¢":2249,"à¼ĭà¼ĭà¼ĭà¼ĭà¼ĭà¼ĭà¼ĭà¼ĭà¼ĭà¼ĭà¼ĭà¼ĭà¼ĭà¼ĭ":2250,"Ġà½Ļ":2251,"à½ºà¼ĭà¼´":2252,"à¼Ģà½ĵ":2253,"à½¨à½Ķ":2254,"à½±à½²à½¿à¼ĭ":2255,"à¾ŀà¾ŀ":2256,"à½Ķà½ĸà½¦":2257,"à½Ĥà½łà½ĺ":2258,"à¾³à½±à¼ĭ":2259,"à¼¡à¼¨à¼ł":2260,"à¼¢à¼łà¼¡à¼¥":2261,"à¾Łà¾±à½ºà¼ĭ":2262,"à½»à½¿à¼ĭ":2263,"à¼¢à¼łà¼¡à¼ł":2264,"à½ĵà½łà½ĺ":2265,"à½²à¼µà¼ĭ":2266,"à½Ĥà½Ļà½Ĥà½¦":2267,"Ġà¼¡à¼£":2268,"à½Ĺà½«":2269,"Ġà½ĺà½Ĩ":2270,"à½ıà½£":2271,"Ġà½ĳà½ĸà½Ħ":2272,"à½ĵà½łà½ĳà½¦":2273,"à½£à½Ĭ":2274,"à¾±à½¼à¼į":2275,"à½ĸà½ĸà½ĸ":2276,"Ġà½łà½ĩ":2277,"à¾Łà¾±à½º":2278,"à½Ķà½Ĩ":2279,"à¾·à½¼à¼įà¼įà¼įà¼į":2280,"à¾·à½²à½¿à¼į":2281,"à¼¡à¼©à¼¨à¼©":2282,"à¼¡à¼¡à¼¢":2283,"à¼¢à¼łà¼łà¼¨":2284,"à½Ľà½ĸ":2285,"à½¦à½ī":2286,"à½Ĥà½ĳà½Ĥ":2287,"à¼µà½¼":2288,"Ġà¼¡à¼¥":2289,"à½łà½Ĳà½ĸà½¦":2290,"à¾¨à¾²à¾Ģà¼ĭ":2291,"à¾µà½²":2292,"Ġà½ĳà½ĺ":2293,"à½łà½ĵ":2294,"à½łà½ĸà½ĺ":2295,"à¾ªà½²à¼ĭ":2296,"à¼ĭà¾ĵ":2297,"à½Ľà½¢":2298,"à½ĵà½ĳà½Ħ":2299,"Ġà¼Į":2300,"à¼¡à¼©à¼¥à¼ł":2301,"à¼¡à¼¡à¼¤":2302,"à½ºà¼ĭà½Ī":2303,"à½¼à¼µ":2304,"Ġà½ĸà½ĳà½Ĥ":2305,"à½Ĵà½Ĳà½Ħ":2306,"à½£à½ı":2307,"à½¼à½¼":2308,"à½İà½¦":2309,"à¼ĭà¼ĭà¼ĭà¼ĭà¼ĭà¼ĭà¼ĭà¼ĭà¼ĭà¼ĭà¼ĭà¼ĭà¼ĭà¼ĭà¼ĭ":2310,"à¾²à½±à½´à½¾à¼ĭ":2311,"à½Ĩà½łà½ĺ":2312,"à½łà½¥":2313,"Ġà¼ĭà¼ĭà¼ĭà¼ĭà¼ĭà¼ĭà¼ĭà¼ĭà¼ĭà¼ĭà¼ĭà¼ĭà¼ĭà¼ĭà¼ĭà¼ĭ":2314,"à½£à½ĸà½¦":2315,"à½´à¼ĭà¼¸":2316,"à½ºà½¿à¼ĭ":2317,"à½ĵà½ħ":2318,"à½Ĥà½Ĩ":2319,"à¼¡à¼¦à¼ł":2320,"à¼¡à¼¡à¼¡":2321,"à¾Ķà½¼à¼Ķ":2322,"à½ĺà½¦à½ħà½ĵ":2323,"à½Ĺà½¦":2324,"à½ķà½Ģ":2325,"à¼ĭà½Īà¾±à½º":2326,"à½ĸà½Ģà½ĳ":2327,"à½Ķà½¢à½¤":2328,"à¾ľà½±à¼ĭ":2329,"à¼ĭà¾¨à¼ĭ":2330,"à¼ĭà¾²à½²à¼ĭ":2331,"Ġà½ĳà½Ķ":2332,"à½ķà½Ŀà½«":2333,"à¼¡à¼©à¼¦à¼ł":2334,"à¼¡à¼¡à¼§":2335,"à¾Ńà½±à½²à¼ĭ":2336,"à½Ģà½«":2337,"à½Ĥà½ģ":2338,"Ġà½Ĥà½ŀ":2339,"à½Ĩà½łà½Ħ":2340,"à½ĳà½Ĥà½Ķà½¢":2341,"à¼¢à¼łà¼¡à¼¦":2342,"à½¥à½Ħà½¥":2343,"à½Łà½Ĳà½¥":2344,"à¼¡à¼¡à¼¨":2345,"à½Ĥà½ħà½¢":2346,"à¼£à¼łà¼ł":2347,"à¾·à½²à¼ĭà¼´":2348,"à½Ĵà½Ĳ":2349,"à½ĸà½Ķà½ł":2350,"à¾Ĳà½²":2351,"à½£à½ģ":2352,"à¾¡à¾·à½¾à¼ĭ":2353,"à½´à½¾à¼į":2354,"à¼¡à¼¡à¼¥":2355,"à¾·à¾±à½±à½¾à¼į":2356,"à¼ĭà½±à¼ĭ":2357,"à½ĵà½ĸà½¦":2358,"à¼įà¼ĭà¼ĭà¼ĭà¼ĭà¼ĭà¼ĭà¼ĭà¼ĭ":2359,"à¾ļà½±":2360,"à½´à¼ĭà½Ī":2361,"Ġà½Ĥà½ĵà½¦":2362,"à½Ķà½¦à½¦":2363,"à½Ķà½¤":2364,"à¾Ļà½¼à¼ĭ":2365,"à½Ķà½¢à½ĺ":2366,"Ġà½łà½ĩà½ĺ":2367,"à¼µà¼į":2368,"à¼¡à¼©à¼¨à¼¥":2369,"à¼¡à¼łà¼£":2370,"à¼ĭà¾¢à½ºà¼ĭ":2371,"à½ĸà½ħà½ĸ":2372,"Ġà¼¡à¼¤":2373,"Ġà¼¡à¼§":2374,"à½¦à½¢à½ĸ":2375,"à½Ĺà½Ħ":2376,"à½±à½´à¾ĥà¼įà¼į":2377,"à½§à½§à½§à½§à½§à½§à½§à½§":2378,"à¾±à¾±à½²à¼ĭ":2379,"à½Ĥà½ĳà½¢":2380,"à¼¡à¼łà¼¨":2381,"à¾ŀà½±à½²à¼ĭ":2382,"à½¦à½Ĥà½¥":2383,"à½¡à½İ":2384,"à¾Ĳà¾±à¾²à½º":2385,"à¼¡à¼łà¼¤":2386,"à¼¡à¼©à¼©à¼¢":2387,"à½¦à½¤":2388,"à¼ĭà¼½à¼¼":2389,"à¾ķà½²à¼įà¼į":2390,"à¾±à¾·à½²":2391,"à½²à¼ĭà½Īà½²":2392,"à½Ģà½ĳ":2393,"à½ĺà½¦à½¦":2394,"Ġà¼¡à¼¦":2395,"à¾¦à¾·à½²à¼ĭ":2396,"à½¦à½ĵà½¦":2397,"à½Ĵà½Ĩ":2398,"à¾¤à¾²à½´à¼ĭ":2399,"à½²à¼ĭà½Īà½º":2400,"à¼ĭà¾¢à½±à¼ĭ":2401,"à¼¡à¼©à¼¥à¼¨":2402,"à½Ĵà½ĸ":2403,"à¼¢à¼łà¼łà¼¦":2404,"à½Ĥà½łà½Ħ":2405,"à¼½à¼¼":2406,"à¼¡à¼©à¼©à¼ł":2407,"à½Ĥà½ħà½ĺ":2408,"Ġà½ĺà½Ħ":2409,"à¼¡à¼łà¼©":2410,"à½ĸà½Ķà½¢":2411,"à½ĸà½ĳà½Ĥà½ī":2412,"à½łà½ļà½Ħà½¦":2413,"à¾Ĵà¾²à¾±à½²":2414,"à¾¨à½»à¼ĭ":2415,"à¾±à½²à¼ĭà¼¼":2416,"à½¦à½Ķà½¦":2417,"à½İà½¢":2418,"à¼ĭà¾¡à½¼":2419,"à½¼à¼įà¼½":2420,"Ġà½Ĥà½Ł":2421,"à½¼à½¼à¼ĭ":2422,"à¾±à½²à½²à¼ĭ":2423,"à¾«à¾Ļà½±à¼ĭ":2424,"à¾ĭà½Ķà½İ":2425,"Ġà¼ĭà¼ĭà¼ĭà¼ĭà¼ĭà¼ĭà¼ĭà¼ĭà¼ĭà¼ĭà¼ĭà¼ĭà¼ĭà¼ĭà¼ĭà¼ĭà¼ĭà¼ĭà¼ĭà¼ĭà¼ĭà¼ĭà¼ĭà¼ĭà¼ĭà¼ĭà¼ĭà¼ĭà¼ĭà¼ĭà¼ĭà¼ĭà¼ĭà¼ĭà¼ĭà¼ĭà¼ĭà¼ĭà¼ĭà¼ĭà¼ĭà¼ĭà¼ĭà¼ĭà¼ĭà¼ĭà¼ĭà¼ĭà¼ĭà¼ĭà¼ĭà¼ĭà¼ĭà¼ĭà¼ĭà¼ĭà¼ĭà¼ĭà¼ĭà¼ĭà¼ĭà¼ĭà¼ĭà¼ĭà¼ĭà¼ĭà¼ĭà¼ĭà¼ĭà¼ĭà¼ĭà¼ĭà¼ĭà¼ĭà¼ĭà¼ĭà¼ĭà¼ĭà¼ĭà¼ĭ":2426,"Ġà½¦à½Ħà½¦":2427,"à½Ĺà½Ł":2428,"à¼ĭà¼ĭà¼ĭà¼ĭà¼ĭà¼ĭà¼ĭà¼ĭà¼ĭà¼ĭà¼ĭà¼ĭà¼ĭà¼ĭà¼ĭà¼ĭà¼ĭà¼ĭà¼ĭà¼ĭà¼ĭà¼ĭà¼ĭà¼ĭà¼ĭà¼ĭà¼ĭà¼ĭà¼ĭà¼ĭà¼ĭà¼ĭà¼ĭà¼ĭà¼ĭà¼ĭà¼ĭà¼ĭà¼ĭà¼ĭ":2429,"à¾Ńà½±à¾ĥà¼ĭ":2430,"à¼¡à¼¢à¼§":2431,"Ġà½łà½ķà½Ĥà½¦":2432,"à½Įà½¢":2433,"à¼¡à¼¡à¼©":2434,"à¼¡à¼łà¼¥":2435,"à½ºà¼ĭà¼¼":2436,"à¾Ļà¾±à½²":2437,"à¼¡à¼©à¼¥à¼¡":2438,"à½Ļà½ĸ":2439,"à¾±à½»à¼į":2440,"à½Ķà½ĸà½ŀ":2441,"à¾²à½ºà½¾à¼ĭ":2442,"à¾±à¾±à½º":2443,"à½ĩà½¢":2444,"à½¦à½ŀ":2445,"à½£à½¡à½Ħ":2446,"à½¼à¼ĭà½Ī":2447,"Ġà¼ĭà¼ĭà¼ĭà¼ĭà¼ĭà¼ĭà¼ĭ":2448,"à½łà½ģà½£":2449,"à¼¡à¼łà¼§":2450,"Ġà½Ĥà½ŀà½ĵ":2451,"Ġà¼¡à¼©":2452,"à¾µà½¿à¼ĭ":2453,"à¼¡à¼©à¼©à¼©":2454,"à¾µà½¼à¼ĭ":2455,"à¾Ĳà¾±à¾²à½ºà¼ĭ":2456,"à½ĺà½¦à½ĳà½Ħ":2457,"Ġà½Ĥà½¦à½Ħ":2458,"à¾²à½±à½´à¼ĭ":2459,"à¼¡à¼łà¼¦":2460,"à¼¡à¼©à¼¨à¼§":2461,"à¾±à½±à¼į":2462,"à½łà½Ľà½Ħà½¦":2463,"Ġà½Ĥà½ı":2464,"à½łà½ĸà½Ħ":2465,"à¾±à½±à½¾à¼ĭ":2466,"à¾Ĳà¾±à½¼à¼įà¼į":2467,"à¾Łà¼Ķ":2468,"à½ĺà½¤":2469,"à½łà½Ĳà½ĺ":2470,"à¾²à½´à¾ĥà¼ĭ":2471,"à½¼à¼·à¼įà¼į":2472,"à¼¡à¼łà¼¢":2473,"à½ķà½ħà½¥":2474,"à½ĺà½Ģ":2475,"à½±à½´à½¾à¼įà¼į":2476,"à¾ŀà¼į":2477,"à¼¡à¼łà¼¡":2478,"Ġà½Ĥà½¤":2479,"à½±à½²à½¾à¼ĭ":2480,"à½Ĥà½¤à½¢":2481,"à¼¡à¼¢à¼£":2482,"à½ĥà½¦":2483,"à¼Ģà½ĸ":2484,"à½Ĥà½Ħà½Ĥ":2485,"à¼¡à¼¢à¼¦":2486,"à¾±à½´à¼įà¼į":2487,"Ġà¼¡à¼¡":2488,"à¼¡à¼©à¼¨à¼ł":2489,"à¼¡à¼©à¼©à¼¡":2490,"à½ĵà½ĵà½¦":2491,"à¾·à½±à¼į":2492,"à¼ĭà½Īà¾¦à¾·à½±à½²":2493,"Ġà¼¡à¼¨":2494,"à¾±à½ºà¼Ķ":2495,"à¾Ĺà½²à¼ĭ":2496,"à½ĵà½Ĥà½¤":2497,"Ġà¼łà¼łà¼ł":2498,"à¾Łà¾²à½±à½²à¼ĭ":2499,"à½Ħà½ŀ":2500,"à½ĳà½Ħà½ĸà½ħà½¦":2501,"à½ĺà½ļà½ĵà½ī":2502,"à½²à¼įà¼ĭà¼ĭà¼ĭà¼ĭà¼ĭ":2503,"à½ŀà½ĳ":2504,"à½Ħà½¦à½Ķà½ł":2505,"à½Ĵà½Ħ":2506,"à½ĳà½Ħà½ĸ":2507,"à¾±à½²à¼ĭà¼Ħà¼ħà¼įà¼į":2508,"à¼įà¼ĭà¼ĭà¼ĭà¼ĭà¼ĭà¼ĭà¼ĭà¼ĭà¼ĭà¼ĭà¼ĭà¼ĭà¼ĭà¼ĭà¼ĭà¼ĭà¼ĭà¼ĭà¼ĭà¼ĭà¼ĭà¼ĭà¼ĭà¼ĭà¼ĭà¼ĭà¼ĭà¼ĭà¼ĭà¼ĭà¼ĭà¼ĭà¼ĭà¼ĭà¼ĭà¼ĭà¼ĭà¼ĭà¼ĭà¼ĭà¼ĭà¼ĭà¼ĭà¼ĭà¼ĭà¼ĭà¼ĭà¼ĭà¼ĭà¼ĭà¼ĭà¼ĭà¼ĭà¼ĭà¼ĭà¼ĭà¼ĭà¼ĭà¼ĭà¼ĭà¼ĭà¼ĭà¼ĭà¼ĭà¼ĭà¼ĭà¼ĭà¼ĭà¼ĭà¼ĭà¼ĭà¼ĭà¼ĭà¼ĭà¼ĭà¼ĭà¼ĭà¼ĭà¼ĭà¼ĭ":2509,"à½ĵà½¦à½¦":2510,"à½ĸà½Łà½ĸà½¦":2511,"à½Ĺà½Ĳà½Ħ":2512,"à½Ķà½ķ":2513,"à¾¡à¾²à½²à¼ĭ":2514,"à¼įà¼ĭà¼ĭà¼ĭà¼ĭà¼ĭà¼ĭà¼ĭà¼ĭà¼ĭà¼ĭà¼ĭà¼ĭà¼ĭà¼ĭà¼ĭà¼ĭà¼ĭà¼ĭà¼ĭà¼ĭà¼ĭà¼ĭà¼ĭà¼ĭà¼ĭà¼ĭà¼ĭà¼ĭà¼ĭà¼ĭà¼ĭà¼ĭà¼ĭà¼ĭà¼ĭà¼ĭà¼ĭà¼ĭà¼ĭà¼ĭà¼ĭà¼ĭà¼ĭà¼ĭà¼ĭà¼ĭà¼ĭà¼ĭ":2515,"à¾¦à¾±à½²à¼ĭ":2516,"à¾Ĵà¾·":2517,"à½±à½¼":2518,"Ġà¼Ħà¼ħà¼į":2519,"à½ĸà½ŀà½Ĥà½¦":2520,"à½«à½Ħ":2521,"à¼¡à¼©à¼©à¼£":2522,"à½¼à¼įà¼įà¼Į":2523,"à¾·à¾±à½±":2524,"à½ĸà½¢à½¦":2525,"Ġà½ĩ":2526,"à¾¤à¾±à½¼à¼įà¼į":2527,"à¼¡à¼©à¼¨à¼¨":2528,"à¼¡à¼¢à¼©":2529,"à¿":2530,"à¾łà¼į":2531,"à½Ģà½ī":2532,"à½ıà½Ķ":2533,"à¼Ŀà¼į":2534,"à¼¡à¼¢à¼¥":2535,"à¾µà¾¨":2536,"à½¡à½Ĥà½¦":2537,"à¾²à½¼à½¾à¼ĭ":2538,"à½Ķà½Ĥà½Ħ":2539,"à¾°à¼ĭ":2540,"à¾¦à¾²à½¼":2541,"à½£à½ŀ":2542,"à¾Łà½¼à¼įà¼į":2543,"à¼Ģà½§":2544,"à½Ĳà½Ģà½¡":2545,"à½´à½´à¼ĭ":2546,"à¾¾à¾¾à¾¾à¾¾":2547,"à¼¡à¼¢à¼¢":2548,"à¾¨à½²à¼į":2549,"à½łà½ķà½ĺ":2550,"à½łà½Ľà½Ĥà½¦":2551,"à¼ĭà¼įà¼įà¼į":2552,"à¼¡à¼£à¼©":2553,"à½Ĥà½¦à½ĺ":2554,"à¾ľà½´à¼ĭ":2555,"à½Ģà½ı":2556,"à½ħà½ĺ":2557,"à¼¡à¼©à¼©à¼¥":2558,"à½²à¼ĭà¼ĳà¼į":2559,"à¼µà½²":2560,"à¾£à¾²à½¼":2561,"à¾¦à¾·à½ºà¼į":2562,"à¾¡à¾·à½²à¼į":2563,"à½¨à½ļ":2564,"à¼Ģà½¦":2565,"à¼¢à¼łà¼łà¼¢":2566,"à¾ļà½¾à¼ĭ":2567,"à¼¡à¼£à¼¥":2568,"à¼¢à¼łà¼łà¼¡":2569,"à¾¦à¾·à½¼à¼ĭ":2570,"à¾´à½²à¼ĭ":2571,"à½£à½¦à½ĸ":2572,"à½Ĥà½¦à½Ħà½¦":2573,"à¼¢à¼łà¼łà¼£":2574,"à¾·à¾²à½²à¼ĭ":2575,"à½łà½Ĥà½ĺ":2576,"à¾¥à½º":2577,"à¾¦à¾¦":2578,"à½Ĺà½ł":2579,"à¼ĭà½Īà¾±à½²à¼ĭ":2580,"à¾²à¾Ģà½¿à¼ĭ":2581,"à¾¡à¾²à¼į":2582,"à½¤à½ı":2583,"à¼µà½²à¼ĭ":2584,"à½ĸà½ª":2585,"à¼¢à¼łà¼łà¼¥":2586,"à½Ĥà½łà½¥":2587,"à¼¡à¼£à¼£":2588,"à½Ĵà½ĵà½¥":2589,"à¼łà¼łà¼łà¼łà¼ł":2590,"à½Ķà½Ĳà½ĺà½¦":2591,"à¼¡à¼©à¼©à¼§":2592,"à¾±à¼·à¼ĭ":2593,"à½ĺà½¦à½£":2594,"à¼Ħà¼ħà¼į":2595,"à¼¡à¼¤à¼¢":2596,"à½ĸà½¦à½¦":2597,"à¾·à½´à¼į":2598,"à¼£à¼łà¼¡":2599,"à½ķà½£à½Ĳ":2600,"à¾Łà¾Łà¼ĭ":2601,"à½¢à½ĸà½ı":2602,"à½ĸà½¤à½Ĥ":2603,"Ġà½ĺà½ļà½ĵ":2604,"à¾¨à¾±à¼ĭ":2605,"à½Ĥà½¦à½ł":2606,"à¼¡à¼¢à¼¡":2607,"à¼¡à¼©à¼§à¼©":2608,"à½Ĵà½£":2609,"à¼¡à¼£à¼¦":2610,"à¾±à¾Ĳà¾±à½º":2611,"à½Ĥà½Ħà½¡":2612,"à¾³à¾¡à½¼":2613,"à¾Ļà½ºà¼į":2614,"à¾±à½²à¼ĭà¼º":2615,"à½¢à½ĸà½¢":2616,"à½©à½İ":2617,"à½Łà½ķ":2618,"à¾Ĵà¾±à½´à¼Ķ":2619,"à¾³à½±à½²à¼ĭ":2620,"à½´à¼µ":2621,"Ġà½£à½ĺ":2622,"Ġà¼¢à¼ł":2623,"à½ķà½Łà½«":2624,"à¼¡à¼£à¼¤":2625,"à½ĸà½ĺà½¦":2626,"à½¨à½İà½ł":2627,"à¼¥à¼łà¼ł":2628,"à¾±à½»à¼Ķ":2629,"à¼¡à¼¥à¼©":2630,"à½¦à½Ł":2631,"à¼¡à¼£à¼§":2632,"à¾¤à¾±à½²à¼įà¼į":2633,"à¼¡à¼¥à¼¥":2634,"à½ºà¼ĭà½Īà¾±à½²":2635,"à¾£à½ºà¼į":2636,"à½¡à½Ľ":2637,"à¼¡à¼¤à¼¤":2638,"à½´à¼µà¼ĭ":2639,"à¼¡à¼¢à¼¤":2640,"à¼¡à¼¤à¼£":2641,"½³":2642,"à½³":2643,"à¼¡à¼¥à¼¤":2644,"à½ĺà½īà½ĺà½¦":2645,"à¼¡à¼£à¼¢":2646,"à½Ĥà½Ļà½Ĥ":2647,"à¼¡à¼£à¼¨":2648,"à½Ķà½Ĳ":2649,"à¼¡à¼©à¼©à¼¦":2650,"à½łà½£":2651,"à½¡à½Ħà½ĺ":2652,"à¼¢à¼łà¼łà¼§":2653,"à½¦à½Ģà½ĸà½¦":2654,"à½Ķà½ļ":2655,"à½Ĥà½¦à½Ķà½¦":2656,"à¾£à¼·":2657,"à½¼à¼ĭà½Īà¾±à½²":2658,"à¼¡à¼¤à¼©":2659,"à¼¡à¼©à¼¨à¼¦":2660,"à½ĸà½Ļà½ĺà½¦":2661,"à½Īà½º":2662,"à½Ħà½ĸà½¦":2663,"à¾Łà½´à¼įà¼įà¼įà¼į":2664,"à½łà½ĳà½£":2665,"à¾£à½±":2666,"à¼¡à¼£à¼¡":2667,"à½ĸà½ĳà½Ĥà½Ĥ":2668,"à½¢à½ĳà½Ħ":2669,"à¾²à½±à¾ĥà¼ĭ":2670,"à¾Ńà¼įà¼į":2671,"à½ķà½Ĥà½¦":2672,"à½ĳà½ĺà½ĳ":2673,"à½±à¾Ģà¼į":2674,"à¼¡à¼¤à¼§":2675,"à¼¡à¼¥à¼¦":2676,"à¼¡à¼¤à¼¥":2677,"à½£à½ĸà½ł":2678,"à¾³à½±à¾Ģà¼ĭ":2679,"à¾¨à½»":2680,"à¾ŀà½´à¼ĭ":2681,"à¾Ģà½¾à¼ĭ":2682,"à¼¡à¼¤à¼¡":2683,"à¼ĭà¾İà¼į":2684,"à½Ĵà½Łà½Ĳà½¥":2685,"à½ķà½ŀ":2686,"à¾²à½¿à¼į":2687,"à¼¡à¼¤à¼¦":2688,"à¾Łà½´à¼įà¼į":2689,"à½¦à½Ĳ":2690,"à¾«à½±à¼ĭ":2691,"à¾²à½±à½²à½¿à¼į":2692,"à¼ĭà¼ĭà¼į":2693,"à½ıà½ĸ":2694,"à¼¡à¼¥à¼£":2695,"à½Ĥà½«":2696,"à¼¡à¼§à¼£":2697,"à½£à½¦à½¦":2698,"à½©à½¦":2699,"à½£à½ķ":2700,"à½Ĥà½Ħà½ŀ":2701,"à½¦à½Ļ":2702,"à¼¢à¼łà¼łà¼¤":2703,"à¼¡à¼©à¼¥à¼¦":2704,"à¾²à¾²à½º":2705,"Ġà½ĳà½Ģ":2706,"à½ıà½Ģ":2707,"à½ĸà½ŀà½ĵ":2708,"à½Ķà½ª":2709,"à¾·à¾²à½±à½´à¾ĥà¼Ķ":2710,"à¼¢à¼¥à¼ł":2711,"à½ĳà½Ģà½ĵ":2712,"à½Ķà½ģ":2713,"à½ĳà½Ħà½Ķ":2714,"Ġà½Ķà½¦":2715,"à¼¡à¼©à¼©à¼¤":2716,"à¼¡à¼©à¼¨à¼£":2717,"à¾£à½²":2718,"à¼ĭà¼Ħà¼įà¼į":2719,"à½Įà½£":2720,"Ġà½Ĥà½ħ":2721,"à½ĵà½Ĩ":2722,"à½Ļà½£":2723,"à¾¦à¾±à½¼à¼ĭ":2724,"à¼įà¼ĭà¼ĭà¼ĭà¼ĭà¼ĭà¼ĭà¼ĭà¼ĭà¼ĭà¼ĭà¼ĭà¼ĭà¼ĭà¼ĭà¼ĭà¼ĭà¼ĭà¼ĭà¼ĭà¼ĭà¼ĭà¼ĭà¼ĭà¼ĭà¼ĭà¼ĭà¼ĭà¼ĭà¼ĭà¼ĭà¼ĭà¼ĭà¼ĭà¼ĭà¼ĭà¼ĭà¼ĭà¼ĭà¼ĭà¼ĭà¼ĭà¼ĭà¼ĭà¼ĭà¼ĭà¼ĭà¼ĭà¼ĭà¼ĭà¼ĭà¼ĭà¼ĭà¼ĭà¼ĭà¼ĭà¼ĭà¼ĭà¼ĭà¼ĭà¼ĭà¼ĭà¼ĭà¼ĭà¼ĭà¼ĭà¼ĭà¼ĭà¼ĭà¼ĭà¼ĭà¼ĭà¼ĭà¼ĭà¼ĭà¼ĭà¼ĭà¼ĭà¼ĭà¼ĭà¼ĭà¼ĭà¼ĭà¼ĭà¼ĭà¼ĭà¼ĭà¼ĭà¼ĭà¼ĭà¼ĭà¼ĭà¼ĭà¼ĭà¼ĭà¼ĭà¼ĭà¼ĭà¼ĭà¼ĭà¼ĭà¼ĭà¼ĭà¼ĭà¼ĭà¼ĭà¼ĭà¼ĭà¼ĭà¼ĭà¼ĭà¼ĭà¼ĭà¼ĭà¼ĭà¼ĭà¼ĭà¼ĭà¼ĭà¼ĭà¼ĭà¼ĭà¼ĭà¼ĭà¼ĭà¼ĭà¼ĭà¼ĭà¼ĭ":2725,"à¼¡à¼©à¼¨à¼¢":2726,"à¾Łà½¾":2727,"à¼¡à¼¥à¼§":2728,"à¼¡à¼¤à¼¨":2729,"à½ĺà½Ķà½ł":2730,"à¾²à¾Ĺà½º":2731,"à¾±à¾¡à½¼":2732,"à½©à½¢":2733,"à½ĺà½Ĩà½ĳ":2734,"à½¨à½¡":2735,"à½Łà½Ļà½¢":2736,"à¼¡à¼¥à¼¨":2737,"à¾ķà½²à¼į":2738,"à¼¡à¼¦à¼¨":2739,"à½ĵà½łà½ĳ":2740,"à½ĺà½¦à½¢":2741,"à¼¡à¼©à¼¤à¼©":2742,"à¾·à½¿à¼ĭ":2743,"à½²à½¾à¼į":2744,"à¼½à¼į":2745,"à¼¡à¼¦à¼§":2746,"à¾¨à¼įà¼į":2747,"à½ĵà½¡à½Ħ":2748,"à¾·à¾²à½´à½¾à¼ĭ":2749,"à¼¡à¼¦à¼£":2750,"à¾Łà¾²":2751,"à¾ºà½±à¼ĭ":2752,"à½©à½¡":2753,"à½ĳà½Ĥà½ĵ":2754,"à¼¡à¼©à¼£":2755,"à¾Ĵà½²":2756,"à¼¡à¼§à¼¥":2757,"à¼¡à¼©à¼¨à¼¤":2758,"à½¨à½§":2759,"à¾¤à¼į":2760,"à½Īà½²à¼ĭ":2761,"à½ĸà½Ĥà½Ħ":2762,"ĠĠĠĠĠĠĠĠĠĠĠĠĠĠĠĠ":2763,"à¾Ĵà½²à¼ĭ":2764,"à½ĳà½Ĥà½łà½¦":2765,"à¾·à¾²à½¾à¼ĭ":2766,"à¾·à¾²à½²":2767,"Ġà½Ĥà½¡":2768,"à¾±à½²à¼ĭà½Īà½¼":2769,"à¼¡à¼©à¼¤":2770,"à½Ħà½ĳà½Ħ":2771,"à¾ķà¼ĭ":2772,"à¼¡à¼§à¼¢":2773,"à½©à½ı":2774,"à½Ĺà½ģà½Ł":2775,"à¼ĭà½¾à¼ĭ":2776,"à½Ĥà½īà½Ĥ":2777,"à½Ĥà½£à½ı":2778,"à¼ĭà¾©à½¼":2779,"à¾Łà¾±à¼ĭ":2780,"à½½à½¾à¼ĭ":2781,"à½ģà½łà½ĺ":2782,"à¼¡à¼©à¼©à¼¨":2783,"à¾µà¼Ķ":2784,"à½Ļà½¦":2785,"à¼¡à¼¦à¼¦":2786,"à½²à¼ĭà½Īà½¼":2787,"à½ºà¼ĭà¼º":2788,"à½ĳà½Ħà½ĺ":2789,"à¾«à½²à¼į":2790,"Ġà½ĺà½Ĳ":2791,"à½ĸà½ĳà½ĺ":2792,"à¾²à¾±à½º":2793,"à¾Łà¾¡à½ºà¼į":2794,"à½ĵà½¤":2795,"à¾łà½²":2796,"à½Ĵà½ħ":2797,"Ġà½ĺà½Ĥ":2798,"à½İà½ĺ":2799,"à¾·à½²à½¿à¼ĭ":2800,"à½¢à½Ħà½Ĥ":2801,"à¾Ĵà¾±à½ºà¼ĭ":2802,"à¼¡à¼¦à¼¤":2803,"à½¦à½ĺà½¦":2804,"à½Ķà½ĸà½¢":2805,"à¼¡à¼§à¼¤":2806,"à½¢à½¡":2807,"Ġà½ĸà½ł":2808,"à½łà½ł":2809,"à½¼à¼įà¼įà¼Ī":2810,"à½Ĵà½Ĺ":2811,"à¾Ħà¼Ķ":2812,"à¼¡à¼¥à¼¢":2813,"à¾´à½ºà¼ĭ":2814,"à½Ĥà½¦à½ĳà½Ħ":2815,"à½Ķà½¢à½ĸà½¦":2816,"à¼¡à¼¦à¼©":2817,"à½¡à½ģ":2818,"à¾¨à¾¨à½±à¼ĭ":2819,"à½Ĥà½¡à½ĸà½¦":2820,"à¼¡à¼§à¼©":2821,"à½±à½´à¾Ĥà¼ĭ":2822,"à¾±à¾¤à¾±à½²":2823,"à¾·à½¼à¼įà¼į":2824,"à¼¢à¼łà¼¡à¼§":2825,"à¼¡à¼¦à¼¡":2826,"à¼¡à¼¦à¼¢":2827,"à½łà½ĸà½ĵ":2828,"à¼Ŀà¼įà¼į":2829,"à½Ķà½Ĥà½ī":2830,"Ġà½ĸà½¦à½ĺ":2831,"à¾²à½±à½¾à¼į":2832,"à¼¡à¼§à¼¨":2833,"à¼¡à¼¦à¼¥":2834,"à¾Ĵà¾±à¼ĭà¼Ħà¼ħà¼įà¼į":2835,"à½¦à½łà½Ħ":2836,"à½¡à½Ķ":2837,"à½ĳà½ĸà½Ħà½¦":2838,"à¾£à½¼à¼įà¼į":2839,"à¾Ĳà¾²à¾Ģ":2840,"à½¦à½ģ":2841,"à½¡à½Ħà½¢":2842,"à½Ĺà½ĵà½Ł":2843,"à½±à½´à½¾à¼Ķ":2844,"à¼¡à¼§à¼§":2845,"à½Ĥà½ĵà½¦à½¦":2846,"à½¦à½ª":2847,"à¾Łà¾¡à½º":2848,"à½ĸà½Ĩ":2849,"à¾±à½²à½²":2850,"à½łà½ĳà½ĺà½¦":2851,"à¾¨à¾²à½º":2852,"à¼¡à¼¥à¼¡":2853,"à¾µà¾±à¼ĭ":2854,"à¼ĭà¼Į":2855,"à½ĳà½Ħà½ĵ":2856,"à¼¡à¼łà¼łà¼ł":2857,"à¾²à¼·":2858,"à¼¡à¼§à¼¦":2859,"à½±à½¾":2860,"à¼¡à¼©à¼¢":2861,"à½ĸà½ĸà½ĸà½ĸà½ĸà½ĸà½ĸà½ĸ":2862,"à¼ŀà¼į":2863,"à¼ĭà¼ĭà¼ĭà¼ĭà¼ĭà¼ĭà¼ĭà¼ĭà¼ĭà¼ĭ":2864,"à½¼à¼įà¼ĭ":2865,"à½ĳà½Ĩà½Ĥà½¦":2866,"à¾Ķà½º":2867,"à¾³à¾±à½¼":2868,"à½ĳà½Ĩ":2869,"à¾Łà¾²à½º":2870,"à½Ĵà½Ģ":2871,"à¾¶à½±à¼ĭ":2872,"à¼¡à¼§à¼¡":2873,"à½ĺà½ĵà½ĸ":2874,"à½Ĥà½ıà½Ĥà½¦":2875,"à½ºà¼ĭà¼¸":2876,"à¼¡à¼¨à¼¥":2877,"à½Ļà½ı":2878,"à½¦à½Ĳà½ĺà½¦":2879,"à½Ģà½ĸ":2880,"à¾³à¾³à¼ĭ":2881,"à¾¨à¾²à½²à¼ĭ":2882,"Ġà½ĺà½ļ":2883,"à½¢à½ĸà½Ģ":2884,"à½²à¼µ":2885,"à½ºà½¾à¼į":2886,"à¼¢à¼£à¼ł":2887,"à½ĵà½ķ":2888,"Ġà½Ĳà½ĺ":2889,"à½ģà½ģ":2890,"à¼¢à¼¡à¼ł":2891,"à¼¢à¼¢à¼ł":2892,"à½Ĥà½Ģ":2893,"à½¥à½¦":2894,"Ġà¼£à¼ł":2895,"à¼ĭà¾¨":2896,"à½ĥà½ĵ":2897,"à¼ĭà¼Ħà¼ħà¼į":2898,"à½ķà½İ":2899,"Ġà½łà½ķ":2900,"à½Ķà½¢à½łà½ĸ":2901,"à½Ĭà½£":2902,"à¾µà½²à½¾à¼ĭ":2903,"à½Ĥà½¥à½¢":2904,"Ġà½ĸà½Ģ":2905,"à½Ľà½ĳ":2906,"à½Ĥà½¥à½Ħ":2907,"à¼ĭà¼ĭà¼ĭà¼ĭà¼ĭà¼ĭà¼ĭà¼ĭà¼ĭ":2908,"à¾³à¼·à¼ĭ":2909,"à½ĸà½§":2910,"à½£à½łà½ĸ":2911,"Ġà½Ŀ":2912,"Ġà½Łà½ĸ":2913,"à¾·à¼ĭà½µ":2914,"Ġà½ħà½ĵ":2915,"à¾Ĳà¾±à½ºà¼Ķ":2916,"à½ĩà½ĺ":2917,"à½Ģà½¥":2918,"à¼ĭà¼·":2919,"à¼¢à¼¢à¼¤":2920,"à¾¦à½±à½²à¼ĭ":2921,"à½¦à½łà½ĳ":2922,"à½ĸà½¦à½Ģ":2923,"à¼Īà¼Ī":2924,"à½¦à½Ĩ":2925,"à¼¡à¼¨à¼©":2926,"Ġà½ŀà½Ħ":2927,"à¾±à¾Ń":2928,"à½Łà½Ķ":2929,"à¾¡à½´à¼Ķ":2930,"à¾ľà¾ľ":2931,"à½Ĵà½ĺ":2932,"à¼¡à¼¨à¼¦":2933,"à¼¡à¼©à¼¡":2934,"à½¦à½ķ":2935,"à½¢à½¤":2936,"ģà¾ĥà¼Ķ":2937,"à½¥à½ı":2938,"à¼ĭà¼ĭà¼ĭà¼ĭà¼ĭà¼ĭà¼ĭà¼ĭà¼ĭà¼ĭà¼ĭ":2939,"à½²à¼ĭà½´":2940,"à¼¡à¼¨à¼¢":2941,"à½Ŀà½Ģ":2942,"à¾³à¾³à½¼à¼ĭ":2943,"à¼¡à¼¨à¼§":2944,"à¼¡à¼¨à¼¤":2945,"à½ģà½Ĭ":2946,"à½¼à¼ĭà¼º":2947,"à½»à½¿à¼įà¼į":2948,"à¼¢à¼¤à¼ł":2949,"à½ĳà½Ĥà½Ĥà½¡":2950,"à½ĸà½ıà½ĳ":2951,"à½ĸà½¢à½ĺà½¦":2952,"à½¦à½ĸà½¢":2953,"à¾²à¾¡à½¼":2954,"à¾Ĳà½¼à¼į":2955,"à¾²à¼ĭà½³":2956,"à¼ĭà¼įà¼ĭà¼ĭà¼ĭà¼ĭà¼ĭ":2957,"à¼¡à¼¨à¼¨":2958,"à½ºà¼µ":2959,"à½£à½¦à½Ģ":2960,"Ġĉĉ":2961,"Ġà¼ĭà¼ĭà¼ĭà¼ĭà¼ĭà¼ĭà¼ĭà¼ĭà¼ĭà¼ĭà¼ĭà¼ĭà¼ĭà¼ĭà¼ĭà¼ĭà¼ĭà¼ĭà¼ĭà¼ĭà¼ĭà¼ĭà¼ĭà¼ĭà¼ĭà¼ĭà¼ĭà¼ĭà¼ĭà¼ĭà¼ĭà¼ĭà¼ĭà¼ĭà¼ĭà¼ĭà¼ĭà¼ĭà¼ĭà¼ĭà¼ĭà¼ĭà¼ĭà¼ĭà¼ĭà¼ĭà¼ĭà¼ĭà¼ĭà¼ĭà¼ĭà¼ĭà¼ĭà¼ĭà¼ĭà¼ĭà¼ĭà¼ĭà¼ĭà¼ĭà¼ĭà¼ĭà¼ĭà¼ĭà¼ĭà¼ĭà¼ĭà¼ĭà¼ĭà¼ĭà¼ĭà¼ĭà¼ĭà¼ĭà¼ĭà¼ĭà¼ĭà¼ĭà¼ĭà¼ĭà¼ĭà¼ĭà¼ĭà¼ĭà¼ĭà¼ĭà¼ĭà¼ĭà¼ĭà¼ĭà¼ĭà¼ĭà¼ĭà¼ĭà¼ĭà¼ĭ":2962,"à¼ĭà¼įà¼įà¼įà¼į":2963,"à¼¡à¼©à¼¨à¼¡":2964,"à¾¤à¾±à¼ĭ":2965,"à½ĸà½łà½ĳ":2966,"à¾¡à½²à¼į":2967,"à¼µà½º":2968,"à½¼à¼ĭà½¼":2969,"à½²à¼ĭà½¼à¼ĭà½ºà¼ĭ":2970,"à¼ĭà¼½à¼į":2971,"à½¼à¼įà¼įà¼Ħà¼ħà¼įà¼į":2972,"à¾¡à¼Ķ":2973,"à½Ĥà½ķ":2974,"à¾£à¼įà¼į":2975,"à½Ķà½Ĭ":2976,"à¼¢à¼¡à¼¢":2977,"à¼¡à¼¨à¼£":2978,"à¾Ĳà¾²à¼į":2979,"à¼¢à¼łà¼©":2980,"à½£à½ĳà½Ħ":2981,"à¼ĭà¼ĭà¼ĭà¼ĭà¼ĭà¼ĭà¼ĭà¼ĭà¼ĭà¼ĭà¼ĭà¼ĭà¼ĭ":2982,"à½£à½¤":2983,"à¾Ńà½¿à¼į":2984,"à½Ĺà½Ľ":2985,"à¾µà½¾à¼ĭ":2986,"à¼¢à¼łà¼¥":2987,"à¼įà¼ĭà¼ĭà¼ĭà¼ĭà¼ĭà¼ĭà¼ĭà¼ĭà¼ĭà¼ĭà¼ĭà¼ĭà¼ĭà¼ĭà¼ĭà¼ĭà¼ĭà¼ĭà¼ĭà¼ĭà¼ĭà¼ĭà¼ĭà¼ĭà¼ĭà¼ĭà¼ĭà¼ĭà¼ĭà¼ĭà¼ĭà¼ĭà¼ĭà¼ĭà¼ĭà¼ĭà¼ĭà¼ĭà¼ĭà¼ĭà¼ĭà¼ĭà¼ĭà¼ĭà¼ĭà¼ĭà¼ĭà¼ĭà¼ĭà¼ĭà¼ĭà¼ĭà¼ĭà¼ĭà¼ĭà¼ĭà¼ĭà¼ĭà¼ĭà¼ĭà¼ĭà¼ĭà¼ĭà¼ĭà¼ĭà¼ĭà¼ĭà¼ĭà¼ĭà¼ĭà¼ĭà¼ĭà¼ĭà¼ĭà¼ĭà¼ĭà¼ĭà¼ĭà¼ĭà¼ĭà¼ĭà¼ĭà¼ĭà¼ĭà¼ĭà¼ĭà¼ĭà¼ĭà¼ĭà¼ĭà¼ĭà¼ĭà¼ĭà¼ĭà¼ĭà¼ĭ":2988,"à½¢à½łà½ĺ":2989,"à¼¢à¼łà¼¦":2990,"à½ĳà½Ķà½łà½¦":2991,"à¾¦à¼įà¼į":2992,"à¾ķà½ºà¼įà¼į":2993,"Ġà½ĺà½ģà½ł":2994,"à¼įà¼ĭà¼ĭà¼ĭà¼ĭà¼ĭà¼ĭà¼ĭà¼ĭà¼ĭà¼ĭà¼ĭà¼ĭà¼ĭà¼ĭà¼ĭà¼ĭà¼ĭà¼ĭà¼ĭà¼ĭà¼ĭà¼ĭà¼ĭà¼ĭà¼ĭà¼ĭà¼ĭà¼ĭà¼ĭà¼ĭà¼ĭà¼ĭ":2995,"à½łà½Ĥà½Ħ":2996,"à½Ĥà½ļ":2997,"à½±à½¼à¼ĭ":2998,"Ġà½ĳà½Ĥà½ł":2999,"à¼¢à¼¡à¼¤":3000,"Ġà¼łà¼ł":3001,"à¾¤à½¾à¼ĭ":3002,"à½Ħà½łà½ĺ":3003,"à½¾à¼ĭà¼½":3004,"à¾¤à¾²à¾Ģà¼ĭ":3005,"à¼Ģà½¢":3006,"à¼ĭà¾Ĵ":3007,"à¾±à¾¦à¾·à½±à½²":3008,"à½Ĥà½Łà½Ĥà½¦":3009,"à½Ĳà½Ĥà½Ł":3010,"à¼¢à¼łà¼¡":3011,"à½¢à½łà½ĳ":3012,"à¼įà¼įà¼Į":3013,"à½Ģà½Į":3014,"à½ĸà½Ļà½ĺ":3015,"à¾¨à¾¨":3016,"à½ºà¼įà¼įà¼į":3017,"à¾ĳà¼ĭ":3018,"à½£à½łà½ĳ":3019,"à½ĵà½¦à½¢":3020,"à¾Łà½²à¼įà¼į":3021,"à¼¡à¼¨à¼¡":3022,"Ġà¼¢à¼©":3023,"à½¼à¼ĭà¼Ī":3024,"à¼¡à¼©à¼¥à¼¤":3025,"à¼įà¼ĭà¼į":3026,"Ġà¼¢à¼¥":3027,"à½¢à½Ķà½ł":3028,"à¼¢à¼łà¼¤":3029,"à¼¢à¼£à¼©":3030,"à¼įà¼ĭà¼ĭà¼ĭà¼ĭà¼ĭà¼ĭà¼ĭà¼ĭà¼ĭà¼ĭà¼ĭà¼ĭà¼ĭà¼ĭà¼ĭà¼ĭà¼ĭà¼ĭà¼ĭà¼ĭà¼ĭà¼ĭà¼ĭà¼ĭà¼ĭà¼ĭà¼ĭà¼ĭà¼ĭà¼ĭà¼ĭà¼ĭà¼ĭà¼ĭà¼ĭà¼ĭà¼ĭà¼ĭà¼ĭà¼ĭà¼ĭà¼ĭà¼ĭà¼ĭà¼ĭà¼ĭà¼ĭà¼ĭà¼ĭà¼ĭà¼ĭà¼ĭà¼ĭà¼ĭà¼ĭà¼ĭà¼ĭà¼ĭà¼ĭà¼ĭà¼ĭà¼ĭà¼ĭà¼ĭà¼ĭà¼ĭà¼ĭà¼ĭà¼ĭà¼ĭà¼ĭà¼ĭà¼ĭà¼ĭà¼ĭà¼ĭà¼ĭà¼ĭà¼ĭà¼ĭà¼ĭà¼ĭà¼ĭà¼ĭà¼ĭà¼ĭà¼ĭà¼ĭà¼ĭà¼ĭà¼ĭà¼ĭà¼ĭà¼ĭà¼ĭà¼ĭà¼ĭà¼ĭà¼ĭà¼ĭà¼ĭà¼ĭà¼ĭà¼ĭà¼ĭà¼ĭà¼ĭà¼ĭà¼ĭà¼ĭà¼ĭà¼ĭ":3031,"à½Ĥà½ĵà½¦à½Ķ":3032,"à¼ĭà½Īà¾¡à½º":3033,"à½Ĥà½¡à½£":3034,"à¼¢à¼£à¼¤":3035,"à½Ĥà½ŀà½ĵà½Ĥ":3036,"à¾¦à¾±à¾±à½²":3037,"à¼¢à¼£à¼¥":3038,"à¼¢à¼łà¼¢":3039,"à¼¢à¼łà¼§":3040,"à¼ĭà¾Ĺà½¼":3041,"à½ĸà½¢à½ĳ":3042,"à¼ĭà¾¢à¼į":3043,"à½Ķà½Ļ":3044,"à¼¢à¼łà¼¨":3045,"Ġà½Ķà½ĳ":3046,"Ġà½¡à½¦":3047,"à½Ĺà½Ŀ":3048,"à¾Ĳà¾¡à½¼":3049,"à¼¢à¼¡à¼£":3050,"à½²à¼ĭà¾İ":3051,"à¾²à½ºà¼ĭà½Īà½²":3052,"à¼¢à¼łà¼£":3053,"à¾ļà½ºà¼ĭ":3054,"Ġà¼Įà¼Įà¼Įà¼Įà¼Įà¼Įà¼Įà¼Įà¼Įà¼Įà¼Įà¼Įà¼Įà¼Įà¼Įà¼Įà¼Įà¼Įà¼Įà¼Įà¼Įà¼Įà¼Įà¼Įà¼Įà¼Įà¼Įà¼Įà¼Įà¼Įà¼Įà¼Įà¼Į":3055,"à¾Ĳà¾±à¾±à½º":3056,"à¾Ĳà¾Ĺà½º":3057,"à½Łà½łà½ĺ":3058,"Ġà½ĸà½Ł":3059,"à½Īà½ºà¼ĭ":3060,"à¼¢à¼¢à¼¢":3061,"à½ĵà½ıà½ĵ":3062,"à½²à¼ĭà½²à¼ĭ":3063,"à½´à½¿à¼įà¼į":3064,"à¾Łà¾Ńà½±à¼ĭ":3065,"à½ĺà½¦à½ĺ":3066,"à¼¢à¼¢à¼§":3067,"à½¦à½Ģà½ĳ":3068,"Ġà½¦à½¢":3069,"à¼¢à¼¡à¼¥":3070,"à¼įà¼ĭà¼ĭà¼ĭà¼ĭ":3071,"à½ĸà½ĸà½ŀ":3072,"à¾Īà¾Īà¾Īà¾Īà¾Īà¾Īà¾Īà¾Ī":3073,"à½Ķà½İà½Į":3074,"à¾Łà¾Łà½²à¼ĭ":3075,"à½¼à½¿à¼įà¼į":3076,"à¾¦à¾·à¼į":3077,"à½ĺà½ĸà½¦":3078,"à½ĵà½ģ":3079,"à½ĸà½¢à½ĺ":3080,"à¼¤à¼łà¼ł":3081,"à½£à½¦à½łà½ĳà½¦":3082,"à¼¢à¼¡à¼©":3083,"à¼¢à¼¡à¼¦":3084,"à¼ĭà½Īà¾²à½ºà¼ĭ":3085,"à½łà½Ķ":3086,"à½£à½Ĥà½ĵà½¦":3087,"à¾ļà¾²à¾Ģà½¿à¼ĭ":3088,"à½²à½¾":3089,"à½¢à½łà½Ĥ":3090,"à¾Łà¼·":3091,"à½ıà½ķà½¥":3092,"Ġà½ĳà½Ģà½¢":3093,"à¼¢à¼¢à¼¥":3094,"à½Ħà½ģ":3095,"Ġà¼įà¼ĭ":3096,"à¾£à¾²à½º":3097,"à¾·à½¾à¼įà¼įà¼įà¼į":3098,"à¼¢à¼£à¼¨":3099,"à¾µà½±":3100,"à¾Ĵà¾²à½¼à¼įà¼į":3101,"à¾¡à¾·à½±":3102,"à¾£à½¾à¼ĭ":3103,"à¼¢à¼£à¼¦":3104,"à¾¦à¾¡à½¼":3105,"à½ħà½ĵà½Ĥ":3106,"à½Ĥà½ħà½Ĥ":3107,"Ġà¼¢à¼¦":3108,"à½Ħà½ĵà½¦":3109,"à¾Ńà½¿à¼ĭ":3110,"à¼¢à¼¢à¼¡":3111,"à¼¢à¼¢à¼©":3112,"à¾ŀà½ºà¼ĭ":3113,"à¼¢à¼¢à¼¦":3114,"Ġà¼įà¼įà¼į":3115,"à¼¢à¼£à¼£":3116,"à¾¶à½´à¼ĭ":3117,"à¼¡à¼©à¼¦à¼£":3118,"à½ĸà½Ĥà½Ĥà½¦":3119,"à¼Ģà½¤":3120,"à½¨à½¤":3121,"à½Ķà½¢à½łà½ĳ":3122,"à¾·à½²à¼įà¼į":3123,"à½ĳà½ĸà½Ħà½Ķ":3124,"Ġà½ĺà½ģà½¦":3125,"à½Ħà½¡":3126,"à½£à½Ĩ":3127,"à½¥à½İ":3128,"à½ĸà½£à½¦":3129,"à½¼à¼µà¼ĭ":3130,"à¾·à¾²à½±à¼ĭ":3131,"à½ĸà½¦à½ĺà½Ĥà½ıà½ĵ":3132,"Ġà½ļà½ĳ":3133,"Ġà¼¢à¼¤":3134,"à¾Łà½±à½¾à¼į":3135,"à¼¢à¼¡à¼¡":3136,"à½¿à¼įà¼Įà¼Įà¼Į":3137,"à¾Łà¾±":3138,"à½´à½´":3139,"à¼¢à¼§à¼ł":3140,"à½¨à½Ľ":3141,"à¼¢à¼¡à¼§":3142,"à¼¢à¼¢à¼¨":3143,"à¼¢à¼£à¼§":3144,"à½ĸà½¡à½Ħ":3145,"à¾±à½ºà¼ĭà½Īà½²":3146,"à¾³à¾³":3147,"à½ħà½ĳà½Ģ":3148,"à¾Ĵà¾±à½²à¼ĭ":3149,"à¾©à½´à¼ĭ":3150,"à½ĺà½¦à½ĵ":3151,"à¾Ńà½ºà¼į":3152,"à½īà½ĳ":3153,"à½²à¼ĭà¼Ī":3154,"à½ºà¼ĭà½¼":3155,"à½ĳà½Ħà½łà½ĳ":3156,"à½łà½ķà½£":3157,"à¼¡à¼©à¼§à¼ł":3158,"à½ĵà½ĳà½ĺ":3159,"à½±à¾Ģ":3160,"à¼¢à¼£à¼¢":3161,"à¼¢à¼¦à¼ł":3162,"à¾Ĵà¾²à¼Ķ":3163,"à½¼à¼ĭà¼¸":3164,"à½ĸà½¢à½¢":3165,"à¾¦à½±":3166,"à½Ķà½¦à½ĳ":3167,"à½Ĥà½«à½¥":3168,"à½ĵà½łà½Ĥ":3169,"à¼¢à¼¤à¼©":3170,"Ġà½Ĳà½ĺà½¦":3171,"à½ĳà½Ĥà½Ķ":3172,"à¾²à½±à¾Ģ":3173,"à¾Ľà½²":3174,"à¼ĭà¾²":3175,"à¾¡à¾²à½±à¼ĭ":3176,"à¾¦à¾·à½´à¼ĭ":3177,"à½±à½²à½¿à¼į":3178,"à½Ŀà½ı":3179,"à¾¥à½²à¼ĭ":3180,"à½Ĵà½¢à½¥":3181,"à¼¢à¼¡à¼¨":3182,"à½Ķà½¦à½ĵ":3183,"à¼¢à¼¢à¼£":3184,"à¾·à½¿à¼į":3185,"à¼¢à¼łà¼¡à¼¨":3186,"à½²à¼ĭà½Īà½²à¼ĭ":3187,"à½Ĵà½Ĥà½¦":3188,"à¾Ħà¼·à¼ĭ":3189,"à¾±à¼·":3190,"à¾Ĳà½¼à¼įà¼į":3191,"à¾¤à½´à¼į":3192,"à¼¢à¼£à¼¡":3193,"à¼ĭà¾²à½²":3194,"à½±à¼įà¼įà¼įà¼į":3195,"à½ĸà½Ĳ":3196,"à¾Īà¾Īà¾Ī":3197,"à½ºà¼µà¼ĭ":3198,"à½Įà½ĵ":3199,"à¼¢à¼¤à¼£":3200,"à½ĵà½łà½ĸ":3201,"à¾ļà½±à½¾à¼į":3202,"à½Ĩà½Ĥà½¥":3203,"à¼µà½ºà¼ĭ":3204,"à¼¡à¼©à¼§à¼¤":3205,"à¾ļà½²à¼į":3206,"à¼¢à¼¤à¼¥":3207,"à½Ĺà½Ĵ":3208,"à½Ĺà½Ĥà½ł":3209,"à½«à½¡":3210,"à½Ķà½łà½ĸ":3211,"à¼¢à¼§à¼©":3212,"à¼Ķà¼ĭ":3213,"Ġà½¡à½ĵ":3214,"à¼¢à¼¥à¼¤":3215,"à¾ĭà½ŀà½ĸà½¦":3216,"à½±à½´à½¾":3217,"Ġà½ĵà½ĺ":3218,"à¼¢à¼¤à¼§":3219,"à¾ļà½¿à¼ĭ":3220,"à½Ģà½«à½¥":3221,"à½ĳà½Ħà½ĳ":3222,"à½ĸà½ĳà½ĵ":3223,"à¾Ĳà½±":3224,"à½¦à½łà½ĸ":3225,"à¼¡à¼¢à¼¨à¼§":3226,"à¼¢à¼¥à¼¦":3227,"à¼¢à¼§à¼£":3228,"à½¢à½¡à½Ħ":3229,"à½ģà½Ħà½¦":3230,"à¾ļà½±à½¾à¼ĭ":3231,"à½Ĵà½ķ":3232,"à½Ĵà½§":3233,"à¼¢à¼§à¼§":3234,"à½²à¼ĭà½Īà¾±à½º":3235,"à¾Ļà½±à¼į":3236,"à¼µà½¼à¼ĭ":3237,"Ġà¼ĭà¼ĭà¼ĭà¼ĭà¼ĭà¼ĭà¼ĭà¼ĭà¼ĭà¼ĭ":3238,"à¼ĭà¾£":3239,"à¾Łà¾²à½ºà¼ĭ":3240,"à¼¢à¼łà¼¡à¼©":3241,"à½ĵà½ĺà½ĺà½ģà½ł":3242,"à½ħà½ĳà½ĺ":3243,"Ġà½ĸà½Ĥ":3244,"à½ĵà½ĸà½¢":3245,"à¾¤à½²":3246,"à¾¡à¾·à¾±à¼ĭ":3247,"à¼¢à¼¦à¼£":3248,"à¼¡à¼©à¼§à¼¨":3249,"Ġà½ģà½ĺà½¦":3250,"à¾Ńà½¾à¼Ķ":3251,"à½Ķà½¢à½£":3252,"à¾³à½ºà¼į":3253,"à¼ĭà¾Ĺà½º":3254,"à½ĺà½Ļ":3255,"à¼¢à¼¤à¼¤":3256,"à½ģà½Į":3257,"à½Łà½Ĩ":3258,"à¼¢à¼¨à¼ł":3259,"à½Ĥà½łà½ĳ":3260,"à¾±à½ºà¼ĭà¼ĳ":3261,"à¼¡à¼©à¼¦à¼¢":3262,"à¼¢à¼§à¼¤":3263,"à½ĸà½¥":3264,"à¾·à¾²à½±à½´":3265,"à¼¢à¼¤à¼¨":3266,"à½ĺà½¦à½Ķ":3267,"à¾ŀà½¾à¼ĭ":3268,"à¼Ģà½Ĥ":3269,"à½¢à½ĸà½łà½ĸ":3270,"à½łà½ĳà½¦à½Ģ":3271,"à¼¢à¼¦à¼¤":3272,"à¼¡à¼©à¼¦à¼¦":3273,"à½ħà½ĵà½¢":3274,"à¼¢à¼¥à¼©":3275,"Ġà½Ĥà½ĳ":3276,"à½¥à½ĵ":3277,"à½Ļà½ª":3278,"à½£à½ļ":3279,"à¼¢à¼¤à¼¦":3280,"à¼łà¼łà¼łà¼łà¼łà¼ł":3281,"à¼¢à¼¥à¼£":3282,"Ġà½ĺà½ģà½ĵ":3283,"à¼¡à¼©à¼¥à¼¥":3284,"à½Ģà½Ĳ":3285,"à¼¢à¼¥à¼¢":3286,"à¼¢à¼§à¼¥":3287,"à½ļà½ĺà½¦":3288,"à¼įà¼ĭà¼ĭà¼ĭà¼ĭà¼ĭà¼ĭà¼ĭ":3289,"à½łà½ķà½ĳ":3290,"à¼¡à¼©à¼§à¼¦":3291,"à¾Łà¾²à¼į":3292,"à¼¢à¼¥à¼§":3293,"à¼¢à¼¦à¼¦":3294,"à¼¡à¼©à¼¥à¼§":3295,"à½±à½¼à¼įà¼į":3296,"à¼¢à¼¥à¼¨":3297,"à¾¡à¾·à½´":3298,"Ġà½ĺà½ĵ":3299,"à½Ĩà½ĺà½¦":3300,"à½Ķà½¦à½¢":3301,"à½±à¼ĭà¼ĳ":3302,"à½ĭà½Ģ":3303,"à½´à¼įà¼įà¼įà¼į":3304,"à¼¢à¼¥à¼¥":3305,"à¼¢à¼§à¼¨":3306,"à¼¡à¼©à¼¦à¼©":3307,"Ġà¼ĭà¼ĭà¼ĭà¼ĭà¼ĭà¼ĭà¼ĭà¼ĭà¼ĭ":3308,"à½łà½ĳà½ĳ":3309,"à¾±à¼ĭà¼Ħà¼ħà¼įà¼į":3310,"à¼¡à¼©à¼¦à¼¡":3311,"à½ĳà½Ĥà½Ģ":3312,"à¼łà¼¤":3313,"à¾¨à½¿à¼į":3314,"à¾Ļà½²à¼į":3315,"à½¼à½¾à¼įà¼į":3316,"à½ĵà½ĳà½Ĥ":3317,"à¼ĭà½Īà¾±à½ºà¼ĭ":3318,"à½¥à½¥":3319,"à½©à½§":3320,"à¼¢à¼¦à¼¥":3321,"à½¦à½ĳà½Ĥ":3322,"à¼¢à¼¤à¼¢":3323,"à¾µà½²à¼į":3324,"à¼¢à¼¦à¼¢":3325,"à¾ħà¾ħ":3326,"Ġà¼ĭà¼ĭà¼ĭà¼ĭà¼ĭà¼ĭà¼ĭà¼ĭà¼ĭà¼ĭà¼ĭà¼ĭà¼ĭà¼ĭà¼ĭà¼ĭà¼ĭà¼ĭà¼ĭà¼ĭà¼ĭà¼ĭà¼ĭà¼ĭà¼ĭà¼ĭà¼ĭà¼ĭà¼ĭà¼ĭà¼ĭà¼ĭà¼ĭà¼ĭà¼ĭà¼ĭà¼ĭà¼ĭà¼ĭà¼ĭà¼ĭà¼ĭà¼ĭà¼ĭà¼ĭà¼ĭà¼ĭà¼ĭà¼ĭà¼ĭà¼ĭà¼ĭà¼ĭà¼ĭà¼ĭà¼ĭà¼ĭà¼ĭà¼ĭà¼ĭà¼ĭà¼ĭà¼ĭà¼ĭà¼ĭà¼ĭà¼ĭà¼ĭà¼ĭà¼ĭà¼ĭà¼ĭà¼ĭà¼ĭà¼ĭà¼ĭà¼ĭà¼ĭà¼ĭà¼ĭà¼ĭà¼ĭà¼ĭà¼ĭà¼ĭà¼ĭà¼ĭà¼ĭà¼ĭà¼ĭà¼ĭà¼ĭà¼ĭà¼ĭà¼ĭà¼ĭà¼ĭà¼ĭà¼ĭà¼ĭà¼ĭà¼ĭà¼ĭà¼ĭà¼ĭà¼ĭà¼ĭà¼ĭà¼ĭà¼ĭà¼ĭà¼ĭ":3327,"à¾¼à¾Ģà¼ĭ":3328,"à½¤à½ĺà½¦":3329,"à¾Łà½¼à¼į":3330,"à¼¢à¼§à¼¢":3331,"à¾·à½¾à¼įà¼į":3332,"à¼¢à¼©à¼ł":3333,"à¾Ĵà¾±à¼·à¼ĭ":3334,"à½´à¼įà¼½":3335,"à¼¢à¼¦à¼©":3336,"Ġà½ĸà½¤à½ĳ":3337,"à½ĳà½ķ":3338,"à½ĳà½Ĥà½Ķà½ł":3339,"à¾µà½±à½²à¼ĭ":3340,"à½Ĳà½Ķ":3341,"à½¦à½§":3342,"à¼¢à¼¦à¼§":3343,"à½ģà½Ģ":3344,"à¾·à¾±à¼į":3345,"à½Ľà½Ģ":3346,"à¼¡à¼©à¼¥à¼¢":3347,"à½£à½łà½ģ":3348,"à¾ŀà½¾":3349,"à½ĸà½İ":3350,"à¾¨à½¿à¼ĭ":3351,"à½Įà½Ģ":3352,"à¼¢à¼¨à¼¥":3353,"à¼ĭà¾ĵà½¾à¼ĭ":3354,"à½łà½Ģ":3355,"à½Ĳà½ĳà½ĳ":3356,"à¾ļà½¾à¼į":3357,"à½Ĥà½ıà½ĸ":3358,"à½İà½ĵ":3359,"à¾²à¼ĭà¼´":3360,"à¾Ńà½º":3361,"à½Ħà½¦à½ı":3362,"à½ĳà½ĸà½ĳ":3363,"à½Ĳà½ĵà½¢":3364,"à½£à½¦à½¢":3365,"à½ĸà½Ĥà½Ĥ":3366,"à¼¢à¼§à¼¦":3367,"à½ĺà½ŀ":3368,"à¼¢à¼§à¼¡":3369,"à¼¢à¼¦à¼¡":3370,"à½ĵà½£à½¦":3371,"à¾·à¾²à½´à¼ĭ":3372,"à¾µà¾ŀà¼ĭ":3373,"à½Ģà½Ļ":3374,"à¼Ģà½Ķ":3375,"à¼¢à¼¨à¼§":3376,"à¾ļà½´à¼ĭ":3377,"à¼¢à¼¤à¼¡":3378,"Ġà½ĸà½£":3379,"à¾¦à½¾à¼ĭ":3380,"à¼¢à¼¨à¼¤":3381,"Ġà¼ĭà¼ĭà¼ĭà¼ĭà¼ĭà¼ĭà¼ĭà¼ĭà¼ĭà¼ĭà¼ĭ":3382,"à¾²à¾ĥà¼ĭ":3383,"à½Ĥà½ıà½Ĥ":3384,"à½ĸà½ķ":3385,"à¾ļà½²":3386,"à½¦à½ļ":3387,"à½ĳà½Ĥà½łà½ĸ":3388,"à¼ĭà¼½à¼įà¼į":3389,"à½©à½ĺ":3390,"à¾Ĵà¾±à½¿à¼ĭ":3391,"à½ĸà½¢à½£":3392,"à½¢à½ģ":3393,"à¼¢à¼©à¼©":3394,"à½Łà½Ĳà½«":3395,"à½¨à½ıà½ł":3396,"à½ĳà½¤":3397,"à½Ĭà½ĵ":3398,"Ġà¼ĭà¼ĭà¼ĭà¼ĭà¼ĭà¼ĭà¼ĭà¼ĭà¼ĭà¼ĭà¼ĭà¼ĭà¼ĭà¼ĭà¼ĭà¼ĭà¼ĭà¼ĭà¼ĭà¼ĭà¼ĭà¼ĭà¼ĭà¼ĭà¼ĭà¼ĭà¼ĭà¼ĭà¼ĭà¼ĭà¼ĭà¼ĭà¼ĭà¼ĭà¼ĭà¼ĭà¼ĭà¼ĭà¼ĭà¼ĭà¼ĭà¼ĭà¼ĭà¼ĭà¼ĭà¼ĭà¼ĭà¼ĭ":3399,"à½Ĥà½ŀà½ĵà½¡à½Ħ":3400,"à¼¢à¼©à¼¤":3401,"à½Ĺà½Ģ":3402,"à½łà½¨":3403,"à¾¨à½±à¼į":3404,"à¾ļà½±à¼į":3405,"à½ĳà½Ħà½łà½ĸ":3406,"à½ĸà½¤à½Ĳ":3407,"à½ĵà½ļ":3408,"à½¥à½ĳ":3409,"à½§à½ı":3410,"à¼¢à¼¥à¼¡":3411,"à¼¢à¼¨à¼¦":3412,"à¾ľà½±à½²":3413,"à½²à¼ĭà½ºà¼ĭ":3414,"à¼Įà¼Įà¼Įà¼Įà¼Įà¼Įà¼Įà¼Įà¼Įà¼Įà¼Įà¼Į":3415,"à¼¢à¼©à¼¦":3416,"à¾Łà¾Ńà½¾à¼Ķ":3417,"à½İà½ı":3418,"à¾¡à¼·":3419,"à¼¡à¼©à¼¡à¼£":3420,"à¼ĭà¾¢à¼ĭ":3421,"à½²à¼ĭà½¼à¼ĭ":3422,"à½Ĵà½Ŀ":3423,"à½ĸà½¢à½Ħ":3424,"à¾«à¾«à¼ĭ":3425,"à½ĺà½ĳà½ĸ":3426,"à¾łà½ºà¼ĭ":3427,"à¼¢à¼©à¼§":3428,"à¼¢à¼©à¼¥":3429,"à¼ĭà¼½à¼½":3430,"à¾²à¼·à¼ĭ":3431,"à½¢à½ļ":3432,"à¼¢à¼¨à¼©":3433,"à½ĺà½ĵà½¦":3434,"à¾»à¼į":3435,"à¼ĭà½±à½´à¾ĥà¼ĭ":3436,"à½¦à½Ľ":3437,"à½ĭà½ĵ":3438,"à¼¡à¼©à¼§à¼£":3439,"à¾²à½ºà¼Ķ":3440,"à¾µà¾±":3441,"à¼¢à¼©à¼£":3442,"à¼¢à¼¦à¼¨":3443,"à¼£à¼łà¼£":3444,"à¾¨à½±à½²à¼ĭ":3445,"à¼¢à¼©à¼¢":3446,"à½±à¾ĥà¼į":3447,"à½Ľà½Ľ":3448,"à½¦à½¨":3449,"à½Ĺà½§":3450,"à½Ĥà½ĵà½¦à½Ķà½ł":3451,"à½łà½ģà½ĺà½¦":3452,"à¼¡à¼©à¼łà¼¤":3453,"à¾Ĵà¾Ńà¼ĭ":3454,"à½¡à½Ħà½ĳ":3455,"à½Ķà½ħ":3456,"à½łà½Ļ":3457,"à¼¢à¼©à¼¨":3458,"à½Ģà½Ĭ":3459,"à¾·à¾Ńà½¾à¼į":3460,"à½ĺà½ļà½ĺ":3461,"à½ĳà½ĵà½ĺà½¦":3462,"à¾·à¾±à¼Ķ":3463,"à¼ĭà¿":3464,"à½ıà½İ":3465,"à¼Ģà½Ľ":3466,"à½Ģà½Ģà½Ģ":3467,"Ġà¼¢à¼£":3468,"à½ĸà½ĵà½¦":3469,"à½Ŀà½ĺ":3470,"à¾ļà½¿à¼į":3471,"à¼¢à¼¨à¼¨":3472,"à½Łà½ķà½¡":3473,"à½ĳà½ĳà½Ķ":3474,"à½¡à½ĵà½£à½Ĥ":3475,"à¼¡à¼©à¼¦à¼¤":3476,"à¾Łà¾Ĺà½¼":3477,"à¾Ĳà¾±à½¼à¼į":3478,"à½ĸà½Ģà½łà½¦":3479,"à¼¡à¼©à¼¦à¼¥":3480,"à½Ħà½¦à½Ķà½¢":3481,"à¾«à½ºà¼ĭ":3482,"à½¤à½łà½ĺ":3483,"à½Ķà½ħà½ĵ":3484,"à½ķà½ŀà½Ħ":3485,"à¾Ķà¾·à¼ĭ":3486,"à½ĸà½ıà½Ħà½¦":3487,"à½ĳà½ĸà½łà½¦":3488,"à½¦à½ĸà½ħ":3489,"à¼¢à¼¨à¼¢":3490,"à½¡à½ī":3491,"à½²à¼įà¼½":3492,"à¼¡à¼©à¼¤à¼§":3493,"à¼¢à¼¨à¼¡":3494,"Ġà½Ĥà½ĵ":3495,"à½Ħà½Ĥà½¦":3496,"à½ĺà½ħ":3497,"à¾¨à½ºà¼į":3498,"à¼¡à¼©à¼¡à¼¤":3499,"à¾·à¾Ńà½ºà¼į":3500,"à½Ķà½ĵà½¦":3501,"à¼łà¼§":3502,"à¾ļà¾²à½±à½²à½¿à¼ĭ":3503,"à½Ĥà½Ŀà½Ĥ":3504,"à¼įà¼Įà¼Įà¼Į":3505,"à¾Ľà½±":3506,"à¼Ķà¼ĭà¼ĭà¼ĭ":3507,"à¼Ģà½¡":3508,"à¾²à½±à¼į":3509,"à¾Łà¾¤à½º":3510,"à¾±à½´à¼·":3511,"à½Ģà½¡":3512,"à½±à½¾à¼Ķ":3513,"Ġà¼¢à¼¡":3514,"à½ķà½łà½ĺ":3515,"à½Ĺà½ıà½Ł":3516,"Ġà½Ĥà½Ħà½¦":3517,"à½¡à½¥":3518,"à½ĸà½¤à½ĳà½Ķ":3519,"à¼£à¼łà¼¤":3520,"à½§à½§à½§à½§à½§à½§à½§à½§à½§à½§à½§à½§à½§à½§à½§à½§":3521,"à½Ħà½Ģ":3522,"à½±à½¾à½¿à¼ĭ":3523,"à¾ľà½²à¼į":3524,"à¾łà½²à¾Ģ":3525,"à½§à½Ĥ":3526,"à¾µà½´":3527,"à¾·à½±à½²à¼Ķ":3528,"à½Ķà½¢à½ŀ":3529,"à½¼à¼įà¼ĭà¼į":3530,"à¾¦à¾±à¼ĭ":3531,"à½Ħà½ķ":3532,"à½²à¼ĭà¼Ŀà¼į":3533,"à¼¡à¼©à¼¤à¼ł":3534,"à½¨à½Ŀ":3535,"à½ĳà½Ĥà½ĳ":3536,"à¾Ĵà¾±à½´à¼·à¼ĭ":3537,"à¼¢à¼¨à¼£":3538,"à¾±à¼ĭà½²":3539,"Ġà¼¢à¼¢":3540,"à¾±à¾·à½²à¼ĭ":3541,"à½ĺà½¦à½ĸà½¦":3542,"à¾ļà½ºà¼į":3543,"à¾ĥà¼įà¼į":3544,"à¼¡à¼©à¼¦à¼¨":3545,"à¾±à½²à¼ĭà½Īà¾±à½²":3546,"à¾·à½±à½´à½¾à¼ĭ":3547,"à¼¡à¼©à¼§à¼§":3548,"à½±à½»à¼ĭ":3549,"Ġà¼¼à¼½":3550,"à½ĵà½Ĳ":3551,"à½²à¼ĭà¼İ":3552,"à¾¶à¾±à¼ĭ":3553,"à½ĸà½¤à½Ħà½¦":3554,"à½Ĥà½¦à½¤":3555,"à½ĳà½Ĥà½ħ":3556,"à½¡à½«":3557,"à¾·à¾²à½´à¾ĥà¼ĭ":3558,"à½Ľà½Ħ":3559,"à¾Ĳà¾±à¾±à½²":3560,"à¾±à¾Ļà½º":3561,"à¼ĭà½ºà¼įà¼į":3562,"à½¦à½İ":3563,"à¾Łà¼·à¼ĭ":3564,"à¼ĳà¼į":3565,"à¾±à½²à¼ĭà¼¸":3566,"à½ļà½ļ":3567,"à¼£à¼łà¼©":3568,"à½¨à½Ĳ":3569,"à½²à¼įà¼įà¼įà¼į":3570,"à¼£à¼łà¼§":3571,"à½²à¼·à¼į":3572,"à½Ħà½¤":3573,"à½ĺà½Ł":3574,"à½Ļà½ĳ":3575,"à¼¢à¼©à¼¡":3576,"à½Ĥà½Ķà½¦":3577,"à½łà½ĩà½ĳ":3578,"à¼Ŀà¼Ŀà¼Ŀà¼Ŀ":3579,"à¾Łà½²à½¿à¼į":3580,"à½Ħà½łà½ĳ":3581,"Ġà½ĳà½Ķà½ł":3582,"à¾±à½±à½¿à¼ĭ":3583,"à½Ķà½Ĥà½ŀà½ĵ":3584,"à¼£à¼¡à¼ł":3585,"à¼ļ":3586,"à½ĵà½¦à½ĳ":3587,"à¾¤à¾¡à½¼":3588,"à¼ĭà¼½à¼ĭ":3589,"à¼£à¼łà¼¦":3590,"à½£à½ĳà½Ĥ":3591,"à½ĸà½¢à½ĸà½¦":3592,"à½łà½ĳà½Ħà½¦":3593,"Ġà½Ĥà½Ļ":3594,"à½Ģà½Ķ":3595,"à½¼à¼įà¼¼":3596,"Ġà¼Īà¼į":3597,"à¼¡à¼©à¼¥à¼£":3598,"Ġà¼ĭà¼ĭà¼ĭà¼ĭà¼ĭà¼ĭà¼ĭà¼ĭà¼ĭà¼ĭà¼ĭà¼ĭ":3599,"à¼ĭà¾¾à¼į":3600,"à¾Łà¾²à¾Ģà¼ĭ":3601,"ĠĠĠĠĠĠ":3602,"à¾²à¾Ģà½¾à¼ĭ":3603,"à¾Ĺà½ºà¼·à¼ĭ":3604,"à½İà½£":3605,"Ġà¼ģà¾ĥà¼Ķ":3606,"à½²à¼įà¼ĭ":3607,"à¾¡à½ºà¼Ķ":3608,"à¾²à¾¡à½¼à¼ĭ":3609,"à¾·à½¼à¼Ķ":3610,"à¾¡à¾·à½º":3611,"à¾¶à½²à¼ĭ":3612,"à½ħà½ĳà½ĺà½ģ":3613,"à½£à½¦à½Ĥà½ŀà½ĵ":3614,"à½ĸà½Łà½ĵ":3615,"à½ķà½Łà½¥":3616,"à½łà½ĩà½ĺà½¦":3617,"à¾łà½¿à¼į":3618,"Ġà¼ĭà¼ĭà¼ĭà¼ĭà¼ĭà¼ĭà¼ĭà¼ĭà¼ĭà¼ĭà¼ĭà¼ĭà¼ĭ":3619,"à½ĵà½¨":3620,"à½ĳà½Ĥà½¡":3621,"à½ĺà½¦à½Ķà½¢":3622,"à½Ľà½Ĥ":3623,"à¾Łà½±à½¾à¼ĭ":3624,"à½ĳà½Ģà½¦":3625,"à¾Ļà½¼à¼įà¼į":3626,"à½Ĵà½ĳà½Ħ":3627,"à½ĳà½łà½ĳ":3628,"à¾Ĳà¾©à½¼":3629,"à¾·à¾²à½´":3630,"à½±à¼ĭà¼´":3631,"à¾ĥà½¿à¼ĭ":3632,"à½±à½¿":3633,"à¾²à½¼à¼·à¼ĭ":3634,"à½Ĥà½Ĳà½ķ":3635,"Ġà½łà½Ľ":3636,"à¼ĭà½´à¼ĭ":3637,"à½Ķà½¢à½łà½ĩ":3638,"Ġà½Ĥà½£":3639,"à½Ĥà½¤à½ĳ":3640,"à¾·à¾£à½±à½¾à¼ĭ":3641,"à½ĸà½ģ":3642,"à½£à½ĺà½¦":3643,"à¾¡à¾±à½²à¼ĭ":3644,"à¼¡à¼©à¼¡à¼¢":3645,"à½ĸà½ĳà½Ķ":3646,"à½Ĳà½ļ":3647,"à½ºà¼įà¼ĭ":3648,"à¼Ģà½ĳ":3649,"à¼łà¼łà¼łà¼łà¼łà¼łà¼łà¼łà¼łà¼łà¼łà¼łà¼łà¼łà¼łà¼ł":3650,"à¼ĭà¾Ĳ":3651,"à½´à½¾":3652,"à¾¤à¾±à½²à½²à¼ĭ":3653,"à¼įà¼įà¼ĭ":3654,"à½ĺà½ĵà½ĺà½¦":3655,"à¼¦à¼łà¼ł":3656,"à¾¦à¾·à¾±à½±à½¾à¼į":3657,"à½Ķà½ĳà½Ħà½Ķ":3658,"à½Ķà½¢à½Ĥà½ŀà½Ĥ":3659,"à¾Ńà½»à¼ĭ":3660,"à½ĺà½Ĥà½ı":3661,"Ġà½ŀà½£":3662,"à¾Ĳà¾±à½ºà¼ĭà½Ī":3663,"à½Ŀà½ĳ":3664,"à¼ĭà¼»à¼ĭ":3665,"à½Ħà½ĳà½Ĥ":3666,"âĢ":3667,"Ġà½Ħà½Ĥ":3668,"à½ıà½Ļ":3669,"à¼įà¼įà¼įà¼įà¼įà¼įà¼įà¼į":3670,"à½¡à½Ħà½¡":3671,"à¼£à¼¡à¼£":3672,"à¾£à¾²à½´":3673,"à¾¦à¾·à½±à¼ĭ":3674,"à½ĸà½ĳà½Ĥà½ĺ":3675,"à½¢à½ķ":3676,"à½ģà½¡":3677,"à¼£à¼łà¼¨":3678,"à½¼à¼įà¼įà¼¼":3679,"à½ĳà½ī":3680,"Ġà½¤à½¢":3681,"à¼£à¼¡à¼¡":3682,"à½¡à½İà½ł":3683,"à½ĳà½Ķà½łà½Ĩ":3684,"à¾µà½´à½¾à¼ĭ":3685,"à½¢à½Ĩ":3686,"à½ĸà½ħà½¦à½Ķ":3687,"à¾±à¼·à½²à¼ĭ":3688,"à½ĺà½ļà½ł":3689,"à¼įà¼ĭà¼ĭà¼ĭà¼ĭà¼ĭà¼ĭ":3690,"à¾Łà¾±à½±à¼ĭ":3691,"à¾Ĵà¾·à½¾à¼į":3692,"à¾£à½¿à¼į":3693,"à½¨à½ª":3694,"à½ºà¼ĭà¼ĳà¼į":3695,"à½Ĵà½łà½Ħ":3696,"à¼£à¼łà¼¥":3697,"à¾²à½½à¼ĭ":3698,"à¾Ĵà¾²à½²à¼ĭ":3699,"à½Ħà½ĵà½£à½¦":3700,"à¾ļà½¼à¼ĭ":3701,"à½¡à½¡":3702,"à½Ķà½¢à½ĳà½Ĥ":3703,"à½īà½ĵà½Ĳ":3704,"à½Ĥà½ŀà½ĵà½ĳ":3705,"à¾Ģà¼įà¼į":3706,"Ġà½Ĥà½¢":3707,"à¾¡à¾·à½¼à¾ħà¼ĭ":3708,"Ġà½ĺà½Ľ":3709,"à¼ĭà¼įà¼Ħà¼ħà¼įà¼į":3710,"à¾¤à½¼à¼į":3711,"à¾£à½±à½²à¼ĭ":3712,"Ġà¼¢à¼§":3713,"à½ĸà½Łà½ĸ":3714,"à½īà½Ģ":3715,"à¼ĭà¼·à¼ĭ":3716,"à½£à½Ķà½ł":3717,"à½£à½łà½ĩ":3718,"à½£à½¦à½£":3719,"à½¾à¼ĭà¼´":3720,"à¾¦à¾±à½¼à¼į":3721,"à¼£à¼łà¼¢":3722,"Ġà½łà½Ĩ":3723,"à½£à½ĳà½ĺ":3724,"à½ĸà½ħà½ĵ":3725,"à¼§à¼£à¼§":3726,"à½¦à½Ĥà½ŀ":3727,"à½ĳà½Ĥà½ī":3728,"à¾Ĵà¾±à½´à¼ĭà¼Ħà¼ħà¼įà¼į":3729,"à¼ĭà¼ı":3730,"à¼£à¼¦à¼ł":3731,"à¼ĭà½²à¼įà¼į":3732,"à½©à½ĵ":3733,"à½£à½Ĳ":3734,"à¾Ĵà¾±à¼·":3735,"à½Ĥà½ĳà½ĸà½¦":3736,"Ġà¼£à¼¥":3737,"Ġà½ĸà½ĸ":3738,"à¼ĭà½¼à¼ĭà½º":3739,"à½¦à½Ĥà½Ħ":3740,"à½±à½¼à¾Ĥà¼ĭ":3741,"à¾³à½²à¼į":3742,"à¼£à¼¡à¼¤":3743,"à¼Ģà½Ģ":3744,"Ħà¼į":3745,"à½ºà½¿à¼įà¼į":3746,"Ġà½Ĥà½¦à½£":3747,"à¾·à¾²à¼ĭà½µ":3748,"Ġà½ĺà½ģ":3749,"à¾²à¾¤à¾±à½²":3750,"à½Ĩà½Ĩ":3751,"à¼ĭà¼įà¼¼":3752,"à½Ļà½Ĳ":3753,"à¾Ķà¼·à¼ĭ":3754,"à½¨à½Ĭà½ł":3755,"à¼£à¼¢à¼ł":3756,"à½ĵà½ĵà½ĳ":3757,"à½Ĥà½¡à½Ħà½¦":3758,"à½£à½Ĥà½¥":3759,"à½Ĥà½łà½ĸ":3760,"à½¢à½Ľ":3761,"à½ıà½¡":3762,"à½ĩà½ĵ":3763,"à¾¼à½±à¾Ģà¼ĭ":3764,"à¾·à¾±à½ºà¼ĭ":3765,"à½²à½¾à¼įà¼į":3766,"à½ĳà½ĵà½¦":3767,"à¾±à½²à¼·":3768,"à¾¥à½±à¼ĭ":3769,"à¾·à¾±à½¼à¼įà¼į":3770,"à¾±à¾¡à½º":3771,"à¾¦à¾²à½´à¼ĭ":3772,"à½Ľà½£":3773,"à½Ĥà½£à½¦":3774,"à¾Łà¾²à½±à¼ĭ":3775,"à¼ĭà¼¹à½¼à¼įà¼į":3776,"à½ķà½Ŀà½Ĥ":3777,"à¼£à¼¥à¼ł":3778,"à½ºà¼ĭà½²":3779,"à¼¡à¼©à¼§à¼¥":3780,"à½£à½ĺà½Ĥ":3781,"à¼ĭà¾¢à½´à¼ĭ":3782,"Ġà½ĺà½Ĳà½ł":3783,"à½ĳà½ģ":3784,"à½¢à½Ĳ":3785,"à½Ĥà½¦à½ı":3786,"à¾³à½¼à¼·à¼ĭ":3787,"à½¢à½Ĭ":3788,"à¾Ĺà½¼à¼įà¼į":3789,"à¾«à½¿à¼ĭ":3790,"à¼¡à¼©à¼£à¼£":3791,"à¾Ķà¾¡à½¼":3792,"à¾Ľà½¿à¼į":3793,"ĉĉĉ":3794,"à½ĸà½ĸà½ĸà½ĸà½ĸ":3795,"à¾±à½±à½´à¼ĭ":3796,"à½ĸà½ŀà½ł":3797,"à½Ĵà½ķà½¦":3798,"à½ºà¼·à¼į":3799,"à½Ķà½Ł":3800,"âĢĤ":3801,"à½ĸà½ļ":3802,"à½ģà½ĸà½¦":3803,"Ġà½Ķà½İ":3804,"à¾Łà¾²à¾Ģ":3805,"à½īà½ĸ":3806,"à¾Ĥà¼į":3807,"à¾£à½¾à¼į":3808,"à½ķà½ķ":3809,"à¾²à½ºà¼ĭà½Īà¾±à½²":3810,"à¼£à¼¡à¼¥":3811,"à½ĵà½Ļ":3812,"à½Ħà½łà½ĸ":3813,"à¾Łà½±à½²":3814,"à½£à½Ļ":3815,"à½Ķà½ĩ":3816,"à½ĳà½Ĥà½ĳà½Ħ":3817,"à¾Ĺà½ºà¼ĭà¼´":3818,"à½Ĺà½ī":3819,"à¼¡à¼©à¼£à¼¥":3820,"Ġà½Ľ":3821,"à¾¦à½±à½²":3822,"à½łà½ĩà½¦":3823,"à½±à¼ĭà¼½":3824,"à½Ĵà½ķà½¢":3825,"à½±à½º":3826,"à½¥à½ī":3827,"à½Ĵà½¨":3828,"à¼ĭà¼¹à½¼":3829,"à½ĵà½¦à½ĸ":3830,"à¾·à¼·à¼ĭ":3831,"Ġà½ĺà½īà½ĺ":3832,"à½ĵà½ĵà½ĺ":3833,"à½Ħà½ĺà½¦":3834,"à½ĺà½Ĭ":3835,"Ġà¼ĭà¼ĭà¼ĭà¼ĭà¼ĭà¼ĭà¼ĭà¼ĭà¼ĭà¼ĭà¼ĭà¼ĭà¼ĭà¼ĭ":3836,"à½¡à½¤":3837,"à½ĳà½ĺà½Ħ":3838,"à¼ĭà¼ħ":3839,"à½¿à¼įà¼įà¼įà¼į":3840,"à½łà½Ĥà½ĳ":3841,"à½¨à½ĵà½ł":3842,"Ġà½Ĳà½ĸà½¦":3843,"à½ĥà½İ":3844,"à½ĳà½Ħà½ĺà½Ĳ":3845,"à¾¦à¾·à½²":3846,"à¼§à¼łà¼ł":3847,"à½ĺà½ĸà½ŀ":3848,"à¼£à¼¡à¼¢":3849,"à½ĥà½Ĭ":3850,"à½±à½¿à¼ĭà¼½":3851,"à¾±à¼µ":3852,"à¼¡à¼©à¼§à¼¢":3853,"à½Ĥà½ĸà½¢":3854,"à¼Ģà½ı":3855,"à¼¡à¼©à¼¦à¼§":3856,"à½ºà½¾à¼Ķ":3857,"à¾¤à½±":3858,"à¾¡à½±":3859,"à¾²à½´à¼·":3860,"à¼£à¼¡à¼§":3861,"à¾Łà¾Ĳà½¼":3862,"à¾²à½²à½¾à¼į":3863,"à¼Ģà½£":3864,"à½Ģà½ļ":3865,"à¾ľà½¼à¼ĭ":3866,"Ġà¼£à¼§":3867,"à¼ĭà¼įà¼ĭà¼ĭ":3868,"à½ĺà½ļà½Ħà½¦":3869,"à½£à½ĺà½Ħ":3870,"à½İà½Ķ":3871,"à½Ķà½¢à½Ħ":3872,"à½ĳà½ĸà½ĵ":3873,"à½Ķà½¦à½ĸà½¦":3874,"à¼£à¼£à¼łà¼¡":3875,"à½ĭà½ī":3876,"Ġà¼£à¼¤":3877,"à½ĺà½Ĥà½¦":3878,"à¾±à½¾":3879,"à¾Łà¾±à½¼":3880,"à¾¨à½²à½¾à¼ĭ":3881,"à¼¡à¼¢à¼¨à¼£":3882,"à½Ĵà½ĵà½Łà½«":3883,"à¾³à¾Ĺà½¼à¼ĭ":3884,"à¾Ĳà¾±à¼įà¼į":3885,"à¼£à¼¡à¼¦":3886,"à¾µà½¿à¼į":3887,"Ġà½ĺà½¢":3888,"à½Ķà½¨":3889,"à½Ĥà½Ħà½ĳà½Ĥ":3890,"à½łà½ģà½ĵ":3891,"à¾¶à½´à¼į":3892,"Ġà¼£à¼£":3893,"Ġà½Ĥà½Łà½ł":3894,"à¾Ĵà½±à½²à¼ĭ":3895,"à¼¡à¼©à¼§à¼¡":3896,"à½Łà½Ķà½Ĥà½¥":3897,"à¼¼à¼¼":3898,"à½Ķà½ĳà½ĺ":3899,"à¼ĭà¼¼à¼½":3900,"à¾·à½½à¼ĭ":3901,"à¾¥à½¼":3902,"à¼ĭà¼Ŀà¼Ŀà¼Ŀ":3903,"à½ĳà½ĳà½Ĥ":3904,"Ġà½łà½ĳà½¦":3905,"Ġà½£à½Ĥ":3906,"à¾·à½»":3907,"à¾Ħà¼·":3908,"à½¢à½ħ":3909,"à½ĵà½ĸà½ŀ":3910,"à¼ĭà¾Ħ":3911,"à¼įà¼ĭà¼ĭà¼ĭà¼ĭà¼ĭà¼ĭà¼ĭà¼ĭà¼ĭà¼ĭà¼ĭà¼ĭà¼ĭà¼ĭà¼ĭà¼ĭà¼ĭà¼ĭà¼ĭà¼ĭà¼ĭà¼ĭà¼ĭà¼ĭà¼ĭà¼ĭà¼ĭà¼ĭà¼ĭà¼ĭà¼ĭà¼ĭà¼ĭà¼ĭà¼ĭà¼ĭà¼ĭà¼ĭà¼ĭà¼ĭ":3912,"à½¦à½ĸà½ŀ":3913,"à½ķà½Į":3914,"à¾łà½±à½²à¼ĭ":3915,"à¼ĭà¾Ł":3916,"à½Ķà½łà½Ĥ":3917,"à¼£à¼£à¼£":3918,"Ġà½¡à½¢":3919,"à½¦à½ĺà½Ĳ":3920,"à½²à¼ĭà¼ŀà¼į":3921,"à¼Įà¼Įà¼Įà¼Įà¼Įà¼Įà¼Įà¼Įà¼Įà¼Įà¼Įà¼Įà¼Įà¼Įà¼Įà¼Įà¼Įà¼Įà¼Įà¼Įà¼Įà¼Įà¼Įà¼Įà¼Įà¼Įà¼Įà¼Įà¼Įà¼Įà¼Įà¼Įà¼Įà¼Įà¼Įà¼Įà¼Įà¼Įà¼Įà¼Įà¼Įà¼Įà¼Įà¼Įà¼Įà¼Įà¼Įà¼Įà¼Įà¼Įà¼Įà¼Įà¼Įà¼Įà¼Įà¼Įà¼Įà¼Įà¼Įà¼Įà¼Įà¼Įà¼Įà¼Į":3922,"à¾·à½´à½¾à¼ĭ":3923,"à½ĺà½łà½ĳ":3924,"à½ĺà½Ħà½Ķ":3925,"à½¡à½Ħà½ĸ":3926,"à¾ľà¼įà¼į":3927,"à¾¡à¾·à½±à½´à¼ĭ":3928,"ĠĠĠĠĠ":3929,"à¼ĭà¾³":3930,"à½¦à½Ĭ":3931,"à½Ĥà½ıà½ĵà½ļ":3932,"à½£à½Ľ":3933,"à½Ģà½Ł":3934,"à¾¡à¾·à¼Ķ":3935,"Ġà½ĸà½Ļ":3936,"à½¤à½¤":3937,"à½ĳà½Ł":3938,"à½ŀà½ĸ":3939,"à½ıà½¤":3940,"à¾Ĳà¾²à½²à¼ĭ":3941,"à½Ĥà½Ħà½Łà½Ĥ":3942,"à½ĸà½ħà½¦à½Ķà½ł":3943,"à¼ĭà½²à¼ĭà½¼":3944,"Ġà¼£à¼¦":3945,"à¾²à½±à¾Ģà¼į":3946,"à¼£à¼¤à¼¥":3947,"à½ħà½ĸ":3948,"à¾£à½¼à¼į":3949,"à½ĸà½Ļà½Ħ":3950,"à¼¡à¼©à¼¡à¼ł":3951,"Ġà½ĺà½Ľà½ĳ":3952,"à¾ī":3953,"à¾Ĳà½¾à¼ĭ":3954,"à¾Ĳà¾±à¾±à½ºà¼ĭ":3955,"Ġà½ĸà½Łà½Ħ":3956,"Ġà¼¢à¼¨":3957,"à½ĸà½ĸà½¢":3958,"à½Ľà½ŀ":3959,"à¼£à¼¡à¼¨":3960,"à¼ĭà½Īà¾²à½²":3961,"à¾łà½¾à¼ĭ":3962,"à½łà½«à½Ĳ":3963,"à½ıà½Ĳ":3964,"à¾¦à¾¦à½±à¼ĭ":3965,"à¾Ńà½¼à¼į":3966,"à¼Ģà½Ķà½ĳ":3967,"Ġà¼§à¼ł":3968,"Ġà½Ĩà½Ĥà½¦":3969,"à½Ĥà½¦à½ĵà½¦":3970,"à½ºà½¾":3971,"à½Ĥà½¤à½ĵ":3972,"à½»à½¿à¼į":3973,"à¾Łà¾©à½¼":3974,"à¼ĭà¼¹à¼įà¼į":3975,"à½Ķà½¦à½ĺ":3976,"à¾¡à½¼à¼·à¼ĭ":3977,"Ġà¼£à¼©":3978,"à½Ĥà½Ĥà½ī":3979,"à½Ĥà½Ħà½£":3980,"à¾ħà¼ĭ":3981,"à½¦à½Ĥà½ī":3982,"à¾·à¾£à½±à¼ĭ":3983,"à½ºà¼ĭà½Īà¾·à½²":3984,"à½¡à½Ħà½ĵ":3985,"à¾³à½´à¼Ķ":3986,"à¾¦à¾²à½¾à¼ĭ":3987,"Ġà½ĸà½Ļà½ĵ":3988,"à½ĵà½Ĭ":3989,"à¾Ĺà½´":3990,"à¾µà½±à½²":3991,"à½¦à½£à½¦":3992,"à½ĳà½Ħà½ŀ":3993,"à½ģà½ī":3994,"à½´à¼įà¼įà¼į":3995,"à½Ĵà½ģ":3996,"Ġà½īà½ĺà½¦":3997,"à½ĵà½ĸà½ħ":3998,"à½Ķà½Ĥà½ħ":3999,"à¼ĭà½¼à¼įà¼į":4000,"à½ĳà½ĺà½£":4001,"à¼ĭà½²à¼ĭà½²":4002,"à¾²à½±à½²à¼įà¼į":4003,"à½Ħà½¦à½¢":4004,"à½ĳà½£à½¦":4005,"à½Ĩà½Ĥà½¦à½ĳà½Ħ":4006,"à¾Łà½±à½¿à¼ĭ":4007,"à½±à¼ĭà¼Ħà¼ħà¼įà¼į":4008,"à¼¡à¼©à¼£à¼©":4009,"à½¦à½ĸà½¤à½ĳ":4010,"à½ģà½łà½Ħ":4011,"à½Ĥà½ŀà½ĵà½ĳà½Ĥ":4012,"à¾¦à¾±à¾³à½¼":4013,"à¼¡à¼¢à¼¥à¼§":4014,"à¾»à½¾à¼ĭ":4015,"à½ĳà½Ħà½ĺà½ļ":4016,"à½Łà½Ł":4017,"à¾Ĺà¼ĭ":4018,"à¼łà¼¡":4019,"à½ļà½łà½ĺ":4020,"à¾±à½ºà½º":4021,"à¾ļà¾Ńà½±à¼ĭ":4022,"à½ķà½ı":4023,"à½¦à½ĺà½Ħ":4024,"à½Ħà½ī":4025,"Ġà½ħà½ĳ":4026,"à½ĵà½Ĥà½ĵà½¦":4027,"à¾²à¾¤à½º":4028,"à¾Ĳà¾Ĺà½¼":4029,"à½ºà¼įà¼ĭà¼ĭà¼ĭà¼ĭà¼ĭ":4030,"à¼£à¼¡à¼©":4031,"à¾±à½±à½¿à¼į":4032,"à¾Ĳà¼įà¼į":4033,"à¼įà¼ĭà¼ĭà¼ĭà¼ĭà¼ĭà¼ĭà¼ĭà¼ĭà¼ĭà¼ĭà¼ĭà¼ĭà¼ĭà¼ĭà¼ĭà¼ĭà¼ĭà¼ĭà¼ĭà¼ĭà¼ĭà¼ĭà¼ĭà¼ĭà¼ĭà¼ĭà¼ĭà¼ĭà¼ĭà¼ĭà¼ĭà¼ĭà¼ĭà¼ĭà¼ĭà¼ĭà¼ĭà¼ĭà¼ĭà¼ĭà¼ĭà¼ĭà¼ĭà¼ĭà¼ĭà¼ĭà¼ĭà¼ĭà¼ĭà¼ĭà¼ĭà¼ĭà¼ĭà¼ĭà¼ĭà¼ĭà¼ĭà¼ĭà¼ĭà¼ĭà¼ĭà¼ĭà¼ĭà¼ĭà¼ĭà¼ĭà¼ĭà¼ĭà¼ĭà¼ĭà¼ĭà¼ĭà¼ĭà¼ĭà¼ĭà¼ĭà¼ĭà¼ĭà¼ĭà¼ĭà¼ĭà¼ĭà¼ĭà¼ĭà¼ĭà¼ĭà¼ĭà¼ĭà¼ĭà¼ĭà¼ĭà¼ĭà¼ĭà¼ĭà¼ĭà¼ĭà¼ĭà¼ĭà¼ĭà¼ĭà¼ĭà¼ĭà¼ĭà¼ĭà¼ĭà¼ĭà¼ĭà¼ĭà¼ĭà¼ĭà¼ĭà¼ĭà¼ĭà¼ĭà¼ĭà¼ĭà¼ĭà¼ĭà¼ĭà¼ĭà¼ĭà¼ĭà¼ĭà¼ĭà¼ĭà¼ĭà¼ĭà¼ĭà¼ĭà¼ĭà¼ĭà¼ĭà¼ĭà¼ĭà¼ĭà¼ĭà¼ĭà¼ĭà¼ĭà¼ĭà¼ĭà¼ĭà¼ĭà¼ĭ":4034,"à½ĳà½¨":4035,"à½ĳà½Ĥà½ĺ":4036,"à¾±à½ºà½ºà¼ĭ":4037,"à½Ĺà½łà½«":4038,"à¼¡à¼©à¼£à¼ł":4039,"à¾Łà½²à½¿à¼ĭ":4040,"à¾·à½±à½²à¼įà¼Ķ":4041,"à¾±à½±à½²à¼ĭ":4042,"à¾łà½±à¼į":4043,"à¼ĭà¼Ŀà¼Ķ":4044,"à¼¡à¼©à¼£à¼¤":4045,"à½ºà¼ĭà¼½à¼¼":4046,"à½ĸà½¨":4047,"à½ĵà½Ĥà½Ħ":4048,"à¾³à¾Ģ":4049,"à¾¡à¾·à½¿à¼į":4050,"à¼ĭà¾¢à½ºà¼į":4051,"à½ĳà½ŀ":4052,"à½ĸà½ĳà½Ĥà½¦":4053,"à½§à½ª":4054,"à½Ŀà½ķà½¥":4055,"à¼£à¼¢à¼£":4056,"Ġà¼ĭà¼ĭà¼ĭà¼ĭà¼ĭà¼ĭà¼ĭà¼ĭà¼ĭà¼ĭà¼ĭà¼ĭà¼ĭà¼ĭà¼ĭ":4057,"à½Ĥà½ŀà½ĳ":4058,"à¾Ĳà¾µà¾±":4059,"à½Ħà½¦à½ĵà½¦":4060,"à½Ĵà½ħà½«à½Ĥ":4061,"à½ĺà½ĸà½¢":4062,"à½¨à½ģ":4063,"à½¼à¼ĭà¼įà¼į":4064,"à½Ĥà½Ħà½¡à½Ħ":4065,"à¾³à½¼à½¼à¼ĭ":4066,"à¾·à¾±à½¾à¼ĭ":4067,"à¾łà½²à¾Ģà¼Ķ":4068,"à¾Ķà¾·à½²à¼ĭ":4069,"à¼¡à¼©à¼¤à¼¨":4070,"à¾łà½´à¼ĭ":4071,"à½ĳà½ĸà½Ħà½Ĥ":4072,"à½Ķà½ĸà½ħ":4073,"à½ģà½ķ":4074,"à¾³à¾Ģà¼į":4075,"à½ĳà½Ķà½Ģ":4076,"à¼£à¼¢à¼¥":4077,"à½©à½Ģ":4078,"à½ĳà½Ħà½¡":4079,"à¾·à½»à½¾à¼ĭ":4080,"à½ĺà½ļà½ĵà½ĺ":4081,"à½łà½Ĳà½¢":4082,"à¼£à¼¤à¼ł":4083,"à½¼à¼ĭà½²":4084,"à½Ĺà½İ":4085,"à½ĳà½Ĳ":4086,"à¼¡à¼©à¼£à¼¦":4087,"Ġà¼¤à¼ł":4088,"à½łà½«à½¥":4089,"à½ľà½£":4090,"à¾¨à¾²à¾±à½´":4091,"à¼£à¼¢à¼¨":4092,"à½Ķà½ĺà½Ħ":4093,"à¾¤à½¾à¼į":4094,"à½»à¼įà¼į":4095,"à½ĸà½ĸà½ĸà½ĸà½ĸà½ĸ":4096,"à¾²à¼ĭà¼½":4097,"à½ĵà½¦à½ĵ":4098,"Ġà¼£à¼¢":4099,"à¼£à¼§à¼ł":4100,"Ġà½£à½ĵ":4101,"à¾·à½¾":4102,"à¾ªà½´à¼ĭ":4103,"à¼įà¼įà¼¼":4104,"à½ĸà½łà½ĸ":4105,"à½łà½ĳà½¦à½Ķ":4106,"à½łà½ļà½ĸà½¦":4107,"à¾łà½±":4108,"à¾ŀà½²":4109,"à½¢à½Ł":4110,"à½ĵà½ĸà½ĳà½Ĥ":4111,"à½Ķà½¢à½ĸà½¢":4112,"à½ĵà½Ħà½Ĥ":4113,"à½²à¼įà¼įà¼į":4114,"Ġà¼įà¼ĭà¼ĭ":4115,"à½ĺà½Ķà½¦":4116,"à½ģà½ħ":4117,"à½ĸà½Ĥà½ī":4118,"à½ĸà½¦à½Ķ":4119,"à¼ĭà½Īà¾Ļà½²":4120,"à½Ģà½Ģà½Ģà½Ģ":4121,"à¼£à¼¦à¼¥":4122,"à¼©à¼©à¼©":4123,"à½ĩà½Ħ":4124,"à½Ĵà½¢à½Ĥ":4125,"à¾²à¾±":4126,"à½¼à¼ĭà½º":4127,"à¼ĭà¾§à½²à¼ĭ":4128,"à¼ĭà¼Įà¼į":4129,"à¼ĭà¼įà¼ĭà¼ĭà¼ĭ":4130,"à¾©à¼Ķ":4131,"à½¨à½ķ":4132,"à½Ĥà½īà½¦":4133,"à¾ªà½´":4134,"à½¢à½ĵà½¦":4135,"à½Ħà½łà½Ħ":4136,"à½¼à¼ĭà¾İ":4137,"à¾©à¾¡à½¼":4138,"à¾¦à¾±à½¼à¼įà¼į":4139,"à¾Ĵà¾²à½¼à¼į":4140,"à½ĺà½ĺà½Ĩ":4141,"à¾·à½²à¼Ķ":4142,"à¾Ķà¼ĭà¼ĳ":4143,"à¾´à¼į":4144,"à¼£à¼¤à¼£":4145,"Ġà½ĳà½ĺà½Ĥ":4146,"Ġà¼ĭà¼ĭà¼ĭà¼ĭà¼ĭà¼ĭà¼ĭà¼ĭà¼ĭà¼ĭà¼ĭà¼ĭà¼ĭà¼ĭà¼ĭà¼ĭà¼ĭà¼ĭà¼ĭà¼ĭà¼ĭà¼ĭà¼ĭà¼ĭà¼ĭà¼ĭà¼ĭà¼ĭà¼ĭà¼ĭà¼ĭà¼ĭà¼ĭà¼ĭà¼ĭà¼ĭà¼ĭà¼ĭà¼ĭà¼ĭà¼ĭà¼ĭà¼ĭà¼ĭà¼ĭà¼ĭà¼ĭà¼ĭà¼ĭà¼ĭà¼ĭà¼ĭà¼ĭà¼ĭà¼ĭà¼ĭà¼ĭà¼ĭà¼ĭà¼ĭà¼ĭà¼ĭà¼ĭà¼ĭà¼ĭà¼ĭà¼ĭà¼ĭà¼ĭà¼ĭà¼ĭà¼ĭà¼ĭà¼ĭà¼ĭà¼ĭà¼ĭà¼ĭà¼ĭà¼ĭà¼ĭà¼ĭà¼ĭà¼ĭà¼ĭà¼ĭà¼ĭà¼ĭà¼ĭà¼ĭà¼ĭà¼ĭà¼ĭà¼ĭà¼ĭà¼ĭà¼ĭà¼ĭà¼ĭà¼ĭà¼ĭà¼ĭà¼ĭà¼ĭ":4147,"Ġà½ĵà½Ĥ":4148,"à½ĵà½¦à½ĺ":4149,"Ġà½ķà½ĵ":4150,"à½²à¼ĭà¼ŀ":4151,"à¼£à¼¢à¼©":4152,"à¼ĭà¾¢à½¼à¼ĭ":4153,"à½´à¼ĭà¼ĳà¼į":4154,"à½ĩà½«":4155,"à¼£à¼£à¼ł":4156,"à¼£à¼¤à¼¤":4157,"à¼ĭà¾§à¾±à½±à½¾à¼į":4158,"à¼ĭà½±à½²à¼ĭ":4159,"à½Ħà½Ķà½ł":4160,"à½ĳà½Ħà½Ĩ":4161,"à½Ķà½¢à½ĳ":4162,"à½Ħà½¦à½¤":4163,"à¾·à¾Ńà½¾à¼ĭ":4164,"à¾Ķà¼ĭà¼Ħà¼ħà¼įà¼į":4165,"à½´à¼ĭà¼Ī":4166,"à¾©à¾Ńà¼į":4167,"à½¨à½Ļà½ł":4168,"à½½à½¿à¼į":4169,"à¼¡à¼©à¼£à¼§":4170,"à½¤à½¡":4171,"à¾·à¾£à¼ĭ":4172,"à¼£à¼¢à¼¤":4173,"à¼£à¼¢à¼¡":4174,"à¼¡à¼©à¼¤à¼¥":4175,"à½¦à½¦à½¦à½¦":4176,"à¾£à½²à¼į":4177,"Ġà½ĸà½Ľ":4178,"à½¦à½ħà½ĵ":4179,"à¾±à¾²à½²":4180,"à¾²à½²à¼·à¼ĭ":4181,"à½łà½ĳà½¦à½Ķà½ł":4182,"à½Ĺà½ıà½¡":4183,"à¾±à¾Ĺà½ºà¼ĭ":4184,"à½Ķà½¦à½ĸ":4185,"à¾Łà½ºà¼·à¼ĭ":4186,"à¼łà¼¦":4187,"à½ºà¼ĭà½Īà½±à½²":4188,"à½ĺà½ķ":4189,"à½Ħà½¦à½Ģ":4190,"à¼£à¼¢à¼§":4191,"Ġà½Ĥà½ĵà½ĺ":4192,"Ġà½ĳà½Ķà½¢":4193,"à½ĳà½Ħà½ķ":4194,"à¾±à½ºà¼·à¼ĭ":4195,"à½łà½ģà½ĸ":4196,"à¼£à¼¢à¼¢":4197,"Ġà¼£à¼¡":4198,"à¼£à¼¤à¼©":4199,"à¼įà¼ĭà¼ĭà¼ĭà¼ĭà¼ĭà¼ĭà¼ĭà¼ĭà¼ĭ":4200,"à½ĳà½ĸà½ŀ":4201,"à¼ĭà¼´à¼į":4202,"à½ķà½İà½ķ":4203,"à½łà½Ľà½ĵ":4204,"à½Ĥà½Łà½Ħ":4205,"à½Įà½ĺ":4206,"à½Ĥà½ĺà½Ħ":4207,"à½Ķà½Ļà½ĺ":4208,"à¾ļà½±à½²à¼ĭ":4209,"à¼£à¼¥à¼©":4210,"à½ĺà½¦à½£à½¦":4211,"à¼£à¼£à¼©":4212,"à½Ģà½ħ":4213,"à¾Łà½ºà¼·à¼į":4214,"à¾²à½±à½²à½¾à½¿à¼ĭ":4215,"à½¦à½ĵà½ł":4216,"à½ĵà½ĺà½Ĩ":4217,"à½Ŀà½Ĥ":4218,"à¼įà¼ĭà¼ĭà¼ĭà¼ĭà¼ĭà¼ĭà¼ĭà¼ĭà¼ĭà¼ĭà¼ĭà¼ĭà¼ĭà¼ĭà¼ĭà¼ĭà¼ĭà¼ĭà¼ĭà¼ĭà¼ĭà¼ĭà¼ĭà¼ĭà¼ĭà¼ĭà¼ĭà¼ĭà¼ĭà¼ĭà¼ĭà¼ĭà¼ĭà¼ĭà¼ĭà¼ĭà¼ĭà¼ĭà¼ĭà¼ĭà¼ĭà¼ĭà¼ĭà¼ĭà¼ĭà¼ĭà¼ĭà¼ĭà¼ĭà¼ĭà¼ĭà¼ĭà¼ĭà¼ĭà¼ĭà¼ĭà¼ĭà¼ĭà¼ĭà¼ĭà¼ĭà¼ĭà¼ĭà¼ĭà¼ĭà¼ĭà¼ĭà¼ĭà¼ĭà¼ĭà¼ĭà¼ĭà¼ĭà¼ĭà¼ĭà¼ĭà¼ĭà¼ĭà¼ĭà¼ĭà¼ĭà¼ĭà¼ĭà¼ĭà¼ĭà¼ĭà¼ĭà¼ĭà¼ĭà¼ĭà¼ĭà¼ĭà¼ĭà¼ĭà¼ĭà¼ĭà¼ĭà¼ĭà¼ĭà¼ĭà¼ĭà¼ĭà¼ĭà¼ĭ":4219,"à¼£à¼£à¼¤":4220,"à¾±à½²à¼ĭà½Īà½º":4221,"à¾²à¾¡à½º":4222,"à½ĵà½¦à½£":4223,"Ġà¼Įà¼Įà¼Įà¼Įà¼Įà¼Įà¼Įà¼Įà¼Įà¼Įà¼Įà¼Įà¼Įà¼Įà¼Įà¼Įà¼Į":4224,"à½Ĳà½Ħà½¦":4225,"à½Ĥà½ĵà½¦à½Ķà½¢":4226,"à¼£à¼¢à¼¦":4227,"à½Ĺà½ķà½Ŀ":4228,"à½ĥà½¢":4229,"à¼£à¼£à¼¦":4230,"à¾¾à¼į":4231,"à½¢à½Ķà½¦":4232,"à½ĳà½Ķà½łà½¢":4233,"à¼£à¼¨à¼ł":4234,"à¼£à¼£à¼¥":4235,"à½ĳà½Ĥà½£à½¦":4236,"à½ķà½¦à½¢":4237,"à¾±à¼ĭà¼ĳà¼į":4238,"à½Ħà½¦à½Ķà½¦":4239,"à¾¨à½²à¼įà¼į":4240,"à½ĸà½Ģà½Ħà½¦":4241,"à½Ĺà½ĵà½¥":4242,"à½ĸà½Ĭ":4243,"à¾Łà¾²à½²":4244,"à¾Łà½½à¼ĭ":4245,"Ġà¼£à¼¨":4246,"Ġà¼ĭà¼ĭà¼ĭà¼ĭà¼ĭà¼ĭà¼ĭà¼ĭà¼ĭà¼ĭà¼ĭà¼ĭà¼ĭà¼ĭà¼ĭà¼ĭà¼ĭà¼ĭà¼ĭà¼ĭà¼ĭà¼ĭà¼ĭà¼ĭà¼ĭà¼ĭà¼ĭà¼ĭà¼ĭà¼ĭà¼ĭà¼ĭ":4247,"à½¦à½łà½Ĥ":4248,"à½Ĥà½¦à½ĸà½¢":4249,"à½ĳà½Ħà½Ĥ":4250,"à½Ķà½¢à½ĵ":4251,"à¾Ĳà½´à½´à¼ĭ":4252,"à¾µà½´à½¿à¼ĭ":4253,"à½ĳà½ĳà½ĺ":4254,"à¾·à¾²à½±à½´à¾ĥà¼į":4255,"à½ĸà½ıà½ĺà½¦":4256,"à¼£à¼łà¼łà¼ł":4257,"à¼¡à¼¥à¼łà¼ł":4258,"à¼£à¼¥à¼§":4259,"à¾Łà¾Ĺà½ºà¼ĭ":4260,"à½ĩà½¦":4261,"à¼łà¼©":4262,"à¼£à¼¤à¼§":4263,"à½Ĺà½Ĵà½Ħà½Ĥ":4264,"à½ĺà½¨":4265,"à½Ķà½ĺà½Ĳ":4266,"à½£à½¨":4267,"à½Ļà½ļ":4268,"à¼łà¼£":4269,"à½Ĺà½Ĥà½¢":4270,"à½Łà½Ĳà½ķ":4271,"à½ĸà½ħà½Ŀ":4272,"à¾¨à¾±à½¼à¼įà¼į":4273,"à¼ĭà¼ĭà¼ĭà¼į":4274,"à¾Łà¾²à½»à¼ĭ":4275,"à½Ķà½¦à½£":4276,"à¼ĭà¾Ĺà½ºà¼ĭ":4277,"à½ĺà½£à½¦":4278,"à½Ĥà½ħà½«à½Ĥ":4279,"à½Ĵà½Ķ":4280,"à½ºà¼ĭà¼Ī":4281,"à¾²à½¼à¼·":4282,"à¼¡à¼łà¼¥à¼§":4283,"à½ĳà½Ħà½Ĥà½ŀà½ĵ":4284,"à½ħà½ĳà½ĳ":4285,"à½ĸà½ıà½ĵ":4286,"à½łà½ķà½Ĥà½¦à½Ķ":4287,"à¾·à¾²à½±à½´à¼ĭ":4288,"à¼£à¼¥à¼¦":4289,"à½¦à½Ĥà½ŀà½ĵ":4290,"à½Ģà½ŀ":4291,"à¾©à½¾à¼ĭ":4292,"à½¢à½ĳà½Ĥ":4293,"à¼¡à¼©à¼£à¼¨":4294,"à½Ĵà½Ĥà½«":4295,"à¾©à¾±à½²à¼ĭ":4296,"à¾¦à¾²à½ºà¼ĭ":4297,"à¾ªà½º":4298,"à¾»à½´à¼ĭ":4299,"à¼¤à¼łà¼¤":4300,"à¼£à¼¥à¼¥":4301,"Ġà½Ĳà½Ħ":4302,"à¾µà½´à¼į":4303,"à¼¡à¼©à¼¤à¼¡":4304,"à¼£à¼£à¼¨":4305,"à½Ĥà½¦à½ŀ":4306,"à¾²à½½à½¾à¼ĭ":4307,"à¾©à½±":4308,"à½Ŀà½¡":4309,"à¼£à¼¤à¼¨":4310,"à¼įà¼ĭà¼ĭà¼ĭà¼ĭà¼ĭà¼ĭà¼ĭà¼ĭà¼ĭà¼ĭ":4311,"à½ģà½ļ":4312,"à¾²à¼ĭà¼ĳ":4313,"à½Ĥà½ħà½Ħ":4314,"à½¥à½Į":4315,"à½ĳà½Ħà½ģ":4316,"à¾±à½²à¼ĭà¼½":4317,"à½¾à¼ĭà¼ĳ":4318,"à¼£à¼£à¼§":4319,"à¾±à½½à¼ĭ":4320,"à½Ĥà½¦à½¡":4321,"à½ħà½ĵà½¦":4322,"à½±à¾Ģà½¾à¼ĭ":4323,"à½±à½´à¼µà¼ĭ":4324,"à½ĵà½Ĥà½ŀà½ĵ":4325,"à½Ĥà½¦à½ĸà½¦":4326,"à½ĸà½¢à½łà½ĳ":4327,"à½ºà¼įà¼½":4328,"à½Ĥà½īà½¢":4329,"à¾Ĳà¾±à½ºà¼·à¼ĭ":4330,"à¼£à¼¦à¼©":4331,"à¾±à½²à¼ĭà½Īà¾±à½²à¼ĭ":4332,"à½¦à½¥":4333,"à¾±à½²à¼ĭà½²":4334,"à½īà½łà½ĺ":4335,"à¼£à¼£à¼¡":4336,"ĠĠĠĠĠĠĠĠĠĠĠĠĠĠĠĠĠĠĠĠĠĠĠĠĠĠĠĠĠĠĠĠ":4337,"à½Ģà½Ĩ":4338,"à½łà½ķà½Ĥà½¦à½Ķà½ł":4339,"à½Ŀà½Ĥà½¥":4340,"à½ĳà½łà½Ĥ":4341,"à½Ĵà½Łà½Ĳ":4342,"à½ĥà½ī":4343,"à¼£à¼¦à¼£":4344,"à¼§à¼¥à¼ł":4345,"Ġà½Ģà½¢":4346,"à½ĺà½¦à½Ķà½ł":4347,"à½¨à½Ģà½ł":4348,"à½Ŀà½İ":4349,"à½Ĺà½Łà½«":4350,"Ġà¼¤à¼¤":4351,"à½Ĥà½Ĥà½ħ":4352,"à½¢à½Ļ":4353,"à½ºà½¿à¼į":4354,"à¾¡à¾±à¼ĭ":4355,"à½£à½¦à½ĺ":4356,"à½Īà¾±à½º":4357,"à¼£à¼§à¼¤":4358,"à¾±à½²à¼ĭà¾İ":4359,"à½ıà½Ĥà½¦":4360,"à½Ĥà½Łà½ĳ":4361,"à¾Ĺà½ºà¼ĭà¼ĳ":4362,"Ġà¼įà¼Ī":4363,"à¾¤à¾²à½²à¼į":4364,"à½¢à½łà½ĸ":4365,"à½£à½łà½Ĥ":4366,"à½ºà¼ĭà¼ŀ":4367,"à½ĵà½¦à½Ģ":4368,"à½ĺà½ļà½ĳ":4369,"à½¼à½´":4370,"à¾¡à¾¡à½¼":4371,"à¼¡à¼¦à¼¤à¼¢":4372,"Ġà¼ħ":4373,"à¾¡à¾·à½±à¼į":4374,"à½ĳà½ĸà½Ħà½ĳ":4375,"à¼£à¼¥à¼¡":4376,"à¼£à¼§à¼§":4377,"Ġà¼¥à¼ł":4378,"Ġà½ĺà½ļà½ĺà½¦":4379,"à½ĳà½Ķà½łà½ĺ":4380,"à½±à½´à½¿à¼į":4381,"à¾¤à¾²à½¼à¼Ķ":4382,"à½©à½Ķ":4383,"à½ģà½¦à½ĸ":4384,"à¼ĭà¾¡":4385,"Ġà¼´":4386,"à¾·à½´à¼Ķ":4387,"à¾·à½±à½´à¼į":4388,"à½Ĺà½¢à½¥":4389,"à¾¶à¼į":4390,"à½ĸà½łà½Ĥ":4391,"à½ħà½ĵà½ĳ":4392,"à½ĸà½¦à½ĺà½Ķ":4393,"à½Ĩà½Ķ":4394,"à½¼à¼įà¼Ī":4395,"à¾¡à½ºà¼ĭà½Īà¾±à½²":4396,"à½Łà½Ĥà½Ķ":4397,"à½ŀà½Ĳ":4398,"à¾¡à¾·à½±à½¿à¼ĭ":4399,"à¼ĭà¼ĭà¼ĭà¼ĭà¼į":4400,"à¼£à¼§à¼£":4401,"à¾¼à¼ĭ":4402,"à¼ĭà¼ĭà¼ĭà¼ĭà¼ĭà¼ĭà¼ĭà¼ĭà¼ĭà¼ĭà¼ĭà¼ĭà¼ĭà¼ĭà¼ĭà¼ĭà¼ĭà¼ĭà¼ĭà¼ĭà¼ĭà¼ĭà¼ĭà¼ĭà¼ĭà¼ĭà¼ĭà¼ĭà¼ĭà¼ĭà¼ĭà¼ĭà¼ĭà¼ĭà¼ĭà¼ĭà¼ĭà¼ĭà¼ĭà¼ĭà¼ĭà¼ĭà¼ĭà¼ĭà¼ĭà¼ĭà¼ĭà¼ĭà¼ĭà¼ĭà¼ĭà¼ĭà¼ĭà¼ĭà¼ĭà¼ĭà¼ĭà¼ĭà¼ĭà¼ĭà¼ĭà¼ĭà¼ĭà¼ĭà¼ĭà¼ĭà¼ĭà¼ĭà¼ĭà¼ĭà¼ĭà¼ĭà¼ĭà¼ĭà¼ĭà¼ĭà¼ĭà¼ĭà¼ĭà¼ĭ":4403,"à¾¶à½²à¼į":4404,"à½ķà½Ģà½Ł":4405,"à½¨à½ŀ":4406,"à¼¤à¼¤à¼¤":4407,"à½ģà½Ĳ":4408,"à¾¨à½¾à¼ĭ":4409,"à¾¡à¾·à½ºà¼Ķ":4410,"à¼£à¼§à¼¥":4411,"à½ĵà½İ":4412,"à¾Ĳà¾Łà¾±":4413,"à¾²à½´à¼Ķ":4414,"à½ĳà½ĸà½Ĥ":4415,"à¼£à¼£à¼¢":4416,"à¼£à¼©à¼ł":4417,"à¾µà¾¨à½±à½²à¼ĭ":4418,"à¼ĭà¾¡à½¼à¼ĭ":4419,"à½¦à½ĸà½ĳà½Ĥ":4420,"à½łà½Ĥà½łà½ŀ":4421,"à¾µà½ºà¼į":4422,"Ġà¼¼à¼¼":4423,"à¼ĭà¾§à½´à¼ĭ":4424,"Ġà½ĳà½ĳ":4425,"à¾²à¾±à¼ĭ":4426,"à¾±à½²à¼µà¼ĭ":4427,"à¾£à½¿à¼ĭ":4428,"à¾ļà½±à½²à½¿à¼ĭ":4429,"à¼£à¼¦à¼¡":4430,"à¾¦à¾·à½²à½¿à¼į":4431,"à½¦à½Ħà½¥":4432,"à¼¡à¼©à¼¤à¼¢":4433,"à¼ĭà¾¹":4434,"à¾ŀà¾ŀà½±à¼ĭ":4435,"à¼£à¼¤à¼¦":4436,"à½²à¼ĭà½Īà½ºà¼ĭ":4437,"à¼¡à¼©à¼łà¼£":4438,"à½Ķà½ĸà½ĳ":4439,"à½Ĺà½Ĥà½İ":4440,"à¼ĭà½²à¼ĭà½º":4441,"à¾³à¼·à½¼à¼ĭ":4442,"à½Ĵà½Ĳà½Ĥ":4443,"à¼£à¼¥à¼¤":4444,"à½ĺà½¦à½¡":4445,"Ġà½Ĩà½ĸ":4446,"à½ĳà½Ļ":4447,"à½ĵà½Ķà½ĳ":4448,"à½¼à¼ĭà¼Ŀà¼įà¼į":4449,"à½łà½ĳà½Ĥà½¦":4450,"à½ĺà½Ĳà½Ĥ":4451,"à½´à¼ĭà¾İ":4452,"à½ĺà½¦à½ı":4453,"à¾·à¾Ļ":4454,"à¾¦à½²à¼į":4455,"à¾¦à¼ĭà¼´":4456,"à½ĺà½Ĳà½łà½ĺ":4457,"à½ĺà½ĺà½Ĳ":4458,"à½Ħà½¦à½ĺ":4459,"à½©à½ĸ":4460,"à½Ĥà½Łà½Ĥ":4461,"Ġà½ĵà½ĳ":4462,"à¼ĭà¾¢à½¼à¾ħ":4463,"à½£à½Ł":4464,"à½ºà¼įà¼Į":4465,"à¾·à¾¨":4466,"à¼£à¼§à¼©":4467,"à½¦à½ĺà½ĵ":4468,"à¾Ļà¾±à½º":4469,"à½ĸà½¤à½ĳà½Ķà½ł":4470,"à¾¤à¾²à¾Ģ":4471,"à¾łà½¿à¼ĭ":4472,"à¼£à¼§à¼¦":4473,"à½ıà½łà½ĺ":4474,"à¾«à¼įà¼į":4475,"à¼§à¼¥à¼¦":4476,"à¾´à½²":4477,"à½Ħà½Ĳ":4478,"à¾²à½²à¼·":4479,"à½Ļà½ĵà½ĳ":4480,"à½łà½Ĳà½Ĥà½¦":4481,"à¼łà¼łà¼łà¼łà¼łà¼łà¼ł":4482,"à¼ĭà¾Ĺà½¼à¼ĭ":4483,"à½ĺà½¦à½ĳ":4484,"à¾Łà½´à½¾à¼ĭ":4485,"à¼¡à¼©à¼¢à¼ł":4486,"à½£à½Ķà½¢":4487,"à½ĺà½¦à½ĸ":4488,"à½Ĥà½ŀà½Ĥà½Ķ":4489,"à¼łà¼¥":4490,"à¼ĭà¾¢à¾±à¼ĭ":4491,"à½ĵà½ĳà½Ĥà½ł":4492,"à½ļà½ĳà½ĺ":4493,"à½ĺà½Ľà½ĳà½Ķ":4494,"à¼ĭà¼µ":4495,"à½ĸà½Ķà½¦":4496,"à½ĸà½ĳà½ĸ":4497,"à½Ķà½Ħà½¦":4498,"à¼£à¼¤à¼¡":4499,"à½Ĵà½Ĥà½«à½¥":4500,"à¾·à½±à½¿à¼ĭ":4501,"à¼¢à¼łà¼¢à¼ł":4502,"à½Ģà½ĭ":4503,"à½ıà½ķ":4504,"à½ĺà½¦à½ŀ":4505,"à½ĭà½ł":4506,"Ġà½Ĥà½¦à½¢":4507,"à½ĸà½ĩ":4508,"à½Ħà½ļ":4509,"à¾Łà¼µ":4510,"à½ħà½ĳà½¦":4511,"à¾«à½´à¼į":4512,"à¾µà¾¨à¼ĭ":4513,"à¼£à¼¥à¼¨":4514,"à½Ĥà½¨":4515,"à¾²à½½":4516,"à½¡à½ĸà½¦":4517,"à½ĸà½Ļà½Ħà½¦":4518,"à¾¤à¾±à¾¡à½¼":4519,"à½Ĵà½Łà½ĸ":4520,"à¾Łà¾Ĺà½º":4521,"à¾¤à½´à¼įà¼į":4522,"à¾Ĺà½ºà¼ĭà¼½":4523,"à½Ĵà½Łà½Ĥ":4524,"à¾ªà½±à¼į":4525,"à½ĵà½¦à½ī":4526,"à¾²à½±à½²à½¾à¼į":4527,"à¾²à½´à½¾à¼į":4528,"à½ĸà½Ĥà½Ĩà½Ĥà½¦":4529,"à¼¥à¼¥à¼¦":4530,"à¼¡à¼©à¼łà¼¨":4531,"à¾·à¼ĭà¼ĳ":4532,"à½±à½´à¾ĥà¼ĭà¼ĳ":4533,"à¾©à½ºà¼Ķ":4534,"à½Ĺà½ģà½¥":4535,"à½ĺà½ĺà½¦":4536,"à½ģà½Ļ":4537,"à½ĳà½ĺà½Ķà½ł":4538,"à½Ĥà½¤à½ĺà½¦":4539,"à½´à¼įà¼ĭà¼ĭà¼ĭà¼ĭà¼ĭ":4540,"Ġà¼Ħà¼į":4541,"à¼¡à¼©à¼¡à¼¡":4542,"à¼ĭà¾¢à½¿à¼į":4543,"Ġà½ĺà½¦":4544,"à½£à½Ĥà½ĵ":4545,"à¾Łà½½à¼į":4546,"à¾¡à¾²à½ºà¼ĭ":4547,"à½ĸà½¤à½Ĳà½Ĳ":4548,"à½Īà¾²à½º":4549,"à½Ĺà½ĺ":4550,"à¼¡à¼©à¼£à¼¢":4551,"»¿":4552,"ï»¿":4553,"Ġà¼ĭà¼įà¼į":4554,"à¾·à¾ĥà¼ĭ":4555,"à¼¡à¼©à¼¤à¼¦":4556,"à¾±à½¼à¼Ķ":4557,"à¾·à½±à½¾à¼ĭ":4558,"à¾£à¾¡à½¼":4559,"à¾Ńà½²à¼į":4560,"à¼ĭà½¾à¼į":4561,"à½Ĥà½¦à½Ĥà½¦":4562,"à½ĳà½Ħà½¤":4563,"à½ħà½ĵà½Ĳà½ĺà½¦":4564,"à¼£à¼©à¼¥":4565,"à¼ĭà¾§à½±à¼ĭ":4566,"à¾ªà½¼à¼ĭ":4567,"à¼£à¼¦à¼¢":4568,"Ġà½ŀà½ĸà½¦":4569,"à¾²à¾Ĺà½²":4570,"à¾¦à¼Ķ":4571,"à½Ľà½¤":4572,"à¼£à¼¥à¼¢":4573,"à¼£à¼¦à¼¦":4574,"à½¦à½ĸà½Ģà½ł":4575,"à¾Ķà½ºà¼ĭ":4576,"à¼£à¼¦à¼¤":4577,"à¾±à½»à½¿à¼ĭ":4578,"à½¦à½Ĥà½ĵà½¦":4579,"à¾»à½¼à¼ĭ":4580,"à¾Łà½±à½²à¼į":4581,"à½ĳà½Ħà½ĸà½¦":4582,"à½Īà½±à½²":4583,"à¾µà½º":4584,"à¼¡à¼©à¼¢à¼§":4585,"à½Ĥà½£à½Ĥ":4586,"à½ĺà½¥":4587,"à½¡à½Ĭ":4588,"à¾¤à½¼à¼įà¼į":4589,"à¾²à½¼à¼ĭà¼´":4590,"à½ĸà½Łà½Ħà½Ķ":4591,"à¾Ńà½±à½¾à¼į":4592,"à¼¤à¼łà¼§":4593,"à¼£à¼¤à¼¢":4594,"à¾Ĳà½ºà¼į":4595,"à½ĵà½¦à½ĸà½¦":4596,"à¼£à¼§à¼¡":4597,"Ġà½Ĥà½ıà½ĵ":4598,"à½łà½¡":4599,"à½Ķà½¢à½¡à½Ħ":4600,"à½Ķà½¦à½Ģ":4601,"à½Ļà½¡":4602,"à¼ĭà½Īà½¼à¼ĭ":4603,"à¾±à¾³à½º":4604,"à½£à½ĺà½Ĩ":4605,"à¾³à¾¡à½¼à¼ĭ":4606,"à½Ļà½ĺà½Ĥ":4607,"à½ĳà½Ĥà½łà½ĺ":4608,"Ġà½ĵà½ķ":4609,"à½Ĥà½ĳà½¦":4610,"à¾Ĵà¾²à¼·à¼ĭ":4611,"à¼¤à¼¡à¼§":4612,"à¼¥à¼łà¼łà¼ł":4613,"à¼¨à¼łà¼ł":4614,"à¼£à¼¦à¼§":4615,"à¼£à¼¨à¼©":4616,"à½Ĳà½ĵà½Ĥ":4617,"à½ħà½ĵà½¡":4618,"à¼£à¼©à¼§":4619,"à½ĵà½Ĥà½ī":4620,"à½Ħà½Łà½ĳ":4621,"à½Ĥà½ŀà½ĵà½£":4622,"à½ĸà½Ģà½Ĥà½¦":4623,"à½ĺà½ĳà½ĳ":4624,"à¾ŀà½¾à¼į":4625,"à¾±à½´à¼µ":4626,"à½¨à½£à½¦":4627,"à¼ĭà¼ĭà¼ĭà¼ĭà¼ĭà¼į":4628,"à½ºà¼ĭà¼İ":4629,"à¾Ķà¾¡à½¼à¼ĭ":4630,"à½Ĩà½Ĥà½¦à½Ķ":4631,"à½ĥà½ı":4632,"à¾Łà¾Ĳà¾±à½ºà¼ĭ":4633,"à½Ķà½¢à½¡":4634,"à½ĺà½ĵà½ĳ":4635,"à¼Ģà½£à½¦":4636,"à½ĸà½Ŀ":4637,"à½´à¼ĭà½Īà½²":4638,"à½łà½Ĥà½ĺà½¦":4639,"à¾Ĵà½¼à¼Ķ":4640,"à¾ªà¼Ķ":4641,"à¾ļà½²à½¿à¼ĭ":4642,"à¼Ģà½¢à½ı":4643,"Ġà½łà½Ľà½ĺ":4644,"Ġà½¨à½Ħ":4645,"à½ĵà½ĺà½Ĳ":4646,"à½£à½ĺà½ģà½¦":4647,"à½ĵà½¦à½ŀ":4648,"à¼łà¼¢":4649,"à½Īà¾±à½²à¼ĭ":4650,"à½Ļà½Ħà½¥":4651,"à½Ķà½¥":4652,"à½ĳà½ĺà½Ķà½¢":4653,"à¼£à¼§à¼¨":4654,"à¾Ĵà¼įà¼į":4655,"à½ĵà½¦à½Ħà½¦":4656,"à½ĸà½Ĥà½ĸ":4657,"à¼¡à¼©à¼¢à¼¤":4658,"à½¼à¾ĥà¼į":4659,"à¾±à½´à½´":4660,"à½Ļà½¥":4661,"à½ĸà½ıà½Ĭ":4662,"à¾¦à¾·à½±à½²à¼į":4663,"Ġà½īà½ĵ":4664,"Ġà½Łà½¦":4665,"à½Ħà½ħ":4666,"à¾Łà¼ĭà¼Ħà¼ħà¼įà¼į":4667,"à½łà½Ĩà½¦":4668,"à¼¡à¼©à¼¡à¼©":4669,"à¾¦à¾·à½±à½´à¼ĭ":4670,"à¼£à¼¥à¼£":4671,"à¾¦à¾¦à½¾à¼ĭ":4672,"à¾²à½¾":4673,"à¼£à¼©à¼¡":4674,"à¾¤à½±à½´à¼ĭ":4675,"à½Ĺà½ĳà½Ħ":4676,"à¾ŀà½¼à¼ĭ":4677,"à¼£à¼©à¼¤":4678,"à¼¤à¼¤à¼§":4679,"à¾Łà¾²à½¾à¼ĭ":4680,"à¾Ĵà¾Ĵà¼ĭ":4681,"à¾³à½±":4682,"à¾³à¾³à½¼":4683,"Ġà¼§à¼§":4684,"à½¦à½łà½ĩ":4685,"à½Ķà½łà½ĩ":4686,"à½īà½Ķ":4687,"à½²à¼ĭà½Īà¾²à½º":4688,"à¾·à½ºà½¾à¼ĭ":4689,"½¶":4690,"à½¶":4691,"à½Ĥà½¢à½Ħ":4692,"à¾±à¾Ĺà½¼":4693,"à½£à½ĸà½ŀ":4694,"à¾łà½±à½´à¼ĭ":4695,"à¾»à½±":4696,"à¾¨à¾²à¾±à½´à½¾à¼ĭ":4697,"à½ĺà½Ŀ":4698,"à¼įà¼įà¼Ī":4699,"à¾²à½±à¾Ģà½¾à¼ĭ":4700,"à¼£à¼¨à¼¥":4701,"à½Ħà½Ħà½¦":4702,"à¾©à½¼à¼įà¼į":4703,"à½Ľà½ı":4704,"à½´à¼įà¼ĭ":4705,"à½łà½Ĳà½ł":4706,"à½Ĺà½Ĳà½Ł":4707,"à¾ŀà¾ŀà½´à¼ĭ":4708,"à½Ĥà½ĸà½ŀ":4709,"à¾¦à½ºà¼į":4710,"à¾Ĳà½´à¼ĭà¼ĳ":4711,"à¼¡à¼©à¼¤à¼£":4712,"à¼¤à¼łà¼¥":4713,"à¼£à¼©à¼¦":4714,"à½Ħà½ĸà½Ł":4715,"à½Ľà½¡":4716,"à¾¦à¾²à¾Ģà¼ĭ":4717,"Ġà½ĸà½ķ":4718,"à¾²à½±à½¾à¼Ķ":4719,"à¾±à¼·à½²":4720,"à¾¡à½¿à¼ĭ":4721,"à½£à½¦à½ĵ":4722,"à½ĸà½ĳà½Ĥà½ĳà½Ħ":4723,"à½¢à½ĸà½¤à½ĳ":4724,"à¾łà½¼à¼ĭ":4725,"à¼£à¼¦à¼¨":4726,"à½£à½İ":4727,"à½ĳà½Ħà½Ĥà½Ł":4728,"à¾»à½ºà¼ĭ":4729,"à½Ĥà½łà½ļà½£":4730,"à¼įà¼ĭà¼ĭà¼ĭà¼ĭà¼ĭà¼ĭà¼ĭà¼ĭà¼ĭà¼ĭà¼ĭà¼ĭ":4731,"à½Ĥà½Ħà½ĳ":4732,"à½ĸà½ĳà½Ĥà½£":4733,"à¼£à¼§à¼¢":4734,"à¼¡à¼©à¼łà¼©":4735,"à¼įà¼ĭà¼ĭà¼ĭà¼ĭà¼ĭà¼ĭà¼ĭà¼ĭà¼ĭà¼ĭà¼ĭ":4736,"à½²à¼ĭà¼ĭ":4737,"à½ıà½Ĭ":4738,"à¾±à½²à½¿à¼ĭ":4739,"à¾¡à¾²à½²":4740,"à½ĳà½Ķà½ĵ":4741,"à¼¤à¼¢à¼ł":4742,"à¼ĭà¼Īà¼į":4743,"à½¦à½ĳà½ĺ":4744,"à½¦à½ķà½¥":4745,"à½²à¼ĭà¾²":4746,"à½£à½ĵà½¦":4747,"à½Ĳà½¡":4748,"à½£à½¦à½ĳ":4749,"à¾³à½¼à¼ĭà¼½":4750,"à½Ĺà½ŀ":4751,"à¼ĭà¾·":4752,"à½¡à½ŀ":4753,"à½Ħà½¦à½ĳ":4754,"à½£à½¦à½ĳà½Ħ":4755,"à¾¨à½¼à¼į":4756,"à½±à½´à½¾à½¿à¼ĭ":4757,"à¾¾à¾¾à¾¾à¾¾à¾¾à¾¾à¾¾à¾¾":4758,"Ġà½ĺà½Ĳà½¢":4759,"à½¢à½§":4760,"à¾Łà½±à½´à¼ĭ":4761,"à½Ķà½łà½ģ":4762,"à½Ĺà½ķà½¦":4763,"à½Įà½¦":4764,"à½ĳà½Ĥà½Ĳà½ĺà½¦":4765,"à½ħà½ĳà½£":4766,"à½£à½ĵà½ĳ":4767,"à½¦à½Ĥà½ħ":4768,"à½£à½ĸà½ĳà½Ĥ":4769,"à¾ľà¾ľà¼ĭà¼¼":4770,"à¾ľà¾ľà¾ľà¾ľà¼ĭà¼¼":4771,"à½£à½ĸà½ĳ":4772,"à½Ķà½¢à½Ĥà½ĵà½¦":4773,"à¾·à¾Ħ":4774,"à¾ľà¾·à¼ĭ":4775,"à½Ĵà½ŀ":4776,"à½Ĺà½ķà½¢":4777,"à¾µà¾¼":4778,"à¼£à¼©à¼£":4779,"à½´à¼ĭà¼ĭ":4780,"à¾Ĵà½»à¼ĭ":4781,"à½£à½¦à½Ĥ":4782,"à¼ĭà¾¢à½²à¼į":4783,"à¼¤à¼łà¼£":4784,"à¼£à¼¨à¼§":4785,"à¼¡à¼©à¼¤à¼¤":4786,"à¾Ľà½¿à¼ĭ":4787,"à½ĺà½Ĥà½ī":4788,"à¾³à¾Ĵà¾²à½¼":4789,"à½łà½ĩà½ĸà½¦":4790,"à¾ľà¾»":4791,"à¼ĭà½Īà¾¤à¾²à½²":4792,"à¼Įà¼į":4793,"à¼§à¼łà¼§":4794,"à½ĳà½ļ":4795,"à½Ĥà½¦à½ħà½ĵ":4796,"à½Ĩà½Ĳ":4797,"à½ļà½Ķ":4798,"à½¡à½Ħà½łà½ĳ":4799,"à¾·à¾Ĵà¾·":4800,"à½Ŀà½«à½Ħ":4801,"à¼łà¼¨":4802,"à¼łà¼¡à¼ł":4803,"à½ħà½ĵà½ĳà½Ħ":4804,"à½¥à½Ģ":4805,"à¾ľà½±à½´à¼ĭ":4806,"à½ĵà½Ĳà½ĺà½¦":4807,"à¾±à½²à¼ĭà¼ŀ":4808,"à¾±à½²à¼µ":4809,"à¾£à½±à½¾à¼ĭ":4810,"à¾«à½¼à¼įà¼į":4811,"à½¼à¼įà¼Ħà¼ħà¼įà¼į":4812,"à¼½à¼įà¼į":4813,"à¾·à½²à½¿à¼įà¼į":4814,"à¼£à¼¨à¼£":4815,"à½ĸà½ĵà½ĳ":4816,"à½ĳà½Ħà½ī":4817,"à¾±à½ºà¼ĭà¼·à¼ĭ":4818,"à½ĺà½Ĳà½łà½Ħ":4819,"à¼¦à¼¥à¼ł":4820,"à¾¡à¾·à½ºà¼ĭà¼´":4821,"à¼£à¼©à¼¢":4822,"à¾±à½²à½¾à¼ĭ":4823,"à½£à½¦à½łà½ĸ":4824,"Ġà½ĺà½Ħà½ł":4825,"à½¦à½¦à½ĺ":4826,"à½¼à¼įà¼įà¼ĭ":4827,"à¾¡à½¼à¼µà¼ĭ":4828,"à¾·à½²à½¾à¼ĭ":4829,"à¼£à¼¨à¼¤":4830,"à¾¾à¾¾à¾¾":4831,"à½£à½ĳà½ĸà½Ħ":4832,"à½Ŀà½«à½Ĥ":4833,"à¼¤à¼¡à¼¤":4834,"à¼¢à¼¥à¼łà¼ł":4835,"à½ĵà½ĸà½ĳ":4836,"à½Ĥà½ŀà½ĺà½¦":4837,"à¾²à¼ĭà¼¼":4838,"à¾Łà½ºà¼ĭà¼ĳà¼į":4839,"à¾ħà¾ħà¾ħ":4840,"à½¦à½ħ":4841,"à½£à½Ĥà½ī":4842,"à¾Ĵà¾±à½¼à¼ĭ":4843,"à¾±à¼ĭà¼´":4844,"à½Ļà½Ķ":4845,"à½ĸà½Ĥà½¢":4846,"à½Ĵà½Ĥà½Ħ":4847,"à¼©à¼¦à¼ł":4848,"à¼¡à¼©à¼¢à¼¦":4849,"à½©à½ł":4850,"à½²à¼ĭà¼ĳà¼ĳ":4851,"à¼£à¼©à¼¨":4852,"à¼£à¼¨à¼¢":4853,"à¼£à¼¨à¼¦":4854,"à½¦à½ĺà½Ĩ":4855,"à¾±à¼ĭà¼½":4856,"à¼¡à¼©à¼¢à¼£":4857,"Ġà½ĳà½ĺà½¢":4858,"Ġà½ĳà½¢":4859,"à½ĵà½ĳà½ĸ":4860,"à½ĸà½¦à½ĳà½Ħ":4861,"à½Ĥà½¦à½£à½ĸà½¢":4862,"à½±à½´à½¿à¼ĭ":4863,"à¼ĭà½±à½¿à¼ĭ":4864,"à¾Ĵà½¿à¼į":4865,"à½ıà½łà½Ħ":4866,"à½Ķà½¢à½ĸà½¤à½ĳ":4867,"à½ĸà½ĳà½Ĥà½Ķ":4868,"à¼ĭà¾Ŀ":4869,"à½Ĥà½Ĥà½Ħ":4870,"à½ĵà½Ĥà½ħ":4871,"à½Ĥà½¦à½£à½ĸ":4872,"à¾£à¼ĭà¼´":4873,"à¼¤à¼¡à¼ł":4874,"à½Ĥà½¦à½Ĩ":4875,"à½¡à½Ħà½Ħ":4876,"à½ĵà½Ħà½ĳ":4877,"à½Ĳà½¢à½ĳ":4878,"à½¼à¼µà¼įà¼į":4879,"à½¢à½Ķà½¢":4880,"à¾²à½»":4881,"à¾Ĳà¾²à½´à¼ĭ":4882,"à¾³à½½":4883,"à½§à½¢à½ı":4884,"à¼¤à¼§à¼§":4885,"à¾²à½±à½¿à¼ĭ":4886,"à½Ĥà½ŀà½Ĥà½¦":4887,"à¾¦à¾©à½¼":4888,"à¼¤à¼łà¼¦":4889,"Ġà¼Įà¼Įà¼Įà¼Į":4890,"à¾·à¾²à¼ĭà½µà¾ĥà¼ĭ":4891,"à½łà½ģà½ł":4892,"à½łà½ļà½ĳ":4893,"à¼©à¼¨à¼¦":4894,"à½¦à½Ĥà½Ł":4895,"à½ĺà½ĵà½Ĥ":4896,"à½£à½Ĥà½Ħ":4897,"à½¼à¼ĭà½´":4898,"à½ĺà½ĩà½ł":4899,"à¾¶à½¿à¼ĭ":4900,"à½ĳà½Ĥà½ı":4901,"à¾¥à½²":4902,"à½ĳà½§":4903,"à½ĺà½ª":4904,"à½£à½ĺà½Ĳ":4905,"à¾Ńà¼Ķ":4906,"à¼¤à¼¥à¼ł":4907,"à¼ĭà¾¢à½¾à¼ĭ":4908,"à¾Ĳà¾²à¼įà¼į":4909,"à¼£à¼¨à¼¡":4910,"à½Ĺà½Ħà½Ł":4911,"Ġà½Ĥà½ĵà½Ħ":4912,"à½Ģà½Ľ":4913,"à½ĳà½ĳà½ĳ":4914,"à½¿à¼ĭà¼Ī":4915,"Ġà¼ĭà¼ĭà¼ĭà¼ĭà¼ĭà¼ĭà¼ĭà¼ĭà¼ĭà¼ĭà¼ĭà¼ĭà¼ĭà¼ĭà¼ĭà¼ĭà¼ĭ":4916,"à½¦à½ĳà½ĸ":4917,"à½¦à½Ŀ":4918,"à½ĳà½ħà½ĵ":4919,"à¾¦à¾·à¾±à½¿à¼į":4920,"à¾łà½²à¼į":4921,"à½©à½ŀ":4922,"à¾±à½½à¼į":4923,"à¾¡à½±à½²à¼ĭ":4924,"à¾³à¾©à½¼":4925,"à¾¤à¾±à½²à¼įà¼įà¼įà¼į":4926,"à¾Ľà½ºà¼ĭ":4927,"à½įà½Ģ":4928,"à¾±à¼ĭà¼¼":4929,"à¾·à¾³":4930,"à½¾à¼ĭà¼¼":4931,"à½¼à½¾à½¿à¼ĭ":4932,"à½Ķà½§":4933,"à½²à¼ĭà¼Ŀà¼įà¼į":4934,"à½Ģà½§":4935,"à½ģà½Ĩ":4936,"à½Ħà½¦à½£":4937,"à½Ĺà½ĸà½ĵ":4938,"à¼¡à¼©à¼¡à¼¨":4939,"à¾»à¼įà¼į":4940,"à½ĵà½Ķà½Ĥ":4941,"à¼£à¼©à¼©":4942,"Ġà½Ħà½ĵ":4943,"à½İà½ĳ":4944,"à¼¤à¼łà¼łà¼ł":4945,"à¼Ģà½łà½ĳ":4946,"ĠĠĠĠĠĠĠ":4947,"à¾Īà¾Īà¾Īà¾Īà¾Ī":4948,"à½¦à½¡à½Ħ":4949,"à½¢à½Ĥà½ĵà½¦":4950,"à¾±à¾±à½ºà¼ĭ":4951,"à½Ĳà½ĸà½ĸ":4952,"Ġà½İ":4953,"à¾Ĭ":4954,"à½¢à½Ĥà½ŀà½ĵ":4955,"à¾©à¾ªà¼ĭ":4956,"à¾«à¾±à½¼":4957,"à¼¤à¼¡à¼¥":4958,"à½łà½ĳà½łà½¦":4959,"à¾ĭà½Ģ":4960,"à½Ĥà½ĺà½ł":4961,"à¾±à¾³à½¼":4962,"à½Ģà½Ŀ":4963,"à¾Ĵà½¾à¼ĭ":4964,"à¾¨à½»à¼į":4965,"à½¾à½¿à¼į":4966,"Ġà¼İ":4967,"à¼¤à¼¡à¼£":4968,"à½ķà½ħà½Ĳ":4969,"à½ļà½Ģ":4970,"à¾«à½²à¼įà¼į":4971,"à½Ĵà½Ĺà½¥":4972,"Ġà¼ĳà¼ĳ":4973,"à¼ĭà¼¹à¼į":4974,"à¼¤à¼§à¼ł":4975,"à¾·à¾²à½±à½´à½¾à¼į":4976,"à½¡à½¨":4977,"à¾Łà½¾à¼įà¼į":4978,"à½Ĳà½ķ":4979,"à¾²à½¼à½¼":4980,"à½ĳà½ĺà½Ķ":4981,"à¾Ĳà¾±à¾¦à¾·à½º":4982,"à½ºà¼įà¼įà¼įà¼į":4983,"à¾¦à¾²à¼į":4984,"à¾µà¾¨à½±à½²":4985,"à½ĵà½¢à½Ħ":4986,"à½Ħà½Ķà½¢":4987,"à¾²à¾²":4988,"à¾¨à¼Ķ":4989,"à½ĺà½Ĩà½Ĥ":4990,"à½¨à½ħ":4991,"à½Ĵà½Ł":4992,"à¼£à¼¨à¼¨":4993,"à¼ĭà¾¾à¼įà¼į":4994,"à¾¢":4995,"à¼įà¼ĭà¼ĭà¼ĭà¼ĭà¼ĭà¼ĭà¼ĭà¼ĭà¼ĭà¼ĭà¼ĭà¼ĭà¼ĭà¼ĭ":4996,"à¾±à¼µà¼ĭ":4997,"à¾©à½²à¼Ķ":4998,"à¼¡à¼©à¼£à¼¡":4999,"à¾ŀà½´":5000,"à¾¡à¾·à¾Ń":5001,"à¼¤à¼łà¼¢":5002,"à½Ķà½ĳà½ĸ":5003,"à½ĳà½Ĥà½ģ":5004,"à¼¡à¼©à¼¡à¼§":5005,"à¾łà¼įà¼į":5006,"Ġà½Ĥà½¡à½¦":5007,"Ġà½ĺà½ĩ":5008,"à½¦à½ĩ":5009,"à½£à½ĺà½ĳ":5010,"à½»à½¾à¼į":5011,"à¼įà¼ĭà¼ĭà¼ĭà¼ĭà¼ĭà¼ĭà¼ĭà¼ĭà¼ĭà¼ĭà¼ĭà¼ĭà¼ĭ":5012,"à½¢à½ĸà½ŀ":5013,"à½¢à½ĸà½ĳà½Ĥ":5014,"à¾Ĵà½´à¼į":5015,"à½ĳà½ĸà½Ħà½ķ":5016,"à½ĺà½ģà½¦à½Ķ":5017,"à¾Łà½´à½¿à¼ĭ":5018,"à½¢à½Ħà½¦à½Ħà½¦":5019,"à½ĵà½£à½ĺ":5020,"à½Ħà½¡à½Ħ":5021,"à½¡à½ıà½ł":5022,"à½½à½¿à¼ĭ":5023,"à¾Łà¾¨à¼ĭ":5024,"à½ĳà½Ħà½Ĳ":5025,"à¾Ĳà¾²à½²":5026,"à¾Ĳà¼·":5027,"à¾²à¼ĭà½µ":5028,"à½¥à½ĺ":5029,"à¼·à¼ĭà¼·à¼ĭ":5030,"à¼¤à¼¨à¼ł":5031,"à½´à¼ĭà½²":5032,"à¾Ĵà½±à¼į":5033,"à½łà½Ľà½Ħ":5034,"à½ĸà½¤à½ĳà½ĳ":5035,"à¾Ĳà½´à¼·à¼ĭ":5036,"à¼ĭà½Īà¾¡à½ºà¼ĭ":5037,"à½Ĺà½Ĳà½Ĥ":5038,"à¾µà½±à¼į":5039,"à¼¡à¼©à¼¢à¼©":5040,"à¾·à½¼à¾ħ":5041,"à¾¶à½±à½²":5042,"à½¦à½Ķà½Ģ":5043,"à½¦à½«":5044,"à½£à½ķà½ĵ":5045,"à½ĳà½Ĥà½ŀ":5046,"à¾±à½´à¼Ķ":5047,"à¼įà¼½à¼ĭà¼ĭà¼ĭà¼ĭà¼ĭ":5048,"à¾Ĭà½Ķ":5049,"à½¦à½¢à½Ħ":5050,"à½£à½¢à½Ħ":5051,"à¾Łà½ºà¼įà¼ĭ":5052,"à½ĸà½Ĩà½ĳ":5053,"à¼įà¼įà¼Ħà¼ħà¼įà¼į":5054,"à½īà½ģ":5055,"à½Ķà½¢à½Ĥà½¦":5056,"à¾ŀà½´à½¿à¼į":5057,"à½ĳà½łà½ĸ":5058,"à¾Ĵà¾²à½ºà¼į":5059,"à¼¡à¼©à¼łà¼¦":5060,"à¼»":5061,"à¾Łà½»à¼ĭ":5062,"à¾¥à½´à¼į":5063,"à¼§à¼§à¼§":5064,"à¾£à¼·à¼ĭ":5065,"à¾©à½¾à¼į":5066,"à½¾à¼ĭà½¾à¼ĭ":5067,"à½ĸà½Ĥà½Ħà½¦":5068,"à½ĺà½īà½ĺà½Ķ":5069,"à¼¤à¼¡à¼©":5070,"à½ķà½Ĭà½¦":5071,"à½ģà½ı":5072,"à½ĵà½¦à½Ĥ":5073,"à½Ĥà½Łà½Ħà½¦":5074,"à½Ĺà½ĸà½ı":5075,"à½©à½£":5076,"à¾²à½±à¾ĥà¼į":5077,"à¾±à¼µà½²":5078,"à¾¡à¾±à½²":5079,"à¾·à¾Ģà¼ĭ":5080,"à¾²à½²à¼ĭà¼½":5081,"à¾±à¼įà¼įà¼įà¼į":5082,"à¾²à½²à½²":5083,"à½ĺà½ĳà½ĵ":5084,"à¼¤à¼§à¼¥":5085,"à½ĵà½Ĥà½ŀ":5086,"à½²à¼ĭà½±à¼ĭ":5087,"à½ºà¼ĭà½±à¼ĭ":5088,"à½ģà½Ĥà½¦":5089,"à¾Łà½ºà½¿à¼ĭ":5090,"à½ĺà½ĵà½Ĥà½¦":5091,"à¼¡à¼łà¼§à¼¡":5092,"à¾Ľà½±à½¿à¼į":5093,"à½ĥà½ł":5094,"à¼¤à¼łà¼¡":5095,"Ġà½łà½ļ":5096,"à½ĳà½ĳà½Ķà½ł":5097,"à¾±à¾Ļà½²à¼ĭ":5098,"à½²à¼ĭà¾Ĵ":5099,"à¼¤à¼łà¼©":5100,"Ġà¼¤à¼§":5101,"à½¢à½Ķà½ĸ":5102,"à¾±à¾±à½¼":5103,"à¾±à¾¤à¾±à½¼":5104,"à½Īà¾²à½ºà¼ĭ":5105,"à½Ĺà½©":5106,"à½łà½ĸà½łà½ŀ":5107,"à¼ĭà¾£à¼ĭ":5108,"à½£à½Ĥà½ŀà½ĵ":5109,"à½ºà¼įà¼Ħà¼ħà¼įà¼į":5110,"à½±à½´à¾Ĥà¼į":5111,"à¼¤à¼£à¼ł":5112,"à½ĺà½¦à½ĺà½¦":5113,"à¾£à¾²":5114,"à½Ķà½¦à½¡":5115,"à¼¡à¼©à¼¢à¼¨":5116,"à½¦à½«à½Ĳ":5117,"à¾£à½±à¼į":5118,"à¼¤à¼¡à¼¢":5119,"à¾µà½±à½¾à¼ĭ":5120,"à¼¡à¼©à¼łà¼ł":5121,"à¼Ŀà¼Ŀà¼Ŀ":5122,"à¾©à½±à½²à¼ĭ":5123,"à¾³à½´à½¾à¼ĭ":5124,"à½¥à½¡":5125,"à¼·à¼įà¼į":5126,"à¼¡à¼łà¼łà¼łà¼ł":5127,"à¾ļà½´":5128,"à½¦à½«à½Ħ":5129,"à½¡à½Ĳ":5130,"à½ķà½Ļ":5131,"à¾Ĳà¾Ĺà½ºà¼ĭ":5132,"à½İà½Ģ":5133,"à¼¤à¼¤à¼ł":5134,"à¾ľà½¿à¼į":5135,"Ġà½Łà½Ĥ":5136,"Ġà½ķà½Ĥ":5137,"à½ĺà½¦à½ĸà½ŀ":5138,"à¾©à¾²à½ºà¼ĭ":5139,"à¾¦à¾¦à½²à¼ĭ":5140,"à¼ĭà½Īà½±à½²à¼ĭ":5141,"à½Ħà½Ĥà½ĵà½¦":5142,"à½Ķà½ĺà½Ĩ":5143,"à½Ķà½¢à½ĺà½Ľà½ĳ":5144,"à¾Ļà½¿à¼ĭ":5145,"à¾¡à½¼à¼ĭà¼¼":5146,"à½ģà½ĺà½¦à½ĳà½Ħ":5147,"à¾·à½´à½¿à¼ĭ":5148,"Ġà¼¤à¼£":5149,"à¼¤à¼¥à¼¥":5150,"à¼ĭà¾Łà¼ĭ":5151,"à¼ĭà½²à¼į":5152,"à½ĳà½ĺà½ļ":5153,"à½Ĥà½Ĥà½ŀà½ĵ":5154,"à½ĸà½Ĥà½ŀà½ĵ":5155,"à½ĵà½§":5156,"à½Ĩà½¡":5157,"à¾¡à¾¤à½ºà¼ĭ":5158,"Ġà½¦à½¦":5159,"à¼¤à¼§à¼£":5160,"à½¼à¼ĭà½Īà½±à½²":5161,"à½¢à½ĸà½ħ":5162,"à¼įà¼ĭà¼ĭà¼ĭà¼ĭà¼ĭà¼ĭà¼ĭà¼ĭà¼ĭà¼ĭà¼ĭà¼ĭà¼ĭà¼ĭà¼ĭ":5163,"à½ıà½ī":5164,"à¾Łà½¼à¼·":5165,"à¾Ķà¼·":5166,"à½Ļà½Ļ":5167,"à½§à½Ģ":5168,"à¾Ĺà½ºà¼µà¼ĭ":5169,"à¾ľà½ºà¼į":5170,"à¼¡à¼©à¼¢à¼¢":5171,"Ġà¼¤à¼¥":5172,"à½£à½Į":5173,"à½£à½Ĭà½ł":5174,"à½£à½¦à½¡":5175,"à¼¤à¼¡à¼¡":5176,"à¾Ĵà¾¡à½¼":5177,"à½ĳà½Ĥà½Ĥà½¦":5178,"à¾£à¼µ":5179,"à¾©à½¿à¼į":5180,"à¼Ģà½ĳà½Ģà½¢":5181,"Ġà¼ħà¼įà¼į":5182,"à½Ģà½¨":5183,"à¾¦à¾·à½¼":5184,"à¾³à¼ĭà¼Ħà¼ħà¼įà¼į":5185,"à½ķà½ĵà½ļ":5186,"à¼¤à¼¡à¼¦":5187,"à½¦à½ĸà½Ĥ":5188,"à½Ħà½£à½¦":5189,"à½£à½Ĥà½Ł":5190,"à½ħà½«à½Ĥ":5191,"à½ĸà½¦à½Ķà½¦":5192,"à½Ķà½¦à½ŀ":5193,"à½ĸà½ħà½ĺ":5194,"à½Ĭà½ı":5195,"à¼¤à¼¢à¼¤":5196,"à¾Ħà¼įà¼į":5197,"à¾Ľà½±à½²à¼ĭ":5198,"à¾·à¾²à½±à½²à¼ĭ":5199,"à¾©à¼·à¼ĭ":5200,"à¾Łà½ºà¼įà¼Į":5201,"à¼¥à¼¡à¼ł":5202,"à½Ĵà½Ļ":5203,"à½Ĥà½¦à½łà½ĳ":5204,"à¼¦à¼¡à¼§":5205,"à¾·à¾±à½±à½¾à¼ĭ":5206,"à¼¤à¼¦à¼§":5207,"à¾²à½±à¾Ģà½¿à¼ĭ":5208,"à½ĸà½ĸà½ĳ":5209,"à½´à¼ĭà½¼":5210,"à½¡à½«à½Ĥ":5211,"à½ĸà½ħà½ĳà½Ķ":5212,"à½ĺà½Ħà½łà½ĺ":5213,"à½ħà½ĳà½ĳà½Ħ":5214,"à½ĺà½ĵà½Ħà½¦":5215,"à¼¡à¼§à¼¡à¼§":5216,"à½ĸà½ĸà½ĸà½ĸà½ĸà½ĸà½ĸ":5217,"Ġà¼ĭà¼ĭà¼ĭà¼ĭà¼ĭà¼ĭà¼ĭà¼ĭà¼ĭà¼ĭà¼ĭà¼ĭà¼ĭà¼ĭà¼ĭà¼ĭà¼ĭà¼ĭ":5218,"à¼Īà¼Īà¼Īà¼Ī":5219,"à½ĵà½Į":5220,"à½Ħà½Ł":5221,"à½Ħà½Ĥà½ŀ":5222,"à½¤à½ĵà½Ħ":5223,"à½ĸà½ŀà½ĸà½¦":5224,"à¾±à½¼à½¼":5225,"à¾Ģà½¿à¼ĭ":5226,"à¾»à½¿à¼į":5227,"à¼¤à¼łà¼¨":5228,"ĉĉĉĉ":5229,"Ġà½Ĳà½¢":5230,"à½Ĥà½łà½Ĥ":5231,"à½ĺà½¦à½¤":5232,"à¾¤à¾±à½²à¼ĭà½Ī":5233,"à½Ĭà½Ĭ":5234,"à¼¡à¼©à¼łà¼§":5235,"à½¡à½łà½ĺ":5236,"à¾©à½¼à¼į":5237,"à½£à½Ĥà½ģà½Ħ":5238,"à½±à½²à½¾à¼į":5239,"à¾²à½±à½´à½¾à¼į":5240,"à¼ĭà¾¢à½²":5241,"à¼¤à¼§à¼¦":5242,"à½¡à½Ħà½£":5243,"à½±à½±à½²à¼ĭ":5244,"à¾Łà¼ĭà¼¼":5245,"à½§à½¨":5246,"à¾Ĳà½´à½´":5247,"à¾¡à¾·à½±à½²à¼ĭ":5248,"à¼¤à¼¦à¼©":5249,"à½¦à½łà½ģ":5250,"à½¦à½ĸà½ĳ":5251,"à½²à¼ĭà¼Ħà¼ħ":5252,"à¾Ĵà½¿à¼ĭ":5253,"à½ĳà½Ĥà½Ħà½¦":5254,"à½ĳà½ĺà½Ĥà½¦":5255,"à¾Ĵà½¼à¼ĭà¼½à¼¼":5256,"à¼ĭà¼½à¼Ħà¼ħà¼įà¼į":5257,"à¼¤à¼¤à¼¥":5258,"à¼¤à¼©à¼ł":5259,"Ġà¼¥à¼¡":5260,"à¼¤à¼¨à¼©":5261,"Ġà¼ĭà¼ĭà¼ĭà¼ĭà¼ĭà¼ĭà¼ĭà¼ĭà¼ĭà¼ĭà¼ĭà¼ĭà¼ĭà¼ĭà¼ĭà¼ĭà¼ĭà¼ĭà¼ĭà¼ĭà¼ĭà¼ĭà¼ĭà¼ĭà¼ĭà¼ĭà¼ĭà¼ĭà¼ĭà¼ĭà¼ĭà¼ĭà¼ĭà¼ĭà¼ĭà¼ĭà¼ĭà¼ĭà¼ĭà¼ĭà¼ĭà¼ĭà¼ĭà¼ĭà¼ĭà¼ĭà¼ĭà¼ĭà¼ĭà¼ĭà¼ĭà¼ĭà¼ĭà¼ĭà¼ĭà¼ĭà¼ĭà¼ĭà¼ĭà¼ĭà¼ĭà¼ĭà¼ĭà¼ĭà¼ĭà¼ĭà¼ĭà¼ĭà¼ĭà¼ĭà¼ĭà¼ĭà¼ĭà¼ĭà¼ĭà¼ĭà¼ĭà¼ĭà¼ĭà¼ĭà¼ĭà¼ĭà¼ĭà¼ĭà¼ĭà¼ĭà¼ĭà¼ĭà¼ĭà¼ĭà¼ĭà¼ĭà¼ĭà¼ĭà¼ĭà¼ĭà¼ĭà¼ĭà¼ĭà¼ĭà¼ĭà¼ĭà¼ĭà¼ĭà¼ĭà¼ĭà¼ĭà¼ĭà¼ĭà¼ĭà¼ĭà¼ĭà¼ĭà¼ĭà¼ĭà¼ĭà¼ĭà¼ĭà¼ĭà¼ĭà¼ĭà¼ĭà¼ĭà¼ĭà¼ĭà¼ĭà¼ĭà¼ĭ":5262,"à¼įà¼Ħà¼įà¼į":5263,"à¾±à¾©à½¼":5264,"à¾²à¾³à½º":5265,"à¾¨à¾¨à½±à½¿à¼ĭ":5266,"à½ĺà½Ħà½ĳ":5267,"à¾²à½²à¼ĭà¼ĳ":5268,"à½Ĥà½Ļà½ĸ":5269,"à½¾à¼įà¼Įà¼Įà¼Į":5270,"à¾µà¼įà¼į":5271,"à¼¡à¼¢à¼łà¼ł":5272,"à¼¤à¼¦à¼¦":5273,"à¼¥à¼¥à¼¥":5274,"Ġà½ģà½Ħ":5275,"à½ºà½ºà¼į":5276,"à¾±à¾¦à¾·à½º":5277,"à½²à¼ĭà¼Ŀ":5278,"à½´à¼ĭà½´":5279,"à½ħà½«à½Ħ":5280,"à½ĺà½īà½ĺà½Ķà½¢":5281,"Ġà¼¤à¼¦":5282,"Ġà¼¥à¼©":5283,"à¼©à¼©à¼ł":5284,"à¾ĳà¼į":5285,"à¼ĭà¼ĭà¼įà¼į":5286,"à½¢à½łà½ĩ":5287,"à½Ħà½Ĥà½Ħ":5288,"à½£à½¢à½ĸ":5289,"à¾Łà¾³à½¼":5290,"à¾¤à¾©à½¼":5291,"à¾©à½½à¼į":5292,"à¾²à½ºà½º":5293,"à¾²à½¼à¼ĭà¼ĳ":5294,"à¼ĭà¼įà¼įà¼Į":5295,"à½ĺà½Ľà½ĳà½ĳ":5296,"à¼¤à¼¦à¼ł":5297,"à½Ĥà½ĸà½ĳ":5298,"à½ĸà½¢à½ıà½£":5299,"à¾¦à¾²à½¼à¼ĭ":5300,"à½ħà½ĵà½ĵ":5301,"à¼ĭà½µà¼½":5302,"à¼¤à¼¥à¼©":5303,"à½´à½¾à¼Ķ":5304,"à¾±à¾¤à¾²à½²":5305,"à¾²à¼·à½¼à¼ĭ":5306,"à½Ģà½ĵà½ł":5307,"à½Ķà½łà½ķ":5308,"à½¤à½łà½Ħ":5309,"à½ĵà½¦à½ģ":5310,"à½ĳà½Ķà½łà½Ħ":5311,"à¼¤à¼¢à¼¦":5312,"à¼¤à¼¥à¼§":5313,"à½Īà¾±à½ºà¼ĭ":5314,"à¾·à¾±à½¾à¼į":5315,"à¼¤à¼¥à¼¦":5316,"à¼¤à¼¨à¼¥":5317,"à½ºà¾ħ":5318,"à¾£à¾±":5319,"à½¨à½Ĩ":5320,"à½ĩà½ĸ":5321,"à¼¡à¼©à¼¡à¼¥":5322,"à¼¤à¼¤à¼©":5323,"à¼¤à¼©à¼©":5324,"à½Ĩà½Ĭ":5325,"à¾Ļà½´à¼ĭ":5326,"à¾Ĺà½ºà½ºà¼ĭ":5327,"à¼¤à¼£à¼£":5328,"à¼Ģà½Ļà½İ":5329,"Ġà½ĺà½Ĩà½ĵ":5330,"à¾³à½¾à¼ĭ":5331,"à¾¤à¼įà¼į":5332,"à¾³à½¼à½¼":5333,"à½ĳà½Ĥà½łà½ĸà½ł":5334,"à¼¡à¼©à¼¡à¼¦":5335,"Ġà½ĸà½ŀà½Ĥ":5336,"à½Ĥà½ĺà½Ĳ":5337,"à½Ĥà½Ľ":5338,"à½ĳà½Ħà½ĸà½¢":5339,"à¾«à¼ĭà¼´":5340,"à¼¤à¼¢à¼£":5341,"à½½à½¾à¼į":5342,"à¼ĭà¼¹à½¼à¼į":5343,"Ġà½Ĭ":5344,"à½ĵà½Ĥà½Ł":5345,"à½Ħà½Ķà½ĸ":5346,"à¾¡à¾±à½±à¼ĭ":5347,"à¾±à½ºà½¿à¼ĭ":5348,"à¼¥à¼¦à¼ł":5349,"Ġà¼¥à¼¦":5350,"à½Ħà½łà½Ĥ":5351,"à½Ħà½Ķà½¦":5352,"à½£à½Ŀ":5353,"à½ĳà½Ħà½ļ":5354,"à½¡à½Ħà½ŀ":5355,"à¼¤à¼¢à¼§":5356,"à¼¤à¼£à¼¤":5357,"à¾µà½¾à¼į":5358,"Ġà¼¤à¼¡":5359,"à¼¤à¼§à¼¢":5360,"à¾±à½»à¼įà¼į":5361,"à¼įà¼Įà¼Įà¼Įà¼Įà¼Įà¼Įà¼Įà¼Įà¼Įà¼Įà¼Įà¼Įà¼Įà¼Įà¼Įà¼Į":5362,"à¾Ĵà¾²à½´à¼ĭ":5363,"à¾³à¾Ĳà½¼":5364,"à¾³à¼·":5365,"à¼¥à¼¢à¼£":5366,"à¼¡à¼©à¼¢à¼¡":5367,"Ġà½¡à½ĸ":5368,"à¾Łà¾Łà½²à¼į":5369,"à½ĺà½Ĳà½£":5370,"à½Ĥà½ħà½¦":5371,"à½£à½ĺà½¢":5372,"à½ĭà½¢":5373,"à½Ĥà½Ŀà½¢":5374,"à½ĵà½łà½ĩ":5375,"à¾©à¾±à½ºà¼ĭ":5376,"à¼¤à¼£à¼¥":5377,"à¼Ģà½Ģà½¢":5378,"à½Ħà½Ĥà½ŀà½ĵ":5379,"à½§à½ķ":5380,"à¼¤à¼¢à¼¢":5381,"à¾ĭà½ĺ":5382,"à¼Īà¼į":5383,"à¼¤à¼§à¼¤":5384,"à¿Ħ":5385,"Ġà½Ĥà½ĳà½ĵ":5386,"à½¢à½Ĥà½Ł":5387,"à¾±à½²à¼ĭà½´":5388,"à¼¤à¼¤à¼£":5389,"à½Ĥà½¦à½ĳà½Ĥ":5390,"à½Ĩà½Ģ":5391,"à½ıà½Ľ":5392,"à¾Ĵà¾±à¼µà¼ĭ":5393,"à¾Ļà¼į":5394,"à½łà½ķà½Ĭ":5395,"à½«à½Ħà½¥":5396,"à¼¤à¼§à¼©":5397,"à¼ĭà¾Ģ":5398,"à½ĸà½Ĳà½ĺà½¦":5399,"à½´à¾ĥà¼į":5400,"à½£à½ħ":5401,"à½ģà½Ķ":5402,"à½ģà½Ł":5403,"à½ıà½¥":5404,"à½ĳà½Ĥà½łà½ĳ":5405,"à¾¤à¾Ĺà½¼":5406,"à¾·à½»à½¿à¼ĭ":5407,"à½ħà½ĵà½ĺ":5408,"à½¨à½ĺà½¦":5409,"à½±à½²à¼ĭà¼½":5410,"à¼¤à¼¢à¼¥":5411,"à¼©à¼łà¼ł":5412,"à¼ĭà¼ĳà¼ĭ":5413,"à¼¡à¼§à¼¥à¼§":5414,"à¼¤à¼¦à¼¥":5415,"à¼¤à¼¨à¼¦":5416,"à½ĺà½ĸà½ĳà½Ĥ":5417,"à¼įà¼Įà¼Įà¼Įà¼Įà¼Įà¼Įà¼Įà¼Įà¼Įà¼Įà¼Įà¼Įà¼Įà¼Įà¼Įà¼Įà¼Įà¼Įà¼Įà¼Įà¼Įà¼Įà¼Įà¼Įà¼Įà¼Įà¼Įà¼Įà¼Įà¼Įà¼Įà¼Į":5418,"à¾±à¾Ĳà¾±à½ºà¼ĭ":5419,"à¾Łà¾±à½ºà¼įà¼į":5420,"à½¤à½Ķà½ł":5421,"à¾Ĺà½ºà¼·":5422,"à¾ľà¾·à¾±à¼ĭ":5423,"à¼Įà¼Įà¼Įà¼Įà¼Įà¼Įà¼Įà¼Įà¼Įà¼Įà¼Į":5424,"à¼ĭà¾¾à¾¾":5425,"à¼įà¼įà¼įà¼įà¼įà¼įà¼įà¼įà¼įà¼įà¼įà¼įà¼įà¼įà¼įà¼į":5426,"à½£à½ĳà½ĸ":5427,"à½Ħà½¦à½ĵ":5428,"à¼¤à¼£à¼¡":5429,"à¼¥à¼¤à¼¥":5430,"à½Ĥà½ĺà½¢":5431,"à½ĸà½¢à½ł":5432,"à¾Łà½ºà¼ĭà¼¸":5433,"à¼¥à¼¦à¼§":5434,"à¾Īà¾Īà¾Īà¾Īà¾Īà¾Ī":5435,"à½Ĥà½Ĥà½ĵà½¦":5436,"à¼Ķà¼Ķ":5437,"à¾Ĳà½´à¼ĭà¼´":5438,"à¾¦à¾±à¾¡à½¼":5439,"à¼¤à¼¡à¼¨":5440,"à¾ªà½²à¼į":5441,"à¼´à¼´":5442,"à¼¤à¼¦à¼¨":5443,"à¼¡à¼©à¼łà¼¥":5444,"Ġà½Ĳà½£":5445,"à½Ĥà½Ļà½ĺ":5446,"à½ĵà½ĺà½Ħ":5447,"à½Ħà½ı":5448,"à½£à½ĺà½ļà½ĵ":5449,"à½Ĥà½ĵà½¦à½ĸà½¢":5450,"à¾·à½´à½¿à¼į":5451,"à¼¥à¼łà¼¥":5452,"à¾¸":5453,"à½Ĥà½Ĩà½Ĥà½¦":5454,"à½²à¼ĭà½¾à¼ĭ":5455,"à½łà½ģà½¦":5456,"à½£à½ĺà½£":5457,"à¾¤à¾²à½²à¼įà¼į":5458,"à¾µà¾¨à½±à¼ĭ":5459,"à¾µà½´à½¿à¼į":5460,"à¼µà½¼à¼įà¼į":5461,"à¾ĭà½£":5462,"à¼¤à¼¤à¼¢":5463,"à¼¤à¼¤à¼¦":5464,"à¼ĭà¾§à½±à½´à¼ĭ":5465,"à½¢à½«":5466,"à½ĵà½ĸà½Ģ":5467,"à½Ħà½ĸà½ŀ":5468,"à½Ķà½Ĥà½Ł":5469,"à¾Łà¾Łà½¿à¼į":5470,"à½ĸà½łà½ģ":5471,"à½ĺà½Ĳà½ĳ":5472,"à¾¨à¼ĭà¼´":5473,"à¾¦à½±à¼į":5474,"à¾«à½±à½²à¼ĭ":5475,"à½±à½¿à¼ĭà½±à½´à¾ĥà¼ĭ":5476,"à¼ĭà¾§à½ºà¼ĭ":5477,"à½´à¼ĭà¼½à¼¼":5478,"à½ĵà½ħà½ĵ":5479,"à¾Łà¾Ł":5480,"à½ĳà½Ħà½¡à½Ħ":5481,"à½ħà½Ĥà½¦":5482,"à¼ĭà¼įà¼ĭà¼ĭà¼ĭà¼ĭà¼ĭà¼ĭà¼ĭà¼ĭà¼ĭà¼ĭà¼ĭà¼ĭà¼ĭà¼ĭà¼ĭà¼ĭà¼ĭà¼ĭà¼ĭà¼ĭà¼ĭà¼ĭà¼ĭà¼ĭà¼ĭà¼ĭà¼ĭà¼ĭà¼ĭà¼ĭà¼ĭà¼ĭà¼ĭà¼ĭà¼ĭà¼ĭà¼ĭà¼ĭà¼ĭà¼ĭà¼ĭà¼ĭà¼ĭà¼ĭà¼ĭà¼ĭà¼ĭà¼ĭà¼ĭà¼ĭà¼ĭà¼ĭà¼ĭà¼ĭà¼ĭà¼ĭà¼ĭà¼ĭà¼ĭà¼ĭà¼ĭà¼ĭà¼ĭà¼ĭ":5483,"à¾Ńà½½à¼į":5484,"à¾ķà½¼à¼ĭ":5485,"à¾²à¼įà¼¼":5486,"à¾Ńà½±à¼Ķ":5487,"à¼¤à¼©à¼£":5488,"à¾¼à½±à¼ĭ":5489,"Ġà½ĳà½Ģà½ł":5490,"à½ĳà½łà½Ħ":5491,"à½īà½ı":5492,"à½¼à¼įà¼įà¼½":5493,"à½¼à¼įà¼įà¼Ħà¼ħà¼ħà¼įà¼į":5494,"à½ĳà½ĸà½Ħà½ĸà½¦":5495,"à½Ĥà½Ļà½ĵ":5496,"à½Ĺà½ķ":5497,"à½ĵà½ĵà½ĵ":5498,"à½¼à½¼à¼įà¼į":5499,"à½¢à½Ĥà½ŀ":5500,"à½łà½ħ":5501,"à¾Ĳà½¿à¼į":5502,"à½²à¼įà¼¼":5503,"à¼ĭà¼ģà¾ĥà¼Ķ":5504,"à½İà½ĸ":5505,"à½¦à½¦à½¦":5506,"à¾´à½´à¼ĭ":5507,"à¾µà¾¨à½±à½¾à¼ĭ":5508,"à½łà½Ķà½Ĥà½¦":5509,"à½Ĥà½¦à½Ĥà½ħ":5510,"à¾¦à½¿à¼į":5511,"à½łà½Ĩà½ĵ":5512,"à½Īà½¼à¼ĭ":5513,"à¼¡à¼¦à¼¨à¼¢":5514,"Ġà¼Ķà¼ĭ":5515,"à¼¤à¼¥à¼¨":5516,"à¾Īà¾Īà¾Īà¾Īà¾Īà¾Īà¾Ī":5517,"Ġà½łà½Ĳ":5518,"à½ĺà½ĳà½ĺ":5519,"à¾²à¼µ":5520,"à½ĺà½ļà½ĺà½¦à½¦":5521,"à¼¥à¼¢à¼ł":5522,"à¼¥à¼¢à¼¦":5523,"à½ĸà½ĸà½ĸà½¦":5524,"à¼¡à¼¤à¼¡à¼©":5525,"Ġà¼§à¼£":5526,"à½ĵà½ĳà½Ķ":5527,"à¾©à¾¡à½ºà¼ĭ":5528,"à¾¨à½¼à¼įà¼į":5529,"à½¨à½ĵà½ĵ":5530,"à¾Ĺà½¼à¼·":5531,"à¼¥à¼¤à¼¤":5532,"à½Ĺà½ĵà½Łà½«":5533,"à¼¡à¼¡à¼¡à¼¡":5534,"à½©à½ĳà½Ħ":5535,"à¼¥à¼łà¼©":5536,"Ġà½ĸà½¤":5537,"à½²à½º":5538,"à½ķà½ī":5539,"à¾Ĺà¼·à½ºà¼ĭ":5540,"à½ĸà½ĳà½ĳ":5541,"à½Ĺà½ħ":5542,"à¼¤à¼§à¼¡":5543,"à¾·à¾£à½¾à¼ĭ":5544,"Ġà¼¦à¼ł":5545,"Ġà½ĸà½ĵ":5546,"à½¼à¾ĥ":5547,"à½¨à½ĵà½ĳ":5548,"à½ĸà½Ģà½ĺ":5549,"à¼¡à¼§à¼łà¼ł":5550,"Ġà¼¤à¼©":5551,"à¼¥à¼§à¼¦":5552,"à¼ĭà¾¤":5553,"à¾±à¼µà½²à¼ĭ":5554,"à½ŀà½Ķ":5555,"à¾±à½²à¼ĭà½¼":5556,"à½Ĳà½ķà½ķ":5557,"à¾±à½´à½¿à¼ĭ":5558,"à¾¡à¼ĭà¾¢":5559,"à½Įà½Į":5560,"à¼¡à¼¨à¼©à¼ł":5561,"à¾¦à¾·à¾±":5562,"à½£à½Ĩà½Ĥà½¦":5563,"à½ĸà½¦à½Ķà½ł":5564,"à½ĳà½Ĥà½¤":5565,"à½¤à½ĳà½Ħ":5566,"à½ĵà½¦à½ķ":5567,"à½§à½İ":5568,"à½īà½ĺà½¦à½¦":5569,"à¼¤à¼£à¼¦":5570,"à½įà½ł":5571,"à½´à¼ĭà½Īà½ºà¼ĭ":5572,"à¾µà¾¼à½¿à¼ĭ":5573,"à½¢à½Ĥà½Ħ":5574,"à½£à½£à½¦":5575,"à¾Łà¾Ńà½±":5576,"à½ĸà½¢à½Ĥà½ĵà½¦":5577,"à½łà½ĸà½ĺà½¦":5578,"à¾±à¼įà¼įà¼į":5579,"à¼¤à¼¢à¼©":5580,"à½¼à¼įà¼įà¼įà¼įà¼Į":5581,"à¾µà¾ŀ":5582,"à¼¡à¼¦à¼¡à¼§":5583,"à¼ĭà¾§à½²à½¿à¼į":5584,"à½łà½ī":5585,"à¾²à½±à½´à¾ĥà¼ĭ":5586,"à¾²à¼·à½²":5587,"à½Ķà½¦à½łà½ĳ":5588,"à¾Ĵà¾±à½´à¼ĭà¼¼":5589,"à½¥à½Ħ":5590,"à¼¥à¼¡à¼¢":5591,"à½ĵà½łà½ģ":5592,"à½Ķà½Ĥà½ĵà½¦":5593,"à½łà½ĳà½Ķ":5594,"à½ĵà½¦à½ĸà½¢":5595,"à¾¨à¾±à½ºà¼ĭ":5596,"à¾¦à½´à¼į":5597,"à½łà½ĩà½ĵ":5598,"à½Ĥà½¤à½£":5599,"à½Ĥà½ĵà½¢":5600,"Ġà¼įà¼¼":5601,"à¾¦à¾²à¾Ģ":5602,"à½«à½¢":5603,"à¼¤à¼¤à¼¨":5604,"Ġà¼§à¼¥":5605,"à¼¤à¼¦à¼£":5606,"Ġà½ĺà½İ":5607,"à¾±à½´à½¿à¼į":5608,"à½¡à½Ħà½ĸà½¦":5609,"à½Ķà½¦à½Ĩ":5610,"à½Ĥà½ĵà½¦à½Ģ":5611,"à¾Łà½ºà¼·":5612,"à½Ĭà½Ļ":5613,"à¼¤à¼£à¼©":5614,"à¼Ģà½ŀ":5615,"à½¾à¼įà¼įà¼į":5616,"Ġà¼¤à¼¢":5617,"à¼¤à¼©à¼¨":5618,"à¼¤à¼¥à¼¡":5619,"à¼¤à¼¥à¼£":5620,"à½¢à½¢à½Ħ":5621,"à½ĵà½ĩ":5622,"à½Ħà½Ĥà½ī":5623,"à¾±à¾Ļà½²":5624,"à¾Łà¾±à½»à¼ĭ":5625,"à½ĸà½¦à½Ģà½£":5626,"à½Łà½ĳà½Ģ":5627,"à¾¡à¾Ģ":5628,"à¾±à½¼à½¿à¼į":5629,"à¾·à½¼à¼ĭà¼½à¼¼":5630,"à¼¤à¼©à¼¥":5631,"à½¢à½ĺà½Ħ":5632,"à½Ķà½Ĥà½ı":5633,"à½Ĳà½ı":5634,"à¾Ĵà¾±à¼µ":5635,"à¾²à¼ĭà¼Ħà¼ħà¼įà¼į":5636,"à¾Ĺà½¼à¼į":5637,"à¾Ĵà½¼à¼ĭà¼½":5638,"à¼łà¼¢à¼ł":5639,"à½ķà½İà½Ħ":5640,"à¾Ĵà¾±à½´à¼ĭà½Īà½²":5641,"à¼¥à¼łà¼§":5642,"à¼¤à¼¤à¼¡":5643,"à¼¤à¼¦à¼¤":5644,"à¼ĭà¾Ĺ":5645,"à½ĸà½ĺà½Ħ":5646,"à½ºà½»":5647,"à½£à½¦à½ĸà½¢":5648,"à¾·à¾Ńà½²à¼ĭ":5649,"à½ĳà½ĺà½Ĩ":5650,"à½Ĵà½¤":5651,"à¾²à¾Ńà¼įà¼į":5652,"à¼¤à¼©à¼¦":5653,"à¼¤à¼¦à¼¡":5654,"à¾ŀà¾ŀà½¾à¼ĭ":5655,"Ġà¼ĭà¼ĭà¼ĭà¼ĭà¼ĭà¼ĭà¼ĭà¼ĭà¼ĭà¼ĭà¼ĭà¼ĭà¼ĭà¼ĭà¼ĭà¼ĭà¼ĭà¼ĭà¼ĭà¼ĭà¼ĭà¼ĭà¼ĭà¼ĭà¼ĭà¼ĭà¼ĭà¼ĭà¼ĭà¼ĭà¼ĭà¼ĭà¼ĭà¼ĭà¼ĭà¼ĭà¼ĭà¼ĭà¼ĭà¼ĭ":5656,"à½ĺà½łà½Ĥ":5657,"à½Ķà½¦à½ģ":5658,"à½łà½Ĳà½ĵ":5659,"à¼¤à¼£à¼¢":5660,"à¼¥à¼¢à¼©":5661,"à½Ĵà½ķà½ĳ":5662,"à¼Ģà½ĳà½Ħ":5663,"à¼¥à¼łà¼¦":5664,"à½Ĳà½Ģà½Ł":5665,"Ġà½ķà½¢":5666,"à¼ĭà¾ľ":5667,"à½Ķà½ĸà½ł":5668,"à½Ķà½łà½Ľ":5669,"à¾¤à¾Ĳà½¼":5670,"à¾Ļà½¿à¼į":5671,"à¾Łà¼ĭà¼´":5672,"à¼¤à¼¥à¼¤":5673,"à½ĵà½ĺà½ĳ":5674,"à½Ķà½ĸà½ĳà½Ĥ":5675,"à½¢à½Ħà½¢":5676,"à¼¥à¼¥à¼§":5677,"à¼¥à¼¥à¼¢":5678,"à½¢à½ĸà½ĳ":5679,"à½ºà¼ĭà½´":5680,"à¾Ĵà¾·à½±à¼ĭ":5681,"à½ĺà½¦à½Ķà½¦":5682,"à¾²à½ºà¼·":5683,"à½²à¼įà¼Įà¼Įà¼Į":5684,"à¾«à½´à¼įà¼į":5685,"à¼·à½¼à¼įà¼į":5686,"Ġà½ļà½Ħà½¦":5687,"à¾²à¾°":5688,"à¾Ĳà¾Ĳà¼ĭ":5689,"à¾¡à½¿à¼į":5690,"à½ĸà½ĳà½Ĥà½ħà½Ĥ":5691,"à½ĩà½£":5692,"à¾Ĵà¾±à½´à¼ĭà¼ĳ":5693,"à¼łà¼łà¼§":5694,"Ġà¼ĳà¼ĭ":5695,"à¼¡à¼§à¼¢à¼ł":5696,"Ġà½ĸà½ıà½Ħ":5697,"Ġà½łà½Ĥà½£":5698,"à½ĳà½Ħà½ł":5699,"à½ķà½Ķ":5700,"à¾Ĳà¾³à½¼":5701,"à½ĳà½ĸà½ħ":5702,"à¾³à½²à½¾à¼ĭ":5703,"à½Ĳà½Ĥà½¥":5704,"à¼¥à¼¡à¼£":5705,"à½Ĥà½¦à½Ķà½Ģ":5706,"à½²à¼ĭà¾±":5707,"à¾²à¾Ĺà½ºà¼ĭ":5708,"à¾£à½¾":5709,"à½ĺà½¢à½ĳ":5710,"à¼¤à¼£à¼¨":5711,"à¼¥à¼¡à¼¥":5712,"à¼¦à¼¡à¼ł":5713,"à¼¦à¼¢à¼©":5714,"à¼¥à¼¦à¼¡":5715,"à¼ĭà¾¾à¾¾à¾¾à¾¾à¾¾":5716,"à½¦à½ĺà½ļ":5717,"à½Ĥà½ĩ":5718,"à¾«à½¿à¼į":5719,"à½Ĵà½ķà½Ĳà½Ĥ":5720,"à¼¥à¼łà¼¤":5721,"à½ĳà½ĩ":5722,"à½Ĥà½ĳà½Ķ":5723,"à½ĸà½ĸà½ħ":5724,"à½£à½Ķà½¦":5725,"à¾Łà¾²à½¾à¼į":5726,"à¾±à½²à¼ĭà¼Ī":5727,"à¾£à¾²à½²à¼ĭ":5728,"à½Ħà½¦à½ĸ":5729,"à¾±à¼ĭà¼º":5730,"à¾¨à¼·à¼ĭ":5731,"à¼¥à¼¢à¼¢":5732,"à¼¥à¼£à¼©":5733,"à¾µà½±à½´à¼ĭ":5734,"à½ªà½Ħ":5735,"à¼¥à¼©à¼¨":5736,"Ġà½ĳà½Ĥà½Ĥ":5737,"à½Ĥà½Į":5738,"à½ĸà½Ĥà½ħ":5739,"à½Ħà½¦à½ĳà½Ħ":5740,"à½Ĥà½ŀà½ĵà½ĺ":5741,"à¾ľà½±":5742,"à¼¦à¼§à¼¦":5743,"à¼¡à¼©à¼¢à¼¥":5744,"à¼Įà¼Įà¼Įà¼Įà¼Įà¼Įà¼Į":5745,"à¼¢à¼łà¼¢à¼¡":5746,"à¼¡à¼£à¼łà¼ł":5747,"à¾¨à¾±à½¼à¼į":5748,"à¼¤à¼¨à¼¨":5749,"Ġà½Ħà½¦":5750,"à¼įï»¿":5751,"à½¢à½Ħà½ī":5752,"à¾²à½¼à½¼à¼ĭ":5753,"à½ĺà½Ĩà½¢":5754,"à½ģà½ĺà½¦à½Ĥà½¦":5755,"à½Ĺà½ıà½Ĥ":5756,"à¼¤à¼¨à¼§":5757,"à½ĵà½¢à½ĸ":5758,"à½£à½ħà½ĵ":5759,"à½£à½«à½Ħ":5760,"à½ĳà½Ħà½Ĥà½ī":5761,"à½ĵà½¦à½¡":5762,"à½Łà½ĸà½¢":5763,"à¾¡à½±à½´à¼ĭ":5764,"à½Ķà½¦à½ķ":5765,"à¼¤à¼¢à¼¨":5766,"à½Ĺà½Ķ":5767,"à½Įà½Ķ":5768,"Ġà¼¥à¼¨":5769,"à½Ĵà½Ĩà½Ĳ":5770,"Ġà½ĵà½ĵ":5771,"à½Ĥà½§":5772,"à½£à½Ķà½ĳ":5773,"à½£à½Ķà½ĸ":5774,"à¾Łà½»":5775,"à½Łà½Ģ":5776,"à½Ŀà½Ķ":5777,"à¼¤à¼¢à¼¡":5778,"à¼łà¼łà¼¥":5779,"à½¾à¼įà¼įà¼Ħà¼ħà¼įà¼į":5780,"à¼¥à¼§à¼ł":5781,"à¼¥à¼¦à¼©":5782,"à½Ĥà½¦à½£à½¦":5783,"à½¼à¼įà¼įà¼ĭà¼ĭà¼ĭà¼ĭà¼ĭà¼ĭà¼ĭà¼ĭà¼ĭà¼ĭà¼ĭà¼ĭà¼ĭà¼ĭà¼ĭà¼ĭà¼ĭà¼ĭà¼ĭà¼ĭà¼ĭà¼ĭà¼ĭà¼ĭà¼ĭà¼ĭà¼ĭà¼ĭà¼ĭà¼ĭà¼ĭà¼ĭà¼ĭà¼ĭà¼ĭà¼ĭà¼ĭà¼ĭà¼ĭà¼ĭà¼ĭà¼ĭà¼ĭà¼ĭà¼ĭà¼ĭà¼ĭà¼ĭà¼ĭà¼ĭà¼ĭà¼ĭà¼ĭà¼ĭà¼ĭà¼ĭà¼ĭà¼ĭà¼ĭà¼ĭà¼ĭà¼ĭà¼ĭà¼ĭ":5784,"à½Ļà½Ĭ":5785,"à¾Ĺà½ºà¼ĭà½Īà½²":5786,"à¾Łà½´à¼Ķ":5787,"Ġà¼Ħ":5788,"à¼łà¼¥à¼ł":5789,"à¾Ľà½²à¼į":5790,"à¼¤à¼©à¼§":5791,"à¼¤à¼§à¼¨":5792,"à¼¥à¼¥à¼¨":5793,"Ġà½Ĥà½ĳà½ĺà½¦":5794,"Ġà½ŀà½¢":5795,"à½ıà½«":5796,"à½ĺà½ļà½Ĥ":5797,"à½ħà½ĵà½ŀ":5798,"à¾Łà½ºà½º":5799,"à½łà½ļà½ĵ":5800,"à½ĺà½İà½Įà½£":5801,"Ġà½īà½Ħ":5802,"à½ĥà½ĸ":5803,"à¾±à½²à¼ĭà¼ĳà¼į":5804,"à¼įà¼ĭà¼ĭà¼ĭà¼ĭà¼ĭà¼ĭà¼ĭà¼ĭà¼ĭà¼ĭà¼ĭà¼ĭà¼ĭà¼ĭà¼ĭà¼ĭà¼ĭ":5805,"à½Ĥà½ĺà½ĳ":5806,"à½¡à½ļ":5807,"à¾Ĳà¾±à¾¤à½º":5808,"à½Ĥà½ıà½ĵà½ĳà½Ħ":5809,"à½Ĵà½ļ":5810,"à¾Ľà¼Ķ":5811,"à¾¶à½±":5812,"Ġà¼Ħà¼ħà¼Ķ":5813,"à½¼à¼ĭà½Īà½²à¼ĭ":5814,"à¼ĭà¾Ģà¼ĭ":5815,"à½¡à½Ĩ":5816,"à½Ķà½¦à½Ķ":5817,"à¾«à½±à½´":5818,"à¾Ńà½±à½¿à¼ĭ":5819,"à¾Ĳà¾±à¼·à½ºà¼ĭ":5820,"à¼¥à¼¡à¼©":5821,"à¼¥à¼¥à¼ł":5822,"à¼¥à¼¤à¼©":5823,"à¼¡à¼©à¼łà¼¡":5824,"à¼Įà¼Įà¼Įà¼Įà¼Įà¼Įà¼Įà¼Įà¼Įà¼Įà¼Įà¼Įà¼Įà¼Įà¼Į":5825,"à¼ı":5826,"à½ĺà½łà½ĸ":5827,"à½´à¼ĭà¼Ħà¼ħ":5828,"à¾Łà¾Łà½±à¼ĭ":5829,"à¾¨à¾¨à½²à¼ĭ":5830,"à¼§à¼¡à¼ł":5831,"à¼¥à¼£à¼¢":5832,"à¾ŀà½¿à¼į":5833,"à¾¶à½´":5834,"à¼¥à¼¥à¼¤":5835,"Ġà½ĸà½¦à½ĳ":5836,"à½ĵà½ĳà½Ģ":5837,"à½ĵà½¦à½łà½ĳ":5838,"à½£à½¦à½łà½ĳ":5839,"à¾¤à½±à½´":5840,"à½Ĥà½ĵà½¦à½ĳà½Ħ":5841,"à½ĵà½Ħà½ĵ":5842,"à½£à½Ĥà½£":5843,"à¼łà¼łà¼¤":5844,"à¼¥à¼łà¼£":5845,"à¼¤à¼¨à¼£":5846,"à¼¤à¼¨à¼¤":5847,"à¼©à¼łà¼©":5848,"à½Ķà½ĺà½ļ":5849,"à½Ķà½¢à½ĺà½Ĳ":5850,"à½ĸà½¢à½Ĥà½ŀà½Ĥ":5851,"à¾Ĳà¾±à¾¡à½¼":5852,"à¼¤à¼¨à¼¢":5853,"à¾¨à¾¨à½¿à¼ĭ":5854,"à½ŀà½¥":5855,"à½¤à½¥":5856,"à¾¡à¾Ĺà½º":5857,"à¾Ķà¾·":5858,"à½Ļà½İà½ł":5859,"à¼§à¼£à¼ł":5860,"à¼¤à¼£à¼§":5861,"Ġà½¢à½ı":5862,"à¾®":5863,"à½¢à½£à½¦":5864,"à¾£à¼Ķ":5865,"à½ħà½ĵà½£":5866,"à¾Ħà¼µ":5867,"Ġà½Ļà½ĵ":5868,"à¼ģà¾ĥà¼Ķ":5869,"à½ºà¼ĭà½º":5870,"à¾£à¾²à¾Ģà¼ĭ":5871,"à½Ķà½¦à½Ĥ":5872,"à¾©à¾¨à¼ĭ":5873,"à¾Ļà½²à¼įà¼į":5874,"à¾ľà½¿à¼ĭ":5875,"à½ĸà½ĸà½ĵ":5876,"Ġà¼¡à¼łà¼ł":5877,"à¼ĭà½¶":5878,"à½Ĥà½łà½ģ":5879,"à½Ħà½ĸà½ĳà½Ĥ":5880,"à½²à¼ĭà¾Ĳ":5881,"à½Łà½Ĩà½Ħ":5882,"à¾³à½±à½²":5883,"à¾©à¾©à¼ĭ":5884,"à½±à¼įà¼Įà¼Įà¼Į":5885,"à¼¡à¼¤à¼¡à¼¥":5886,"à½Ħà½łà½Ľ":5887,"à¾±à½½":5888,"à½²à¼ĭà½±à½´à¾ĥà¼ĭ":5889,"à½ĵà½¦à½łà½ĸ":5890,"à½±à¼ĭà½±":5891,"à¾©à¼ĭà¼´":5892,"à½ĺà½Ĳà½łà½¡à½¦":5893,"à½Ĺà½Ĥà½¦":5894,"à¼¤à¼©à¼¤":5895,"à½²à¼ĭà½Īà¾±à½ºà¼ĭ":5896,"à¼¥à¼¨à¼ł":5897,"à½£à½¥":5898,"à½ĸà½¢à½¡à½Ħ":5899,"à½ĳà½Ģà½¢à½Ķ":5900,"à¼ĭà½²à½¿à¼ĭ":5901,"à¼Įà¼Įà¼Įà¼Įà¼Įà¼Įà¼Įà¼Įà¼Įà¼Į":5902,"à½ĵà½ĺà½Ĥ":5903,"à½²à¼ĭà¾£":5904,"à½¡à½§":5905,"à½¼à¼ĭà¼ŀà¼į":5906,"à½Ķà½¢à½ĸà½Ĥ":5907,"à¼ĭà¼ĭà¼ĭà¼ĭà¼ĭà¼¼":5908,"à¼½à¼½":5909,"à¼¡à¼§à¼¢à¼¨":5910,"à¼¤à¼¥à¼¢":5911,"à¿Ģ":5912,"à½Ĥà½ħà½ł":5913,"à½ĳà½Ģà½Ĥ":5914,"à½Ĳà½£à½ĸà½¢":5915,"Ġà¼¸":5916,"à¼¥à¼£à¼ł":5917,"à½Ĵà½Łà½ĳ":5918,"à¼¦à¼¡à¼£":5919,"à½Įà½İ":5920,"à¼¥à¼łà¼¨":5921,"Ġà¼¥à¼¥":5922,"à½¼à¼ĭà¼½à¼¼":5923,"à½¦à½ĺà½ĳ":5924,"à¾Łà¾Łà½²":5925,"à½ĵà½¦à½ĸà½ħ":5926,"à¾¦à¾¦à½ºà¼ĭ":5927,"à¼ĭà½Īà¾Ĺà½ºà¼ĭ":5928,"à¾·à½²à¼ĭà¾İ":5929,"Ġà¼ĭà¼ĭà¼į":5930,"à¾ŀà¾ŀà½²à¼ĭ":5931,"à¼¡à¼¦à¼¡à¼¨":5932,"à¼¥à¼łà¼¡":5933,"à¼ĭà¾§à¾±à½¿à¼į":5934,"à¼¥à¼¦à¼¥":5935,"Ġà¼©à¼©":5936,"à½ĳà½Ŀ":5937,"à½łà½Ħà½¦":5938,"à¾²à¼ĭà¾İ":5939,"à½ĸà½¦à½ĺà½Ĥ":5940,"à¾¤à¾±à½²à½²":5941,"à¼¥à¼§à¼§":5942,"à¼¤à¼¦à¼¢":5943,"à½ĳà½Ĥà½Ł":5944,"à¾±à½ºà¼·":5945,"à¾·à¾²à½±à¾Ģà¼ĭ":5946,"à¼¤à¼©à¼¢":5947,"à¼¥à¼¥à¼£":5948,"à¼įà¼ĭà¼ĭà¼ĭà¼ĭà¼ĭà¼ĭà¼ĭà¼ĭà¼ĭà¼ĭà¼ĭà¼ĭà¼ĭà¼ĭà¼ĭà¼ĭà¼ĭà¼ĭ":5949,"à½Ĥà½łà½ĩ":5950,"à½¢à½łà½ģ":5951,"à½Ħà½łà½ĩ":5952,"à½ĳà½Ħà½ĳà½Ĥ":5953,"à½ĳà½Ħà½łà½ĩ":5954,"à½ħà½Ķ":5955,"à¾Ĵà¾¤à½º":5956,"à½ĳà½Ĥà½ĸà½¦":5957,"à¾¤à½¿à¼ĭ":5958,"à½¼à¼įà¼ĭà¼ĭà¼ĭ":5959,"à½ĳà½ĳà½ĵ":5960,"à¾¦à¾±à½²à½²":5961,"à¼¥à¼¡à¼¤":5962,"à¼¥à¼¤à¼¨":5963,"à¾¡à¾·à½²à¼Ķ":5964,"à¼¡à¼§à¼¥à¼¡":5965,"à½©à½¨":5966,"à½Ĥà½ĺà½Ĩ":5967,"à½Ħà½ĺà½Ĳ":5968,"à½Ķà½ĸà½Ł":5969,"à½²à¼ĭà¼Ħà¼įà¼į":5970,"à½ĸà½¤à½ĳà½Ķà½¢":5971,"à½ĭà½¦":5972,"à¼¢à¼łà¼łà¼łà¼ł":5973,"à¼¤à¼©à¼¡":5974,"à¼¥à¼¦à¼¢":5975,"à½Łà½ĩà½«à½Ĥ":5976,"à½ĸà½Ĥà½ĵà½¦":5977,"à½Ħà½ĸà½ĳ":5978,"à½ºà¼ĭà½¾à¼ĭ":5979,"à¾²à¾©à½¼":5980,"à½£à½¦à½ŀ":5981,"à¾·à¾²à½±":5982,"à½±à½ºà¼į":5983,"à¾¦à¾·à½²à½¿à¼ĭ":5984,"à¾Ńà¾ĥà¼ĭ":5985,"à¼¥à¼¢à¼¡":5986,"à¾Łà¾Ńà¼į":5987,"à¼ĭà¾Ĳà½¼":5988,"à¼ĭà¾©à½¼à¼ĭ":5989,"à½£à½Ĥà½ħ":5990,"à½ĸà½¦à½ŀ":5991,"à¾Ĳà½¿à¼ĭ":5992,"à½¡à½Ħà½ĳà½Ħ":5993,"à¾Ļà¾Ģ":5994,"à½Ĥà½ĵà½¦à½¢":5995,"à¾Łà¼ĭà¼ĳ":5996,"à½Ħà½Ĥà½Ĥ":5997,"à¼¥à¼¢à¼§":5998,"Ġà¼¥à¼§":5999,"Ġĉĉĉ":6000,"Ġà½Ĥà½īà½ĵ":6001,"à½ĺà½Ĥà½ħ":6002,"à½ıà½ģ":6003,"à½ĸà½ŀà½Ĥà½ĳ":6004,"à½£à½¦à½ĸà½Ł":6005,"à½ĺà½Ľà½ĳà½Ķà½ł":6006,"à½Łà½ĸà½¥":6007,"à½Ĺà½«à½Ĥà½¥":6008,"à½ĳà½¥":6009,"à½Ĥà½ĺà½¦":6010,"à½ĸà½ĺà½Ĩ":6011,"à¼įà¼Įà¼Įà¼Įà¼Į":6012,"à½Ĩà½ĳà½Ħ":6013,"à½ĸà½¦à½¡":6014,"à½ĳà½Ĥà½ŀà½ĵ":6015,"à½ĸà½¢à½Ĩà½ĳ":6016,"à½Łà½Ļ":6017,"à¾©à¾Ńà½¼à¼ĭ":6018,"à¾Ńà½½à¼ĭ":6019,"à¼¥à¼¡à¼§":6020,"à¼¥à¼£à¼£":6021,"à¼¦à¼łà¼łà¼ł":6022,"à¼¥à¼łà¼¢":6023,"à¾±à½²à¼ĭà½Īà¾²à½º":6024,"à½ĸà½ĺà½Ĳ":6025,"à½ķà½ķà½¥":6026,"à¾¡à½¾à¼ĭ":6027,"à¾¦à¾±à½´":6028,"à¾¦à½¼à¼į":6029,"à¾ªà½¿à¼ĭ":6030,"à¼¡à¼§à¼¢à¼§":6031,"à¼Ģà½¨à½Ĥ":6032,"Ġà¼¥à¼£":6033,"à¾±à½²à¼ĭà½Īà½ºà¼ĭ":6034,"à½Łà½Ĩà½Ĳ":6035,"à½ĳà½Ħà½łà½Ĥ":6036,"à½ĺà½¦à½ī":6037,"à½¤à½Ĳ":6038,"à¾«à¾«":6039,"à¼¥à¼¡à¼¡":6040,"à¼¡à¼¨à¼©à¼©":6041,"Ġà¼§à¼¤":6042,"Ġà¼§à¼¦":6043,"à¼¥à¼§à¼©":6044,"à¼¥à¼¦à¼¦":6045,"à½Ķà½ĸà½ļ":6046,"Ġà½Į":6047,"à¼įà¼º":6048,"à½Ķà½ĳà½Ķ":6049,"à½´à¼ĭà¼İ":6050,"à½´à¼ĭà½Īà½¼":6051,"à½¡à½Ħà½łà½Ĥ":6052,"à½ĺà½Ĩà½¦":6053,"à½łà½ļà½Ĥà½¦":6054,"à½ĺà½Ĳà½¢à½Ĳ":6055,"à½Ŀà½ĸ":6056,"à¾Ĵà¾²à¾Ģà¼ĭ":6057,"à¼¥à¼£à¼¡":6058,"à¾ľà¼ĭà½±à½²à¼ĭ":6059,"à¼ĭà¾¢à½±":6060,"à¼ĭà¾©":6061,"à½Ĥà½ĸà½ħ":6062,"à½¢à½ĩ":6063,"à½²à¼ĭà¾³":6064,"à½Ĥà½¦à½ķ":6065,"à¾²à¾±à½¼":6066,"à¾Łà¾¡à½ºà¼ĭ":6067,"à½£à½¦à½ĸà½¦":6068,"à¾Łà½¼à½¼":6069,"à½ħà½ĳà½ĵ":6070,"à¼ĭà¼įà¼įà¼ĭ":6071,"à¼¥à¼¢à¼¥":6072,"à¼¥à¼£à¼§":6073,"à½Ĵà½Ģà½Ħ":6074,"Ġà¼ĭà¼ĭà¼ĭà¼ĭà¼ĭà¼ĭà¼ĭà¼ĭà¼ĭà¼ĭà¼ĭà¼ĭà¼ĭà¼ĭà¼ĭà¼ĭà¼ĭà¼ĭà¼ĭ":6075,"à½Ķà½£à½ł":6076,"à¾²à¼·à½¼":6077,"à¾·à¾²à¼į":6078,"à¾¦à½¾à¼į":6079,"à½£à½Ĥà½¢":6080,"à½Ĵà½ķà½Ŀ":6081,"à¼¦à¼¤à¼ł":6082,"à¾ļà¾²à½±à¼ĭ":6083,"à¼ĭà½²à¼ĭà½¼à¼ĭà½ºà¼ĭ":6084,"à¾·à¾²à½¾à¼į":6085,"Ġà¼¤à¼¨":6086,"à½´à½¿à¼įà¼Įà¼Įà¼Į":6087,"à¼ĭà¿Ĵ":6088,"à¾Ĵà½±à½¿à¼ĭ":6089,"à½Ķà½¢à½Ĥà½Ł":6090,"à½Łà½ı":6091,"à¾·à¼·":6092,"à¾¨à½±à½¾à¼ĭ":6093,"à½²à¼įà¼ĭà¼ĭà¼ĭ":6094,"à¾Ķà½¼à½¼":6095,"à½ĺà½īà½£":6096,"à½¥à½ĸ":6097,"à½łà½Ĥà½£à½ĸ":6098,"à½Ĵà½Łà½ļ":6099,"à¼¦à¼¤à¼¡":6100,"Ġà¼§à¼¢":6101,"à¼¥à¼¥à¼¡":6102,"à¼¥à¼¨à¼©":6103,"Ġà½ĺà½ł":6104,"à½Ķà½Ľ":6105,"à½¼à¼ĭà¼ĭ":6106,"à¾Łà¾²à½²à¼į":6107,"à¾Łà¾¦à¾·à½º":6108,"à¾²à½²à½¿à¼į":6109,"à½Ļà½ĸà½¦":6110,"à¾Ļà½±à½²à¼ĭ":6111,"à½Łà½Ĥà½¢":6112,"à½±à½´à½¾à¼ĭà¼ĳ":6113,"à¼¤à¼¨à¼¡":6114,"Ġà¼ĭà¼¼":6115,"à½ĸà½ĸà½ł":6116,"à¼įà¼Įà¼Įà¼Įà¼Įà¼Įà¼Įà¼Įà¼Įà¼Įà¼Įà¼Įà¼Įà¼Įà¼Įà¼Įà¼Įà¼Įà¼Įà¼Įà¼Įà¼Įà¼Įà¼Įà¼Įà¼Įà¼Įà¼Įà¼Įà¼Įà¼Įà¼Įà¼Įà¼Įà¼Įà¼Įà¼Įà¼Įà¼Įà¼Įà¼Įà¼Įà¼Įà¼Įà¼Įà¼Įà¼Įà¼Įà¼Įà¼Įà¼Įà¼Įà¼Įà¼Įà¼Įà¼Įà¼Įà¼Įà¼Įà¼Įà¼Įà¼Įà¼Įà¼Įà¼Į":6117,"à½£à½ĳà½Ĥà½ł":6118,"à½ħà½«":6119,"à½ģà½¨":6120,"à¾£à½±à½²à¼į":6121,"à½ĸà½ŀà½£":6122,"à¾Łà½ºà¼įà¼ĭà¼ĭà¼ĭà¼ĭà¼ĭ":6123,"à½Ĳà½¢à½Ķà½ł":6124,"à¼¥à¼¡à¼¨":6125,"à¼¥à¼©à¼©":6126,"à¼¥à¼¤à¼¡":6127,"à½Ģà½¢à½İ":6128,"à¼¦à¼łà¼¦":6129,"Ġà¼¥à¼¢":6130,"à¼įà¼ĭà¼ĭà¼ĭà¼ĭà¼ĭà¼ĭà¼ĭà¼ĭà¼ĭà¼ĭà¼ĭà¼ĭà¼ĭà¼ĭà¼ĭà¼ĭà¼ĭà¼ĭà¼ĭà¼ĭ":6131,"à½¢à½Ŀ":6132,"à½¼à¼ĭà½ºà¼į":6133,"à¾²à½´à½¿à¼į":6134,"à½ĳà½ĸà½Ģ":6135,"à¾·à¼ĭà¼Ħà¼ħà¼įà¼į":6136,"à¾¨à¾²à¼Ķ":6137,"à½ĵà½ĳà½ł":6138,"à¼¥à¼¢à¼¤":6139,"à¼¥à¼¤à¼ł":6140,"à½Ĵà½ķà½ŀ":6141,"à¾±à½´à¼ĭà¼½":6142,"à½ĭà½Ĥ":6143,"à½Ķà½Ķà½Ķà½Ķ":6144,"à¾·à¾²à¼ĭà½µà½¾à¼ĭ":6145,"Ġà½łà½ĸà½ł":6146,"à½ĳà½Ĥà½¦à½£":6147,"à½¢à½ĺà½Ĳ":6148,"à½ĵà½ĺà½ģ":6149,"à¾±à¾Łà½º":6150,"à½£à½Ĥà½ı":6151,"à¾¡à¾¡à¼ĭ":6152,"à¾³à¼µà¼ĭ":6153,"à½±à¾ĥà½¿à¼ĭ":6154,"à½Ĥà½ŀà½ĵà½¢":6155,"à½§à½¡":6156,"à½Ŀà½ª":6157,"à¼¡à¼¢à¼£à¼¤":6158,"à¾¡à¾·à½¼à¼į":6159,"à¼ĭà½µà¾ĥà¼Ķ":6160,"à¼¥à¼¨à¼§":6161,"à¼¥à¼¨à¼¨":6162,"Ġà½ļà½ĵ":6163,"à½Ħà½¢à½Ħ":6164,"à½´à½¾à¼įà¼į":6165,"à¼įà¼Ħà¼ħà¼ħà¼įà¼į":6166,"à¾¡à½±à¼į":6167,"à¾Ļà½±à½¿à¼ĭ":6168,"à½Ľà½Ľà½§":6169,"à½¨à½Ĥà½¦":6170,"à½īà½ĺà½¦à½Ķà½¢":6171,"à½Ĳà½¢à½Ķ":6172,"à¼¥à¼¤à¼§":6173,"à¼¥à¼¤à¼£":6174,"à¾»à½¾à¼į":6175,"Ġà¼§à¼©":6176,"à¼¥à¼¦à¼£":6177,"à½Ķà½Ķà½Ķà½ĸà½ļ":6178,"Ġà¾Īà¾Īà¾Ī":6179,"à½Ħà½łà½ģ":6180,"à½ĺà½ħà½ĵ":6181,"à¾²à¾ĥà¼į":6182,"à¾Ķà¾·à½ºà¼ĭ":6183,"à¾¨à½±à½²":6184,"à½§à½ĵà½ł":6185,"à¾·à¼ĭà¼½":6186,"à½Ŀà½ŀ":6187,"à½Ŀà½¦à½ı":6188,"à¼¦à¼¡à¼¨":6189,"à¼Įà¼Įà¼Įà¼Įà¼Įà¼Į":6190,"à¼¥à¼¥à¼©":6191,"à½²à¼ĭà½¼à¼ĭà½º":6192,"à½¦à½Ķà½ĵ":6193,"à½ĺà½ĵà½Ħ":6194,"à½ĵà½¦à½Ĩ":6195,"à¾²à½´à½¿à¼ĭ":6196,"à½Ļà½ĺà½ĳ":6197,"à¾¨à½¾à¼į":6198,"à¼¦à¼£à¼ł":6199,"à½ĭà½ĳ":6200,"à¼¥à¼©à¼¥":6201,"à¼ĭà¼Ħà¼ħà¼ħà¼įà¼į":6202,"à¼įà¼ĭà¼ĭà¼ĭà¼ĭà¼ĭà¼ĭà¼ĭà¼ĭà¼ĭà¼ĭà¼ĭà¼ĭà¼ĭà¼ĭà¼ĭà¼ĭà¼ĭà¼ĭà¼ĭà¼ĭà¼ĭà¼ĭ":6203,"Ġà½ĸà½¦à½Ħ":6204,"à½¦à½ĸà½Ģ":6205,"à½ĸà½¦à½¤":6206,"à½ĳà½ĸà½ĸà½¦":6207,"à¾²à½ºà½ºà¼ĭ":6208,"à½ĺà½¢à½ĺ":6209,"à½¡à½ĵà½ł":6210,"à¼¥à¼¢à¼¨":6211,"Ġà¼įà¼Ħà¼ħà¼įà¼į":6212,"à¼¡à¼¨à¼£à¼ł":6213,"à¼¡à¼¨à¼©à¼¥":6214,"à¾¶à½±à½²à¼ĭ":6215,"à½ķà½¥à½¢":6216,"Ġà¼¨à¼ł":6217,"à½ĵà½Ķà½ĵ":6218,"à½Łà½ĳà½Ķ":6219,"à¾Ķà¼ĭà¼½":6220,"à½Ĥà½¤à½¦":6221,"à¾¤à¾±à½¼à½¼":6222,"à½Ħà½ĺà½Ħ":6223,"à½Ĥà½¦à½ģ":6224,"à½¨à½īà½ł":6225,"à½ĸà½ıà½ł":6226,"à¾»à½¿à¼ĭ":6227,"à½Ĺà½Ļà½¡":6228,"à½²à¾ĥà¼ĭ":6229,"à½ĺà½Ĥà½Ħ":6230,"à½Ķà½ĳà½Ģ":6231,"à¾±à½¾à¼įà¼į":6232,"à½łà½Ł":6233,"à¾Łà¾±à½²à¼ĭ":6234,"à½ĺà½¦à½łà½ĳ":6235,"à½Ĥà½ŀà½Ł":6236,"à½Ľà½¨":6237,"à½ĸà½Ļà½¢":6238,"à¼¥à¼¡à¼¦":6239,"à¼¥à¼£à¼¦":6240,"à¾ļà½²à½¿à¼į":6241,"à¾Łà¾Ńà¾ĥà¼ĭ":6242,"à¼Įà¼Įà¼Įà¼Įà¼Įà¼Įà¼Įà¼Įà¼Įà¼Įà¼Įà¼Įà¼Įà¼Į":6243,"à½ĺà½¡à½Ħ":6244,"à½¼à¼ĭà¼į":6245,"à½ĸà½¦à½ı":6246,"à¾¤à½¿à¼į":6247,"à½Ĥà½Ħà½ĵ":6248,"à½Ĥà½Ħà½ĳà½Ħ":6249,"à½¿à¼Ķ":6250,"à¼¥à¼£à¼¥":6251,"à¼¦à¼§à¼ł":6252,"à¼¡à¼¢à¼©à¼ł":6253,"à½ķà½¦à½ķ":6254,"à½§à½§à½§":6255,"à½Ĵà½ĳà½Ħà½¥":6256,"à½ĳà½ĳà½ĸ":6257,"à½ĵà½Ĩà½ĳ":6258,"à½Ģà½ĺà½£":6259,"à½ĸà½¦à½Ĩ":6260,"à¾Łà½ºà½ºà¼ĭ":6261,"à¾³à½¼à¼Ķ":6262,"à½Ĥà½ŀà½ĵà½ī":6263,"à½£à½ĺà½ĵ":6264,"à½±à½²à½¾à¼įà¼į":6265,"à¾ľà½±à½´":6266,"à½»à¼Ķ":6267,"à¼¡à¼§à¼©à¼¢":6268,"Ġà½Ģà½ĵ":6269,"à½£à½Ĥà½ŀ":6270,"à½£à½«":6271,"à¾Łà½¿à¼įà¼į":6272,"à½Ĵà½ķà½ħ":6273,"à¼¨à¼¡à¼¥":6274,"à¼Įà¼Įà¼Įà¼Įà¼Įà¼Įà¼Įà¼Įà¼Į":6275,"à¼ĭà¾¤à¼ĭ":6276,"à¾¨à¾¡à½¼":6277,"à½ķà½ĵà½łà½ĳ":6278,"à½ĸà½¦à½£à½ĳ":6279,"à¾Ľà½±à¼į":6280,"à¼¥à¼§à¼¥":6281,"à½¢à½Ĥà½ī":6282,"à½Ħà½Ķà½ĳ":6283,"à½¼à¼ĭà¼Ħà¼ħ":6284,"à¾Łà¾¤à½ºà¼ĭ":6285,"à½ĳà½ĸà½ĳà½Ĥ":6286,"à½±à¼·à¼ĭ":6287,"à¾Ĳà¾±à½ºà½º":6288,"à¾ļà½¼à½¾à¼į":6289,"à¾»à½´":6290,"à¼¦à¼łà¼¡":6291,"à¼¦à¼łà¼¢":6292,"à¼¦à¼łà¼¤":6293,"à½¼à¼ĭà½Īà¾·à½²":6294,"à¼ĭà½³":6295,"à½ĸà½ĸà½Ģ":6296,"à¾±à¾¦à¾·à½±à½²à¼ĭ":6297,"à½£à½ĩ":6298,"à½£à½ĸà½Ģ":6299,"à½¼à¼ĭà½²à¼ĭ":6300,"à½¡à½Ħà½ķ":6301,"à¾³à¼ĭà¼ĳ":6302,"à½Ĭà½Ħ":6303,"à½Ĭà½ĭ":6304,"à½łà½ļà½£à½ĳ":6305,"à¾Łà½²à½¾à¼į":6306,"à¾ļà¾²à¼ĭ":6307,"à¼¡à¼¨à¼¨à¼¨":6308,"à¼ĭà½²à¼ĭà½ºà¼ĭ":6309,"Ġà¼§à¼¡":6310,"à¼¥à¼¨à¼¦":6311,"à¼¥à¼©à¼ł":6312,"à¼¥à¼©à¼¦":6313,"à¾¦à¾¦à½±":6314,"à¼Ħ":6315,"à½ĺà½Ļà½ĵ":6316,"à½łà½ģà½Ħà½¦":6317,"à½ĺà½ģà½Ĥ":6318,"à½ģà½ĺà½¦à½¦":6319,"à¼¡à¼¨à¼łà¼ł":6320,"à¾Ĵà¾·à¾ĥà¼ĭ":6321,"à½ķà½İà½Ĥà½¥":6322,"à½¦à½ĸà½Ł":6323,"à½Ķà½Ĥà½ŀ":6324,"à½¤à½İ":6325,"à½ĳà½ĸà½¤à½ĳ":6326,"à¾Ļà½¼à¼į":6327,"à¾¨à½±à¼Ķ":6328,"à½ĳà½ĸà½Ħà½ĸ":6329,"à¾Ĳà¾±à¾³à½º":6330,"à½Īà½±à½²à¼ĭ":6331,"à¼¥à¼©à¼§":6332,"à½¦à½Ķà½ĳ":6333,"à½ķà½£à½Ĥà½¥":6334,"à½ıà½ĺà½¦":6335,"à½łà½Ĥà½łà½Ħ":6336,"à½Ķà½¦à½¤":6337,"à½ĺà½Ĩà½Ĥà½¦":6338,"à¾Ńà½¾":6339,"à¾Łà½´à½¿à¼į":6340,"à¼¥à¼¤à¼¢":6341,"à¼¦à¼£à¼¥":6342,"à¾Ńà½±à½²à¼į":6343,"Ġà¼§à¼¨":6344,"à½¢à½ĳà½ĸ":6345,"à½ĵà½ĺà½ļà½ĵ":6346,"à½ĺà½¦à½ģ":6347,"à½Ļà½ī":6348,"à¾¦à½±à½´à¼ĭ":6349,"à½Ľà½¡à½ĵ":6350,"à½ĸà½ĳà½Ĥà½ĵ":6351,"à½ĺà½Ľà½¢":6352,"à¾Łà½ºà¼ĭà¼¼":6353,"à½±à½´à¼Ķ":6354,"à½±à½´à¾ĥà¼ĭà½±à½´à¾ĥà¼ĭ":6355,"à¼ĭà¼¼à¼¼":6356,"à¼¡à¼¢à¼¥à¼£":6357,"à¾¡à¾·à¼įà¼į":6358,"à¾»à½¼":6359,"à¾ĳà½¾à¼ĭ":6360,"à½Ĥà½Ĥà½Ł":6361,"à½Ħà½ĺà½ł":6362,"à½ĺà½ĸà½ħ":6363,"à½£à½Ĥà½ĳ":6364,"à½¼à¼ĭà½¼à¼ĭ":6365,"à¾±à½ºà¼µ":6366,"à¾·à¾¨à½±à¼ĭ":6367,"à¾¡à½¼à½¼":6368,"à½Ĥà½Ļà½¦":6369,"à½īà½ĺà½¦à½Ķ":6370,"à½¥à½£":6371,"à¼¡à¼§à¼£à¼§":6372,"Ġà¼Ħà¼ħà¼ħ":6373,"à¾¡à¾·à½²à½¾à¼ĭ":6374,"à½łà½Ļà½£":6375,"à¼ĭà¿Ģ":6376,"Ġà½ĺà½ĳà½ł":6377,"à¼ĭà½¼à¼į":6378,"à½¦à½Ĥà½ĵ":6379,"à½¼à¼ĭà½±à¼ĭ":6380,"à¾·à½±à¼įà¼į":6381,"à½Ļà½ĺà½¦":6382,"à¾Ĵà¾±à½´à½´à¼ĭ":6383,"à½¨à½Į":6384,"à½ĵà½ĺà½ĵ":6385,"à¾³à½´à¼ĭà½´":6386,"à¾±à¼įà¼½":6387,"à¼¡à¼£à¼¥à¼¦":6388,"à¼¡à¼§à¼©à¼£":6389,"à¼ĭà½²à¼ĭà½²à¼ĭ":6390,"à¼¦à¼łà¼§":6391,"à¼§à¼¦à¼£":6392,"Ġà½¢à½£":6393,"à½Ĥà½ĸà½ĳà½Ĥ":6394,"à½ĸà½Ĥà½ŀ":6395,"à½¢à½¨":6396,"à½Ģà½ĳà½Ĥ":6397,"à¾Łà¾²à½±à½²à¼į":6398,"à½ĸà½łà½ĩ":6399,"à¾±à¼ĭà¼İ":6400,"à½Ĥà½ŀà½ĵà½ĵ":6401,"à½ĳà½Ĥà½łà½ĸà½¢":6402,"à½Ŀà½Ŀ":6403,"à¼¦à¼¢à¼ł":6404,"à¼¡à¼¨à¼¥à¼¦":6405,"à¾´à½±à¼ĭ":6406,"à¼¥à¼¦à¼¤":6407,"à¼¥à¼©à¼¢":6408,"à¼¥à¼©à¼¤":6409,"à½¼à¼ĭà½ºà¼ĭà½²":6410,"à¼Įà¼Įà¼Įà¼Įà¼Įà¼Įà¼Įà¼Įà¼Įà¼Įà¼Įà¼Įà¼Į":6411,"à½Ĥà½¦à½łà½ĸ":6412,"à½Ķà½¢à½Ĳà½¢":6413,"à½¤à½ģ":6414,"à¾·à¾±à½²à¼ĭ":6415,"à½±à¾ĥà¼Ķ":6416,"à¾Ļà½±à½¾à¼ĭ":6417,"à½ħà½ĵà½ĳà½ĺ":6418,"à½ĸà½ĳà½Ĥà½Ĥà½¡":6419,"à¾¦à¾±à½±à¼ĭ":6420,"à¼¥à¼£à¼¨":6421,"à¼¦à¼¤à¼©":6422,"à¼Įà¼Įà¼Įà¼Įà¼Į":6423,"à¾łà½¾à¼į":6424,"à¼įà¼½à¼į":6425,"à½ĳà½ĺà½Ĳ":6426,"à¾²à¼µà¼ĭ":6427,"à½¡à½Ķà½¦":6428,"à¼įà¼įà¼ĭà¼ĭ":6429,"à½Ģà½Ĥà½¡":6430,"à¾±à½²à¼ĭà¼Ŀà¼į":6431,"à¾¤à¾³à½º":6432,"à¾²à¼ĭà¼½à¼¼":6433,"à¾Ńà½¾à¼įà¼į":6434,"à½Įà½ĸ":6435,"à¼ĭà¾¬":6436,"à¾ŀà½±":6437,"à¼¡à¼¦à¼©à¼§":6438,"à½Ĺà½Ĥà½«":6439,"Ġà¼¥à¼¤":6440,"Ġà¼©à¼§":6441,"à½Ĳà½Ĳà½Ĳ":6442,"à½ĳà½łà½ĺ":6443,"à½¢à½Ķà½Ĥ":6444,"à½ºà¼ĭà¾İ":6445,"à½ĳà½Ħà½łà½Ĥà½£":6446,"à¾Ĳà½±à½²à¼ĭ":6447,"à½ºà¼įà¼Įà¼Įà¼Į":6448,"à½ĵà½Ħà½ł":6449,"à½£à½Ĥà½Ķ":6450,"à½ĸà½ŀà½Ĥà½Ĥà½¡":6451,"à¾Łà½´à½¾à¼į":6452,"à¼§à¼łà¼łà¼ł":6453,"à¼¦à¼¦à¼ł":6454,"à¾ļà½¼":6455,"à¾ļà¾²à½²à½¿à¼ĭ":6456,"à¼¡à¼£à¼¥à¼§":6457,"à¾»à½±à¼į":6458,"à¾¶à½²":6459,"à¾·à¾±à½»à¼ĭ":6460,"à¼ĭà¾İà¼Ķ":6461,"à¼¥à¼§à¼¢":6462,"à¼¥à¼¨à¼¢":6463,"à¼§à¼¦à¼¢":6464,"à¾¼à¾»":6465,"Ġà¼Įà¼Įà¼Įà¼Įà¼Įà¼Įà¼Įà¼Įà¼Įà¼Įà¼Įà¼Įà¼Įà¼Įà¼Įà¼Įà¼Įà¼Įà¼Įà¼Įà¼Įà¼Įà¼Įà¼Įà¼Įà¼Įà¼Įà¼Įà¼Įà¼Įà¼Įà¼Įà¼Įà¼Įà¼Įà¼Įà¼Įà¼Įà¼Įà¼Įà¼Įà¼Įà¼Įà¼Įà¼Įà¼Įà¼Įà¼Įà¼Į":6466,"à½Ķà½Ķà½Ķà½ĸà½ļà½ķà½Ľ":6467,"Ġà½ĸà½ı":6468,"à¼ĭà¾³à½½à¼ĭ":6469,"à½ĳà½¡à½Ħ":6470,"à½Ĥà½Ĥà½ĺ":6471,"à½Ķà½¢à½łà½Ľ":6472,"à½¡à½Ħà½Ĥ":6473,"à½Ĥà½ŀà½ĵà½¦":6474,"à¾¨à¾±à½º":6475,"à½ĸà½Ļà½ĸà½¦":6476,"à¼§à¼¤à¼¢":6477,"à¼¥à¼¤à¼¦":6478,"à¼¦à¼¢à¼¤":6479,"à¼¦à¼£à¼£":6480,"à¼¦à¼§à¼©":6481,"à¾ļà¼įà¼į":6482,"à¼¡à¼¨à¼©à¼¢":6483,"à¼¡à¼¤à¼łà¼©":6484,"à¾±à½²à½º":6485,"à½ļà½Ķà½Ķ":6486,"à½Ķà½¢à½ģ":6487,"à¾«à¾·à¼ĭ":6488,"à½Ĥà½¦à½£à½ĸà½ł":6489,"à½Ħà½Ĥà½¢":6490,"à¼łà¼łà¼©":6491,"à¼¡à¼§à¼©à¼¡":6492,"à¼Ŀà¼Ŀà¼Ŀà¼Ŀà¼Ŀà¼Ŀà¼Ŀà¼Ŀ":6493,"Ġĉ":6494,"à½ĺà½¢à½ĸ":6495,"à½Ĥà½¦à½Ĳ":6496,"à¾Łà¼·à½¼":6497,"à½ĳà½Ħà½Ģ":6498,"à¾³à¾±à½º":6499,"à¼§à¼¡à¼¢":6500,"à¼ĭà½Īà¾¤à½º":6501,"à¾ļà½´à½¾à¼ĭ":6502,"à¼¡à¼¨à¼¥à¼¥":6503,"à½¦à½Ķà½ĸ":6504,"à½¦à½Ģà½£":6505,"à¼¦à¼łà¼¥":6506,"à¾Łà½¾à¼ĭà¼Ħà¼ħà¼įà¼į":6507,"à¼¥à¼§à¼£":6508,"à¼ĭà¾§à¼į":6509,"à¼¦à¼¨à¼©":6510,"à½ĸà½¢à½¤":6511,"à¾¤à¾¤à¼ĭ":6512,"à½¨à½ĺà½ł":6513,"à½ĸà½Ĥà½£":6514,"à½ģà½ĺà½¦à½Ģ":6515,"à½Ĺà½łà½Ħ":6516,"à¼¨à¼¤à¼¡":6517,"à¾²à½±à¾ĥà¼Ķ":6518,"à¼ĭà¼Ŀà¼Ŀ":6519,"à¼©à¼©à¼§":6520,"Ġà½ĸà½ĺ":6521,"à½ĳà½Ĳà½ĺà½¦":6522,"à½ĵà½ĺà½ģà½ł":6523,"à½Ħà½¨":6524,"à½Ķà½ĸà½Ģ":6525,"à½Ĥà½¦à½ļ":6526,"à½ķà½ĺà½¦":6527,"à¾³à½±à¼į":6528,"à½ĳà½Ķà½£à½¦":6529,"à¾·à¼ĭà¼´":6530,"à½Łà½Ĥà½Ĥ":6531,"à½Ĥà½ŀà½Ĥà½Ķà½ł":6532,"à¼¦à¼¡à¼¤":6533,"à¼¦à¼£à¼©":6534,"à½ĥà½Ħ":6535,"à½´à¼ĭà¼ŀ":6536,"à½¡à½ĳà½Ĥ":6537,"à½ŀà½ķ":6538,"à½ĳà½Ħà½¢à½Ħ":6539,"à½ģà½ŀ":6540,"à½£à½¦à½łà½ĳà½ł":6541,"à¾Łà¼ĭà¼½":6542,"à½ħà½ĳà½¢":6543,"à¼ĭà¼Ħ":6544,"à¼¡à¼§à¼¥à¼ł":6545,"à¼¡à¼¨à¼©à¼£":6546,"à¾¥à¼į":6547,"à¾Łà¾Ńà¾ĥà¼Ķ":6548,"à¾ŀà¾ŀà½¿à¼į":6549,"Ġà½Ĩà½ĳ":6550,"à½ĵà½īà½ł":6551,"à½Ķà½¢à½ķ":6552,"à½¨à½ĸà½Ľ":6553,"à¾Ĳà¾±à½ºà¼ĭà¼ĳ":6554,"à½łà½Ĩà½Ħà½¦":6555,"à½±à½´à¼įà¼į":6556,"à¼¦à¼¤à¼¨":6557,"à½Ĺà½Ĭ":6558,"à¼ĭà¼Ķà¼ĭ":6559,"à½ĥà½Ķ":6560,"à¼¦à¼©à¼¨":6561,"Ġà½¢à½¦":6562,"à½ĳà½¢à½Ħ":6563,"à½Ħà½Ĥà½ħ":6564,"à½ĳà½Ħà½ĳà½Ħ":6565,"à½¡à½Ħà½Ĩ":6566,"à¾·à½¿à¼įà¼į":6567,"à¾¨à¼·":6568,"à½Ĥà½ĵà½¦à½ĺ":6569,"à¾±à½ºà¼ĭà¼´":6570,"à¾«à¾Ńà¼ĭ":6571,"à½£à½ĺà½ĳà½Ħ":6572,"à½¥à½Ł":6573,"à½Ĵà½¡à½Ħ":6574,"à¼¡à¼łà¼¤à¼ł":6575,"Ġà¼łà¼§":6576,"à¼ĭà¾§à½²":6577,"à½įà½ĳà½Ĥ":6578,"à¾°à¼į":6579,"à¼łà¼łà¼łà¼łà¼łà¼łà¼łà¼łà¼ł":6580,"à½¢à½ĳà½Ķ":6581,"à½ĺà½Ĥà½¡":6582,"à¾±à¾Ļà½ºà¼ĭ":6583,"à½¤à½ī":6584,"à½ĵà½¦à½Ķ":6585,"à½£à½¦à½ķ":6586,"à¾Ĳà¾±à¾Ĳà½¼":6587,"à½¿à¼ĭà¼¼":6588,"à½Ħà½Ħà½ĺ":6589,"à¾ľà½¾à¼ĭ":6590,"à¾Ńà½±à½±à½´à¼ĭ":6591,"à½ºà¼ĭà¼ĳà¼ĳ":6592,"à¾±à½²à¼ĭà½Īà¾¡à½º":6593,"Ġà½¦à½ĺ":6594,"Ġà½Ħà½¢":6595,"à¼ĭà¾ľà¼į":6596,"à½¼à½¼à¼į":6597,"à½¢à½Ĳà½¢":6598,"à½Ķà½ĳà½ĳ":6599,"à½ºà¼ĭà¼·à¼ĭ":6600,"à½Ķà½łà½Ĳ":6601,"à½ĸà½¢à½Ĥà½¤":6602,"à½ĵà½¦à½Ĥà½¦":6603,"à¾¡à¼µ":6604,"à¾²à½´à¼µ":6605,"à½£à½¦à½Ĥà½¦":6606,"à½£à½¦à½Ĳ":6607,"à¾Ļà¾²à½º":6608,"à½Ľà½ī":6609,"à½ĺà½ĩà½ĺ":6610,"à¾©à½ºà¼·à¼ĭ":6611,"à¼¥à¼£à¼¤":6612,"à½Ĺà½£à½ł":6613,"à¼¡à¼¨à¼¦à¼ł":6614,"Ġà¼Ķà¼Ķ":6615,"à¾©à¾Ńà¼įà¼į":6616,"à¼¦à¼¦à¼§":6617,"à½ĺà½ĳà½Ķ":6618,"à¾±à½¿à¼įà¼į":6619,"à½ĸà½¦à½ĵà½¦":6620,"à½ĵà½¦à½ĳà½Ĥ":6621,"à½ĵà½¦à½¤":6622,"à¾¤à¾±à½º":6623,"à½Ĥà½Ħà½ĸ":6624,"à½Ĥà½ĵà½¦à½£":6625,"à¾³à¼ĭà¼¼":6626,"à½Ŀà½£à½¦":6627,"à¼łà¼¤à¼ł":6628,"à¼¦à¼©à¼§":6629,"à¼ĭà¾¢à½¾à¼į":6630,"à¼¥à¼§à¼¤":6631,"à¼¥à¼©à¼¡":6632,"à½ºà¼ĭà½Īà¾¦à¾·à½±à½²":6633,"à½Łà½ķà½ķ":6634,"à½ģà½ģà½ģà½ģ":6635,"à¼ĭà¿Ħ":6636,"à½ĳà½ĵà½ĳ":6637,"à½¢à½łà½Ħ":6638,"à¼įà¼ĳ":6639,"à½Ķà½īà½ĺà½¦":6640,"à½Ķà½¤à½ĳ":6641,"à¾±à¼µà½¼":6642,"à½¼à¼ĭà¼Ŀà¼į":6643,"à½Ģà½İà½ł":6644,"à½ĸà½¢à½łà½ĸ":6645,"à½Ħà½¦à½Ĥ":6646,"à½ĺà½Ĳà½Ħà½¦":6647,"à½ĸà½ĳà½Ĥà½ı":6648,"à½Ĥà½ŀà½ĵà½Ķà½ł":6649,"à¾¤à¾±à¾±à½²à¼ĭ":6650,"à½Ĥà½ŀà½Ĥà½Ķà½¢":6651,"à½łà½Ĩà½ĳà½Ķà½¢":6652,"à½Ĵà½Ľ":6653,"à½Ĵà½Ĳà½ķà½Ħ":6654,"à¼¦à¼£à¼¨":6655,"à¾¤à½ºà¼ĭà¼´":6656,"à¼¡à¼¦à¼¤à¼¥":6657,"à¼¥à¼§à¼¨":6658,"à¼¥à¼¨à¼¤":6659,"Ġà¼©à¼ł":6660,"à¼ĭà½±":6661,"à½ĵà½ĳà½ĸà½Ħ":6662,"à½ºà¾ĥà¼ĭ":6663,"à½Ĥà½¦à½ĸà½ŀ":6664,"à¾²à¾¤":6665,"à¾²à¾Ĳà¾±à½º":6666,"à½¡à½ĵà½¦":6667,"à½ĺà½¦à½Ĳà½ĺà½¦":6668,"à½ĸà½¢à½ĳà½Ĥ":6669,"à¾·à½ºà¼įà¼į":6670,"à½±à½¼à½¾à¼į":6671,"à¾©à½»à¼ĭ":6672,"à½ĳà½Ģà½£":6673,"à½¾à½¾à¼ĭ":6674,"à½İà½Į":6675,"à¾ľà½¼":6676,"à¼¡à¼łà¼¤à¼¢":6677,"à¾ŀà½±à¼į":6678,"Ġà½Ĩà½Ħ":6679,"à¾ĸ":6680,"à½¦à½¦à½Ħà½¦":6681,"à½ĵà½Ĥà½¦à½£":6682,"à½²à¼ĭà½ºà¼į":6683,"à¾Łà¾Ĵà¾²à½¼":6684,"à½ĸà½¢à½ŀ":6685,"à½ĵà½¦à½ļ":6686,"à½Ķà½¦à½Ĥà½¦":6687,"à½Ķà½¦à½ī":6688,"à¾¦à½¿à¼ĭ":6689,"à¾²à½¼à¼ĭà¼Ħà¼ħà¼įà¼į":6690,"à¾¡à½´à½¿à¼ĭ":6691,"à¾Ĵà½¼à¼·à¼ĭ":6692,"à¼½à¼ĭ":6693,"à½łà½Ĥà½Ĥà½Ķ":6694,"à¾µà¾Ģà¼ĭ":6695,"à¾ŀà¾±à¼ĭ":6696,"à¼¡à¼¤à¼¡à¼ł":6697,"à¼¥à¼§à¼¡":6698,"à¾¡à¾·à½²à½¿à¼ĭ":6699,"à¾ŀà¾ŀà½¼à¼ĭ":6700,"à½Ķà½ĳà½ĸà½Ħ":6701,"à¾Łà¾ĥà¼ĭ":6702,"à½ĳà½Ħà½Ĥà½Ħ":6703,"à½Ĩà½ļ":6704,"à¾³à¾±à½²":6705,"à¾·à½±à½´à¾ĥà¼ĭ":6706,"à¾·à¾²à½ºà¼ĭ":6707,"à¾·à½½à¼į":6708,"à¾²à½²à½²à¼ĭ":6709,"à½Ĥà½Ħà½¢":6710,"à½Ĥà½ĵà½¦à½¤":6711,"à½Ĩà½Ĥà½¦à½Ģ":6712,"à½±à½¿à¼ĭà½±à½´à¾ĥà¼į":6713,"à¾¡à¾·à½´à¼į":6714,"à¼¡à¼§à¼¨à¼ł":6715,"à¼¡à¼¦à¼§à¼©":6716,"à¼¡à¼¨à¼©à¼§":6717,"à¾¦à¾·à½±à½²à¼įà¼į":6718,"à¼¦à¼łà¼¨":6719,"Ġà¼¦à¼¡":6720,"à¼¡à¼§à¼łà¼¥":6721,"Ġà¼ĭà¼ĭà¼ĭà¼ĭà¼ĭà¼ĭà¼ĭà¼ĭà¼ĭà¼ĭà¼ĭà¼ĭà¼ĭà¼ĭà¼ĭà¼ĭà¼ĭà¼ĭà¼ĭà¼ĭ":6722,"à¼łà¼łà¼łà¼łà¼łà¼łà¼łà¼łà¼łà¼łà¼łà¼łà¼łà¼łà¼łà¼łà¼łà¼łà¼łà¼łà¼łà¼łà¼łà¼łà¼łà¼łà¼łà¼łà¼łà¼łà¼łà¼ł":6723,"à½Ķà½ĸà½¤à½ĳ":6724,"à¾²à¼·à½²à¼ĭ":6725,"à½ıà½ļ":6726,"à¾Ĳà½´à½¿à¼ĭ":6727,"à½ĺà½īà½ł":6728,"à½İà½Ĭ":6729,"à¾ĥà¼ĭà¼½":6730,"à¼§à¼¥à¼¥":6731,"à½±à½²à½¿à¼įà¼į":6732,"à¼¦à¼¢à¼§":6733,"à¾łà½±à½¿à¼į":6734,"Ġà½¦à½ĳ":6735,"à½ĸà½ĸà½¦à½ĺ":6736,"à½Ķà½Łà½Ħ":6737,"à¾±à¼·à½º":6738,"à½²à¼ĭà¾Ł":6739,"à¾Ĵà½²à¼į":6740,"à¾³à½±à½´à¼ĭ":6741,"à¾³à¾±à½¼à¼ĭ":6742,"à¾±à½¼à¼·":6743,"à½¨à½ĸà½¦":6744,"à½¥à½Ľ":6745,"à½Ĭà½ĸ":6746,"à¼¦à¼¡à¼©":6747,"à¼¦à¼§à¼§":6748,"à¼¡à¼łà¼¨à¼©":6749,"à¾ŀà¼įà¼į":6750,"à½ĭà½Ģà½ł":6751,"à¼ĭà¼Īà¼ĭ":6752,"à¼¥à¼©à¼£":6753,"à¼¡à¼¡à¼¨à¼¢":6754,"à½Ķà½£à½Ĥà½¦":6755,"à½ºà¼ĭà½ºà¼ĭ":6756,"à½´à¼ĭà½Īà¾±à½²":6757,"à½¼à¼ĭà¼ŀ":6758,"à½ļà½Ł":6759,"à½łà½Ĥà½ī":6760,"à½Ķà½¦à½Ħà½¦":6761,"à½ĸà½ĳà½Ģ":6762,"à¼§à¼§à¼ł":6763,"à¼¦à¼¤à¼¥":6764,"à¾Ĵà¾²à½ºà¼įà¼į":6765,"à¼¦à¼łà¼©":6766,"à¼§à¼łà¼¤":6767,"à½±à½¼à¾ĥà¼į":6768,"à½§à½§à½§à½§à½§à½§à½§à½§à½§à½§à½§à½§à½§à½§à½§à½§à½§à½§à½§à½§à½§à½§à½§à½§à½§à½§à½§à½§à½§à½§à½§à½§":6769,"à¼ĭà¾±à¼ĭ":6770,"à½¦à½İà½ł":6771,"à½¢à½ĺà½Ĩ":6772,"à½¢à½Į":6773,"à½Ķà½¢à½ħà½ĵ":6774,"à½ĺà½ģà½łà½£":6775,"à¼¦à¼¢à¼£":6776,"à¼¦à¼£à¼¦":6777,"à¼¡à¼§à¼¦à¼¢":6778,"à¼¡à¼¨à¼§à¼¦":6779,"à½Ĺà½Ĥà½«à½¥":6780,"à¼¡à¼©à¼łà¼¢":6781,"Ġà½łà½Ĩà½ĳ":6782,"Ġà¼ĭà¼Ī":6783,"à½¼à¾ĥà¼Ķ":6784,"à½Ħà½§":6785,"à½ĺà½ĵà½Ħà½Ĥ":6786,"à½Ĥà½¦à½ĺà½Ĳ":6787,"à¾Łà½²à¼Ķ":6788,"à½ĳà½Ħà½ĸà½ĳ":6789,"à½Ķà½¢à½ĳà½Ħ":6790,"à¾·à½ºà¼Ķ":6791,"à½ĺà½¢à½¦":6792,"à¾¨à¾²à¾Ģ":6793,"à¾¨à¾²à¼·à¼ĭ":6794,"à½£à½Ĥà½¦à½¦":6795,"à¾±à½²à¼įà¼ĭà¼ĭà¼ĭà¼ĭà¼ĭ":6796,"à¼¦à¼¡à¼¥":6797,"à¼¦à¼¡à¼¦":6798,"à¾ªà½ºà¼į":6799,"à¼¡à¼¨à¼§à¼ł":6800,"à¼ĭà¾¢à½±à¼į":6801,"à½ĸà½Ĥà½¡":6802,"à½¢à½Ķà½ĵ":6803,"à½łà½ŀ":6804,"à½¼à¼ĭà½¼à¼ĭà½ºà¼ĭ":6805,"à½ħà½Ĩ":6806,"à½ĸà½¦à½łà½ĳ":6807,"à¾¨à½±à½´":6808,"à¾¨à¾¨à¼į":6809,"à½ħà½ĳà½¡":6810,"à½±à¼ĭà¾İ":6811,"à¾Ńà½±à½²":6812,"à½ĺà½Ĳà½łà½ĳà½Ĥ":6813,"à½Īà¾¤à¾±à½²":6814,"à¼µà¼įà¼į":6815,"à¼ĭà½µà¾ĥà¼įà¼į":6816,"à¼¥à¼¦à¼¨":6817,"à½¢à½ĵà½ł":6818,"à½Ħà½¢à½ĸ":6819,"à½łà½Ķà½¢":6820,"à½Ĥà½¦à½ī":6821,"à½Ķà½¢à½Ĥà½¡":6822,"à½¤à½ļ":6823,"à¾³à½»à¼ĭ":6824,"à¾Ķà¾Ĳà½¼":6825,"à½łà½ĳà½¦à½¢":6826,"à¾³à½¼à¼ĭà¼¸":6827,"à½İà½İ":6828,"à½ħà½Ĥà½Ĥ":6829,"à¼ĭà½Īà¾Ĺà½º":6830,"Ġà¼įà¼ĭà¼ĭà¼ĭ":6831,"à½ķà½Ĭà½ĸà½¦":6832,"à¾µà½¼":6833,"à¼¡à¼§à¼¤à¼§":6834,"à¼¡à¼¨à¼¥à¼©":6835,"à¼ĭà¾§à½¼à¼ĭ":6836,"à¾¡à¾²à½¿à¼ĭ":6837,"Ġà¼¦à¼§":6838,"Ġà½ŀà½Ĥ":6839,"à½ĵà½Ŀ":6840,"à½£à½ĸà½£":6841,"à½ºà¼ĭà½¾à¼į":6842,"à¾Ļà¼·":6843,"à¼§à¼¦à¼ł":6844,"à¼¡à¼¦à¼¨à¼£":6845,"à¼Ģà½ģ":6846,"à¼¥à¼¨à¼¥":6847,"à¼ĭà½¼à¼ĭà½ºà¼ĭà½²":6848,"à½¼à¼ĭà¼Īà¼į":6849,"à½ĵà½ĸà½ł":6850,"à½ĺà½£à½Ĥà½¦":6851,"à½²à¼ĭà¼·à¼ĭ":6852,"à½ĵà½¦à½Ħ":6853,"à¾³à¾·à½²à½¾à¼ĭ":6854,"à½£à½¦à½ģ":6855,"à½Ķà½¦à½Ħ":6856,"à¾·à¼ĭà¼¼":6857,"à¾Ńà¼ĭà¼½à¼¼":6858,"à¾ªà¼įà¼į":6859,"à¼¡à¼łà¼¡à¼¢":6860,"à¼¡à¼§à¼¢à¼£":6861,"à¼ĭà¼Ħà¼ħà¼Ķ":6862,"à½¢à½¢à½ĸ":6863,"à½Ĥà½¦à½ĸà½ħ":6864,"à¾²à¾³à¼ĭ":6865,"à½ĺà½¦à½ĵà½¦":6866,"à½¤à½ķ":6867,"à¾³à¾¤à¾±à½¼à¼ĭ":6868,"à½¡à½Ħà½ģ":6869,"à½łà½ģà½ĺ":6870,"à½¨à½Ķà½ł":6871,"à¾¡à½ºà¼ĭà¼¼":6872,"à½£à½ĵà½Ĥà½¦":6873,"à½ĺà½ģà½ĵà½Ķ":6874,"à¾ļà½½à¼ĭ":6875,"à½ĥà½£":6876,"à¾Łà¾Ńà¾ĥà¼į":6877,"à½Ĳà½Ģà½«à½¢":6878,"à¼§à¼§à¼©":6879,"à¾ŀà¾ŀà¾±à¼ĭ":6880,"Ġà½ĳà½Ķà½Ĥ":6881,"à½¦à½łà½Ľ":6882,"à½¢à½Ģà½ł":6883,"à½´à½¾à½¿à¼ĭ":6884,"à½ĳà½Ħà½ĸà½ĳà½Ĥ":6885,"à½ĳà½Ħà½Ħà½Ĥ":6886,"à½Ĩà½ķ":6887,"à½ģà½Ĥà½ı":6888,"à½īà½Ĳ":6889,"à¾·à¾±à½²":6890,"à¾·à½±à½¾à¼į":6891,"à½Ĥà½Ħà½£à½¦":6892,"à½ħà½ĵà½ī":6893,"à½¢à½ĸà½Ĥ":6894,"à½§à½¤":6895,"à¾Ĵà¾±à¼ĭà¼¼":6896,"à¾¤à¾±à½¼à¼į":6897,"à½¾à¼ĭà¼Ħà¼ħà¼įà¼į":6898,"à½£à½Ĥà½ĳà½Ħ":6899,"à¼¨à¼¤à¼¢":6900,"à¼¡à¼§à¼¢à¼©":6901,"à¾Ľà½¼à¼ĭ":6902,"à¾¶à½ºà¼ĭ":6903,"à½ĵà½Ķà½ĺ":6904,"à½Ĥà½Ķà½Ĥ":6905,"Ġà½ĸà½ħà½ł":6906,"à½ĵà½ĵà½Ĥ":6907,"à½ķà½Ģà½Ħ":6908,"à½¡à½Ħà½łà½ĸ":6909,"à¾¡à½´à¼·":6910,"à½ĺà½ģà½łà½ĺ":6911,"à¾¤à¾±à¾±à½²":6912,"à¼¦à¼¤à¼§":6913,"à¼¦à¼¥à¼¥":6914,"à¼©à¼¡à¼ł":6915,"à¼¨à¼¡à¼ł":6916,"à¾Ńà½±à½¿à¼į":6917,"à¾ļà½º":6918,"à¼¡à¼§à¼§à¼ł":6919,"à¼¡à¼¨à¼¥à¼£":6920,"à¼¡à¼¨à¼¦à¼¥":6921,"à¼ĭà¼Īà¼Īà¼Ī":6922,"à¼ĭà¾¾à¾¾à¾¾à¾¾":6923,"à½ºà¼ĭà½Īà½º":6924,"à½²à¼ĭà¾İà¼į":6925,"à¾²à¾²à¾²à¾²":6926,"Ġà½Ĩà½Ĥ":6927,"Ġà¾Ī":6928,"à½²à½±à¼ĭ":6929,"à½Ĥà½Ĥà½ŀ":6930,"à½Ĥà½ĺà½Ĥ":6931,"à¾³à½¿à¼ĭ":6932,"à¾±à½¼à½¿à¼ĭ":6933,"à¾©à½´à¼į":6934,"à½Ĥà½Ħà½ķ":6935,"à¾¨à½´à¼į":6936,"à¾¦à¾Ĺà½¼":6937,"à½ĵà½ĳà½ĵ":6938,"à¼¦à¼©à¼ł":6939,"à½Ĺà½ķà½ħ":6940,"à¼¡à¼£à¼¦à¼¤":6941,"à¼¡à¼¨à¼¡à¼£":6942,"à¾¶à¾±":6943,"à¼¦à¼łà¼£":6944,"à¾±à½±à½ºà¼ĭ":6945,"à½²à½¿à¼įà¼Įà¼Įà¼Į":6946,"Ġà½Łà½ĳ":6947,"à½¢à½Ķà½ĺ":6948,"à½Ħà½ĳà½ĸ":6949,"à½Ħà½Ķà½Ĥ":6950,"à½²à¼ĭà¼į":6951,"à½²à¼ĭà¾¾":6952,"à½¡à½Ħà½ī":6953,"à¾Ķà¾±à½¼":6954,"à½±à¾Ĥà¼ĭ":6955,"à¾¨à¾¨à½¼à¼ĭ":6956,"à½ĳà½Ķà½ĺ":6957,"à½²à¼įà¼ĭà¼ĭ":6958,"à½ĺà½Ľà½Ħ":6959,"à½ĵà½ĺà½¢":6960,"à¾¦à¾±à¾Ģ":6961,"à½ĸà½ŀà½Ĥà½Ķ":6962,"à¼¦à¼¨à¼ł":6963,"à¼§à¼§à¼¤":6964,"à¼§à¼¨à¼§":6965,"à½´à¼ĭà½Īà½²à¼ĭ":6966,"à½£à½§":6967,"à½ºà¼ĭà¼Ħà¼ħ":6968,"à½Ĥà½¦à½Ķà½£":6969,"à½¡à½Ħà½¤":6970,"à½Ķà½¦à½łà½Ĥ":6971,"à½¢à½ĸà½£":6972,"à¾²à½¼à¼ĭà¼¼":6973,"à¾³à¼ĭà¼½":6974,"à½£à½ĺà½ĺ":6975,"à¾Ĳà¾±à½ºà¼ĭà¼Ħà¼ħà¼įà¼į":6976,"à½Ĵà½Ĳà½ĸ":6977,"à¼¡à¼¢à¼¥à¼¡":6978,"à¾¦à¾·à¾±à½±":6979,"à¾´à¼Ķ":6980,"à¼¥à¼¨à¼¡":6981,"à¼¥à¼¨à¼£":6982,"ĠĠĠĠĠĠĠĠĠĠĠĠ":6983,"Ġà½£à½Ĥà½¦":6984,"à½Ķà½Ķà½ł":6985,"à¾²à¾«à½²à¼ĭ":6986,"à¾Łà¾³à½º":6987,"à¾Łà¾²à½±":6988,"à½ĳà½Ħà½ĳà½ĸ":6989,"à½ĸà½¢à½ĸà½¢":6990,"à¾¤à¾³à½¼à¼ĭ":6991,"à½Ĥà½īà½ĺ":6992,"à½ĺà½Ľà½£":6993,"à¾¦à¾±à½¼à½¼":6994,"à¾³à½´à¼·à¼ĭ":6995,"à½ĳà½ĳà½Ķà½¢":6996,"à½łà½Ĳà½Ħ":6997,"à¼¦à¼¢à¼¥":6998,"à¼¦à¼¥à¼¦":6999,"à¼¡à¼¨à¼¨à¼¢":7000,"à½ĵà½Ķà½£":7001,"à¼¦à¼§à¼£":7002,"à½Ĥà½łà½ķ":7003,"à½¢à½Ķà½ĳ":7004,"à½¢à½¢à½ĺ":7005,"à½łà½¤":7006,"à½£à½ĸà½ħ":7007,"à¾Łà¾²à¾Ģà¼į":7008,"à½Ĳà½Ĥà½Ħ":7009,"à½ĳà½Ĥà½ĵà½¦":7010,"à½ĳà½Ĥà½Ķà½¦":7011,"à½Łà½Ķà½Ħ":7012,"à½¡à½Ħà½Ĥà½ŀà½ĵ":7013,"à¾©à¾±à½´à¼ĭ":7014,"à¾Ĺà½ºà¼ĭà¼Ħà¼ħà¼įà¼į":7015,"à½ĺà½ĳà½Ķà½ł":7016,"à¾Łà½ºà¼ĭà¼İ":7017,"à½£à½ĵà½Į":7018,"à¼§à¼¡à¼§":7019,"à¼¡à¼§à¼¡à¼¨":7020,"à¼§à¼©à¼ł":7021,"à¼¦à¼§à¼¥":7022,"Ġà½łà½ĸà½ĸ":7023,"à¼ĭà½±à½´à¾ĥà¼į":7024,"à½ĸà½Ĥà½ı":7025,"à½ĵà½Ľ":7026,"à½ļà½Ļ":7027,"à¾·à¾²à½²à½¾à¼ĭ":7028,"à½¢à½Ħà½¥":7029,"à½¢à½ĸà½ĳà½Ħ":7030,"à½§à½Ĥà½¦":7031,"à½Ĭà½ĳ":7032,"à½Ĵà½Łà½ģ":7033,"à¼¦à¼¡à¼¡":7034,"à¼½à¼Ħà¼ħà¼įà¼į":7035,"à¼µà½ºà¼į":7036,"à¾ŀà½´à¼į":7037,"à¼ĭà½¼à½¼":7038,"à¾¶à½½à¼į":7039,"à¼¦à¼¦à¼£":7040,"à¼¦à¼§à¼¢":7041,"à¼ĭà¿İ":7042,"Ġà½¦à½ł":7043,"Ġà¼ĭà¼įà¼ĭ":7044,"à¾¯":7045,"à½¦à½ĺà½Ľà½ĳ":7046,"à½¦à½ĸà½¦à½ĺ":7047,"à½¢à½ĳà½ĺ":7048,"à½Ķà½ĵà½Ħ":7049,"à½Ķà½ĸà½Ĥ":7050,"à½ħà½Ģ":7051,"à¾Ĵà¾©à½¼":7052,"à½¤à½Ł":7053,"à¾£à½»à¼ĭ":7054,"à½ĩà½ĳ":7055,"à½ĸà½ıà½ĺ":7056,"à¼łà¼łà¼¨":7057,"à¾ļà¾²à½±à½²à¼ĭ":7058,"à¾¡à¾·à½¾":7059,"à¼¡à¼§à¼¢à¼¡":7060,"à¼¡à¼¨à¼¤à¼¢":7061,"Ġà¼¦à¼¢":7062,"à¼įà¼ĭà¼ĭà¼ĭà¼ĭà¼ĭà¼ĭà¼ĭà¼ĭà¼ĭà¼ĭà¼ĭà¼ĭà¼ĭà¼ĭà¼ĭà¼ĭà¼ĭà¼ĭà¼ĭ":7063,"Ġà½łà½ĩà½ł":7064,"à½¦à½ĳà½Ķ":7065,"à½Ħà½Ĥà½Ł":7066,"à½ĸà½Ĥà½ł":7067,"à¾¡à½ºà¼ĭà½Īà½²":7068,"à½ķà½ĵà½Ķ":7069,"à½Ĺà½Łà½ĸ":7070,"à¼¡à¼¨à¼©à¼¨":7071,"à¼ĭà½µà¼į":7072,"à¼ĭà½¼à¾±à½²":7073,"à¾±à½¾à¼ĭà¼´":7074,"à¼¦à¼¦à¼©":7075,"à¼ĭà½±à¼ĭà¾¨à¼ĭ":7076,"à¼ĭà¼Įà¼Įà¼Įà¼Įà¼Įà¼Įà¼Įà¼Įà¼Įà¼Įà¼Įà¼Įà¼Įà¼Įà¼Įà¼Įà¼Įà¼Įà¼Įà¼Įà¼Įà¼Įà¼Įà¼Įà¼Įà¼Įà¼Įà¼Įà¼Įà¼Įà¼Įà¼Įà¼Įà¼Įà¼Įà¼Įà¼Įà¼Įà¼Įà¼Įà¼Įà¼Įà¼Įà¼Įà¼Įà¼Įà¼Įà¼Įà¼Įà¼Įà¼Įà¼Įà¼Įà¼Įà¼Įà¼Įà¼Įà¼Įà¼Įà¼Įà¼Įà¼Įà¼Įà¼Įà¼Į":7077,"à½¦à½Ĥà½ĳ":7078,"à½ĵà½ĵà½Ħ":7079,"à½£à½ĸà½Ł":7080,"à½¤à½ĺà½Ħ":7081,"à½¤à½Ĥà½¡":7082,"à½£à½¦à½¤":7083,"à½ĸà½ħà½łà½ĺ":7084,"à½Ĥà½ĵà½¦à½Ķà½¦":7085,"à¾Łà½ºà½ºà¼į":7086,"à½±à½´à¼µà¼į":7087,"à½Ŀà½«":7088,"à¼¦à¼¤à¼¦":7089,"à¼¡à¼łà¼§à¼£":7090,"à¾Ħà¼ĭà¼ĳ":7091,"à¼¡à¼£à¼¤à¼©":7092,"à¾łà¾Ģ":7093,"à¾·à¾±à½±à¼į":7094,"Ġà¼¦à¼¦":7095,"à¼¡à¼§à¼łà¼¨":7096,"à¾¨à¾¨à½±à½¿à¼į":7097,"Ġà½£à½łà½Ħ":7098,"à½Ħà½Ķà½£":7099,"à¾±à¼·à½¼":7100,"à½Ħà½¦à½ŀ":7101,"à¾±à½ºà¼ĭà½Īà½±à½²":7102,"à½Ĥà½Ļà½ĳ":7103,"à½ĵà½ĺà½ŀ":7104,"à¼¦à¼£à¼¤":7105,"à¼¦à¼¥à¼£":7106,"à¼łà¼łà¼¦":7107,"à½Ĳà½ĺà½ħà½ĳ":7108,"à¼§à¼łà¼©":7109,"ĠĠĠĠĠĠĠĠĠ":7110,"à½¦à½ĳà½ĸà½Ħ":7111,"à½ĳà½Ħà½łà½Ľ":7112,"à½Ķà½¢à½ĳà½Ĥà½ł":7113,"à½ĵà½¦à½Ĳ":7114,"à½ĵà½¦à½¡à½Ħ":7115,"à½£à½¦à½Ĥà½Ħ":7116,"à½¡à½Ħà½Ĥà½Ħ":7117,"à½Ķà½¦à½łà½ĩ":7118,"à¾²à½¼à¼µ":7119,"à¾Ķà¼ĭà¼¼":7120,"à½ķà½ĵà½¡":7121,"à½Ķà½ĳà½ł":7122,"à¾ŀà½¿à¼ĭ":7123,"à¼¡à¼¦à¼¢à¼ł":7124,"à¼¡à¼¨à¼¦à¼¢":7125,"à¼Ģà½Ļ":7126,"à¼Īà¼įà¼į":7127,"à¼įà¼ĭà¼ĭà¼ĭà¼ĭà¼ĭà¼ĭà¼ĭà¼ĭà¼ĭà¼ĭà¼ĭà¼ĭà¼ĭà¼ĭà¼ĭà¼ĭà¼ĭà¼ĭà¼ĭà¼ĭà¼ĭ":7128,"Ġà½ĳà½£":7129,"à¼ĭà¾ľà½²à¼ĭ":7130,"à½¢à½łà½Ľ":7131,"à½¢à½ĺà½ĳ":7132,"à½Ģà½ģ":7133,"à½ĵà½¦à½ł":7134,"à½Ĥà½ŀà½ĺ":7135,"à½ĳà½Ķà½łà½ĸ":7136,"à½Ĩà½Ĥà½¦à½Ķà½ł":7137,"à¼§à¼¤à¼ł":7138,"à¼¡à¼łà¼¤à¼§":7139,"à¾Ľà½¾à¼ĭ":7140,"à¼¡à¼¦à¼¦à¼¢":7141,"à¼ĭà¾§à½²à½¿à¼ĭ":7142,"Ġà¼©à¼¥":7143,"Ġà¼¢à¼łà¼¡à¼¦":7144,"à½ĵà½ĺà½ł":7145,"à½Ħà½Ĥà½ĳ":7146,"à½Ķà½ĺà½ļà½ĵ":7147,"à½łà½ı":7148,"à½¤à½ĸà½¦":7149,"à¾Ĺà½ºà¼ĭà¼¼":7150,"à¾«à½±":7151,"à½ĸà½ıà½¢":7152,"à¾©à¼ĭà¼Ħà¼ħà¼įà¼į":7153,"à½¼à¼įà¼ĭà¼ĭ":7154,"à¾¤à½¼à½¼":7155,"à½Ŀà½¨":7156,"à½ĸà½ıà½Ĥà½¦à½Ķ":7157,"à¼¡à¼¤à¼łà¼ł":7158,"Ġà½ĵà½¡":7159,"à¼©à¼©à¼¦":7160,"à¼©à¼§à¼¨":7161,"Ġà¼¨à¼©":7162,"à¼¦à¼¨à¼¥":7163,"Ġà¼ĭà¼ĭà¼ĭà¼ĭà¼ĭà¼ĭà¼ĭà¼ĭà¼ĭà¼ĭà¼ĭà¼ĭà¼ĭà¼ĭà¼ĭà¼ĭà¼ĭà¼ĭà¼ĭà¼ĭà¼ĭà¼ĭà¼ĭà¼ĭà¼ĭà¼ĭà¼ĭà¼ĭà¼ĭà¼ĭà¼ĭà¼ĭà¼ĭà¼ĭà¼ĭà¼ĭà¼ĭà¼ĭà¼ĭà¼ĭà¼ĭà¼ĭà¼ĭà¼ĭà¼ĭà¼ĭà¼ĭà¼ĭà¼ĭà¼ĭà¼ĭà¼ĭà¼ĭà¼ĭà¼ĭà¼ĭà¼ĭà¼ĭà¼ĭà¼ĭà¼ĭà¼ĭà¼ĭà¼ĭà¼ĭà¼ĭà¼ĭà¼ĭà¼ĭà¼ĭà¼ĭà¼ĭà¼ĭà¼ĭà¼ĭà¼ĭà¼ĭà¼ĭà¼ĭà¼ĭà¼ĭà¼ĭà¼ĭà¼ĭà¼ĭà¼ĭà¼ĭà¼ĭà¼ĭà¼ĭà¼ĭà¼ĭà¼ĭ":7164,"Ġà½¨à½¢":7165,"à½Ĥà½ĳà½Ķà½£":7166,"à½ĸà½Ĥà½¤":7167,"à½ĺà½Į":7168,"à½Ķà½Ģà½ł":7169,"à½ģà½Ľ":7170,"à½łà½ĳà½Ģ":7171,"à¾¡à¾²à½¼à¼ĭ":7172,"à¾¤à½±à½²à¼ĭ":7173,"à¾·à¾Ńà½±à¼ĭ":7174,"à½Ļà½ģ":7175,"à½Ĥà½ŀà½ĵà½Ķ":7176,"à½Ĥà½ŀà½ĵà½ŀ":7177,"à½Ĥà½ŀà½ĵà½ĳà½Ħ":7178,"à¾Ńà½¼à½¿à¼į":7179,"à½Ĳà½ĸà½¦à½Ģ":7180,"à½ĸà½£à½Ħ":7181,"à½¿à¼ĭà½±à½´à¾ĥà¼ĭ":7182,"à½¡à½¦à½ĺ":7183,"à¾Łà½ºà¼įà¼įà¼į":7184,"à¾ľà½±à½²à¼į":7185,"à¼¦à¼¢à¼¢":7186,"à¼¦à¼¤à¼¤":7187,"à¼¦à¼¤à¼¢":7188,"à½ķà½Ĭà½ķà½Ĭ":7189,"à¾µà¾±à½±à¼ĭ":7190,"à½ĸà½Ħà½¥":7191,"à¼¡à¼¦à¼¥à¼£":7192,"à¾Ħà¼įà¼Įà¼Įà¼Į":7193,"à¼¦à¼¦à¼¢":7194,"à¼¦à¼©à¼¥":7195,"Ġà¼ĭà¼ĭà¼ĭà¼ĭà¼ĭà¼ĭà¼ĭà¼ĭà¼ĭà¼ĭà¼ĭà¼ĭà¼ĭà¼ĭà¼ĭà¼ĭà¼ĭà¼ĭà¼ĭà¼ĭà¼ĭà¼ĭà¼ĭà¼ĭà¼ĭà¼ĭà¼ĭà¼ĭà¼ĭà¼ĭà¼ĭà¼ĭà¼ĭà¼ĭà¼ĭà¼ĭà¼ĭà¼ĭà¼ĭà¼ĭà¼ĭà¼ĭà¼ĭà¼ĭà¼ĭà¼ĭà¼ĭà¼ĭà¼ĭà¼ĭà¼ĭà¼ĭà¼ĭà¼ĭà¼ĭà¼ĭà¼ĭà¼ĭà¼ĭà¼ĭà¼ĭà¼ĭà¼ĭà¼ĭà¼ĭà¼ĭà¼ĭà¼ĭà¼ĭà¼ĭà¼ĭà¼ĭà¼ĭà¼ĭà¼ĭà¼ĭà¼ĭà¼ĭà¼ĭà¼ĭà¼ĭà¼ĭà¼ĭà¼ĭà¼ĭà¼ĭà¼ĭà¼ĭà¼ĭà¼ĭà¼ĭà¼ĭ":7196,"Ġà½ļà½Ħ":7197,"Ġà½Ĥà½ĵà½ĳ":7198,"Ġà½Ĳà½ĳ":7199,"à¼Ħà¼į":7200,"à½Ħà½ĺà½Ĩ":7201,"à¾±à¾Ģà¼į":7202,"à½ºà¼ĭà½Īà½¼":7203,"à½ħà½ĳà½ĸ":7204,"à½Ķà½¢à½Ĳà½£":7205,"à¾Ĳà½±à¼į":7206,"à¾²à½´à¾ĥà¼į":7207,"à¾·à¾±à½´à¼ĭ":7208,"à¾Ĵà¾±à¼ĭà¼´":7209,"à½Łà½ĳà½Ķà½¢":7210,"à½Ŀà½§":7211,"à½ĵà½ĺà½¦à½Ģ":7212,"à½Ĺà½¤":7213,"à¾ªà½¾à¼ĭ":7214,"à¼¡à¼§à¼¡à¼ł":7215,"à¼¡à¼¨à¼¢à¼ł":7216,"à¼¢à¼¤à¼łà¼ł":7217,"à½ĥà½¡":7218,"à¾·à½±à½¿à¼į":7219,"Ġà¼¦à¼£":7220,"à¿Ĵ":7221,"Ġà½ģà½¦":7222,"à½ĸà½ĸà½Ĥ":7223,"à½¢à½¦à½Ħà½¦":7224,"à½ĺà½Ĥà½ŀà½ĵ":7225,"à¾³à¾¤à¾±à½¼":7226,"à¾·à¾³à¾Ģà¼ĭ":7227,"à¾±à½ºà¼ĭà½Īà¾±à½²":7228,"à½łà½ĳà½¦à½£":7229,"à¾Ĵà½¼à½¼":7230,"à½ĸà½ħà½¦à½Ķà½¢":7231,"à½¼à¼įà¼ĭà¼ĭà¼ĭà¼ĭà¼ĭà¼ĭà¼ĭà¼ĭà¼ĭà¼ĭà¼ĭà¼ĭà¼ĭà¼ĭà¼ĭà¼ĭà¼ĭà¼ĭà¼ĭà¼ĭà¼ĭà¼ĭà¼ĭà¼ĭà¼ĭà¼ĭà¼ĭà¼ĭà¼ĭà¼ĭà¼ĭà¼ĭà¼ĭà¼ĭà¼ĭà¼ĭà¼ĭà¼ĭà¼ĭà¼ĭà¼ĭà¼ĭà¼ĭà¼ĭà¼ĭà¼ĭà¼ĭà¼ĭà¼ĭà¼ĭà¼ĭà¼ĭà¼ĭà¼ĭà¼ĭà¼ĭà¼ĭà¼ĭà¼ĭà¼ĭà¼ĭà¼ĭà¼ĭà¼ĭ":7232,"à¼¦à¼©à¼©":7233,"à½Ĺà½Łà½Ĳ":7234,"à¼¡à¼¦à¼¤à¼¤":7235,"à¼¡à¼¦à¼¤à¼¡":7236,"à¼¡à¼¨à¼¥à¼¨":7237,"à½´à¼·à¼į":7238,"à¼¦à¼¦à¼¦":7239,"à¼Įà¼Įà¼Įà¼Įà¼Įà¼Įà¼Įà¼Įà¼Įà¼Įà¼Įà¼Įà¼Įà¼Įà¼Įà¼Įà¼Įà¼Įà¼Įà¼Įà¼Įà¼Įà¼Įà¼Įà¼Įà¼Įà¼Įà¼Įà¼Įà¼Įà¼Įà¼Įà¼Įà¼Įà¼Įà¼Įà¼Įà¼Įà¼Įà¼Įà¼Įà¼Įà¼Įà¼Įà¼Įà¼Įà¼Įà¼Į":7240,"à½Ĳà½Ĳà½Ĳà½Ĳ":7241,"à¾·à¾²à½±à½´à¾Ĥà¼ĭ":7242,"à¼»à¼»":7243,"Ġà½Ħà½ł":7244,"à½ĸà½Ĳà½Ħ":7245,"à½£à½Ĥà½¡":7246,"à½Ĥà½¦à½¨":7247,"à½ĳà½Ħà½Ĥà½ĵà½¦":7248,"à½Ĩà½ĳà½Ķ":7249,"à½¤à½ŀ":7250,"à¾Ĳà¾²à½º":7251,"à¾Ĳà¾³à½¼à¼ĭ":7252,"à½Ķà½¦à½Ĳ":7253,"à¾Ķà½´à¼į":7254,"à¾²à½²à½¾":7255,"à½ĺà½Ĩà½ĺà½¦":7256,"à½Ĥà½ĵà½Ĥà½¦":7257,"à½Ĩà½Ĥà½¦à½¦":7258,"à½ĵà½Ĥà½Ķ":7259,"à¼¢à¼¡à¼¤à¼¢":7260,"à¼¦à¼¤à¼£":7261,"à¼¦à¼¥à¼¤":7262,"à¾¦à¾·à½²à¼į":7263,"à¼ĭà¾¢à½±à½¿à¼ĭ":7264,"à½ĭà½£":7265,"à½ĭà½ı":7266,"à¾¶à½¾à¼į":7267,"à¼§à¼łà¼¢":7268,"à¼¦à¼¦à¼¥":7269,"à¼įà¼ĭà¼ĭà¼ĭà¼ĭà¼ĭà¼ĭà¼ĭà¼ĭà¼ĭà¼ĭà¼ĭà¼ĭà¼ĭà¼ĭà¼ĭà¼ĭà¼ĭà¼ĭà¼ĭà¼ĭà¼ĭà¼ĭà¼ĭ":7270,"à¾ŀà¾ŀà½¿à¼ĭ":7271,"Ġà¼ĭà¼ĭà¼ĭà¼ĭà¼ĭà¼ĭà¼ĭà¼ĭà¼ĭà¼ĭà¼ĭà¼ĭà¼ĭà¼ĭà¼ĭà¼ĭà¼ĭà¼ĭà¼ĭà¼ĭà¼ĭ":7272,"à½¡à½«à½Ĥà½¥":7273,"Ġà½ĵà½Ĥà½¦":7274,"à½ĵà½ĳà½ĳ":7275,"à¾±à¾ľà¼ĭ":7276,"à¾²à¼·à½º":7277,"à¾Łà¾²à½ºà¼įà¼į":7278,"à½¤à½ĸà½ĳ":7279,"à¾Łà½ºà¼ĭà¼Ħà¼ħà¼įà¼į":7280,"à½İà½ģ":7281,"à½¥à½§":7282,"à¾¡à½ºà½ºà¼ĭ":7283,"à½ĺà½ĩà½ĳ":7284,"à¼łà¼łà¼¡":7285,"à¼µà¼µ":7286,"à¼¡à¼¤à¼¤à¼§":7287,"à¼¡à¼¨à¼§à¼¥":7288,"à¾¥à½±à½²à¼ĭ":7289,"Ġà½ĵà½Ķ":7290,"à½¦à½Ķà½£":7291,"à¼Ħà¼ħà¼ħ":7292,"à¼įà¼ĭà¼ĭà¼ĭà¼ĭà¼ĭà¼ĭà¼ĭà¼ĭà¼ĭà¼ĭà¼ĭà¼ĭà¼ĭà¼ĭà¼ĭà¼ĭà¼ĭà¼ĭà¼ĭà¼ĭà¼ĭà¼ĭà¼ĭà¼ĭà¼ĭà¼ĭà¼ĭà¼ĭà¼ĭà¼ĭà¼ĭà¼ĭà¼ĭà¼ĭà¼ĭà¼ĭà¼ĭà¼ĭà¼ĭà¼ĭà¼ĭà¼ĭà¼ĭà¼ĭà¼ĭà¼ĭà¼ĭà¼ĭà¼ĭà¼ĭà¼ĭà¼ĭà¼ĭà¼ĭà¼ĭà¼ĭà¼ĭà¼ĭà¼ĭà¼ĭà¼ĭà¼ĭà¼ĭà¼ĭà¼ĭà¼ĭà¼ĭà¼ĭà¼ĭà¼ĭà¼ĭà¼ĭà¼ĭà¼ĭà¼ĭà¼ĭà¼ĭ":7293,"à¼¦à¼§à¼¡":7294,"à½Ĺà½Ĳà½ĵà½¢":7295,"à¼¡à¼¤à¼łà¼¥":7296,"Ġà½Ķà½ĵ":7297,"à½ĳà½łà½ģ":7298,"à½ŀà½£à½¦":7299,"à¾Ĵà¾Ĵ":7300,"à½īà½¤":7301,"à½Ķà½¢à½¦à½Ħà½¦":7302,"à½Ħà½¦à½ĸà½¦":7303,"à½Ķà½¦à½ĳà½Ĥ":7304,"à½ĸà½¤à½Ĳà½ĸ":7305,"à½ıà½ĵà½¢":7306,"à½±à½²à¼ĭà½Īà½±à½²":7307,"à½ĳà½¢à½ĳ":7308,"à¼¦à¼¥à¼§":7309,"à½Ĺà½ĩ":7310,"à¼¡à¼§à¼¡à¼¤":7311,"à½įà½İ":7312,"Ġà¼¦à¼¤":7313,"à¼¡à¼¡à¼§à¼¥":7314,"Ġà¼ĭà¼ĭà¼ĭà¼ĭà¼ĭà¼ĭà¼ĭà¼ĭà¼ĭà¼ĭà¼ĭà¼ĭà¼ĭà¼ĭà¼ĭà¼ĭà¼ĭà¼ĭà¼ĭà¼ĭà¼ĭà¼ĭà¼ĭà¼ĭà¼ĭà¼ĭà¼ĭà¼ĭà¼ĭà¼ĭà¼ĭà¼ĭà¼ĭà¼ĭà¼ĭà¼ĭà¼ĭà¼ĭà¼ĭà¼ĭà¼ĭà¼ĭà¼ĭà¼ĭà¼ĭà¼ĭà¼ĭà¼ĭà¼ĭà¼ĭà¼ĭà¼ĭà¼ĭà¼ĭà¼ĭà¼ĭà¼ĭà¼ĭà¼ĭà¼ĭà¼ĭà¼ĭà¼ĭà¼ĭà¼ĭà¼ĭà¼ĭà¼ĭà¼ĭà¼ĭà¼ĭà¼ĭà¼ĭà¼ĭà¼ĭà¼ĭà¼ĭà¼ĭà¼ĭà¼ĭà¼ĭà¼ĭà¼ĭà¼ĭà¼ĭà¼ĭà¼ĭà¼ĭà¼ĭà¼ĭà¼ĭà¼ĭà¼ĭà¼ĭà¼ĭà¼ĭà¼ĭà¼ĭà¼ĭà¼ĭà¼ĭà¼ĭà¼ĭ":7315,"Ġà¼ĭà¼ĭà¼ĭà¼ĭà¼ĭà¼ĭà¼ĭà¼ĭà¼ĭà¼ĭà¼ĭà¼ĭà¼ĭà¼ĭà¼ĭà¼ĭà¼ĭà¼ĭà¼ĭà¼ĭà¼ĭà¼ĭà¼ĭà¼ĭà¼ĭà¼ĭà¼ĭà¼ĭà¼ĭà¼ĭà¼ĭà¼ĭà¼ĭà¼ĭà¼ĭà¼ĭà¼ĭà¼ĭà¼ĭà¼ĭà¼ĭà¼ĭà¼ĭà¼ĭà¼ĭà¼ĭà¼ĭà¼ĭà¼ĭà¼ĭà¼ĭà¼ĭà¼ĭà¼ĭà¼ĭà¼ĭà¼ĭà¼ĭà¼ĭà¼ĭà¼ĭà¼ĭà¼ĭà¼ĭà¼ĭà¼ĭà¼ĭà¼ĭà¼ĭà¼ĭà¼ĭà¼ĭà¼ĭà¼ĭà¼ĭà¼ĭà¼ĭà¼ĭà¼ĭà¼ĭà¼ĭà¼ĭà¼ĭà¼ĭà¼ĭà¼ĭà¼ĭà¼ĭà¼ĭà¼ĭà¼ĭà¼ĭà¼ĭà¼ĭà¼ĭà¼ĭà¼ĭà¼ĭà¼ĭà¼ĭà¼ĭà¼ĭà¼ĭà¼ĭà¼ĭà¼ĭà¼ĭà¼ĭà¼ĭà¼ĭà¼ĭà¼ĭà¼ĭà¼ĭà¼ĭà¼ĭà¼ĭà¼ĭà¼ĭà¼ĭ":7316,"à½¦à½ĵà½ĺ":7317,"à¾Łà½±à½¿à¼į":7318,"à¾Łà¾Łà½±à¼į":7319,"à½ĳà½Ħà½ĺà½ļà½ĵ":7320,"à½ĵà½¦à½ĳà½ĸ":7321,"à½¡à½Ħà½Ĳ":7322,"à½ĳà½ĸà½Ĥà½¦":7323,"à¾«à¾²à¼ĭ":7324,"à½¥à½¤":7325,"à¼§à¼¡à¼¡":7326,"à¼§à¼¢à¼©":7327,"à¼§à¼©à¼§":7328,"à¼¦à¼¢à¼¦":7329,"à¼¦à¼£à¼§":7330,"à½Įà½ı":7331,"à½¢à½Ĥà½¥":7332,"à¼§à¼§à¼¨":7333,"Ġà¼¦à¼©":7334,"à¼¡à¼¨à¼łà¼¡":7335,"Ġà½ĳà½ĸà½£":7336,"à½ĳà½łà½ĩ":7337,"à½Ķà½ĺà½ĳ":7338,"à½Ķà½ĺà½Ľà½ĳ":7339,"à¾±à¾Ĳà½¼":7340,"à½£à½łà½Ľ":7341,"à¾²à½¾à¼įà¼į":7342,"à½¼à¼ĭà¼·à¼ĭ":7343,"à¾Łà½±à½´":7344,"à¾Ĺà½ºà½º":7345,"à½¥à½Ļ":7346,"à¼¦à¼§à¼¨":7347,"à¼¨à¼¡à¼¢":7348,"à¼¨à¼łà¼łà¼ł":7349,"à¼¡à¼łà¼¡à¼¡":7350,"à¼¡à¼¨à¼¦à¼¤":7351,"à½©à½ĳ":7352,"à½ĳà½¢à½ĸ":7353,"à½ĵà½Ĥà½ĳ":7354,"à½ĸà½¦à½ķ":7355,"à½Ķà½¢à½ĳà½Ģà½ł":7356,"à½Ķà½¢à½łà½ļà½Ħ":7357,"à½Łà½ķà½Ĳ":7358,"à½²à¼įà¼Į":7359,"à½²à¼įà¼Ħà¼ħà¼įà¼į":7360,"à½Ĳà½ĸà½¦à½ĳà½Ħ":7361,"à¾Ĳà¾±à¾Ĳà¾±à½ºà¼ĭ":7362,"à½Ħà½ĵà½Ķ":7363,"à½ĵà½Ĥà½¢":7364,"à½Ŀà½Ļ":7365,"à½łà½ĩà½ĺà½ĳà½Ķà½£":7366,"à½ĸà½ĵà½ĸà½¦":7367,"à¼¡à¼¢à¼¨à¼ł":7368,"à¼¡à¼¦à¼¨à¼ł":7369,"Ġà¼łà¼łà¼łà¼ł":7370,"à¼§à¼§à¼¥":7371,"à¼¦à¼©à¼£":7372,"à¾ĳà½±à¼ĭ":7373,"à¼¡à¼¢à¼łà¼¤":7374,"à½±à½¼à¾ĥà¼Ķ":7375,"à¾ĩ":7376,"à½¦à½ĸà½ł":7377,"à½ĵà½łà½ķà½Ĥà½¦":7378,"à¾Łà¾Łà½²à½¾à¼ĭ":7379,"à½ħà½Ħà½¦":7380,"à½ĺà½¦à½Ĥ":7381,"à¼ĭà¼įà¼Ī":7382,"à¾¡à¾±à½ºà¼ĭ":7383,"à½¢à½Ħà½ĸ":7384,"à¾Ļà½½à½¾à¼ĭ":7385,"à½Ĥà½ĵà½¦à½ĵ":7386,"à¾Ļà½²à½²":7387,"à½ĳà½Ĥà½łà½¢":7388,"à¼ĭà¼ī":7389,"à¾Ĳà¾±à¾¡à½º":7390,"à½Ħà½Ĥà½ĳà½Ħ":7391,"à¼§à¼¡à¼£":7392,"à¾ľà½¾à¼į":7393,"à¼¡à¼łà¼£à¼¨":7394,"à¼¡à¼¦à¼¨à¼¡":7395,"à¾¦à¾·à½¿à¼į":7396,"à¾¶à½¿à¼į":7397,"Ġà¼¦à¼¥":7398,"à¾·à½±à½´à½¿à¼į":7399,"à½ľà½¢":7400,"Ġà½Łà½Ħà½¦":7401,"à½Ĥà½£à½ĺ":7402,"à½Ĥà½Ĳà½ĳ":7403,"à½Ĥà½Ĳà½Ĥà½¥":7404,"à½ĸà½Ĩà½¦":7405,"à½´à½¼":7406,"à½Ķà½Ĥà½Ļ":7407,"à½ĸà½¦à½Ķà½¢":7408,"à½ıà½Į":7409,"à½Łà½ĸà½Ł":7410,"à¾³à½±à½´":7411,"à½łà½Ŀ":7412,"à½ĺà½Ľà½¦":7413,"à¼ĭà¼ĭà¼ĭà¼įà¼į":7414,"à¼ĭà¼ĭà¼¼":7415,"à¾²à½²à¼ĭà¼¼":7416,"à¾«à½¼à¼į":7417,"à¾³à½¼à¼ĭà¼Ħà¼ħà¼įà¼į":7418,"à¾Ĳà¾±à¾¦à¾·à½ºà¼ĭ":7419,"à½ĺà½Ĳà½¢à½ĳ":7420,"à½¦à½¢à½¦":7421,"à¼§à¼¡à¼¤":7422,"à¼§à¼¢à¼§":7423,"à¼§à¼¤à¼§":7424,"à¼¡à¼§à¼§à¼¤":7425,"à¼¡à¼§à¼¨à¼¦":7426,"à¾·à¾²à¾Ģà¼į":7427,"à¼ĭà½¼à¼ĭà½ºà¼ĭà½ºà¼ĭ":7428,"à¼įà¼ĭà¼ĭà¼ĭà¼ĭà¼ĭà¼ĭà¼ĭà¼ĭà¼ĭà¼ĭà¼ĭà¼ĭà¼ĭà¼ĭà¼ĭà¼ĭà¼ĭà¼ĭà¼ĭà¼ĭà¼ĭà¼ĭà¼ĭà¼ĭà¼ĭà¼ĭà¼ĭà¼ĭà¼ĭà¼ĭà¼ĭà¼ĭà¼ĭà¼ĭà¼ĭà¼ĭà¼ĭà¼ĭà¼ĭà¼ĭà¼ĭà¼ĭà¼ĭà¼ĭà¼ĭà¼ĭà¼ĭà¼ĭà¼ĭà¼ĭà¼ĭà¼ĭà¼ĭà¼ĭà¼ĭà¼ĭà¼ĭà¼ĭà¼ĭà¼ĭà¼ĭà¼ĭà¼ĭà¼ĭà¼ĭà¼ĭà¼ĭà¼ĭà¼ĭà¼ĭà¼ĭà¼ĭà¼ĭà¼ĭà¼ĭà¼ĭà¼ĭà¼ĭà¼ĭà¼ĭà¼ĭà¼ĭà¼ĭà¼ĭà¼ĭà¼ĭà¼ĭà¼ĭà¼ĭà¼ĭ":7429,"à½ĸà½ĸà½ĸà½ĸà½ĸà½ĸà½ĸà½ĸà½ĸà½ĸà½ĸà½ĸà½ĸà½ĸà½ĸà½ĸ":7430,"à½¦à½ĵà½Ħ":7431,"à½¼à¼ĭà¾ħ":7432,"à¾Łà½»à¼į":7433,"à¾£à½²à½¿à¼ĭ":7434,"à½Ħà½¦à½¡":7435,"à½łà½Ĥà½ĵà½¦":7436,"à¾¦à¾²à½²à¼ĭ":7437,"à½ĺà½¢à½¡":7438,"à½ĺà½īà½ĺà½Ķà½ł":7439,"à¾Ĵà¾²à¾Ĺà½º":7440,"à½Ĥà½ŀà½Ĥà½Ĥ":7441,"à½ĳà½Ĥà½Ĥà½Ķà½ł":7442,"à¼¨à¼¡à¼£":7443,"à¼¡à¼§à¼£à¼ł":7444,"à¼¡à¼¦à¼¤à¼¨":7445,"à¼¡à¼¦à¼¥à¼¢":7446,"à½ķà½¦à½Ĥà½¥":7447,"à¼¨à¼łà¼©":7448,"Ġà¼©à¼£":7449,"Ġà¼¨à¼¤":7450,"Ġà¼¨à¼¦":7451,"Ġà¼Įà¼Įà¼Į":7452,"à½Ķà½ĩà½ĳ":7453,"Ġà½¥":7454,"Ġà½ĸà½Ħ":7455,"à¼ĭà¾¨à½¼à¼ĭ":7456,"à½ĺà½łà½ģ":7457,"à½ĺà½Łà½ĳ":7458,"à½£à½ĸà½Ĥ":7459,"à½ĳà½Ħà½ĺà½īà½ĺ":7460,"à½ĺà½¦à½Ĥà½Ħ":7461,"à½Ķà½¢à½Ķ":7462,"à½ºà¼įà¼¼":7463,"à¾¨à¾¨à½±":7464,"à½¨à½ĳà½Ħ":7465,"à½´à¼įà¼Ħà¼ħà¼įà¼į":7466,"à¼¦à¼¥à¼¨":7467,"à¼łà¼łà¼¢":7468,"à¼¡à¼łà¼¡à¼ł":7469,"à¾¦à¾·à½¿à¼ĭ":7470,"à¾ĭà½ĸ":7471,"à¼Ģà½ķ":7472,"à¾łà½±à½¿à¼ĭ":7473,"à¼ĭà½¼à¼ĭà½¼":7474,"à¼įà¼ĭà¼ĭà¼ĭà¼ĭà¼ĭà¼ĭà¼ĭà¼ĭà¼ĭà¼ĭà¼ĭà¼ĭà¼ĭà¼ĭà¼ĭà¼ĭà¼ĭà¼ĭà¼ĭà¼ĭà¼ĭà¼ĭà¼ĭà¼ĭà¼ĭà¼ĭà¼ĭà¼ĭà¼ĭà¼ĭà¼ĭà¼ĭà¼ĭà¼ĭà¼ĭà¼ĭà¼ĭà¼ĭà¼ĭà¼ĭà¼ĭà¼ĭà¼ĭà¼ĭà¼ĭà¼ĭà¼ĭà¼ĭà¼ĭà¼ĭà¼ĭà¼ĭà¼ĭà¼ĭà¼ĭà¼ĭà¼ĭà¼ĭà¼ĭà¼ĭà¼ĭà¼ĭà¼ĭà¼ĭà¼ĭà¼ĭà¼ĭà¼ĭ":7475,"à¼¦à¼¨à¼§":7476,"à¾°à½¾à¼ĭ":7477,"à½¦à½ĺà½ļà½ĵ":7478,"à½£à½Ĥà½¦à½£":7479,"à½Ĥà½¦à½Ĥà½ī":7480,"à½Ĩà½ĳà½ĺ":7481,"à½Ĩà½Ĥà½¦à½£":7482,"à½Ĳà½Ĩ":7483,"à½ĺà½¦à½ĺà½Ħ":7484,"à½ļà½¡":7485,"à½Ķà½¢à½ĳà½ĸ":7486,"à¾£à½ºà¼įà¼į":7487,"à½£à½¦à½Ĩ":7488,"à½ĺà½ļà½ĵà½¦":7489,"à½Ľà½łà½ĺ":7490,"à½§à½ī":7491,"à½¼à½¾à¼ĭà¼´":7492,"à¼§à¼£à¼£":7493,"à¼¨à¼¤à¼©":7494,"à½ķà½Ĭà½Ģ":7495,"à¼łà¼łà¼£":7496,"à¾²à½±à½²à½¿à¼įà¼į":7497,"à¾ŀà½½à½¾à¼ĭ":7498,"à¼¡à¼¨à¼¦à¼§":7499,"à½©à½¤":7500,"à¼įà¼ĭà¼ĭà¼ĭà¼ĭà¼ĭà¼ĭà¼ĭà¼ĭà¼ĭà¼ĭà¼ĭà¼ĭà¼ĭà¼ĭà¼ĭà¼ĭà¼ĭà¼ĭà¼ĭà¼ĭà¼ĭà¼ĭà¼ĭà¼ĭà¼ĭà¼ĭà¼ĭà¼ĭà¼ĭà¼ĭà¼ĭà¼ĭà¼ĭà¼ĭà¼ĭà¼ĭà¼ĭà¼ĭà¼ĭà¼ĭà¼ĭà¼ĭà¼ĭà¼ĭà¼ĭà¼ĭà¼ĭà¼ĭà¼ĭà¼ĭà¼ĭà¼ĭà¼ĭà¼ĭà¼ĭà¼ĭà¼ĭà¼ĭà¼ĭà¼ĭà¼ĭà¼ĭà¼ĭà¼ĭà¼ĭà¼ĭà¼ĭà¼ĭà¼ĭà¼ĭà¼ĭà¼ĭà¼ĭà¼ĭà¼ĭ":7501,"à¼Ŀà¼Ŀà¼į":7502,"Ġà¼ĭà¼ĭà¼ĭà¼ĭà¼ĭà¼ĭà¼ĭà¼ĭà¼ĭà¼ĭà¼ĭà¼ĭà¼ĭà¼ĭà¼ĭà¼ĭà¼ĭà¼ĭà¼ĭà¼ĭà¼ĭà¼ĭà¼ĭà¼ĭà¼ĭà¼ĭà¼ĭà¼ĭà¼ĭà¼ĭà¼ĭà¼ĭà¼ĭà¼ĭà¼ĭà¼ĭà¼ĭà¼ĭà¼ĭà¼ĭà¼ĭà¼ĭà¼ĭà¼ĭà¼ĭà¼ĭà¼ĭà¼ĭà¼ĭà¼ĭà¼ĭà¼ĭà¼ĭà¼ĭà¼ĭà¼ĭà¼ĭà¼ĭà¼ĭà¼ĭà¼ĭà¼ĭà¼ĭà¼ĭà¼ĭà¼ĭà¼ĭà¼ĭà¼ĭà¼ĭà¼ĭà¼ĭà¼ĭà¼ĭà¼ĭà¼ĭà¼ĭà¼ĭà¼ĭà¼ĭà¼ĭà¼ĭà¼ĭà¼ĭà¼ĭà¼ĭà¼ĭà¼ĭ":7503,"à½łà½Ļà½£à½ĳ":7504,"Ġà½ĺà½ģà½¢":7505,"à½ĸà½ĺà½Ľà½ĳ":7506,"à½Ħà½Ĥà½¡":7507,"à½²à¼ĭà¾¾à¼į":7508,"à½ĸà½¦à½Ĳ":7509,"à¾±à½²à¼ĭà¼ŀà¼į":7510,"à½Ĳà½ĺà½Ĳ":7511,"à½ĸà½¢à½Ħà½¦":7512,"à¾£à¾£à¼ĭ":7513,"à¼ĭà¼įà¼ĭà¼į":7514,"à¾¡à¾±à½º":7515,"à¾·à½±à¼Ķ":7516,"à½Ļà½¢à½ł":7517,"à½ĺà½ļà½¦":7518,"à¾«à½¼à½¼":7519,"à½İà½¡":7520,"à¼§à¼¨à¼ł":7521,"à¼¦à¼¥à¼©":7522,"à¼ĭà½Īà¾¡à½¼":7523,"à¾¤à¾²à½ºà¼į":7524,"à¼¡à¼¢à¼¨à¼¨":7525,"à¼¡à¼¦à¼£à¼¨":7526,"à¼¡à¼¨à¼¤à¼¦":7527,"à¼Ģà½Ĥà½¦":7528,"à¼ĭà¾¢à½¼":7529,"Ġà¼łà¼¤":7530,"à½įà½¦":7531,"à¼įà¼ĭà¼ĭà¼ĭà¼ĭà¼ĭà¼ĭà¼ĭà¼ĭà¼ĭà¼ĭà¼ĭà¼ĭà¼ĭà¼ĭà¼ĭà¼ĭà¼ĭà¼ĭà¼ĭà¼ĭà¼ĭà¼ĭà¼ĭà¼ĭà¼ĭà¼ĭà¼ĭà¼ĭà¼ĭà¼ĭà¼ĭà¼ĭà¼ĭà¼ĭà¼ĭà¼ĭà¼ĭà¼ĭà¼ĭà¼ĭà¼ĭà¼ĭà¼ĭà¼ĭà¼ĭà¼ĭà¼ĭà¼ĭà¼ĭà¼ĭà¼ĭà¼ĭà¼ĭà¼ĭà¼ĭà¼ĭà¼ĭà¼ĭà¼ĭà¼ĭà¼ĭà¼ĭà¼ĭà¼ĭà¼ĭà¼ĭà¼ĭà¼ĭà¼ĭà¼ĭà¼ĭà¼ĭà¼ĭà¼ĭà¼ĭà¼ĭà¼ĭà¼ĭà¼ĭà¼ĭà¼ĭà¼ĭà¼ĭà¼ĭà¼ĭà¼ĭà¼ĭà¼ĭà¼ĭà¼ĭà¼ĭà¼ĭà¼ĭà¼ĭ":7532,"à¼ĭà¾Ļ":7533,"à¼ĭà½¾":7534,"à½Ĥà½Ĩà½ĳ":7535,"à¾±à¼µà½º":7536,"à¾²à¾²à½²":7537,"à½¡à½Ł":7538,"à½ĵà½¦à½łà½Ĥ":7539,"à¾¡à¾¡à¾·à¼ĭ":7540,"à¾©à¾±à½º":7541,"à½Ĥà½ıà½ĵà½Ĥ":7542,"à½łà½ļà½£à½£":7543,"à¾¡à½ºà¼·à¼ĭ":7544,"à¼§à¼¢à¼ł":7545,"à½Łà½¦à½¦":7546,"à½Ĵà½ĳà½Ĥ":7547,"à¼¦à¼¢à¼¡":7548,"à¼ĭà½Īà¾Ĳà¾±à½ºà¼ĭ":7549,"à¼Įà¼įà¼į":7550,"à¼¡à¼¢à¼¤à¼ł":7551,"à¾ļà¾²à½±à¾Ģà½¿à¼ĭ":7552,"à¼ĭà¾¥":7553,"à¼ĭà½µà¾ĥà½¿à¼ĭ":7554,"à¾¶à½ºà¼į":7555,"à¾¶à½±à¼į":7556,"à¼§à¼łà¼¨":7557,"à¼¦à¼¦à¼¨":7558,"à¼¦à¼¨à¼¨":7559,"à¼įà¼ĭà¼ĭà¼ĭà¼ĭà¼ĭà¼ĭà¼ĭà¼ĭà¼ĭà¼ĭà¼ĭà¼ĭà¼ĭà¼ĭà¼ĭà¼ĭà¼ĭà¼ĭà¼ĭà¼ĭà¼ĭà¼ĭà¼ĭà¼ĭ":7560,"à¾Īà¾Īà¾Īà¾Īà¾Īà¾Īà¾Īà¾Īà¾Ī":7561,"à½ĸà½¤à½Ĳà½ĸà½ĸ":7562,"Ġà½Ħà½Ħ":7563,"à½ĺà½ĸà½Ł":7564,"à¾²à¾£à¼ĭ":7565,"à¾Łà¾²à½±à½´":7566,"à½ħà½ĳà½Ħ":7567,"à½ĸà½ĳà½Ĥà½¢":7568,"à½ĸà½ĳà½Ĥà½Ģ":7569,"à½İà½¤":7570,"à½ıà½ĵà½ĳà½Ħ":7571,"à½ĳà½Ķà½Ĥà½ļà½ĳ":7572,"à½Ĥà½ŀà½Ĥà½Ĥà½¡":7573,"à¼§à¼¢à¼¨":7574,"à½Ĵà½Ĥà½¥":7575,"à¼¦à¼¡à¼¢":7576,"à¼¡à¼¤à¼§à¼¤":7577,"à¾Ľà¼įà¼į":7578,"à¼ĭà½²à¼ĭà½¼à¼ĭ":7579,"à¼ĭà¾¢à½±à½²à¼ĭ":7580,"à½ĥà½ŀ":7581,"à¼ĭà¼Ŀà¼Ŀà¼į":7582,"à¼§à¼łà¼£":7583,"Ġà¼¨à¼¥":7584,"à¼¦à¼¦à¼¤":7585,"à¼¡à¼§à¼łà¼¦":7586,"Ġà½²à¼ĭ":7587,"Ġà½łà½Ĩà½¢":7588,"à¼ľ":7589,"à½¢à½Ĥà½ı":7590,"à½ĵà½Ĩà½Ĥà½¦":7591,"à½Ħà½ĵà½Ħ":7592,"à½Ħà½Ķà½ĺ":7593,"à½Ķà½Ĥà½ĳ":7594,"à¾±à½±à¼įà¼į":7595,"à½£à½łà½ķ":7596,"à½ºà¼ĭà½²à¼ĭ":7597,"à½ĺà½¦à½ķ":7598,"à½Ķà½¢à½ĺà½Ħ":7599,"à½Łà½łà½Ħ":7600,"à½£à½¦à½Ħà½¦":7601,"à½¡à½Ħà½Ĥà½¦":7602,"à¾Ķà¾·à½±à¼ĭ":7603,"à½Ĥà½ıà½£":7604,"à¾¦à¾±à¾Ĳà½¼":7605,"à½Ĭà½łà½Ħ":7606,"à½Ŀà½Ħà½¦":7607,"à½Ĵà½ĵà½ĳ":7608,"à¼¨à¼£à¼¦":7609,"à¼¡à¼§à¼©à¼ł":7610,"à¾´à¾Ńà¼ĭ":7611,"à½ķà½Ŀà½Ĳ":7612,"à¼¦à¼¨à¼¢":7613,"à¼¦à¼©à¼¢":7614,"à½´à¼ĭà½Īà½º":7615,"à¼įà¼ĭà¼ĭà¼ĭà¼ĭà¼ĭà¼ĭà¼ĭà¼ĭà¼ĭà¼ĭà¼ĭà¼ĭà¼ĭà¼ĭà¼ĭà¼ĭà¼ĭà¼ĭà¼ĭà¼ĭà¼ĭà¼ĭà¼ĭà¼ĭà¼ĭà¼ĭà¼ĭà¼ĭà¼ĭà¼ĭà¼ĭà¼ĭà¼ĭà¼ĭà¼ĭà¼ĭà¼ĭà¼ĭ":7616,"à½¦à½łà½ķà½Ĥà½¦":7617,"à½¢à½Ĥà½¤":7618,"à¾²à¾³à½¼à¼ĭ":7619,"à½ıà½«à½Ĥ":7620,"à½¤à½ª":7621,"à¾¡à¾²à½º":7622,"à½ĸà½ŀà½ĺ":7623,"à½£à½¦à½Ħ":7624,"à½Ĥà½ŀà½¡":7625,"à¾·à¼µà¼ĭ":7626,"à½Ĥà½Ħà½¥":7627,"à½Ĥà½ĵà½¦à½ĵà½¦":7628,"à½ĸà½ĳà½Ĥà½ĳ":7629,"à½ĸà½ĳà½Ĥà½¡":7630,"à¼¨à¼¡à¼¡":7631,"à¼¡à¼§à¼§à¼§":7632,"à¼¡à¼¨à¼¦à¼£":7633,"à¾¦à¾·à½´à¼į":7634,"à¾Łà¾Ńà½ºà¼ĭ":7635,"à¼©à¼©à¼©à¼©":7636,"à¾ºà½±":7637,"à¼¡à¼¢à¼¨à¼¦":7638,"Ġà¼ĭà¼ĭà¼ĭà¼ĭà¼ĭà¼ĭà¼ĭà¼ĭà¼ĭà¼ĭà¼ĭà¼ĭà¼ĭà¼ĭà¼ĭà¼ĭà¼ĭà¼ĭà¼ĭà¼ĭà¼ĭà¼ĭà¼ĭà¼ĭà¼ĭà¼ĭà¼ĭà¼ĭà¼ĭà¼ĭà¼ĭà¼ĭà¼ĭà¼ĭà¼ĭà¼ĭà¼ĭà¼ĭà¼ĭà¼ĭà¼ĭà¼ĭà¼ĭà¼ĭà¼ĭà¼ĭà¼ĭà¼ĭà¼ĭà¼ĭà¼ĭà¼ĭà¼ĭà¼ĭà¼ĭà¼ĭà¼ĭà¼ĭà¼ĭà¼ĭà¼ĭà¼ĭà¼ĭà¼ĭà¼ĭà¼ĭà¼ĭà¼ĭà¼ĭà¼ĭà¼ĭà¼ĭà¼ĭà¼ĭà¼ĭà¼ĭà¼ĭà¼ĭà¼ĭà¼ĭà¼ĭà¼ĭà¼ĭà¼ĭà¼ĭà¼ĭà¼ĭà¼ĭà¼ĭà¼ĭà¼ĭà¼ĭà¼ĭà¼ĭà¼ĭà¼ĭà¼ĭ":7639,"Ġà½łà½ĺ":7640,"à½¢à½ĸà½¦à½ĺ":7641,"à½Ĥà½¦à½Ĥà½Ħ":7642,"à¾Łà¾Łà¼į":7643,"à½Ķà½¢à½łà½ķ":7644,"à½ĳà½Ĥà½Ĩ":7645,"à½²à¼įà¼ĭà¼į":7646,"à½¨à½ĵà½¦":7647,"à½Ĥà½ŀà½ĵà½¡":7648,"à¾Ĺà½ºà¼ĭà¼º":7649,"à½ĺà½Ĥà½ł":7650,"à½İà½Ļ":7651,"à½ĺà½ģà½¦à½Ķà½ł":7652,"à¼łà¼£à¼ł":7653,"à¼¨à¼¤à¼¥":7654,"à¾«à½´à¼Ķ":7655,"à¼¡à¼¢à¼¦à¼ł":7656,"à¼¡à¼§à¼¢à¼¤":7657,"à¼¡à¼¦à¼£à¼©":7658,"à¼ĭà¼¹à½´":7659,"à¼ĭà¾¢à½´":7660,"à½ĥà½ĺ":7661,"à¼Įà¼Įà¼Įà¼į":7662,"à½ĵà½ħà½Ķ":7663,"Ġà¼ĭà¼ĭà¼ĭà¼ĭà¼ĭà¼ĭà¼ĭà¼ĭà¼ĭà¼ĭà¼ĭà¼ĭà¼ĭà¼ĭà¼ĭà¼ĭà¼ĭà¼ĭà¼ĭà¼ĭà¼ĭà¼ĭà¼ĭà¼ĭà¼ĭà¼ĭà¼ĭà¼ĭà¼ĭà¼ĭà¼ĭà¼ĭà¼ĭà¼ĭà¼ĭà¼ĭà¼ĭà¼ĭà¼ĭà¼ĭà¼ĭà¼ĭà¼ĭà¼ĭà¼ĭà¼ĭà¼ĭà¼ĭà¼ĭà¼ĭà¼ĭà¼ĭà¼ĭà¼ĭà¼ĭà¼ĭà¼ĭà¼ĭà¼ĭà¼ĭà¼ĭà¼ĭà¼ĭà¼ĭà¼ĭà¼ĭà¼ĭà¼ĭà¼ĭà¼ĭà¼ĭà¼ĭà¼ĭà¼ĭà¼ĭà¼ĭà¼ĭà¼ĭà¼ĭà¼ĭà¼ĭà¼ĭà¼ĭà¼ĭà¼ĭà¼ĭ":7664,"à¼įà¼ĭà¼ĭà¼ĭà¼ĭà¼ĭà¼ĭà¼ĭà¼ĭà¼ĭà¼ĭà¼ĭà¼ĭà¼ĭà¼ĭà¼ĭà¼ĭà¼ĭà¼ĭà¼ĭà¼ĭà¼ĭà¼ĭà¼ĭà¼ĭà¼ĭà¼ĭà¼ĭà¼ĭà¼ĭà¼ĭà¼ĭà¼ĭà¼ĭà¼ĭà¼ĭà¼ĭà¼ĭà¼ĭà¼ĭà¼ĭà¼ĭà¼ĭà¼ĭà¼ĭà¼ĭà¼ĭà¼ĭà¼ĭà¼ĭà¼ĭà¼ĭà¼ĭà¼ĭà¼ĭà¼ĭà¼ĭà¼ĭà¼ĭà¼ĭà¼ĭà¼ĭà¼ĭà¼ĭà¼ĭà¼ĭà¼ĭà¼ĭà¼ĭà¼ĭà¼ĭà¼ĭà¼ĭà¼ĭà¼ĭà¼ĭà¼ĭà¼ĭà¼ĭà¼ĭà¼ĭà¼ĭà¼ĭà¼ĭà¼ĭà¼ĭà¼ĭà¼ĭà¼ĭà¼ĭà¼ĭà¼ĭà¼ĭà¼ĭà¼ĭà¼ĭà¼ĭà¼ĭà¼ĭà¼ĭ":7665,"Ġà½łà½ĸà½¢":7666,"Ġà½Ĥà½ĵà½ł":7667,"à¼ĭà¾Ķ":7668,"à½Ķà½Ĥà½¦à½£":7669,"à½Ģà½ĳà½Ħ":7670,"à¾Łà¾Łà½¼":7671,"à¾Łà¾Łà½¿à¼ĭ":7672,"à½ıà½§":7673,"à½¤à½Ĭ":7674,"à¾Ĳà¾µà¼ĭ":7675,"à¾©à½½à¼ĭ":7676,"à½¨à½łà½ĺ":7677,"à½łà½Ľà½£":7678,"à½ĺà½Ľà½ĺ":7679,"à¼Ķà¼ĭà¼ĭ":7680,"à½ĳà½ĳà½ĳà½ĳ":7681,"à½£à½ĵà½Ĥ":7682,"à½»à½¾à¼Ķ":7683,"à¼¡à¼§à¼§à¼¢":7684,"à¼§à¼¨à¼¨":7685,"à¾±à¾Ģà¼įà¼į":7686,"à¼įà¼ĭà¼ĭà¼ĭà¼ĭà¼ĭà¼ĭà¼ĭà¼ĭà¼ĭà¼ĭà¼ĭà¼ĭà¼ĭà¼ĭà¼ĭà¼ĭà¼ĭà¼ĭà¼ĭà¼ĭà¼ĭà¼ĭà¼ĭà¼ĭà¼ĭà¼ĭ":7687,"à¼ĭà¾¦":7688,"à½¦à½Łà½¦":7689,"à½łà½ĺà½¢":7690,"à½£à½Ĳà½ĺà½¦":7691,"à½´à¼ĭà½±à¼ĭ":7692,"à½¡à½ĺà½ł":7693,"à¾Łà¾²à¾Ģà½¿à¼ĭ":7694,"à½Ĩà½ĳà½Ģ":7695,"à½ıà½Ĩ":7696,"à½Łà½ĳà½ĳ":7697,"à¾¡à¾²à¼įà¼į":7698,"à¾©à¼ĭà¼¼":7699,"à½£à½Ĥà½ĸà½¢":7700,"à½ĺà½¢à½Ĥ":7701,"à½İà½ĵà½ħà½Ķ":7702,"à½¥à½Ĥ":7703,"à½¦à½ĺà½ĸ":7704,"à½¦à½Ħà½¢":7705,"à¾ļà½¼à½¾à¼ĭ":7706,"à¾łà¾±à¼ĭ":7707,"Ġà¼¡à¼¡à¼£":7708,"à½Ĵà½Ĥà½Ŀ":7709,"Ġà¼¨à¼§":7710,"Ġà¼¦à¼¨":7711,"à¼¦à¼¨à¼¤":7712,"à¼ĭà¾¾à¾¾à¾¾":7713,"à½Ķà½Ķà½Ķà½Ķà½ķà½ķ":7714,"à½¦à½łà½ķ":7715,"à½¦à½Ĥà½¡":7716,"à½ĵà½ĺà½ļ":7717,"à½Ĳà½Ķà½¦":7718,"à¾¤à¼·":7719,"à¾·à¾ľ":7720,"à½Ļà½Ĥà½¦":7721,"à½ĸà½ıà½Ķ":7722,"à¾¤à¾±à¼į":7723,"à½Ŀà½Ľ":7724,"à½ģà½¦à½£":7725,"à½ļà½Ħà½¦à½Ķà½¢":7726,"à¾±à¼įà¼ĭà¼ĭà¼ĭà¼ĭà¼ĭ":7727,"à¼¦à¼£à¼¡":7728,"à¼¡à¼łà¼¢à¼§":7729,"à¼¡à¼£à¼¨à¼¥":7730,"à¾¡à¾·à¾±à½±à¼ĭ":7731,"à¼¡à¼§à¼§à¼©":7732,"à¼¡à¼¦à¼łà¼ł":7733,"à¼¡à¼¨à¼§à¼©":7734,"Ġà¼ĭà¼ĭà¼ĭà¼ĭà¼ĭà¼ĭà¼į":7735,"à¼§à¼łà¼¥":7736,"Ġà¼©à¼¨":7737,"à½ľà½ī":7738,"Ġà¼ĭà¼ĭà¼ĭà¼ĭà¼ĭà¼ĭà¼ĭà¼ĭà¼ĭà¼ĭà¼ĭà¼ĭà¼ĭà¼ĭà¼ĭà¼ĭà¼ĭà¼ĭà¼ĭà¼ĭà¼ĭà¼ĭà¼ĭà¼ĭà¼ĭà¼ĭà¼ĭà¼ĭà¼ĭà¼ĭà¼ĭà¼ĭà¼ĭà¼ĭà¼ĭà¼ĭà¼ĭà¼ĭà¼ĭà¼ĭà¼ĭà¼ĭà¼ĭà¼ĭà¼ĭà¼ĭà¼ĭà¼ĭà¼ĭà¼ĭà¼ĭà¼ĭà¼ĭà¼ĭà¼ĭà¼ĭà¼ĭà¼ĭà¼ĭà¼ĭà¼ĭà¼ĭà¼ĭà¼ĭà¼ĭà¼ĭà¼ĭà¼ĭà¼ĭà¼ĭà¼ĭà¼ĭà¼ĭà¼ĭà¼ĭà¼ĭà¼ĭà¼ĭà¼ĭà¼ĭà¼ĭà¼ĭà¼ĭà¼ĭà¼ĭ":7739,"Ġà½ĸà½ıà½ĸ":7740,"à½¢à½ıà½ĵ":7741,"à½ĵà½łà½Ľ":7742,"à½Ķà½ĺà½Ĳà½ł":7743,"à½£à½Ķà½Ĥ":7744,"à½ĸà½¦à½ģ":7745,"à¾Ĳà½²à¼į":7746,"à½ĸà½¢à½Ķà½¢":7747,"à½ĸà½¢à½ĺà½Ľà½ĳ":7748,"à¾²à½¼à¾ħ":7749,"à¾¨à¾¨à½ºà¼ĭ":7750,"à¾³à½¼à¼µà¼ĭ":7751,"à½Ĥà½ŀà½ĵà½£à½¦":7752,"à¾Ńà¾ĥà¼į":7753,"à½łà½Ĩà½łà½ĺ":7754,"à¾¡à½¼à½¾":7755,"à½Ĥà½ĵà½£":7756,"à½Ĥà½Ļà½ĸà½¦":7757,"à½ĸà½Ļà½ĸ":7758,"à¼§à¼¤à¼¤":7759,"à½Ĵà½ī":7760,"à¼¦à¼¢à¼¨":7761,"à½ķà½Ĭà½¦à½¢":7762,"à¾µà½»à¼ĭ":7763,"à¾Ńà½±à½¾":7764,"à¾ļà½²à½¾à¼į":7765,"à¼¡à¼§à¼£à¼¨":7766,"à½Ĥà½¥à½Ĳ":7767,"à½ķà½¥à½Ĥà½¥":7768,"à½½à¼įà¼Įà¼Įà¼Į":7769,"à¼©à¼§à¼©":7770,"à½²à¼ĭà¼½à¼¼":7771,"à½ºà¼ĭà½Īà½ºà¼ĭ":7772,"à¼įà¼ĭà¼ĭà¼ĭà¼ĭà¼ĭà¼ĭà¼ĭà¼ĭà¼ĭà¼ĭà¼ĭà¼ĭà¼ĭà¼ĭà¼ĭà¼ĭà¼ĭà¼ĭà¼ĭà¼ĭà¼ĭà¼ĭà¼ĭà¼ĭà¼ĭà¼ĭà¼ĭà¼ĭà¼ĭà¼ĭà¼ĭà¼ĭà¼ĭà¼ĭà¼ĭà¼ĭà¼ĭà¼ĭà¼ĭà¼ĭà¼ĭà¼ĭà¼ĭà¼ĭà¼ĭà¼ĭà¼ĭà¼ĭà¼ĭà¼ĭà¼ĭà¼ĭà¼ĭà¼ĭà¼ĭà¼ĭà¼ĭà¼ĭà¼ĭà¼ĭà¼ĭà¼ĭà¼ĭà¼ĭà¼ĭà¼ĭà¼ĭà¼ĭà¼ĭà¼ĭà¼ĭà¼ĭà¼ĭà¼ĭà¼ĭà¼ĭà¼ĭà¼ĭà¼ĭà¼ĭà¼ĭà¼ĭà¼ĭà¼ĭà¼ĭà¼ĭà¼ĭà¼ĭà¼ĭà¼ĭà¼ĭà¼ĭà¼ĭà¼ĭà¼ĭ":7773,"à¼įà¼ĭà¼ĭà¼ĭà¼ĭà¼ĭà¼ĭà¼ĭà¼ĭà¼ĭà¼ĭà¼ĭà¼ĭà¼ĭà¼ĭà¼ĭà¼ĭà¼ĭà¼ĭà¼ĭà¼ĭà¼ĭà¼ĭà¼ĭà¼ĭà¼ĭà¼ĭà¼ĭà¼ĭà¼ĭà¼ĭà¼ĭà¼ĭà¼ĭà¼ĭà¼ĭà¼ĭà¼ĭà¼ĭà¼ĭà¼ĭà¼ĭà¼ĭà¼ĭà¼ĭà¼ĭà¼ĭà¼ĭà¼ĭà¼ĭà¼ĭà¼ĭà¼ĭà¼ĭà¼ĭà¼ĭà¼ĭà¼ĭà¼ĭà¼ĭà¼ĭà¼ĭà¼ĭà¼ĭ":7774,"Ġà½ıà½ĵ":7775,"à½¢à½ĵà½ĺ":7776,"à½ºà½²à¼ĭ":7777,"à¾²à¾·à½²à¼ĭ":7778,"à½ıà½¨":7779,"à¾¡à¾²à½¾à¼ĭ":7780,"à¾¡à¼·à½¼à¼ĭ":7781,"à¾¦à¾·à½´":7782,"à½ĳà½Ķà½¡":7783,"à½¨à½¨à½¢":7784,"à½ĸà½¤à½¤":7785,"Ġà¼Īà¼ĭ":7786,"à¾µà¾¨à½ºà¼ĭ":7787,"à¾·à½¼à½¿à¼ĭ":7788,"Ġà½¦à½ĵ":7789,"à½¢à½ıà½£":7790,"à¼¡à¼¨à¼¤à¼¡":7791,"à¼Ģà½ĺà½§":7792,"à½¦à½Ķà½ĺ":7793,"à¼§à¼¦à¼§":7794,"à¼§à¼¦à¼¦":7795,"à¼§à¼¨à¼£":7796,"Ġà¼ĭà¼ĭà¼ĭà¼ĭà¼ĭà¼ĭà¼ĭà¼ĭà¼ĭà¼ĭà¼ĭà¼ĭà¼ĭà¼ĭà¼ĭà¼ĭà¼ĭà¼ĭà¼ĭà¼ĭà¼ĭà¼ĭà¼ĭà¼ĭà¼ĭà¼ĭà¼ĭà¼ĭà¼ĭà¼ĭà¼ĭà¼ĭà¼ĭà¼ĭà¼ĭà¼ĭà¼ĭà¼ĭà¼ĭà¼ĭà¼ĭà¼ĭà¼ĭà¼ĭà¼ĭà¼ĭà¼ĭà¼ĭà¼ĭà¼ĭà¼ĭà¼ĭà¼ĭà¼ĭà¼ĭà¼ĭà¼ĭà¼ĭà¼ĭà¼ĭà¼ĭà¼ĭà¼ĭà¼ĭà¼ĭà¼ĭà¼ĭà¼ĭà¼ĭà¼ĭà¼ĭà¼ĭà¼ĭà¼ĭà¼ĭà¼ĭà¼ĭà¼ĭà¼ĭà¼ĭà¼ĭà¼ĭà¼ĭà¼ĭà¼ĭà¼ĭà¼ĭ":7797,"à¼įà¼ĭà¼ĭà¼ĭà¼ĭà¼ĭà¼ĭà¼ĭà¼ĭà¼ĭà¼ĭà¼ĭà¼ĭà¼ĭà¼ĭà¼ĭà¼ĭà¼ĭà¼ĭà¼ĭà¼ĭà¼ĭà¼ĭà¼ĭà¼ĭà¼ĭà¼ĭà¼ĭà¼ĭà¼ĭà¼ĭà¼ĭà¼ĭà¼ĭà¼ĭà¼ĭà¼ĭà¼ĭà¼ĭà¼ĭà¼ĭà¼ĭà¼ĭà¼ĭà¼ĭà¼ĭà¼ĭà¼ĭà¼ĭà¼ĭà¼ĭà¼ĭà¼ĭà¼ĭ":7798,"à½ĸà½ĸà½ĸà½ĸà½ĸà½ĸà½ĸà½ĸà½ĸ":7799,"à¾·à¾²à½´à½¾à¼į":7800,"Ġà½ĺà½£":7801,"Ġà¼¡à¼¢à¼ł":7802,"à½¦à½ĳà½Ģ":7803,"à½¦à½Ģà½¢":7804,"à½Ĥà½ĳà½ĸà½Ħ":7805,"à½Ħà½ĸà½ħ":7806,"à½Ħà½ĳà½ĺ":7807,"à½£à½ĳà½Ķ":7808,"à¾²à¾¦à¾·à½º":7809,"à½ĳà½Ħà½ĸà½ŀ":7810,"à¾±à½²à½¾":7811,"à½ļà½ĵà½¦":7812,"à½Ķà½¢à½ł":7813,"à¾£à½½à¼ĭ":7814,"à½¼à¼įà¼įà¼ĭà¼ĭ":7815,"à½ĵà½¦à½¨":7816,"à½Ĥà½ŀà½ĸà½¦":7817,"à½Ļà½¤":7818,"à¾Ĵà¾±à¼ĭà¼ĳ":7819,"à½Łà½ĸà½ĸ":7820,"à¼·à½²à¼į":7821,"à¼¦à¼¥à¼¡":7822,"à¼¨à¼¢à¼£":7823,"à¾²à¼įà¼ĭà¼ĭà¼ĭà¼ĭà¼ĭ":7824,"à¼¡à¼¨à¼¥à¼¤":7825,"à¼¡à¼¨à¼©à¼¤":7826,"à¾¦à¾·à½±":7827,"à½Ľà½ĺà½ĸ":7828,"à¼ĭà¾§à½±à½²à¼ĭ":7829,"à¼©à¼©à¼¢":7830,"à¼§à¼§à¼£":7831,"à¼§à¼©à¼¦":7832,"à¼©à¼łà¼¦":7833,"ĠĠĠĠĠĠĠĠĠĠĠ":7834,"à¼ĭà¾ĵà½±à¼ĭ":7835,"à¼įà¼ĭà¼ĭà¼ĭà¼ĭà¼ĭà¼ĭà¼ĭà¼ĭà¼ĭà¼ĭà¼ĭà¼ĭà¼ĭà¼ĭà¼ĭà¼ĭà¼ĭà¼ĭà¼ĭà¼ĭà¼ĭà¼ĭà¼ĭà¼ĭà¼ĭà¼ĭà¼ĭà¼ĭà¼ĭà¼ĭà¼ĭà¼ĭà¼ĭà¼ĭà¼ĭà¼ĭà¼ĭà¼ĭà¼ĭà¼ĭà¼ĭà¼ĭà¼ĭà¼ĭà¼ĭà¼ĭà¼ĭà¼ĭà¼ĭà¼ĭà¼ĭà¼ĭà¼ĭà¼ĭà¼ĭà¼ĭà¼ĭà¼ĭà¼ĭà¼ĭà¼ĭà¼ĭà¼ĭà¼ĭà¼ĭà¼ĭà¼ĭà¼ĭà¼ĭà¼ĭà¼ĭà¼ĭà¼ĭà¼ĭà¼ĭà¼ĭà¼ĭà¼ĭà¼ĭà¼ĭà¼ĭà¼ĭà¼ĭà¼ĭà¼ĭà¼ĭà¼ĭà¼ĭà¼ĭà¼ĭà¼ĭ":7836,"à¼įà¼ĭà¼ĭà¼ĭà¼ĭà¼ĭà¼ĭà¼ĭà¼ĭà¼ĭà¼ĭà¼ĭà¼ĭà¼ĭà¼ĭà¼ĭà¼ĭà¼ĭà¼ĭà¼ĭà¼ĭà¼ĭà¼ĭà¼ĭà¼ĭà¼ĭà¼ĭà¼ĭà¼ĭà¼ĭà¼ĭà¼ĭà¼ĭà¼ĭà¼ĭà¼ĭà¼ĭà¼ĭà¼ĭà¼ĭà¼ĭà¼ĭà¼ĭà¼ĭà¼ĭà¼ĭà¼ĭà¼ĭà¼ĭà¼ĭà¼ĭà¼ĭà¼ĭà¼ĭà¼ĭà¼ĭà¼ĭà¼ĭà¼ĭ":7837,"Ġà¼¢à¼łà¼ł":7838,"à½Ĥà½ĳà½Ģ":7839,"à½¢à½ĳà½ĸà½Ħ":7840,"à½ĵà½ĸà½¤à½ĳ":7841,"à½Ħà½ĺà½Ľà½ĳ":7842,"à½ĺà½¤à½¢":7843,"à½Ķà½Łà½ĳ":7844,"à½Ķà½Ŀ":7845,"à½´à¼ĭà½±à½´à¾ĥà¼ĭ":7846,"à½¡à½ģà½¦":7847,"à¾Łà¾Ńà½±à½¾à¼ĭ":7848,"à¾Ĵà½±à½²à¼į":7849,"à½Ķà½¦à½ĸà½¢":7850,"à½¢à½Ħà½ĳà½Ħ":7851,"à½łà½ķà½ĸ":7852,"à¾«à½ºà¼į":7853,"à¾Ĵà¾±à¼ĭà¼½":7854,"à½±à¼ĭà½²":7855,"à¾Ĵà¾±à½´à¼ĭà¼½":7856,"à½Ļà½ĺà½ŀ":7857,"à¾¦à¾±à¾Ļà½¼":7858,"à½±à½²à¼ĭà¼´":7859,"à½Ĳà½Ĥà½Ķà½ł":7860,"à½Łà½ĸà½ĺ":7861,"à¼§à¼£à¼©":7862,"à¾ľà¾·à¾±à¼į":7863,"à¼©à¼¡à¼©":7864,"à½ķà½£à½Ĩ":7865,"à½ĸà½ĸà½ĸà½ĸà½¦":7866,"à¼¡à¼łà¼¥à¼¥":7867,"à¼¡à¼£à¼¦à¼ł":7868,"à¾¡à¾·à½±à½¾à¼į":7869,"à¼¡à¼§à¼¨à¼¨":7870,"à¼¡à¼§à¼¨à¼©":7871,"à¼¡à¼¨à¼¡à¼¦":7872,"à¾łà½½à¼ĭ":7873,"Ġà½ĵà½Ł":7874,"à¾´à½²à¼į":7875,"à¼¡à¼¨à¼łà¼¨":7876,"Ġà¼ĭà¼ĭà¼ĭà¼ĭà¼ĭà¼ĭà¼ĭà¼ĭà¼ĭà¼ĭà¼ĭà¼ĭà¼ĭà¼ĭà¼ĭà¼ĭà¼ĭà¼ĭà¼ĭà¼ĭà¼ĭà¼ĭà¼ĭà¼ĭà¼ĭà¼ĭà¼ĭà¼ĭà¼ĭà¼ĭà¼ĭà¼ĭà¼ĭà¼ĭà¼ĭà¼ĭà¼ĭà¼ĭà¼ĭà¼ĭà¼ĭà¼ĭà¼ĭà¼ĭà¼ĭà¼ĭà¼ĭà¼ĭà¼ĭà¼ĭà¼ĭà¼ĭà¼ĭà¼ĭà¼ĭà¼ĭà¼ĭà¼ĭà¼ĭà¼ĭà¼ĭà¼ĭà¼ĭà¼ĭà¼ĭà¼ĭà¼ĭà¼ĭà¼ĭà¼ĭà¼ĭà¼ĭà¼ĭà¼ĭà¼ĭà¼ĭà¼ĭà¼ĭà¼ĭà¼ĭà¼ĭà¼ĭà¼ĭà¼ĭà¼ĭà¼ĭà¼ĭà¼ĭà¼ĭ":7877,"à¾¦à¾¦à¾¦à¾¦à¼ĭ":7878,"à¼ĭà¼Įà¼įà¼į":7879,"à½ĸà½Ĥà½Ł":7880,"à½Ķà½Ĥà½¡":7881,"à¾²à¾Ļà½º":7882,"à¾²à½»à½¾à¼ĭ":7883,"à½Ģà½ĵà½ĳ":7884,"à½ĺà½¦à½Ħ":7885,"à¾¡à½±à½²":7886,"à¾±à½´à½¾":7887,"à¾·à¾¡à½¼à¼ĭ":7888,"à¾·à¾²à½²à¼į":7889,"à¾·à¾£à½¼à¼ĭ":7890,"à¾«à¾±à¼ĭ":7891,"à¼Ķà¼Ī":7892,"à½ĳà½Ķà½łà½ĳ":7893,"à½ĺà½Ĳà½łà½ĳà½Ħ":7894,"à¼§à¼¡à¼¥":7895,"à¾©à½²à¼ĭà¼´":7896,"à¼ĭà¼ĳà½¼":7897,"à¼¨à¼¡à¼¤":7898,"à¼¡à¼łà¼¦à¼¢":7899,"à¾ļà½±à½¿à¼ĭ":7900,"à½Łà½Ĳà½Ł":7901,"à½įà½ĵ":7902,"à¼¡à¼¡à¼¢à¼£":7903,"Ġà¼ĭà¼ĭà¼ĭà¼ĭà¼ĭà¼ĭà¼ĭà¼ĭà¼ĭà¼ĭà¼ĭà¼ĭà¼ĭà¼ĭà¼ĭà¼ĭà¼ĭà¼ĭà¼ĭà¼ĭà¼ĭà¼ĭà¼ĭà¼ĭà¼ĭà¼ĭà¼ĭà¼ĭà¼ĭà¼ĭà¼ĭà¼ĭà¼ĭà¼ĭà¼ĭà¼ĭà¼ĭà¼ĭà¼ĭà¼ĭà¼ĭà¼ĭà¼ĭà¼ĭà¼ĭà¼ĭà¼ĭà¼ĭà¼ĭà¼ĭà¼ĭà¼ĭà¼ĭà¼ĭà¼ĭà¼ĭà¼ĭà¼ĭà¼ĭà¼ĭà¼ĭà¼ĭà¼ĭà¼ĭà¼ĭà¼ĭà¼ĭà¼ĭà¼ĭà¼ĭà¼ĭà¼ĭà¼ĭà¼ĭà¼ĭà¼ĭà¼ĭà¼ĭà¼ĭà¼ĭà¼ĭà¼ĭà¼ĭà¼ĭà¼ĭà¼ĭà¼ĭà¼ĭà¼ĭà¼ĭ":7904,"Ġà½ļà½¢":7905,"Ġà¼¡à¼©à¼©":7906,"à½¦à½ĺà½Ĥ":7907,"à½¢à½Ĥà½ħ":7908,"à½ĵà½ĺà½ģà½¦":7909,"à½ĵà½¢à½¦":7910,"à½Ħà½¤à½ĳ":7911,"à½ĺà½Ķà½Ĥ":7912,"à½´à¼ĭà¼į":7913,"à¾Ĵà½±à½´à¼ĭ":7914,"à½ĳà½Ĥà½Ĥà½Ħ":7915,"à¾Ĵà¾±à¼įà¼įà¼įà¼į":7916,"à¾³à¾Ģà½¾à¼ĭ":7917,"à½£à½¦à½ĳà½Ĥ":7918,"à¾©à½±à½²":7919,"à½Ļà½Ĩ":7920,"à½Ļà½ħ":7921,"à¾¨à½±à½´à¼ĭ":7922,"à½ĳà½ĺà½ĸà½ħà½¦":7923,"à½ĳà½Ķà½Ĥà½ı":7924,"à½ĸà½Łà½łà½ĸ":7925,"à½łà½ĳà½¦à½ĳ":7926,"à½łà½ļà½ł":7927,"à½ıà½ĵà½Ĥ":7928,"à½ĺà½ģà½¦à½Ķà½¦":7929,"à½ĳà½Ķà½Ĥà½Ķ":7930,"à½¾à¼įà¼Ħà¼ħà¼įà¼į":7931,"à¼ĭà¼¼à½º":7932,"à¼¡à¼¢à¼¢à¼§":7933,"à¼ĭà¾ħ":7934,"à¾¡à¾·à½±à½²":7935,"à¾¡à¾·à½¾à¼įà¼į":7936,"Ġà¼ĭà¼ĭà¼ĭà¼į":7937,"à¾Ĵà¾·à½¾à¼ĭà¼´":7938,"à¼¦à¼¦à¼¡":7939,"à¼¦à¼§à¼¤":7940,"à¼¦à¼©à¼¡":7941,"à¼įà¼ĭà¼ĭà¼ĭà¼ĭà¼ĭà¼ĭà¼ĭà¼ĭà¼ĭà¼ĭà¼ĭà¼ĭà¼ĭà¼ĭà¼ĭà¼ĭà¼ĭà¼ĭà¼ĭà¼ĭà¼ĭà¼ĭà¼ĭà¼ĭà¼ĭà¼ĭà¼ĭà¼ĭ":7942,"à¼įà¼ĭà¼ĭà¼ĭà¼ĭà¼ĭà¼ĭà¼ĭà¼ĭà¼ĭà¼ĭà¼ĭà¼ĭà¼ĭà¼ĭà¼ĭà¼ĭà¼ĭà¼ĭà¼ĭà¼ĭà¼ĭà¼ĭà¼ĭà¼ĭà¼ĭà¼ĭà¼ĭà¼ĭà¼ĭà¼ĭà¼ĭà¼ĭà¼ĭà¼ĭà¼ĭà¼ĭà¼ĭà¼ĭà¼ĭà¼ĭà¼ĭà¼ĭà¼ĭà¼ĭà¼ĭà¼ĭà¼ĭà¼ĭà¼ĭà¼ĭà¼ĭà¼ĭà¼ĭà¼ĭà¼ĭà¼ĭà¼ĭà¼ĭà¼ĭà¼ĭà¼ĭà¼ĭà¼ĭà¼ĭà¼ĭà¼ĭà¼ĭà¼ĭà¼ĭà¼ĭà¼ĭà¼ĭà¼ĭà¼ĭà¼ĭà¼ĭà¼ĭà¼ĭà¼ĭà¼ĭà¼ĭà¼ĭ":7943,"à¼įà¼ĭà¼ĭà¼ĭà¼ĭà¼ĭà¼ĭà¼ĭà¼ĭà¼ĭà¼ĭà¼ĭà¼ĭà¼ĭà¼ĭà¼ĭà¼ĭà¼ĭà¼ĭà¼ĭà¼ĭà¼ĭà¼ĭà¼ĭà¼ĭà¼ĭà¼ĭà¼ĭà¼ĭà¼ĭà¼ĭà¼ĭà¼ĭà¼ĭà¼ĭà¼ĭà¼ĭà¼ĭà¼ĭà¼ĭà¼ĭà¼ĭà¼ĭà¼ĭà¼ĭà¼ĭà¼ĭà¼ĭà¼ĭà¼ĭà¼ĭà¼ĭà¼ĭà¼ĭà¼ĭà¼ĭà¼ĭà¼ĭà¼ĭà¼ĭà¼ĭà¼ĭà¼ĭà¼ĭà¼ĭà¼ĭà¼ĭà¼ĭà¼ĭà¼ĭà¼ĭà¼ĭà¼ĭà¼ĭà¼ĭà¼ĭà¼ĭà¼ĭà¼ĭà¼ĭà¼ĭà¼ĭà¼ĭà¼ĭà¼ĭà¼ĭ":7944,"à¼įà¼ĭà¼ĭà¼ĭà¼ĭà¼ĭà¼ĭà¼ĭà¼ĭà¼ĭà¼ĭà¼ĭà¼ĭà¼ĭà¼ĭà¼ĭà¼ĭà¼ĭà¼ĭà¼ĭà¼ĭà¼ĭà¼ĭà¼ĭà¼ĭà¼ĭà¼ĭà¼ĭà¼ĭà¼ĭà¼ĭà¼ĭà¼ĭà¼ĭà¼ĭà¼ĭà¼ĭà¼ĭà¼ĭà¼ĭà¼ĭà¼ĭà¼ĭà¼ĭà¼ĭà¼ĭà¼ĭà¼ĭà¼ĭà¼ĭà¼ĭà¼ĭ":7945,"Ġà¼ĭà¼ĭà¼ĭà¼ĭà¼ĭà¼ĭà¼ĭà¼ĭà¼ĭà¼ĭà¼ĭà¼ĭà¼ĭà¼ĭà¼ĭà¼ĭà¼ĭà¼ĭà¼ĭà¼ĭà¼ĭà¼ĭà¼ĭà¼ĭà¼ĭà¼ĭà¼ĭà¼ĭà¼ĭà¼ĭà¼ĭà¼ĭà¼ĭà¼ĭà¼ĭà¼ĭà¼ĭà¼ĭà¼ĭà¼ĭà¼ĭà¼ĭà¼ĭà¼ĭà¼ĭà¼ĭà¼ĭà¼ĭà¼ĭà¼ĭà¼ĭà¼ĭà¼ĭà¼ĭà¼ĭà¼ĭà¼ĭà¼ĭà¼ĭà¼ĭà¼ĭà¼ĭà¼ĭà¼ĭà¼ĭà¼ĭà¼ĭà¼ĭà¼ĭà¼ĭà¼ĭà¼ĭà¼ĭà¼ĭà¼ĭà¼ĭà¼ĭà¼ĭà¼ĭà¼ĭà¼ĭà¼ĭà¼ĭà¼ĭà¼ĭà¼ĭà¼ĭà¼ĭà¼ĭà¼ĭà¼ĭà¼ĭà¼ĭà¼ĭà¼ĭà¼ĭà¼ĭà¼ĭ":7946,"à½Ĥà½¦à½ĸà½ħà½ĳ":7947,"à¾Łà¾²à½±à¾Ģà¼ĭ":7948,"à½ĳà½Ĥà½Ĳ":7949,"à¾³à¼µà½¼à¼ĭ":7950,"à½ĸà½łà½ķ":7951,"à½łà½ĸà½ĳà½Ĥ":7952,"à½Ķà½¦à½ĸà½ĳà½Ĥ":7953,"à¾²à½¼à¼µà¼ĭ":7954,"à½Ĥà½ĵà½¦à½ŀ":7955,"à½ħà½ĵà½ĳà½Ĥ":7956,"à¾Ĵà¾±à½´à¼·":7957,"à¾Ĺà½ºà¼ĭà¾İ":7958,"à¾Ĵà½¼à½¼à¼ĭ":7959,"à¾Ĳà½´à¼µà¼ĭ":7960,"à¾£à¼ĭà¼½":7961,"à¾£à¼ĭà¼Ħà¼ħà¼įà¼į":7962,"à½ĸà½Ľà½ĳ":7963,"à½¦à½ĺà½¡":7964,"à½Īà¾·à½²":7965,"à¼¨à¼¢à¼¢":7966,"à½¼à¼Ķà¼ĭ":7967,"à¼¡à¼§à¼£à¼£":7968,"à¾Łà¾Ńà½±à¼į":7969,"à½²à¼ĭà½Īà¾²à½ºà¼ĭ":7970,"à¼¦à¼¨à¼£":7971,"à¼¦à¼©à¼¦":7972,"à¼Ŀà¼Ŀà¼įà¼į":7973,"Ġà¼¡à¼łà¼¢":7974,"à¼įà¼ĭà¼ĭà¼ĭà¼ĭà¼ĭà¼ĭà¼ĭà¼ĭà¼ĭà¼ĭà¼ĭà¼ĭà¼ĭà¼ĭà¼ĭà¼ĭà¼ĭà¼ĭà¼ĭà¼ĭà¼ĭà¼ĭà¼ĭà¼ĭà¼ĭà¼ĭà¼ĭà¼ĭà¼ĭà¼ĭà¼ĭà¼ĭà¼ĭà¼ĭà¼ĭà¼ĭà¼ĭà¼ĭà¼ĭà¼ĭà¼ĭà¼ĭà¼ĭà¼ĭà¼ĭà¼ĭà¼ĭà¼ĭà¼ĭà¼ĭà¼ĭà¼ĭà¼ĭà¼ĭà¼ĭà¼ĭà¼ĭà¼ĭà¼ĭà¼ĭà¼ĭ":7975,"à¼ĭà¾µà¼ĭ":7976,"à½¦à½Ĥà½Ļ":7977,"à½ĳà½£à½ĺ":7978,"à½ĳà½Ļà½ĺ":7979,"à½Ķà½ĵà½ĺ":7980,"à½²à¼ĭà¼Ħà¼ħà¼į":7981,"à½¼à¼ĭà¼Ŀ":7982,"à½Ĩà½Ł":7983,"à½Ĳà½ĸà½ĸà½ĸ":7984,"à½ĺà½¦à½łà½ĸ":7985,"à¾³à¾Ĺà½¼":7986,"à¾¦à½¼à¼įà¼į":7987,"à½ĳà½Ķà½Ĩ":7988,"à½Ľà½Ļ":7989,"à½£à½Ĥà½Ĥ":7990,"à¼§à¼¡à¼¦":7991,"à¼§à¼¡à¼¨":7992,"à¼§à¼¢à¼¦":7993,"à¼¦à¼£à¼¢":7994,"à¼¦à¼¥à¼¢":7995,"Ġà¼¼à¼į":7996,"à¼¡à¼łà¼¤à¼¤":7997,"à¼¡à¼¨à¼¤à¼¤":7998,"à½ĥà½īà½ł":7999,"à¼įà¼ĭà¼ĭà¼ĭà¼ĭà¼ĭà¼ĭà¼ĭà¼ĭà¼ĭà¼ĭà¼ĭà¼ĭà¼ĭà¼ĭà¼ĭà¼ĭà¼ĭà¼ĭà¼ĭà¼ĭà¼ĭà¼ĭà¼ĭà¼ĭà¼ĭà¼ĭà¼ĭà¼ĭà¼ĭà¼ĭà¼ĭà¼ĭà¼ĭà¼ĭà¼ĭà¼ĭà¼ĭà¼ĭà¼ĭà¼ĭà¼ĭà¼ĭà¼ĭà¼ĭà¼ĭà¼ĭà¼ĭà¼ĭà¼ĭà¼ĭà¼ĭà¼ĭà¼ĭà¼ĭà¼ĭà¼ĭà¼ĭà¼ĭà¼ĭà¼ĭà¼ĭà¼ĭà¼ĭà¼ĭà¼ĭà¼ĭà¼ĭà¼ĭà¼ĭà¼ĭà¼ĭà¼ĭ":8000,"à¼¨à¼łà¼¢":8001,"ĠĠĠĠĠĠĠĠĠĠ":8002,"Ġà¼¡à¼łà¼£":8003,"Ġà¼ĭà¼ĭà¼ĭà¼ĭà¼ĭà¼ĭà¼ĭà¼ĭà¼ĭà¼ĭà¼ĭà¼ĭà¼ĭà¼ĭà¼ĭà¼ĭà¼ĭà¼ĭà¼ĭà¼ĭà¼ĭà¼ĭà¼ĭà¼ĭà¼ĭà¼ĭà¼ĭà¼ĭà¼ĭà¼ĭà¼ĭà¼ĭà¼ĭà¼ĭà¼ĭà¼ĭà¼ĭà¼ĭà¼ĭà¼ĭà¼ĭà¼ĭà¼ĭà¼ĭà¼ĭà¼ĭà¼ĭà¼ĭà¼ĭà¼ĭà¼ĭà¼ĭà¼ĭà¼ĭà¼ĭà¼ĭà¼ĭà¼ĭà¼ĭà¼ĭà¼ĭà¼ĭà¼ĭà¼ĭà¼ĭà¼ĭà¼ĭà¼ĭà¼ĭà¼ĭà¼ĭà¼ĭà¼ĭà¼ĭà¼ĭà¼ĭà¼ĭà¼ĭà¼ĭà¼ĭà¼ĭà¼ĭà¼ĭà¼ĭà¼ĭà¼ĭà¼ĭà¼ĭà¼ĭà¼ĭà¼ĭà¼ĭà¼ĭà¼ĭà¼ĭ":8004,"à¾łà½²à¾Ģà¼įà¼įà¼įà¼į":8005,"à¾²à¾°à½²à¼ĭ":8006,"Ġà½ĸà½Łà½ł":8007,"Ġà½Ĳà½ĸ":8008,"à½ĳà½łà½ķ":8009,"à½Ĥà½Ĥà½£":8010,"à½¢à½Ķà½£":8011,"à½£à½ĵà½ĺ":8012,"à½ºà¼ĭà¾Ł":8013,"à½Ĥà½¦à½£à½ĺ":8014,"à½ĳà½Ħà½ĳà½Ķ":8015,"à¾±à½²à¼ĭà¼Ŀà¼įà¼į":8016,"à½Ĳà½ŀ":8017,"à½ıà½ª":8018,"à½ĺà½¦à½ĳà½Ĥ":8019,"à½łà½ĳà½łà½ĸà½¢":8020,"à½¡à½Ħà½ħ":8021,"à½ĺà½Ĳà½ĺà½¦":8022,"à½Ĥà½Ħà½Ĥà½¦":8023,"à¾²à½²à¼ĭà¼Ħà¼ħà¼įà¼į":8024,"à¾Ńà¼·à¼ĭ":8025,"à½ĸà½Ĥà½ĺà½¦":8026,"à½Ĥà½Ļà½ł":8027,"à½īà½ĺà½¦à½Ķà½ł":8028,"à½İà½«à½Ħ":8029,"à½£à½ĵà½ĵ":8030,"à½Ĭà½ķ":8031,"à¾ľà¼ĭà¼ĳ":8032,"à¾µà¾¨à½²à¼ĭ":8033,"à½Ĩà½Ĥà½ĳà½Ģà½¢":8034,"à¾Ķà¼įà¼½":8035,"à¾ŀà½´à½¿à¼ĭ":8036,"à¼¡à¼¤à¼£à¼©":8037,"à¼¡à¼¨à¼£à¼§":8038,"à¼¡à¼¨à¼¨à¼ł":8039,"à¼¡à¼¨à¼¨à¼©":8040,"à¼Ģà½Ĥà½¢":8041,"à¾łà¾±à½±à½´à¼ĭ":8042,"Ġà¼¡à¼¡à¼ł":8043,"à¼ĭà¾§à½¿à¼į":8044,"à¼§à¼łà¼¡":8045,"à¼¥à¼¦à¼¥à¼§":8046,"à¼įà¼ĭà¼ĭà¼ĭà¼ĭà¼ĭà¼ĭà¼ĭà¼ĭà¼ĭà¼ĭà¼ĭà¼ĭà¼ĭà¼ĭà¼ĭà¼ĭà¼ĭà¼ĭà¼ĭà¼ĭà¼ĭà¼ĭà¼ĭà¼ĭà¼ĭà¼ĭà¼ĭà¼ĭà¼ĭà¼ĭà¼ĭà¼ĭà¼ĭà¼ĭà¼ĭà¼ĭà¼ĭà¼ĭà¼ĭà¼ĭà¼ĭà¼ĭà¼ĭà¼ĭà¼ĭà¼ĭà¼ĭà¼ĭà¼ĭà¼ĭà¼ĭà¼ĭà¼ĭà¼ĭà¼ĭà¼ĭà¼ĭà¼ĭà¼ĭà¼ĭà¼ĭà¼ĭà¼ĭà¼ĭà¼ĭà¼ĭà¼ĭà¼ĭà¼ĭà¼ĭà¼ĭà¼ĭà¼ĭà¼ĭà¼ĭà¼ĭà¼ĭà¼ĭà¼ĭ":8047,"Ġà¼©à¼¡":8048,"Ġà¼©à¼¢":8049,"ĠĠĠĠĠĠĠĠĠĠĠĠĠ":8050,"à¾·à¾²à¼ĭà½³":8051,"à¾°à½²à¼ĭ":8052,"à¾¡à¾·à½²à½¿à¼į":8053,"à¼įà¼ĭà¼ĭà¼ĭà¼ĭà¼ĭà¼ĭà¼ĭà¼ĭà¼ĭà¼ĭà¼ĭà¼ĭà¼ĭà¼ĭà¼ĭà¼ĭà¼ĭà¼ĭà¼ĭà¼ĭà¼ĭà¼ĭà¼ĭà¼ĭà¼ĭà¼ĭà¼ĭ":8054,"Ġà¼ĭà¼ĭà¼ĭà¼ĭà¼ĭà¼ĭà¼ĭà¼ĭà¼ĭà¼ĭà¼ĭà¼ĭà¼ĭà¼ĭà¼ĭà¼ĭà¼ĭà¼ĭà¼ĭà¼ĭà¼ĭà¼ĭà¼ĭà¼ĭà¼ĭà¼ĭà¼ĭà¼ĭà¼ĭà¼ĭà¼ĭà¼ĭà¼ĭà¼ĭà¼ĭà¼ĭà¼ĭà¼ĭà¼ĭà¼ĭà¼ĭà¼ĭà¼ĭà¼ĭà¼ĭà¼ĭà¼ĭà¼ĭà¼ĭà¼ĭà¼ĭà¼ĭà¼ĭà¼ĭà¼ĭà¼ĭà¼ĭà¼ĭà¼ĭà¼ĭà¼ĭà¼ĭà¼ĭà¼ĭà¼ĭà¼ĭà¼ĭà¼ĭà¼ĭà¼ĭà¼ĭà¼ĭà¼ĭà¼ĭà¼ĭà¼ĭà¼ĭà¼ĭà¼ĭà¼ĭà¼ĭà¼ĭà¼ĭ":8055,"à¼įà¼ĭà¼ĭà¼ĭà¼ĭà¼ĭà¼ĭà¼ĭà¼ĭà¼ĭà¼ĭà¼ĭà¼ĭà¼ĭà¼ĭà¼ĭà¼ĭà¼ĭà¼ĭà¼ĭà¼ĭà¼ĭà¼ĭà¼ĭà¼ĭà¼ĭà¼ĭà¼ĭà¼ĭà¼ĭà¼ĭà¼ĭà¼ĭà¼ĭà¼ĭ":8056,"Ġà½Ĺ":8057,"Ġà½ĺà½§":8058,"à¾§":8059,"à½¦à½Ĥà½ı":8060,"à½²à½ºà¼ĭ":8061,"à½Ħà½ĵà½ĺ":8062,"à½ļà½Ľ":8063,"à½īà½łà½Ħ":8064,"à½Ķà½¢à½ģà½¦":8065,"à¾Ĳà½¾à¼į":8066,"à¾Ĺà½²à¼į":8067,"à¾Ķà¾©à½¼":8068,"à½ĸà½ĳà½Ĥà½ħ":8069,"à¾Ĳà½´à¼ĭà¼¼":8070,"à¾Ńà½¼à¼Ķ":8071,"à¾¦à¾±à¾±à½¼":8072,"à¼§à¼¤à¼¡":8073,"à½±à½²à½²à¼ĭ":8074,"à½¤à½¦à½Ĩ":8075,"à½¼à¼Ķà¼¼":8076,"à¾Ĵà½ºà½¾":8077,"à¾¡à¾·à¾±":8078,"à¼¡à¼§à¼£à¼¥":8079,"à¼¡à¼§à¼¤à¼¤":8080,"à¼¡à¼§à¼¥à¼¨":8081,"à¾Ľà½´à¼ĭ":8082,"à¼¡à¼¨à¼¨à¼¦":8083,"à½ªà½ĸ":8084,"à¾¶à½¼":8085,"à¾±à½±à½»à¼ĭ":8086,"à¼ĭà¼Ŀà¼Ŀà¼įà¼į":8087,"à¼§à¼§à¼¢":8088,"à¼įà¼ĭà¼ĭà¼ĭà¼ĭà¼ĭà¼ĭà¼ĭà¼ĭà¼ĭà¼ĭà¼ĭà¼ĭà¼ĭà¼ĭà¼ĭà¼ĭà¼ĭà¼ĭà¼ĭà¼ĭà¼ĭà¼ĭà¼ĭà¼ĭà¼ĭà¼ĭà¼ĭà¼ĭà¼ĭà¼ĭ":8089,"à¼įà¼ĭà¼ĭà¼ĭà¼ĭà¼ĭà¼ĭà¼ĭà¼ĭà¼ĭà¼ĭà¼ĭà¼ĭà¼ĭà¼ĭà¼ĭà¼ĭà¼ĭà¼ĭà¼ĭà¼ĭà¼ĭà¼ĭà¼ĭà¼ĭà¼ĭ":8090,"Ġà¼ĭà¼ĭà¼ĭà¼ĭà¼ĭà¼ĭà¼ĭà¼ĭà¼ĭà¼ĭà¼ĭà¼ĭà¼ĭà¼ĭà¼ĭà¼ĭà¼ĭà¼ĭà¼ĭà¼ĭà¼ĭà¼ĭà¼ĭà¼ĭà¼ĭà¼ĭà¼ĭà¼ĭà¼ĭà¼ĭà¼ĭà¼ĭà¼ĭà¼ĭà¼ĭà¼ĭà¼ĭà¼ĭà¼ĭà¼ĭà¼ĭà¼ĭà¼ĭà¼ĭà¼ĭà¼ĭà¼ĭà¼ĭà¼ĭà¼ĭà¼ĭà¼ĭà¼ĭà¼ĭà¼ĭà¼ĭà¼ĭà¼ĭà¼ĭà¼ĭà¼ĭà¼ĭà¼ĭà¼ĭà¼ĭà¼ĭà¼ĭà¼ĭà¼ĭà¼ĭà¼ĭà¼ĭà¼ĭà¼ĭà¼ĭà¼ĭà¼ĭà¼ĭà¼ĭà¼ĭà¼ĭà¼ĭà¼ĭà¼ĭ":8091,"à¼įà¼ĭà¼ĭà¼ĭà¼ĭà¼ĭà¼ĭà¼ĭà¼ĭà¼ĭà¼ĭà¼ĭà¼ĭà¼ĭà¼ĭà¼ĭà¼ĭà¼ĭà¼ĭà¼ĭà¼ĭà¼ĭà¼ĭà¼ĭà¼ĭà¼ĭà¼ĭà¼ĭà¼ĭà¼ĭà¼ĭà¼ĭà¼ĭà¼ĭà¼ĭà¼ĭà¼ĭà¼ĭà¼ĭà¼ĭà¼ĭà¼ĭà¼ĭà¼ĭà¼ĭà¼ĭà¼ĭà¼ĭà¼ĭà¼ĭà¼ĭ":8092,"à¼įà¼ĭà¼ĭà¼ĭà¼ĭà¼ĭà¼ĭà¼ĭà¼ĭà¼ĭà¼ĭà¼ĭà¼ĭà¼ĭà¼ĭà¼ĭà¼ĭà¼ĭà¼ĭà¼ĭà¼ĭà¼ĭà¼ĭà¼ĭà¼ĭà¼ĭà¼ĭà¼ĭà¼ĭà¼ĭà¼ĭà¼ĭà¼ĭà¼ĭà¼ĭà¼ĭà¼ĭà¼ĭà¼ĭà¼ĭà¼ĭà¼ĭà¼ĭà¼ĭà¼ĭà¼ĭà¼ĭà¼ĭà¼ĭà¼ĭà¼ĭà¼ĭà¼ĭà¼ĭà¼ĭà¼ĭà¼ĭà¼ĭà¼ĭà¼ĭà¼ĭà¼ĭà¼ĭà¼ĭà¼ĭà¼ĭà¼ĭà¼ĭà¼ĭà¼ĭà¼ĭà¼ĭà¼ĭà¼ĭà¼ĭà¼ĭà¼ĭà¼ĭà¼ĭà¼ĭà¼ĭà¼ĭà¼ĭà¼ĭà¼ĭà¼ĭà¼ĭà¼ĭà¼ĭà¼ĭà¼ĭà¼ĭà¼ĭà¼ĭà¼ĭà¼ĭà¼ĭà¼ĭà¼ĭà¼ĭà¼ĭà¼ĭà¼ĭà¼ĭà¼ĭà¼ĭà¼ĭà¼ĭà¼ĭà¼ĭà¼ĭ":8093,"à½ĵà½ĸà½Ļ":8094,"à½Ħà½Ĳà½ĺà½¦":8095,"à¾±à¾¡à½ºà¼ĭ":8096,"à½£à½ĺà½Ĳà½ł":8097,"à½´à¼ĭà¼Ŀà¼į":8098,"à¾Łà½»à½¿à¼ĭ":8099,"à½ĺà½¦à½ł":8100,"à½Łà½Ľ":8101,"à¾Ĺà¼·à½º":8102,"à¾·à¾·à¾Ń":8103,"à¾¨à¾¼à¾»":8104,"à½ĳà½Ķà½ĸ":8105,"à¾²à½²à¼ĭà¼´":8106,"à½¾à¼ĭà¼Ī":8107,"à½ĺà½Ľà½ĳà½ĵà½¦":8108,"à¼¡à¼¡à¼łà¼ł":8109,"à½Ĳà½ĸà½¦à½¦":8110,"à¾Ĳà¾±à¼Ķ":8111,"à¾Ĵà¾²à¾Ģ":8112,"à¼§à¼¤à¼©":8113,"à¼ĭà½Īà¾Ĳà¾±à½º":8114,"à½Ĺà½ķà½Ĥ":8115,"à¾ļà½±à½´à¼ĭ":8116,"à¼¡à¼£à¼©à¼¡":8117,"à¼¡à¼¤à¼§à¼¥":8118,"à¼¡à¼¥à¼§à¼¥":8119,"à¼¡à¼¦à¼¥à¼¤":8120,"à¼¡à¼¦à¼§à¼¥":8121,"à¼¡à¼¦à¼¦à¼£":8122,"à¼¡à¼¨à¼¢à¼§":8123,"à¾¦à¾·à½ºà¼ĭà½Īà½²":8124,"à¾łà½´":8125,"à½Ģà½Ģà½Ģà½Ģà½Ģ":8126,"à¼¨à¼łà¼¡":8127,"à¼¨à¼łà¼¤":8128,"à¼©à¼łà¼£":8129,"à¼¦à¼¨à¼¦":8130,"à¼¦à¼©à¼¤":8131,"à¼ŀà¼ŀ":8132,"à¼¡à¼¤à¼łà¼¢":8133,"à¼ĭà¼ħà¼įà¼į":8134,"à½Ĥà½Ķà½£":8135,"à½Ĥà½¦à½Ĥà½ŀà½ĵ":8136,"à½´à¼ĭà½²à¼ĭ":8137,"à½ŀà½Ķà½¦":8138,"à½ĺà½¦à½Ĩ":8139,"à½łà½ĳà½łà½Ħ":8140,"à½ĸà½¢à½ĸà½Ĥ":8141,"à¾¡à¾±à½¼":8142,"à½ĸà½łà½Ĳ":8143,"à¾Ĺà½´à¼ĭ":8144,"à½ĸà½ħà½ĺà½¦":8145,"à½ĺà½ģà½Ħ":8146,"à½§à½ŀ":8147,"à½ĳà½Ģà½łà½ĸ":8148,"à¾«à½¼à¼·":8149,"à¼ĭà¼ģ":8150,"à½¥à½Ķ":8151,"à½ĵà½ĳà½¦":8152,"à½Ŀà½Ĭ":8153,"à½łà½Ĥà½łà½¡à½Ħ":8154,"à¾±à½²à¼įà¼½":8155,"à½¡à½¦à½¦":8156,"à¼§à¼¢à¼¤":8157,"à¼¨à¼¤à¼ł":8158,"à¾µà½´à¾ĥà¼ĭ":8159,"Ġà¼ĳà¼į":8160,"à¼¡à¼¢à¼¤à¼¤":8161,"à¾ļà¾Ģà½¿à¼ĭ":8162,"à¼¡à¼¤à¼£à¼¢":8163,"à¼¡à¼§à¼©à¼¨":8164,"à¼¡à¼¦à¼§à¼¨":8165,"à¼¡à¼¨à¼¥à¼§":8166,"à¼¡à¼¨à¼¤à¼£":8167,"à¾¥à½ºà¼į":8168,"à¾¦à¾·à¾±à½¾à¼į":8169,"à¾»à½»à¼ĭ":8170,"à¼įà¼ĭà¼ĭà¼ĭà¼ĭà¼ĭà¼ĭà¼ĭà¼ĭà¼ĭà¼ĭà¼ĭà¼ĭà¼ĭà¼ĭà¼ĭà¼ĭà¼ĭà¼ĭà¼ĭà¼ĭà¼ĭà¼ĭà¼ĭà¼ĭà¼ĭà¼ĭà¼ĭà¼ĭà¼ĭà¼ĭà¼ĭà¼ĭà¼ĭà¼ĭà¼ĭà¼ĭà¼ĭà¼ĭà¼ĭà¼ĭà¼ĭà¼ĭà¼ĭà¼ĭà¼ĭà¼ĭà¼ĭà¼ĭà¼ĭà¼ĭà¼ĭà¼ĭà¼ĭà¼ĭà¼ĭà¼ĭà¼ĭà¼ĭà¼ĭà¼ĭà¼ĭà¼ĭà¼ĭà¼ĭà¼ĭà¼ĭà¼ĭà¼ĭà¼ĭà¼ĭà¼ĭà¼ĭà¼ĭà¼ĭà¼ĭà¼ĭà¼ĭà¼ĭ":8171,"à¼©à¼łà¼§":8172,"à¼įà¼ĭà¼ĭà¼ĭà¼ĭà¼ĭà¼ĭà¼ĭà¼ĭà¼ĭà¼ĭà¼ĭà¼ĭà¼ĭà¼ĭà¼ĭà¼ĭà¼ĭà¼ĭà¼ĭà¼ĭà¼ĭà¼ĭà¼ĭà¼ĭà¼ĭà¼ĭà¼ĭà¼ĭà¼ĭà¼ĭà¼ĭà¼ĭà¼ĭà¼ĭà¼ĭà¼ĭà¼ĭà¼ĭà¼ĭà¼ĭà¼ĭà¼ĭà¼ĭà¼ĭà¼ĭà¼ĭà¼ĭà¼ĭà¼ĭà¼ĭà¼ĭà¼ĭà¼ĭà¼ĭà¼ĭà¼ĭà¼ĭà¼ĭà¼ĭà¼ĭà¼ĭà¼ĭà¼ĭà¼ĭà¼ĭà¼ĭà¼ĭà¼ĭà¼ĭà¼ĭà¼ĭà¼ĭà¼ĭà¼ĭà¼ĭà¼ĭà¼ĭà¼ĭà¼ĭà¼ĭà¼ĭà¼ĭà¼ĭ":8173,"à¼įà¼ĭà¼ĭà¼ĭà¼ĭà¼ĭà¼ĭà¼ĭà¼ĭà¼ĭà¼ĭà¼ĭà¼ĭà¼ĭà¼ĭà¼ĭà¼ĭà¼ĭà¼ĭà¼ĭà¼ĭà¼ĭà¼ĭà¼ĭà¼ĭà¼ĭà¼ĭà¼ĭà¼ĭà¼ĭà¼ĭà¼ĭà¼ĭà¼ĭà¼ĭà¼ĭà¼ĭà¼ĭà¼ĭà¼ĭà¼ĭà¼ĭà¼ĭà¼ĭà¼ĭà¼ĭà¼ĭà¼ĭà¼ĭà¼ĭà¼ĭà¼ĭà¼ĭà¼ĭà¼ĭà¼ĭà¼ĭà¼ĭà¼ĭà¼ĭà¼ĭà¼ĭà¼ĭà¼ĭà¼ĭà¼ĭà¼ĭà¼ĭà¼ĭà¼ĭà¼ĭà¼ĭà¼ĭà¼ĭà¼ĭà¼ĭà¼ĭà¼ĭà¼ĭà¼ĭà¼ĭà¼ĭà¼ĭà¼ĭà¼ĭà¼ĭà¼ĭà¼ĭ":8174,"à½ĸà½ĸà½ĸà½ĸà½ĸà½ĸà½ĸà½ĸà½ĸà½ĸ":8175,"à¼įà¼ĭà¼ĭà¼ĭà¼ĭà¼ĭà¼ĭà¼ĭà¼ĭà¼ĭà¼ĭà¼ĭà¼ĭà¼ĭà¼ĭà¼ĭà¼ĭà¼ĭà¼ĭà¼ĭà¼ĭà¼ĭà¼ĭà¼ĭà¼ĭà¼ĭà¼ĭà¼ĭà¼ĭà¼ĭà¼ĭà¼ĭà¼ĭà¼ĭà¼ĭà¼ĭà¼ĭà¼ĭà¼ĭà¼ĭà¼ĭà¼ĭà¼ĭà¼ĭà¼ĭà¼ĭà¼ĭà¼ĭà¼ĭà¼ĭà¼ĭà¼ĭà¼ĭà¼ĭà¼ĭà¼ĭà¼ĭà¼ĭà¼ĭà¼ĭà¼ĭà¼ĭà¼ĭà¼ĭà¼ĭà¼ĭà¼ĭà¼ĭà¼ĭà¼ĭà¼ĭà¼ĭà¼ĭà¼ĭà¼ĭà¼ĭà¼ĭà¼ĭà¼ĭà¼ĭà¼ĭà¼ĭà¼ĭà¼ĭà¼ĭà¼ĭà¼ĭà¼ĭà¼ĭà¼ĭà¼ĭà¼ĭà¼ĭà¼ĭà¼ĭà¼ĭà¼ĭà¼ĭà¼ĭà¼ĭà¼ĭ":8176,"à¼įà¼ĭà¼ĭà¼ĭà¼ĭà¼ĭà¼ĭà¼ĭà¼ĭà¼ĭà¼ĭà¼ĭà¼ĭà¼ĭà¼ĭà¼ĭà¼ĭà¼ĭà¼ĭà¼ĭà¼ĭà¼ĭà¼ĭà¼ĭà¼ĭà¼ĭà¼ĭà¼ĭà¼ĭà¼ĭà¼ĭà¼ĭà¼ĭà¼ĭà¼ĭà¼ĭà¼ĭà¼ĭà¼ĭà¼ĭà¼ĭà¼ĭà¼ĭ":8177,"à¼ĭà¾Ŀà¾±à¼ĭ":8178,"Ġà½Ĩà½¢":8179,"Ġà½Ĥà½ıà½ĺ":8180,"à½Ĥà½Ĳà½Ħ":8181,"à½¢à½ĸà½Ł":8182,"à½Ĥà½¦à½łà½Ĥ":8183,"à¾Łà¾²à½±à½²":8184,"à¾Łà¼µà¼ĭ":8185,"à½Łà½ĺà½¦":8186,"à½ĸà½ŀà½¦":8187,"à¾·à¾Ģ":8188,"à¾©à¾±à½¼à¼ĭ":8189,"à½¨à½¦à½¦":8190,"à½ĵà½ĺà½ĵà½ĵ":8191,"à½ĺà½ģà½łà½łà½Ĥ":8192,"à½Ĥà½¢à½¦":8193,"à½Ŀà½łà½ĺ":8194,"à¼§à¼£à¼¤":8195,"à¾ľà½º":8196,"à¼©à¼¡à¼¡":8197,"à¼ĭà¼Ķà¼ĭà¼ĭà¼ĭ":8198,"à½ĸà½¦à½ĺà½¦à½Ķ":8199,"à¼¡à¼łà¼§à¼§":8200,"à¾²à½±à½²à½¾à¼Ķ":8201,"à¾ļà¾Ńà¼ĭ":8202,"à¾¡à¾·à¾Ńà¼ĭ":8203,"à¼¡à¼¤à¼¡à¼¤":8204,"à¼¡à¼§à¼©à¼©":8205,"à¼¡à¼¦à¼©à¼¦":8206,"à¼¡à¼¨à¼¤à¼©":8207,"à½ĵà½Ķà½ı":8208,"à¾²à½±à½¾à½¿à¼ĭ":8209,"Ġà¼¡à¼łà¼©":8210,"à¼ĭà½¾à¼ĭà½¾à¼ĭ":8211,"Ġà¼ĭà¼ĭà¼ĭà¼ĭà¼ĭà¼ĭà¼ĭà¼ĭà¼ĭà¼ĭà¼ĭà¼ĭà¼ĭà¼ĭà¼ĭà¼ĭà¼ĭà¼ĭà¼ĭà¼ĭà¼ĭà¼ĭà¼ĭà¼ĭà¼ĭà¼ĭà¼ĭà¼ĭà¼ĭà¼ĭà¼ĭà¼ĭà¼ĭà¼ĭà¼ĭà¼ĭà¼ĭà¼ĭà¼ĭà¼ĭà¼ĭà¼ĭà¼ĭà¼ĭà¼ĭà¼ĭà¼ĭà¼ĭà¼ĭà¼ĭà¼ĭà¼ĭà¼ĭà¼ĭà¼ĭà¼ĭà¼ĭà¼ĭà¼ĭà¼ĭà¼ĭà¼ĭà¼ĭà¼ĭà¼ĭà¼ĭà¼ĭà¼ĭà¼ĭà¼ĭà¼ĭà¼ĭà¼ĭà¼ĭà¼ĭà¼ĭà¼ĭà¼ĭà¼ĭà¼ĭà¼ĭà¼ĭà¼ĭà¼ĭà¼ĭà¼ĭà¼ĭà¼ĭà¼ĭà¼ĭà¼ĭà¼ĭà¼ĭà¼ĭà¼ĭà¼ĭà¼ĭà¼ĭà¼ĭà¼ĭ":8212,"Ġà½Ĥà½ŀà½£":8213,"Ġà½Ĥà½¡à½Ħ":8214,"Ġà¼¡à¼¡à¼¡":8215,"à½ĵà½Ĥà½¡":8216,"à½ĺà½ĸà½ĳ":8217,"à½¼à¼ĭà½ºà¼įà¼į":8218,"à½¼à¼ĭà¼Ħà¼ħà¼į":8219,"à½ŀà½Ħà½¦":8220,"à½ıà½Ŀ":8221,"à½īà½Ļ":8222,"à½Ķà½¢à½Ĩ":8223,"à½Ħà½¦à½Ĩ":8224,"à½Łà½ĳà½Ķà½ł":8225,"à½ĸà½łà½Ľ":8226,"à½łà½ĸà½Ģ":8227,"à¾¨à½¾":8228,"à¾¦à¾±à½º":8229,"à½Ĥà½ĵà½¦à½ĳ":8230,"à½±à¼ĭà¼¼":8231,"à½Ĭà½Ĥ":8232,"à½Ĭà½¡":8233,"à½Ĭà½łà½ĺ":8234,"à½Ŀà½ģ":8235,"à½Ŀà½¤":8236,"à¼§à¼£à¼¡":8237,"à¼¨à¼¢à¼¡":8238,"à¾£à½´à½¿à¼į":8239,"à½ĸà½Ļà½£à½ĳ":8240,"à¼µà¼µà¼ĭ":8241,"à¼¡à¼§à¼¦à¼ł":8242,"à¼¡à¼§à¼§à¼¡":8243,"à¼¡à¼¦à¼¡à¼¦":8244,"à¼¡à¼¨à¼¢à¼£":8245,"à¼¡à¼¨à¼¥à¼ł":8246,"à¼¡à¼¨à¼¦à¼¡":8247,"à½ĥà½Ĥ":8248,"à¼£à¼¥à¼łà¼ł":8249,"à½ķà½¥à½Ħ":8250,"à¼įà¼ĭà¼ĭà¼ĭà¼ĭà¼ĭà¼ĭà¼ĭà¼ĭà¼ĭà¼ĭà¼ĭà¼ĭà¼ĭà¼ĭà¼ĭà¼ĭà¼ĭà¼ĭà¼ĭà¼ĭà¼ĭà¼ĭà¼ĭà¼ĭà¼ĭà¼ĭà¼ĭà¼ĭà¼ĭà¼ĭà¼ĭà¼ĭà¼ĭà¼ĭà¼ĭà¼ĭà¼ĭà¼ĭà¼ĭà¼ĭà¼ĭà¼ĭà¼ĭà¼ĭà¼ĭà¼ĭà¼ĭà¼ĭà¼ĭà¼ĭà¼ĭà¼ĭà¼ĭà¼ĭà¼ĭà¼ĭà¼ĭà¼ĭà¼ĭà¼ĭà¼ĭà¼ĭà¼ĭà¼ĭà¼ĭà¼ĭà¼ĭ":8251,"à¼įà¼ĭà¼ĭà¼ĭà¼ĭà¼ĭà¼ĭà¼ĭà¼ĭà¼ĭà¼ĭà¼ĭà¼ĭà¼ĭà¼ĭà¼ĭà¼ĭà¼ĭà¼ĭà¼ĭà¼ĭà¼ĭà¼ĭà¼ĭà¼ĭà¼ĭà¼ĭà¼ĭà¼ĭà¼ĭà¼ĭà¼ĭà¼ĭà¼ĭà¼ĭà¼ĭà¼ĭà¼ĭà¼ĭà¼ĭà¼ĭà¼ĭà¼ĭà¼ĭà¼ĭà¼ĭà¼ĭà¼ĭà¼ĭà¼ĭà¼ĭà¼ĭà¼ĭà¼ĭà¼ĭ":8252,"à¼įà¼ĭà¼ĭà¼ĭà¼ĭà¼ĭà¼ĭà¼ĭà¼ĭà¼ĭà¼ĭà¼ĭà¼ĭà¼ĭà¼ĭà¼ĭà¼ĭà¼ĭà¼ĭà¼ĭà¼ĭà¼ĭà¼ĭà¼ĭà¼ĭà¼ĭà¼ĭà¼ĭà¼ĭà¼ĭà¼ĭà¼ĭà¼ĭà¼ĭà¼ĭà¼ĭà¼ĭà¼ĭà¼ĭà¼ĭà¼ĭà¼ĭà¼ĭà¼ĭà¼ĭà¼ĭà¼ĭà¼ĭà¼ĭà¼ĭà¼ĭà¼ĭà¼ĭà¼ĭà¼ĭà¼ĭà¼ĭà¼ĭà¼ĭà¼ĭà¼ĭà¼ĭà¼ĭ":8253,"à¾µà¾¨à½¾à¼ĭ":8254,"à¼įà¼ĭà¼ĭà¼ĭà¼ĭà¼ĭà¼ĭà¼ĭà¼ĭà¼ĭà¼ĭà¼ĭà¼ĭà¼ĭà¼ĭà¼ĭà¼ĭà¼ĭà¼ĭà¼ĭà¼ĭà¼ĭà¼ĭà¼ĭà¼ĭà¼ĭà¼ĭà¼ĭà¼ĭà¼ĭà¼ĭà¼ĭà¼ĭà¼ĭà¼ĭà¼ĭà¼ĭà¼ĭà¼ĭà¼ĭà¼ĭà¼ĭà¼ĭà¼ĭà¼ĭà¼ĭà¼ĭà¼ĭà¼ĭà¼ĭà¼ĭà¼ĭà¼ĭà¼ĭà¼ĭà¼ĭà¼ĭà¼ĭà¼ĭà¼ĭà¼ĭà¼ĭà¼ĭà¼ĭà¼ĭà¼ĭà¼ĭà¼ĭà¼ĭà¼ĭà¼ĭà¼ĭà¼ĭà¼ĭà¼ĭà¼ĭà¼ĭà¼ĭà¼ĭà¼ĭà¼ĭà¼ĭà¼ĭà¼ĭà¼ĭà¼ĭà¼ĭà¼ĭà¼ĭà¼ĭà¼ĭà¼ĭà¼ĭà¼ĭà¼ĭà¼ĭà¼ĭà¼ĭà¼ĭà¼ĭà¼ĭà¼ĭà¼ĭà¼ĭà¼ĭà¼ĭà¼ĭà¼ĭà¼ĭà¼ĭà¼ĭà¼ĭ":8255,"à½ĳà½ĳà½ĸà½Ħ":8256,"à½Ĥà½ĺà½ļà½ĵ":8257,"à½Ħà½ĳà½Ķ":8258,"à½´à½²":8259,"à½Ķà½Į":8260,"à½Ķà½ĭ":8261,"à½Ĥà½¦à½ĺà½Ĩ":8262,"à¾²à¾£":8263,"à½ģà½Ĥà½ī":8264,"à¾£à¾±à¼ĭ":8265,"à¾³à¾³à½´":8266,"à¾·à¾±à½´":8267,"à¾·à¾«":8268,"à½ĺà½Ĳà½ı":8269,"à½¨à½¨à½ĵ":8270,"à½§à½ħà½Ħ":8271,"à¾²à½¼à¼ĭà¼½":8272,"à¾«à½±à¼į":8273,"à½ĺà½ļà½ĵà½Ĥ":8274,"à½Ħà½ĵà½łà½Ĥ":8275,"à½¡à½ĵà½Ĩà½ĳ":8276,"à¾¤à¾±à½²à¼·à¼ĭ":8277,"à¼©à¼¥à¼£":8278,"à½ĸà½¦à½£à½ĸà½ł":8279,"à¾Ľà½²à¼įà¼į":8280,"à¼¡à¼¦à¼¥à¼¨":8281,"à¼¡à¼¡à¼¡à¼¢":8282,"à¼Ģà½Ŀ":8283,"à¾¶à¾Ńà¼ĭ":8284,"à¼¤à¼¥à¼łà¼ł":8285,"à¼įà¼ĭà¼ĭà¼ĭà¼ĭà¼ĭà¼ĭà¼ĭà¼ĭà¼ĭà¼ĭà¼ĭà¼ĭà¼ĭà¼ĭà¼ĭà¼ĭà¼ĭà¼ĭà¼ĭà¼ĭà¼ĭà¼ĭà¼ĭà¼ĭà¼ĭà¼ĭà¼ĭà¼ĭà¼ĭà¼ĭà¼ĭà¼ĭà¼ĭà¼ĭà¼ĭà¼ĭà¼ĭà¼ĭà¼ĭà¼ĭà¼ĭà¼ĭà¼ĭà¼ĭà¼ĭà¼ĭà¼ĭà¼ĭà¼ĭà¼ĭà¼ĭà¼ĭà¼ĭà¼ĭà¼ĭà¼ĭà¼ĭà¼ĭà¼ĭà¼ĭà¼ĭà¼ĭà¼ĭà¼ĭà¼ĭà¼ĭà¼ĭà¼ĭà¼ĭà¼ĭà¼ĭ":8286,"à¼įà¼ĭà¼ĭà¼ĭà¼ĭà¼ĭà¼ĭà¼ĭà¼ĭà¼ĭà¼ĭà¼ĭà¼ĭà¼ĭà¼ĭà¼ĭà¼ĭà¼ĭà¼ĭà¼ĭà¼ĭà¼ĭà¼ĭà¼ĭà¼ĭà¼ĭà¼ĭà¼ĭà¼ĭà¼ĭà¼ĭà¼ĭà¼ĭà¼ĭà¼ĭà¼ĭà¼ĭà¼ĭà¼ĭà¼ĭà¼ĭà¼ĭà¼ĭà¼ĭà¼ĭà¼ĭà¼ĭà¼ĭà¼ĭà¼ĭà¼ĭà¼ĭà¼ĭà¼ĭà¼ĭà¼ĭà¼ĭà¼ĭà¼ĭà¼ĭà¼ĭà¼ĭà¼ĭà¼ĭà¼ĭà¼ĭà¼ĭà¼ĭà¼ĭà¼ĭà¼ĭà¼ĭà¼ĭà¼ĭà¼ĭ":8287,"Ġà¼©à¼¦":8288,"à½įà½ī":8289,"à¼§à¼¨à¼©":8290,"à¾ŀà¾ŀà½ºà¼ĭ":8291,"à¼ĭà½±à¼ĭà½±à¼ĭ":8292,"Ġà¼ĭà¼ĭà¼ĭà¼ĭà¼ĭà¼ĭà¼ĭà¼ĭà¼ĭà¼ĭà¼ĭà¼ĭà¼ĭà¼ĭà¼ĭà¼ĭà¼ĭà¼ĭà¼ĭà¼ĭà¼ĭà¼ĭà¼ĭà¼ĭà¼ĭà¼ĭà¼ĭà¼ĭà¼ĭà¼ĭà¼ĭà¼ĭà¼ĭà¼ĭà¼ĭà¼ĭà¼ĭà¼ĭà¼ĭà¼ĭà¼ĭà¼ĭà¼ĭà¼ĭà¼ĭà¼ĭà¼ĭà¼ĭà¼ĭà¼ĭà¼ĭà¼ĭà¼ĭà¼ĭà¼ĭà¼ĭà¼ĭà¼ĭà¼ĭà¼ĭà¼ĭà¼ĭà¼ĭà¼ĭà¼ĭà¼ĭà¼ĭà¼ĭà¼ĭà¼ĭà¼ĭà¼ĭà¼ĭà¼ĭà¼ĭà¼ĭà¼ĭà¼ĭà¼ĭà¼ĭà¼ĭà¼ĭà¼ĭà¼ĭà¼ĭà¼ĭà¼ĭà¼ĭà¼ĭà¼ĭà¼ĭà¼ĭà¼ĭà¼ĭ":8293,"Ġà¼ĭà¼ĭà¼ĭà¼ĭà¼ĭà¼ĭà¼ĭà¼ĭà¼ĭà¼ĭà¼ĭà¼ĭà¼ĭà¼ĭà¼ĭà¼ĭà¼ĭà¼ĭà¼ĭà¼ĭà¼ĭà¼ĭà¼ĭà¼ĭà¼ĭà¼ĭà¼ĭà¼ĭà¼ĭà¼ĭà¼ĭà¼ĭà¼ĭà¼ĭà¼ĭà¼ĭà¼ĭà¼ĭà¼ĭà¼ĭà¼ĭà¼ĭà¼ĭà¼ĭà¼ĭà¼ĭà¼ĭà¼ĭà¼ĭà¼ĭà¼ĭà¼ĭà¼ĭà¼ĭà¼ĭà¼ĭà¼ĭà¼ĭà¼ĭà¼ĭà¼ĭà¼ĭà¼ĭà¼ĭà¼ĭà¼ĭà¼ĭà¼ĭà¼ĭà¼ĭà¼ĭà¼ĭà¼ĭà¼ĭà¼ĭà¼ĭà¼ĭà¼ĭà¼ĭà¼ĭà¼ĭà¼ĭà¼ĭà¼ĭà¼ĭà¼ĭà¼ĭà¼ĭà¼ĭà¼ĭà¼ĭ":8294,"à¼įà¼ĭà¼ĭà¼ĭà¼ĭà¼ĭà¼ĭà¼ĭà¼ĭà¼ĭà¼ĭà¼ĭà¼ĭà¼ĭà¼ĭà¼ĭà¼ĭà¼ĭà¼ĭà¼ĭà¼ĭà¼ĭà¼ĭà¼ĭà¼ĭà¼ĭà¼ĭà¼ĭà¼ĭà¼ĭà¼ĭà¼ĭà¼ĭà¼ĭà¼ĭà¼ĭà¼ĭà¼ĭà¼ĭà¼ĭà¼ĭà¼ĭà¼ĭà¼ĭà¼ĭà¼ĭà¼ĭà¼ĭà¼ĭà¼ĭà¼ĭà¼ĭà¼ĭà¼ĭà¼ĭà¼ĭà¼ĭà¼ĭà¼ĭà¼ĭ":8295,"à¼įà¼ĭà¼ĭà¼ĭà¼ĭà¼ĭà¼ĭà¼ĭà¼ĭà¼ĭà¼ĭà¼ĭà¼ĭà¼ĭà¼ĭà¼ĭà¼ĭà¼ĭà¼ĭà¼ĭà¼ĭà¼ĭà¼ĭà¼ĭà¼ĭà¼ĭà¼ĭà¼ĭà¼ĭà¼ĭà¼ĭà¼ĭà¼ĭà¼ĭà¼ĭà¼ĭà¼ĭà¼ĭà¼ĭà¼ĭà¼ĭà¼ĭà¼ĭà¼ĭà¼ĭ":8296,"à½ķà½ŀà½Ħà½¥":8297,"à¾®à½²":8298,"à½Ķà½Ķà½Ķà½Ķà½ķà½ķà½Ķà½Ķà½Ķà½ĸà½ļà½ķà½Ľ":8299,"à½¦à½Ħà½Ĥ":8300,"à½¦à½łà½Ĥà½ł":8301,"à½¢à½Ģà½¢":8302,"à½´à½º":8303,"à¾±à¾Ńà¼į":8304,"à½£à½Ĥà½Ļ":8305,"à½Ĥà½¦à½Ĳà½ĺà½¦":8306,"à½ħà½¡":8307,"à½ĸà½¦à½ĸà½ħ":8308,"à½ļà½łà½Ħ":8309,"à½Ķà½¢à½Ĳ":8310,"à½ĸà½ŀà½Ĥà½£":8311,"à½¡à½Ħà½ĸà½¢":8312,"à¾«à¾«à½²à¼ĭ":8313,"à½Ħà½ĵà½łà½ĳà½¦":8314,"à½ĸà½ıà½Ĥà½¦à½Ķà½ł":8315,"à¼§à¼¢à¼¥":8316,"à¼§à¼¤à¼£":8317,"à½Ĵà½£à½¦":8318,"à½Įà½Ĥ":8319,"à½ĺà½İà½£":8320,"à¾²à½±à½²à½¿":8321,"à¼¡à¼¨à¼¡à¼¥":8322,"à¼¡à¼¨à¼©à¼¦":8323,"à¼¡à¼¨à¼¨à¼¥":8324,"à¾¶à½´à½¿à¼į":8325,"Ġà¼¡à¼¡à¼¢":8326,"à¼©à¼©à¼£":8327,"à¾ºà½±à½²à¼ĭ":8328,"à¾·à¾£à½¿à¼į":8329,"à¼©à¼łà¼¤":8330,"à¼§à¼¦à¼¡":8331,"à½įà½£":8332,"à¼įà¼ĭà¼ĭà¼ĭà¼ĭà¼ĭà¼ĭà¼ĭà¼ĭà¼ĭà¼ĭà¼ĭà¼ĭà¼ĭà¼ĭà¼ĭà¼ĭà¼ĭà¼ĭà¼ĭà¼ĭà¼ĭà¼ĭà¼ĭà¼ĭà¼ĭà¼ĭà¼ĭà¼ĭà¼ĭà¼ĭà¼ĭà¼ĭà¼ĭà¼ĭà¼ĭà¼ĭà¼ĭà¼ĭà¼ĭà¼ĭà¼ĭà¼ĭà¼ĭà¼ĭà¼ĭà¼ĭà¼ĭà¼ĭà¼ĭà¼ĭà¼ĭà¼ĭà¼ĭà¼ĭà¼ĭà¼ĭà¼ĭà¼ĭà¼ĭà¼ĭà¼ĭà¼ĭà¼ĭà¼ĭà¼ĭà¼ĭà¼ĭà¼ĭà¼ĭà¼ĭà¼ĭà¼ĭà¼ĭà¼ĭà¼ĭà¼ĭà¼ĭà¼ĭà¼ĭà¼ĭà¼ĭà¼ĭà¼ĭà¼ĭà¼ĭà¼ĭà¼ĭà¼ĭà¼ĭà¼ĭà¼ĭà¼ĭà¼ĭà¼ĭà¼ĭà¼ĭà¼ĭà¼ĭà¼ĭà¼ĭà¼ĭ":8333,"Ġà½¢à½Ĥ":8334,"Ġà½ĳà½ĺà½Ħà½¦":8335,"Ġà½Ķà½ī":8336,"Ġà¼¡à¼£à¼ł":8337,"à½ĸà½ĸà½ĳà½Ĥ":8338,"à½ĸà½ĵà½ĺ":8339,"à½¢à½£à½Ĥ":8340,"à½ĵà½ĸà½Łà½Ħ":8341,"à½ĵà½ĵà½ł":8342,"à½ħà½ı":8343,"à½Ķà½¢à½ĳà½Ķ":8344,"à¾±à½¼à¾ħ":8345,"à¾²à½¼à½¿à¼ĭ":8346,"à¾¦à½±à½²à¼į":8347,"à¾Łà¼ĭà¼º":8348,"à¾Ĵà¾±à½´à½´":8349,"à¾³à½¼à¼·":8350,"à½²à¼įà¼įà¼Į":8351,"à¾¤à¾±à½½":8352,"à½±à½´à¾ĥà¼ĭà¼´":8353,"à¼§à¼¢à¼£":8354,"à½±à¼įà¼ĭà¼ĭà¼ĭà¼ĭà¼ĭ":8355,"à½Ĺà½¡à½ł":8356,"à¼¨à¼¦à¼©":8357,"à½ķà½Ĭà½ĳ":8358,"à¾µà½½à¼ĭ":8359,"à¼¡à¼§à¼¥à¼¢":8360,"à¼¡à¼§à¼¥à¼¤":8361,"à¼¡à¼¨à¼¦à¼¦":8362,"à¼Ģà½ģà½İ":8363,"à¼ĭà½µà½¾à¼įà¼į":8364,"à½Ĥà½İà½Ĳ":8365,"Ġà¼½à¼¼":8366,"à¼§à¼©à¼¨":8367,"Ġà¼¨à¼¢":8368,"à½ľà½¡":8369,"à¼įà¼ĭà¼ĭà¼ĭà¼ĭà¼ĭà¼ĭà¼ĭà¼ĭà¼ĭà¼ĭà¼ĭà¼ĭà¼ĭà¼ĭà¼ĭà¼ĭà¼ĭà¼ĭà¼ĭà¼ĭà¼ĭà¼ĭà¼ĭà¼ĭà¼ĭà¼ĭà¼ĭà¼ĭà¼ĭ":8370,"à½ºà¼ĭà½Īà¾²à½²":8371,"Ġà¼ĭà¼ĭà¼ĭà¼ĭà¼ĭà¼ĭà¼ĭà¼ĭà¼ĭà¼ĭà¼ĭà¼ĭà¼ĭà¼ĭà¼ĭà¼ĭà¼ĭà¼ĭà¼ĭà¼ĭà¼ĭà¼ĭà¼ĭà¼ĭà¼ĭà¼ĭà¼ĭà¼ĭà¼ĭà¼ĭà¼ĭà¼ĭà¼ĭà¼ĭà¼ĭà¼ĭà¼ĭà¼ĭà¼ĭà¼ĭà¼ĭà¼ĭà¼ĭà¼ĭà¼ĭà¼ĭà¼ĭà¼ĭà¼ĭà¼ĭà¼ĭà¼ĭà¼ĭà¼ĭà¼ĭà¼ĭà¼ĭà¼ĭà¼ĭà¼ĭà¼ĭà¼ĭà¼ĭà¼ĭà¼ĭà¼ĭà¼ĭà¼ĭà¼ĭà¼ĭà¼ĭà¼ĭà¼ĭà¼ĭà¼ĭà¼ĭà¼ĭà¼ĭà¼ĭà¼ĭà¼ĭ":8372,"à¼įà¼ĭà¼ĭà¼ĭà¼ĭà¼ĭà¼ĭà¼ĭà¼ĭà¼ĭà¼ĭà¼ĭà¼ĭà¼ĭà¼ĭà¼ĭà¼ĭà¼ĭà¼ĭà¼ĭà¼ĭà¼ĭà¼ĭà¼ĭà¼ĭà¼ĭà¼ĭà¼ĭà¼ĭà¼ĭà¼ĭà¼ĭà¼ĭà¼ĭà¼ĭà¼ĭà¼ĭà¼ĭà¼ĭà¼ĭà¼ĭà¼ĭà¼ĭà¼ĭà¼ĭà¼ĭà¼ĭà¼ĭà¼ĭà¼ĭà¼ĭà¼ĭà¼ĭà¼ĭà¼ĭà¼ĭà¼ĭ":8373,"à¼įà¼ĭà¼ĭà¼ĭà¼ĭà¼ĭà¼ĭà¼ĭà¼ĭà¼ĭà¼ĭà¼ĭà¼ĭà¼ĭà¼ĭà¼ĭà¼ĭà¼ĭà¼ĭà¼ĭà¼ĭà¼ĭà¼ĭà¼ĭà¼ĭà¼ĭà¼ĭà¼ĭà¼ĭà¼ĭà¼ĭà¼ĭà¼ĭà¼ĭà¼ĭà¼ĭà¼ĭà¼ĭà¼ĭà¼ĭà¼ĭà¼ĭà¼ĭà¼ĭà¼ĭà¼ĭà¼ĭà¼ĭà¼ĭà¼ĭà¼ĭà¼ĭà¼ĭà¼ĭà¼ĭà¼ĭà¼ĭà¼ĭà¼ĭà¼ĭà¼ĭà¼ĭà¼ĭà¼ĭà¼ĭà¼ĭà¼ĭà¼ĭà¼ĭà¼ĭà¼ĭà¼ĭà¼ĭà¼ĭà¼ĭà¼ĭà¼ĭà¼ĭà¼ĭà¼ĭà¼ĭà¼ĭà¼ĭà¼ĭà¼ĭà¼ĭà¼ĭà¼ĭà¼ĭà¼ĭà¼ĭà¼ĭà¼ĭà¼ĭà¼ĭà¼ĭà¼ĭà¼ĭà¼ĭà¼ĭà¼ĭà¼ĭà¼ĭà¼ĭà¼ĭà¼ĭ":8374,"ĠĠĠĠĠĠĠĠĠĠĠĠĠĠĠĠĠĠĠĠĠĠĠĠĠĠĠĠĠĠĠĠĠĠĠĠĠĠĠĠĠĠĠĠĠĠĠĠĠĠĠĠĠĠĠĠĠĠĠĠĠĠĠĠ":8375,"à¼ĭà¾Ĳà½¼à¼ĭ":8376,"à½ĳà½¦à½ł":8377,"à½ºà¼ĭà¾¾":8378,"à½¼à¼ĭà¾±":8379,"à½ŀà½Ģ":8380,"à½Ĳà½£à½¦":8381,"à½Ĳà½Ĥà½ı":8382,"à¾Ĵà¾±à¾Ĵà¾±à½´":8383,"à¼ĭà¼įà¼ĭà¼ĭà¼ĭà¼ĭà¼ĭà¼ĭà¼ĭà¼ĭà¼ĭà¼ĭà¼ĭà¼ĭà¼ĭà¼ĭà¼ĭà¼ĭà¼ĭà¼ĭà¼ĭà¼ĭà¼ĭà¼ĭà¼ĭà¼ĭà¼ĭà¼ĭà¼ĭà¼ĭà¼ĭà¼ĭà¼ĭà¼ĭà¼ĭà¼ĭà¼ĭà¼ĭà¼ĭà¼ĭà¼ĭà¼ĭà¼ĭà¼ĭà¼ĭà¼ĭà¼ĭà¼ĭà¼ĭà¼ĭà¼ĭà¼ĭà¼ĭà¼ĭà¼ĭà¼ĭà¼ĭà¼ĭà¼ĭà¼ĭà¼ĭà¼ĭà¼ĭà¼ĭà¼ĭà¼ĭà¼ĭà¼ĭà¼ĭà¼ĭà¼ĭà¼ĭà¼ĭà¼ĭà¼ĭà¼ĭà¼ĭà¼ĭà¼ĭà¼ĭà¼ĭà¼ĭ":8384,"à¾¡à¾²à¾Ģà¼ĭ":8385,"à¾³à½±à½²à½¾à¼ĭ":8386,"à¾¦à½»à¼ĭ":8387,"à½ĸà½Łà½Ĥ":8388,"à½ĺà½ĳà½£":8389,"à½ģà½ĺà½¦à½¢":8390,"à¾·à½´à½¾à¼į":8391,"à½łà½Ĥà½£à½ĸà½ł":8392,"à½ĳà½Ģà½łà½ĸà½ł":8393,"à¼§à¼£à¼¢":8394,"à½Ĵà½Łà½ĩ":8395,"à¼ĭà½Īà¾¤à¾±à½²à¼ĭ":8396,"à¼ĭà½Īà¾·à½²à¼ĭ":8397,"à¼¨à¼¢à¼ł":8398,"à¾µà½ºà½¾à¼ĭ":8399,"à½¼à¼Ķà¼ĭà¼ĭà¼ĭ":8400,"à¾Ńà½±à¼įà¼į":8401,"à¼¡à¼¤à¼¡à¼¦":8402,"à½Łà½Ħà½Łà½Ħ":8403,"à¼¡à¼§à¼¤à¼ł":8404,"à¼¡à¼§à¼¥à¼©":8405,"à¼¡à¼¨à¼£à¼¤":8406,"à¾łà½ºà¼į":8407,"à½¢à½ĳà½ĩ":8408,"à½Ķà½£à½Ķ":8409,"à¼ĭà¼Īà¼Ī":8410,"à¼įà¼ĭà¼ĭà¼ĭà¼ĭà¼ĭà¼ĭà¼ĭà¼ĭà¼ĭà¼ĭà¼ĭà¼ĭà¼ĭà¼ĭà¼ĭà¼ĭà¼ĭà¼ĭà¼ĭà¼ĭà¼ĭà¼ĭà¼ĭà¼ĭà¼ĭà¼ĭà¼ĭà¼ĭà¼ĭà¼ĭà¼ĭà¼ĭà¼ĭà¼ĭà¼ĭà¼ĭà¼ĭà¼ĭà¼ĭà¼ĭà¼ĭà¼ĭà¼ĭà¼ĭà¼ĭà¼ĭà¼ĭà¼ĭà¼ĭà¼ĭà¼ĭà¼ĭà¼ĭà¼ĭà¼ĭà¼ĭà¼ĭà¼ĭà¼ĭà¼ĭà¼ĭà¼ĭà¼ĭà¼ĭà¼ĭà¼ĭà¼ĭà¼ĭà¼ĭà¼ĭà¼ĭà¼ĭà¼ĭà¼ĭà¼ĭà¼ĭ":8411,"à¾ºà¼į":8412,"Ġà¼ĭà¼ĭà¼ĭà¼ĭà¼ĭà¼ĭà¼ĭà¼ĭà¼ĭà¼ĭà¼ĭà¼ĭà¼ĭà¼ĭà¼ĭà¼ĭà¼ĭà¼ĭà¼ĭà¼ĭà¼ĭà¼ĭà¼ĭà¼ĭà¼ĭà¼ĭà¼ĭà¼ĭà¼ĭà¼ĭà¼ĭà¼ĭà¼ĭà¼ĭà¼ĭà¼ĭà¼ĭà¼ĭà¼ĭà¼ĭà¼ĭà¼ĭà¼ĭà¼ĭà¼ĭà¼ĭà¼ĭà¼ĭà¼ĭà¼ĭà¼ĭà¼ĭà¼ĭà¼ĭà¼ĭà¼ĭà¼ĭà¼ĭà¼ĭà¼ĭà¼ĭà¼ĭà¼ĭà¼ĭà¼ĭà¼ĭà¼ĭà¼ĭà¼ĭà¼ĭà¼ĭà¼ĭà¼ĭ":8413,"à½ľà½£à½ł":8414,"à½¦à½ĵà½ĳ":8415,"à½ĸà½ĵà½ł":8416,"à½łà½ĺà½¦":8417,"à¾²à¾³à½¼":8418,"à½ħà½ħ":8419,"à¾Ĵà¾±à½¿à¼į":8420,"à½Ħà½¦à½łà½ĳ":8421,"à½ĵà½¦à½ĸà½Ł":8422,"à¾¡à¾²à¾Ģ":8423,"à½ºà¼įà¼Ī":8424,"à¾¤à¾¤à¾±à½¼":8425,"à½±à¾ħ":8426,"à¾©à¾ª":8427,"à¾¨à¼ĭà¼Ħà¼ħà¼įà¼į":8428,"à½ĸà½¤à½ĳà½Ł":8429,"à½Ħà½ĵà½£":8430,"à½¿à¼ĭà½¾à¼ĭ":8431,"à¼§à¼¡à¼©":8432,"à¼§à¼£à¼¦":8433,"à½Ĵà½ķà½¥":8434,"à½Ĵà½ķà½Ģ":8435,"à½Ĺà½Ŀà½ĵ":8436,"à¾ļà¾Ģà¼ĭ":8437,"à¼ĭà¾ł":8438,"à¼¡à¼¤à¼£à¼¨":8439,"à¼¡à¼§à¼©à¼§":8440,"à¼¡à¼¦à¼£à¼§":8441,"à¼¡à¼¦à¼¦à¼§":8442,"à¼įà¼įà¼įà¼įà¼į":8443,"à¾·à¾²à½±à½´à¾ĥà½¿à¼ĭ":8444,"à¼¦à¼¨à¼¡":8445,"à¼¡à¼¡à¼łà¼©":8446,"à¼įà¼ĭà¼ĭà¼ĭà¼ĭà¼ĭà¼ĭà¼ĭà¼ĭà¼ĭà¼ĭà¼ĭà¼ĭà¼ĭà¼ĭà¼ĭà¼ĭà¼ĭà¼ĭà¼ĭà¼ĭà¼ĭà¼ĭà¼ĭà¼ĭà¼ĭà¼ĭà¼ĭà¼ĭà¼ĭà¼ĭà¼ĭà¼ĭà¼ĭà¼ĭà¼ĭà¼ĭà¼ĭà¼ĭà¼ĭà¼ĭà¼ĭà¼ĭà¼ĭà¼ĭà¼ĭà¼ĭà¼ĭà¼ĭà¼ĭà¼ĭà¼ĭà¼ĭà¼ĭà¼ĭà¼ĭà¼ĭà¼ĭà¼ĭà¼ĭà¼ĭà¼ĭà¼ĭà¼ĭà¼ĭà¼ĭà¼ĭà¼ĭà¼ĭà¼ĭà¼ĭà¼ĭà¼ĭà¼ĭà¼ĭà¼ĭà¼ĭà¼ĭà¼ĭà¼ĭà¼ĭà¼ĭà¼ĭà¼ĭà¼ĭà¼ĭà¼ĭà¼ĭà¼ĭ":8447,"à¼įà¼ĭà¼ĭà¼ĭà¼ĭà¼ĭà¼ĭà¼ĭà¼ĭà¼ĭà¼ĭà¼ĭà¼ĭà¼ĭà¼ĭà¼ĭà¼ĭà¼ĭà¼ĭà¼ĭà¼ĭà¼ĭà¼ĭà¼ĭà¼ĭà¼ĭà¼ĭà¼ĭà¼ĭà¼ĭà¼ĭà¼ĭà¼ĭà¼ĭà¼ĭà¼ĭà¼ĭà¼ĭà¼ĭà¼ĭà¼ĭà¼ĭà¼ĭà¼ĭà¼ĭà¼ĭà¼ĭà¼ĭà¼ĭà¼ĭà¼ĭà¼ĭà¼ĭà¼ĭà¼ĭà¼ĭà¼ĭà¼ĭà¼ĭà¼ĭà¼ĭà¼ĭà¼ĭà¼ĭà¼ĭà¼ĭà¼ĭà¼ĭà¼ĭà¼ĭà¼ĭà¼ĭà¼ĭà¼ĭà¼ĭà¼ĭà¼ĭà¼ĭà¼ĭà¼ĭà¼ĭà¼ĭà¼ĭà¼ĭà¼ĭà¼ĭà¼ĭ":8448,"à¼įà¼ĭà¼ĭà¼ĭà¼ĭà¼ĭà¼ĭà¼ĭà¼ĭà¼ĭà¼ĭà¼ĭà¼ĭà¼ĭà¼ĭà¼ĭà¼ĭà¼ĭà¼ĭà¼ĭà¼ĭà¼ĭà¼ĭà¼ĭà¼ĭà¼ĭà¼ĭà¼ĭà¼ĭà¼ĭà¼ĭà¼ĭà¼ĭà¼ĭà¼ĭà¼ĭà¼ĭà¼ĭà¼ĭà¼ĭà¼ĭà¼ĭà¼ĭà¼ĭà¼ĭà¼ĭà¼ĭ":8449,"à¼įà¼ĭà¼ĭà¼ĭà¼ĭà¼ĭà¼ĭà¼ĭà¼ĭà¼ĭà¼ĭà¼ĭà¼ĭà¼ĭà¼ĭà¼ĭà¼ĭà¼ĭà¼ĭà¼ĭà¼ĭà¼ĭà¼ĭà¼ĭà¼ĭà¼ĭà¼ĭà¼ĭà¼ĭà¼ĭà¼ĭà¼ĭà¼ĭà¼ĭà¼ĭà¼ĭà¼ĭà¼ĭà¼ĭà¼ĭà¼ĭà¼ĭ":8450,"à¼ĭà½±à½¿à¼ĭà½¾à¼ĭ":8451,"Ġà½Ĳà½Ĥ":8452,"Ġà½ķà½£":8453,"à½¦à½£à½ĵ":8454,"à½Ĥà½Ĥà½ı":8455,"à½ĸà½ĸà½Ł":8456,"à½ĸà½Ħà½ĵ":8457,"à½²à¼ĭà¾Ģà¼ĭ":8458,"à½£à½ĸà½¦à½ĺ":8459,"à½ģà½Ħà½Ĥ":8460,"à½ıà½¦à½ł":8461,"à½ĺà½¦à½ĸà½¢":8462,"à½ĺà½¦à½łà½ĩ":8463,"à½ĺà½¦à½łà½ģ":8464,"à½īà½Ĥà½¦":8465,"à½īà½İ":8466,"à¾±à¼ĭà¼ĭ":8467,"à¾Ĺà¼µà½ºà¼ĭ":8468,"à¾·à¾±à½º":8469,"à½¢à½Ħà½£":8470,"à½Ĥà½ĵà½¦à½¡":8471,"à½¢à½ĸà½ĸ":8472,"à¾¡à½¼à¼Ķ":8473,"à¾Ĳà½´à¼·":8474,"à½Ħà½Ħà½ļ":8475,"à½ĳà½Ĥà½Ĥà½Ķ":8476,"à¼¨à¼¢à¼§":8477,"à¼¡à¼¦à¼¥à¼¡":8478,"à¼¡à¼¨à¼£à¼¨":8479,"à¼¡à¼¨à¼¤à¼¥":8480,"à½ĥà½¨":8481,"Ġà½Ĳà½ĵà½¢":8482,"à¼įà¼ĭà¼ĭà¼ĭà¼ĭà¼ĭà¼ĭà¼ĭà¼ĭà¼ĭà¼ĭà¼ĭà¼ĭà¼ĭà¼ĭà¼ĭà¼ĭà¼ĭà¼ĭà¼ĭà¼ĭà¼ĭà¼ĭà¼ĭà¼ĭà¼ĭà¼ĭà¼ĭà¼ĭà¼ĭà¼ĭà¼ĭà¼ĭà¼ĭà¼ĭà¼ĭà¼ĭà¼ĭà¼ĭà¼ĭà¼ĭà¼ĭà¼ĭà¼ĭà¼ĭà¼ĭà¼ĭà¼ĭà¼ĭà¼ĭà¼ĭà¼ĭà¼ĭà¼ĭà¼ĭà¼ĭà¼ĭà¼ĭà¼ĭà¼ĭà¼ĭà¼ĭà¼ĭà¼ĭà¼ĭà¼ĭ":8483,"à¼§à¼©à¼£":8484,"à¼¨à¼łà¼¦":8485,"à¼§à¼¨à¼¥":8486,"à¼¡à¼łà¼łà¼¤":8487,"à½£à½Ķà½ĸà½ł":8488,"à¼ĭà¾¾à¾¾à¾¾à¾¾à¾¾à¾¾à¾¾à¾¾à¾¾":8489,"à¼įà¼ĭà¼ĭà¼ĭà¼ĭà¼ĭà¼ĭà¼ĭà¼ĭà¼ĭà¼ĭà¼ĭà¼ĭà¼ĭà¼ĭà¼ĭà¼ĭà¼ĭà¼ĭà¼ĭà¼ĭà¼ĭà¼ĭà¼ĭà¼ĭà¼ĭà¼ĭà¼ĭà¼ĭà¼ĭà¼ĭà¼ĭà¼ĭà¼ĭà¼ĭà¼ĭà¼ĭà¼ĭà¼ĭà¼ĭà¼ĭà¼ĭà¼ĭà¼ĭà¼ĭà¼ĭà¼ĭà¼ĭà¼ĭà¼ĭ":8490,"Ġà¼ĭà¼ĭà¼ĭà¼ĭà¼ĭà¼ĭà¼ĭà¼ĭà¼ĭà¼ĭà¼ĭà¼ĭà¼ĭà¼ĭà¼ĭà¼ĭà¼ĭà¼ĭà¼ĭà¼ĭà¼ĭà¼ĭà¼ĭà¼ĭà¼ĭà¼ĭà¼ĭà¼ĭà¼ĭà¼ĭà¼ĭà¼ĭà¼ĭà¼ĭà¼ĭà¼ĭà¼ĭà¼ĭà¼ĭà¼ĭà¼ĭà¼ĭà¼ĭà¼ĭà¼ĭà¼ĭà¼ĭà¼ĭà¼ĭà¼ĭà¼ĭà¼ĭà¼ĭà¼ĭà¼ĭà¼ĭà¼ĭà¼ĭà¼ĭà¼ĭà¼ĭà¼ĭà¼ĭà¼ĭà¼ĭà¼ĭà¼ĭà¼ĭà¼ĭà¼ĭà¼ĭà¼ĭà¼ĭà¼ĭà¼ĭà¼ĭà¼ĭà¼ĭà¼ĭà¼ĭà¼ĭà¼ĭà¼ĭà¼ĭà¼ĭà¼ĭà¼ĭà¼ĭà¼ĭà¼ĭà¼ĭà¼ĭà¼ĭà¼ĭà¼ĭà¼ĭà¼ĭà¼ĭà¼ĭ":8491,"à¾²à½½à½¾à¼į":8492,"Ġà½ĸà½ıà½Ĥà½¦":8493,"Ġà½¡à½£":8494,"à½¦à½Ĥà½¦à½£":8495,"à½ĸà½Į":8496,"à½Ķà½ĸà½¦à½ĺ":8497,"à¾±à¾ĥà¼ĭ":8498,"à½łà½łà½ĸ":8499,"à½£à½ĺà½ģ":8500,"à½´à¼ĭà¼ĭà¼ĭ":8501,"à¾Ĵà½±à½²":8502,"à½ĺà½¦à½Ķà½Ģ":8503,"à¾£à¾¤à½ºà¼ĭ":8504,"à¾¡à¼µà½¼à¼ĭ":8505,"à½ħà½ĵà½Ĥà½Ħ":8506,"à½Ľà½ħ":8507,"à½¨à½¨à½ł":8508,"à½ĵà½Ħà½ĵà½¦":8509,"à½ĸà½ħà½¦à½¦":8510,"à½ĸà½¦à½ĺà½Ķà½ł":8511,"à¾¡à½¼à½¼à¼ĭ":8512,"à½´à¼įà¼ĭà¼ĭà¼ĭ":8513,"à½Ĥà½ıà½ĵà½£":8514,"à½Ĥà½ıà½ĵà½ĸà½ŀ":8515,"à¼§à¼¥à¼§":8516,"à¼©à¼¦à¼§":8517,"à½Įà½ĳ":8518,"à¾µà¾ĥà¼ĭ":8519,"à¾Ħà¼µà¼ĭ":8520,"à¼¡à¼§à¼©à¼¦":8521,"à¼¡à¼¦à¼¢à¼§":8522,"à¼¡à¼¦à¼¥à¼ł":8523,"à¼¡à¼¨à¼¤à¼ł":8524,"à¼¡à¼¨à¼¥à¼¡":8525,"à¼¡à¼¨à¼¦à¼¨":8526,"à¼¡à¼¨à¼¨à¼£":8527,"à¼ĭà¾¢à½²à½¿à¼į":8528,"à¾ºà½±à½²à½¿à¼ĭ":8529,"à¼¡à¼¢à¼łà¼¦":8530,"à½ľà½Ħ":8531,"à¼łà¼łà¼łà¼łà¼łà¼łà¼łà¼łà¼łà¼łà¼ł":8532,"à¼įà¼ĭà¼ĭà¼ĭà¼ĭà¼ĭà¼ĭà¼ĭà¼ĭà¼ĭà¼ĭà¼ĭà¼ĭà¼ĭà¼ĭà¼ĭà¼ĭà¼ĭà¼ĭà¼ĭà¼ĭà¼ĭà¼ĭà¼ĭà¼ĭà¼ĭà¼ĭà¼ĭà¼ĭà¼ĭà¼ĭà¼ĭà¼ĭà¼ĭà¼ĭà¼ĭà¼ĭà¼ĭà¼ĭà¼ĭà¼ĭà¼ĭà¼ĭà¼ĭà¼ĭà¼ĭà¼ĭà¼ĭà¼ĭà¼ĭà¼ĭà¼ĭà¼ĭà¼ĭà¼ĭà¼ĭà¼ĭà¼ĭà¼ĭà¼ĭà¼ĭ":8533,"Ġà½Ĥà½¡à½Ĥ":8534,"Ġà½Ļà½Ģ":8535,"à½ĵà½Ĥà½ı":8536,"à½²à¼ĭà¾Ľà¼ĭ":8537,"à½ºà¼ĭà¼Ŀà¼į":8538,"à½ķà½ĺà½¢":8539,"à½ķà½łà½Ħ":8540,"à½ģà½ĳà½Ħ":8541,"à½ļà½¤":8542,"à¾³à½»à¼į":8543,"à¾©à¾ªà½²à¼ĭ":8544,"à½ĺà½Ĳà½ĵ":8545,"à½§à½Ĭ":8546,"à¼¡à¼¡à¼©à¼¨":8547,"à½Ķà½ĳà½ĵ":8548,"à¼łà¼¡à¼¡":8549,"à½ļà½Ħà½¦à½Ķà½ł":8550,"à¼©à¼§à¼ł":8551,"à¼©à¼¥à¼¦":8552,"à¼©à¼¥à¼¢":8553,"à½ķà½Ĭà½ħ":8554,"à¾µà¾ŀà½´à¼ĭ":8555,"à¼¡à¼łà¼¡à¼§":8556,"à¾²à¼įà¼įà¼įà¼į":8557,"à¾ļà½½à¼į":8558,"à¼¡à¼§à¼£à¼¤":8559,"à¼¡à¼¨à¼§à¼¡":8560,"à¼ĭà¼¹à½¼à¼ĭ":8561,"Ġà¼łà¼łà¼łà¼łà¼ł":8562,"à¾¡à¾·à½¼à¼ĭà¾ħ":8563,"à¾¼à½²à¼ĭ":8564,"à¾ŀà¾ŀà¼į":8565,"à½´à¼ĭà½Īà¾²à½ºà¼ĭ":8566,"Ġĉĉĉĉĉĉ":8567,"à¼įà¼ĭà¼ĭà¼ĭà¼ĭà¼ĭà¼ĭà¼ĭà¼ĭà¼ĭà¼ĭà¼ĭà¼ĭà¼ĭà¼ĭà¼ĭà¼ĭà¼ĭà¼ĭà¼ĭà¼ĭà¼ĭà¼ĭà¼ĭà¼ĭà¼ĭà¼ĭà¼ĭà¼ĭà¼ĭà¼ĭà¼ĭà¼ĭà¼ĭà¼ĭà¼ĭà¼ĭà¼ĭà¼ĭà¼ĭ":8568,"Ġà½£à½Ħ":8569,"à½¦à½£à½ĺ":8570,"à½¦à½ĺà½ł":8571,"à½ĳà½ĵà½ł":8572,"à½Ĥà½Ĥà½ĳ":8573,"à½Ĥà½ª":8574,"à½ĸà½ĺà½īà½ĺ":8575,"à½ĺà½¢à½Ħ":8576,"à¼įà¼ĭà¼įà¼į":8577,"à¾±à½½à½¿à¼į":8578,"à¾Łà¾Łà½ºà¼į":8579,"à½Ĩà½¤à½¦":8580,"à¾£à¾²à¼ĭ":8581,"à½ĵà½¦à½ĸà½ĳà½Ĥ":8582,"à¾¡à½»à¼ĭ":8583,"à½łà½Ĭ":8584,"à¾©à¾±à¼ĭ":8585,"à¾Ĳà¾±à½ºà¼·":8586,"à½¨à½łà½Ħ":8587,"à½ĳà½Ģà½łà½Ĳ":8588,"à½ĺà½ļà½ĺà½¦à½ĺ":8589,"Ġà¼Ģ":8590,"à¾ľà½²à¼įà¼į":8591,"à¼©à¼£à¼§":8592,"à¼©à¼¥à¼¨":8593,"à½Ĺà½Łà½ĩ":8594,"à¾ªà¾Ńà¼ĭ":8595,"à¼¡à¼¥à¼¢à¼§":8596,"à¼¡à¼§à¼¨à¼¡":8597,"à¼¡à¼¦à¼¤à¼§":8598,"à½«à½Ĥà½¥":8599,"à¾łà½¼":8600,"à½¼à¼·à¼į":8601,"à¼įà¼ĭà¼ĭà¼ĭà¼ĭà¼ĭà¼ĭà¼ĭà¼ĭà¼ĭà¼ĭà¼ĭà¼ĭà¼ĭà¼ĭà¼ĭà¼ĭà¼ĭà¼ĭà¼ĭà¼ĭà¼ĭà¼ĭà¼ĭà¼ĭà¼ĭà¼ĭà¼ĭà¼ĭà¼ĭà¼ĭà¼ĭà¼ĭà¼ĭà¼ĭà¼ĭà¼ĭà¼ĭà¼ĭà¼ĭà¼ĭà¼ĭà¼ĭà¼ĭà¼ĭà¼ĭà¼ĭà¼ĭà¼ĭà¼ĭà¼ĭà¼ĭà¼ĭà¼ĭà¼ĭà¼ĭà¼ĭà¼ĭà¼ĭà¼ĭà¼ĭà¼ĭà¼ĭà¼ĭà¼ĭà¼ĭà¼ĭà¼ĭà¼ĭà¼ĭà¼ĭà¼ĭà¼ĭà¼ĭ":8602,"Ġà¼½à¼į":8603,"Ġà¼¨à¼£":8604,"à¼©à¼łà¼¡":8605,"à¾·à¾²à¾Ģà½¾à¼ĭ":8606,"à¼¡à¼§à¼łà¼§":8607,"à¼įà¼ĭà¼ĭà¼ĭà¼ĭà¼ĭà¼ĭà¼ĭà¼ĭà¼ĭà¼ĭà¼ĭà¼ĭà¼ĭà¼ĭà¼ĭà¼ĭà¼ĭà¼ĭà¼ĭà¼ĭà¼ĭà¼ĭà¼ĭà¼ĭà¼ĭà¼ĭà¼ĭà¼ĭà¼ĭà¼ĭà¼ĭà¼ĭà¼ĭà¼ĭà¼ĭà¼ĭà¼ĭà¼ĭà¼ĭà¼ĭà¼ĭà¼ĭà¼ĭà¼ĭà¼ĭà¼ĭà¼ĭà¼ĭà¼ĭà¼ĭà¼ĭà¼ĭà¼ĭà¼ĭà¼ĭà¼ĭà¼ĭà¼ĭà¼ĭà¼ĭà¼ĭà¼ĭà¼ĭà¼ĭà¼ĭà¼ĭà¼ĭà¼ĭà¼ĭà¼ĭà¼ĭà¼ĭà¼ĭà¼ĭà¼ĭà¼ĭà¼ĭà¼ĭà¼ĭà¼ĭà¼ĭà¼ĭà¼ĭà¼ĭà¼ĭà¼ĭà¼ĭà¼ĭà¼ĭà¼ĭà¼ĭà¼ĭà¼ĭ":8608,"à¼įà¼ĭà¼ĭà¼ĭà¼ĭà¼ĭà¼ĭà¼ĭà¼ĭà¼ĭà¼ĭà¼ĭà¼ĭà¼ĭà¼ĭà¼ĭà¼ĭà¼ĭà¼ĭà¼ĭà¼ĭà¼ĭà¼ĭà¼ĭà¼ĭà¼ĭà¼ĭà¼ĭà¼ĭà¼ĭà¼ĭà¼ĭà¼ĭà¼ĭà¼ĭà¼ĭà¼ĭà¼ĭà¼ĭà¼ĭà¼ĭà¼ĭà¼ĭà¼ĭà¼ĭà¼ĭà¼ĭà¼ĭà¼ĭà¼ĭà¼ĭà¼ĭà¼ĭà¼ĭà¼ĭà¼ĭà¼ĭà¼ĭà¼ĭà¼ĭà¼ĭà¼ĭà¼ĭà¼ĭà¼ĭà¼ĭà¼ĭà¼ĭà¼ĭà¼ĭà¼ĭà¼ĭà¼ĭà¼ĭà¼ĭà¼ĭà¼ĭà¼ĭà¼ĭà¼ĭà¼ĭà¼ĭà¼ĭà¼ĭà¼ĭà¼ĭà¼ĭà¼ĭà¼ĭà¼ĭà¼ĭà¼ĭà¼ĭà¼ĭà¼ĭà¼ĭà¼ĭà¼ĭ":8609,"à¾Īà¾Īà¾Īà¾Īà¾Īà¾Īà¾Īà¾Īà¾Īà¾Ī":8610,"à½¿à¼įà¼Įà¼Įà¼Įà¼į":8611,"à½Łà½Ĩà½«à½Ħ":8612,"Ġà½ĸà½ħà½ĳ":8613,"Ġà½Ľà½ĺ":8614,"à¼ī":8615,"à½Ĥà½Ķà½ĳ":8616,"à½¢à½ĺà½ł":8617,"à½Ħà½ĺà½ĳ":8618,"à¾²à¾·à½²":8619,"à½¡à½Ķà½¢":8620,"à½¡à½īà½ł":8621,"à½Ĩà½Į":8622,"à¾Ĵà¾·à½¼à¼ĭ":8623,"à½ĳà½Ĥà½ķ":8624,"à½ĳà½Ĥà½ĳà½Ĥ":8625,"à½Łà½Ĥà½Ł":8626,"à¾³à½¿à¼į":8627,"à¾³à½±à¾Ģ":8628,"à½¢à½Ħà½ĳà½ĸà½Ħ":8629,"à¾¨à¾¨à½²à¼į":8630,"à½Ĥà½ĵà½¦à½ı":8631,"à½¼à¼įà¼Ħà¼ħà¼ħà¼įà¼į":8632,"à¾³à½¼à¼ĭà½Īà½²":8633,"Ġà¼ģ":8634,"à½Ĳà½Ĥà½¥à½ĳ":8635,"à½Īà¾¡à½º":8636,"à½Ĺà½Łà½ĳ":8637,"Ġà½¦à½ĸ":8638,"à¾ļà¾²à¾Ģà¼ĭ":8639,"à¼¡à¼£à¼¥à¼¤":8640,"à¼¡à¼£à¼¦à¼¨":8641,"à¼¡à¼§à¼¤à¼¦":8642,"à¼¡à¼¨à¼§à¼¨":8643,"à¾¶à½¾":8644,"à¼§à¼§à¼¦":8645,"à¾Łà½´à¼įà¼ĭà¼ĭà¼ĭà¼ĭà¼ĭ":8646,"à¼§à¼¦à¼©":8647,"Ġà¼¡à¼łà¼¡":8648,"à¼¡à¼¨à¼łà¼¤":8649,"à½§à½§à½§à½§à½§à½§à½§à½§à½§à½§à½§à½§":8650,"Ġà¼ĭà¼ĭà¼ĭà¼ĭà¼ĭà¼ĭà¼ĭà¼ĭà¼ĭà¼ĭà¼ĭà¼ĭà¼ĭà¼ĭà¼ĭà¼ĭà¼ĭà¼ĭà¼ĭà¼ĭà¼ĭà¼ĭà¼ĭà¼ĭà¼ĭà¼ĭà¼ĭà¼ĭà¼ĭà¼ĭà¼ĭà¼ĭà¼ĭà¼ĭà¼ĭà¼ĭà¼ĭà¼ĭà¼ĭà¼ĭà¼ĭà¼ĭà¼ĭà¼ĭà¼ĭà¼ĭà¼ĭà¼ĭà¼ĭà¼ĭà¼ĭà¼ĭà¼ĭà¼ĭà¼ĭà¼ĭà¼ĭà¼ĭà¼ĭà¼ĭà¼ĭà¼ĭà¼ĭà¼ĭà¼ĭà¼ĭà¼ĭà¼ĭà¼ĭà¼ĭà¼ĭà¼ĭà¼ĭà¼ĭà¼ĭà¼ĭà¼ĭà¼ĭà¼ĭà¼ĭà¼ĭà¼ĭ":8651,"à½ķà½ŀà½Ł":8652,"à¾²à¼ĭà½³à½¿":8653,"Ġà¼ĭà¼ĭà¼ĭà¼ĭà¼ĭà¼ĭà¼ĭà¼ĭà¼ĭà¼ĭà¼ĭà¼ĭà¼ĭà¼ĭà¼ĭà¼ĭà¼ĭà¼ĭà¼ĭà¼ĭà¼ĭà¼ĭà¼ĭà¼ĭà¼ĭà¼ĭà¼ĭà¼ĭà¼ĭà¼ĭà¼ĭà¼ĭà¼ĭà¼ĭà¼ĭà¼ĭà¼ĭà¼ĭà¼ĭà¼ĭà¼ĭà¼ĭà¼ĭà¼ĭà¼ĭà¼ĭà¼ĭà¼ĭà¼ĭà¼ĭà¼ĭà¼ĭà¼ĭà¼ĭà¼ĭà¼ĭà¼ĭà¼ĭà¼ĭà¼ĭà¼ĭà¼ĭà¼ĭà¼ĭà¼ĭà¼ĭà¼ĭà¼ĭà¼ĭà¼ĭà¼ĭà¼ĭà¼ĭà¼ĭà¼ĭà¼ĭà¼ĭà¼ĭà¼ĭà¼ĭà¼ĭà¼ĭà¼ĭà¼ĭà¼ĭà¼ĭà¼ĭà¼ĭà¼ĭà¼ĭà¼ĭà¼ĭà¼ĭà¼ĭà¼ĭà¼ĭà¼ĭà¼ĭà¼ĭà¼ĭà¼ĭà¼ĭà¼ĭà¼ĭà¼ĭà¼ĭà¼ĭ":8654,"à¼ĭà½±à½²à¼į":8655,"à½¦à½ĺà½Ĳà½ł":8656,"à½ĵà½Ĥà½£":8657,"à½ĺà½Ĥà½ĵ":8658,"à½Ķà½Ķà½¢":8659,"à½Ķà½Łà½ĸ":8660,"à½£à½ĵà½Ħ":8661,"à½¡à½ĸà½¢":8662,"à¾Łà¾Ģà¼ĭ":8663,"à¾Łà¼µà½¼":8664,"à½ĸà½¦à½ł":8665,"à½ļà½ĳà½Ħ":8666,"à¾¡à½¾à¼į":8667,"à¾²à½´à½´":8668,"à¾²à½´à¼·à¼ĭ":8669,"à½¨à½Ħà½¦":8670,"à¾Ĵà¾±à¼ĭà¼º":8671,"à¾Ĺà½¼à½¼":8672,"à¾¡à½¼à¼·":8673,"à¾Ĳà½¼à½¼":8674,"à½ĳà½Ģà½¢à½ĵ":8675,"à½İà½ĺà½ł":8676,"à¼©à¼§à¼§":8677,"à¾µà½¾":8678,"à¾¤à¾²à½±à¼ĭ":8679,"à¼¡à¼łà¼¦à¼¥":8680,"à¾Ńà½±à½±à½´":8681,"à¼¡à¼£à¼¥à¼¨":8682,"à¼¡à¼¥à¼¦à¼¥":8683,"à¼¡à¼§à¼¡à¼£":8684,"à¾»à½´à¼į":8685,"Ġà¼£à¼łà¼ł":8686,"à½Łà½Ĳà½«à½¡":8687,"Ġà¼ĭà¼ĭà¼ĭà¼ĭà¼ĭà¼ĭà¼ĭà¼ĭà¼ĭà¼ĭà¼ĭà¼ĭà¼ĭà¼ĭà¼ĭà¼ĭà¼ĭà¼ĭà¼ĭà¼ĭà¼ĭà¼ĭà¼ĭà¼ĭà¼ĭà¼ĭà¼ĭà¼ĭà¼ĭà¼ĭà¼ĭà¼ĭà¼ĭà¼ĭà¼ĭà¼ĭà¼ĭà¼ĭà¼ĭà¼ĭà¼ĭà¼ĭà¼ĭà¼ĭà¼ĭà¼ĭà¼ĭà¼ĭà¼ĭà¼ĭà¼ĭà¼ĭà¼ĭà¼ĭà¼ĭà¼ĭà¼ĭà¼ĭà¼ĭà¼ĭà¼ĭà¼ĭà¼ĭà¼ĭà¼ĭà¼ĭà¼ĭà¼ĭà¼ĭà¼ĭà¼ĭà¼ĭà¼ĭà¼ĭà¼ĭà¼ĭà¼ĭ":8688,"Ġà¼¡à¼łà¼¤":8689,"à¼įà¼ĭà¼ĭà¼ĭà¼ĭà¼ĭà¼ĭà¼ĭà¼ĭà¼ĭà¼ĭà¼ĭà¼ĭà¼ĭà¼ĭà¼ĭà¼ĭà¼ĭà¼ĭà¼ĭà¼ĭà¼ĭà¼ĭà¼ĭà¼ĭà¼ĭà¼ĭà¼ĭà¼ĭà¼ĭà¼ĭà¼ĭà¼ĭà¼ĭà¼ĭà¼ĭà¼ĭà¼ĭà¼ĭà¼ĭà¼ĭà¼ĭà¼ĭà¼ĭà¼ĭà¼ĭ":8690,"à¾Ķà¾·à¾±à½±à½´":8691,"Ġà½łà½Ĥà½ł":8692,"Ġà½ģà½ĸ":8693,"à½¦à½ĺà½īà½ĺ":8694,"à½£à½Ĥà½¤":8695,"à½Ĥà½¦à½łà½ķ":8696,"à½¡à½Ķà½ł":8697,"à¾Ĵà¼·":8698,"à½ĸà½¦à½ĸà½¢":8699,"à¾±à½²à¼ĭà¼Ħà¼ħ":8700,"à½¤à½Ļ":8701,"à½ĸà½¢à½ģ":8702,"à½ĵà½¦à½ĳà½Ģ":8703,"à½¡à½Ħà½¢à½Ħ":8704,"à¾¤à½±à¼į":8705,"à½Ķà½¦à½ĳà½Ħ":8706,"à½Ķà½¦à½ļ":8707,"à½Ķà½¦à½Ĥà½ŀà½ĵ":8708,"à¾Ķà½¿à¼ĭ":8709,"à½±à¼µà¼ĭ":8710,"à½±à½¼à½¾à¼Ķ":8711,"à¾©à¾Ĳà½¼":8712,"à½§à½ĸà½¦":8713,"à½§à½ķà½Ħ":8714,"à½±à¼ĭà½±à½²à¼ĭ":8715,"à¾Ĺà½ºà¼µ":8716,"à½ĸà½¤à½ĳà½¦":8717,"à½Ĥà½ĳà½ĳ":8718,"à½¾à¼ĭà¾İ":8719,"à¾Ńà½±à½²à½¿à¼ĭ":8720,"à½´à¼įà¼ĭà¼į":8721,"à¾¤à¾±à¾Ģà¼ĭ":8722,"à½ĺà½ĵà½Ĩà½ĳ":8723,"à¼·à½ºà¼į":8724,"à¼§à¼¢à¼¡":8725,"à¼§à¼£à¼¨":8726,"à½Ĵà½Ĥà½ħ":8727,"à½Ĵà½¦à½¢":8728,"à½Ĺà½«à½Ĥ":8729,"à¾²à¼įà¼ĭ":8730,"à¾Ńà½±à½¼à½¾à¼ĭ":8731,"à¼¡à¼¦à¼§à¼§":8732,"à¼¡à¼¨à¼¢à¼¢":8733,"à¼ĭà¼¹à½´à¼ĭ":8734,"à¾ĭà½ı":8735,"à¾¶à½±à½¾à¼ĭ":8736,"à¼§à¼łà¼¦":8737,"à¼§à¼¨à¼¢":8738,"à½Ĺà½ģà½Łà½«":8739,"à¼įà¼ĭà¼ĭà¼ĭà¼ĭà¼ĭà¼ĭà¼ĭà¼ĭà¼ĭà¼ĭà¼ĭà¼ĭà¼ĭà¼ĭà¼ĭà¼ĭà¼ĭà¼ĭà¼ĭà¼ĭà¼ĭà¼ĭà¼ĭà¼ĭà¼ĭà¼ĭà¼ĭà¼ĭà¼ĭà¼ĭà¼ĭà¼ĭà¼ĭà¼ĭà¼ĭà¼ĭà¼ĭà¼ĭà¼ĭà¼ĭà¼ĭà¼ĭà¼ĭà¼ĭà¼ĭà¼ĭà¼ĭà¼ĭà¼ĭà¼ĭà¼ĭà¼ĭà¼ĭà¼ĭà¼ĭ":8740,"à¼ĭà½±à½´à¾ĥà¼ĭà½±à½´à¾ĥà¼ĭ":8741,"Ġà½Īà¾±à½²":8742,"à½Ĥà½Ĭ":8743,"à½¢à½łà½ķ":8744,"à½´à¾ĥ":8745,"à½ĺà½£à½ĺ":8746,"à¾²à¾Łà½º":8747,"à¾Łà¾Łà½ºà¼ĭ":8748,"à½ĳà½Ħà½ĳà½ĸà½Ħ":8749,"à¾Ĳà½±à½²":8750,"à½ĸà½¢à½¡":8751,"à¾³à¾Ĺà½º":8752,"à¾±à¼ĭà½Īà½²":8753,"à½¢à½Ħà½ĵ":8754,"à¾²à½ºà½¿à¼ĭ":8755,"à½Ĥà½Ļà½£":8756,"à¾³à½¼à¼ĭà¼½à¼¼":8757,"à½Ħà½ĵà½ĳ":8758,"à½ĺà½Ĳà½¢à½Ĥ":8759,"à½ĳà½ĺà½¢à½Ķ":8760,"à¼§à¼¥à¼¡":8761,"à½¦à½Ħà½ł":8762,"à¼¡à¼£à¼¡à¼¢":8763,"à¼ĭà¾¢à¾Ńà¼ĭ":8764,"à¼įà¼ĭà¼ĭà¼ĭà¼ĭà¼ĭà¼ĭà¼ĭà¼ĭà¼ĭà¼ĭà¼ĭà¼ĭà¼ĭà¼ĭà¼ĭà¼ĭà¼ĭà¼ĭà¼ĭà¼ĭà¼ĭà¼ĭà¼ĭà¼ĭà¼ĭà¼ĭà¼ĭà¼ĭà¼ĭà¼ĭà¼ĭà¼ĭà¼ĭà¼ĭà¼ĭà¼ĭà¼ĭà¼ĭà¼ĭà¼ĭà¼ĭà¼ĭà¼ĭà¼ĭà¼ĭà¼ĭà¼ĭà¼ĭà¼ĭà¼ĭà¼ĭà¼ĭà¼ĭà¼ĭà¼ĭà¼ĭà¼ĭà¼ĭà¼ĭà¼ĭà¼ĭà¼ĭà¼ĭà¼ĭà¼ĭà¼ĭà¼ĭà¼ĭà¼ĭà¼ĭ":8765,"à¾·à½ºà½ºà¼ĭ":8766,"à¾ºà½ºà¼ĭ":8767,"à¼įà¼ĭà¼ĭà¼ĭà¼ĭà¼ĭà¼ĭà¼ĭà¼ĭà¼ĭà¼ĭà¼ĭà¼ĭà¼ĭà¼ĭà¼ĭà¼ĭà¼ĭà¼ĭà¼ĭà¼ĭà¼ĭà¼ĭà¼ĭà¼ĭà¼ĭà¼ĭà¼ĭà¼ĭà¼ĭà¼ĭà¼ĭ":8768,"à½Ķà½ķà½ĸà½ĸ":8769,"Ġà¼ĭà¼ĭà¼ĭà¼ĭà¼ĭà¼ĭà¼ĭà¼ĭà¼ĭà¼ĭà¼ĭà¼ĭà¼ĭà¼ĭà¼ĭà¼ĭà¼ĭà¼ĭà¼ĭà¼ĭà¼ĭà¼ĭà¼ĭà¼ĭà¼ĭà¼ĭà¼ĭà¼ĭà¼ĭà¼ĭà¼ĭà¼ĭà¼ĭà¼ĭà¼ĭà¼ĭà¼ĭà¼ĭà¼ĭà¼ĭà¼ĭà¼ĭà¼ĭà¼ĭà¼ĭà¼ĭà¼ĭà¼ĭà¼ĭà¼ĭà¼ĭà¼ĭà¼ĭà¼ĭà¼ĭà¼ĭà¼ĭà¼ĭà¼ĭà¼ĭà¼ĭà¼ĭà¼ĭà¼ĭà¼ĭà¼ĭà¼ĭà¼ĭà¼ĭà¼ĭà¼ĭà¼ĭà¼ĭà¼ĭà¼ĭà¼ĭà¼ĭà¼ĭà¼ĭà¼ĭà¼ĭà¼ĭà¼ĭà¼ĭà¼ĭà¼ĭà¼ĭà¼ĭà¼ĭà¼ĭà¼ĭà¼ĭà¼ĭà¼ĭà¼ĭà¼ĭà¼ĭà¼ĭà¼ĭà¼ĭà¼ĭà¼ĭà¼ĭà¼ĭà¼ĭ":8770,"à¼įà¼Įà¼Įà¼Įà¼Įà¼Įà¼Įà¼Įà¼Įà¼Įà¼Įà¼Įà¼Įà¼Įà¼Įà¼Įà¼Įà¼Įà¼Įà¼Įà¼Įà¼Įà¼Įà¼Įà¼Įà¼Įà¼Įà¼Įà¼Įà¼Įà¼Įà¼Įà¼Įà¼Įà¼Įà¼Įà¼Įà¼Įà¼Įà¼Įà¼Įà¼Įà¼Įà¼Įà¼Įà¼Įà¼Įà¼Įà¼Į":8771,"Ġà½ĺà½ī":8772,"à½²à½´à¼ĭ":8773,"à½ĸà½ĵà½Ħ":8774,"à½Ķà½ĵà½ĳ":8775,"à¾Łà½¼à¼įà¼įà¼įà¼į":8776,"à¾Łà½½":8777,"à¾Łà¾²à½²à½¾à¼ĭ":8778,"à½Ĩà½ı":8779,"à½ĵà½¦à½łà½ĩ":8780,"à½ĵà½¦à½Ĥà½ĵà½¦":8781,"à½±à½½à¼ĭ":8782,"à¾©à¾ªà¼į":8783,"à½Ļà½Ŀ":8784,"à¾Ķà¼ĭà¼´":8785,"à¾©à¼ĭà¼½":8786,"à½´à¼įà¼ĭà¼ĭ":8787,"à¼łà¼¡à¼¥":8788,"à¼łà¼§à¼ł":8789,"à¼§à¼¥à¼¤":8790,"à¾µà¾ŀà½±à¼ĭ":8791,"à¾¤à¼ĭà½´à¼ĭ":8792,"à¼¡à¼¨à¼§à¼£":8793,"à¾ĭà½ŀ":8794,"à½ĭà½Į":8795,"Ġà½¤à½Ħà½¦":8796,"à¾¶à¾£à½±à¼ĭ":8797,"Ġà½Ķà½£":8798,"Ġà¼¡à¼¡à¼¦":8799,"à¼¡à¼¥à¼łà¼§":8800,"à¼įà¼ĭà¼ĭà¼ĭà¼ĭà¼ĭà¼ĭà¼ĭà¼ĭà¼ĭà¼ĭà¼ĭà¼ĭà¼ĭà¼ĭà¼ĭà¼ĭà¼ĭà¼ĭà¼ĭà¼ĭà¼ĭà¼ĭà¼ĭà¼ĭà¼ĭà¼ĭà¼ĭà¼ĭà¼ĭà¼ĭà¼ĭà¼ĭà¼ĭà¼ĭà¼ĭà¼ĭà¼ĭà¼ĭà¼ĭà¼ĭà¼ĭà¼ĭà¼ĭà¼ĭà¼ĭà¼ĭà¼ĭà¼ĭà¼ĭà¼ĭà¼ĭà¼ĭà¼ĭà¼ĭà¼ĭà¼ĭà¼ĭà¼ĭà¼ĭà¼ĭà¼ĭà¼ĭà¼ĭà¼ĭà¼ĭà¼ĭà¼ĭà¼ĭà¼ĭà¼ĭà¼ĭà¼ĭà¼ĭà¼ĭà¼ĭà¼ĭà¼ĭà¼ĭà¼ĭà¼ĭà¼ĭà¼ĭà¼ĭà¼ĭ":8801,"à¼įà¼ĭà¼ĭà¼ĭà¼ĭà¼ĭà¼ĭà¼ĭà¼ĭà¼ĭà¼ĭà¼ĭà¼ĭà¼ĭà¼ĭà¼ĭà¼ĭà¼ĭà¼ĭà¼ĭà¼ĭà¼ĭà¼ĭà¼ĭà¼ĭà¼ĭà¼ĭà¼ĭà¼ĭà¼ĭà¼ĭà¼ĭà¼ĭà¼ĭà¼ĭà¼ĭà¼ĭà¼ĭà¼ĭà¼ĭà¼ĭà¼ĭà¼ĭà¼ĭà¼ĭà¼ĭà¼ĭà¼ĭà¼ĭà¼ĭà¼ĭà¼ĭà¼ĭà¼ĭà¼ĭà¼ĭà¼ĭà¼ĭà¼ĭà¼ĭà¼ĭà¼ĭà¼ĭà¼ĭà¼ĭà¼ĭà¼ĭà¼ĭà¼ĭà¼ĭà¼ĭà¼ĭà¼ĭà¼ĭà¼ĭà¼ĭà¼ĭà¼ĭà¼ĭà¼ĭà¼ĭà¼ĭà¼ĭà¼ĭà¼ĭà¼ĭà¼ĭà¼ĭà¼ĭà¼ĭ":8802,"à¼įà¼ĭà¼ĭà¼ĭà¼ĭà¼ĭà¼ĭà¼ĭà¼ĭà¼ĭà¼ĭà¼ĭà¼ĭà¼ĭà¼ĭà¼ĭà¼ĭà¼ĭà¼ĭà¼ĭà¼ĭà¼ĭà¼ĭà¼ĭà¼ĭà¼ĭà¼ĭà¼ĭà¼ĭà¼ĭà¼ĭà¼ĭà¼ĭà¼ĭà¼ĭà¼ĭà¼ĭà¼ĭà¼ĭà¼ĭà¼ĭà¼ĭà¼ĭà¼ĭà¼ĭà¼ĭà¼ĭà¼ĭà¼ĭà¼ĭà¼ĭà¼ĭà¼ĭ":8803,"à½łà½łà½łà½ł":8804,"à½¼à¼įà¼įà¼Īà¼įà¼į":8805,"Ġà¼ĭà¼ĭà¼ĭà¼ĭà¼ĭà¼ĭà¼ĭà¼ĭà¼ĭà¼ĭà¼ĭà¼ĭà¼ĭà¼ĭà¼ĭà¼ĭà¼ĭà¼ĭà¼ĭà¼ĭà¼ĭà¼ĭà¼ĭà¼ĭà¼ĭà¼ĭà¼ĭà¼ĭà¼ĭà¼ĭà¼ĭà¼ĭà¼ĭà¼ĭà¼ĭà¼ĭà¼ĭà¼ĭà¼ĭà¼ĭà¼ĭà¼ĭà¼ĭà¼ĭà¼ĭà¼ĭà¼ĭà¼ĭà¼ĭà¼ĭà¼ĭà¼ĭà¼ĭà¼ĭà¼ĭà¼ĭà¼ĭà¼ĭà¼ĭà¼ĭà¼ĭà¼ĭà¼ĭà¼ĭà¼ĭà¼ĭà¼ĭà¼ĭà¼ĭà¼ĭà¼ĭà¼ĭà¼ĭà¼ĭà¼ĭà¼ĭà¼ĭà¼ĭà¼ĭà¼ĭà¼ĭà¼ĭà¼ĭà¼ĭà¼ĭà¼ĭà¼ĭà¼ĭà¼ĭà¼ĭà¼ĭà¼ĭà¼ĭà¼ĭà¼ĭà¼ĭà¼ĭà¼ĭà¼ĭà¼ĭà¼ĭà¼ĭ":8806,"Ġà¼ĭà¼ĭà¼ĭà¼ĭà¼ĭà¼ĭà¼ĭà¼ĭà¼ĭà¼ĭà¼ĭà¼ĭà¼ĭà¼ĭà¼ĭà¼ĭà¼ĭà¼ĭà¼ĭà¼ĭà¼ĭà¼ĭà¼ĭà¼ĭà¼ĭà¼ĭà¼ĭà¼ĭà¼ĭà¼ĭà¼ĭà¼ĭà¼ĭà¼ĭà¼ĭà¼ĭà¼ĭà¼ĭà¼ĭà¼ĭà¼ĭà¼ĭà¼ĭà¼ĭà¼ĭà¼ĭà¼ĭà¼ĭà¼ĭà¼ĭà¼ĭà¼ĭà¼ĭà¼ĭà¼ĭà¼ĭà¼ĭà¼ĭà¼ĭà¼ĭà¼ĭà¼ĭà¼ĭà¼ĭà¼ĭà¼ĭà¼ĭà¼ĭà¼ĭà¼ĭà¼ĭà¼ĭà¼ĭà¼ĭà¼ĭà¼ĭà¼ĭà¼ĭà¼ĭà¼ĭà¼ĭà¼ĭà¼ĭà¼ĭà¼ĭà¼ĭà¼ĭà¼ĭà¼ĭà¼ĭà¼ĭà¼ĭà¼ĭà¼ĭà¼ĭà¼ĭà¼ĭà¼ĭà¼ĭà¼ĭà¼ĭà¼ĭà¼ĭà¼ĭà¼ĭà¼ĭà¼ĭà¼ĭà¼ĭ":8807,"à¼ĭà¾¥à¼ĭ":8808,"Ġà½ļà½£":8809,"à½ĸà½£à½ĺ":8810,"à½ĸà½ļà½ĵ":8811,"à½¢à½Ĥà½¦à½Ħ":8812,"à½¢à½Ĥà½£":8813,"à½ĵà½ĸà½Ł":8814,"à½ĺà½ĸà½¤à½ĳ":8815,"à½ĺà½Ĥà½ĳ":8816,"à¼ĭà¼įà¼ĭà¼ĭà¼ĭà¼ĭà¼ĭà¼ĭà¼ĭ":8817,"à¾¡à½¼à¼įà¼įà¼įà¼į":8818,"à¾¡à¾²à½±":8819,"à½ĸà½ħà½ĳà½Ķà½ł":8820,"à¾·à¾¨à¼ĭ":8821,"à¾²à½¼à¾ĥà¼ĭ":8822,"à¾Ļà¾±à½±à¼ĭ":8823,"à½£à½ĺà½ĸà½¦":8824,"à½İà½Ĳ":8825,"à½¡à½ĵà½¡":8826,"à¼§à¼¢à¼¢":8827,"à¼§à¼¥à¼©":8828,"à½ħà½Ĥà½Ĥà½¡":8829,"à½ķà½ĺà½Ķà½¢":8830,"à¾²à½±à½²à¼ĭà¼½à¼¼":8831,"à¼¡à¼¤à¼§à¼¨":8832,"à¼¡à¼§à¼¤à¼¡":8833,"à¼¡à¼¦à¼§à¼£":8834,"à¾´à¼įà¼į":8835,"à¾²à½±à½¼à½¾à¼ĭ":8836,"Ġà½Ģà½Ģ":8837,"à¼©à¼©à¼¤":8838,"à¼§à¼¦à¼¤":8839,"à¼łà¼łà¼łà¼łà¼łà¼łà¼łà¼łà¼łà¼ł":8840,"à¼¡à¼¡à¼¤à¼¢":8841,"à¼įà¼ĭà¼ĭà¼ĭà¼ĭà¼ĭà¼ĭà¼ĭà¼ĭà¼ĭà¼ĭà¼ĭà¼ĭà¼ĭà¼ĭà¼ĭà¼ĭà¼ĭà¼ĭà¼ĭà¼ĭà¼ĭà¼ĭà¼ĭà¼ĭà¼ĭà¼ĭà¼ĭà¼ĭà¼ĭà¼ĭà¼ĭà¼ĭà¼ĭà¼ĭà¼ĭà¼ĭà¼ĭà¼ĭà¼ĭà¼ĭà¼ĭà¼ĭà¼ĭà¼ĭà¼ĭà¼ĭà¼ĭà¼ĭà¼ĭà¼ĭà¼ĭà¼ĭà¼ĭà¼ĭà¼ĭà¼ĭà¼ĭà¼ĭà¼ĭà¼ĭà¼ĭà¼ĭà¼ĭà¼ĭà¼ĭà¼ĭà¼ĭà¼ĭà¼ĭà¼ĭà¼ĭà¼ĭà¼ĭà¼ĭà¼ĭà¼ĭà¼ĭà¼ĭà¼ĭà¼ĭà¼ĭ":8842,"à½Łà½Ĩà½«":8843,"à½Ĩà½Ĩà½Ĩà½Ĩ":8844,"à¼įà¼ĭà¼ĭà¼ĭà¼ĭà¼ĭà¼ĭà¼ĭà¼ĭà¼ĭà¼ĭà¼ĭà¼ĭà¼ĭà¼ĭà¼ĭà¼ĭà¼ĭà¼ĭà¼ĭà¼ĭà¼ĭà¼ĭà¼ĭà¼ĭà¼ĭà¼ĭà¼ĭà¼ĭà¼ĭà¼ĭà¼ĭà¼ĭà¼ĭà¼ĭà¼ĭà¼ĭà¼ĭà¼ĭà¼ĭà¼ĭà¼ĭà¼ĭà¼ĭà¼ĭà¼ĭà¼ĭà¼ĭà¼ĭà¼ĭà¼ĭà¼ĭà¼ĭà¼ĭà¼ĭà¼ĭà¼ĭà¼ĭà¼ĭà¼ĭà¼ĭà¼ĭà¼ĭà¼ĭà¼ĭà¼ĭà¼ĭà¼ĭà¼ĭà¼ĭà¼ĭà¼ĭà¼ĭà¼ĭà¼ĭà¼ĭà¼ĭà¼ĭà¼ĭà¼ĭà¼ĭà¼ĭà¼ĭà¼ĭà¼ĭà¼ĭà¼ĭà¼ĭà¼ĭà¼ĭà¼ĭà¼ĭà¼ĭà¼ĭà¼ĭà¼ĭà¼ĭà¼ĭà¼ĭà¼ĭà¼ĭà¼ĭà¼ĭà¼ĭà¼ĭà¼ĭà¼ĭ":8845,"Ġà½ĸà½¤à½Ĥà½¦":8846,"Ġà¼¢à¼łà¼¡à¼¤":8847,"à½¦à½ĺà½¢":8848,"à½ĸà½ĵà½Ĥ":8849,"à½¼à½²":8850,"à½Ķà½Ĥà½ĵ":8851,"à½Ĥà½¦à½ĳà½ĸ":8852,"à½¡à½ĳà½Ħ":8853,"à¾Łà½±à¼įà¼į":8854,"à½ĺà½¦à½Ĳ":8855,"à¾Ĳà½ºà¼įà¼į":8856,"à¾±à¼ĭà½±":8857,"à¾¦à½²à½¾à¼ĭ":8858,"à½ħà½ĵà½ĸ":8859,"à½Ľà½£à½¦":8860,"à½²à¼įà¼Įà¼Įà¼Įà¼Į":8861,"à½ĸà½¦à½ĺà½Ķà½¦":8862,"à½Ĥà½¦à½Ħà½ĸà½ł":8863,"à½İà½Ĥ":8864,"à¾ľà½±à¼į":8865,"à½Ĵà½¢à½¦":8866,"à½Ĵà½ķà½Ĳ":8867,"à¼©à¼£à¼ł":8868,"à½ĺà½ĳà½łà½¦":8869,"Ġà½£à½ĸ":8870,"à¼¡à¼łà¼¥à¼¤":8871,"à½ĳà½Ĥà½¦à½ĳ":8872,"à¼¡à¼¦à¼¡à¼¢":8873,"à½Ķà½£à½Ķà½¦":8874,"à¾¾à¾¾à¾¾à¾¾à¾¾":8875,"à¼įà¼ĭà¼ĭà¼ĭà¼ĭà¼ĭà¼ĭà¼ĭà¼ĭà¼ĭà¼ĭà¼ĭà¼ĭà¼ĭà¼ĭà¼ĭà¼ĭà¼ĭà¼ĭà¼ĭà¼ĭà¼ĭà¼ĭà¼ĭà¼ĭà¼ĭà¼ĭà¼ĭà¼ĭà¼ĭà¼ĭà¼ĭà¼ĭà¼ĭà¼ĭà¼ĭà¼ĭ":8876,"à¾¨à¾¨à½¿à¼į":8877,"à¼įà¼ĭà¼ĭà¼ĭà¼ĭà¼ĭà¼ĭà¼ĭà¼ĭà¼ĭà¼ĭà¼ĭà¼ĭà¼ĭà¼ĭà¼ĭà¼ĭà¼ĭà¼ĭà¼ĭà¼ĭà¼ĭà¼ĭà¼ĭà¼ĭà¼ĭà¼ĭà¼ĭà¼ĭà¼ĭà¼ĭà¼ĭà¼ĭà¼ĭà¼ĭà¼ĭà¼ĭà¼ĭà¼ĭà¼ĭà¼ĭà¼ĭà¼ĭà¼ĭà¼ĭà¼ĭà¼ĭà¼ĭà¼ĭà¼ĭà¼ĭà¼ĭà¼ĭà¼ĭà¼ĭà¼ĭà¼ĭà¼ĭà¼ĭà¼ĭà¼ĭà¼ĭà¼ĭà¼ĭà¼ĭà¼ĭà¼ĭà¼ĭà¼ĭà¼ĭà¼ĭà¼ĭà¼ĭà¼ĭà¼ĭà¼ĭà¼ĭà¼ĭà¼ĭà¼ĭà¼ĭà¼ĭà¼ĭà¼ĭà¼ĭà¼ĭà¼ĭà¼ĭà¼ĭà¼ĭà¼ĭà¼ĭà¼ĭà¼ĭà¼ĭà¼ĭà¼ĭà¼ĭà¼ĭà¼ĭà¼ĭà¼ĭà¼ĭà¼ĭà¼ĭà¼ĭà¼ĭà¼ĭà¼ĭà¼ĭà¼ĭà¼ĭà¼ĭà¼ĭà¼ĭà¼ĭà¼ĭà¼ĭà¼ĭ":8878,"à¼ĭà¾ľà¼ĭ":8879,"à½¦à½Łà½ĸ":8880,"à½ĸà½£à½Ĥ":8881,"à½ĵà½łà½ķ":8882,"à½ºà½´":8883,"à¾²à¾Ł":8884,"à½Ģà½īà½ł":8885,"à¾Łà¾²à½¿à¼ĭ":8886,"à½ĳà½Ħà½ĺà½Ĩ":8887,"à½Ķà½łà½¤":8888,"à½ĺà½¦à½ĳà½Ķà½¦":8889,"à¾¡à¼ĭà¼½":8890,"à¾¨à¾³à½¼":8891,"à¾²à¼ĭà¼º":8892,"à½ĩà½Ĥà½¦":8893,"à½ĺà½ļà½ĵà½ĳà½Ħ":8894,"à¼ĭà¼ĭà¼½":8895,"à½£à½ĺà½¡":8896,"à½ĸà½ıà½¦":8897,"à¾Ļà½ºà½º":8898,"à½´à¼įà¼Ī":8899,"à½´à¼įà¼Įà¼Įà¼Į":8900,"à¾Ĵà¾²à¼ĭà¼ĳ":8901,"à½ºà¼įà¼įà¼Į":8902,"à½Ĭà½¨":8903,"à¼łà¼¡à¼§":8904,"à¼§à¼£à¼¥":8905,"à¾·à½¼à¼ĭà¼¼":8906,"à¾µà¾ŀà¼į":8907,"à½ħà½¢à½Į":8908,"à¼¡à¼¤à¼§à¼¦":8909,"à¾Ľà½¾à¼į":8910,"à¼¡à¼¨à¼¡à¼©":8911,"à¾¦à¾·à½ºà¼įà¼į":8912,"à¼ĭà½µà¾Ĥà¼ĭ":8913,"à¼įà¼½à¼įà¼į":8914,"à¼§à¼©à¼¤":8915,"Ġà¼©à¼¤":8916,"Ġà¼¡à¼¢à¼§":8917,"à½±à½¼à½´à½¾à¼ĭ":8918,"à¾±à¾Ńà¼ĭà¼´":8919,"Ġà¼´à¼´":8920,"Ġà½Ĩà½¦":8921,"à½²à¼µà¼į":8922,"à¾Łà¾Łà½´à¼ĭ":8923,"à¾Ĵà½¾à¼į":8924,"à½Ķà½¢à½Ĥà½ı":8925,"à½Ķà½¢à½Ĩà½Ĥà½¦":8926,"à½¤à½£à½¦":8927,"à½¡à½Ħà½ĺà½ĳ":8928,"à½ĺà½Ĳà½Ĳ":8929,"à½Ļà½łà½ĺ":8930,"à½ħà½ĵà½ı":8931,"à¾±à½ºà¼ĭà¼Ħà¼ħà¼įà¼į":8932,"à½¨à½Ł":8933,"à½łà½ĳà½¦à½Ķà½¢":8934,"à¾Ĵà½¼à¼ĭà¼Ħà¼ħà¼įà¼į":8935,"à¾Ĵà¾²à¼ĭà¼½":8936,"à½İà½łà½ĺ":8937,"à½£à½ĵà½ħ":8938,"à¼łà¼¦à¼ł":8939,"à¾µà½±à½´à½¾à¼ĭ":8940,"à¼¡à¼łà¼¥à¼©":8941,"à¾¡à¾·à¼ĭà¾İ":8942,"à¼¡à¼¤à¼¤à¼ł":8943,"à¼¡à¼¥à¼¦à¼¦":8944,"à¼Ħà¼ħà¼Ķ":8945,"Ġà¼¡à¼¡à¼¥":8946,"à¼ĭà¾§à½ºà¼į":8947,"à¼§à¼§à¼¡":8948,"Ġà¼¨à¼¨":8949,"à½Ħà½Ķà½ĸà½ł":8950,"à¾·à½±à½´à½¿à¼ĭ":8951,"à¼įà¼ĭà¼ĭà¼ĭà¼ĭà¼ĭà¼ĭà¼ĭà¼ĭà¼ĭà¼ĭà¼ĭà¼ĭà¼ĭà¼ĭà¼ĭà¼ĭà¼ĭà¼ĭà¼ĭà¼ĭà¼ĭà¼ĭà¼ĭà¼ĭà¼ĭà¼ĭà¼ĭà¼ĭà¼ĭà¼ĭà¼ĭà¼ĭà¼ĭà¼ĭà¼ĭà¼ĭà¼ĭà¼ĭà¼ĭà¼ĭà¼ĭà¼ĭà¼ĭà¼ĭà¼ĭà¼ĭà¼ĭà¼ĭà¼ĭà¼ĭà¼ĭà¼ĭà¼ĭà¼ĭà¼ĭà¼ĭà¼ĭà¼ĭà¼ĭà¼ĭà¼ĭà¼ĭà¼ĭà¼ĭà¼ĭà¼ĭà¼ĭà¼ĭà¼ĭà¼ĭà¼ĭà¼ĭà¼ĭà¼ĭà¼ĭà¼ĭà¼ĭà¼ĭà¼ĭà¼ĭà¼ĭà¼ĭà¼ĭà¼ĭà¼ĭà¼ĭà¼ĭà¼ĭà¼ĭà¼ĭà¼ĭà¼ĭà¼ĭà¼ĭà¼ĭà¼ĭà¼ĭà¼ĭà¼ĭà¼ĭà¼ĭà¼ĭà¼ĭà¼ĭà¼ĭà¼ĭà¼ĭà¼ĭà¼ĭà¼ĭà¼ĭà¼ĭà¼ĭ":8952,"Ġà¼ĭà¼ĭà¼ĭà¼ĭà¼ĭà¼ĭà¼ĭà¼ĭà¼ĭà¼ĭà¼ĭà¼ĭà¼ĭà¼ĭà¼ĭà¼ĭà¼ĭà¼ĭà¼ĭà¼ĭà¼ĭà¼ĭà¼ĭà¼ĭà¼ĭà¼ĭà¼ĭà¼ĭà¼ĭà¼ĭà¼ĭà¼ĭà¼ĭà¼ĭà¼ĭà¼ĭà¼ĭà¼ĭà¼ĭà¼ĭà¼ĭà¼ĭà¼ĭà¼ĭà¼ĭà¼ĭà¼ĭà¼ĭà¼ĭà¼ĭà¼ĭà¼ĭà¼ĭà¼ĭà¼ĭà¼ĭà¼ĭà¼ĭà¼ĭà¼ĭà¼ĭà¼ĭà¼ĭà¼ĭà¼ĭà¼ĭà¼ĭà¼ĭà¼ĭà¼ĭà¼ĭà¼ĭà¼ĭà¼ĭà¼ĭà¼ĭà¼ĭà¼ĭà¼ĭà¼ĭà¼ĭà¼ĭà¼ĭà¼ĭà¼ĭà¼ĭà¼ĭà¼ĭà¼ĭà¼ĭà¼ĭà¼ĭà¼ĭà¼ĭà¼ĭà¼ĭà¼ĭà¼ĭà¼ĭà¼ĭà¼ĭà¼ĭà¼ĭà¼ĭà¼ĭà¼ĭ":8953,"à½Ĥà½łà½Ľ":8954,"à½Ħà½łà½ķ":8955,"à½Ķà½£à½ĺ":8956,"à½²à¼ĭà½¾à¼į":8957,"à½£à½ĺà½ļ":8958,"à¾²à½½à¼į":8959,"à¾²à¼µà½¼":8960,"à½¼à¼ĭà¼Įà¼į":8961,"à½Ģà½łà½ĳ":8962,"à¾Łà½¾à¼Ķ":8963,"à½ĸà½¦à½Ł":8964,"à½ģà½ª":8965,"à½ĺà½¦à½¡à½Ħ":8966,"à½Ķà½¢à½ī":8967,"à½£à½¦à½¡à½Ħ":8968,"à¾Ļà½¾à¼ĭ":8969,"à½łà½ĩà½Ħà½¦":8970,"à½ħà½ĵà½łà½ĳ":8971,"à½§à½Ķ":8972,"à¾Ĺà½ºà¼ĭà¼¸":8973,"à½Ĥà½¡à½Ĳà½Ĳ":8974,"à½ĺà½Ĳà½łà½¦":8975,"à½ķà½ĵà½Ķà½ł":8976,"à½Ŀà½ļà½Ķà½Ķ":8977,"à¾¤à¾±à½²à¼Ķ":8978,"à½Łà½¦à½Ģ":8979,"à½Ĺà½Łà½Ĥ":8980,"à½½à¼Ķ":8981,"à¼ĭà¾ģ":8982,"à¼¡à¼§à¼¤à¼©":8983,"à¼¡à¼§à¼£à¼¢":8984,"à¼¡à¼¦à¼©à¼©":8985,"à¼¡à¼¦à¼©à¼¨":8986,"à¼¡à¼¦à¼§à¼¤":8987,"à¼¡à¼¨à¼¡à¼ł":8988,"à¾¨à½¼à¼ĭà¼¸":8989,"à½łà½ĳà½¢à½¢":8990,"à½Ĥà½Ķà½ı":8991,"à¼įà¼ĭà¼ĭà¼ĭà¼ĭà¼ĭà¼ĭà¼ĭà¼ĭà¼ĭà¼ĭà¼ĭà¼ĭà¼ĭà¼ĭà¼ĭà¼ĭà¼ĭà¼ĭà¼ĭà¼ĭà¼ĭà¼ĭà¼ĭà¼ĭà¼ĭà¼ĭà¼ĭà¼ĭà¼ĭà¼ĭà¼ĭà¼ĭà¼ĭà¼ĭà¼ĭà¼ĭà¼ĭà¼ĭà¼ĭà¼ĭà¼ĭà¼ĭà¼ĭà¼ĭà¼ĭà¼ĭà¼ĭà¼ĭà¼ĭà¼ĭà¼ĭà¼ĭà¼ĭà¼ĭà¼ĭà¼ĭà¼ĭà¼ĭà¼ĭà¼ĭà¼ĭà¼ĭà¼ĭà¼ĭà¼ĭà¼ĭ":8992,"à¼§à¼¦à¼¨":8993,"à½Ĥà½Ŀà½«":8994,"à¾·à¾Ńà½¿à¼į":8995,"à½ľà½ł":8996,"à¼¡à¼¥à¼łà¼©":8997,"Ġà¼ĭà¼ĭà¼ĭà¼ĭà¼ĭà¼ĭà¼ĭà¼ĭà¼ĭà¼ĭà¼ĭà¼ĭà¼ĭà¼ĭà¼ĭà¼ĭà¼ĭà¼ĭà¼ĭà¼ĭà¼ĭà¼ĭ":8998,"Ġà½ĵà½ĺà½¦":8999,"Ġà½¦à½Ħ":9000,"à½¦à½īà½ĺà½¦":9001,"à½¦à½īà½ĵ":9002,"à½Ĥà½Ĥà½ĵ":9003,"à½ĸà½ĺà½Ĳà½ł":9004,"à½£à½Ĥà½¦à½Ħ":9005,"à½Ģà½Ĥà½¦":9006,"à½Ĩà½ĳà½ĳ":9007,"à½ıà½ĵà½¦":9008,"à½ļà½¨":9009,"à½ļà½İ":9010,"à½Ķà½¢à½¢à½ĸ":9011,"à¾Ĳà½±à½´à¼ĭ":9012,"à½Ħà½¦à½ĳà½Ĥ":9013,"à¾¤à¾¡à½¼à¼ĭ":9014,"à¾Ķà½¼à¼įà¼įà¼įà¼į":9015,"à¾·à¾±à½ºà½¿à¼ĭ":9016,"à½ĺà½ļà½ĵà½ĳ":9017,"à½Ĥà½Ļà½Ħà½¦":9018,"à¾¤à¾±à½²à¼ĭà½Īà½¼":9019,"à¼£à¼łà¼łà¼łà¼ł":9020,"à¼§à¼¤à¼¦":9021,"à¼¨à¼¢à¼¤":9022,"à¼¨à¼£à¼ł":9023,"à½łà½Ĥà½Ĥà½Ĥà½¡":9024,"à¾µà¾³à¾Ģà¼ĭ":9025,"à¼¡à¼¢à¼¦à¼¥":9026,"à½¢à½ıà½ł":9027,"à¾ŀà½±à½¾à¼į":9028,"à¼¡à¼¥à¼¤à¼£":9029,"à¼¡à¼¦à¼¦à¼¨":9030,"à¼¡à¼¦à¼©à¼¤":9031,"à¾·à¾±à½¼à½¿à¼į":9032,"à¾Łà½ºà¼ĭà¼ĳà¼ĳ":9033,"à¾¡à¾²à½¿à¼į":9034,"à¼¨à¼łà¼¨":9035,"à¼§à¼¨à¼¦":9036,"Ġà¼ĭà¼ĭà¼ĭà¼ĭà¼ĭà¼ĭà¼ĭà¼ĭà¼ĭà¼ĭà¼ĭà¼ĭà¼ĭà¼ĭà¼ĭà¼ĭà¼ĭà¼ĭà¼ĭà¼ĭà¼ĭà¼ĭà¼ĭà¼ĭà¼ĭà¼ĭà¼ĭà¼ĭà¼ĭà¼ĭà¼ĭà¼ĭà¼ĭà¼ĭà¼ĭà¼ĭà¼ĭà¼ĭà¼ĭà¼ĭà¼ĭà¼ĭà¼ĭà¼ĭà¼ĭà¼ĭà¼ĭà¼ĭà¼ĭà¼ĭà¼ĭà¼ĭà¼ĭà¼ĭà¼ĭà¼ĭà¼ĭà¼ĭà¼ĭà¼ĭà¼ĭà¼ĭà¼ĭà¼ĭà¼ĭà¼ĭà¼ĭà¼ĭà¼ĭà¼ĭà¼ĭà¼ĭà¼ĭà¼ĭà¼ĭà¼ĭà¼ĭà¼ĭà¼ĭà¼ĭà¼ĭà¼ĭà¼ĭà¼ĭà¼ĭà¼ĭà¼ĭà¼ĭà¼ĭà¼ĭà¼ĭà¼ĭà¼ĭà¼ĭà¼ĭà¼ĭà¼ĭà¼ĭà¼ĭà¼ĭà¼ĭ":9037,"à¼įà¼ĭà¼ĭà¼ĭà¼ĭà¼ĭà¼ĭà¼ĭà¼ĭà¼ĭà¼ĭà¼ĭà¼ĭà¼ĭà¼ĭà¼ĭà¼ĭà¼ĭà¼ĭà¼ĭà¼ĭà¼ĭà¼ĭà¼ĭà¼ĭà¼ĭà¼ĭà¼ĭà¼ĭà¼ĭà¼ĭà¼ĭà¼ĭà¼ĭà¼ĭà¼ĭà¼ĭà¼ĭà¼ĭà¼ĭà¼ĭà¼ĭà¼ĭà¼ĭà¼ĭà¼ĭà¼ĭà¼ĭ":9038,"Ġà½łà½ļà½£":9039,"à½¦à½ĳà½Ĥà½ł":9040,"à½ĳà½ĳà½Ģ":9041,"à½¢à½Ĳà½ĺà½¦":9042,"à½ĵà½ĸà½¦à½ĺ":9043,"à½ĵà½Łà½Ħ":9044,"à½£à½£à½ĺ":9045,"à½£à½ĸà½¤à½ĳ":9046,"à½£à½ĸà½ĸ":9047,"à½ĳà½Ħà½łà½ģ":9048,"à½ĳà½Ħà½ĺà½Ħ":9049,"à½Ķà½¢à½ĸà½ŀ":9050,"à½Ķà½¢à½ĸà½£":9051,"à½ĳà½Ĥà½ĸà½¢":9052,"à½Ħà½¦à½Ħ":9053,"à¾¡à¾Ńà¼ĭ":9054,"à¾³à¾º":9055,"à¾²à½´à½¾":9056,"à½ĺà½Ĳà½ĸ":9057,"à¾¨à¼ĭà¼½":9058,"à½ĳà½ĺà½ŀ":9059,"à½Ĥà½ĵà½¦à½Ħà½ĵ":9060,"à½¨à½¢à½ł":9061,"à½¢à½ĸà½ĵ":9062,"à½ĸà½Ĥà½Ļ":9063,"à¾Ĵà¾²à¼ĭà¼Ħà¼ħà¼įà¼į":9064,"à½İà½§":9065,"à½ĺà½ļà½ĺà½¦à½Ģ":9066,"à¾·à½´à½¾":9067,"à½ļà½Ħà½¦à½Ķ":9068,"à¼ĳà¼ĳ":9069,"à¾ªà¾²à¼ĭ":9070,"à¼¡à¼¢à¼§à¼ł":9071,"à¾Ħà¾Ħà¼į":9072,"à¼¡à¼¨à¼¢à¼¥":9073,"à¼¡à¼¨à¼¢à¼¨":9074,"à¼¡à¼¨à¼¤à¼¨":9075,"à½±à½¾à¼įà¼Įà¼Įà¼Į":9076,"à½ĭà½£à½¦":9077,"à½¦à½Ķà½Ĥ":9078,"à¾´à½¿à¼ĭ":9079,"à½±à¾Ģà¼Ķ":9080,"Ġà¼Ħà¼ħà¼ħà¼įà¼Ħà¼ħà¼įà¼į":9081,"à½¦à½ĸà½¦à½ĺà½¦":9082,"à½ĳà½ĺà½ļà½ĵ":9083,"à½Ħà½ĩ":9084,"à½Ķà½ħà½¦":9085,"à½£à½¢à½Ĥ":9086,"à½¡à½Ĭà½ł":9087,"à¾Łà¾²à½¼à¼ĭ":9088,"à¾Ĵà¾Ĳà½¼":9089,"à¾±à½²à¼ĭà¼ĭ":9090,"à½¤à½§":9091,"à¾£à¾³à½¼":9092,"à½Łà½ĸà½ł":9093,"à¾¡à¾¡à¾·":9094,"à¾³à¾¤à½º":9095,"à¾²à½¼à½¾à¼Ķ":9096,"à½ĳà½Ķà½ĳà½Ħ":9097,"à½¾à½¾":9098,"à¾©à½¼à½¼":9099,"à½¿à¼ĭà¼Ħà¼ħà¼įà¼į":9100,"à¾¤à½ºà¼Ķ":9101,"à¼¨à¼¥à¼ł":9102,"à¼¡à¼¢à¼©à¼§":9103,"à¼¡à¼£à¼¡à¼¤":9104,"à¼¡à¼£à¼§à¼¥":9105,"à¼¡à¼¤à¼£à¼¤":9106,"à½Łà½Ħà½Ł":9107,"à¼¡à¼§à¼£à¼¦":9108,"à¼¡à¼¦à¼£à¼¡":9109,"à¼ĭà¾¢à¾±à½±à¼ĭ":9110,"à½ĥà½ĸà½Ľ":9111,"à¾Ļà½±à½¼à¼ĭ":9112,"à½Ķà½Ķà½Ķà½ķ":9113,"à¼¡à¼¤à¼łà¼¨":9114,"à¼įà¼ĭà¼ĭà¼ĭà¼ĭà¼ĭà¼ĭà¼ĭà¼ĭà¼ĭà¼ĭà¼ĭà¼ĭà¼ĭà¼ĭà¼ĭà¼ĭà¼ĭà¼ĭà¼ĭà¼ĭà¼ĭà¼ĭà¼ĭà¼ĭà¼ĭà¼ĭà¼ĭà¼ĭà¼ĭà¼ĭà¼ĭà¼ĭà¼ĭà¼ĭà¼ĭà¼ĭà¼ĭà¼ĭà¼ĭà¼ĭà¼ĭà¼ĭà¼ĭà¼ĭà¼ĭà¼ĭà¼ĭà¼ĭà¼ĭà¼ĭà¼ĭà¼ĭà¼ĭà¼ĭà¼ĭà¼ĭà¼ĭà¼ĭà¼ĭà¼ĭà¼ĭà¼ĭà¼ĭà¼ĭà¼ĭà¼ĭà¼ĭà¼ĭà¼ĭà¼ĭà¼ĭà¼ĭà¼ĭà¼ĭà¼ĭà¼ĭà¼ĭà¼ĭà¼ĭà¼ĭà¼ĭà¼ĭà¼ĭà¼ĭà¼ĭà¼ĭà¼ĭà¼ĭà¼ĭà¼ĭà¼ĭà¼ĭà¼ĭà¼ĭà¼ĭà¼ĭà¼ĭà¼ĭà¼ĭà¼ĭà¼ĭà¼ĭà¼ĭ":9115,"à¼¡à¼©à¼¦à¼¨à¼¡à¼©à¼¦à¼©":9116,"à¼įà¼ĭà¼ĭà¼ĭà¼ĭà¼ĭà¼ĭà¼ĭà¼ĭà¼ĭà¼ĭà¼ĭà¼ĭà¼ĭà¼ĭà¼ĭà¼ĭà¼ĭà¼ĭà¼ĭà¼ĭà¼ĭà¼ĭà¼ĭà¼ĭà¼ĭà¼ĭà¼ĭà¼ĭà¼ĭà¼ĭà¼ĭà¼ĭà¼ĭà¼ĭà¼ĭà¼ĭà¼ĭà¼ĭà¼ĭà¼ĭà¼ĭà¼ĭà¼ĭ":9117,"Ġà¼¡à¼¥à¼ł":9118,"à½¦à½Ģà½ł":9119,"à½ĳà½¦à½Ħà½¦":9120,"à½Ĥà½ĺà½ļ":9121,"à½Ĥà½ĸà½Ĥ":9122,"à½ĸà½Ķà½ĳ":9123,"à½ĸà½Ŀà½Ħ":9124,"à½¢à½ĺà½Ĥ":9125,"à½¢à½ĵà½ĳ":9126,"à½ĵà½ĸà½Ĥ":9127,"à½Ķà½ĺà½ģ":9128,"à½£à½īà½£":9129,"à½ºà¼ĭà¼ĭ":9130,"à¾Łà¼·à½º":9131,"à½ĸà½¦à½ī":9132,"à½Ĳà½Ł":9133,"à¾Ĳà¼ĭà¼½":9134,"à½Łà½ķà½Ł":9135,"à½¡à½Ħà½ĸà½ĳà½Ĥ":9136,"à½Ķà½¦à½łà½ĸ":9137,"à½Ľà½ģ":9138,"à½Ĳà½ĺà½¦à½Ķà½ħ":9139,"à½¨à½ģà½¦":9140,"à¼Ķà¼¼":9141,"à½£à½ĺà½īà½ĺ":9142,"à½¾à½²à¼ĭ":9143,"à½¼à¼įà¼ĭà¼ĭà¼ĭà¼ĭà¼į":9144,"à¾³à½´à¼·":9145,"à¾¨à¾²à½¾à¼ĭ":9146,"à¾¨à¾²à¾Ģà¼į":9147,"Ġà¼ī":9148,"à¾³à½´à¼ĭà¼½":9149,"à½ģà½¦à½ĺ":9150,"Ġà¼Īà¼įà¼į":9151,"à¼¡à¼¢à¼£à¼¥":9152,"à¼¡à¼§à¼¥à¼£":9153,"à¼¡à¼¦à¼£à¼ł":9154,"à¼¡à¼¦à¼¢à¼¢":9155,"à¼¡à¼¦à¼¥à¼¦":9156,"à¼¡à¼¨à¼¨à¼¤":9157,"à¾ĭà½ĵ":9158,"à½ĭà½ĺ":9159,"à¾Īà½Ģ":9160,"à¼©à¼§à¼£":9161,"à¼§à¼©à¼¡":9162,"Ġà¼¨à¼¡":9163,"à¼©à¼łà¼¢":9164,"à¼§à¼¦à¼¥":9165,"à¼©à¼¨à¼¢":9166,"à¾ŀà¾ŀà½¾à¼į":9167,"à¾¡à¾·à¼ĭà¾İà¼¼":9168,"à½Ĥà½ĸà½Ģ":9169,"à½ĸà½ĺà½ĳ":9170,"à½ĸà½ĺà½ł":9171,"à½¢à½ĺà½ļà½ĵ":9172,"à½ĵà½Ļà½ĺ":9173,"à½ĺà½Ĥà½Ł":9174,"à½Ĥà½¦à½Ł":9175,"à½Ķà½łà½Ĥà½ł":9176,"à½ģà½Ŀ":9177,"à¾£à¼µà¼ĭ":9178,"à¾²à½²à¼µ":9179,"à½ĺà½Ĳà½ĸà½¦":9180,"à½ĳà½Ķà½ħ":9181,"à¾±à½ºà¼ĭà¼¼":9182,"à½¨à½Ļà½¢":9183,"à¾Ĵà½¼à¼·":9184,"à¼¡à¼łà¼¢à¼¤":9185,"à¼¡à¼łà¼§à¼©":9186,"à½¼à¼ĭà¼ĳà¾ľà¼ĭà¼ĳ":9187,"à¼¡à¼¢à¼¡à¼ł":9188,"à¼¡à¼£à¼§à¼¤":9189,"à¾ŀà½²à¼į":9190,"à¼¡à¼§à¼£à¼©":9191,"à¼¡à¼§à¼©à¼¤":9192,"à¼¡à¼¦à¼£à¼¥":9193,"à¼¡à¼¦à¼§à¼ł":9194,"à¼¡à¼¦à¼§à¼¦":9195,"à¼¡à¼¨à¼£à¼¢":9196,"Ġà¼łà¼£":9197,"Ġà¼¡à¼¡à¼¤":9198,"à¼įà¼ĭà¼ĭà¼ĭà¼ĭà¼ĭà¼ĭà¼ĭà¼ĭà¼ĭà¼ĭà¼ĭà¼ĭà¼ĭà¼ĭà¼ĭà¼ĭà¼ĭà¼ĭà¼ĭà¼ĭà¼ĭà¼ĭà¼ĭà¼ĭà¼ĭà¼ĭà¼ĭà¼ĭà¼ĭà¼ĭà¼ĭà¼ĭà¼ĭà¼ĭà¼ĭà¼ĭà¼ĭà¼ĭà¼ĭà¼ĭà¼ĭà¼ĭà¼ĭà¼ĭà¼ĭà¼ĭà¼ĭà¼ĭà¼ĭà¼ĭà¼ĭà¼ĭà¼ĭà¼ĭà¼ĭà¼ĭà¼ĭà¼ĭà¼ĭà¼ĭà¼ĭà¼ĭà¼ĭà¼ĭà¼ĭà¼ĭà¼ĭà¼ĭà¼ĭ":9199,"ĠĠĠĠĠĠĠĠĠĠĠĠĠĠ":9200,"à½Ķà½Ķà½Ķ":9201,"à½´à¼ĭà½Īà¾±à½ºà¼ĭ":9202,"à¼įà¼ĭà¼ĭà¼ĭà¼ĭà¼ĭà¼ĭà¼ĭà¼ĭà¼ĭà¼ĭà¼ĭà¼ĭà¼ĭà¼ĭà¼ĭà¼ĭà¼ĭà¼ĭà¼ĭà¼ĭà¼ĭà¼ĭà¼ĭà¼ĭà¼ĭà¼ĭà¼ĭà¼ĭà¼ĭà¼ĭà¼ĭà¼ĭà¼ĭà¼ĭà¼ĭà¼ĭà¼ĭà¼ĭà¼ĭà¼ĭà¼ĭà¼ĭà¼ĭà¼ĭà¼ĭà¼ĭà¼ĭà¼ĭà¼ĭà¼ĭà¼ĭà¼ĭà¼ĭà¼ĭà¼ĭà¼ĭà¼ĭ":9203,"à¿İ":9204,"à½ģà½ģà½ģ":9205,"Ġà¼ĭà¼ĭà¼ĭà¼ĭà¼ĭà¼ĭà¼ĭà¼ĭà¼ĭà¼ĭà¼ĭà¼ĭà¼ĭà¼ĭà¼ĭà¼ĭà¼ĭà¼ĭà¼ĭà¼ĭà¼ĭà¼ĭà¼ĭà¼ĭà¼ĭà¼ĭà¼ĭà¼ĭà¼ĭà¼ĭà¼ĭà¼ĭà¼ĭà¼ĭà¼ĭà¼ĭà¼ĭà¼ĭà¼ĭà¼ĭà¼ĭà¼ĭà¼ĭà¼ĭà¼ĭà¼ĭà¼ĭà¼ĭà¼ĭà¼ĭà¼ĭà¼ĭà¼ĭà¼ĭà¼ĭà¼ĭà¼ĭà¼ĭà¼ĭà¼ĭà¼ĭà¼ĭà¼ĭà¼ĭà¼ĭà¼ĭà¼ĭà¼ĭà¼ĭà¼ĭà¼ĭà¼ĭà¼ĭà¼ĭà¼ĭà¼ĭà¼ĭà¼ĭà¼ĭà¼ĭà¼ĭà¼ĭà¼ĭà¼ĭà¼ĭà¼ĭà¼ĭà¼ĭà¼ĭà¼ĭà¼ĭà¼ĭà¼ĭà¼ĭà¼ĭà¼ĭà¼ĭà¼ĭà¼ĭà¼ĭà¼ĭà¼ĭà¼ĭà¼ĭà¼ĭà¼ĭà¼ĭà¼ĭà¼ĭà¼ĭ":9206,"Ġà½īà½Ĥ":9207,"Ġà¾Īà¾Ī":9208,"à¼ĭà¾±à½º":9209,"à½¦à½Ķà½Ĥà½¦":9210,"à½ĸà½Ĳà½ĸ":9211,"à½¼à½º":9212,"à½ºà¼ĭà¼į":9213,"à¾Łà¾Łà½¾à¼ĭ":9214,"à½Ĳà½ĸà½¦à½ĺ":9215,"à½¤à½ĳà½Ĥ":9216,"à½¤à½Ĥà½¦à½£":9217,"à¾Ĳà½±à½¿à¼ĭ":9218,"à½Ħà½¦à½ĩ":9219,"à½ĵà½¦à½ĳà½Ħ":9220,"à½£à½¦à½łà½Ĥ":9221,"à½Ķà½¦à½Ĥà½Ł":9222,"à¾Ķà¼µà¼ĭ":9223,"à¾²à½¼à½¾à¼į":9224,"à¾Ļà½±à¼įà¼į":9225,"à¾¨à½ºà¼įà¼į":9226,"à¾¦à½±à½¿à¼į":9227,"à½Ľà½İ":9228,"à½Ĥà½ħà½Ĳ":9229,"à½Ĥà½ıà½¦":9230,"à¼Ķà¼į":9231,"à½Ħà½ĵà½Ĥ":9232,"à¾ķà½´à¼ĭ":9233,"à½£à½Ĥà½¦à½ŀ":9234,"à¼łà¼¡à¼¤":9235,"à¼·à¼ĭà¼·":9236,"à½Ĵà½ķà½Ľ":9237,"à¾±à½¼à¼ĭà½Īà½²":9238,"à½¡à½Ĥà½¥":9239,"à½łà½ļà½Ħà½¢":9240,"à¼¡à¼£à¼¦à¼£":9241,"à¾¡à¾·à½»à¼ĭ":9242,"à¼¡à¼¥à¼¡à¼¦":9243,"à¼¡à¼§à¼¥à¼¥":9244,"à¼¡à¼§à¼¤à¼¢":9245,"à¼¡à¼¦à¼©à¼ł":9246,"à¼¡à¼¨à¼¨à¼§":9247,"à¾¥à¾±à½¼":9248,"à½´à½¾à¼ĭà½±à½´à¾ĥà¼ĭ":9249,"à½²à¼ĭà¼¼à¼½":9250,"Ġà¼ĭà¼ĭà¼ĭà¼ĭà¼ĭà¼ĭà¼ĭà¼ĭà¼ĭà¼ĭà¼ĭà¼ĭà¼ĭà¼ĭà¼ĭà¼ĭà¼ĭà¼ĭà¼ĭà¼ĭà¼ĭà¼ĭà¼ĭà¼ĭà¼ĭà¼ĭà¼ĭà¼ĭà¼ĭà¼ĭà¼ĭà¼ĭà¼ĭà¼ĭà¼ĭà¼ĭà¼ĭà¼ĭà¼ĭà¼ĭà¼ĭà¼ĭà¼ĭà¼ĭà¼ĭà¼ĭà¼ĭà¼ĭà¼ĭà¼ĭà¼ĭà¼ĭà¼ĭà¼ĭà¼ĭà¼ĭà¼ĭà¼ĭà¼ĭà¼ĭà¼ĭà¼ĭà¼ĭà¼ĭà¼ĭà¼ĭà¼ĭà¼ĭà¼ĭà¼ĭà¼ĭà¼ĭà¼ĭà¼ĭ":9251,"à¾¨à¾±à¾Ģ":9252,"à½įà½ĺ":9253,"à¼§à¼¨à¼¡":9254,"à¾°à½¿à¼ĭ":9255,"à¼¡à¼§à¼łà¼£":9256,"à½Ĺà½ģà½¡":9257,"à½Ĵà½Ĳà½Ĥà½Ł":9258,"à½¼à¼ĭà½Īà½ºà¼ĭ":9259,"à¼įà¼ĭà¼ĭà¼ĭà¼ĭà¼ĭà¼¼":9260,"à¼įà¼įà¼įà¼įà¼įà¼įà¼įà¼įà¼įà¼įà¼įà¼įà¼įà¼įà¼įà¼įà¼įà¼įà¼įà¼įà¼įà¼įà¼įà¼įà¼įà¼įà¼įà¼įà¼įà¼įà¼įà¼į":9261,"à½ĺà½Įà½İà½£":9262,"Ġà½Ĥà½ŀà½Ĥ":9263,"à½Ĥà½ĸà½Ģà½ł":9264,"à½ĸà½ĳà½ĸà½Ħ":9265,"à½Ħà½Ĥà½ı":9266,"à½Ħà½ĺà½Ĥ":9267,"à½ĺà½ĺà½Ħ":9268,"à½Ģà½ĺà½¦":9269,"à½Ĳà½Ļ":9270,"à½Ĳà½ĸà½¤":9271,"à½Ħà½¦à½ħà½ĵ":9272,"à½łà½Ĥà½łà½ĺ":9273,"à½¡à½Ħà½ł":9274,"à¾·à¾³à½±à¾Ģà¼ĭ":9275,"à½Ļà½§":9276,"à¾¦à½±à½¾à¼ĭ":9277,"à½ĺà½Ĩà½Ħ":9278,"à½ĺà½Ħà½ĸ":9279,"à½ĳà½Ģà½Ħ":9280,"à¼Ķà¼½":9281,"à¾Ĵà¾²à½´à¼·":9282,"à¾Ĳà½´à¼ĭà¼Ħà¼ħà¼įà¼į":9283,"à½łà½Ĳà½ĳà½ĳ":9284,"à½Ħà½Ĥà½£":9285,"à½ĸà½£à½ł":9286,"à¾£à½¼à¼Ķ":9287,"à½¦à½ĺà½ŀ":9288,"à¾ľà¾»à¼ĭ":9289,"à¼©à¼¦à¼¨":9290,"à½łà½Ľà½ĺà½ĸ":9291,"à½¢à½Ĥà½£à½¦":9292,"à½ĺà½īà½ĵà½¡":9293,"à¼¡à¼łà¼¢à¼ł":9294,"à¼¡à¼¢à¼¦à¼¨":9295,"à¼ĭà¾ŀ":9296,"à¾ŀà½º":9297,"à¾¡à¾·à¾±à¼į":9298,"à¼¡à¼¦à¼¨à¼§":9299,"à¼¡à¼¨à¼§à¼¢":9300,"à¾¦à¾²à½ºà½º":9301,"à¼ĭà½²à½¾":9302,"à½©à½¦à½¢":9303,"à¾ļà¼ĭà½¶":9304,"à½Ŀà½¢à½¡":9305,"Ġà¼łà¼¨":9306,"à¼¡à¼łà¼łà¼¢":9307,"à¾±à¼ĭà¼ĳà¼ĳ":9308,"à½¼à½¾à½¼à¼ĭ":9309,"Ġà¼¡à¼¢à¼¡":9310,"à¾µà¾¨à½±à½¾à¼į":9311,"à¼įà¼ĭà¼ĭà¼ĭà¼ĭà¼ĭà¼ĭà¼ĭà¼ĭà¼ĭà¼ĭà¼ĭà¼ĭà¼ĭà¼ĭà¼ĭà¼ĭà¼ĭà¼ĭà¼ĭà¼ĭà¼ĭà¼ĭà¼ĭà¼ĭà¼ĭà¼ĭà¼ĭà¼ĭà¼ĭà¼ĭà¼ĭà¼ĭà¼ĭà¼ĭà¼ĭà¼ĭà¼ĭà¼ĭà¼ĭà¼ĭà¼ĭà¼ĭà¼ĭà¼ĭà¼ĭà¼ĭà¼ĭà¼ĭà¼ĭà¼ĭà¼ĭà¼ĭà¼ĭà¼ĭà¼ĭà¼ĭà¼ĭà¼ĭà¼ĭà¼ĭà¼ĭà¼ĭà¼ĭà¼ĭà¼ĭà¼ĭà¼ĭà¼ĭà¼ĭà¼ĭà¼ĭà¼ĭà¼ĭà¼ĭà¼ĭà¼ĭà¼ĭà¼ĭà¼ĭà¼ĭà¼ĭà¼ĭà¼ĭà¼ĭà¼ĭà¼ĭà¼ĭà¼ĭà¼ĭà¼ĭà¼ĭà¼ĭà¼ĭà¼ĭà¼ĭà¼ĭà¼ĭà¼ĭà¼ĭà¼ĭà¼ĭà¼ĭà¼ĭà¼ĭà¼ĭà¼ĭà¼ĭà¼ĭà¼ĭà¼ĭà¼ĭà¼ĭà¼ĭà¼ĭà¼ĭà¼ĭà¼ĭà¼ĭà¼ĭà¼ĭà¼ĭà¼ĭà¼ĭà¼ĭà¼ĭà¼ĭà¼ĭà¼ĭà¼ĭà¼ĭà¼ĭà¼ĭà¼ĭà¼ĭà¼ĭà¼ĭà¼ĭà¼ĭà¼ĭà¼ĭà¼ĭ":9312,"à¼įà¼ĭà¼ĭà¼ĭà¼ĭà¼ĭà¼ĭà¼ĭà¼ĭà¼ĭà¼ĭà¼ĭà¼ĭà¼ĭà¼ĭà¼ĭà¼ĭà¼ĭà¼ĭà¼ĭà¼ĭà¼ĭà¼ĭà¼ĭà¼ĭà¼ĭà¼ĭà¼ĭà¼ĭà¼ĭà¼ĭà¼ĭà¼ĭà¼ĭ":9313,"Ġà¾Īà¾Īà¾Īà¾Ī":9314,"Ġà¼¡à¼¤à¼ł":9315,"à½Ĥà½ĸà½ł":9316,"à½ºà½²":9317,"à¾±à¾Łà½¼":9318,"à½²à¼ĭà½´à¼ĭ":9319,"à½²à¼ĭà¼Ŀà¼Ŀà¼Ŀ":9320,"à½¼à¼ĭà¾ħà¼ĭ":9321,"à½Ķà½łà½ļ":9322,"à½Ĩà½ĳà½Ķà½ł":9323,"à½ģà½łà½ĳ":9324,"à½ĸà½¢à½ĺà½ļ":9325,"à½ĵà½¦à½¢à½Ħ":9326,"à½ĵà½¦à½Ĥà½ŀà½ĵ":9327,"à½¡à½Ħà½łà½ĩ":9328,"à½¡à½Ħà½Ĥà½Ł":9329,"à½Ķà½¦à½Ķà½¦":9330,"à¾Ķà½²à¼ĭ":9331,"à¾©à½¿à¼ĭ":9332,"à½ĸà½Łà½łà½ĸà½¢":9333,"à¾²à½¼à¼ĭà¼¸":9334,"à½¾à½¾à¼į":9335,"à¾Ĳà½´à¼ĭà¼Ī":9336,"à½Ķà½ĳà½¦":9337,"à½Ĥà½ĵà½Ħà½ĸ":9338,"à¼¢à¼¡à¼łà¼ł":9339,"à½±à½²à¼ĭà¼ĳ":9340,"à¾£à½¼à½¿à¼į":9341,"à¾Ĵà¾²à½±à¼ĭ":9342,"à¼łà¼¡à¼£":9343,"à¼§à¼¥à¼¢":9344,"à¼§à¼¥à¼£":9345,"à½¾à¼įà¼Įà¼Įà¼Įà¼Į":9346,"à½Ĵà½¢à½ł":9347,"à¾µà½±à½²à½¾à¼ĭ":9348,"à¾²à¼įà¼½":9349,"à¼¡à¼łà¼§à¼¥":9350,"à¾ŀà½±à½²":9351,"à¼¡à¼¤à¼¡à¼£":9352,"à¼¡à¼§à¼¨à¼£":9353,"à¾ªà¼ĭà½±à¼ĭ":9354,"à¼¡à¼¦à¼£à¼¦":9355,"à¼¡à¼¨à¼£à¼¡":9356,"à½ĭà½īà½ł":9357,"à¾¶à¾²à¾Ģà¼ĭ":9358,"à¾·à¾±à½½à¼ĭ":9359,"Ġà¼łà¼¡":9360,"Ġà¼łà¼¥":9361,"à¼§à¼©à¼¢":9362,"à½Ĵà½¡à½¥":9363,"à¼¡à¼£à¼łà¼©":9364,"à¼¡à¼§à¼łà¼¢":9365,"à¼¡à¼¨à¼łà¼©":9366,"à¾±à½²à¼ĭà¼¼à¼½":9367,"à¼įà¼ĭà¼ĭà¼ĭà¼ĭà¼ĭà¼ĭà¼ĭà¼ĭà¼ĭà¼ĭà¼ĭà¼ĭà¼ĭà¼ĭà¼ĭà¼ĭà¼ĭà¼ĭà¼ĭà¼ĭà¼ĭà¼ĭà¼ĭà¼ĭà¼ĭà¼ĭà¼ĭà¼ĭà¼ĭà¼ĭà¼ĭà¼ĭà¼ĭà¼ĭà¼ĭà¼ĭà¼ĭà¼ĭà¼ĭà¼ĭà¼ĭà¼ĭà¼ĭà¼ĭà¼ĭà¼ĭà¼ĭà¼ĭà¼ĭà¼ĭà¼ĭà¼ĭà¼ĭà¼ĭà¼ĭà¼ĭà¼ĭà¼ĭà¼ĭà¼ĭà¼ĭà¼ĭà¼ĭà¼ĭà¼ĭà¼ĭà¼ĭà¼ĭà¼ĭà¼ĭà¼ĭà¼ĭà¼ĭà¼ĭà¼ĭà¼ĭà¼ĭà¼ĭà¼ĭà¼ĭà¼ĭà¼ĭà¼ĭà¼ĭà¼ĭà¼ĭà¼ĭà¼ĭà¼ĭà¼ĭà¼ĭà¼ĭ":9368,"à½²à½²à¼į":9369,"à½ĳà½Ĭ":9370,"à½Ĥà½ĳà½Ģà½¢":9371,"à½ĸà½Ĥà½ĵ":9372,"à½Ħà½ĺà½ļà½ĺà½¦":9373,"à½Ķà½Ĥà½¦à½Ħ":9374,"à½Ķà½īà½ĵ":9375,"à½ºà¼ĭà¾Ĵ":9376,"à¾Łà¾¤à½ºà¼į":9377,"à½ıà½ŀ":9378,"à½ĺà½¦à½ļ":9379,"à½ĺà½¦à½ĺà½īà½ĺ":9380,"à½Ķà½¢à½łà½ģ":9381,"à½ĸà½¢à½ĺà½Ĳ":9382,"à½ĸà½ŀà½Ħ":9383,"à¾·à¾²à½¼à¼ĭ":9384,"à½ĺà½Ĳà½Ķ":9385,"à½ĳà½Ķà½£à½Ĥ":9386,"à½Ĥà½ĵà½¦à½Ĥ":9387,"à½ħà½ĳà½ĸà½¦":9388,"à½±à¼ĭà¼Ī":9389,"à¾¡à½´à½¿à¼į":9390,"à½Ĥà½ĳà½łà½ĺ":9391,"à½łà½ĳà½¦à½¦":9392,"à½Ļà½ĺà½ĺ":9393,"à¾Ńà½¼à¼įà¼į":9394,"à½±à½´à¾Ĥ":9395,"à¼ĭà¼Ħà¼į":9396,"à½Ķà½ĳà½¨":9397,"à¼łà¼¡à¼¢":9398,"à¼§à¼¤à¼¨":9399,"à¼¨à¼¡à¼¦":9400,"à¼¨à¼£à¼¨":9401,"à¼¨à¼¤à¼¤":9402,"à¾¦à¾²à¾¤à½º":9403,"à¼¡à¼łà¼łà¼łà¼łà¼ł":9404,"à¼¡à¼¢à¼¡à¼¦":9405,"à¼¡à¼§à¼¢à¼¥":9406,"à¼¡à¼§à¼§à¼¥":9407,"à¼¡à¼§à¼¨à¼¥":9408,"à¼¡à¼¦à¼¦à¼ł":9409,"à¼¡à¼¨à¼£à¼¦":9410,"à¼¡à¼¨à¼¤à¼§":9411,"à¼¡à¼¡à¼¡à¼ł":9412,"Ġà¼ĭà¼ĭà¼ĭà¼ĭà¼ĭà¼ĭà¼ĭà¼ĭà¼ĭà¼ĭà¼ĭà¼ĭà¼ĭà¼ĭà¼ĭà¼ĭà¼ĭà¼ĭà¼ĭà¼ĭà¼ĭà¼ĭà¼ĭà¼ĭà¼ĭà¼ĭà¼ĭà¼ĭà¼ĭà¼ĭà¼ĭà¼ĭà¼ĭà¼ĭà¼ĭà¼ĭà¼ĭà¼ĭà¼ĭà¼ĭà¼ĭà¼ĭà¼ĭà¼ĭà¼ĭà¼ĭà¼ĭà¼ĭà¼ĭà¼ĭà¼ĭà¼ĭà¼ĭà¼ĭà¼ĭà¼ĭà¼ĭà¼ĭà¼ĭà¼ĭà¼ĭà¼ĭà¼ĭà¼ĭà¼ĭà¼ĭà¼ĭà¼ĭà¼ĭà¼ĭà¼ĭà¼ĭà¼ĭà¼ĭà¼ĭ":9413,"à¼¡à¼łà¼łà¼£":9414,"à¼¡à¼¢à¼łà¼§":9415,"Ġà¼ĭà¼ĭà¼ĭà¼ĭà¼ĭà¼ĭà¼ĭà¼ĭà¼ĭà¼ĭà¼ĭà¼ĭà¼ĭà¼ĭà¼ĭà¼ĭà¼ĭà¼ĭà¼ĭà¼ĭà¼ĭà¼ĭà¼ĭà¼ĭà¼ĭà¼ĭà¼ĭà¼ĭà¼ĭà¼ĭà¼ĭà¼ĭà¼ĭà¼ĭà¼ĭà¼ĭà¼ĭà¼ĭà¼ĭà¼ĭà¼ĭà¼ĭà¼ĭà¼ĭà¼ĭà¼ĭà¼ĭà¼ĭà¼ĭà¼ĭà¼ĭà¼ĭà¼ĭà¼ĭà¼ĭà¼ĭà¼ĭà¼ĭà¼ĭà¼ĭà¼ĭà¼ĭà¼ĭà¼ĭà¼ĭà¼ĭà¼ĭà¼ĭà¼ĭà¼ĭà¼ĭà¼ĭà¼ĭà¼ĭà¼ĭà¼ĭà¼ĭà¼ĭà¼ĭà¼ĭà¼ĭà¼ĭà¼ĭà¼ĭà¼ĭà¼ĭà¼ĭà¼ĭà¼ĭà¼ĭà¼ĭà¼ĭà¼ĭà¼ĭà¼ĭà¼ĭà¼ĭà¼ĭà¼ĭà¼ĭà¼ĭà¼ĭà¼ĭà¼ĭà¼ĭà¼ĭà¼ĭà¼ĭ":9416,"Ġà½ĸà½ĸà½¦":9417,"à¾ĵ":9418,"à½²à½´":9419,"à½ĳà½Ľ":9420,"à½¼à½²à¼ĭ":9421,"à½¢à½Ĥà½ĳ":9422,"à½ĵà½Ĥà½Ļ":9423,"à½ĵà½ĵà½łà½Ħ":9424,"à½ĺà½łà½ķ":9425,"à½Ķà½ĺà½ĵ":9426,"à½´à¼ĭà¼ŀà¼į":9427,"à½ĳà½Ħà½ĸà½¦à½ĺ":9428,"à¾Ĵà¾±à½±à¼ĭ":9429,"à¾¡à½½":9430,"à¾¨à½±à½¿à¼į":9431,"à½¼à¼įà¼ĳà¼į":9432,"à¾Ĳà¾±à½¼à½¼":9433,"à½ĵà½ĺà½¡à½Ħ":9434,"à¾Ķà½¼à½¼à¼ĭ":9435,"à¾¤à¾±à¼µà½²à¼ĭ":9436,"à½¥à½¨":9437,"à½Ĭà½Ľ":9438,"à¾³à½²à¼·":9439,"à¼§à¼¤à¼¥":9440,"à¼§à¼©à¼©":9441,"à¾±à¼įà¼ĭ":9442,"à¼©à¼¡à¼£":9443,"à¼©à¼¨à¼ł":9444,"à¼©à¼łà¼łà¼ł":9445,"à½Ĺà½ĳà½Ĥ":9446,"à½¼à¼įà¼įà¼įà¼įà¼ĭ":9447,"à½ĳà½ĺà½ĵà½Ķ":9448,"à¼ĭà¼´à¼ĭ":9449,"à¼¡à¼łà¼£à¼¢":9450,"à¼¡à¼łà¼©à¼¢":9451,"à¼¡à¼¢à¼§à¼¦":9452,"à¼ĭà¾´":9453,"à¼¡à¼¥à¼¤à¼¦":9454,"à¼¡à¼¦à¼¤à¼©":9455,"à¼¡à¼¦à¼¥à¼©":9456,"à¼¡à¼¨à¼¡à¼¡":9457,"à½±à½²à¼įà¼Įà¼Įà¼Į":9458,"à¾ĭà½ĳ":9459,"à¼¸à¼ĭ":9460,"à½ķà½Ŀà½ļà½Ķà½Ķ":9461,"à½¨à½¨à½¦":9462,"à½´à¼ĭà¼ĳà¼ĳ":9463,"à½¼à¼ĭà½ºà¼ĭà½¼":9464,"à½¼à¼ĭà¼½à¼į":9465,"Ġà¼¡à¼¢à¼¢":9466,"à¼¡à¼¡à¼¨à¼©":9467,"à¼įà¼ĭà¼ĭà¼ĭà¼ĭà¼ĭà¼ĭà¼ĭà¼ĭà¼ĭà¼ĭà¼ĭà¼ĭà¼ĭà¼ĭà¼ĭà¼ĭà¼ĭà¼ĭà¼ĭà¼ĭà¼ĭà¼ĭà¼ĭà¼ĭà¼ĭà¼ĭà¼ĭà¼ĭà¼ĭà¼ĭà¼ĭà¼ĭà¼ĭà¼ĭà¼ĭà¼ĭà¼ĭà¼ĭà¼ĭà¼ĭà¼ĭà¼ĭà¼ĭà¼ĭà¼ĭà¼ĭà¼ĭà¼ĭà¼ĭà¼ĭà¼ĭà¼ĭà¼ĭà¼ĭà¼ĭà¼ĭà¼ĭà¼ĭà¼ĭà¼ĭà¼ĭà¼ĭà¼ĭà¼ĭà¼ĭà¼ĭà¼ĭà¼ĭà¼ĭà¼ĭà¼ĭà¼ĭà¼ĭà¼ĭà¼ĭà¼ĭà¼ĭà¼ĭà¼ĭà¼ĭà¼ĭà¼ĭà¼ĭà¼ĭà¼ĭà¼ĭà¼ĭà¼ĭà¼ĭà¼ĭà¼ĭà¼ĭà¼ĭà¼ĭà¼ĭà¼ĭà¼ĭà¼ĭà¼ĭà¼ĭà¼ĭà¼ĭà¼ĭà¼ĭà¼ĭà¼ĭà¼ĭà¼ĭ":9468,"à¼įà¼ĭà¼ĭà¼ĭà¼ĭà¼ĭà¼ĭà¼ĭà¼ĭà¼ĭà¼ĭà¼ĭà¼ĭà¼ĭà¼ĭà¼ĭà¼ĭà¼ĭà¼ĭà¼ĭà¼ĭà¼ĭà¼ĭà¼ĭà¼ĭà¼ĭà¼ĭà¼ĭà¼ĭà¼ĭà¼ĭà¼ĭà¼ĭà¼ĭà¼ĭà¼ĭà¼ĭà¼ĭ":9469,"Ġà¼ĭà¼ĭà¼ĭà¼ĭà¼ĭà¼ĭà¼ĭà¼ĭà¼ĭà¼ĭà¼ĭà¼ĭà¼ĭà¼ĭà¼ĭà¼ĭà¼ĭà¼ĭà¼ĭà¼ĭà¼ĭà¼ĭà¼ĭà¼ĭà¼ĭà¼ĭà¼ĭà¼ĭà¼ĭà¼ĭà¼ĭà¼ĭà¼ĭà¼ĭà¼ĭà¼ĭà¼ĭà¼ĭà¼ĭà¼ĭà¼ĭà¼ĭà¼ĭà¼ĭà¼ĭà¼ĭà¼ĭà¼ĭà¼ĭà¼ĭà¼ĭà¼ĭà¼ĭà¼ĭà¼ĭà¼ĭà¼ĭà¼ĭà¼ĭà¼ĭà¼ĭà¼ĭà¼ĭà¼ĭà¼ĭà¼ĭà¼ĭà¼ĭà¼ĭà¼ĭà¼ĭà¼ĭà¼ĭà¼ĭà¼ĭà¼ĭà¼ĭà¼ĭà¼ĭà¼ĭà¼ĭà¼ĭà¼ĭà¼ĭà¼ĭà¼ĭà¼ĭà¼ĭà¼ĭà¼ĭà¼ĭà¼ĭà¼ĭà¼ĭà¼ĭà¼ĭà¼ĭà¼ĭà¼ĭà¼ĭà¼ĭà¼ĭà¼ĭà¼ĭà¼ĭà¼ĭà¼ĭà¼ĭà¼ĭà¼ĭà¼ĭà¼ĭà¼ĭà¼ĭà¼ĭà¼ĭà¼ĭ":9470,"Ġà½ĸà½ŀà½ĳ":9471,"Ġà½łà½ķà½¢":9472,"à½¦à½Ħà½ĵ":9473,"à½²à½¾à¼Ķ":9474,"à½ĸà½ĸà½¤":9475,"à½¢à½łà½ķà½Ĥà½¦":9476,"à½ĵà½ĳà½Ķà½£":9477,"à½Ħà½ħà½ĵ":9478,"à¾±à¾Ńà¼įà¼į":9479,"à½£à½łà½Ĩ":9480,"à½£à½¡à½ĵ":9481,"à½´à¼ĭà¼Ŀ":9482,"à¾Łà¾±à½±à½¾à¼ĭ":9483,"à½ħà½ĳà½Ĥ":9484,"à¾Ĵà½±à½´":9485,"à½ĺà½¦à½ĺà½Ĳ":9486,"à½īà½ī":9487,"à½Ķà½¢à½Ģ":9488,"à½ĳà½Ĥà½ĺà½Ĳ":9489,"à½Łà½ŀ":9490,"à½ĸà½ŀà½ĸ":9491,"à¾·à¾ĥà¼į":9492,"à¾©à¾©à½²à¼ĭ":9493,"à½Ļà½ŀ":9494,"à½¢à½Ħà½Ħ":9495,"à¾²à½¼à½¾à½¿à¼ĭ":9496,"à½Ľà½Ĭ":9497,"à½ĩà½¡":9498,"à¾«à½¾à¼ĭ":9499,"à½Ļà½ĺà½ĵ":9500,"à¾¦à¾±à¼į":9501,"à½ĳà½ĳà½Ķà½¦":9502,"à½Ĩà½ĳà½Ķà½¢":9503,"à½ĺà½ĵà½ĵà½ĳ":9504,"à¼§à¼¥à¼¨":9505,"à½Ĵà½ĸà½ĵ":9506,"à½Ĵà½¡à½ķ":9507,"à¼©à¼¥à¼ł":9508,"à¼©à¼¤à¼©":9509,"à¼ĭà½Īà¾¤à¾±à½¼":9510,"Ġà½¦à½Ķ":9511,"à¾ļà¾²à½²à¼ĭ":9512,"à¾ļà½»à¼ĭ":9513,"à¼¡à¼£à¼©à¼¢":9514,"à¼¡à¼¤à¼¢à¼ł":9515,"à¼¡à¼¤à¼¢à¼©":9516,"à¼¡à¼¥à¼łà¼łà¼ł":9517,"à¼¡à¼¥à¼¨à¼©":9518,"à¼¡à¼§à¼©à¼¥":9519,"à¼¡à¼¦à¼¡à¼£":9520,"à¾²à½¼à¼įà¼½":9521,"à¼¡à¼¨à¼¨à¼¡":9522,"à¼¡à¼¡à¼¡à¼£":9523,"Ġà¼Ħà¼ħà¼Ħà¼ħà¼įà¼į":9524,"à¾·à½±à½²à½¿à¼į":9525,"à¾·à½±à½²à½¿à¼įà¼į":9526,"Ġà¼ĭà¼ĭà¼ĭà¼ĭà¼ĭà¼ĭà¼ĭà¼ĭà¼ĭà¼ĭà¼ĭà¼ĭà¼ĭà¼ĭà¼ĭà¼ĭà¼ĭà¼ĭà¼ĭà¼ĭà¼ĭà¼ĭà¼ĭà¼ĭà¼ĭà¼ĭà¼ĭà¼ĭà¼ĭà¼ĭà¼ĭà¼ĭà¼ĭà¼ĭà¼ĭà¼ĭà¼ĭà¼ĭà¼ĭà¼ĭà¼ĭà¼ĭà¼ĭà¼ĭà¼ĭà¼ĭà¼ĭà¼ĭà¼ĭà¼ĭà¼ĭà¼ĭà¼ĭà¼ĭà¼ĭà¼ĭà¼ĭà¼ĭà¼ĭà¼ĭà¼ĭà¼ĭà¼ĭà¼ĭà¼ĭà¼ĭà¼ĭà¼ĭà¼ĭà¼ĭà¼ĭà¼ĭ":9527,"à½²à¼ĭà¼½à¼½":9528,"à½Ĵà½¦à½¡":9529,"à½¼à½¼à½¼":9530,"à¼įà¼ĭà¼ĭà¼ĭà¼ĭà¼ĭà¼ĭà¼ĭà¼ĭà¼ĭà¼ĭà¼ĭà¼ĭà¼ĭà¼ĭà¼ĭà¼ĭà¼ĭà¼ĭà¼ĭà¼ĭà¼ĭà¼ĭà¼ĭà¼ĭà¼ĭà¼ĭà¼ĭà¼ĭà¼ĭà¼ĭà¼ĭà¼ĭà¼ĭà¼ĭà¼ĭà¼ĭà¼ĭà¼ĭà¼ĭà¼ĭà¼ĭà¼ĭà¼ĭà¼ĭà¼ĭà¼ĭà¼ĭà¼ĭà¼ĭà¼ĭà¼ĭà¼ĭà¼ĭà¼ĭà¼ĭà¼ĭà¼ĭà¼ĭà¼ĭà¼ĭà¼ĭà¼ĭà¼ĭà¼ĭà¼ĭà¼ĭà¼ĭà¼ĭà¼ĭà¼ĭà¼ĭà¼ĭà¼ĭà¼ĭà¼ĭà¼ĭà¼ĭà¼ĭà¼ĭà¼ĭà¼ĭà¼ĭà¼ĭà¼ĭà¼ĭà¼ĭà¼ĭà¼ĭà¼ĭà¼ĭà¼ĭà¼ĭà¼ĭà¼ĭà¼ĭà¼ĭà¼ĭà¼ĭ":9531,"Ġà½Ĥà½ıà½ĳ":9532,"Ġà½ĵà½¢":9533,"à¼ĭà½±à½²":9534,"à½Ĥà½ĸà½Ł":9535,"à½ĸà½ĸà½¤à½ĳ":9536,"à½ĵà½ĺà½Ľ":9537,"à½Ħà½ĺà½¢":9538,"à½ĺà½ĸà½ł":9539,"à¾±à¼·à½ºà¼ĭ":9540,"à½Ĥà½¦à½łà½ģ":9541,"à¾Łà¾±à½¾à¼į":9542,"à¾Łà¼·à½ºà¼ĭ":9543,"à½Ķà½łà½ĸà½ł":9544,"à¾Ĵà¾Ĺà½¼":9545,"à½ģà½ĳà½Ķ":9546,"à½Ķà½¢à½ĳà½ĺ":9547,"à¾Ĳà¾±à½²à¼į":9548,"à½Ħà½¦à½¡à½Ħ":9549,"à½Łà½ĳà½ĺ":9550,"à½£à½¦à½Ķ":9551,"à¾±à¼ĭà½±à¼ĭ":9552,"à½¡à½Ħà½ĺà½Ħ":9553,"à½Ķà½¦à½Ĥà½Ħ":9554,"à¾·à¾Ĵ":9555,"à½±à½¼à¼į":9556,"à¾©à½½":9557,"à¾¨à¼ĭà¼¼":9558,"à¾¦à¾¦à½¼à¼ĭ":9559,"à¾±à½ºà¼ĭà¼½":9560,"à¾Ńà¼ĭà¼½":9561,"à½Ĥà½¦à½£à½ĳ":9562,"à½ĵà½ĺà½ĸ":9563,"à½Ĳà½ĸà½¦à½£":9564,"à¾Ĳà¾±à¾±à½¼":9565,"à¾Ĳà¾±à½»":9566,"à½¼à½¾à¼ĭà¼½":9567,"à½ĵà½ĳà½¢":9568,"à½Ŀà½Ĥà½¦":9569,"à½ĸà½ıà½Ħà½ĸ":9570,"à¾¤à¾²à½¼à½¼":9571,"à¼¥à¼łà¼łà¼łà¼ł":9572,"à¾²à½ºà¼ĭà½Ī":9573,"à½Ĵà½ĸà½Ľ":9574,"à½Ĵà½Ĥà½¥à½¢":9575,"à¼©à¼¥à¼§":9576,"à¼¨à¼¤à¼¦":9577,"à½ķà½Ĭà½Ĭà½Ĭ":9578,"à¼¡à¼¢à¼©à¼¢":9579,"à¼¡à¼£à¼¨à¼¦":9580,"à¼¡à¼¥à¼§à¼ł":9581,"à¼¡à¼§à¼¨à¼§":9582,"à¼¡à¼¨à¼¥à¼¢":9583,"à¾ĭà½ģ":9584,"à½ĭà½ĭ":9585,"à¾´à½ºà¼ĭà¼´":9586,"Ġà¼§à¼łà¼ł":9587,"à¼©à¼łà¼©à¼ł":9588,"Ġà½ıà½Ĥà½¦":9589,"à½¢à½Ķà½ĸà½¦":9590,"à¼¡à¼¨à¼łà¼¥":9591,"à¼įà¼ĭà¼ĭà¼ĭà¼ĭà¼ĭà¼ĭà¼ĭà¼ĭà¼ĭà¼ĭà¼ĭà¼ĭà¼ĭà¼ĭà¼ĭà¼ĭà¼ĭà¼ĭà¼ĭà¼ĭà¼ĭà¼ĭà¼ĭà¼ĭà¼ĭà¼ĭà¼ĭà¼ĭà¼ĭà¼ĭà¼ĭà¼ĭà¼ĭà¼ĭà¼ĭà¼ĭà¼ĭà¼ĭà¼ĭà¼ĭà¼ĭà¼ĭà¼ĭà¼ĭà¼ĭà¼ĭà¼ĭà¼ĭà¼ĭà¼ĭà¼ĭà¼ĭà¼ĭà¼ĭà¼ĭà¼ĭà¼ĭà¼ĭà¼ĭà¼ĭà¼ĭà¼ĭà¼ĭà¼ĭà¼ĭà¼ĭà¼ĭà¼ĭà¼ĭà¼ĭà¼ĭà¼ĭà¼ĭà¼ĭà¼ĭà¼ĭà¼ĭà¼ĭà¼ĭà¼ĭà¼ĭà¼ĭà¼ĭà¼ĭà¼ĭà¼ĭà¼ĭà¼ĭà¼ĭà¼ĭà¼ĭà¼ĭà¼ĭà¼ĭà¼ĭà¼ĭà¼ĭà¼ĭà¼ĭà¼ĭà¼ĭà¼ĭ":9592,"Ġà¼Įà¼Įà¼Įà¼Įà¼Įà¼Įà¼Įà¼Įà¼Įà¼Įà¼Įà¼Įà¼Įà¼Įà¼Įà¼Įà¼Įà¼Įà¼Įà¼Įà¼Įà¼Įà¼Įà¼Įà¼Įà¼Įà¼Įà¼Įà¼Įà¼Įà¼Įà¼Įà¼Įà¼Į":9593,"à½¦à½Ĥà½¦à½Ħ":9594,"à½¦à½łà½Ĩà½ĳ":9595,"à½ĳà½ĵà½ĺ":9596,"à½ĵà½£à½ĵ":9597,"à¼įà¼Ħà¼ħà¼į":9598,"à½Ķà½ĺà½īà½ĺ":9599,"à½Ķà½ĸà½¦à½£":9600,"à¾±à½±à¼Ķ":9601,"à½Ĥà½¦à½¦à½ĺ":9602,"à¾²à¾¤à¾²à½²":9603,"à½¼à¼ĭà¾Ĵ":9604,"à¾Łà¾¤à¾±à½¼":9605,"à½ħà½ģ":9606,"à½ĸà½¦à½¨":9607,"à½Ĳà½łà½Ħ":9608,"à½ıà½Ħà½ł":9609,"à½Ķà½¢à½ļ":9610,"à½¤à½łà½ĳ":9611,"à¾Ĳà¼Ķ":9612,"à½ĵà½¦à½¦à½Ħà½¦":9613,"à½Łà½Ĥà½£":9614,"à½ĸà½ħà½łà½ĸ":9615,"à¾·à½´à¼įà¼į":9616,"à½Ĥà½Ħà½łà½ĳ":9617,"à½ĩà½Ķ":9618,"à¾Łà½ºà¼įà¼Ħà¼ħà¼įà¼į":9619,"à½Ĥà½ĵà½ĺà½¦":9620,"à¾Ĳà¾±à¾Ĺà½º":9621,"à½£à½ĵà½Ĥà½ī":9622,"à¾·à½¼à¼ĭà¼Ħà¼ħà¼įà¼į":9623,"à¾·à½²à¼ĭà½Īà½¼":9624,"à½łà½Ĥà½Ĥà½Ķà½¢":9625,"Ġà½¢à½Ģ":9626,"à¼¡à¼§à¼¥à¼¦":9627,"à¼Ģà½¨à½¢":9628,"à¼ĭà¾¢à½º":9629,"à¾´à½¿à¼į":9630,"à½ĥà½ĳà½Ħ":9631,"Ġà¼łà¼łà¼łà¼łà¼łà¼ł":9632,"à¼§à¼©à¼¥":9633,"à¼¡à¼¢à¼¨à¼¤":9634,"à½ºà¼ĭà¼½à¼½":9635,"à¼¡à¼§à¼łà¼©":9636,"Ġà¼¡à¼¢à¼¥":9637,"Ġà¼¡à¼¤à¼¥":9638,"à½ĸà½¤à½Ĳà½ĸà½ĸà½ĸ":9639,"Ġà½Ķà½łà½ĺ":9640,
[...]
