#version: 0.2
à ¼
à¼ ĭ
à ¾
½ ¦
à ½¦
½ ²
à ½²
½ ĳ
à ½ĳ
½ Ĥ
à ½Ĥ
½ ĸ
à ½ĸ
½ ¼
à ½¼
½ ¢
à ½¢
½ ĵ
à ½ĵ
½ ´
à ½´
½ Ħ
à ½Ħ
½ º
à ½º
½ ĺ
à ½ĺ
à¾ ±
½ ł
à ½ł
à½² à¼ĭ
½ Ķ
à ½Ķ
½ £
à ½£
à¼ į
à½Ĥ à½¦
à¾ ²
à½º à¼ĭ
à½´ à¼ĭ
à½¼ à¼ĭ
½ ¡
à ½¡
½ Ģ
à ½Ģ
½ ŀ
à ½ŀ
à¾ Ł
½ Ĩ
à ½Ĩ
à¾ Ĵ
à½Ķ à½ł
à½ĸ à½¦
à½ĳ à½Ħ
½ ħ
à ½ħ
à¾± à½²à¼ĭ
½ ģ
à ½ģ
½ Ĳ
à ½Ĳ
½ ķ
à ½ķ
½ ļ
à ½ļ
à½ĺ à½¦
½ ı
à ½ı
à¾± à½²
½ ī
à ½ī
à¾Ĵ à¾±
½ ¤
à ½¤
à¾ Ĳ
à½ĳ à½Ĥ
à½Ķ à½¢
à½ł à½ĳ
à½ĸ à½¢
à¾ £
à½ĵ à½¦
à½Ħ à½¦
à¾ ³
½ Ł
à ½Ł
à½¼ à¼į
à¼ĭ à¼į
à¾ ¡
à¾± à½º
à¾± à½´
à¾² à½´
à½ĸ à½ł
à½ł à½Ĥ
à½ĸ à½ŀ
à¾± à½¼
à½ł à½ĸ
à½£ à½¦
à¾ ¤
à½ł à
à½łà ½
à¾ Ĺ
à½¡ à½Ħ
à½Ķ à½¦
à½ĳ à½ĸ
à½ĸ à½ħ
à¾Ł à½¼
à¾± à¼ĭ
à¾ Ķ
à½º à¼į
à¾ ©
à¾ ·
à½Ĥ à½ŀ
à¾² à½²
à½Ĥ à½ī
à¾² à½¼
½ Ļ
à ½Ļ
à½¢ à½Ħ
½ ±
à ½±
à½ĺ à½Ĳ
à¾ Ļ
à½ĺ à½ļ
à¾² à¼ĭ
à¾ ¨
à½ĳ à½ĺ
à¾ ¦
à½ł à½ģ
à½ĳ à½Ķ
à¾Ĵà¾± à½´
à½łà½ ĩ
à½ĸ à½ĳ
à½Ĥ à½Ħ
à½Ĥ à½ĵà½¦
à¾Ł à½º
à¾Ł à¼ĭ
à½Ĥ à½ħ
½ Ľ
à ½Ľ
à½ħ à½ĵ
à¾² à½º
à¾³ à½¼
à¾Ĳ à¾±à½º
à½ĺ à½Ĩ
à½ĺ à½ģ
à½ĺ à½Ħ
à½ĸ à½Ł
à½ł à½ķ
à½Ĥ à½ı
à½² à¼į
à½ĳà½ĸ à½Ħ
à½łà½ Ľ
½ ¨
à ½¨
à½Ĳ à½ĺà½¦
à½ħ à½ĳ
à¾± à½ºà¼ĭ
½ §
à ½§
à½ĸ à½ĳà½Ĥ
à½ĳ à½Ģ
à¾³ à¼ĭ
à¾² à½¼à¼ĭ
à½ĵ à½Ħ
à½ĸ à½Ģ
à¾Ĵà¾± à¼ĭ
à½ĸ à½¤
à¾ «
à½ĺ à½Ľ
à½Ĥ à½Ł
à½Ĥà½ŀ à½ĵ
à¾Ĺ à½ºà¼ĭ
à½¢ à½ĸ
à¾Ĺ à½º
½ ĩ
à ½ĩ
à½£ à½ĺ
à¾· à¼ĭ
à½± à¼ĭ
à¾Ĵà¾± à½´à¼ĭ
à½ĺà½ļ à½ĵ
à¾Ĵ à¾²à½´
à¾¡ à½´
à¾Ķ à¼ĭ
à½Ĥ à½ĳ
à½Ĥ à½¡
à¼ ¡
à¾¡ à½¼à¼ĭ
à½ĸà½¤ à½ĳ
à¾Ł à½ºà¼į
à½ĺ à½ĳ
½ ¾
à ½¾
à¾Ĵ à½¼
à½ĸà½ħ à½¦
à¾Ĳ à½´à¼ĭ
à½ĸ à½ı
à¾² à½²à¼ĭ
à¾Ĺ à½¼
à½ĺ à½ł
à½¦ à½Ħà½¦
à¾« à½¼
à¾Ł à½ºà¼ĭ
à½Ļ à½ĺ
à½ĺà½Ľ à½ĳ
à¾Ļ à½²
à¾ Ń
à¾¤ à¾±à½¼
à½Ĥà½¦ à½£
à¾Ĳ à¾±à½ºà¼ĭ
à¾© à¼ĭ
à½łà½ĳ à½¦
à½Ĥ à½¤
à½¾ à¼ĭ
à½ĸà½¦ à½ĺ
à½ł à½Ĩ
à½Ĥ à½ĵ
à¾¡ à½¼
à½ĺ à½Ĥ
à½ĳ à½Ķà½ł
à½Ĥ à½Ļ
à¼ ¢
à¾¦ à¾±à½¼
à¾³ à½¼à¼ĭ
à¾Ĳ à½¼
à½ĸ à½Ĥ
à¾Ĳ à½´
à½ĸ à½Ļ
à½£ à½Ĥ
à½ł à½ļ
à¾© à½¼
à¾Ĳ à¾±à½¼
à½ĸà½Ł à½Ħ
à¾³ à½´
à½ĺà½Ĳ à½ł
à½ĵ à½ĺ
à¾Ķ à½¼
à½ĳà½Ķ à½£
à½ļ à½ĳ
à¾Ĵ à½¼à¼ĭ
à½ĳà½Ĥ à½ł
à¾£ à¼ĭ
à½´ à¼į
à½ĺ à½¢
à½Ĩ à½Ĥà½¦
à¾¦ à¾±
à½ĺ à½ī
à½ĸà½Ģ à½ł
à½ĳà½Ģ à½¢
à¾Ļ à½º
à½Ĳ à½ĸà½¦
à¾Ĳ à¾±
à½ģ à½ĺà½¦
à½ī à½ĺà½¦
à½ĺà½ģ à½ł
à½Ħ à½Ĥ
à¼ §
à¾¤ à¾±à½²à¼ĭ
à¾Ń à¼ĭ
à½ł à½Ħ
à½ł à½Ĳ
à¾¡ à½ºà¼ĭ
à½ģ à½Ħ
à¼ £
à½ĳ à½ĳ
à½± à½´
à¾¨ à½¼
l n
à½Ĥà½¦ à½Ħ
à½ĺà½ī à½ĺ
à½Ħ à½ĵ
à¾Ĵ à¾²à¼ĭ
à½Ł à½ĳ
à¼ ¤
à¾ ķ
à½ķ à½ĵ
à½Ĥ à½ĵà½Ħ
à½Ķ à½ĳ
à¾Ĵ à¾²à½²
à¾¦ à¾±à½²
à½Ĩ à½ĳ
à¾¤ à¾±
à¾© à½ºà¼ĭ
½ İ
à ½İ
à¼ ¥
à½Ĥà½ı à½ĵ
à½ĸà½ŀ à½Ĥ
à½ĵ à½Ĥ
à½ı à½ĵ
à¾¨ à¼ĭ
à½ŀ à½£
à¼ ¦
à½ĺà½ģ à½¦
à¼ ©
à½Ĥ à½£
à½łà½ķ à½Ĥà½¦
à½ļ à½Ħ
à½ĺ à½ĵ
à½ĵ à½ĳ
à½ĺà½ģ à½ĵ
à¾³ à½²
à½ĺà½Ĳ à½¢
à½£ à½ĵ
à½ĸ à½£
à½¡ à½ĵ
à½Ĳ à½£
à¾¤ à¾²à½´
à½ĳà½ĺ à½¢
à½Ĥ à½¢
à¾² à½´à¼ĭ
à½Ĳ à½¢
à½¤ à½¢
à¾ ĥ
à¾Ł à½´
à¾Ĵ à¾²à½¼
à½¦ à½¢
à¼ ¨
à½¼ à½¾à¼ĭ
½ Ĭ
à ½Ĭ
à½ĸà½ı à½Ħ
à¾³ à½´à¼ĭ
à½Ł à½Ĥ
à¾± à¼į
à¾© à½²
à¾· à½´
à½£ à½Ĥà½¦
à½Ĥà½¦ à½¢
à½Ĳ à½Ĥ
à½ĳ à½¢
à½ĺà½ļ à½ĺà½¦
½ Ŀ
à ½Ŀ
à¾¨ à½²
à¾³ à½º
à¾±à½² à¼į
à½Ĳ à½Ħ
à½ĸà½ħ à½ĳ
à¾¤ à½¼
à½ŀ à½ĸà½¦
à½ĳà½Ģ à½ł
à¾ĥ à¼ĭ
à¾¡ à½²
à½Ł à½ĸ
à¾¡ à½º
à½łà½ĩ à½ĺ
à¾¨ à¾²à¼ĭ
à½ł à½ĺ
à½ĳà½Ķ à½Ĥ
à¾Ļ à½¼
à½ī à½ĵ
à½± à½²à¼ĭ
à½łà½ļ à½£
à½łà½Ĥ à½£
à¾£ à½¼
à¾¤ à¾²à½¼
à½ĺ à½ĩ
à¾¨ à¾²
à½Ĥà½¡ à½¦
à½ĸà½ı à½Ĥà½¦
à½¢ à½ĸà½¦
à½Ħ à½Ħ
à½łà½Ĥ à½ł
à½Ĥà½ĳ à½ĵ
à¾¤ à¾±à½²
à¾© à½²à¼ĭ
à½ĸ à½Ľ
à¾Ĵ à¾²
à½±à½´ à¾ĥà¼ĭ
à½ĵ à½ĺà½¦
à½¡ à½¦
à½ĸà½ı à½ĸ
à½Ĥà½ĵ à½ĳ
à½ł à½ĸà½¢
à½ļ à½ĵ
à½Ł à½¦
à½Ĥà½Ļ à½Ħ
à¾© à½º
à½ĸà½Ļ à½ĵ
à½ĳà½ĺ à½Ĥ
à½¡ à½ĸ
à½łà½Ĩ à½ĳ
à¾² à¾Ńà¼ĭ
à½Ģ à½¢
à½¦ à½ĺ
à½Ĥà½ŀ à½Ĥ
à½ģ à½¦
à½Ĥà½ĳ à½ĺà½¦
à½Ķà½ł à½ĺ
à½Ĩ à½¢
à½ĳà½Ĥ à½Ĥ
à½£ à½łà½Ħ
½ ¥
à ½¥
à½ĺà½Ħ à½ł
à¾¤ à½º
à½¤ à½¦
à¾· à½¼à¼ĭ
à½Ĥà½ı à½ĺ
à¾Ĳ à¾±à½²
à¾¦ à¼ĭ
à½Ķ à½İ
à½¢ à½¦
à½±à½´ à½¾à¼ĭ
à½ģ à½Ĥ
à½¼à¼ĭ à¼į
à½łà½Ĩ à½¢
à¾ Ģ
à¼į à¼ĭ
à¾ ľ
à½£ à½ł
à¾Ĳ à¾±à¼ĭ
à½ŀ à½Ĥ
à½¡ à½¢
Ġ à½¦
à½ħ à½Ĥ
à¾² à½ºà¼ĭ
à½łà½Ĩ à½Ħ
à¾¡ à¼ĭ
à½ĵ à½ĵ
à¾¤ à¾²à½²
à¾¡ à½´à¼ĭ
à½¦ à½ł
à½Ģ à½ł
à½ĵ à½łà½Ħ
à½ķ à½£
à¾Ķ à½¼à¼ĭ
à½ĸ à½ĸà½¦
à¾± à½´à¼ĭ
à½ļ à½Ħà½¦
à¾¤ à½´
à½ħ à½Ħ
à½ĸà½Ł à½ł
à½ĸà½¦ à½£
à½± à¼į
à½Ķà½ł à½Ħ
Ġ à½¢
à½ĺà½ĳ à½ł
à½ĸ à½ĸ
à½Ĥ à½Ħà½¦
à½ĺà½ĩ à½£
à½łà½ĳ à½ĸ
½ Į
à ½Į
à½ĳà½Ħ à½¦
à½ĺà½ļ à½¢
à¾¨ à½²à¼ĭ
à½ĸà½¦ à½ĺà½¦
à½ķ à½Ĭ
à½łà½Ĳ à½ĳ
à½¢ à½£
à½Ĥ à½ł
à½Ĳ à½ĳ
Ġ à¼¡
à¾· à½²à¼ĭ
à½ģ à½ĸ
à½ļ à½£
à¾Ĳ à¾²
à½Ĥà½ŀ à½£
à½ĸà½ħ à½ł
à½ĺà½ģ à½¢
à½ļ à½¢
à½łà½ĸ à½ĳ
à½Ĥà½¦ à½ĵ
à½Ħ à½ł
à¼¡ à¼©
Ġ à½£
à½ĸ à½ĺ
à½Ĥà½ı à½ĳ
à¾Ģ à¼ĭ
à¼¡ à¼§
à¾¤ à¾²à½¼à¼ĭ
à½Ĩ à½¦
à½łà½Ĥ à½Ĥ
à½± à½²
à½ĳà½ĺ à½ĵ
à½Ĩ à½Ĥ
à½Ĥà½ĵ à½ĺ
à½£ à½Ħ
à½¦ à½Ħ
Ġ à½ĳ
à½¾ à¼į
à½łà½Ľ à½ĺ
à½Ĥ à½ĺ
à¾¤ à¾²
à½ķ à½¢
à½ģ à½¢
à½ĸà½Ģ à½Ĥ
Ġ à½ĸ
à¾² à¼į
à¾Ĳ à¾²à½´
à½ĳà½ĺ à½Ħà½¦
à¾Ń à½±à¼ĭ
à½ĸà½¦ à½Ĥà½¦
à½ĸà½ł à½ĺ
à½ĺ à½£
à½ĵ à½ł
à½¢ à½ĺ
à¼¡ à¼¢
à½Ħ à½£
à½¡ à½Ħà½¦
à½Ĩ à½Ħ
à½£ à½Ħà½¦
à½Ĥ à½ĳà½ĸ
Ġ à½Ķ
à½łà½ĸ à½ĸ
à¼ĭ à¼
à½Ĩ à½ĸ
à½ĳ à½£
à½ķ à½Ĥ
à¾« à½´
à½ĵ à½¢
à¾¦ à¾²
à½¢ à½Ĥ
à½¢ à½Ĥà½¦
à½ļ à½ĸ
à½Ħ à½ĺ
à½± à½´à¼ĭ
à¾« à½´à¼ĭ
à½ķ à½ĺ
à½ķ à½ĸ
à½ł à½ĸà½ł
à¼¡ à¼¡
à½łà½ĳ à½ł
à¾¦ à¾²à½´
à¾² à½±à½²à¼ĭ
à¾ µ
à¾Ĵ à¼ĭ
à½ĸ à½ĵ
à¾¤ à½´à¼ĭ
à½łà½Ĥ à½ĵ
à½łà½ķ à½Ħ
à¾· à½¼
à½ĸà½¤ à½Ĥà½¦
à½ĳ à½ĵ
à¾Ĵ à½º
à½ī à½£
à¾ķ à½ºà¼ĭ
à½ĸà½¦ à½ĳ
à¾Ĵ à½´
à¾Ĳ à¾±à½´
à¾Ĺ à½²
à½łà½Ĥ à½Ĥà½¦
à½ĵ à½Ĥà½¦
à¾£ à½´
à½¦ à½ĳ
à¾Ĳà¾± à½¼à¼ĭ
à¾Ĵ à¾²à½¼à¼ĭ
à½ĸ à½Ħ
à½ĺ à½ĳà½Ħà½¦
à¾Ł à½²
à½¡ à½Ĥ
à½łà½Ĳ à½ĸ
à½¡ à½£
à½ĸà½Ļ à½£
à½Ĥà½Ł à½ł
à½Ĥà½ī à½ĵ
à¾Ĳ à¾²à¼ĭ
à¾Ł à½²à¼ĭ
à½Ļ à½ĵ
à¼¡ à¼£
à½ŀ à½Ħ
à½ĺà½ĵ à½ĵ
à¾· à½±à¼ĭ
à½Ģ à½ĵ
à½ģ à½ł
à¾« à¼ĭ
à¼¡ à¼¤
à¼¡ à¼¥
à¼¡ à¼¨
à½±à½´ à¾ĥ
à¼¢ à¼¢
à¾± à½¼à¼ĭ
à¼ĭ à½²
à½ĺ à½İ
à½Ĥ à½¡à½Ħ
à½Ķ à½ĵ
½ Ī
à ½Ī
à½Ħ à½¢
à¾¦ à½¼
à¾ľ à½²à¼ĭ
à¾Ł à½¼à¼ĭ
à¼¡ à¼¦
à½¢ à½Ģ
à¾ ª
à¾¨ à½´
à½Ł à½Ħà½¦
à¾² à½¼à¼į
à½Ĩ à½ł
à¾² à¾Ģà¼ĭ
à¾¦ à½´
à¾© à¾Ńà¼ĭ
à½łà½ĩ à½ł
à¾Ķ à¼į
à½£ à½¢
à½ĺà½Ĩ à½ĵ
à½¢ à½ł
à¾¡ à¾·à¼ĭ
à½Ĥà½ĵ à½ł
à½Ĥà½ĳ à½Ĥà½¦
à½ĺà½ī à½ĵ
à¾© à½´
à½ŀ à½Ĥà½¦
à¾· à½´à¼ĭ
Ġ à¼¢
à½łà½ļ à½Ħ
à¾Ĳ à½º
½ ª
à ½ª
à½¦ à½¦
à¾Ĳ à¼ĭ
Ġ à¼£
à½łà½ĸ à½Ħà½¦
à½ĸà½ŀ à½ĳ
à½²à¼ĭ à¼į
à½ĺà½Ħ à½£
à¾ķ à½²à¼ĭ
à¼ĭ à½Ī
à¾µ à¼ĭ
à½ĳà½ĸ à½ĸ
à¾Ń à½±
à¾£ à½ºà¼ĭ
à½ī à½Ĥ
à½¤ à½ĵ
à½ĳ à½Ķà½¢
à½ĸà½ł à½Ħ
à½¤ à½Ĥ
à½ı à½Ħ
à½Ĳ à½ĸ
Ġ à½ļ
à½¨ à½Ħ
à½ī à½ĺ
à½ŀ à½ĵ
à¾¤ à¾²à½º
à½¢ à½ĵ
à¾² à¾Ń
à½ĸà½¦ à½Ħ
à¾Ĳà½´ à¼į
à¾Ĵà¾±à½´ à¼į
à½Ĥ à½ĳà½Ħà½¦
à½ħ à½¢
à½Ł à½Ħ
à½Ĥà½ĳ à½ł
à½¼à¼į à¼ĭ
Ġ à½ĵ
à½ĸà½¤ à½ĺà½¦
à¾« à½²
à½Ĳ à½ĺ
à½Ĥà½ı à½Ħ
Ġ à½Ĥ
à½¢ à½ı
à¼ µ
à¼ĭà¼ ´
Ġ à½ĺ
à¾Ļ à½±à¼ĭ
à½¨ à½¢
à¾Ķ à½´
à½ĵ à½Ķ
à½łà½ķ à½¢
à¾Ĵ à¾²à½º
à¼ĭà¼į à¼ĭ
à¾Ĺ à½ºà¼į
à½łà½ķ à½Ħà½¦
à¾Ĳ à½¼à¼ĭ
Ġ à¼§
à½łà½ļ à½ĺà½¦
à½±à½´ à½¾à¼į
à½¤ à½ĺ
à½Ĥà½ħ à½ĵ
à¾¦ à¾²à½º
à½ĺ à½ĺ
à¾ ¥
à½Ķ à½Ĥà½¦
Ġ à½ĸà½¦
à½ĳ à½Ĥà½¦
à½ļ à½Ĥà½¦
à½ĸà½Ģ à½Ħ
à¾· à½ºà¼ĭ
à½£ à½ĸ
à½łà½ĩ à½£
Ġ à½ī
à½łà½ĳ à½ĺ
à¾ª à¼ĭ
à½ĺà½Ħ à½¢
Ġ à½Ģ
à¾²à½² à¼į
à½Ł à½ĵ
à½ĺà½Ľ à½ł
à½¢ à½Ħà½¦
à½Ģ à½¦
à¾ķ à½º
à½Ĥ à½ĸ
à¾ ļ
à¾¤ à¼ĭ
à¾ľ à¼ĭ
à½ĳà½ĺ à½ł
Ġ à½ķ
à½ĺà½ĵ à½¢
à¾· à½²
à¾ ŀ
à¼¢ à¼¥
à½Ĥà½¤ à½ĺ
à¾¤ à½¼à¼ĭ
à½ı à½ł
à¼¢ à¼¤
à¾£ à½¼à¼ĭ
à¾ķ à½¼
Ġ à½ŀ
à½ĳà½Ķ à½Ħ
à½łà½Ľ à½Ĥ
à½± à½¾à¼ĭ
à½¦ à½ĵ
à¾ Ľ
à¼¢ à¼¦
à¾Ł à¼į
à½łà½ĩ à½Ĥà½¦
à½¤ à½£
à½±à½´à¾ĥ à¼į
à¾² à¾Ģ
à¼ĭà¼ Ĳ
à½¤ à½Ħ
à½Ŀ à½Ħ
à¾¨ à¾±à½´
à¼ Ģ
à¼¢ à¼£
Ġ à½¡
Ġ à½Ĩ
à¼ĭà½Ī à½²
à¾« à½²à¼ĭ
à½Ĥà½Ł à½ĵ
à½ĸà½ħ à½¢
à¼ ´
à½ĳà½ĸ à½£
à½¼à¼į à¼ĭà¼į
à½ģ à½ĺ
à½Ĥà½ŀ à½¦
à¾¨ à½ºà¼ĭ
à¼¢ à¼§
à¾¡ à¾²à¼ĭ
à½ĳ à½Ķà½¦
Ġ à½¤
à½¢ à½¢
à¼¢ à¼¡
à½¤ à½ĳ
à½Ĥà½¦ à½¦
à½ļ à½ĸà½¦
à¼¢ à¼©
Ġ à½Ł
Ġ à½Ĥà½¡
à¼¢ à¼¨
Ġ à½ĳà½Ħ
à½ĸà½Ł à½ĳ
à½Ĥà½ħ à½ĳ
à½Ĥà½¡ à½Ĥ
à½ģ à½£
à¾¡ à½ºà¼į
à¾Ļ à½´
à½ŀ à½¢
à½Ĳà½ĺà½¦ à½ħà½ĳ
à¾Ĳà¾±à½º à¼į
à½ĺà½Ħ à½Ĥà½¦
à½Ĥà½Ł à½ĸ
à½Ł à½ĺ
à½łà½ĳ à½¢
Ġ à½Ķà½ł
½ Ĵ
à ½Ĵ
à½łà½ļ à½ĺ
à½ĳ à½¦
Ġ à½łà½ĳ
Ġ à½ģ
à¾· à¼į
à½ĳà½Ĥ à½¢
à½ĳ à½ĸà½¢
à½Ķ à½ī
à¾¨ à¾±à½¼
à½¤ à½ł
à¾¨ à½¼à¼ĭ
à¼ Ĳ
à½łà½Ĩ à½£
à½Ĥà½ī à½ł
à½Ļ à½Ģ
à¾±à½º à¼į
à¾¡ à¾·à½²à¼ĭ
Ġ à½ĸà½¢
Ġ à½Ĥà½¦
à¾ °
Ġ à¼¥
Ġ à¼¤
Ġ à½Ĳ
½ Ĺ
à ½Ĺ
à¾¨ à½º
à½ĸà½Ļ à½¦
à¾· à½±à½´à¼ĭ
à½¦ à½ı
à½ĸà½¦ à½Ħà½¦
à¾¦ à¾²à¼ĭ
à¾Ĳ à½ºà¼ĭ
à½´à¼ĭ à¼į
à½´ à½¾à¼ĭ
Ġ à½¨
½ µ
à ½µ
à½Ł à½ł
à½Ķ à½£
à½Ĥà½¡ à½ł
à¾Ļ à½ºà¼ĭ
à¾² à½±à½²
à¾± à½±à¼ĭ
à½ºà¼ĭ à¼į
à½ĸà½¤ à½Ħ
à¾¦ à½´à¼ĭ
à½¼ à¾ĥà¼ĭ
à¼µ à¼ĭ
à½Ķ à½Ħ
à¾· à½¾à¼ĭ
à½ĺ à½§
à¼£ à¼£
à½ī à½¢
à½Ĥà½ĵ à½Ĥ
à¾Ĵà¾± à¼į
à¾³ à¼į
à½ķ à½¦
à½ģ à½ĳ
à½Ĥà½ı à½¢
à½¡ à½ł
à½Ģ à½Ħ
à¾¦ à¾·à¼ĭ
à½ĸà½ħ à½Ħà½¦
à¼į à¼ĭà¼į
à½ĺà½ĵ à½ł
à½ĺà½Ĥ à½¢
à½łà½Ĩ à½ĺ
à½¨ à½ĵ
à½łà½Ĥ à½¢
à½£ à½ĳ
à¾Ľ à¼ĭ
à½Ĥà½¦ à½ĳ
à½¢ à½ĳ
à½Ĥà½Ł à½¢
à¼£ à¼¥
à¼£ à¼¤
à½¦ à½ĸ
Ġ à½Ĥà½ī
Ġ à½ĳà½Ĥ
à¼£ à¼¦
à¼£ à¼§
à½² à½¾à¼ĭ
à½¡ à½ĳ
à½Ħ à½ĳ
à½łà½ĳ à½ĸà½¦
à½Ĥ à½Ĥ
à½Ĳ à½ł
à½ĺà½ģ à½£
à½¢ à½ĺà½¦
à¾ »
à¼¡à¼© à¼©
Ġ à¼¦
à¼£ à¼¨
à½¦ à½ĺà½¦
à½ł à½ĳà½Ĥ
à¼ĭ à½º
à¼£ à¼©
à½¦ à½£
à½ĸà½Ł à½Ħà½¦
à¼¤ à¼¥
à½Ĥà½¡ à½¢
à½¦ à½Ķ
à½§ à½ĵ
à½Ķ à½ĺ
Ġ à¼¨
à¼¡à¼© à¼¨
à½¤ à½Ħà½¦
à½ĺà½ł à½ĺ
à½ĸà½¤ à½£
Ġ à½ĳà½Ķà½£
à¼¥ à¼©
à½ĸà½¤ à½ĺ
à½Ľ à½ĺ
à½¨ à½Ĥ
à¾· à¾±à½¼à¼ĭ
à½Ĥ à½ĳà½ĺ
à½ı à½ĺ
à¾¡ à¾·
à½Ĳ à½ĵ
à¼¤ à¼¤
à½ļ à½ł
à½¦ à½Ģ
à½ĵ à½£
à¾ ł
½ ĭ
à ½ĭ
à¾Ĵ à½´à¼ĭ
à½ı à½Ĥ
à½ĸà½ħ à½Ĥ
à½¨ à½ĺ
à½ºà¼į à¼ĭ
à¾Ĵ à½ºà¼ĭ
à½ĩ à½Ĥ
à½Ĩ à½ĸà½¦
à½ł à½ĳà½Ħ
Ġ à½¡à½Ħ
à½ł à½Ĥà½¦
à½ĸà½ħ à½Ħ
à¾ ´
à½ĳ à½ł
à½ĺà½ļ à½£
à½łà½ķ à½ĵ
à¾³ à½ºà¼ĭ
à¾¨ à½±à¼ĭ
à¾¨ à¾²à½¼
à½ĳà½Ĥ à½Ħ
à¾ŀ à¼ĭ
à¾¥ à¼ĭ
à½ĸà½Ģ à½ĸ
à¼¥ à¼¦
à¼¤ à¼§
à½ī à½Ħ
Ġ à½ħ
Ġ à½ĵà½¦
à¾¨ à¾±à½¼à¼ĭ
à¼¥ à¼§
à¼¤ à¼¦
à½łà½Ĩ à½Ĥà½¦
à¾¨ à¾²à½²
à½Ĩ à½ĵ
à½ĸà½Ģ à½¦
à½ĸà½Ļ à½ł
à½ĸà½Ģ à½£
à¾Ĵ à½±
à¼¥ à¼¨
à¼¤ à¼©
à½¦ à½Ĥ
à½Ĥà½ı à½ĺà½¦
à½± à½²à¼į
Ġ à¼©
à½¡ à½ĺ
à½ĵ à½Ħà½¦
à¼£ à¼¡
à½łà½Ĩ à½ł
à½ĳà½Ķ à½Ħà½¦
à¼¤ à¼¨
à¾¦ à½º
à½Ļ à½Ħ
à½łà½Ĳ à½Ĥ
à½ĵ à½Ķà½ł
Ġ à½Ķà½¢
à¼¥ à¼¥
à½ı à½¦
à¾Ķ à½´à¼ĭ
à½łà½Ľ à½ĳ
à¾Ĵ à¾±à½²
à½µ à¾ĥà¼ĭ
à¼§ à¼§
à¼ĭà¼ º
à¾² à½ºà¼į
à½ī à½ł
Ġ à½Ħ
à¼£ à¼¢
à½Ŀ à½¢
à½ĸà½Ģ à½¢
à½ĺà½ļ à½Ħ
à¾Ĵà¾² à¼į
à¾Ĳà¾± à½´à¼ĭ
à½ĵ à½ı
à½Ĥà½¡ à½ĸ
à½Ĭ à½ł
à¾¡ à¾·à½ºà¼ĭ
à¾· à¾±à¼ĭ
à½ĺà½ĵ à½£
à½ĸà½ĳ à½¢
Ġ à½ĸà½ĳ
à¼¦ à¼¦
à¼ĭ à¾
à¾Ĳ à¾±à½²à¼ĭ
à½ĺ à½Ħà½¦
à½łà½ģ à½¢
à½Ħ à½ĸ
à¾· à½±
à½ĵ à½ĸ
à½ķ à½ł
à½ĸà½¦ à½ĵ
à¾» à¼ĭ
à¾ļ à¼ĭ
à¾Ń à½¼à¼ĭ
Ġ à½ĸà½Ģà½ł
à½Ĩ à½ĺ
Ġ à¼Ĳ
Ġ à½łà½ĸ
à½Ķ à½ĳà½Ħ
à¾¤ à½ºà¼ĭ
à½łà½ĸ à½Ĥ
à½²à¼į à¼ĭ
à½ĳ à½ħ
à¼ĭ à½¼
à½łà½ĩ à½Ħ
à¾Ĵà¾± à½¼
à¾Ļ à½²à¼ĭ
à¾Ļ à¼ĭ
à¾² à½±à¼ĭ
à½§ à½ł
à¾· à¾±
à¼¦ à¼§
à¾° à¼ĭ
à¾± à¾Ģà¼ĭ
à¾¡ à½²à¼ĭ
à¾· à½±à½²à¼ĭ
à½§ à½¢
Ġ à½Ĥà½Ħ
à½Ļ à½İ
Ġ à½¢à½Ħ
à½¡ à½ĺà½¦
à¼¦ à¼¨
à½ĳ à½ĸà½ł
Ġ à½ı
à¾Ķ à½¼à¼į
à½ķ à½Ħà½¦
à½¡ à½Ģ
à½łà½Ĩ à½Ĥ
à½Ŀ à½ĵ
à¼¦ à¼©
à½Ĥà½¤ à½Ĥà½¦
à½ĸà½ĳ à½ĺà½¦
à¾Ł à½±à¼ĭ
Ġ à½£à½¦
à¾· à½º
à½±à½´ à½¾
à¾³à½´ à¼į
à¾£ à½º
à¼¤ à¼¢
à½łà½ĳ à½ĵ
Ġ à½ĸà½ħ
à¼§ à¼©
à¾· à¾²
à¾± à¾Ńà¼ĭ
à¼¦ à¼¥
à½ļ à½Ĥ
à½ĳà½Ħ à½Ħà½¦
Ġ à½ł
à½ĸà½¦ à½Ĥ
à¼¤ à¼¡
à¾© à¼į
à¾ļ à½²à¼ĭ
à½ĸ à½ĳà½Ħ
à¾Ĵ à½¼à¼į
à¾¨à¾² à¼į
Ġ à½ĳà½ĸ
à¾ ¶
à½ĺ à½ĳà½Ħ
à¼§ à¼¨
à¾¨à¾² à½ºà¼ĭ
à½Ĥ à½ĳà½Ħ
Ġ à½ĸà½ŀ
à½¨ à½ł
à¾µ à½²à¼ĭ
à½ĺà½Ľ à½Ħà½¦
à½ĺà½ł à½Ħ
à½ĵ à½Ķà½¢
à½Ĥ à½Ķ
à¼© à¼©
à¾ľ à½²
à¾Ĳ à½²à¼ĭ
à¾±à½²à¼ĭ à¼į
à¾³ à½²à¼ĭ
à¾´ à¼ĭ
à½ģ à½İ
à¼¤ à¼£
à¼ĭ à½²à¼ĭ
à½Ĥà½ĳ à½£
à½º à½º
Ġ à½łà½Ĥ
à½Ĥà½¦ à½ĸ
Ġ à½ĩ
à¾² à½¾à¼ĭ
à½Ļ à½¢
à¼ º
à¼¥ à¼¡
Ġ à½łà½ģ
à½Ĥà½¦ à½Ķ
à¾Ł à½¾à¼ĭ
à½Ĳ à½Ĥà½¦
à½£ à½£
à½łà½Ĩ à½ĸ
à¼ĭà¼ ¹
à½ĸà½ĳ à½£
à½¼ à½¾
à¾© à½ºà¼į
à½Ķ à½ŀ
à½¤ à½ĸ
à½Ķà½¢ à½ĸ
à½ı à½¢
à¾Ĵà¾± à½º
à½± à½¾à¼į
à¾Ł à½´à¼ĭ
à¼¦ à¼¢
à¾ķ à½´
à½ħ à½¦
à¾¤ à¾²à¼ĭ
à¾« à½¼à¼ĭ
à½İ à½ł
à½ĵ à½ĵà½¦
à¾²à½´ à¼į
à¼¥ à¼¢
à¼¥ à¼¤
à½§ à½ĺ
à½ĳà½Ħ à½¢
à½ĺà½Ĳ à½¦
à¾³ à½¼à¼į
à½Ĥ à½Ĥà½¦
à¾ķ à½²
à½Ķ à½Ĥ
à½ł à½¦
à¾Ĵ à¾·à½¾à¼ĭ
à¾© à½²à¼į
à¾² à¾Ĺà½¼
à¼¦ à¼¡
à½Ł à½¢
à½Ĥ à½İ
à¾¡à½´ à¼į
à¾± à¼ĭà¼į
à¾Łà½ºà¼į à¼ĭ
à¼¦ à¼£
à½ķ à½ĸà½¦
à¼¥ à¼£
à½ĺ à½Ķ
à¾Ń à¼į
à½łà½ĩ à½Ĥ
Ġ à½Ĥà½ŀà½ĵ
à½Ķ à½Ģ
Ġ à½ĳà½ĺ
à¾Ł à½²à¼į
Ġ à½łà½ķà½Ĥà½¦
à¼© à¼§
à¼© à¼¨
à¼¦ à¼¤
à¾¦ à½²à¼ĭ
à½łà½ļ à½¢
à½łà½Ĥ à½Ħà½¦
à½º à½ºà¼ĭ
à½ĸà½ħ à½Ĥà½¦
à¾Ńà½± à½¾à¼ĭ
à½ĸà½ŀ à½ĵ
à½¦ à½ĵà½¦
à¾Ĳ à¾²à½¼
à½ĺà½Ħ à½Ĥ
à½Ģ à½łà½Ħ
à½ĸà½Ł à½¦
Ġ à½ĸà½ĳà½Ĥ
Ġ à½łà½ĩ
à½Ĥà½ŀ à½Ħ
Ġ à½ĵà½Ħ
à¾¥ à½´à¼ĭ
à½§ à½Ħ
à¾ŀ à½¾
à¼§ à¼¥
à¾Ł à¾Ń
à¼¨ à¼¨
Ġ à½¢à½ĸ
à½łà½ĩ à½¢
à¼ĭà¼´ à¼į
Ġ à½¦à½Ħà½¦
à½Ŀ à½¦
à¾± à¾Ģ
à¼§ à¼¡
à½¨ à½ı
à¼¢à¼¢ à¼¡
à½´à¼į à¼ĭ
Ġ à¼į
à¾¡ à¾²
à½ł à½¢
à½łà½ļ à½ĸ
à¼§ à¼£
à½ĸà½¤ à½ł
à¾ł à¼ĭ
à½Ľ à½§
à½ģ à½ĵ
à½²à¼ĭ à½²
à½ĺà½¦ à½ħà½ĵ
à½ĸà½ĳ à½ł
à½§ à½¦
Ġ à½ĺà½ļà½ĵ
à½¦à½Ħà½¦ à½¢
à¾· à½±à½²
à½ĳà½Ķ à½Ĥà½¦
à½ĸ à½ī
à½ĸ à½Ĩ
à¼§ à¼¢
Ġ à½ĺà½ĳ
à½Ķ à½Ĩ
à¾Ł à¾²à¼ĭ
à½Ĥà½Ł à½¦
à½ĸà½ħ à½£
à½± à½¼à¾ĥà¼ĭ
à½¨ à½¦
à¼ĭ à½µ
Ġ à½ĺà½Ĩ
à½ĸà½ħ à½ĸà½¦
à½ĺà½¦ à½Ģ
à½Ħà½¦ à½¦
à¼§ à¼¤
à½ŀ à½ł
à½Ģ à½Ģ
à¾¦ à¾²à½²
à½łà½Ľ à½ĸ
Ġ à½§
1 0
à½¤ à½Ķ
à¾±à½´ à¼į
à½Ł à½Ĥà½¦
à¼§ à¼¦
à½ķ à½Ħ
à½± à¾Ģà¼ĭ
Ġ à½Ļà½ĺ
à¾ĥ à¼į
à¼ ŀ
à½ĺ à½Ķà½¢
à½Ľ à½¦
à½¤ à½Ĥà½¦
à¼¨ à¼©
à½ĵ à½ŀ
Ġ à½ĳà½ĸà½Ħ
à½Ĥà½¦ à½Ģ
à¾Ĳ à½ºà¼į
à½ĺ à½ĸ
à½± à¾ĥà¼ĭ
à½łà½ĩ à½ĸ
à½Ĥ p
à¾« à½º
à¾¤à¾² à½¼à¼į
à¾£ à¼į
à½ĵà½ĺ à½ĺà½ģà½ł
Ġ à½Ĥà½ĵà½¦
à½¨ à½Ģ
à½Ļ à½Ĥ
à½ĸà½ĳ à½¦
Ġà¼¡ à¼¢
à½Ħ à½Ķ
à¾· à½¼à¼į
à½¼ à½¾à¼į
à¼¡ à¼¡à¼¢
à½ĺ à½¡
à½¦ à½Ķà½ł
à½ĸ à½Ķ
à½łà½Ĳ à½¦
à½¨ à½ĳ
à¾µ à½ºà¼ĭ
à½¨ à½ĸ
à¾Łà½² à½¾à¼ĭ
à½Ĩ à½£
1 1
à½Ĥ à½ģ
½ ©
à ½©
à½ĵ à½łà½ĳà½¦
à½ĳ à½Ĩ
à¼ĭà½Ī à¾±à½²
à½Ģ à½ĺ
à½ĵ à½¡
à¾¨ à½±
à½Ĳ à½¦
à½Ĥà½¤ à½ł
à¼ĭà¾ ¢
à½Ļ à½ł
à¾¦ à½¼à¼ĭ
à½łà½ĸ à½ĸà½¦
à½Ĥà½ī à½£
à½łà½Ĩ à½ĺà½¦
à½Ĥ à½Ĩ
à½Ĥà½ħ à½£
à½ĸà½¤ à½ĵ
à¾¡ à¾·à½´à¼ĭ
à½ŀ à½¦
à¼´ à¼į
à¾¡ à¾·à½±à¼ĭ
à¾Ł à½´à¼į
à½ĳà½Ħ à½Ĥà½¦
1 2
à½Ŀ à½ł
Ġ à½Ĥà½Ł
à¾Ĵ à½±à¼ĭ
à¼© à¼¢
à¼© à¼¥
à½Ģ à½£
à½Ķ à½¡
à¼ĭ à½µà¾ĥà¼ĭ
à½Ĥà½¦ à½Ĥ
Ġ à½ĺà½Ħ
à½¢ à½Ķ
à½ļ à½¦
à½¦ à½Ĥà½¦
Ġ à½Ĥà½¦à½Ħ
Â ¶
à¼¨ à¼¢
à½ħ à½ĳà½ĺ
Ġ à½ĳà½Ķ
à¾¨ à¼į
à¾± à½¾à¼ĭ
à½Ħ à½Ĩ
1 3
à¾¡ à¼į
Ġ à¼º
à¼© à¼¦
à¾·à¾² à½±à½´à¾ĥà¼ĭ
à¾¨ à½´à¼ĭ
à½Ķ à½ĸ
à½¦ à½ŀ
à¼ĭà¾ İ
à¼¨ à¼§
à½ĵ à½Ķà½¦
à¾© à¾Ń
à¾¨ à¾±
à½Ķà½¢ à½ĺ
à½ļ à½ĺ
à¾¦ à½²
à½ĸ à½Ĥà½¦
à½ĵ à½Ĩ
à¼© à¼¡
à½Ĥà½¦ à½Ķà½ł
à¼¨ à¼¥
Ġ à½łà½ĩà½ĺ
Ġà¼¡ à¼¡
à½£ à½Ķ
à½ĳ à½ĸà½ŀ
à¾¨ à¾±à½´à¼ĭ
Ġà¼¡ à¼¥
à½ĸà½¦ à½ĸ
à½ĵ à½ĺà½ģà½ł
à¼¡à¼© à¼¥à¼©
à½Ī à½²
à½ĵ à½ħ
Ġ à½Ĥà½ŀ
à½Ĥà½¦ à½ĺ
Ġ à½£à½ĺ
à½¢ à½ĸà½ł
1 4
à½£ à½Ģ
½ ĥ
à ½ĥ
à¼¨ à¼¡
à½ĳ à½ĺà½¦
à½ĳà½Ĥ à½ĸ
à¾Ń à½ºà¼ĭ
à¼© à¼£
à½²à¼ĭ à¼´
à¾Łà½ºà¼ĭ à¼į
à¼¡ à¼¡à¼§
à¼¨ à¼¦
à½ĳ à½ĳà½Ħ
à½ĺà½Ĥ à½£
à¼¨ à¼£
à½ĳà½Ķà½ł à½¦
à¾· à¾±à½¼
à½Ľ à½ł
à¾© à½¼à¼ĭ
à¼¨ à¼¤
1 5
à¼¢ à¼¡à¼¢
à½Ĭ à½ĺ
Ġ à½ĵà½ĳ
à½¨ à½ī
à¼¢ à¼¡à¼¡
à¼© à¼¤
Ġ à½ĸà½ħà½¦
à½º à½¾à¼ĭ
à½§ à½ĸ
à½ħ à½£
à½ĳà½Ķà½ł à½Ĩ
Ġà¼¡ à¼£
à½Ĥà½ŀ à½ł
Ġ à½Ĥà½ħ
à½ĵ à½ĳà½Ħ
à¾¦ à¾¦à¼ĭ
à½ĳ à½İ
à¾¦ à½ºà¼ĭ
Ġà¼¡ à¼¤
à½ĸà½Ļ à½Ĥà½¦
1 6
à¼¡ à¼¡à¼©
à½Ĥà½¤ à½Ħ
à¾±à½º à½ºà¼ĭ
à½ĳ à½ĵà½¦
à½ĩ à½ł
à½¦ à½¢à½ĸ
Ġ à½Ĥà½ı
à½łà½ĸ à½Ĥà½¦
à½ı à½ĳ
à½Ł à½£
à½ĸà½Ļ à½Ĥ
à½ĵ à½Ģ
à½Ĭ à½¢
à½§ à½£
Ġ à¼¢à¼¢
à¾¤à¾± à½¼à¼ĭ
à½Ģ à½İ
Ġ à½ĳà½Ģ
à¾£ à½²à¼ĭ
à½ĸ à½Ĥà½ĳ
à½ĳà½Ĥ à½£
à½łà½ĸ à½ĺ
Ġ à½ĸà½ł
à¼Ģ à½ĸà½Ľ
Ġà¼¡ à¼©
Ġà¼¡ à¼§
à½¦ à½ĸà½¦
à¾²à¾Ń à¼į
Ġà¼¡ à¼¨
à½§ à½ĳ
à¾Łà¾Ń à½¾à¼ĭ
à½ĸà½ı à½Ĥ
à¾¡ à½¼à¼į
à½´ à¾ĥà¼ĭ
à¾¥ à½ºà¼ĭ
1 7
à½Ķ à½Ķ
à½ĳ à½ĺà½ļ
à½Ķà½¦ à½ĵ
à¼¡à¼© à¼¥
à¼¢ à¼¡à¼¤
à¾Ń à½¼
Ġ à½Ĳà½ĺà½¦
à½ī à½¦
à½¡à½Ħ à½ĺ
1 8
Ġ à½Ļ
à½ĺà½¦ à½£
à½Ķà½ł à½ĳ
à½ĺà½¦ à½¢
à½²à¼ĭ à¼Ĳ
à½ĳà½Ĥ à½ĵ
Ġ à½ĺà½Ĳ
à½Ķà½¢ à½¢
à¼¢ à¼¡à¼£
à½¦ à½Ĩ
à½łà½Ĥ à½ĸ
à¾·à¾± à½¼à¼į
à¼ĭà¼į à¼ĭà¼į
à½Ĥ à½ĳà½Ĥ
à½ĸ à½¡
à½Ħ à½ĸà½ł
à¼¡à¼¡ à¼¡
à½ĳ à½ĸà½¦
à½Ĥ à½ĸà½¦
à½Ĥà½ı à½ł
à½Ĥ à½¥
à½ł à½ĸà½¦
à½Ĥ à½Ķà½ł
à¾² à½±
à½Ķà½¢ à½¦
1 9
Ġà¼¡ à¼¦
à¼¢ à¼¡à¼¦
à½¨ à½¨
à¼ Ļ
à½ĳà½ĸ à½ĳ
à¾µ à½´à¼ĭ
à½ĳ à½ı
à¼Ģ à½¨
à¾± à½±
à¼¡à¼© à¼¦
à½ŀ à½ĺ
à½ĵ à½Ł
à¾± à¾±à½²
à½ĺà½ĳ à½¢
à½ĺ à½ĺà½Ĩ
à½£ à½ŀ
Ġ à½Ķà½¦
à½¢ à½ī
2 0
à½± à½¼à½¾à¼ĭ
à½Ķà½¦ à½¦
Ġ à½Ĥà½£
à¾¡ à¾·à½¼à¼ĭ
à¾²à½² à½¾à¼ĭ
à½ĸà½ı à½ĸà½¦
à½ĺ à½ĳà½Ĥ
à½ł à½£
à½¢à½ĸ à½ı
à¾Ĵà¾±à½´à¼ĭ à¼į
à½ĸà½ŀ à½¢
à½Ĥà½¤ à½Ĥ
à½ĺà½ĵ à½ĸà½¦
à¼ĭ à½ºà¼ĭ
Ġ à½ĺà½Ĥ
à½£ à½ķ
à½£ à½ī
à½ĸà½¢ à½ĸ
Ġ à½ļà½ĳ
à¾Ĺ à½¼à¼ĭ
à½Ŀ à½£
à¾¤ à¾²à½´à¼ĭ
à½ĸà½Ģ à½ĵ
à¾Ĵà¾² à½ºà¼ĭ
à½£ à½ļ
à½£ à½Ĩ
à½ĵà½¦ à½¦
à½ł à½ĵ
à½łà½ķ à½Ĥ
à¾²à½´ à½¾à¼ĭ
à¼ĭ à½¼à¼ĭ
à½¦ à½łà½ĺ
à½Ĥà½ī à½Ĥà½¦
à½ĺ à½ĵà½ĺ
à½ĺà½ļà½ĵ à½ĺ
à¾¶ à¼ĭ
à½ĺà½ĳ à½¦
à¾ª à½²
½ «
à ½«
à½¼ à½¼à¼ĭ
à¾ª à½±
à½ħà½ĳ à½Ģ
à¾Ļ à½±
à½łà½ĸ à½£
à½Ĥà½ĵ à½ĵ
à¾± à½¼à¼į
à¼ĭ à½´
à½Ķ à½£à½¦
à¾¥ à½´
à½Ĵ à½¢
à½ĵ à½ī
à¼¢ à¼¡à¼¥
Ġ à½Łà½ĸ
à½ĸà½Ļ à½ĳ
à½£ à½ĸà½¢
à¾ º
à½Ħ à½ĵà½¦
à½Ķà½¢ à½łà½Ĥ
à½ĸà½¤ à½¦
à½ĸ à½ĵà½¦
à½¦ à½Ķà½¢
Ġ à½ĺà½ģà½¦
Ġ à½ĸà½¦à½ĺ
à¼¢ à¼¡à¼¨
à½¡à½Ħ à½ĳà½Ĥ
à¼¡à¼¡ à¼¥
à½ĵ à½ĸà½¦
à¾¤ à¾²à½²à¼ĭ
à½ĳ à½ĳà½Ĥ
à¼¡à¼¢ à¼§
à½ĸà½¦ à½¦
à¾Ĳ à¼į
à½ĺà½Ĳ à½Ħ
à½Ĥà½ĵ à½Ħà½¦
à½ĺ à½ŀ
à½¤ à½Ģ
à½ĸà½¢ à½ĺ
2 3
à½¦ à½ļ
à¼¡à¼¡ à¼£
à½Ĥ à½ļ
à¾· à¾Ńà¼ĭ
à½ĸ à½łà½ĳ
à½łà½Ľ à½ĵ
à½¦ à½ĳà½Ħ
à½ķ à½ĳ
à½£à½¦ à½¦
à½£ à½ĸà½¦
à¾¦ à¾·
à¼¡à¼¡ à¼¦
Ġ à½ĺà½ĵ
à¼¡à¼¡ à¼¨
Ġ à½Ŀ
à¼ĭà¼ ŀ
à½ĳ à½ŀ
à½¨ à½£
à¼¢ à¼¡à¼§
à½Ĥà½¡ à½ĺ
à½£ à½ģ
à¾¤ à¾±à½²à¼į
à¾² à½±à½²à¼į
à½Ĥ à½Ģ
à¾· à¾£
à¾Ĳ à½²
2 4
à½ĺà½¦ à½¦
à½ĳà½Ħ à½Ħ
à¼¡à¼© à¼§
à¼¡à¼¢ à¼¨
à½ĵ à½łà½ĳ
à¾Ĳà¾± à¼į
à¼¡à¼¢ à¼©
à½ĸà½¦ à½¢
à¾ł à½±à¼ĭ
à½Ķ à½ĳà½Ĥ
à½ī à½ĳ
à½Ĥ à½ķ
à¾² à¾°
à½ĵ à½ıà½ĵ
à½ĸ à½Ļà½ĺ
à¾¤ à¾²à½ºà¼ĭ
à½ĳ à½ĵà½ĺà½¦
Ġ à½ĺà½ģà½ł
à¼¡à¼© à¼¤
à½łà½ģ à½Ħ
à½¼à¼ĭ à¼Ĳ
Ġ à½łà½ķ
Ġ à½Ĥà½¤
à½£à½¦ à½¢
à¾¤ à¾±à½´
à½Ĥ à½Ĳ
à½Ķ à½¤
à½ĳ à½¡
à½ĺà½¦ à½ĵ
à¼¡à¼¢ à¼¦
2 5
à½Ķà½¢ à½Ĥ
à½Ľ à½Ķ
à½ł à½Ĳà½ĺà½¦
à¾¨ à¾±à½²
à¾Ĳà¾² à¾Ģà¼ĭ
à¼¡à¼¡ à¼¤
à½Ĥà½¦ à½ĵà½¦
Ġ à½ĵà½ĺ
à½ĺà½¦ à½ĳà½Ķà½ł
à½¢ à½ĸà½Ģ
à½Ķ à½ı
à½ŀ à½ĳ
à½¢ à½ŀ
à½´à¼ĭ à¼Ĳ
à½Ħ à½ĸà½¢
à¾· à½²à¼į
à½ĸ à½£à½¦
à¾Ń à½¾à¼ĭ
à½Ĥ à½Ķà½¢
2 6
à½£ à½ı
à¾Ł à½¾
à½Ķ à½ļ
à¼¢à¼¢ à¼¢
à½ĸà½¤ à½¢
à¾²à½±à½² à½¾à¼ĭ
à½ĳà½ĺ à½Ĥà½¦
à½Ķ à½ª
à½¦ à½ī
à½¦ à½¤
Ġ à½Ľ
à½Ģ à½Ĥ
à½ħ à½ł
à½² à½²
à½łà½Ľ à½ł
Ġ à½Ĥà½ĳ
à½ħà½ĳà½ĺ à½ģ
à½¦ à½¡
à¼¡à¼¢ à¼¥
à¼¡à¼¢ à¼¤
à½Ħ à½ŀ
à½± à½ºà¼ĭ
Ġ à½ħà½ĵ
à¾ķ à½²à¼į
à½ĺ à½Ģ
à½ĸ à½§
à¼¡à¼¢ à¼¢
à½Ħ à½ģ
à¼¡à¼¤ à¼¢
à¼¡à¼¢ à¼¡
à¾¡ à½±à¼ĭ
Ġ à½Ĥà½Ħà½¦
à¾Ľ à½²à¼ĭ
à¾Ń à½²à¼ĭ
Ġ à½ĺà½ļ
à½Ĩ à½Ħà½¦
à½ĸà½ŀ à½ĺà½¦
à½ĸà½Ł à½¢
à½¥ à½ł
à½ı à½ı
2 7
à½ĺ à½ĵà½¦
à½Ħ à½Ģ
à½ĸ à½Ħà½¦
à¼Ģ à½ĺ
à½£ à½¡
à¼ĭ Â¶
à½Ĥà½¡ à½ĵ
à¾Ł à½±
à½Ĥà½ħ à½¢
à½ĺ à½¤
à¼¡à¼£ à¼©
à½Ħà½¦ à½Ķ
2 8
à½ĳ à½ª
à¼¡à¼¢ à¼£
à½ĵ à½ļ
à¼ĭà½µ à½¾à¼ĭ
à¾Ķ à½º
à½Ĥ à½łà½ĳ
Ġ à½ĸà½Ģ
à¼¡à¼£ à¼¥
à¾ª à½±à¼ĭ
à¼¡à¼¤ à¼¥
à½¨ à½İ
à¼¡à¼© à¼£
à½ĺà½¦ à½ĺ
à¼¡à¼¤ à¼©
à¾· à½±à½´
à½Ľ à½ĳ
à½² à½²à¼ĭ
à¼¡à¼© à¼¢
à½ī à½§
à½Ĺ à½¥
à½łà½ļ à½Ħà½¦
à¾± à¾²à½º
Ġ à½Ķà½ĳ
à½£ à½łà½ĳ
à¼ĭà½Ī à½º
à¼¡à¼¤ à¼¤
à½Ĥ à½Ĥà½¡
Ġ à½¡à½ĵ
à¾Ĵà¾± à¼ĭà¼į
à¾° à½´
à½£ à½łà½ĸ
à½Ĥà½Ł à½ĸà½¦
à½ĸà½Ĥ à½ĺ
Ġ à½ĳà½Ĥà½ł
à½Ĭ à½Ģ
à¼¡à¼¥ à¼§
à¾Ģ à¼į
à¼¡à¼¤ à¼¡
à½ĵ à½£à½¦
Ġ à½ģà½ĺà½¦
à¼¡à¼£ à¼¨
à¼¡à¼£ à¼¦
à¼¡à¼§ à¼¨
2 9
Ġ à½ĸà½Ł
à¼¢ à¼¡à¼©
à¼¡à¼¥ à¼¥
à¼¡à¼£ à¼£
Ġà¼¢ à¼¤
à¾Ĳà¾± à½¼à¼į
à¼¡à¼¤ à¼¨
à½ĵà½¦ à½¢
à½Ĥà½Ļ à½Ĥà½¦
à½ļ à½ĳà½Ħ
à½¡ à½Ļ
à¾Ļ à½¾à¼ĭ
à½± à¼ĭà¼į
à½¦ à½ģ
à¾Ł à½¾à¼į
à½ĸà½ŀ à½Ĥà½¦
à¼¡à¼¦ à¼¨
à½¢à½Ħ à½Ĥ
à¼¡à¼¥ à¼©
à¼¡à¼£ à¼¤
à¼¡à¼£ à¼¢
à¼¡à¼§ à¼¥
à¼ Ŀ
à¼¡à¼© à¼¡
à¼¡à¼£ à¼§
à¼¡à¼§ à¼§
à¼¡à¼¦ à¼¢
à½ĳà½Ħ à½£
à¾Ķ à¼ĭà¼į
à½ĳà½Ħ à½ĺ
à¾·à¾² à½±à½´à½¾à¼ĭ
à¼¡à¼¥ à¼¤
à¼¡à¼£ à¼¡
à½¨ à½Ļ
à¼¡à¼¤ à¼§
à½¨ à½¥
à¾º à¼ĭ
à½ĵ à½ĵà½ĺ
à½łà½ļ à½Ĥ
à¼¡à¼¥ à¼¨
à½²à¼ĭ à½Ī
Ġà¼¢ à¼¥
Ġ à½ĸà½¤à½ĳ
à½¦ à½Ķà½¦
à¼¡à¼§ à¼¡
à¼¡à¼¤ à¼£
à½ĸ à½Ķà½ł
à½ĵ à½ģ
Ġà¼¢ à¼¦
à¾· à½¾à¼į
à¼¡à¼¤ à¼¦
à¼¡à¼¨ à¼©
à¾Ł à½¼à¼į
à¼¡à¼§ à¼¢
à¼¡à¼§ à¼©
à½ĸ à½Ĳ
à¾² à½±à½¾à¼ĭ
à½ĵ à½¤
à½ĸ à½ĸà½¢
à½ĸà½ĳ à½ĳ
à½ħà½ĳ à½£
à½ĸà½¢ à½łà½Ĥ
à½¦ à½Ł
à½ĳà½Ģ à½ª
à¾ŀ à½²à¼ĭ
à¾· à¾²à¼ĭ
à¼¡à¼¦ à¼¥
à¾Ĺ à½²à¼ĭ
à½¨ à½§
à¾· à¾²à¾Ģ
à½Ĥà½¦ à½Ħà½¦
à½Ĥà½ŀ à½¢
à¼¡à¼¥ à¼¦
à¼¡à¼¦ à¼£
à¼¡à¼¦ à¼§
à½¢ à½İ
à½ĳ à½§
Ġà¼¢ à¼¡
à¾ķ à¼ĭ
à½Ĥà½Ļ à½Ĥ
à¾¡ à¾·à½²
à½Ķà½¦ à½ĳ
à½¢ à½ĸà½¢
à½ĸà½ħ à½ĵ
à½Ħ à½¤
à½ģ à½ħ
à½£à½¦ à½Ģ
3 0
à½£ à½£à½¦
à½± à½´à¼į
Ġ à½ĸà½Ĥ
à½¦ à½ĸà½¢
à¼¡à¼¦ à¼©
à¼¡à¼©à¼© à¼©
à¾Ĵà¾± à½ºà¼ĭ
à½Ł à½ĸà½¦
à½ĸ à½Ķà½¢
à½Ĥà½¦ à½Ķà½¢
à½Ĵ à½ĵ
à½ł à½ł
à¼¡à¼¦ à¼¡
à¾¡ à¾·à½¾à¼ĭ
à½£ à½ĸà½ł
à¾±à½²à¼ĭ à½²
à½Ħ à½ĸà½¦
à½ĸà½ı à½ĳ
Ġ à½łà½Ľ
Ġ à½Ĥà½Ļà½Ħ
à½ºà¼ĭ à½Īà½²
à¼¡à¼¦ à¼¤
à¾ ĳ
à½Ķ à½ĵà½¦
à¼¡à¼§ à¼£
à¼ĭà¼ Ŀ
à½Ģ à½ª
à¾ľ à½±à½²à¼ĭ
à¼Ģ à½§
à¾¡ à¾·à½¼
à½Ľ à½¢
à½Ķà½¦ à½¢
à½łà½Ľ à½¢
à½ĸà½Ģà½ł à½¦
Ġ à½Ĥà½Ļ
à½Ľ à½ĸ
à¾¥ à½¼à¼ĭ
à¾² à¼ĭà¼į
à½ĸ à½ĸà½ŀ
à¾¦ à¾±à½²à¼ĭ
à¼¡à¼§ à¼¦
à½łà½Ĳ à½ĺ
à¾£ à¾²à½¼
à½ĸà½ĳà½Ĥ à½ī
à½Ģ à½łà½ĺ
à½ł à½Ĳà½ĸà½¦
à½¢à½Ħ à½ĸà½ŀ
à¼¡à¼¦ à¼¦
à½ĺ à½Ķà½ł
à½ĸà½¤ à½ĳà½Ķ
à½ĵ à½ĳà½Ĥ
à½ĳà½ĸ à½Ĥ
à½²à¼į à¼ĭà¼į
à½ĺ à½ĺà½Ĳ
à½ĺà½Ħ à½ĵ
à½ĵ à½ĺà½Ĩ
à½£ à½łà½ĺ
à½± à½¾
à¼¡à¼¥ à¼£
2 2
à½Ħ à½ħ
à½ĸà½ĸ à½ĸ
à½Ĥà½¤ à½¢
à¾µ à¼į
à½ĸ à½ĳà½ĺ
Ġ à½Ĥà½ĵà½ł
à½ħà½ĳ à½ĵ
à½Ķ à½ĸà½¦
à½ĺ à½Ł
à½Ħ à½Ĥà½¦
à½ĵ à½ķ
à½ĳà½Ĥ à½ī
à½ĺà½ī à½ĺà½¦
à½Ĩ à½łà½Ħ
Ġà¼¢ à¼§
à¾¨ à¾¨à¼ĭ
à½¨ à½Ĭ
Ã ĥ
à½± à½¼à¼ĭ
à½Ľ à½ŀ
à½£à½¦ à½ĺ
à½£ à½ĺà½Ħ
à½ĸ à½ģ
Ġ à½ĳà½Ģà½¢
à½ĸ à½ļ
à½Ĥà½Ħ à½Ĥ
Ġ à½Ĥà½ĵ
à¼¡à¼¨ à¼¢
à½ĵ à½ĸà½¢
3 4
à½ĸ à½ķ
à½Ķà½¢ à½¤
à½ĸà½¢ à½ĵ
à¾Ĺ à¼ĭ
à¼¡à¼§ à¼¤
à½¢ à½ĳà½Ħ
à½ĳà½ĺ à½ĳ
Ġà¼¢ à¼¨
à¾ķ à½ºà¼į
à½Ĭ à½¦
à¾±à½²à¼į à¼ĭ
à½ĸà½¤ à½Ĥ
à½¡à½ĵ à½£à½Ĥ
à½Ĩ à½łà½ĺ
à¾¦ à¼į
à½Ħ à½ī
à½ĵà½¦ à½ĳ
à½Ĥà½ħ à½Ĥà½¦
à¾¦ à½±à¼ĭ
Ġ à½ĸà½Ļà½ĵ
à½ı à½£
à¼¡à¼©à¼¨ à¼©
Ġà¼¢ à¼©
à¼¡à¼© à¼¥à¼¨
à½´ à½´à¼ĭ
à½ł à½Ķ
à½£ à½¤
à½Ĥ à½Ĥà½ī
à½Ĥ à½łà½ĺ
à¾³ à¼ĭà¼į
à½¡ à½ı
à¾¦à¾± à½¼à¼ĭ
à½¢à½ĸà½ł à½ĸ
Ġà¼¢ à¼£
à¾ŀ à½±à¼ĭ
à½ĳà½Ĥ à½łà½ĸ
à¾³ à½±à¼ĭ
Ġ à½Ĳà½ĸà½¦
à½ķ à½Ĥà½¦
Ġ à½łà½Ĩ
à½Ĥà½ĳ à½¢
à½¦ à½Ĳ
à¾ļ à½±à¼ĭ
à½ĺ à½ħ
à½Į à½¢
3 5
à½Ģ à½ĳ
à½ĵ à½Ĳ
Ġ à½ĳà½Ķà½ł
à½¦ à½łà½ĳ
à½¡ à½ŀ
à½ł à½Ħà½¦
à½ĳà½Ħ à½ĵ
à½Ķà½¦ à½ĺ
à¼¡à¼¨ à¼¨
Ġ à½ĺà½ģ
à½Ļ à½£
à¾µ à½²
à½ĺà½Ĩ à½ĳ
à½Ķ à½Ĳà½ĺà½¦
à½İ à½¦
à½ł à½Ģ
à½Ľ à½ĵ
à½ºà¼ĭ à½²
à½ĸà½¢ à½Ĥ
à¾ľ à½ºà¼ĭ
à¼¡à¼¥ à¼¢
à¾ İ
à½£ à½ĳà½Ħ
à¾Ĳ à½±à¼ĭ
à½Ļ à½ĸ
à¾ł à½²à¼ĭ
à¾²à¾° à½²à¼ĭ
à¾Ł à¼ĭà¼į
à¾Ĵ à¾·à¼ĭ
Ġ à½īà½ĺà½¦
à½ĸ à½ĺà½¦
à½ĳ à½£à½¦
à½£ à½ĺà½Ĩ
à½Ķ à½ģ
3 6
à½¢ à½¡
à¼¡à¼¥ à¼¡
3 7
à½ĸà½¦ à½ĸà½¦
à½¼ à½¼
à½łà½Ľ à½Ĥà½¦
à½Ĥ à½¨
à¼¡à¼¨ à¼§
à¼¡à¼¨ à¼£
à½£ à½ĵà½¦
à¾ ¼
à¾¦ à¾·à½±à½²à¼ĭ
à¼ĭ à½¾
à¾·à¾£ à½±
à½Ħà½¦ à½ĺ
à½ĸ à½ĳà½Ķ
à¾µ à½±à¼ĭ
à½ĸ à½Ĥà½Ħ
à½ĸà½ĳ à½ĵ
à¾¨ à¾²à½º
à½´à¼ĭ à½²
Ġ à½Ĥà½¦à½£
3 8
à½²à¼ĭ à½²à¼ĭ
à½ĸ à½ª
à¾© à½´à¼ĭ
Ġ à½Ħà½Ĥ
à½ĳà½Ħ à½ĸà½ħà½¦
à½ĵ à½łà½ĺ
à½¦à½ĳ à½¦
à½£ à½Ĥà½ĵà½¦
à¼¡à¼¨ à¼¥
à½Ĵ à½¥
à¾Ĵ à½ºà¼į
à¼¡à¼¨ à¼¤
à½Ħ à½ĳà½Ħ
à½Ģ à½ı
à¾±à¼į à¼ĭ
à½ĳ à½ĳà½Ķ
à¾¡ à¾·à¼į
Ġ à½ĺà½Ĳà½ł
à¼¡à¼©à¼¨ à¼§
à½ħ à½ĺ
à½ĸà½ł à½Ĥ
3 9
à¼¡à¼©à¼¨ à¼¥
à½ħà½ĵ à½¢
à¾© à½±à¼ĭ
Ġà¼£ à¼¥
à¼¡à¼¨ à¼¦
à½¢ à½ļ
à½ĸà½ĳà½Ĥ à½Ĥ
à½ĵ à½ĳà½ĺ
à½ĺ à½ı
à½£ à½ĺà½ģà½¦
à¾´ à½²à¼ĭ
à¾· à¾²à¾Ģà¼ĭ
à¾ª à¼į
à¾° à¼į
à½Ĥà½¦ à½ł
à¾¦ à¾·à½²à¼ĭ
à¾£ à½±à¼ĭ
2 1
Ġ à½ĺà½īà½ĺ
à¾· à½ºà¼į
à¾° à½´à½¾à¼ĭ
à½¼à¼ĭà¼Ĳ à¼į
à½¢ à½ĵà½¦
à½¦ à½Ļ
à½łà½ĳ à½£
à¼¡à¼¨ à¼¡
à½Ĥà½ĵà½¦ à½¦
à½Ĥ à½£à½¦
Ġà¼£ à¼©
à½¦ à½ķ
à¾¡à¾· à½¾à¼į
à½ĸà½Ģ à½ĳ
à½Ĳ à½ĳà½ĳ
à½ĵ à½¡à½Ħ
à¾¶ à½¾à¼ĭ
à½Ļ à½¦
à½ĳà½ĺ à½Ħ
Ġ à½łà½ĳà½¦
à½ĺà½ļà½ĵ à½ī
à½Ħà½¦ à½ĵà½¦
Ġ à½ŀà½£
à½Ĥ à½łà½Ħ
à½Ķ à½Ĥà½Ħ
à½ĳ à½Ĩà½Ĥà½¦
à½£à½¦ à½ĸ
à½ł à½ī
à½²à¼ĭ à¼º
à½ĸ à½ĩ
à¼¢à¼¢ à¼¥
à¾Ń à½²
Ġà¼£ à¼§
4 0
Ġ à½ĳà½ĸà½£
à½¢ à½ħ
à½ı à½ĸ
à¼¡à¼©à¼© à¼¡
à½ĵà½¦ à½ĵ
Ġ à½ħà½ĳ
à½Ķ à½ķ
à½Į à½ł
à½ĳà½Ĥ à½ħ
à½łà½ĸ à½Ħ
à½ĺ à½łà½ĳ
à½ĸà½¢ à½¦
Ġ à½ĸà½Ļ
à½ĳ à½ķ
Ġà¼£ à¼¡
à¼¡à¼©à¼© à¼¦
à¾¥ à½º
Ġ à½ķà½ĵ
à½Ķ à½ħ
à½Ħà½¦ à½ĵ
Ġ à½ĸà½£
à¼¡à¼©à¼© à¼¥
à¾Łà¾Ń à½¾à¼į
Ġà¼£ à¼£
à½Ľ à½Ľ
à¾Ł à¾Ńà¼ĭ
Ġ à½£à½Ĥ
à¾· à¾Ń
Ġà¼£ à¼¦
à½ĳà½Ĥ à½Ķà½¢
à¾¦ à¾²à½¼
à½Ķ à½ĸà½ŀ
à½Ĥ à½ĸà½¢
à½£ à½¡à½Ħ
à½¢ à½¥
à½ĳ à½ģ
à½ļ à½ĳà½ĺ
à½Ĥà½Ħ à½£
à½Į à½Ģ
Ġà¼£ à¼¨
à½Ķà½¢ à½Ħ
à½ĵà½¦ à½Ħà½¦
à½ĺ à½ĸà½¢
à½£à½ĺ à½Ĥ
à½Ķà½¢ à½ĸà½¦
à½Ķ à½Ĥà½ī
à½ĺ à½ĸà½Ģà½ł
à½²à¼ĭ à½¼
à½ĳ à½¤
à½łà½ķ à½ĺ
à¼¡à¼©à¼© à¼¢
Ġ à½ĺà½Ľ
à½£à½¦ à½ĵ
à¼¡à¼©à¼© à¼§
à½łà½Ľ à½Ħà½¦
à¾ļ à½²à½¾à¼ĭ
à½ĳà½Ħ à½ĸ
à¼¡à¼©à¼¨ à¼¨
à¾¦ à¾·à½ºà¼ĭ
à½¡ à½Ķ
à½Ķ à½¡à½Ħ
à½£à½¦ à½£
à¼¢à¼¢ à¼¤
à½ĺ à½ĳà½ĸ
à½ĺ à½ª
à½µ à¾ĥà¼į
à¼ĭ à½´à¼ĭ
à½²à¼ĭ à½º
à½¦ à½¨
à½ĵà½¦ à½ĺ
à½£ à½Ĳ
à½Ģ à½ī
à½¦ à½ħà½ĵ
à¾Ļ à½¼à¼ĭ
3 3
à½Ķ à½Ĳ
Ġ à½Ķà½İ
à½ĸà½¢ à½Ħ
à¾¨ à¾²à½²à¼ĭ
à½¢ à½łà½ĳ
à¼ĭà¼ ı
à½¨ à½Ķ
à¾« à½ºà¼ĭ
à¼¢à¼¢ à¼¦
à¼¡à¼©à¼© à¼£
à½¡à½Ħ à½ĵ
à½Ĥà½¡ à½£
à¾· à¾±à½±à¼ĭ
Ġà¼£ à¼¤
à½ĳà½ĸ à½ĵ
à½łà½ Ļ
à¼¢à¼¢ à¼§
à½Ĥà½ħ à½Ĥ
à½Ħ à½Ĳ
à½Ĥà½Ħ à½ŀ
à½ĸà½ĸ à½ĸà½ĸ
4 5
à¼¡à¼©à¼© à¼¨
Ġ à½¤à½¢
à½£ à½¨
à½¢ à½Ķà½ł
à½Ĥ à½¢à½Ħ
à½ĵ à½Ĥà½ĵà½¦
à½ĳ à½ĳà½ĺ
à½łà½ĳà½¦ à½Ģ
à½ĳ à½Ł
à½¢ à½ģ
à¾Ľ à½±à¼ĭ
à½ĺ à½ĸà½¦
à¼¢à¼¢ à¼¨
à¾² à½±à¾Ģà¼ĭ
à¼Ģ à½Ĥ
à½Ĺ à½Ĥ
à½ĸ à½İ
à½ĳà½Ħ à½Ķ
à¼¡à¼© à¼¥à¼¡
à½ĸ à½Ĥà½ī
à¾²à½¼à¼ĭ à¼į
à¾¡à¾· à½º
à¼Ģ à½ĵ
Ġà¼£ à¼¢
à½ķ à½Ł
à¼ ı
à½¡ à½Ĥà½¦
à¾Ĳ à½¼à¼į
à¾£ à½¼à¼į
à½µ à¼ĭ
à½ĸà½¦à½ĺ à½Ĥà½ıà½ĵ
à½ŀ à½ĸ
à¼µ à¼į
4 4
à½Ķ à½ħà½ĵ
à½Ķà½ł à½ĸ
à½Ħ à½ĩ
à½´à¼ĭ à¼´
à½Ħ à½¡
à¾· à¾±à¼į
à½¢ à½¤
à½ĺ à½Ĥà½¦
à½ĸà½¢ à½ĳ
à¼¡à¼©à¼¨ à¼¦
à¾¦ à¾·à½±à½²
à½Ĥà½ħ à½ĺ
à½Ģ à½¤
à½ħà½ĵ à½Ĥ
à¼¡à¼© à¼§à¼©
à½ĳ à½ļ
Ġ à½Ĩà½Ĥà½¦
à½¥ à½Ĭ
à½¢ à½Ĩ
à½Ŀ à½Ģ
à¼¡à¼©à¼¨ à¼¢
à½£ à½Ĭ
à½Ģ à½ĸ
à½łà½ģ à½£
à¾¤ à½±à¼ĭ
à½Ħà½ĵ à½£à½¦
à½ĳ à½Ļ
à½ĵà½¦ à½£
à½Ĥà½ŀà½ĵ à½£
à¼ĭà½Ī à½¼
à¾· à½±à½²à¼į
à¾ª à½ºà¼ĭ
à½ĸà½ħ à½ĸ
à¼¡à¼©à¼© à¼¤
à¾Ĳà½´à¼ĭ à¼į
à½ĳà½Ĥ à½Ķ
à¼¡à¼©à¼¨ à¼¤
à½ĳà½ĺ à½Ĩ
à½ģ à½ģ
à¼¢à¼¢ à¼©
à½± à½¼
à½¾ à¼ĭà¼į
à¾¡à¾· à½ºà¼į
à½ĳ à½ī
à½ĩ à½¢
à¼¢à¼¦ à¼¢
à½ĸ à½Ĳà½ĺà½¦
à½¼à¼ĭ à½²
à½Ħ à½ķ
à¼¢à¼¢ à¼£
4 6
à¾© à¼ĭà¼į
à½ĸà½ĳà½Ĥ à½ĺ
à½Ĥà½¦ à½ĳà½Ħ
à¾ŀ à½±à½²à¼ĭ
4 7
à½ĵ à½Ĥà½Ħ
à½ĳà½Ķ à½ĳ
Ġ à½Ģà½¢
à¼ĭà¾ §
à½ħà½ĳ à½¦
à¾Ń à½±à¼į
à¾· à¼ĭà¼į
à½ı à½Ĳ
à¾« à¾Ļà½±à¼ĭ
à½¦ à½ĳà½Ĥ
à½ļ à½ĺà½¦
à½ĺ à½£à½¦
à¾²à½¼ à½¾à¼ĭ
à½İ à½¢
à¼¡à¼© à¼¥à¼¦
à¾ŀ à¾ŀà¼ĭ
à½Ĥà½£ à½ı
à½łà½ĳ à½ĺà½¦
à¼ĭà¼¹ à¾Ģà¼ĭ
à¼¡à¼©à¼¨ à¼£
à½Ħ à½ĳà½Ĥ
à½Ķ à½Ķà½ł
à½Ŀ à½ĺ
à½Ķà½¢ à½ĳà½Ĥ
à¾ľ à½±à¼ĭ
à½Ļ à½ĳ
à¾¦ à¾·à½¼à¼ĭ
à½¢ à½¡à½Ħ
à½Ĥà½ŀà½ĵ à½¡à½Ħ
à½Ħ à½ı
Ġ à½ĺà½Ľà½ĳ
Ġ à½ĳà½ĳ
à¾¥ à½²à¼ĭ
à½ĵ à½ĺà½ĳ
à¾Ľ à¼į
à½Ĥà½ı à½Ĥà½¦
à½Ĥà½¦ à½ŀ
Ġ à½ĺà½¢
à½ĵ à½ĸà½ł
à½Ķ à½ĸà½¢
à½ĳ à½łà½ĳ
à¾µ à½¼à¼ĭ
4 8
à¾Ł à¾²
à¾ļ à½±
à½ĵ à½¢à½Ħ
à½ł à½łà½ĳ
à½ĩ à½ĺ
à¾Ĺ à½¼à¼į
à½łà½ļ à½ĳ
à½¼à¼ĭ à¼´
à¾· à¾²à½²à¼ĭ
à¾°à½´ à¾ĥ
à½£ à½Ķà½ł
à¾±à½²à¼ĭ à¼´
à½ĸ à½ĺà½Ħ
à½Ħà½¦ à½Ķà½ł
Ġ à½ĸà½Łà½Ħ
à½ħà½ĳ à½ĳ
à¾ª à½²à¼ĭ
4 9
à¼¢à¼£ à¼§
à½ĵ à½ĺà½Ħ
à½ĳà½Ĥ à½ĺ
à¼Ģ à½¦à½¢
à½Ķà½¦ à½£
Ġ à½ĺà½ģà½ĵ
à¾Ł à½±à½¾à¼ĭ
3 1
à¼¢à¼¤ à¼¢
à¼¡à¼© à¼¤à¼©
à½Ķ à½Ł
à½´ à½¾à¼į
à½ł à½ŀ
à½£ à½ĳà½Ĥ
à½ĸà½¢ à½Ĥà½¦
à½ģ à½łà½ĺ
à½ĸà½Ł à½ĸà½¦
à¼¢à¼¥ à¼¢
à½ħ à½ĵà½¦
à½¦ à½ĺà½Ĳ
à¼¢à¼§ à¼¢
à½£ à½ĺà½¦
à½ĸà½¦ à½Ģ
à½ĩ à½£
à¾³ à¾Ģà¼ĭ
Ġ à½ĵà½Ĥ
à½¼ à¼µ
à¾Ĺà½ºà¼ĭ à¼į
à½ħà½ĵ à½ĺ
à½ĵ à½Ĥà½ī
à½£à½Ĥà½¦ à½¦
Ġ à½£à½ĵ
à¾¨ à¾±à½º
à½ĳà½Ĥ à½ĳ
à¼¢à¼¦ à¼§
à½ĳà½ĳ à½ĳ
à¼Ģ à½¤
à¼ĭ à½ºà¼į
à¾²à½²à¼ĭ à¼į
à½Į à½£
5 0
à½ħà½ĵ à½ĵ
à¾£ à½´à¼ĭ
à¼¢à¼§ à¼§
à¼¢à¼£ à¼¤
à½¡ à½ģ
à¼¢à¼¦ à¼¡
à¼¢à¼£ à¼¥
à½¦ à½ĺà½Ħ
à½¦ à½łà½Ħ
à¼¢à¼§ à¼¥
à¾£ à½±
à¼¢à¼¦ à¼¦
à½ĸà½Ļ à½ĺà½¦
à½Ķ à½Ķà½¢
à½łà½Ĥ à½Ħ
à½łà½Ĥ à½ĺ
à½² à½¾
3 2
à¾Ĵ à¼į
à½ĵà½¦ à½ĸ
à¼¢à¼¦ à¼¤
à¼¢à¼¥ à¼¤
à¼¢à¼¦ à¼¥
Ġ à¼´
à½¤ à½ĺà½¦
à½¥ à½¦
à¾Ĵ à¾²à½´à¼ĭ
à¼¢à¼£ à¼¨
à¼¢à¼¥ à¼¦
à¼¢à¼£ à¼¢
à½ĺà½¦ à½Ķ
à¼¢à¼¤ à¼¦
Ġ à¼
à¾Ń à¾°
à½ĸà½ł à½ĸ
à¼¢à¼£ à¼¦
à¾¤ à½²à¼ĭ
à½£ à½Ĥà½ĵ
à¾² à½¾à¼į
à½łà½ĸ à½ĵ
à½ĺà½ĵ à½ĸ
à¼¢à¼¥ à¼§
à¼¢à¼¨ à¼¢
à¼¢à¼£ à¼©
à¼¢à¼¦ à¼©
à½Ħ à½Ķà½ł
à½Ł à½Ĳ
à½ĺ à½ķ
à¼¢à¼¥ à¼¥
à¼¢à¼¤ à¼¥
à½ı à½Ķ
à½Ķ à½Ķà½¦
à¼¢à¼£ à¼¡
Ġ à½¡à½¦
à½Ĥà½ī à½Ĥ
à½Ĥà½ŀà½ĵ à½Ĥ
à¼Ģ à½ĸ
à½ĺ à½ĺà½¦
à¼ĭà¼¹ à½²à¼ĭ
à¾Ł à¾²à½²à¼ĭ
à¼¢à¼¤ à¼§
à½£ à½ĺà½ļà½ĵ
à½¼à¼ĭ à½Īà½²
à¼¢à¼§ à¼¡
à¼¢à¼¥ à¼¨
à¼¢à¼¤ à¼©
à¼¢à¼© à¼¢
à½¦ à½Ĳà½ĺà½¦
à½Ĥà½¦ à½Ķà½¦
à½ĳà½Ģ à½ĵ
à¼¢à¼¤ à¼¨
Ġ à½īà½ĵ
à½Ĳ à½ļ
à½£à½¦ à½ĳ
à¼¢à¼¥ à¼¡
à¼¢à¼¦ à¼¨
Ġ à½ĺà½Ĳà½¢
à¼¢à¼© à¼©
à¾±à½º à½º
à¾· à¾²à½´à½¾à¼ĭ
à½ĺ à½Ĥà½ı
à¾¦ à¾·à½º
à½ĵ à½¨
Ġ à½²à¼ĭ
à¾Ł à½±à½²à¼ĭ
à¾ľ à¼į
à¼¢à¼¥ à¼©
à½£ à½Ĥà½ī
à¼¢à¼§ à¼¨
à¼ĭà¼Ŀ à¼į
à½Ĥ à½łà½ļà½£
à¼ŀ à¼į
à½ĵ à½Ļ
à½ķ à½Ŀ
à¼¢à¼§ à¼©
à½Ĥ à½ĸà½ĳ
à½Ħ à½łà½ĺ
à½ºà¼į à¼ĭà¼į
à½Ĥ à½Ĥà½ŀà½ĵ
Ġà¼¤ à¼¥
à½Ģ à½Ĳ
à½ķ à½¥
à½ĺà½ļ à½ĳ
à¾¨ à½²à¼į
à¾¨ à¾±à¼ĭ
à¼¢à¼© à¼§
à¼¢à¼¤ à¼¡
à¼Ģ à½¦
Ġ à½ĺà½ĩ
à½Ĥà½¦ à½Ĩ
à½ĺà½ļ à½ĺ
à¼¢à¼¤ à¼¤
à½Ķà½¢ à½£
à¼¢à¼© à¼¦
à½£à½ĺ à½ĳ
à½¦ à½Ĥà½ī
à½² à¼´
à½ĳ à½Ĳ
à¼¢à¼§ à¼¦
à½ºà¼ĭ à½º
à¾Ĳà¾² à¼į
à¼¢à¼¤ à¼£
Ġ à½ŀà½Ħ
à½ĵ à½łà½ĸ
à½£à½ĺ à½ĵ
à¼¢à¼© à¼¨
à½ĸà½Ĥ à½Ĥà½¦
à½Ĥ à½łà½ĸ
à½ĺà½¦ à½ĳà½Ħ
à¾ļ à½²
à¼¢à¼¦ à¼£
Ġà¼¤ à¼¤
à¼¢à¼¥ à¼£
à¾» à½±à¼ĭ
à½Ĥà½ŀà½ĵ à½ĵ
à¼¢à¼© à¼¤
à½£à½¦ à½ĳà½Ħ
Ġ à½Ħà½ĵ
à½Ħ à½¥
à½ħà½ĵ à½Ĳà½ĺà½¦
à½Ķ à½Ļà½ĺ
à½Ķ à½ĺà½Ħ
à¼¢à¼¨ à¼¦
Ġ à½ŀà½ĸà½¦
à½¢ à½łà½ĺ
à¼¢à¼£ à¼£
à½¡à½Ħ à½¢
à½Ķ à½ĩ
à½ĸ à½ĳà½ĸ
à¾ŀ à½¾à¼ĭ
à½ģ à½Ħà½¦
à¼¡à¼©à¼¨ à¼¡
à½¢ à½ķ
à¾¤ à½´à¼į
à¼£à¼£ à¼¡
à½ı à½Ģ
à½Ħà½¦ à½£
à½ĺà½¦ à½ŀ
à¾Ĵ à½²à¼ĭ
à¾²à½´ à¾ĥà¼ĭ
à½¨ à½¡
à½ĳà½ĸà½ł à½¦
ģ à¾ĥ
5 6
à½¦ à½łà½ĸ
à½ĵ à½ĺà½Ĳ
à¼¢à¼¨ à¼¥
à½ĵà½Ħ à½Ĥ
à¾° à½´à¾ĥà¼ĭ
Ġà¼¤ à¼¦
à½ĳà½Ĥ à½ŀ
à½ķ à½¡
à½ĳ à½Ĥà½¦à½£
à½Ķ à½ĳà½ĺ
à½ĳà½Ĥ à½Ģ
Ġ à½Ĥà½ıà½ĵ
à½Ī à½¼
à½łà½ļà½£ à½£
à½ł à½ħ
à¾±à½² à½²à¼ĭ
à¾± à¾Ń
à¾· à½¾
à½ģ à½Ģ
à¼¢à¼© à¼¥
5 7
à½Ĥà½ŀà½ĵ à½ĺ
à¼¢à¼§ à¼£
à½¦ à½£à½¦
à¼¢à¼© à¼¡
à½¨ à½ŀ
à½´ à½¾
à½Ĥà½¦ à½¤
à½ĸà½¢ à½¢
à½ĸà½ĳà½Ĥ à½ħà½Ĥ
à½ĵ à½ĸà½ŀ
à½īà½ĵ à½Ĳ
à½£ à½¢à½Ħ
à½Ĥà½¡ à½ĸà½¦
à¼¢à¼§ à¼¤
à¼£ à¼¡à¼¡
à¾Ńà½± à¾ĥà¼ĭ
à¼¢à¼¨ à¼¡
à½£ à½łà½ĩ
à¼ĭà½Ī à½²à¼ĭ
à½Ĥà½ŀà½ĵ à½ĳ
à½Ķ à½Ĭ
à½ĺ à½łà½Ĥ
à½¦ à½ĺà½Ĩ
5 8
à½łà½Ĥà½ł à½ŀ
à¼ĭà¼¹ à¼ĭ
à¼¢à¼¨ à¼¨
à½ģ à½¤
à¾Ĳ à¾²à½´à¼ĭ
à¼į à¼ĭà¼įà¼ĭ
à½Ķà½ł à½ĩ
Ġ à½Ĳà½¢
à¾¨à¾² à¾Ģà¼ĭ
à½Ķà½¦ à½ĸ
Ġà¼¤ à¼¢
à½ĸ à½ĺà½Ĩ
Ġ à½Ĩà½ĸ
à¼¢à¼¨ à¼§
à½Ģ à½Ĩ
à¼¢à¼¨ à¼¤
à¼ĭà½Ī à½ºà¼ĭ
à½¦ à½ĸà½ħ
à½Ĥà½ı à½ĸ
à½ĺà½ĳ à½ĳ
à¼¢à¼¨ à¼©
à½Ĳà½ĺà½¦ à½ħ
à½Ķà½ł à½Ĥ
Ġ à½Łà½¦
à½Ĥ à½Ĥà½Ħ
à½ĳ à½ĳà½ĸ
à¾² à½±à½´à½¾à¼ĭ
à½Ĥà½ŀ à½ĳ
à¼µ à½²
Ġ à½Ĥà½Łà½ł
à¾² à½±à¾ĥà¼ĭ
à½Ł à½ģ
à½ħà½ĵ à½ĳ
à½Ĳ à½Ħà½¦
à¾¡ à¾²à½²à¼ĭ
à½£ à½Ł
à½Ħà½¦ à½ĳ
à½ĸà½¤à½ĳ à½ĳ
à½ĸà½ı à½Ħà½¦
à½łà½ĳ à½ĳ
à½ĳà½Ķ à½ĵ
à½Ĥ à½ĸà½ŀ
à¾Ľ à½²
à¾¡ à¾·à½´
à½¦ à½ħ
à½Ķà½¢ à½ĳ
à½Ħ à½ļ
à½Ĥà½ī à½¦
Ġ à½Ĥà½¡à½¦
à¾µ à½²à½¾à¼ĭ
à½Ľ à½¨
à½Ķà½¢ à½ĵ
5 5
à½ĳà½Ĥ à½Ĥà½¦
à½Ĩ à½ĺà½¦
à½ĸà½ŀ à½Ĥà½ĳ
à½ĸ à½¡à½Ħ
à½¨ à½Ľ
ï ¼
à½¢ à½łà½Ĥ
à¾³ à¾³à½¼à¼ĭ
Ġ à½ĺà½ļà½ĺà½¦
à½ĺ à½¨
à½Ĥà½¦ à½ı
à½łà½ķ à½£
à½¦ à½¢à½Ħ
Ġ à½Ĳà½£
à¼£ à¼¡à¼£
à¼¢à¼© à¼£
à½£ à½ħ
à½ºà¼ĭ à¼Ĳ
à¼µ à½¼
à½¢ à½¢à½Ħ
à½ģ à½Ĭ
à¾· à¾²à½²
à½ĵ à½łà½Ĥ
à½ĳà½Ħ à½ĳ
à½Ĥ à½ĸà½ĳà½Ĥ
à¼ŀ à¼ŀ
à½£ à½ĺà½Ĳ
à½ĺà½ļ à½Ħà½¦
à½ł à½Ł
à¾£ à½ºà¼į
à¾¦ à¾±à¼ĭ
à¾Łà¼ĭ à½²
à¾ļ à½¾à¼ĭ
à¾« à¼į
4 1
à½Ħ à½ĺà½¦
à¾¦ à¾²à½´à¼ĭ
à½¢ à½ĸà½ŀ
à½¢ à½Ĳ
à¾¡à¾· à½²à¼į
4 2
à¼¡à¼© à¼¥à¼¤
à½Ħ à½łà½ĳ
à½Ĥ à½Ĥà½ħ
à¾« à½±à¼ĭ
5 9
à½ĺà½Ľ à½ĳà½Ķ
à½£à½ĺ à½¢
à½ĳ à½¨
à½ĺ à½Ļ
4 3
à¼¡à¼© à¼¦à¼¢
à¾Ł à¾²à¼į
à½Ķà½ł à½ļ
à¾·à¾± à½±
à¾Ń à¼ĭà¼į
à¾² à¾±à½²
à½Ĳ à½Ģ
6 0
Ġà¼§ à¼¢
à¾¤ à½¼à¼į
à½ĵ à½ĸà½ħ
à¼£ à¼¡à¼§
à½ĸ à½ĸà½ĳ
à½Ĳ à½ĺà½£
à¾Ł à¾¡à½¼
à½´ à½´
à½Ĥà½Ħ à½ĵ
Ġ à½ĳà½ĺà½¢
à½¢ à½ĳà½Ĥ
Ġ à½Ĥà½ĵà½ĺ
à¾Ļ à½ºà¼į
à½Ī à¾±à½²
Ġ à½¡à½¢
Ġà¼¥ à¼©
Ġ à½¦à½¢
à½ĳà½Ħ à½Ĥ
Ġà¼§ à¼§
à½ļ à½ļ
à½£à½¦ à½Ĥ
Ġà¼¤ à¼§
à¼ĭ à½¼à¼į
à½Ĥà½Ł à½Ĥà½¦
à½ĳà½ĸ à½ħ
à¼¡à¼© à¼§à¼¨
Ġ à½Ĳà½ĺ
à½ĵ à½Ĳà½ĺà½¦
à¼¢à¼¨ à¼£
à½ĸà½ŀ à½ł
à¼£à¼¤ à¼¥
à½¼à¼ĭ à¼ı
Ġà¼¤ à¼£
à½Ĥà½ĵà½¦ à½Ķ
à½¼à¼į à¼ĭà¼įà¼ĭ
à½² à¼µà¼ĭ
Ġ à½łà½ļ
à¼¡à¼© à¼¦à¼¦
à½ĵ à½ĸà½ĳà½Ĥ
à½ĺ à½Ĥà½ī
à¼ĭ à¾±
à¾Ĵ à½²
à¾¤ à¾±à¼ĭ
à¾¨ à¾±à½²à¼ĭ
à½Ħà½¦ à½ı
à¼£à¼¦ à¼¡
Ġ à½Ĥà½ĳà½ĵ
à½Ħà½¦ à½¢
à½Ĥ à½ĺà½Ĩ
à¼£ à¼¡à¼¢
à¾²à½º à½¾à¼ĭ
Ġ à½łà½Ľà½ĺ
à¾Ń à½¾à¼į
à½¡ à½İ
à½ĳà½Ķà½ł à½¢
à½Ĥ à½ĺà½¢
à½Ĩ à½Ĩ
à½£à½¦ à½łà½ĳà½¦
à½ĸ à½¨
à½ĺà½Ĳ à½Ĥ
à½ĵ à½ĸà½ĳ
à½ģ à½ĸà½¦
à¼£à¼£ à¼£
Ġ à½Łà½Ĥ
à½Ł à½Ł
à½ĸ à½ĸà½ł
à¾£ à½²
à½ĸ à½ĸà½ħ
à½§ à½§
à½Ķ à½¨
à¾Ĳà¾±à½ºà¼ĭ à¼į
à½Ķà½¢ à½łà½ĳ
à¾· à½±à¼į
à¾· à½´à¼į
à¼£ à¼¢à¼¢
Ġà¼¤ à¼¨
Ġà¼¥ à¼¤
à½ĵà½¦ à½ŀ
à½łà½ ¨
Ġ à½Ĥà½ĳà½ĺà½¦
à¼£à¼¦ à¼¥
à½² à¼µ
à¾² à¼įà¼ĭ
à½ĳ à½¢à½Ħ
à½´à¼ĭ à¼º
à¼£ à¼¡à¼©
à¼¡à¼© à¼¦à¼£
à½Ĺ à½ĵ
à½ĸà½ĳ à½Ĥà½¦
à½Ĥ à½ĺà½ł
à¼£ à¼¡à¼¥
à¼£à¼¤ à¼¤
à½ĵà½¦ à½Ģ
à¼£à¼¥ à¼§
à½± à¼įà¼ĭ
à½ĸà½Ĥ à½Ĥ
Ġà¼§ à¼¦
à½£ à½Ļ
à½Ķà½ł à½ķ
à½Ķà½¢ à½łà½ĩ
à½ĸà½ħà½¦ à½Ķ
Ġà¼§ à¼¥
à¼£ à¼¢à¼£
à¼Ŀ à¼Ŀ
à½¦ à½Ĥà½Ħ
à½Ķ à½Ļ
à¾² à¾³
Ġ à½ĳà½ĺà½Ħà½¦
à¼£à¼¤ à¼£
à½ĳà½ĺ à½£
à½Ĥà½Ħ à½¡
à¼£ à¼¢à¼§
à½¦ à½§
à½Łà½ĸ à½ĺ
à¾Ĳ à½±
à½Ĥà½ĵà½¦ à½ĵ
à½ħà½ĵ à½£
à¼£à¼¦ à¼§
à½Ĥ à½Ķà½¦
Ġ à½ĸà½Ľ
à¼£à¼£ à¼¤
à½Ķ à½ĺà½Ĳ
à¼£ à¼¡à¼¤
à½ħ à½ĳà½ĸ
à½¡ à½¡
Ġ à½Į
à¾Ĺ à½´
à½ĺ à½ĸà½ŀ
à½Ľ à½Ľà½§
à¼£à¼¤ à¼§
à¼£ à¼¡à¼¦
à¾ŀ à½ºà¼ĭ
à½Ĺ à½ĸ
à½£à½ĺ à½£
à½º à¼µ
à½¥ à½¢
à½´ à¼µ
à¼£à¼¥ à¼¥
à½¼à¼ĭ à½ºà¼ĭ
à¾±à½ºà¼ĭ à¼į
à½ĵ à½ĳà½Ĥà½ł
à½ĵ à½Ĥà½ŀà½ĵ
à½¡à½Ħ à½ĳ
à½ĳà½Ķà½ł à½ĺ
à¼¡à¼© à¼¥à¼§
à¼Ģ à½ĳ
à¼£ à¼¢à¼¥
à½Ĭ à½£
à½Ŀ à½ı
à¼£à¼£ à¼¥
à½ĵà½¦ à½Ħ
à¼£à¼¦ à¼£
Ġà¼§ à¼¨
à½Ĥ à½ĺà½ĳ
à½ĵ à½ĺà½ł
à¼£à¼§ à¼§
à½ķ à½ı
à¼£à¼¦ à¼©
à¼ĭà½º à½²
Ġ à½ļà½Ħà½¦
à½ĸà½¦ à½ĵà½¦
à¼£à¼¥ à¼¦
à½ĵ à½ĳà½ĸ
à¼ĭà¼ŀ à¼į
à½łà½Ĥ à½ĳ
à½ĵ à½£à½ĺ
à½Ĥ à½§
à½ĵà½¦ à½ļ
à½ĸà½Ĥ à½Ĩà½Ĥà½¦
à¼µ à½²à¼ĭ
à¼£à¼¤ à¼©
à¼£à¼§ à¼£
à½Ĥ à½ĳà½Ķ
à½Ĥà½ĳ à½ĸà½¦
à½ĸ à½ĺà½Ĳ
à½£à½¦ à½Ĥà½¦
à½ĺà½Ľà½ĳ à½ĳ
à½Ģ à½ŀ
Ġà¼¥ à¼¨
à¼£à¼¤ à¼¡
à½ĺ à½ĳà½ĺ
à¾Ĵ à¾²à½²à¼ĭ
à¼£à¼£ à¼§
à½Ħà½¦ à½Ģ
à¼£ à¼¢à¼¦
à¼¡à¼© à¼¦à¼©
à¾´ à½²
à½¢ à½ĸà½ĳ
à½Ĥ à½ĺà½Ĳ
à¼¡à¼© à¼§à¼¤
Ġà¼¤ à¼¡
à¾© à½¾à¼ĭ
à½ĵ à½ĺà½ģ
à½ĵ à½ĺà½Ĥ
à½ĵ à½¥
à½ĳà½ĸ à½Ħà½¦
à¼£à¼§ à¼¥
à¼ĭ à½²à¼į
à½ĸà½¤à½ĳ à½Ķà½ł
Ġà¼§ à¼¤
à¾« à½²à¼į
à¼¤à¼¤ à¼¤
à¾Ł à½±à½¾à¼į
à¼£à¼£ à¼¦
à½łà½ĩ à½ĺà½¦
à½ĺà½ģà½ł à½£
6 6
à½Ħ à½Ĥà½ī
à¼¡à¼© à¼¦à¼¡
Ġà¼¥ à¼¥
à¼£à¼¦ à¼¤
à½¦ à½ĩ
à½Ĥ à½ĺà½Ħ
à¼£à¼¤ à¼¦
à¼ĭà½µ à¾ĥà¼į
½ į
à ½į
à½¼ à¾ĥ
à½ĳà½Ĥà½ł à½¦
à½Ĥ à½Ļà½ĺ
à½ĺà½Ĳà½ł à½ĺ
à½Ķà½¦ à½Ĩ
à½Ĵ à½Ĥ
à¼£à¼£ à¼©
à½ĳà½Ķà½ł à½¦à½ĺà½¦
à¾°à½´ à¾ĥà¼į
à¼£ à¼¡à¼¨
à¾ļ à¼į
5 1
à½Ĳ à½Ĳ
à¼£ à¼¢à¼¡
à¼£ à¼¢à¼©
à¼£à¼¥ à¼©
à½ĳà½Ĥ à½ı
à½£ à½łà½ģ
à½Ģ à½ļ
à¼£ à¼¢à¼¤
à¼£à¼¦ à¼¢
à½´ à¼µà¼ĭ
à½ĺ à½ĳà½Ķ
à¼£à¼¥ à¼¢
5 3
à¾Ķ à½ºà¼ĭ
à¼¡à¼© à¼¥à¼¥
6 7
Ġ à½ķà½¢
à¾´ à½ºà¼ĭ
à½Ķà½¢ à½ŀ
à½ĸà½ł à½ģ
à½ł à½łà½Ĥ
à¼£à¼£ à¼¢
à¼Ģ à½Ķ
à½ĸà½Ł à½ĵ
à¼£ à¼¢à¼¨
à¼£à¼¥ à¼¤
à½¢à½Ħà½¦ à½Ħà½¦
à¼£à¼§ à¼¦
Ġ à½İ
à¼© à¼¢à¼¤
à½Ĥ à½ĩ
5 2
à½£ à½¢à½ĸ
à¼¤ à¼¡à¼§
5 4
à½Ĺ à½¢
à½Ĥà½¦ à½ħà½ĵ
à¼£à¼¤ à¼¢
à½ĳà½Ĥ à½Ĩ
à¼£à¼§ à¼¡
à¾Ł à¾²à½±à½²à¼ĭ
à¼ĭà¼ ī
à½ĵ à½ĺà½ļà½ĵ
à¾±à½² à½²
à¼£à¼¦ à¼¦
à½£ à½§
à½ĸà½¦ à½Ķ
à¼£à¼£ à¼¨
Ġ à½ĳà½¢
à¼£à¼¥ à¼¡
à¼£à¼¤ à¼¨
à½± à¾Ģ
à½Ĥ à½Ĥà½ĵà½¦
à¾Ł à½±à¼į
à½¡ à½§
à½´à¼į à¼ĭà¼į
Ġ à½ºà¼ĭ
à½Ĥ à½ĸà½ħ
Ġ à½ĺà½ł
Ġà¼¦ à¼¢
6 8
à½ħ à½ĳà½Ĥ
à½£à½Ĥà½¦ à½ĵ
à¾ľ à½±
à¼£à¼¨ à¼¦
à¾¥ à½²
à½Ķà½¦ à½ŀ
à½ķ à½ħ
à½£ à½łà½Ĥ
à½ĵ à½łà½ģ
à½ĵ à½łà½ĩ
à¾Ļ à½¼à¼į
à½£ à½Ĥà½Ħ
à½ĸà½¦ à½Ĩ
à¾³ à½±à½²à¼ĭ
à¾·à¾² à½±à½´à¾ĥ
à¼£à¼¨ à¼©
à½Ķà½¢ à½ĺà½Ľà½ĳ
à¾³à½¼à¼ĭ à¼į
à¼¡à¼© à¼¥à¼¢
Ġà¼¤ à¼©
à½Ģ à½Ļ
à½Ķà½¦ à½ģ
à½£à½ĵ à½ĵ
à¼¡à¼© à¼§à¼£
à½Ĥ à½Ĥà½ŀ
à½ĸà½Ł à½ĸ
à½ĳà½ĸà½Ħ à½Ķ
à½Į à½Į
à½¦ à½Ĥà½ŀ
à½ħà½ĳ à½ĳà½Ħ
à¾Ń à½±à½²à¼ĭ
Ġà¼¥ à¼§
à¼£à¼¦ à¼¨
à¾¡ à¾²à¼į
à¼¤ à¼¡à¼¢
à½ĸà½¢ à½£
à¼£à¼¥ à¼¨
à½¦ à½ĸà½ŀ
à¾Ĵ à¾·
à½ĳà½Ģà½¢ à½Ķ
à¾Ľ à½±
à½Ķ à½Ĥà½ŀà½ĵ
à½¢ à½£à½¦
à¼¤ à¼¡à¼¡
à¾±à¼ĭ à½²
Ġà¼¦ à¼¦
à½Ľ à½£
à¼¡à¼© à¼¤à¼§
à½²à¼ĭà½Ī à½º
à¼¡à¼© à¼¦à¼¥
6 9
à½ĸ à½Ĥà½ŀà½ĵ
à½Ģà½Ģ à½Ģ
à½£à½¦ à½Ħà½¦
à½¦ à½ĺà½ļ
à½²à¼ĭ à¼´à¼į
à½ºà¼ĭ à½´à¼ĭ
à¼£à¼§ à¼¢
à½ĵ à½¢à½ĸ
à½ĺà½¦ à½ĵà½¦
à¼Ģ à½¢
à½Ļà½ĺ à½ĵ
à¼¤ à¼¢à¼¡
à¼£à¼© à¼¡
à½Ĥ à½łà½Ĥ
à½Ģ à½ħ
à½ħ à½ĳà½Ħ
à½ĸà½¦à½ĺ à½ĺ
à½ĳà½Ĥ à½¡
à½±à¼ĭ à½²
à¼£à¼© à¼§
à½£ à½ĳà½ĺ
à½¡à½ĵ à½ĵ
à½ĳà½Ĥ à½ĵà½¦
à¼¡à¼© à¼§à¼¦
à¼£à¼§ à¼¨
à½ĺà½¦ à½ĳ
à½ī à½ĸ
à½ĳà½Ĥ p
à¼¤ à¼¤à¼¥
à½£ à½ĸà½ĳ
7 0
à¾Ļ à½²à¼į
à½Ĥà½¡ à½Ħà½¦
à¼£à¼§ à¼©
Ġà¼¥ à¼¢
à¼£à¼¨ à¼¥
à½ĵ à½¢à½¦
à½ĵà½Ħ à½ĵ
à¼£à¼¥ à¼£
à½Ķà½ł à½Ľ
à½±à½² à½¾à¼ĭ
à½Ĥà½¤ à½ĵ
Ġ à½Ĭ
à¾Ĵ à¾±à½²à¼ĭ
à½ĸà½¦à½ĺ à½Ĥ
Ġ à½ķà½Ĥ
à¾© à¾±à½²
à½ĸà½ı à½ĵ
à¼ĭ à½±à¼ĭ
à½Ĥà½¦ à½ļ
à½ĺà½Ĳ à½ĳ
à¼£à¼© à¼¦
à¼£à¼§ à¼¤
à¼£à¼¨ à¼£
à½¦ à½İ
à½ı à½Ĥà½¦
à¼¡à¼© à¼§à¼§
à½ª à½¦
à½łà½ģ à½ĵ
à¾µ à½´
à¾¶ à½±à¼ĭ
à½¦ à½Ľ
à¾Ļ à½´à¼ĭ
Ġ à½ģà½Ħ
à½Ĩ à½ĳà½Ħ
à½¦ à½ĺà½ĳ
à½Ķà½ł à½¦
à½ĸ à½ĺà½Ĳà½ł
à¼¡à¼© à¼¦à¼¤
à¼¤à¼¦ à¼¥
à½ĺ à½Ķà½¦
à¼ĭà¾¢ à½²à¼ĭ
à½ĵà½¦ à½Ĥ
à¾³ à¾³à¼ĭ
à½Ģ à½¡
à¾Ł à¾²à½ºà¼į
à½łà½ĳ à½Ĥà½¦
à½£à½¦ à½Ĥà½ŀà½ĵ
à¼£à¼© à¼©
à¼¤à¼¥ à¼¥
à¼£à¼© à¼¤
à¼£à¼¨ à¼¡
à½£ à½Ĩà½Ĥà½¦
Ġà¼¥ à¼¡
à½£ à½ĸà½ĳà½Ĥ
à½¥ à½ī
à½£ à½£à½ĺ
à½ģ à½Ĩ
Ġà¼¦ à¼¨
à¼£à¼¨ à¼¢
à½ĳ à½ĺà½Ĳ
à½¦ à½Ĥà½ŀà½ĵ
à½¤ à½łà½ĺ
à½Ļ à½ı
à½łà½ĸà½ł à½ŀ
à½¦ à½¦à½ĺ
Ġ à½ĳà½Ģà½ł
à¾£ à½¾à¼ĭ
à½ħà½ĳ à½¢
à¾·à¾² à½¾à¼ĭ
à½Ĥà½¦ à½¡
à¼¤ à¼¡à¼¥
à¼¤ à¼¢à¼¢
à½ł à½¤
à½ħ à½ĸ
à¼£à¼© à¼¢
à½ĵ à½Ĥà½ŀ
à¾² à¾«à½´
à¾Ł à¾±à½ºà¼į
à¼¤à¼¤ à¼©
Ġà¼ ī
à½Ħà½Ĥ à½¢
à¾¥ à½¼
Ġ à½Ĳà½Ħ
à½ĺà½Ĳ à½£
à½ģà½ĺà½¦ à½Ĥà½¦
à½Ģ à½Ł
à¾±à½²à¼ĭ à¼Ĳ
Ġ à½Ĥà½īà½ĵ
à¾ŀ à¼į
à½Ħ à½Ħà½¦
à½£ à½Ĥà½ŀà½ĵ
Ġ à½Ĥà½¦à½¢
à½¦ à½¦à½Ħà½¦
Ġ à½ĳà½Ĥà½Ĥ
à½¡ à½¡à½Ħ
à¾±à¼į à¼ĭà¼į
Ġ à½¡à½ĸ
à½¡ à½Ľ
à½łà½Ĳ à½Ĥà½¦
Ġ à½ĺà½Ħà½ł
à½£ à½ĸà½ŀ
à¾³ à½±à¾Ģà¼ĭ
à¼¤à¼¤ à¼¢
à¾² à½¾
à¾¡à¾· à½±
à¾·à½±à½²à¼ĭ à¼į
à¾Ļ à¾°à¼ĭ
à¾µ à½¾à¼ĭ
à½Ķ à½ĸà½ħ
à½¼à¼ĭà¼į à¼ĭà¼į
à¼£à¼¨ à¼§
à½Ĥà½ĵà½¦ à½Ķà½ł
à¾Ĵà¾² à½¼à¼į
6 5
à¼£à¼© à¼¨
à½¤ à½ı
à½ħ à½Ĳ
6 3
à½ĸ à½Ķà½¦
à½ĳà½Ĥ à½Ķà½ł
à½£à½ĵ à½Ĥà½¦
à½ł à½Ķà½Ĥà½¦
à½ĵà½¦ à½Ĩ
6 2
à½º à½ºà¼į
à½¦à½Ģ à½ĸà½¦
à½¡ à½¤
à½Ķà½¢ à½Ĥà½¦
6 1
à¼ĭà½Ī à¾²à½º
à½Ĥ à½ĺà½¦
à½Į à½ĵ
à¼¤ à¼¢à¼¤
à¾µ à¾¨
à½¦ à½Ĥà½ĵà½¦
à½£ à½Ķà½¢
à¼£à¼© à¼£
à½Ģ à½Ķ
à¾³à½¼ à½¼à¼ĭ
à½¦ à½Ĥà½¦à½Ħ
à½Ĥ à½Ŀ
à½Ĥà½¦ à½£à½¦
à½ĸà½¦ à½ŀ
à½ĸà½ł à½ĩ
6 4
Ġ à½ĸà½¤
à½£à½ĺ à½ĺ
à½Ĩ à½Ĭ
à¼£à¼© à¼¥
à¼¤à¼¥ à¼§
à½º à½¾
à½ĳà½Ħ à½ł
à½Ĥà½ıà½ĵ à½ļ
à½Ĵ à½ĳ
à½± à½º
à½¨ à½£à½¦
à½ĸà½ħ à½ĺ
à½ĳà½ĺ à½ª
à¾ļ à½ºà¼ĭ
à¾ļ à½±à½¾à¼ĭ
à½ĸ à½ĺà½ĳ
Ġ à½łà½Ĥà½£
à½¼ à½´
à½Ĥà½¦ à½Ĥà½¦
à¼£à¼¨ à¼¤
Ġ à½Ĥà½¢
à½ĳ à½Ļà½ĺ
à½ł à½ĳà½Ħà½¦
à½ĳà½ĸà½Ħ à½Ĥ
à¼¤ à¼¡à¼£
à½ºà¼ĭ à¼´
à½¼à¼ĭ à½º
à¼¤à¼¦ à¼¢
à½Ĥà½ı à½Ĥ
à¼¤à¼§ à¼¥
à½ĸ à½ĵà½ĺ
à¾¨ à¾¨à½±à¼ĭ
à¼¤ à¼¡à¼¤
à½Ŀ à½ĳ
à¼¤à¼¤ à¼§
à½Ħ à½ĸà½ŀ
à½ļà½ĳ à½¦
à¼¡à¼© à¼§à¼¥
à¼¥à¼¥ à¼¥
Ġ à½Ĥà½ıà½ĺ
à½Ķ à½ĳà½ĳ
à½ģ à½ļ
à½¡ à½ĸà½¦
Ġà¼§ à¼©
à ¿
à½ĵ à½ĩ
à¼¤ à¼¡à¼¦
à½ĸà½Ļ à½Ħ
à¼¤à¼§ à¼§
à½ĸ à½Ĥà½ĵà½¦
à¾£ à¾²à½º
à½ĸà½ĳà½Ĥ à½ĵ
à½ĵ à½Ĥà½ħ
à½Ģ à½Į
à½Ĭ à½ĵ
à¼¦ à¼¡à¼§
à¼Ģ à½Ľ
à¼£à¼¨ à¼¨
à½ĳ à½¦à½Ħà½¦
à½¨ à½ģ
à¼¤ à¼¢à¼¦
7 7
à½Ĳ à½£à½ĺ
à¼¡à¼© à¼¦à¼§
à½ģ à½łà½Ħ
à½ĵà½¦ à½ģ
à½£à½¦ à½ŀ
à¼¡à¼¡ à¼¡à¼¡
à½Ĺ à½Ĩ
à¼¥à¼¦ à¼§
à½Ķà½¢ à½łà½ĸ
à½Ĥ à½ĺà½ļà½ĵ
à¼¤ à¼¢à¼¥
Ġà¼© à¼©
à¼Ģ à½Ģ
à½Ķ à½§
à½ĳà½Ģ à½¦
Ġà¼§ à¼£
à¼¡à¼© à¼¡à¼£
à½ĺ à½łà½ĸ
à½ĸà½ħ à½ĳà½Ķ
à¾ĳ à¼ĭ
Ġ à½ĳà½Ķà½Ĥ
à¾¨ à½±à¼į
à½§ à½Ĥ
Ġà¼¦ à¼¥
à½² à½¼à¼į
à¼¡à¼© à¼¡à¼¢
à½¼ à¼µà¼ĭ
à½Ķ à½Ĥà½ħ
à¾² à¾±à½²à¼ĭ
à¾¤à¾± à½¼à¼į
Ġà¼¥ à¼¦
à½ĺà½¦ à½ĸ
à½£à½¦ à½ł
à½¼ à¼´
à½¦ à½łà½Ĥ
à½łà½ģ à½ĺà½¦
à½¾ à½¾à¼ĭ
à½Ķà½¢ à½ĸà½¢
à¾¦ à¾²à½ºà¼ĭ
à½ĳ à½¡à½Ħ
à½¢ à½Ķà½¦
à½Ĥ à½łà½ģ
à½ĺà½ĵ à½ĺà½¦
à¼¤à¼¤ à¼¦
à¼¤à¼¤ à¼¡
à½¦ à½ĺà½ļà½ĵ
à¾Ĳ à¾²à½²à¼ĭ
à¼¤ à¼¡à¼©
à½Ĥà½Ħ à½Łà½Ĥ
Ġà¼¦ à¼©
à½Ķà½¢ à½Ĳà½£
à¾³à½´à¼ĭ à¼į
à½¦ à½ĸà½ĳà½Ĥ
7 8
à½¦ à½Ĥà½ħ
à½ĸ à½ĸà½¦à½ĺ
à½¢ à½Ĥà½ĵà½¦
à½Ķ à½Ľ
à¼¤ à¼¡à¼¨
à¾² à¾ĥà¼ĭ
à½Ķà½¦ à½Ģ
à¼¤à¼¦ à¼¤
à¼ĭ à¾±à¼ĭ
à¾Ķ à¾·à¼ĭ
à½ĵà½ĺ à½¢
à½ĳà½Ĥà½ł à½ĺ
Ġ à½ĸà½ĸ
à½Ĥ à½Ĩà½Ĥà½¦
à½ĵ à½ĳà½Ķ
à½Ķà½¦ à½Ħà½¦
à¼¡à¼© à¼¦à¼¨
à½Ħ à½£à½¦
à½ħà½ĵ à½ĳà½Ħ
à¼¡à¼© à¼¥à¼£
à½Ĥ à½łà½ĩ
à¾¡à½ºà¼ĭ à¼į
à½¢ à½ĺà½ĳ
à½ĺà½Ĳ à½ĺà½¦
à¼¤à¼¥ à¼¦
à½Ĥà½ŀ à½Ĥà½¦
à¼§à¼§ à¼§
à¾Łà¾Ń à½¾
à¾¤ à½¾à¼ĭ
à½ĺà½¦ à½Ķà½¢
à¾¤ à¼į
à¾¡ à½±
à½± à¾ĥà¼į
à¾Ń à¾°à¼ĭ
à½łà½ĳà½¦ à½£
à¼¤ à¼¢à¼§
à¼ĭ à¾±à½²à¼ĭ
à½£à½¦ à½Ĩ
à½Į à½İ
à½¢ à½ĸà½ĳà½Ĥ
à¾£ à¾²à½´
à¼¤à¼¥ à¼¢
â Ģ
à½ĸ à½ĺà½ł
Ġ à½ĸà½ŀà½Ĥ
à½¦ à½łà½ģ
à½Ĥ à½ĳà½ĸà½Ħ
à¼¤à¼¥ à¼©
à½¦ à½ĸà½ĳ
à¼¥ à¼¢à¼¢
Ġà¼¦ à¼¤
à¼¤à¼§ à¼¢
à½ĸà½ĳà½Ĥ à½£
à½ļ à½łà½ĺ
à¼¥ à¼¡à¼¡
à½ĺ à½ĺà½Ħ
à½Ħà½Ĥ à½ł
7 1
7 2
à½ĵ à½Ĥà½Ł
à½ģ à½¡
à½ĳà½Ĥà½ł à½ĸà½¢
à¼¤à¼¦ à¼§
8 0
à½¦ à½¡à½Ħ
à½Ħà½¦ à½¤
à¾¨ à½¼à¼į
à½ĥ à½¦
à½ºà¼ĭ à½ºà¼ĭ
à½ĸ à½Ĥà½ħ
à½ĸ à½Ŀ
à¼¡à¼© à¼§à¼¢
à½£ à½Ĥà½Ł
7 4
à½Ķ à½ĺà½Ĩ
à½Ħà½¦ à½ĸ
7 5
à½ĺà½ļ à½ł
à½¢ à½¨
à¾¨à½² à½¾à¼ĭ
à¼¡à¼© à¼§à¼¡
à½łà½Ļ à½£
à½ĸà½Łà½Ħ à½Ķ
à½Ķ à½ĳà½ĸ
à½ĺà½¦ à½ĺà½¦
à½ĳà½Ĥ à½łà½ĳ
à½łà½ķà½Ĥà½¦ à½Ķ
à½Ŀ à½İ
Ġ à½Ĩà½ĳ
à¾¦ à½¾à¼ĭ
à½ĳà½Ĥ à½¤
à½łà½ĩ à½ĳ
à¼ĭà¼´ à¼ĭ
à½Ĵ à½ł
à¼¤à¼¥ à¼¡
à½ĸ à½Ĭ
à½¢ à½§
à½£ à½Ĥà½ŀ
à½Ķà½ł à½Ĩ
à¾© à½±
à½īà½ĺà½¦ à½¦
7 9
à¾² à½±à½´
à½łà½ĳà½ĸ à½ĺ
Ġà¼¦ à¼§
à½ģ à½Ł
à¾¤ à½²
à½Ĥà½ŀ à½ĵà½¦
à½Ĥ à½Ĥà½£
à½Ķà½ł à½ģ
à½ĳà½ĸ à½ĳà½Ĥ
à¾¨ à¾±à½ºà¼ĭ
à½¢ à½¢à½ĸ
Ġ à½Ħà½¦
à¾£ à¼ĭà¼į
à½ĺà½ĩ à½ł
à½¢ à½¦à½Ħà½¦
à½£ à½ħà½ĵ
à½ĳà½Ħ à½łà½ĳ
à¼¤à¼¥ à¼¤
à¼¤à¼¥ à¼¨
à¾¡à½¼à¼ĭ à¼į
7 3
à½ĺ à½ĺà½ĳ
à¼¥ à¼¡à¼¢
à½ª à½ĸ
à¼¤à¼¦ à¼¡
à¾ľ à½¼à¼ĭ
à¼¤à¼¦ à¼¨
à¼¤à¼¨ à¼©
à½¨ à½ļ
à½ĸà½¤ à½Ħà½¦
à½¨ à½¤
à½Ł à½łà½ĺ
à¼¥ à¼¡à¼¥
à¼ĭà½µ à½¾à¼į
à½Ģ à½§
à½£à½ĺ à½īà½ĺ
à½¦ à½ĵà½ĺ
à½²à¼ĭ à½Īà½²
à½ĳà½Ĥ à½Ł
à½ĸà½ŀ à½£
à½Ĥà½ŀà½ĵ à½ĳà½Ĥ
à½Į à½¦
à¼µ à½º
Ġ à½łà½Ĳ
à½¼ à½¼à¼į
à½¡à½Ħ à½¤
à½ĺà½Ľ à½Ħ
à¼¡à¼§ à¼¡à¼§
à½ĺà½¦ à½ı
Ġà¼¥ à¼£
à¾¨ à¼ĭà¼į
Ġà½ŀ à½¢
à½Ģ à½Ĭ
à½Ľ à½¡
à½Ľ à½Ģ
à½¦ à½ĸà½ł
à½Ī à½º
à¼ĭà¾ ĵ
à¾¦à¾± à½¼à¼į
à½ĳà½Ħ à½¤
à½ĵ à½ħà½ĵ
à½¢ à½ĸà½ħ
à½Ħ à½ĵà½ĺ
à¼¤à¼¦ à¼©
à½ĵ à½ĵà½ĳ
à½Ķà½¦ à½Ĥ
Ġ à½ļà½¢
7 6
à½Ĥ à½¢à½ĸ
Ġà¼§ à¼¡
à½ģà½ĺà½¦ à½ĵ
à½£ à½Ĥà½ħ
à½ĺà½Ĩ à½Ĥà½¦
à¼¤à¼¨ à¼¥
à½¢ à½Ĥà½ŀà½ĵ
à½Ħ à½¡à½Ħ
à½ĺà½ĩ à½ĳ
Ġ à½Ĥà½ĵà½Ħ
à½¢ à½Ĥà½ī
à¼¡à¼© à¼£à¼¥
Ġà¼¦ à¼¡
à½ĵ à½ĳà½ĸà½Ħ
à½łà½Ĥ à½ĵà½¦
à¼¡à¼¢ à¼¨à¼§
à½ĺ à½ħà½ĵ
à½łà½ķ à½Ĭ
à¾²à¾Ģ à¼į
à¼¥à¼¦ à¼¥
à¾± à½¾à¼į
à½ĳà½Ħ à½ĺà½Ĳ
à¼¤ à¼¢à¼©
à¼¦ à¼¢à¼©
à¼¤à¼§ à¼¦
à¼¤ à¼£à¼£
à½ĳà½Ĥ à½ŀà½ĵ
à¼Ģ à½ı
à½¦à½¦ à½¦
à½Ĥà½ħ à½Ħ
à½ģ à½ŀ
à½ĳ à½ĳà½Ķà½ł
à½Ħ à½łà½Ħ
à½łà½Ĳ à½¢
à½Ĺ à½Ļ
à¾²à½± à¾Ģ
à¾± à½±à½¾à¼ĭ
à½Ķà½¦ à½ĸà½¦
à½Ĥà½¤ à½ĳ
à¼¤ à¼£à¼§
à¾²à¾° à½²
à¾Ł à¾±à½ºà¼ĭ
à½Ĥà½ĵà½¦ à½£
à½Ĥà½ĳ à½¦
à½ĸà½¦à½ĺ à½Ķ
à½Ĵ à½¦
à½ĺ à½ĸà½ħ
à½Ķà½¢ à½¦à½Ħà½¦
à½Ĺ à½¡
à¼¤à¼¦ à¼¦
à½¦ à½ĺà½Ľà½ĳ
à½² à½¾à¼į
à½ĺà½Ħ à½Ķ
à¼ĭ à¾£
à½Ĩ à½ĳà½ĺ
à¼¤ à¼£à¼¦
8 2
à½ł à½¡
à½ĸà½Ģ à½Ħà½¦
à¾³ à¾³
à¼¤ à¼£à¼¥
à¼¥à¼¦ à¼¢
9 0
à½ĵ à½§
Ġà¼¦ à¼£
à¼¤à¼§ à¼¡
à½ĵà½¦ à½ĸà½¦
à¼Ŀ à¼į
à½Ĥ à½ĳà½Ķà½£
à½Ħ à½Ķà½¢
à½łà½ĳà½¦ à½¢
à¼¥ à¼¢à¼¡
à½¥ à½ĵ
8 1
8 3
à½ĵà½Ķ à½£
à½ĵà½¦ à½¡
à½ĳà½ĺ à½Ķ
à¼¤à¼¤ à¼¨
8 4
à½ĳ à½ħà½ĵ
à½ĺà½īà½ĺ à½Ķ
à½Ĥ à½Ĥà½Ł
à½Ħ à½Ł
à½£à½¦ à½łà½ĳ
à¼ĭà½Ī à½±à½²
8 5
à½ŀ à½Ķ
à¾¦ à½±à½²à¼ĭ
à¼¥à¼¦ à¼¡
à¼©à¼© à¼©
à½Ŀ à½¡
à¼¥à¼¦ à¼©
à½£ à½ĳà½ĸà½Ħ
à½Ĳà½ĺà½¦ à½ħà½Ħ
à½ĺà½ĳ à½ĵ
à¼¤à¼¤ à¼£
à½¡ à½ķ
à½ĳà½ĺ à½Ķà½ł
à½łà½ĩ à½¦
à¼¤ à¼¢à¼¨
à¼¤ à¼£à¼¤
à¼¥à¼§ à¼¥
8 7
à½Ķ à½ĸà½ĳ
à½ĵà½¦ à½łà½ĳ
à¾¨ à½ºà¼į
à½ĳà½Ķà½ł à½ĸ
à¼¦ à¼¢à¼¢
à½ĸà½¢ à½ĸà½¦
à½Ķà½¦ à½łà½ĳ
Ġ à½ĺà½¦
à½¡ à½ī
à½ĸà½ł à½ķ
à½ĩ à½¦
à¾Ĳ à¼ĭà¼į
à½ĵà½ĺ à½ĺ
à¾Ĵà¾± à½¼à¼ĭ
à¼¦ à¼¡à¼¡
à¼¤à¼¨ à¼¡
à¼¤à¼§ à¼¤
à¼¤à¼§ à¼©
à½Ķà½¢ à½ĸà½Ĥ
à¼¥à¼§ à¼§
à¼¤à¼© à¼§
8 8
à½£ à½ĩ
à½ĺà½¦ à½ħà½ĳ
à¾· à¾²à½´à¾ĥà¼ĭ
à¼¡à¼© à¼¤à¼¥
à¼§ à¼¡à¼¡
à¾± à¾²à½ºà¼ĭ
à½Ķ à½Ħà½¦
à¼¦ à¼¡à¼¢
à¾¡ à¾·à½±à½´à¼ĭ
à½ķà½Ĭ à½ħ
Ġ à½ĸà½ħà½ł
à¼¤à¼© à¼¥
à½¦ à½łà½ĩ
à½Ķà½¢ à½Ĥà½ĵà½¦
à½Ķà½¦ à½ļ
Ġà¼¡ à¼¡à¼¡
à¾º à½±à¼ĭ
à¾³ à½±
à½łà½ģ à½ł
à¼¥ à¼¡à¼§
à½ĺ à½¢à½Ħ
à½ĵà½¦ à½ķ
à½ĸà½ŀ à½¦
à½¢à½ĸ à½£
à¼¤à¼§ à¼¨
à½ĺ à½Ĥà½ħ
à½£ à½ĵà½ĺ
à¼§ à¼¡à¼¢
à½łà½ĳà½¦ à½ĺ
à½ĳà½Ħ à½ĺà½ļ
Ġ à½Ļà½ĵ
à½ĸ à½ĸà½ĳà½Ĥ
à¾Łà½ºà¼į à¼ĭà¼į
à¼¥à¼¦ à¼¦
à¼¤à¼¨ à¼¦
Ġ à½Ĥà½ĵà½ĳ
à¼¡à¼© à¼£à¼§
à¾ŀ à½´à¼ĭ
Ġ à½ĳà½ĺà½Ĥ
à½ĳà½Ħ à½ŀ
à½£à½Ĥ à½¢
à½ĳ à½ĩ
à¼¦à¼¦ à¼¦
à½¦ à½ĺà½ĵ
à½ĵ à½ĵà½Ħ
à½Ĥà½¦à½£ à½ĸ
à¾²à¾° à½¾à¼ĭ
à¾±à¼ĭ à¼Ĳ
8 9
Ġ à½ģà½¦
à½ł à½łà½ĸ
à½Ĳ à½ĺà½¢
à½ĺà½¦ à½Ķà½ł
à¼¤ à¼£à¼©
à½ĳà½Ĥ à½Ĥà½¡
à¼¤ à¼¢à¼£
8 6
à½£ à½ĳà½ĸ
à¼¥ à¼¢à¼¥
à½ĳà½ĳ à½¦
à¾¨à¾± à½¼à¼į
Ġ à½łà½ĸà½¢
Ġà¼© à¼¡
à½Ĺ à½ĳ
à½Ĥ à½ĸà½ł
à¼¡à¼© à¼£à¼£
à¼¤à¼¨ à¼¢
à¼ĭ à¾±à½²
à¾±à½²à¼ĭ à¼º
à½İ à½ĺ
Ġà¼¨ à¼¦
à½¼à¼ĭ à½¼
à½ĺà½Ĩ à½¦
à¾Ń à½º
à½ĳà½Ķà½ł à½ĵ
à½ķà½ĵ à½ļ
à¼¡à¼© à¼¡à¼¤
à½łà½ĺ à½ĺ
Ġà½¢ à½£
à½Ĥ à½ĺà½Ĥ
à½Ĩ à½Ķ
à½ĳà½Ĥ à½£à½¦
à¼¥à¼© à¼¦
à¾·à½º à½¾à¼ĭ
Ġ à½Łà½ĳ
à½ĺà½¦ à½£à½¦
à½ĸà½¢ à½łà½ĳ
à½ĸ à½Ħà½Ĥ
à½ĺ à½Ŀ
à¼¨ à¼¤à¼¥
à½ĺ à½ĺà½ģ
à½Ĩ à½Ĥà½¢
à½łà½ĳ à½Ķ
à½ĸ à½ĺà½Ľà½ĳ
à½¢ à½ĺà½Ħ
à½łà½ģ à½¦
à½Ĥà½Ļ à½ĳ
à½İ à½ı
à½Ĥ à½£à½Ĥ
à½ĺà½ĳ à½Ķà½ł
à½ĸà½ı à½ĺà½¦
à½ĳà½Ķ à½£à½¦
à½Ľ à½Ĥ
à½ĵà½ĵ à½ĵ
à¼¥à¼¥ à¼¢
9 1
à¾²à½¼à¼į à¼ĭ
à¼¤à¼§ à¼£
à¼¤à¼¦ à¼£
à½ł à½£à½¦
à¾² à½±à½´à¼ĭ
à½ĸà½Ĥ à½¢
à½Ħà½Ĥ à½Ĥ
à¼ĭà¾¢ à½ºà¼ĭ
à½Ķà½¦ à½¡
à¾ľ à½²à¼į
à¼¡à¼¦ à¼¤à¼¢
½ ľ
à ½ľ
à½Ĥà½ıà½ĵ à½£
à½ĵà½¦ à½ł
à½£ à½Ĥà½ı
à½£ à½Ĥà½ĳ
à½łà½Ĩ à½ĵ
à½Ĳà½¢ à½Ķ
à½ģ à½Į
à¼ĭà½¼à¼ĭ à½ºà¼ĭ
à½¦ à½£à½ĺ
à½¡à½Ħ à½ĸ
à¼¤à¼© à¼©
à¼¥à¼¥ à¼¡
à¾ļ à½±à½²à¼ĭ
à½¢ à½Ĥà½Ħ
à½ĺ à½ĸà½ł
à¾» à¼į
à½¦ à½ĳà½ĸ
à½¦ à½ĸà½¤à½ĳ
à½Ķà½¢ à½ĸà½¤à½ĳ
à½ĺà½¢ à½ĺ
à¼¦ à¼¤à¼¡
à¼¥à¼§ à¼¢
à½ĺ à½ĵà½Ĥ
à½Ĥà½Ħ à½ĳà½Ĥ
à¼µ à½ºà¼ĭ
à¼¤à¼© à¼¦
ï¼ Ī
à½Į à½ĺ
à¼Ģ à½£
à¼¤à¼¨ à¼§
9 3
à½ģ à½Ļ
à½Ĥà½Ł à½ĳ
à¼¤à¼¥ à¼£
à¾Ĵ à¾Ńà¼ĭ
à¼¤ à¼£à¼¡
à½ĭ à½Ģ
ï¼ ī
à¾± à½¾
à½£à½¦ à½¡
à½Ĳà½ĺà½¦à½ħà½ĳ à½£
9 9
à½Ī à½²à¼ĭ
à¼µ à½¼à¼ĭ
à½º à¼µà¼ĭ
à½¡à½Ħ à½¡
à½£à½Ĥ à½£
à¼¦à¼¦ à¼¢
à¼¦ à¼¡à¼¥
à½ķà½Ĭ à½¦
Ġ à½ĺà½ĳà½ł
à½Ĥ à½£à½ĺ
9 4
à½Ĳà½ĺà½¦à½ħà½ĳ à½Ģ
à¼ ī
à½ģ à½ī
à¼¡à¼© à¼£à¼¦
à¼¥à¼© à¼¥
à¾ł à¼į
à½¨ à½Ŀ
à¼¤ à¼£à¼¨
à½Ľ à½Ħ
à¼¦ à¼¡à¼¨
à½ĳ à½łà½Ĥ
à½¦ à½ĳà½ĺ
à½¦ à½Ŀ
à½Ħ à½Ĥà½ĵà½¦
à¼§à¼© à¼§
à½ĵ à½Ĩà½ĳ
à½ĺ à½ĺà½ģà½ł
à½ĳà½Ĥ à½ĳà½Ħ
à¼¥à¼§ à¼©
à½ĺ à½ĵà½Ħà½Ĥ
à¼¦ à¼¢à¼¤
à¼¥à¼¨ à¼¥
à½ĺ à½Ĥà½Ħ
à¾· à¾²à½´à¼ĭ
à¼¥ à¼¢à¼©
à½Ĥà½ĵà½¦ à½ĺ
à½¨ à½Ĩ
à¼¦à¼¥ à¼¢
à½Ĥà½Ħ à½ĳ
à½Ī à½ºà¼ĭ
à¼¤à¼© à¼¢
Ġà¼¡ à¼©à¼©
à½²à¼ĭ à½ºà¼ĭ
à¾ł à½ºà¼ĭ
à½ĺ à½£à½Ĥà½¦
à½ļ à½Ģ
à¾Ĵà½¼à¼ĭ à¼į
à¼¤à¼¨ à¼¤
9 2
Ġ à½ĺà½Ĩà½ĵ
à¼¡à¼© à¼£à¼©
9 5
à¾« à½´à¼į
à½Ĥà½Ł à½Ĥ
à½ĵà½¦ à½ī
à½Ķà½ł à½¢
à¼¥ à¼¤à¼¢
9 6
à½¦ à½¦à½¢
à¼¥ à¼¢à¼§
à½Ħ à½łà½ĸ
à½ĩ à½ĵ
à¼¥ à¼¡à¼©
à¾Ł à¾±à½º
à½ĺà½Ĳà½ł à½¡à½¦
à¼¥ à¼¡à¼£
à½ĳ à½ĵà½ĺ
à½ĳà½Ĥà½ł à½ĸà½ł
à¼¤ à¼£à¼¢
Ġ à½ĸà½ĺ
à½ĵ à½ĺà½Ľà½ĳ
à½£ à½ķà½ĵ
à¼¥à¼¦ à¼¨
à½Ħ à½Ĥà½ŀ
à½Ł à½ĳà½Ķ
à½Ĥà½Ł à½Ħ
à¼¥à¼¨ à¼¦
à¾¦ à¾·à½²
à¼¡à¼© à¼¤à¼¨
à½Ĥà½ŀà½ĵ à½¢
à¼¥ à¼¡à¼¦
à¼¥ à¼¥à¼§
à¼¥à¼© à¼¢
à¼¦à¼¨ à¼¢
Ġ à½łà½Ĩà½ĳ
à½¢ à½Ł
à½Ļà½ĺ à½Ĥ
Ġ à½¢à½¦
à½ļ à½Ķ
à½¢ à½ĸà½¤à½ĳ
à½Ħ à½ĺà½ł
à½ł à½ĺà½¦
à¼¥ à¼¤à¼¤
à¾Ĵà¾² à¼ĭà¼į
à½ķ à½łà½ĺ
à¾± à¾°à¼ĭ
à½Ħà½¦ à½Ķà½¢
à½łà½ĳà½¦ à½Ķ
à¼¦à¼§ à¼¨
à¼¦à¼¨ à¼§
à½¢ à½łà½ĸ
à½²à¼ĭ Â¶
à½£ à½Ĥà½¦à½£
à½¡à½Ħ à½Ĥ
à¾Ĳà¾² à¾Ģ
à½ĸ à½Ĥà½ŀ
à½Ģ à½¥
à½ĳà½Ķ à½Ĥà½ı
à¼§ à¼¥à¼¦
à¼¡à¼© à¼¤à¼¡
à½¦à½Ģ à½ĳ
à½Ĳ à½Ķ
à¾© à¾Ńà¼į
à¼¦à¼§ à¼¢
à¾¦ à¾±à½´
à½Ĥà½ĵ à½¢
à½ĳà½Ķà½Ĥ à½ĺ
Ġ à½Łà½Ħà½¦
à½Ł à½ĺà½¦
à½¢à½ĸ à½ĵ
à¾Ķ à¼įà¼ĭ
à½¨ à½ķ
à¼¥à¼¥ à¼¤
à½£ à½ĵà½Ĥ
à½ĳà½Ĥà½ł à½¢
Ġà½ĸ à½ĵ
à½ĵà½ł à½Ħà½¦
à½Ĥà½¤ à½ĺà½¦
à½²à¼ĭ à½´
à½ĸà½ł à½¦
à½Ĥà½ĵà½¦ à½ĵà½¦
à½łà½ļ à½£à½ĵ
à¼¦ à¼¥à¼§
Ġà½ĳ à½£
à½ĺ à½ĵà½Ħ
à½£ à½ĸà½ħ
à½¨ à½İà½ł
à½ĸà½ħà½¦ à½Ķà½ł
à¼¤à¼¨ à¼¨
à½£ à½ĵà½ĳ
à½Ħà½¦ à½ŀ
à½Ħà½¦ à½Ħà½¦
à¼¥ à¼£à¼¥
Ġà¼© à¼¢
9 8
à½ĳ à½łà½ĸ
9 7
Ġ à½ĸà½ı
à½ĳà½Ħ à½łà½ĸ
à½ĺà½¦ à½Ĩ
à¼¥ à¼¢à¼¤
à¼¥à¼¨ à¼§
à½Ħ à½Ĥà½Ħ
à½Ģ à½¨
à½ĸà½ĳà½Ĥ à½ħ
à¼¥à¼© à¼©
à½Ĳ à½£à½¦
à½¤ à½§
à¼¥ à¼¢à¼¨
à½ģ à½¦à½ĺ
à¼¥ à¼¥à¼¦
à¼¥à¼© à¼¡
à¼¥à¼© à¼§
à½¦ à½ĸà½Ģà½ł
à½ģà½ĺà½¦ à½Ģ
à¼¦ à¼¢à¼¦
à¼¥à¼¨ à¼¢
à½Ħ à½Ĥà½ŀà½ĵ
à½ĳ à½£à½ĺ
à½ºà¼ĭ à½¼
à½ħ à½Ķ
à¼¥ à¼¤à¼¥
à¼¦à¼© à¼©
à¼¦ à¼¢à¼¥
à¾²à½´à¼ĭ à¼į
à½ĳ à½Ĳà½ĺà½¦
à½Ħ à½ĸà½ĳ
à½Ķà½¦ à½Ħ
à½ģà½ĺà½¦ à½¦
à¼¥ à¼¡à¼¨
à½ĸà½¢ à½ł
à¼¤à¼¨ à¼£
Ġ à½ĺà½İ
à½ĺ à½łà½ģ
à¼¥ à¼¢à¼¦
à¾± à¾±à½º
à¼§ à¼£à¼§
à¼¦ à¼£à¼£
à¼ĭà¼ ģà¾ĥ
à¼¦à¼¦ à¼¥
à½Ķà½¢ à½ł
à¼¥à¼§ à¼¡
à¼¥ à¼¤à¼¡
à¼¥à¼§ à¼¦
à½łà½ķ à½ĳ
à¼¦ à¼¡à¼¤
à¼¦ à¼¡à¼¦
à¼¦à¼¦ à¼¡
à½Ħ à½łà½Ĥ
à¾¼ à¾Ģà¼ĭ
à¼§ à¼¢à¼¢
à¼¦ à¼¢à¼¡
à½¼à¼ĭà¼į à¼ĭ
à¼¤à¼© à¼¡
Ġ à½ŀà½Ĥ
à½ĺ à½Ĭ
à½Ł à½ĸà½¢
à¼¤à¼© à¼¤
à½Ħ à½ĺà½Ħ
à½Ķ à½ĺà½ĳ
à¼¦ à¼¤à¼¥
à½¦ à½ĺà½Ĳà½ł
à½ĵ à½ĺà½Ĳà½ł
à½ĸà½¦ à½ĳà½Ħ
à½ĸà½¦ à½łà½ĳ
à¾ł à½¾à¼ĭ
Ġà½ĸà½Ģà½ł à½łà½Ĥ
à½ĸ à½ĵà½ĳ
à½Ģ à½ĵà½¦
à¼¦à¼¦ à¼©
à¼¦à¼¦ à¼¨
à½¢à½Ħ à½ī
à¼¦à¼© à¼¨
à¼ĭ à½¾à¼ĭ
à½Ĥà½¦ à½ģ
à½´à¼ĭ à½º
à¾¤à¾±à½²à¼ĭ à¼į
à½Ķ à½ĵà½ĺ
à½ī à½Ģ
à¾£ à½¾
à¼ĭà½Ī à¾±à½º
à½ĸ à½Ĩà½ĳ
à½Ķà½¦ à½ķ
Ġà¼¨ à¼©
à½ĵ à½Ķà½ĳ
à¼ĭ à¾¨à¼ĭ
à½łà½Ĳ à½ł
à¼¦ à¼¢à¼§
à¼¡à¼© à¼£à¼¨
à½¢ à½Ľ
à¼¦ à¼¡à¼©
à½Ļà½ĺ à½ĺ
à½Ĵ à½¡
à½¢ à½ĩ
à½Ł à½Ķ
Ġ à½Ĥà½ŀà½£
à½ºà¼ĭ à¼º
à½¾ à¼įà¼ĭ
à¾µ à¾ŀà¼ĭ
à¼¤à¼© à¼¨
à½ĸà½ł à½Ľ
à½Ĺ à½£
à¾± à½±à¼į
à¼§ à¼¡à¼§
à¼§ à¼¦à¼¢
à¼¥ à¼£à¼¡
à½łà½Ĥ à½ī
à½ģà½ĺà½¦ à½ĺ
Ġ à½ĸà½ıà½Ħ
à½ĸà½Ļ à½Ħà½¦
à¼¥ à¼¢à¼£
à¼¥à¼¦ à¼£
à¾Ł à¾²à½ºà¼ĭ
à¼¦ à¼¤à¼¢
à¼¥à¼¦ à¼¤
à¼¥à¼¨ à¼©
à¼Ģ à½Ķà½ĳ
à¼¥à¼§ à¼¨
à½Ĥ à½Ĥà½ı
à½ª à½Ħ
à½ĺ à½¡à½Ħ
à½ĺ à½ĸà½ĳà½Ĥ
à½Ĳ à½ĺà½ł
à¼¥ à¼¤à¼§
à¼ĭ <
à½Ħ à½ĺà½Ĩ
à¾¦ à¾·à½´à¼ĭ
à¼¦à¼§ à¼¥
à½¦ à½ĳà½ĸà½Ħ
à½ł à½ĺà½¢
à½²à¼ĭà½Ī à½¼
à¾¦ à½±
à½ĺà½Ĳà½ł à½ĳà½Ĥ
à½Ĺ à½ĵà½¡
Ġà¼© à¼¨
à½£ à½ĵà½Ħ
à½Ł à½ļ
à½ĸà½ŀà½Ĥ à½¢
à¼¦à¼¨ à¼©
à½ĸ à½Ĥà½Ł
à¼ĭà¾İ à¼į
Ġ à½Ĩà½Ħ
à½¦ à½ĺà½Ľ
à½¢à½Ħ à½£
à¼¦ à¼¡à¼£
à½ĸ à½Ĥà½ı
Ġà½¦ à½ł
à¼¦à¼§ à¼¡
à½ĵà½ĺ à½ĵ
à¼¡à¼© à¼£à¼¤
à¼¥à¼© à¼¤
à¼¦à¼§ à¼©
à¼¦à¼© à¼¥
à¾·à¼ĭ à½µ
à½Ĥà½ĵà½¦ à½Ģ
à¼¥ à¼¡à¼¤
à¼¡à¼© à¼¡à¼¡
à¼¡à¼¤ à¼¡à¼©
Ġ à½ĸà½Łà½ł
à½ĳà½Ħ à½Ĩ
à¼¤à¼© à¼£
à¼´ à¼´
à½ĳà½Ħ à½¡
à½Ł à½ĩ
à¼§ à¼¢à¼§
à¾² à½±à½¾à¼į
à¼¦à¼¦ à¼¤
Ġ à½łà½Ĥà½ł
à½£à½¦ à½ģ
à¼§ à¼¤à¼¢
à½ĵà½ĺà½¦ à½¢
Ġ à½Ħà½Ħ
à½ĳà½ĸà½Ħ à½ĳ
à½ĺà½ļà½ĵ à½ĺà½ł
à½ĸà½£ à½Ĥà½¦
à½²à¼ĭ à¾İ
à½ĳà½Ĥ à½Ħà½¦
à¾¡ à¾²à½±à¼ĭ
à½¡à½Ħ à½Ħ
à¾Ĵà¾±à½´ à¼įà¼ĭ
à¼¦ à¼¤à¼©
à¾ľ à½´à¼ĭ
à¼¦à¼§ à¼¦
à½Ħ à½ĸà½ħ
Ġà¼¡ à¼¢à¼¢
à½Ħ à½Ĥà½ħ
à½İ à½ĵ
Ġà¼¨ à¼¤
à½ĵ à½ĵà½Ĥ
à½ĺà½ļ à½ĵà½¦
à¼¦ à¼¤à¼¨
à¾¡à¾· à¾±à¼ĭ
à½¢ à½Ļ
à¼¦ à¼£à¼¥
à¼¦à¼© à¼¢
à½ĵ à½ĸà½¦à½ĺ
à¾±à½² à¼´
à¼ĭà¼ µ
à¾¤ à½ºà¼į
à¼¦ à¼£à¼¦
à¼¦à¼¥ à¼¡
à½¦ à½Ĭ
à½¢ à½Ķà½¢
à½¡ à½Ĩ
à¼¥ à¼£à¼©
Ġà½ī à½Ħ
à¼¥à¼¨ à¼¨
à½¡ à½ļ
à¾© à½¼à¼į
à¼¥à¼¨ à¼¤
à½Ħà½¦ à½Ķà½¦
à¼¥ à¼£à¼¦
à¼¡à¼¢ à¼¥à¼§
à½Ĥà½¦ à½łà½ĳ
à½Ĥà½Ļ à½ĵ
à¼¥ à¼£à¼§
à¾µ à½´à½¾à¼ĭ
à¼¦à¼© à¼§
à½ĵ à½ĺà½ļ
à½Ķ à½ĺà½Ľà½ĳ
à½¡ à½Ĳ
à½ĩ à½Ħ
à¼¦à¼¨ à¼¨
à½ļ à½ĵà½¦
à½± à¾ĥ
à½łà½ļ à½ĵ
à¼¥ à¼£à¼¢
à¼¡à¼© à¼¤à¼¦
à¼¡à¼¡ à¼¡à¼¢
à¼¦à¼¦ à¼£
Ġà¼¨ à¼¢
à½Ĥà½ĳ à½ĳ
à¼¥à¼¥ à¼£
à½¢ à½ĺà½Ĩ
à¼¡à¼© à¼¡à¼©
à½¡ à½ĵà½¦
à½ĳà½Ħ à½ķ
à¼¡à¼¢ à¼¨à¼£
à¾ŀ à½²
à½ĵà½Ł à½«
à¾· à½µà¼ĭ
à¼¦ à¼¤à¼¤
à¼¦à¼¨ à¼¥
Ġ à½ĸà½¦à½Ħ
à½ĵ à½Ĥà½¦à½£
à½ĵà½¦ à½ĸà½ħ
à½ĳà½Ķà½Ĥ à½ļà½ĳ
à½ĺà½¦ à½¡
à½¢à½ĸ à½Ĥ
Ġ à½ĸà½ıà½Ĥà½¦
à¼¦ à¼£à¼©
à½ĸà½ĸ à½ĵ
à¼¡à¼© à¼¢à¼§
à½ĵà½¦ à½ĸà½¢
à¾Ń à½¼à¼į
à¼¦ à¼¢à¼¨
à¼¦ à¼£à¼¤
à¼¦ à¼¥à¼¥
à¾¦à¾· à½ºà¼į
à½ķ à½Ĳà½Ĥ
à¼§ à¼¥à¼¥
10 0
à½ı à½İ
à¾³à¼ĭ à½±à¼ĭ
Ġà¼¡ à¼©à¼¨
à½Ĵ à½«
à¼¥à¼§ à¼¤
à½ĵ à½Ĥà½ĳ
à½£à½¦ à½£à½¦
à½¢ à½Ĭ
à¾¦ à½±à½²
à½łà½ĩà½ĺ à½ĳà½Ķà½£
à¼¥à¼¨ à¼¡
à¼¦à¼¨ à¼¡
à½ĵ à½ĳà½Ģ
à½²à¼ĭ à½¼à¼ĭ
à¾³ à¾³à½¼
à½Ł à½Ģ
à½ĸà½ŀ à½Ĥà½ĵà½¦
à½ĺà½Ĩ à½Ĥ
à½Ķ à½ļà½ĳ
à½ĸà½Ĥ à½£
à¼§ à¼¢à¼¡
à¼¥à¼© à¼£
à½£à½¦ à½łà½ĸ
à¼§à¼§ à¼¢
à¼¦à¼¥ à¼¤
à½Ķ à½Ĥà½Ł
à½Ĥà½¦ à½£à½ĺ
à½´ à¼´
à½ĺ à½Łà½ĳ
à½Ļ à½ĸà½¦
à½łà½ĳà½¦ à½Ķà½ł
à¾Ĳà¾± à¾²à½º
à½¦ à½ĵà½Ħ
à½¼à¼ĭ à¼´à¼į
à½Ĺ à½ı
Ġà¼¨ à¼¨
à¾ķ à½¼à¼ĭ
à¼¥ à¼£à¼£
à½Ħ à½łà½Ľ
à½£à½¦ à½Ħ
à½Ĳà½£ à½ĳ
à½ķà½£ à½Ĩ
à¼¡à¼© à¼¤à¼¢
½ ³
à ½³
à½Ĥà½Ħ à½¡à½Ħ
à¾©à½ºà¼ĭ à¼į
à½ĳà½Ģ à½łà½ĸ
à½Ļ à½¡
à¼¦ à¼¢à¼£
à¼¦à¼¨ à¼¦
à½Ļ à½ĺà½ĳ
à½ļ à½Ĳ
à½¦ à½ĺà½īà½ĺ
à½£ à½Ŀ
à½ĺà½¦ à½Ħà½¦
à½ĸà½Ģ à½łà½ĳ
à½ĸà½¤à½ĳ à½Ķà½¢
à¼¡à¼¦ à¼©à¼¨
Ġ à½¦à½ĺ
à¾¦ à½¼à¼į
à½Ĥà½Ħ à½ł
à½ħà½ĵ à½¡
à¾Ń à½¾
à½¥ à½İ
Ġà¼¡ à¼¡à¼¢
à¼Ģ à½¡
Ġ à½ļà½ĵ
à½Ĩ à½Ģ
à¼¡à¼¤ à¼¡à¼¥
à¼¦à¼© à¼¡
Ġà½¢ à½ı
à½Ĥ à½ĺà½ļ
à½ĵ à½ĳà½ĳ
à½ĺ à½ĸà½ĳ
à¾Ł à¾Łà¼ĭ
à½ĺà½Ľà½ĳ à½Ķà½ł
à½Ģà½Ģ à½Ģà½Ģ
à½¼à¼ĭ à¼º
à½Ķà½¢ à½¡
à½ħà½ĵ à½ĳà½ĺ
à½Ķà½¦ à½Ķ
à¼¥ à¼¤à¼¨
à¼¦ à¼¤à¼§
Ġà½£ à½Ħ
à¾¦ à¾·à¼į
à½Ľ à½ı
à¼¥ à¼£à¼¤
à½¦ à½Ĥà½Ł
à½ĳ à½łà½Ħ
à½ħà½ĳ à½£à½¦
à¼¥ à¼£à¼¨
à¼¥ à¼¥à¼©
à¼¥ à¼¥à¼¨
à½¦ à½Ħà½Ĥ
à½Ħ à½ĺà½Ĳ
à½ĸà½ĳ à½Ģ
à½ĸà½¤ à½ĳà½ĸ
à½łà½ĳà½¦ à½ĵ
à¼¥ à¼¤à¼©
à½Ĥà½ŀ à½ĺà½¦
à½Ĥà½ĵà½¦ à½¢
à½Ĥà½ħ à½¦
à¾Ĳà¾± à¾²à½ºà¼ĭ
à¾ľ à½±à½²
à½¢à½ĸ à½ĺ
à¼¦ à¼¥à¼¦
à½ĸà½¦ à½¡
à½ĸà½¢ à½ĺà½Ľà½ĳ
à½łà½Ĩ à½¦
à½ĵà½ĺ à½ĺà½ģà½¢
à½£ à½ĺà½ļ
à¼¡à¼¢ à¼¡à¼¢
à½Ħ à½Ķà½¦
à½ħà½ĵ à½ŀ
à¼§ à¼¡à¼¤
à¼§à¼§ à¼©
à¾·à¾£ à½±à½¾à¼ĭ
à½¦ à½ĸà½¦à½ĺ
à¼¦ à¼£à¼¡
à¼¦à¼¦ à¼§
à½ĺà½Ĩ à½¢
à½ĺà½Ħ à½ĳ
à¼¦ à¼£à¼¨
à¾µ à½º
à¼§à¼§ à¼¨
à¼§ à¼¡à¼£
à½Ĥà½¦ à½¨
à½ĺà½ģ à½łà½Ĥ
à¼¥ à¼¤à¼£
à½ĵà½Ĥ à½£
à¼¦à¼§ à¼£
à¼§ à¼¢à¼¥
à¼¡à¼© à¼¢à¼¦
à½Ķà½¦ à½¤
à¾Ķ à½´à¼į
à½ĵà½Ħ à½ĳ
à½£à½Ĥ à½Ķ
à¼§ à¼¦à¼¥
à¼¦ à¼£à¼¢
à¼ĭà¼Ĳ à¼Ĳ
à½ĸ à½ĸà½Ģ
à½ĺ à½ĺà½Ľà½ĳ
à½ĳà½Ĥ à½Ĳà½ĺà½¦
à½ĸà½ł à½Ĩ
à¼§ à¼¢à¼¦
à½ĺà½īà½ĺ à½Ķà½¢
à¼§à¼§ à¼¡
à¼§à¼§ à¼¥
à¾« à¾Ļà¾°à¼ĭ
à¼§ à¼¢à¼©
à½Ĥ à½Ľ
à½¡à½Ħ à½£
à¼¥à¼§ à¼£
à½Ķà½¦ à½Ĥà½¦
à¼¦ à¼£à¼§
à¼¦ à¼¤à¼¦
à½ķà½Ĭ à½¨
à¼§à¼© à¼¨
Ġ à½Ģà½ĵ
à½Ķ à½ĸà½ĳà½Ĥ
à¼§ à¼¦à¼£
à½ĺà½ģà½¦ à½Ķ
à¾Ĵ à½±à½²à¼ĭ
à¾±à¼ĭ à½²à¼ĭ
à½ĵ à½Ĥà½¤
à½£à½¦ à½ĸà½¦
à½ĸà½ı à½Ĭ
Ġ à¼´à¼į
Ġà¼© à¼§
à¾±à¾Ģ à¼į
à½ł à½ı
à¾Ł à¾±à¼ĭ
à½ķ à½ĺà½¦
à½ĸà½¢ à½Ĥà½ŀà½Ĥ
à¼¦à¼¥ à¼£
10 2
à½ĳà½Ħ à½ĸà½¦
à½ĵà½¦ à½Ĥà½¦
à¼ĭà½Ī à¾¤à¾±à½²
Ġ à½Ĩà½¢
à½Ķ à½¤à½ĳ
à½£à½¦ à½ķ
à½ŀà½£ à½ĵà½¦
à½¢ à½łà½ĩ
à¾± à¾±à½²à¼ĭ
à½ŀ à½Ģ
à½Ķà½ł à½Ĳ
à½ĸà½¢ à½ĺà½¦
à½Ļ à½ļ
à½Ĥà½ĵà½¦ à½Ķà½¢
10 1
à½¢ à½ĳà½ĸ
à½ĵ à½İ
à½Ħ à½¢à½Ħ
à½ī à½łà½ĺ
à¼§à¼© à¼¡
à¼¡à¼© à¼¢à¼©
10 4
à½ı à½łà½ĺ
à½Ĥà½¦ à½ī
à½Ĳ à½ķà½Ħ
à¼¦à¼© à¼¤
10 5
à½£ à½Ķà½¦
à½Ĥà½¦ à½Ģà½¢
à½ĵà½¦ à½¤
à½Ĥà½ī à½¢
à¾²à¼ĭ à¼´
à¾± à½±à½²
à½ģ à½Ĥà½¦
à½ĳà½Ķà½ł à½ĳ
à¼¥ à¼¤à¼¦
à½ıà½ĵ à½ĵ
à½Ŀ à½§
Ġ à½¥
à½Ļ à½Ķ
à¼¦ à¼¥à¼©
à¼¦ à¼¥à¼¨
Ġ à½ĵà½Ĥà½¦
à¾Ĵ à¾·à½¾à¼į
à½¨ à½Ļà½ł
10 3
10 6
à½¼à¼ĭà¼ı à¼ĭ
à½ĳ à½¢à½ĸ
à½£ à½ĺà½Ĳà½ł
Ġà¼¨ à¼¥
Ġ à½łà½ļà½£
à½ĵà½¦ à½Ķ
à½ĵà½¦ à½Ĳ
à½£à½¦ à½Ĳ
à½¨ à½Ĳ
à¼¦ à¼§à¼§
à¼¡à¼© à¼¢à¼¤
à½ĺà½¦ à½ī
à½ĸà½¢ à½¤
à½ĺà½Ľà½ĳ à½ĵà½¦
à½ĺ à½Ĥà½¡
à½Ķà½¦ à½Ĳ
à½Ĩà½Ĥà½¦ à½Ķ
à½Ķà½İ à½Ĩ
à¾ł à½²
à¼§à¼¨ à¼§
Ġ à½£à½Ĥà½¦
Ġ à½ĵà½ĵ
à½Ĥ à½Ĥà½¦à½Ħ
à½º à½²à¼ĭ
à½Ĥà½¦ à½ĸà½ł
à½ĸà½¦ à½¤
à¾¦ à¾²à½²à¼ĭ
à½ĺà½ģà½ł à½łà½Ĥ
à¼§ à¼¡à¼¥
à¼¦à¼© à¼¦
à½² à½²à¼į
à½Ĥ à½ĸà½¦à½ĺ
à½¢ à½ĺà½Ĳ
à½Ģ à½łà½ĳ
à½ĵà½ĺ à½īà½ĺ
à½łà½ķà½Ĥà½¦ à½Ķà½ł
à½Ŀ à½Ĥ
Ġà¼¡ à¼¡à¼¦
10 9
à¼ ģà¾ĥ
à½ĸ à½ĵà½Ħ
à½Ķ à½Ĳà½ĺà½¦à½ħà½ĳ
à½¨ à½ıà½ł
à½ĳà½Ķà½ł à½Ĩà½ĵ
Ġà¼¡ à¼¡à¼£
à¼¡à¼© à¼£à¼¢
à¾² à¾²à½º
à¼¥à¼© à¼¨
à¼ĭ à¼ĭ
à½ĺ à½¢à½ĸ
à½ħ à½Ĥà½¦
à½ĵ à½łà½Ľ
à½¡ à½¨
à½ĸà½¢ à½Ĥà½ĵà½¦
à½Ļ à½ª
à½ĸà½Ľ à½ĳ
à½Ķ à½£à½ł
à½İ à½£
à½ĸ à½Ĳà½ĸà½¦
à½¢ à½ĺà½ł
à¾¦ à¼ĭà¼į
à½ĩ à½ĸ
à¼§ à¼¡à¼©
à¼§ à¼¥à¼§
à½¥ à½¥
à¼¡à¼© à¼¤à¼£
à½ł à½łà½ĩ
à½¡ à½Ĭ
Ġà¼© à¼¥
Ġ à½Ĳà½Ĥ
à½¦à½¢ à½ĸà½Ģ
10 7
âĢ ¦
à½Ĳ à½Ĩ
à½¢à½Ħ à½¢
à¼§ à¼¡à¼¦
à½Ħ à½Ĥà½ĳ
à½ĺà½¦ à½¤
à½ı à½¤
à¾· à¾±à½ºà¼ĭ
à½łà½ļ à½ĸà½¦
à¼§ à¼¢à¼¨
à¾» à½¼à¼ĭ
à½Ķ à½ĺà½ļ
à¼§ à¼¢à¼¤
Ġà¼© à¼£
à½Ķ à½ĳà½Ķ
à½Łà½Ĥ à½ĺ
à¾¼ à½±à¾Ģà¼ĭ
à½¢ à½ĸà½¦à½ĺ
à½£ à½ĸà½£
à½Ł à½ĳà½ĺ
à½ĸà½ı à½¢
à¼¡à¼© à¼¤à¼¤
à½ģ à½ķ
à¾¨ à¾²à½¼à¼ĭ
à¼§ à¼¦à¼¡
à½İ à½Į
à¼© à¼¡à¼¡
Ġà¼¡ à¼¡à¼©
à¼¥à¼¨ à¼£
à¾µ à¼ĭà¼į
à¼§à¼§ à¼¤
à¼§à¼¨ à¼¨
à½ĵ à½ĺà½ģà½¦
à½Ĥà½¦ à½ĸà½¦
à½£à½¦ à½ļ
à½łà½ĸà½¢ à½ĸ
à¼ĭ >
à½ĸ à½ĸà½¤à½ĳ
Ġà¼© à¼¤
à½ĵ à½Ĭ
à½Ķ à½¥
à½Ķà½¢ à½Ĥà½ŀà½Ĥ
à¼§ à¼£à¼£
10 8
à½ĵà½¦ à½¨
à½Ħà½¦ à½Ħ
à½ĸà½£ à½Ħ
à¼¨ à¼¢à¼¢
à½Ĳà½ĺ à½ħà½ĳ
à½Ħ à½Ľ
à¼¨ à¼¤à¼¡
à¾ļ à¾²à½±à½²à¼ĭ
à¾» à½¼
11 2
à½ĳ à½ĺà½ļà½ĵ
à½Ĥ à½ĸà½Ģ
à¾³ à½²à¼į
à¾· à½±à½´à½¾à¼ĭ
à½ĳà½Ķà½ł à½£
Ġà¼¨ à¼¡
à½Ĩ à½ĸà½¢
à½ģà½ĺà½¦ à½¢
à½ĸà½ĸ à½ĸà½ĸà½ĸ
à¾¶ à½´à¼ĭ
à½Ĥà½¦ à½ĸà½¢
à½ī à½ģ
à¾Ĳ à¾²à½²
à½Ķà½¢ à½ĸà½¦à½ĺ
à½ĳà½Ķà½£ à½£
à½ĳ à½§à½ł
à½Ĩ à½Į
à½ĸà½ĳ à½Ģà½ĵ
à¼§ à¼£à¼©
à½İ à½İ
à¼¦à¼© à¼£
à½¦ à½ĺà½Ĥ
à½Ĩ à½ļ
à¾²à½² à¼įà¼ĭ
11 3
à½ģ à½ı
à½ĳà½ĸ à½ĸà½¦
à½łà½Ľ à½Ħ
à½ĸà½¦ à½ļ
à¾Ļ à½±à¼į
à½« à½¥
à½£ à½ļà½ĳ
à¼§ à¼¡à¼¨
Ġ à½ıà½ĵ
à¼§ à¼¦à¼¨
à½ĺà½ĵ à½ĳ
à¼¡à¼¤ à¼¡à¼¤
à½¢ à½Ĥà½ħ
à½Ĥà½¦ à½ķ
à½ĸà½¢ à½Ĩà½ĳ
à¼Ģ à½£à½¦
à½© à½¢
1 10
à½ĺà½¦ à½Ħ
à½ĸà½Ģ à½Ĥà½¦
à¼§ à¼£à¼¦
à½¦à½¢ à½¦
à½£ à½Į
à½ĳà½Ħ à½ĺà½īà½ĺ
à½ĳà½Ģ à½Ĥ
11 1
à½ĳ à½Ŀ
à½ĸà½ĳà½Ĥ à½¢
à¼¡à¼© à¼¢à¼£
à¾Łà½¾ à¼ĭà¼į
à½ĵà½¦ à½¢à½Ħ
à¼§ à¼¤à¼¥
11 5
à½¦ à½ĺà½¢
à½ŀ à½£à½¦
à¼§ à¼¤à¼¡
à¼¨ à¼¡à¼¢
à¼¨ à¼¡à¼¥
à½ĺ à½Ļà½ĵ
à½Ĥà½¦ à½Ĳ
à½£à½¦ à½Ĥà½Ħ
à¾Ģ à½¾à¼ĭ
à¼ĭ à½±à½´à¾ĥà¼ĭ
à½ģ à½ĳà½Ĥ
à¾¦ à¾·à½±à¼ĭ
à½ĳà½ĸà½Ħ à½ĸà½¦
à½Ĵ à½£
à¾´ à¼į
à½ĥ à½ĵ
à½´à¼ĭ à½Ī
à½Ĩà½Ĥà½¦ à½¦
à¼¡à¼¡ à¼¡à¼£
à½Ķà½¢ à½ĺà½Ĳ
à½ĳà½ĺà½¢ à½Ķ
à½ģà½¦ à½ĸ
Ġ à½ĸà½ħà½ĳ
à½Ħ à½Łà½ĳ
à½£ à½ĺà½ģ
à½Ķà½¢ à½¡à½Ħ
à½ĵà½¦ à½ĳà½Ĥ
à¼§ à¼¤à¼§
à½ĭ à½ĵ
à½ĸ à½ĸà½Ĥ
à½¢ à½Ĥà½ı
à½Ķ à½Ĥà½ĵà½¦
à¾Ł à¾²à½²
à¼§ à¼£à¼¥
à¼¡à¼© à¼¢à¼¢
à½łà½ĳà½ł à½¦
à½ĳ à½ĳà½ĸà½Ħ
à½¢ à½ĵà½ĺ
à½ģ à½Ķ
à½Ł à½ĳà½ĳ
à½¦à½ĺ à½¡
12 0
12 1
à¾ ī
à½Ķà½¢ à½ĺà½Ľ
Ġà¼¨ à¼§
à½ĺ à½ĺà½Ĥ
à½ł à½ĸà½ŀ
à½Ĳ à½ĸà½¦à½ĺ
à¼¦ à¼¤à¼£
à¾Ĵà¾² à¾±à½²
à¼¡à¼¡ à¼¨à¼¢
11 4
à½Ķ à½ĺà½Ĳà½ł
à½¡ à½ĳà½ĺ
à½Ĩ à½¡
à½ĸà½¦ à½ĺà½ĳ
à¼§ à¼£à¼¡
à½ĳà½Ħ à½Ĥà½ŀà½ĵ
à½łà½ĳà½¦ à½¦
à½ĵà½ĳ à½ĵ
à½Ĳà½¢ à½Ķà½ł
à½Ĩà½Ĥ à½ĳà½Ģà½¢
à¾ļ à¾²à¾Ģà¼ĭ
à½ĺà½ļ à½£à½¦
à½Ĳà½ĸà½¦ à½Ģ
à½Ĥ à½łà½Ľ
à½Ĩ à½Ĥà½£
11 7
à½ĸ à½ĸà½Ł
à½¤ à½ª
à½ĸà½¤à½ĳ à½ĵ
à½ĳà½Ħ à½ī
à½ķ à½Ĳ
à½ĳà½Ĥ à½ģ
à¼¡à¼© à¼¡à¼¨
à¼Ģ à½ĺà½§
à¼¦à¼¨ à¼¤
à¼ĭà¼Ŀ à¼Ŀà¼Ŀ
à½ĺà½¦ à½ł
à½£à½¦ à½¤
à½Ķà½¦ à½ł
à½¢à½ĸ à½Ħ
à½Ħà½Ĥ à½£
à½Ĥ à½Į
à¾±à½²à¼ĭ à½Ī
à½ļ à½ĸà½¢
à¼¡à¼¦ à¼¡à¼§
Ġ à½łà½Ĩà½¢
à¼ĭ à¾¨
à½ĵ à½ĺà½Ľ
à½ķ à½Į
Ġà¼¡ à¼¢à¼¡
Ġ à½ķà½£
Ġ à½łà½ĸà½ĳ
à½¦ à½ŀà½¦
à½ĸ à½ĺà½īà½ĺ
à½ı à½¡
Ġà½ĳ à½Ķà½¢
à½Ĥ à½ĸà½Ģà½ł
à½Ħ à½ĺà½Ľà½ĳ
à½¾à¼ĭ à¼´
à¼¡à¼© à¼¢à¼¨
à¼¡à¼£ à¼¥à¼§
11 6
12 3
à¾· à¾²à½±à¼ĭ
à½ĳà½ĸà½Ħ à½ķ
à½¥ à½ĳ
Ġ à½ĸà½¤à½Ĥà½¦
à½ĳà½Ħ à½ģ
à½ĺà½ļà½ĵ à½Ĥ
Ġ à½ĺà½ģà½¢
à½Ĥ à½Ĥà½ĳ
à½ĵ à½Ķà½ĵ
à½¨ à½Ħà½¦
Ġà¼¨ à¼£
à¾Ĳ à½¾à¼ĭ
à½ļà½ĳ à½ĺà½¦
à½Ĥà½¦à½Ħ à½ĸ
à½Ŀ à½¨
à¼¡à¼¢ à¼¥à¼¡
à½ĭ à½¦
à¼§à¼© à¼¢
à½¦ à½ĸà½Ł
à½Ĥ à½Ĳà½ĺà½¦
à½Ĥà½¦ à½ĳà½Ĥ
à½´à¼ĭ à½¼
à½ĸà½¦ à½ģ
à½ĸà½Ģà½ł à½ĺ
à½ĸà½ŀà½Ĥ p
à½ĵà½ĺà½¦ à½Ģ
11 8
à½º à½²
à½ı à½¨
à½łà½ĳà½¦ à½ĳ
à½ĵà½ĺ à½ŀ
à¾Ĵà¾² à½ºà¼į
Ġà¼¡ à¼¡à¼¤
à½Ķà½¦ à½¢à½Ħ
à¼§ à¼¤à¼©
à½Ĥà½£ à½ĵ
à½Ĵ à½ĵà½Ł
à½µ à½¾à¼ĭ
à½ĺà½Ĳà½ł à½Ħ
à½¦ à½ĸà½Ĥ
à¾² à¾Ĺà½º
à¾²à¼ĭ à½²
à½Ĥà½¦à½£ à½ĸà½¢
à¾Ĳà½´ à½´à¼ĭ
à½Ĥà½ıà½ĵ à½Ĥ
à½£à½ĵ à½ħ
à¼¨ à¼¢à¼¡
11 9
à¼ĭ ï¼Ī
à¼¦à¼§ à¼¤
à½ĳà½ĸ à½Ģ
à¼§ à¼¤à¼¤
à¼§à¼¨ à¼©
à¼ĭ à¾¡à½¼
à½£ à½ĸà½Ģ
à½¢à½Ħ à½¢à½Ħ
à½ĵà½Ħ à½ł
à½Łà½ĳ à½Ķà½¢
à¼¡à¼© à¼£à¼¡
à½ĭ à½ł
à½±à½´à½¾ à½¾à¼ĭ
à½ĺ à½ĺà½ļà½ĵ
à½ĸà½¢ à½Ĥà½¤
à¼§ à¼¤à¼£
à½Ĵ à½ı
à¾Ł à¾²à½±à¼ĭ
à½ĺà½ĳ à½£
à½Ħà½ĵ à½Ĥ
à¼¡à¼© à¼¢à¼¡
à¼¡à¼¦ à¼¡à¼¨
à½¦ à½ħà½ĳ
à½Ĥ à½Ĥà½Ļ
à½Ĳ à½Ĳà½ĺà½¦
à½ĳà½ĺ à½Ľà½ĳ
à¼§ à¼¥à¼¢
12 2
à½¦ à½ĳà½Ķ
à½ī à½Ķ
à½ĳà½Ĥà½ł à½ŀ
à½Ĳà½ĸà½¦ à½ĺà½ģà½¦
à¼§ à¼£à¼¤
12 4
à½£ à½İ
à¼§ à¼¤à¼¨
à½Ĥà½ŀà½Ĥ à½Ķ
à¼¡à¼§ à¼¢à¼§
à¾ł à½±
à¼ĭ à¾Ĺ
à½Ĥ à½łà½ķ
à½Ħ à½łà½ĩ
à½ĺ à½ĺà½ļ
à½Ģ à½ĭ
à½ĺà½¦ à½Ĥ
à½Ĩà½Ĥ à½ĸ
à½© à½¦
à½£ à½Ĥà½¦à½Ħ
à½ĳà½Ķ à½ĺ
à¼©à¼© à¼§
13 0
Ġ à½ĺà½ī
à¼ĭ à¾²à½²à¼ĭ
à½ĺà½¦ à½ļ
à½ķà½Ĭ à½Ģ
à½¦ à½łà½Ľ
à½¢ à½łà½ģ
à¾± à¾¤à½º
à½ı à½Ļ
à½ĳà½ĳ à½Ķà½¢
à½Ĥà½ł à½ĵ
à¼¡à¼£ à¼¡à¼£
12 8
12 9
à½ĳà½ĸ à½¤à½ĳ
à¾· à¾²à½´
à½Ĥà½Ħ à½ĺ
à½ĸ à½ĺà½¢
à½¢ à½Ĥà½ŀ
à½Ħ à½¨
à½ı à½ī
à½§ à½ı
à½§ à½ħà½Ħ
à½ĳà½ĳ à½¢
Ġà½¦ à½¦
Ġà¼¡ à¼¡à¼¥
à¾·à¾² à½±à½´à¼ĭ
Ġ à½Ħà½ł
à½Ķ à½īà½ĺà½¦
à½£ à½Ĳà½ĺà½¦
à¾Ł à¾Ńà½±à¼ĭ
à½ĸà½¦ à½Ķà½ł
à½łà½ «
à¼ĭ à¾²
à½¦ à½ĺà½ł
à½Ķà½¦ à½ī
à¼ĭà¾¢ à½±à¼ĭ
à½ĳà½Ħ à½Ĳ
à¾±à½²à¼ĭ à½º
à½ĺà½īà½ĺ à½ĺ
Ġà¼© à¼¦
à½ĵ à½Ĥà½ı
à½Ħ à½ĺà½¢
à½ı à½ģ
à½Ĩà½Ĥà½¦ à½ĳà½Ħ
à¼§ à¼¥à¼¨
à¼¡à¼¢ à¼¥à¼£
Ġ à½ĸà½¦à½ĳ
à½ĸ à½īà½ĺà½¦
à½ĵ à½ĸà½Łà½Ħ
à½Ķ à½Ĥà½ŀ
à½ĸà½ħà½¦ à½¦
à¼§ à¼¦à¼©
à½İ à½Ķ
à½ĵà½ĳ à½¦
à¼§à¼© à¼©
12 5
à½¦ à½ĸà½Ģ
à½ĺà½ļà½ĵ à½ĵ
à½Ĥ à½łà½ķà½Ĥà½¦
à½ĸ à½ĺà½ļ
à½£ à½Ľ
à½łà½ĸ à½ĳà½Ĥ
à¾Ļ à¼į
à¼¡à¼£ à¼¤à¼©
à¾Ńà½± à½¾à¼į
à½¡à½ĳ à½ĳà½Ĥ
à¼¡à¼¡à¼¢ à¼£
12 6
à½ĸ à½ĵà½ĵ
à½´ à½²à¼ĭ
à½ĺ à½£à½ĺ
à½ļ à½ĸà½ł
à½Į à½ĳ
à½Ĥà½¤ à½£
à¼¨ à¼¡à¼¡
à½±à½´à¾ĥ à¼ĭà¼į
à¼§à¼¨ à¼¢
à¼¡à¼¡à¼¢ à¼¡
à½£ à½Ĥà½¡
à½Ķà½¢ à½ļ
à¼§ à¼¦à¼¤
à¼¡à¼© à¼¡à¼§
à¾ŀ à¾ŀ
Ġ à½łà½ĳà½ĸ
à½¢ à½¢à½ĺ
à½ł à½łà½ģ
à½¡à½Ħ à½ŀ
à¼§ à¼¥à¼¤
à¼¡à¼¤ à¼¡à¼¦
à¼¡à¼¤ à¼¤à¼§
à½Ĺ à½Ĳ
13 1
à¾±à½²à¼ĭ à½¼
à½łà½ģ à½ĸ
à¾µ à½±à½²à¼ĭ
Ġ à½ļà½Ħ
à½Ĥà½Ħ à½¢
à¾µ à½±
Ġ à½łà½ĸà½ł
à½Ħà½¦ à½ĳà½Ħ
à¾Ļ à¾±à½²
à¼¨ à¼¢à¼£
à½¦ à½ĵà½ĳ
à½Ħà½¦ à½Ĩ
à½Ĥà½Ł à½Ħà½¦
à¼§ à¼¢à¼£
à½ıà½ĵ à½¢
Ġà¼ ģà¾ĥ
à½ĵà½¦ à½łà½ĸ
à½łà½Ĥ à½ĺà½¦
à½ķà½ĵ à½Ķ
à¼¡à¼¦ à¼¨à¼¢
à½Ĵ à½ĸ
à½ł à½Ķà½¢
à½ĳà½ĳ à½£
Ġ à½ĵà½ĺà½¦
à½ĵ à½ĺà½ļà½ĺà½¦
à½Ķà½İ à½Į
à¾·à½²à¼ĭ à¼´
à¼¡à¼¢ à¼¡à¼£
à½ĺà½ĺ à½ĺ
13 2
à½Ĥà½ŀ à½ŀ
à½ĳà½ĺ à½Ľ
à½ĸà½ŀà½Ĥ à½£
à¼¡à¼© à¼¢à¼¥
à¼¡à¼¤ à¼¡à¼¢
à¾Ĺà½ºà¼į à¼ĭ
à¼§à¼§ à¼£
Ġ à¼Ļ
à½ĸ à½£à½ĺ
à½¢ à½Ĥà½¦à½£
à½ł à½ĺà½ĳ
à½ĸà½¦à½ĺà½¦ à½ĵà½¦
12 7
à½Ķà½¦ à½Ķà½¦
à½± à½¼à¼į
à½Ĥà½ŀà½ĵ à½ŀ
à½ĵà½Ĥ à½¢
13 5
à¾± à¼µ
à½ķ à½Ģ
à½Ĥà½ŀ à½ĸà½¦
à¼¨ à¼¤à¼¢
à½Ķ à½Ĥà½¡
à½Ķ à½ĳà½ĺà½ł
à½Ģ à½ģ
à½ĳà½Ĥ à½ļ
à½ĺà½Ľ à½¦
à¼§ à¼¥à¼©
à½Ĥà½¦à½Ħ à½ĸà½ł
à½Ĺ à½¦
à¼©à¼© à¼¦
à¼§à¼¨ à¼¥
à¼¡à¼¡à¼§ à¼¥
à½ĳ à½ĳà½Ģ
à½ĺà½ļ à½Ĥ
à¼¡à¼£ à¼¦à¼¤
à½£ à½ĸà½Ģà½ł
à½ºà¼ĭ à½Ī
à½Ĩ à½ŀ
à½ļà½ĳ à½ĳ
à¾ª à½º
à¼ĭ à½±
à½ĵ à½Ļà½ĺ
à¾©à½²à¼ĭ à¼į
à¼¦à¼¨ à¼£
Ġ à½ĺà½£
à½ĸ à½Ĥà½¡
à½ı à½ĺà½¦
à½¤ à½¤
à½Ĥà½ŀ à½ĺ
à½¨ à½ª
à¼¡à¼¡ à¼¤à¼¢
à½±à½´à½¾ à¼ĭà¼į
13 7
à¾¼ à¾»
à½¢ à½ĳà½Ķ
à½Ħ à½łà½ģ
à½ħà½ĳ à½¡
à½ĺà½ī à½£
à¼§ à¼£à¼¢
à¼¨à¼¨ à¼©
13 3
13 4
à½ĳ à½ĵà½ĳ
à½ĸà½¤ à½ĳà½ĺ
à¼§ à¼¥à¼¡
à¼ĭà¼Ĳ à¼į
à½Ĥ à½ļà½ĳ
à½ĵ à½Ĥà½¡
à½ģ à½ĵà½¦
à¼§à¼© à¼¤
14 1
à½¦ à½ª
à¾Ł à¼įà¼ĭ
à¾¤ à½±
à½łà½Ĳ à½Ħ
à¼¡à¼¡ à¼¡à¼¤
à½ĭ à½¢
à¼©à¼¨ à¼¦
à½ī à½ĸà½¢
à½Ħà½¦ à½Ĥ
à½£à½ĺ à½ł
à¼§à¼© à¼¦
à½£à½¦ à½¢à½Ħ
à¾· à¾Ńà½¾à¼ĭ
à¾¦ à¾·à½¼
à¾ļ à½²à¼į
à¼©à¼§ à¼¢
Ġ à½¨à½¢
à½ĺ à½łà½Ľ
à½ºà¼ĭ à½Īà¾±à½²
à½ı à½ĵà½ĺ
à¾¦ à¾²à½¼à¼ĭ
à½ģà½ĺà½¦ à½£
à¼§ à¼£à¼¨
à½ĸà½¦à½ĺà½¦ à½£
à¼§à¼¨ à¼¡
13 6
Ġ à½¨à½Ħ
à½łà½Ĥà½£ à½ĸ
14 0
à¾¼ à¼ĭ
à½ĵ à½łà½ķà½Ĥà½¦
à½ĳà½Ķà½ł à½Ħ
à½¦à½¦ à½¦à½¦
Ġ à½Ľà½ĺ
à½ĵ à½Ľ
à½ĵ à½Ļà½ĵ
à½¡ à½ĳà½Ĥ
à¾¡ à¾²à½²
à½Ļ à½ĺà½¦
à½±à½²à¼ĭ à¼į
à¼ĭà½Ī à¾±à½²à¼ĭ
Ġ à½ĳà½ĺà½ĵ
à½ĵ à½£à½Ĥ
à¾¡ à½²à¼į
à½Ĥà½Ħ à½¤
à½Ĳà½ĺà½¦ à½ħà½ĳà½ĺ
à¾·à¾± à½¾à¼ĭ
à½ĳà½Ħ à½Ģ
à½ĳà½Ħ à½ļ
à½ĸà½¤à½ĳ à½¦
à½ĺà½Ľà½ĳ à½¦
à¼¡à¼¢ à¼¡à¼¡
à¼Ģ à½ĳà½Ģà½¢
à¼©à¼§ à¼¥
à½Ĥ à½ĳà½Ģà½¢
à½£ à½ĳà½Ķ
à½£ à½ĸà½¦à½ĺ
à½łà½ĩ à½ĵ
à½ĳ à½łà½ĩ
à½ł à½łà½ķ
à½ŀ à½ŀ
à½£à½¦ à½ĸà½¢
à¾© à½¾
à¼© à¼§à¼¨
à½Ķ à½ĵà½Ħ
à½Ĥà½ŀ à½Ĥà½ĳ
à¼§ à¼¦à¼§
Ġà¼¢ à¼¡à¼¡
à½¼à¼ĭ à½¼à¼ĭ
à½Ħà½ĵ à½Ķ
à½¤à½¢ à½ĳ
à½© à½¡
à½ĳà½ĸ à½ħà½¦
à½Ĳà½ĸà½¦ à½¦
à½Ĩ à½Ĥà½ĳ
à½ĳà½Ĥ à½Ķà½¦
à½ĸà½ŀ à½ĸà½¦
à¾Ķ à¾·à½²à¼ĭ
à½ĺà½ļà½ĺà½¦ à½ĺ
Ġà½¦ à½ĳ
à¾ļ à½¼à¼ĭ
à½« à½Ĥ
à½Ĥ à½ĳà½Ģ
à½Ħ à½Ļ
à½º à½¾à¼į
à½ĳà½ĸà½Ħ à½ĸ
Ġà¼¡ à¼¢à¼¨
à¼¡à¼§ à¼©à¼¢
14 3
14 4
à½Ħ à½ĸà½ĳà½Ĥ
à½£ à½ĸà½Ł
à½Ķà½¢ à½ģ
à¾³ à¾¡à½¼
à½ĸà½Ĥ à½ĸ
à½ĳà½Ĥà½ł à½£
à¼© à¼¡à¼¢
à½Ļà½ĺ à½ŀ
à¼¨à¼¨ à¼¨
Ġ à½Ĥà½¡à½Ħ
à½Ħ à½¢à½ĸ
à½Ģ à½ĳà½Ħ
à½Ķà½¢ à½Ķ
à½ĸà½¢ à½ŀ
à¼¨ à¼¢à¼¥
à¼©à¼© à¼£
à½ĵ à½ĸà½Ģ
à½ĸà½¦ à½ı
à½ĸà½Ł à½Ĥ
à¼§à¼© à¼£
13 8
à½Ĥ à½ĺà½Ľ
à½Ĥ à½Ĥà½¡à½¦
à½Ħ à½ĵà½Ħ
à½Ĩ à½Ĳ
à½¥ à½ı
à¼¡à¼© à¼¡à¼¦
à¼¡à¼¡ à¼¤à¼§
à½£à½¦ à½ī
Ġà¼¡ à¼¢à¼©
à½Ĺ à½ĺ
à½º à¼´
à½Ķ à½ĺà½Ľ
à½ĳà½Ħ à½Ĥà½Ł
à½Ĥà½ī à½ĺà½¦
à¾¤à¾± à¾Ģà¼ĭ
à¼©à¼© à¼¢
à½Ĥ à½Ĥà½¦à½£
à½Ķà½¢ à½ĸà½ŀà½Ĥ
à½¡à½Ħ à½łà½ĳ
à½ħà½ĵ à½ģ
à½¢à½ĸ à½ĸ
à¾¤à¾² à¾Ģà¼ĭ
à½« à½Ĳ
à½£ à½ĺà½Ľà½ĳ
à½ħà½ĳ à½ĸà½¦
à½Ħ à½Ĥà½¡
à½¨ à½ĺà½¦
à½Ĳà½ĸà½¦ à½£
à½ĺà½ĵ à½Ĥà½¦
à¾²à½ºà¼ĭ à½Īà½²
à½Ĥ à½Ĥà½¤
à½ĸ à½ĺà½ĵ
à½´ à½²
à½ĸà½ł à½Ĳ
à¼¡à¼¢ à¼©à¼¢
à½Ĥ à½ĺà½ĵ
à½Ħ à½ĸà½Ł
à½ļ à½ĳà½Ĥ
à½Ĥà½ĳà½ĵ à½£
à¼¡à¼§ à¼¥à¼§
à¼§à¼¨ à¼¤
à½ĵ à½Ĩà½Ĥà½¦
à½ĸà½ĳà½Ĥ à½Ķ
Ġà¼¡ à¼¢à¼£
à½Ĺ à½Ĥà½ł
15 2
à½Ĥ à½ĺà½Ĳà½ł
à½ĸ à½ĸà½ħà½¦
à½¡ à½İà½ł
à¾Ĵ à½¾à¼ĭ
à¼§à¼© à¼¥
à½¢ à½ĳà½ĸà½Ħ
à½¡ à½Ķà½¦
à½Ħà½Ħ à½ĺ
à¼¡à¼¡ à¼¡à¼¥
à¾Ľ à½ºà¼ĭ
à¼§à¼§ à¼¦
14 7
à½ĳ à½łà½ģ
à½ĺ à½ĺà½Ĳà½ł
à½ĺ à½ĺà½īà½ĺ
à½ĸà½¢ à½¡à½Ħ
à½± à¾Ģà¼į
à½Ĥà½Ħ à½ĸ
à½Ĳà½£ à½ĸ
à¾» à½¾à¼ĭ
à¼§à¼¨ à¼¦
à¾± à¾Ĺà½º
à½ĳà½Ħ à½ĸà½¢
à½Ĵ à½ĵà½¡
13 9
14 2
à½Ķ à½Ģà½ł
à½Ģ à½ĺà½£
à½ĺà½ī à½¦
à½Ĥà½¢ à½¦
Ġà¼¡ à¼¢à¼¦
à½Ĺ à½ļà½Ĳ
à¼¡à¼¡à¼¢ à¼§
14 5
14 8
à½ĸ à½ĸà½Ģà½ł
à½Ķ à½ĸà½ł
à½Ķ à½ĺà½ļà½ĵ
à½Ķà½¢ à½¢à½ĸ
à¼§ à¼¤à¼¦
à½ĸ à½ĺà½Ĥ
à½ĸ à½Ĳà½ĺà½¦à½ħà½ĳ
à½Ħ à½Ĥà½Ł
à½¼à¼ĭ à½¼à¼į
à½¡ à½ĸà½¢
à½ļ à½¡
à½¡à½Ħ à½ł
à½Ĥà½ĳ à½ĵà½¦
à¾·à½´ à½¾à¼ĭ
à½ĺà½ĩ à½ĺ
Ġ à½¡à½£
à½Ĥ à½łà½ĩà½ĺ
à½ĵ à½ĸà½¤à½ĳ
à¾Ł à¾Łà½²à¼ĭ
à½ĺà½¦ à½ģ
à½ĳà½Ĥ à½ĸà½¦
à½ĳà½Ĥ à½Ĥà½ĳ
à½ĳà½Ķà½£ à½¢
à¼¨ à¼¢à¼¨
à¼¡à¼¢ à¼¦à¼§
à¼¡à¼¡ à¼¥à¼£
à½¢ à½ĳà½ĺ
à½Ķ à½£à½ĺ
à½ŀ à½ĸà½¢
à½Ķà½¢ à½Ĳà½¢
à¼¨ à¼¡à¼¨
à¼¨ à¼¢à¼§
à¼¡à¼© à¼¡à¼¥
à¼¡à¼¢ à¼§à¼§
à½ĸà½¦à½ĳ à½ĵà½ĺà½¦
à¼¡à¼¦ à¼¡à¼¦
Ġà¼¢ à¼¡à¼¢
14 6
à½ĺ à½ĳà½ĸà½Ħ
à½ı à½ĵà½¦
à½łà½ĳ à½łà½ĸà½¢
à¾¤ à¾±à½º
à¼§à¼¨ à¼£
à½ĺ à½łà½ĩ
à½ĺ à½ĺà½¢
à½ĸà½ŀ à½Ħ
à¾Ķ à½¼à¼ĭà¼į
à¼¨ à¼¡à¼¤
à¼¨ à¼¢à¼¦
à¼ ļ
à½Ĥ à½Ĥà½ĵ
à½Ĩ à½ĳà½Ĥ
à½ĸà½¢ à½ĸà½¢
à¾« à½¼à¼į
à¼¡ à¼¡à¼©à¼¨
à¼¡à¼¤ à¼¡à¼¡
à½¦ à½Ĥà½ĳ
à½ĵ à½Ĥà½¦à½Ħ
à½ĵ à½Ŀ
à½ļà½ĳ à½ĵ
à½ĺà½¢ à½¦
à½ĳà½ĳ à½ĵ
Ġà¼¡ à¼£à¼¥
à¼¡à¼¢ à¼¢à¼§
à¼¡à¼¢ à¼£à¼¤
à¼¡à¼£ à¼¦à¼¡
à½¦à½ĺà½¦ à½ħà½ĵ
15 0
à¼¡à¼§ à¼¢à¼¨
à¼¡à¼¢ à¼¡à¼§
à¼¡à¼£ à¼©à¼¡
à¼ĭà½Ī à¾¦à¾·à½±à½²
15 1
à½ĸ à½Ĥà½¤
à½ł à½Ķà½ł
à½Ĩ à½Ĥà½¦à½£
à½§ à½Ģ
à½ĸà½¦à½ĺ à½£
à½ĺà½ī à½ĺà½ī
à¼¨ à¼¦à¼¦
à¾±à½²à¼į à¼ĭà¼į
à¼¡à¼¡ à¼¡à¼¨
à¼©à¼¨ à¼©
Ġ à½ĸà½ıà½ĸ
à¼ĭ à¾Ł
à½ĺ à½Ĥà½ĵà½¦
à½Ķà½¢ à½ķ
à¼¡à¼§ à¼¡à¼¨
à¼¡à¼£ à¼¡à¼¡
à¼Ģ à½ŀ
à¼¡à¼¡à¼¢ à¼¨
à½ĸ à½£à½Ĥ
à½ĵ à½ļà½ĳ
à½Ħ à½¤à½ĳ
à½Ģ à½Ľ
à½ĺà½¦ à½Ķà½¦
à¾±à½´ à¼µ
à½Ĥà½ĵà½¦ à½ŀ
à½Ħà½ĵ à½ĳ
à¼© à¼¢à¼£
à¼¨ à¼¡à¼©
Ġà¼¡ à¼¡à¼§
Ġà¼¡ à¼¢à¼¤
à¼¡à¼¢ à¼¡à¼¦
à½²à¼ĭà½Ī à½²à¼ĭ
Ġ à½ķà½Ĭ
à¼ĭ à¿
à½ĸ à½ĳà½ĸà½Ħ
à½ĺ à½Ĥà½ŀà½ĵ
à½łà½Ĥ à½ħ
à½łà½ Ĭ
à¼¡à¼¡ à¼¨à¼©
à½Ĵ à½İ
à¼©à¼§ à¼£
14 9
à½¢ à½Ĥà½Ł
à½ĺ à½¥
à½Ķ à½£à½Ĥà½¦
à½¡ à½łà½ĺ
à½ļ à½ĳà½ĺà½ł
à¾£ à½¾à¼į
à¾³ à½ºà¼į
à½Łà½Ĥ à½Ķ
à¼¡à¼¡ à¼¡à¼§
à¼Ģ à½Ļà½İ
à½ĳ à½ĳà½Ķà½£
à½ĸ à½ļà½ĳ
à½¢à½Ħ à½ĸ
à¼¡à¼¡ à¼¦à¼¡
à¾µ à¾±à¼ĭ
16 4
à½Ħ à½Ħà½Ĥ
à½Ķà½¢ à½ĳà½Ģà½ł
à½ĳà½ĺ à½ĺ
à½ħà½ĵ à½ĸ
à½ĳà½Ķà½ł à½ŀ
15 5
15 6
15 8
à½ĵ à½ĳà½Ķà½£
à½ĺ à½ĺà½Ľ
à½ĺà½¦ à½ħ
à½ı à½Ĩ
à½ĳà½Ĥ à½ĸà½ł
à¼¡à¼¦ à¼©à¼§
à¾ĳ à½¾à¼ĭ
à½ĸ à½ĸà½Łà½Ħ
à½²à¼ĭ à¼ŀ
à½Ĥà½¦ à½ĳà½ĺ
à½¼à¼ĭ à½Ī
à½£à½¦ à½Ķ
16 0
à½ĳ à½ĸà½¦à½ĺ
à½¼ à¾ĥà¼į
à½¢ à½Ĥà½£
à½Ķ à½ĸà½¦à½ĺ
à½Ĩ à½ĵà½¦
à¼ĭà¼į à¼ĭà¼įà¼ĭ
à½Ľ à½¤
à½ĳà½ĳ à½Ķà½¦
à¼© à¼¡à¼§
à¼¡à¼¢ à¼§à¼¦
à½ĳà½ħ à½¦
à¼¡à¼¡à¼¢ à¼¤
15 7
à½Ķà½¢ à½łà½ļà½Ħ
à¾²à¼ĭ à½³
à¼¡à¼¡ à¼¥à¼¨
à¼¨à¼© à¼¡
Ġ à½Ĩà½Ĥ
à½ĳà½Ĥ à½Ĥà½¢
à¾· à¾ĥà¼ĭ
à¼¡à¼¡ à¼¦à¼§
16 1
à½ĳ à½ĵà½Ĥ
à½ĳ à½ħà½Ĥ
à½Ĩ à½Ĥà½ī
à½ĸà½¦ à½ł
à½Ķà½¢ à½ĸà½ŀ
à½łà½ĳ à½Ģ
à½Ŀ à½ĸ
à½Ĳà½ĺà½¦à½ħà½ĳ à½ĵ
à½ĸ à½Ħà½ĵ
à½£ à½£à½ĵ
à½Ĩ à½ĳà½Ķ
à½ı à½ĵà½Ĥ
à½łà½ĩ à½ĸà½¦
à½ĸà½Ł à½łà½ĸ
à½§ à½¨
à½Ĥà½Ļ à½ĸ
à¼¨ à¼¢à¼¤
à½¤à½¦ à½Ĩ
à¼¡à¼¡ à¼¤à¼¡
à½ĸ à½ĸà½ĸà½¦
à½ł à½ĺà½Ĩ
à½łà½ ¥
à¼© à¼¡à¼£
à½łà½ļà½£ à½ĵà½¦
à¼¡à¼¡ à¼£à¼£
à½Ĵ à½§
15 4
16 3
âĢ ļ
à½Ĥ à½ĺà½ģà½ĵ
à½Ħ à½ĸà½Ħ
à½Ķ à½Ĥà½¦à½£
à½ĸà½¢ à½ĸà½Ĥ
à½łà½Ħ à½ĺ
à¼© à¼¢à¼©
à¼¡à¼¡ à¼¥à¼©
à¾²à½±à½² à½¾
15 3
Ġ à½Ĥà½īà½ł
à½Ł à½ķ
à½Ķà½¦ à½ĸà½¢
à¼¡à¼¡à¼© à¼£
à½²à¼ĭà½²à¼ĭ à½²à¼ĭà½²à¼ĭ
à½ĵ à½ĺà½ģà½¢
à¾± à¼µà½²
à½Ķ à½Ĥà½ı
à½ĺà½¦ à½ĺà½Ħ
à½£à½¦ à½ĺà½Ħ
à½Ĥà½ħ à½ł
à½Ļà½ĺ à½£
à¼¨ à¼¡à¼¦
à¼¨ à¼¦à¼©
Ġà¼¡ à¼¡à¼¨
à¼¡à¼¢ à¼£à¼¥
à¼¡à¼¤ à¼§à¼¤
à¼©à¼© à¼¤
16 6
à½Ĥà½ł à½ł
à½Ĩà½Ĥ à½Ĥ
à¾Ńà½± à½¾
à½¦ à½Ķà½£
à½ĸ à½Ĥà½¦à½£
à½ĸ à½Ĥà½ĵ
à½ĺ à½łà½ķ
à¼© à¼¥à¼©
à¼¡à¼¢ à¼¢à¼¡
à½ĳà½ĸà½ł à½Ĩ
à½ĳ à½ĵà½ĵ
à½¡ à½Ķà½ł
à½ĺà½Ľ à½ĳà½ĸ
à¼© à¼¢à¼¢
à¼¨ à¼¡à¼§
16 2
16 5
à½ĺ à½Ĥà½Ł
à½£ à½Ĳà½¢
à½¼à¼ĭ à½²à¼ĭ
à½Ĩ à½ļà½ĳ
à½ħ à½Ĩ
à½ı à½§
à½ĳà½Ĥ à½Ļ
à½Ł à½ĳà½Ģ
à½ĸà½¦à½ĺ à½ĸ
à½£à½Ĥ à½ĺ
à¼¨ à¼£à¼¦
Ġà¼¡ à¼¥à¼¥
à¼¡à¼£ à¼¡à¼¤
à¼£à¼¨ à¼§à¼¡
à¼¡à¼¡à¼¢ à¼¦
à½ĸ à½Ĥà½Ļ
à½¡à½Ħ à½¡à½Ħ
à¾· à½±à½¾à¼ĭ
à½ĵà½ĺ à½£
à½Ĥà½ıà½ĵ à½ĳà½Ħ
à½ıà½ĵ à½£
à¼¡à¼¡ à¼¤à¼¤
à¼©à¼© à¼¡
à½¦ à½ĺà½ļà½ĺà½¦
à½ĳ à½Ľ
à½ĸ à½¥
à½ĺ à½¤à½¢
à½£ à½Ĥà½¤
à½ħ à½Ħà½¦
à½Ĳ à½Ĥà½ı
à½Ľ à½£à½¦
à½¢à½ĸ à½Ĩ
Ġà¼¡ à¼£à¼¢
à¼¡à¼§ à¼¥à¼¡
à¼¡à¼¡à¼§ à¼©
15 9
à¾²à½± à½¾
Ġ à½łà½ĩà½ł
à½Ħ à½Ĥà½ı
à½¤ à½ŀ
à¾³ à¾±à½¼
Ġà¼¡ à¼¢à¼§
à¼¡à¼£ à¼¢à¼¢
à¼¡à¼£ à¼¨à¼¥
à¾ª à½´
à¼©à¼§ à¼¡
à¼¡à¼¡à¼§ à¼¡
à½¼à¼ĭ à½Īà¾±à½²
à½łà½Ĳ à½ĵ
Ġà¼¡ à¼£à¼£
à¼¡à¼¢ à¼¦à¼¥
à¼¡à¼¢ à¼¨à¼¨
Ġ à½ļà½£
à½¦ à½Ĥà½ĵ
à½ĵ à½Į
à½Ħ à½ĺà½ĩ
à½£ à½łà½Ľ
à½£ à½łà½ķà½Ĥà½¦
à½¼à¼ĭ à¾İ
à½Ģ à½ĳà½Ĥ
à¾Ł à¾²à½º
à½Ł à½Ĩ
à½ĸà½Ģ à½łà½Ĥ
à¼§ à¼¦à¼¦
Ġ à½ģà½¢
Ġ à½ĺà½Ħà½£
à½ĵ à½ĺà½Ĳà½¢
à½Ħ à½§
à½Ķ à½Ĥà½ĳ
à½Ģ à½Ŀ
à½Ĥà½ĵà½¦ à½ĳ
à½£à½Ĥ à½Ĥ
à½łà½Ĩà½ĳ à½Ķà½¢
à¼¡à¼¡ à¼¦à¼©
à¼¡à¼£ à¼¥à¼¤
à½Ĳà½ĺ à½ĺ
à½²à¼ĭ à½¾
à½´à¼ĭ à½²à¼ĭ
à½¡ à½¥
à½ĸà½ŀà½Ĥ à½Ķ
à¼¨ à¼¡à¼£
Ġà¼¢ à¼¡à¼¦
à¾·à¾² à½±à½´à¾ĥà¼į
à½£ à½ĺà½Ľ
à½ºà¼ĭ à½´
à½ĸà½¢ à½ĳà½Ĥ
à½ĺà½ģ à½Ĥ
à½ĸà½Ļ à½¢
à½¥ à½Ģ
17 2
à½ĸà½£ à½ł
à½¡à½¦ à½¦
à½¦à½ĺ à½ĺ
Ġà½¦ à½Ħ
à¼©à¼© à¼¥
à½Ĥ à½Ķà½ĳ
à½ĸ à½ĺà½ļà½ĵ
à½Ĥà½¦ à½Ĥà½ī
à½Ķà½¢ à½ħà½ĵ
à½Ŀ à½Ķ
Ġà¼¡ à¼¢à¼¥
Ġà¼¡ à¼¥à¼¦
à¼¡à¼£ à¼©à¼¢
Ġ à½¡à½Ħà½¦
à¾±à½² à¼µ
à½ķà½Ĭ à½ĳ
à¼¡à¼¢ à¼¦à¼¨
Ġà½Ĥ à½ĸ
à½Ķ à½ĳà½ĸà½Ħ
à¾Ĵ à½´à¼į
à½ĸà½ħ à½Ŀ
à½Ļ à½Ļ
à¼¨ à¼¦à¼¡
à¼¡à¼£ à¼¥à¼¦
à¼¡à¼£ à¼¦à¼¨
à½Ĺ à½«
à½¼à½¾ à¼ĭà¼į
Ġ à½ĸà½¦à½ĺà½¦
à½¢ à½£à½Ĥ
à½¢ à½£à½Ĥà½¦
à½ĵ à½łà½ķ
à½Ĥà½¦ à½ĺà½Ħ
à½ħà½ĵ à½Ģ
à½£à½ĺ à½ĳà½Ħ
à¼© à¼¦à¼¥
à¼¨ à¼¦à¼§
16 9
à½±à¾Ģ à½¾à¼ĭ
à½¦ à½Ĥà½¦à½£
à½¢ à½Ŀ
à½Ħ à½ĺà½ĳ
à½ĳà½ĺ à½Ķà½¢
à½ĺà½ĵ à½Ħà½¦
à¾ľ à¾»
à¼¡à¼§ à¼¦à¼¢
à¼¡à¼¤ à¼£à¼©
à¼Ģ à½ĳà½Ħ
16 8
Ġà¼¢à¼¢ à¼¢
à½Ĥ à½Ĩà½ĳ
à½Ħà½ĵ à½łà½ĳà½¦
à¼¡à¼§ à¼¢à¼¡
à¼¡à¼¡à¼¢ à¼¢
à½Ķ à½ĺà½ģ
à¾² à¾±à½º
à½ī à½ĵà½¦
à½Ł à½ŀ
à½Ķà½¦ à½ĳà½Ĥ
à½ĸà½ĳà½Ĥ p
à¼© à¼¡à¼¨
à½Ĳà½£ à½ģ
à¼¨ à¼£à¼£
à¼¡à¼¢ à¼¤à¼¤
à½¦ à½Ķà½ĳ
à½² à½º
à½£ à½łà½ķ
à½ķ à½Ķ
à¼© à¼¢à¼§
à¾¨à¾² à¼ĭà¼į
à½ĵà½ĺà½¦ à½ĺ
à¼¡à¼¢ à¼¢à¼¥
à¼¡à¼¢ à¼¦à¼¤
à¼ĭà½Ī à¾·à½²
à¼¨à¼¨ à¼¡
17 0
à½¦ à½ĳà½ĳ
à½ŀ à½ĺà½¦
à½ħ à½ħà½ĳ
à½ķ à½Ľ
à½ĸà½ĳà½Ĥ à½ĳà½Ħ
à½ĺà½Ľà½ĳ à½¢
à¼¡à¼¤ à¼¡à¼£
à½ĳ à½ĺà½Ĳà½ł
à¾Ł à¼µ
à½Ĳ à½Ķà½¦
à½ĸà½ŀ à½ŀ
à½ĸà½ŀà½Ĥ à½Ĥ
à¼© à¼¦à¼¡
à¼¨ à¼¢à¼©
à¾Ļà½´ à½±à¼ĭ
à¼©à¼© à¼¨
à½¦ à½łà½ķ
à½¦ à½Ħà½ĵ
à½Ķ à½ĺà½¦
à¼¨à¼¨ à¼¢
à½² à½¼
à½Ĳ à½ı
à¾¨ à¾¼à¾»
à½Ľ à½ģ
à½ĺà½Ĳà½ł à½ĳà½Ħ
à¼¨ à¼£à¼¡
à¼¡à¼£ à¼¦à¼£
à¼¡à¼£ à¼§à¼£
à¼¡à¼¤ à¼¡à¼¨
à¾ª à½±à¼į
à½ĳ à½ĵà½Ħ
à½Ķ à½ħà½¦
à½ģ à½Ħà½Ĥ
à¼¡à¼¡ à¼£à¼¡
à¼¡à¼¡ à¼¥à¼¡
à½¦ à½ĵà½ĵ
à½¦ à½Ģà½ł
à½¢ à½ĸà½Ł
à½Ĩ à½¤à½¦
à½łà½ĸ à½ħ
à½ħà½ĵ à½Ĥà½Ħ
Ġà¼¡ à¼¥à¼¨
à¼¡à¼¢ à¼¤à¼§
à¼¡à¼¡ à¼¦à¼¢
à¼¡à¼£ à¼¡à¼¢
16 7
Ġ à½Ķà½łà½ĺ
à½²à¼ĭ à½¼à¼ĭà½ºà¼ĭ
à½Ķ à½ĸà½¤à½ĳ
à½ºà¼ĭ à½²à¼ĭ
à½ļ à½łà½ĳ
à½Ķà½¦ à½ĳà½Ħ
à½Ĥà½ŀà½ĵ à½£à½¦
à¼¡à¼§ à¼¢à¼©
à½±à½´à½¾ à¼įà¼ĭ
à¼¡à¼¡à¼© à¼¢
Ġ à½łà½Ĥà½Ĥ
à¾ ®
à½¦ à½Ĥà½ı
à½Ĥà½¦ à½Ģà½ł
à½¤ à½łà½Ħ
à½Ħà½¦ à½¡
à½łà½ Ŀ
à½ĸà½Łà½Ħ à½ĺ
à½Ķà½ĳ à½¦
à¼¡à¼¡à¼¢ à¼©
à½Ĥà½¦ à½Ł
à½ĳà½Ħ à½ĳà½Ĥ
à½¤ à½¡
à½ĸà½ŀ à½Ĥà½ĵ
à½ĩ à½ĳ
à½ĸà½ħà½¦ à½£
à½łà½ļ à½ł
à¼§ à¼¥à¼£
à¼¨ à¼¥à¼©
à¼¨ à¼¤à¼©
à¼¨ à¼¦à¼¥
à¾µ à½´à¼į
à¼¡à¼¤ à¼¤à¼¦
à½ĸà½¦ à½ī
à½Ĥà½Ħ à½Ĥà½¦
à¾Ĳà½´ à¼įà¼ĭ
à¼© à¼¢à¼¥
à¼© à¼¥à¼¨
à¼¡à¼¢ à¼¥à¼¢
à½© à½İ
à½Ķ à½ĺà½īà½ĺ
à½ŀ à½ī
à½ĸà½¦ à½ķ
à½ĳà½Ħ à½Ĥà½ī
à½¤ à½Ĩ
à½ĸà½ł à½¢
à½ĸà½ħ à½ĳà½ĳ
à¼¨ à¼£à¼§
à¾²à½ºà¼ĭ à¼į
à¼¡à¼¢ à¼£à¼©
à½¢ à½ĺà½Ľà½ĳ
à¾Ļ à¾Ģ
à½ĸà½ĳà½Ĥ à½ĳ
à½ĸà½Ĥ à½ł
à¼© à¼¢à¼¡
à¼¡à¼§ à¼¡à¼¤
Ġ à½Ĥà½ŀà½Ĥ
à½ł à½łà½Ľ
à½Ķà½¢ à½Ĳ
à½Ħà½¦ à½ħà½ĵ
à½ĺà½Ĳ à½ĵ
à½ĺà½¢ à½Ĥ
à¾Ľ à¼ĭà¼į
à½ĳ à½ĳà½Ķà½Ĥ
à½Ĥ à½ĺà½ģà½¦
à½£à½¦ à½¨
à¼© à¼¦à¼¢
à¾Ľ à½¾à¼ĭ
18 2
Ġ à½ĸà½¦à½Ĥà½¦
à½¢ à½ĸà½ħà½¦
à½ĳà½Ĥ à½łà½ģ
à½Ĥà½ī à½ĺ
à¼© à¼¡à¼¥
à¼¡à¼¡ à¼¤à¼¦
à½ħà½ĳà½ĺ à½īà½ĺ
à¾µà¾¨ à½±à½²à¼ĭ
à½¦ à½Ķà½ĵ
à½² à½ºà¼ĭ
à½ĳ à½ĳà½Ģà½ł
à½Ħ à½£à½ĺ
à½£ à½Ļà½ĵ
à½ĳà½Ķ à½£à½Ĥ
à¼¡à¼¡ à¼¤à¼£
à¼¡à¼¡ à¼¨à¼§
Ġ à½łà½Ĩà½Ħ
à½¦ à½ļà½ĳ
à½Ĩ à½ķ
à½Ł à½ĳà½Ħ
à½ĸà½ŀ à½Ĥà½ħ
à¾¨ à½¾à¼ĭ
à½¨ à½ĵà½ĵ
à½ħà½ĳ à½Ĩ
à½§ à½¡
à½ĺà½Ĳà½ł à½£à½¦
à½İ à½Ģ
à½¡à½¦ à½ĺ
Ġà¼¡ à¼¤à¼¤
à¼¡à¼¡ à¼¡à¼©
à¼¡à¼¤ à¼¢à¼©
à¼ĭà½Ī à¾²à½ºà¼ĭ
à¾Ľ à½¾
à¼¡à¼¡à¼§ à¼§
Ġ à½ĸà½ĸà½¦
à½Ħ à½ĳà½ĸ
à½Ļ à½Ĥà½¦
à½Ķà½ĳ à½¢
à¼© à¼¤à¼©
à¼¡à¼£ à¼§à¼¥
à¼¡à¼¥ à¼¡à¼¦
à¼¡à¼¨ à¼©à¼©
18 9
à½ĺ à½Ļà½ĺ
à½ŀ à½ĵà½¦
à¾²à½º à½ºà¼ĭ
à½§ à½ŀ
à½ĺà½Ľà½ĳ à½ħ
à½łà½ĸà½¢ à½ĸà½ł
à¼¡à¼¢ à¼¡à¼¥
à¼¡à¼¢ à¼¨à¼¤
à¾¦à¾² à½¾à¼ĭ
à¼¡à¼¤ à¼§à¼¨
à¼¡à¼¨ à¼©à¼¥
19 8
½ ¬
à ½¬
à½ĸ à½ĺà½Ľ
à½ĺ à½ĳà½Ķà½£
à½£ à½ĳà½Ĥà½ł
à½ĳà½Ģ à½łà½Ĳ
à½¡à½ĵ à½Ĩà½ĳ
Ġà½ĸ à½Ħ
à¼¡à¼¢ à¼¡à¼¤
à¼¡à¼¡ à¼¡à¼¦
à¼¡à¼¤ à¼§à¼¦
17 1
à½ģ à½Łà½¦
à¼© à¼¦à¼¨
à½łà½ĳà½ĸ à½Ħ
Ġà¼¡ à¼£à¼©
à¼¡à¼¢ à¼¤à¼¡
à¼¡à¼¢ à¼§à¼¥
17 8
Ġ à½£à½łà½Ħ
à½ĵ à½Ĥà½ĵ
à½£ à½¢à½Ĥ
à½Ŀ à½ŀ
à½¦à½ĺ à½ĸ
Ġà¼¡ à¼¥à¼§
Ġà¼¡ à¼§à¼§
à½ª à½ĺ
17 3
17 6
18 5
à½Ħ à½Ĥà½¦à½£
à½£ à½Ķà½ĳ
à¾² à¾¡à½¼
à¾±à½²à¼ĭ à½Īà½¼
à¼¨ à¼¤à¼¤
Ġà¼¡ à¼£à¼¤
à¼¡à¼¢ à¼¢à¼©
à¼¡à¼¤ à¼¡à¼§
17 5
17 9
à¾± à¾¡à½¼
à½ħ à½ĸà½¦
à½¡à½Ħ à½Ĩ
à½Ĳà½£ à½¢
à¼¡à¼§ à¼¢à¼£
à¼¡à¼¢ à¼¢à¼£
à¼¡à¼¡ à¼¤à¼¨
à½ĵà½¦ à½¡à½Ħ
à¾±à½º à¼įà¼ĭ
à½łà½ §
à¼¡à¼¢ à¼¨à¼¡
à¼¡à¼£ à¼¢à¼¦
à¼¡à¼¤ à¼£à¼¤
19 7
à½ĸ à½£à½ĵ
à½Ĩ à½ĳà½ĳ
à½ĺà½ļà½ĵ à½ĳ
à¼¨ à¼¤à¼¦
à¼¨ à¼¤à¼£
à¼¨ à¼¥à¼¡
à½Į à½ĸ
à¼¡à¼¢ à¼©à¼¤
à½Ĳà½ĵ à½Ł
à¼¡à¼¡à¼© à¼§
à½¦ à½īà½ĺà½¦
à½¢ à½łà½Ħ
à½ĺ à½Ĥà½ĵ
à½ĸà½¢ à½¡
à½Ķà½¦ à½łà½Ĥ
à¾¨ à½±à½²à¼ĭ
à¾¦ à¾±à½º
à½ĳà½Ģ à½£
à¼© à¼§à¼§
Ġà¼¡ à¼£à¼¦
18 8
à¼ĭ à¾Ĺà½¼
à½¦ à½ĳà½Ģ
à½¦ à½ıà½ĵ
à½ķ à½ŀ
à½ĵà½¦ à½ĳà½Ħ
à½¢à½Ħ à½Ħ
à½ĳà½Ķà½ł à½ļ
à½ĳà½ĳ à½ĳà½ĳ
à½łà½ķà½Ĥà½¦ à½ĺ
à¼¨ à¼£à¼¢
à¼¨ à¼¦à¼£
à¼¡à¼§ à¼£à¼§
à¼¡à¼£ à¼£à¼©
à¼¡à¼¤ à¼§à¼¥
18 0
20 0
à½ĳà½Ĥ à½Ĳ
à½ĸà½¤à½ĳ à½¢
à½ĸà½ı à½Ķ
à½İ à½ĳ
à½ĸà½ŀà½Ĥ à½Ĥà½Ħ
à¼¡à¼¢ à¼©à¼¥
à¼¡à¼£ à¼¤à¼¡
à¼¡à¼¦ à¼§à¼©
à¼©à¼§ à¼¦
à¼¡à¼¡à¼¢ à¼¥
18 6
à½¦ à½£à½ĵ
à¾±à½² à¼µà¼ĭ
à½ĺà½Ľà½ĳ à½£
à½Ĥà½¦à½£ à½ĸà½ł
à½ĺà½īà½ĺ à½Ķà½ł
à¼¡à¼¤ à¼£à¼£
à½Ĳà½ĺà½¦à½ħà½ĳ à½ĳ
à½²à¼ĭ à½´à¼ĭ
à½£ à½ĸà½Ĥ
à½ĳà½Ĥ à½ķ
à½£à½¦ à½ĩ
à¾· à¾£à¼ĭ
à½ĳà½ĺ à½īà½ĺ
à½Ľ p
à¼¡à¼¡ à¼¤à¼¥
19 5
à½¦ à½ĳà½Ķà½£
à½Ĥ à½ĸà½Ĥ
à½²à¼ĭ à¼Ŀà¼į
à½Ķ à½ĺà½Ĥ
à½¡ à½ĺà½ļà½ĵ
à¾¤à¾²à½² à¼į
à¼¡à¼¢ à¼¡à¼©
à¼¡à¼¤ à¼¤à¼¤
à¼¡à¼¦ à¼¤à¼¥
à¼¡à¼¡à¼§ à¼¢
à¼¡à¼¡à¼© à¼¤
17 7
19 3
à¼ĭà¾ĵ à½¾à¼ĭ
à½Ħ à½ħà½ĵ
à½ĸà½¦ à½ĺà½Ħ
à½Ĥà½ŀ à½Ĥà½¢
Ġà¼¡ à¼¥à¼¤
à¼¡à¼¢ à¼§à¼©
à¼¡à¼¡ à¼£à¼¦
à¼¡à¼¦ à¼¦à¼¢
à¼Ģ à½Ļ
à½ĭ à½ī
à¼©à¼¨ à¼¢
à½ĳ à½łà½ķ
à½Ĩ à½Ĥà½ħ
à½ĵà½¦ à½¦à½Ħà½¦
à¾Ĵà¾±à½´ à½´à¼ĭ
à½ĺà½Ľ à½ĳà½ĺ
à½ĺà½ļà½ĵ à½ĺà½¢
à¼© à¼¥à¼¥
à¼¡à¼¢ à¼§à¼¢
à¼¡à¼¤ à¼¤à¼¥
à½Ĺ à½ł
à¼¨à¼© à¼¢
17 4
à½¦ à½Ģà½¢
à½ĵ à½ĸà½Ł
à½ĺ à½ĸà½¤à½ĳ
à¾¦ à¾²à¼į
à¼¨ à¼§à¼§
à½¦à½ĺ à½£
à¼¡à¼¦ à¼¥à¼¢
à¾ª à½´à¼ĭ
18 7
19 0
à½¢ à½ĵà½Ħ
à½ĵ à½Ĥà½Ļ
à½ł à½ĵà½¦
à½Ĥà½¦ à½¦à½ĺ
à½¨ à½ĵà½ł
à½Ŀ à½£à½¦
à¼¡à¼£ à¼¦à¼§
Ġ à½īà½£
à½¦ à½Ĥà½¡
à½ĳ à½Ļà½ĵ
à½Ĥ à½ĸà½Ł
à½ĸ à½Ĳà½Ħ
à½¢ à½Ĳà½ĺà½¦
à½¢ à½Ģà½ł
à½£ à½ĸà½¤à½ĳ
à½ĵà½ĳ à½¢
Ġà¼¡ à¼§à¼¡
à¼¡à¼§ à¼©à¼£
à¼¡à¼¡ à¼¨à¼¨
à½ĸ à½Į
à½Ħ à½ĳà½ĺ
à½Ĥà½¦ à½ĺà½Ĳ
à½Ĥà½¦ à½Ĥà½Ħ
à¾Ł à½±à½²
à½Ĩ à½łà½ĳ
à½Ĩ à½ĳà½Ģ
à½ĳà½Ħ à½ĳà½Ħ
à½ģ à½¨
à½Ķà½¢ à½ĺà½Ħ
à¼¨ à¼¥à¼¥
Ġà¼¡ à¼©à¼¢
à¼¡à¼¡ à¼£à¼¤
à½© à½§
à½ĸà½ĸà½ĸà½ĸ à½ĸà½ĸ
Ġ à½Ģà½ł
Ġ à½ĸà½¦à½£
Ġ à½ĺà½ģà½£
à½² à¼´à¼į
à½¢ à½ĺà½Ĥ
à½ħ à½ĳà½Ķ
à½ĳà½ĸ à½Ģà½ł
à¾±à½ºà¼ĭ à½Īà½²
à½łà½ļ à½Ĥà½¦
à½ĺà½Ĳà½¢ à½Ĳ
à½Ĵ à½Ģ
18 4
à½Ĥà½¦ à½Ĳà½ĺà½¦
à½ı à½ļ
à½Ħà½¦ à½ģ
à½Ļ à½Ĭ
à½ĺà½Ĩ à½ĺà½¦
à¼¡à¼§ à¼©à¼¡
à¼¡à¼¢ à¼¢à¼¢
à¼¡à¼£ à¼¤à¼¢
à¼ĭà½ºà¼ĭ à½ºà¼ĭ
à½ĸ à½ĸà½£
à½Ķ à½ĸà½Ł
à½¡ à½ĳà½¦
à½¤ à½ĳà½Ħ
à½łà½ĳ à½łà½ĸ
à¾²à½´ à½¾à¼į
à½łà½Ĥ à½ŀ
à¼¡à¼§ à¼¨à¼¥
à¼¡à¼¢ à¼¨à¼¥
à¼¡à¼¡ à¼¤à¼©
à¼¡à¼¤ à¼£à¼¥
à¼¡à¼¤ à¼£à¼¨
à¼¡à¼¦ à¼©à¼¦
à¼ĭà¾¢ à¼ĭ
18 1
19 1
à½Ĥ à½Ĥà½ĺ
à½ĸ à½ĵà½Ĥ
à½ĵ à½£à½ĵ
à½ĵ à½ĸà½£
à½ĺ à½ĺà½ł
à½Ķ à½ĳà½Ģ
à½Ĥà½¦ à½ĺà½Ĩ
à½ī à½ŀ
à½Ł à½ĳà½Ķà½ł
à½¨ à½ħ
à¼© à¼¥à¼¢
à½£à½Ĥà½¦ à½¢
à¼¡à¼¢ à¼¥à¼¥
à¼¡à¼¢ à¼¦à¼£
à½Ĵ à½Ĥà½£
19 4
à½ĺ à½ĳà½Ģ
à½Ķ à½ĵà½ĳ
à½ĳà½Ħ à½¢à½Ħ
à½ħ à½Ģ
à½£à½¦ à½ĳà½Ĥ
à½ĺà½ļ à½¦
à½Ĥà½ŀà½ĵ à½Ķ
à½£à½ĺ à½ĵà½¦
à½ĸà½ı à½ĺ
à¼© à¼£à¼§
Ġà¼¡ à¼¦à¼¤
à¼¡à¼¡ à¼£à¼¢
à¼ĭà¼¹ à½¼à¼į
à½¦ à½ĵà½ł
à½£ à½Ļà½ĺ
à½£ à½Ĥà½Ļ
à½Ķà½¢ à½Ĩ
à½ħà½ĳ à½ŀ
à¼¨ à¼£à¼¥
à¼¨ à¼¦à¼¨
à¼¡à¼¢ à¼§à¼¡
à¼¡à¼£ à¼¥à¼¡
à¼¡à¼¨ à¼¥à¼¥
à½Ĵ à½Ĳ
18 3
20 5
à½ĸà½¦ à½Ĳ
à½ĸà½¦ à½Ķà½¦
à½ĸà½¦ à½ĺà½Ĳ
à½ļ à½¤
à½ı à½Ĭ
à½Ĥà½ĵ à½Ĥà½¦
à¼© à¼£à¼£
à¼© à¼¥à¼§
à¼¡à¼¡ à¼£à¼©
à¼¡à¼¤ à¼¤à¼©
à¾²à¾Ģ à½¾à¼ĭ
à½ĵà½ĺà½ĺà½ģà½ł à½£
à¼¡à¼¡à¼§ à¼¤
2 16
Ġ à½łà½ĺ
à½ĳà½ĺ à½ģ
à½ĺà½Ľà½ĳ à½ĵ
à¼¨ à¼¦à¼¤
à½Ĭ à½Ĭ
à½ĳà½Ģà½ł à½ĸà½ł
à¼¡à¼¥ à¼¢à¼§
à¾·à¾± à½±à½¾à¼ĭ
à¼©à¼¨ à¼¥
à½Ķ à½Ĥà½¡à½¦
à¾Ł à¾²à¾Ģà¼ĭ
à½ģ à½ĳà½Ħ
à½ĸà½¢ à½ļ
à½ĵà½¦ à½łà½Ĥ
à½¢à½Ħ à½ĵ
à½ĺà½ģ à½łà½ģ
à½ĺà½Ĳà½ł à½ĵ
à½ĺà½¢ à½ĳ
à½ĺà½ģà½ĵ à½Ķ
à½¡à½ĸ à½ĵ
à½ĵà½ł à½¦
à¼¡à¼¡ à¼¨à¼¡
à¼¡à¼¨ à¼©à¼£
à½¢ à½Ĥà½ĳ
à½£ à½īà½ĺà½¦
à½Ĩ à½ĸà½ł
à½ĺà½¦ à½łà½ĳ
à½ī à½ī
à½ĺà½Ľ à½£
à¼¡ à¼¡à¼©à¼©
à¼© à¼¡à¼¤
à¼¡à¼¤ à¼¦à¼©
à¼¡à¼¤ à¼§à¼£
à¼¡à¼¥ à¼¡à¼¥
à¼¨à¼¨ à¼¥
à½¼ à½²
à½Ķ à½Łà½Ħ
à½Ĥà½¦ à½ħ
à½ĸà½¦ à½ĸà½¦à½ĺ
à½ĳà½Ħ à½¡à½Ħ
à½ģ à½Ľ
à½ı à½łà½Ħ
à¾Ĳ à¾¡à½¼
à½ĺà½Ĩ à½Ħ
à½łà½ĳà½¦ à½ĵà½¦
à¼© à¼¤à¼§
à¾µ à½²à¼į
à¼¡à¼£ à¼£à¼£
à¼¡à¼£ à¼©à¼¦
à¼¡à¼¨ à¼¨à¼¨
à¼¡à¼¦ à¼¥à¼£
à½ĵ à½ĸà½Ģà½ł
à½Ķà½ł à½ĺà½¦
à½ģ à½ĵà½ĺ
à½ı à½ķ
à½Ĳà½ĺà½¦ à½ĳ
à¼© à¼¡à¼©
à¼¡à¼§ à¼¡à¼¡
à¼¡à¼¢ à¼¤à¼¢
à¼¡à¼¢ à¼©à¼©
à¼¡à¼¢ à¼¨à¼¦
à¼¡à¼¤ à¼¢à¼§
19 2
à½¦ à½Ĥà½Ļ
à½ĺ à½ĳà½Ģà½¢
à½Ķ à½ĺà½ĵ
à¾² à½±à½´à¾ĥà¼ĭ
à½ģ à½Ĳ
à½Ķà½¢ à½ĸà½£
à½ĵà½¦ à½łà½ĩ
à½¡à½Ħ à½ĸà½¦
à½ĺà½ļ à½ĸ
à½Ľ à½ī
à½Ĩà½Ĥà½¦ à½Ģ
à½Ħà½Ĥ à½ĸ
à¾ľ à½¾à¼ĭ
à¼¡à¼¢ à¼©à¼¡
à¼¡à¼£ à¼¨à¼¨
à¼¡à¼£ à¼§à¼¤
à½¦à½Ĥ à½¥
à½²à¼ĭà½Ī à¾±à½º
à½¦ à½ĺà½Ĳà½¢
à½Ĥ à½ģà½ĺà½¦
à½ı à½Ľ
à¾³à½¼ à½¼
à½Ħà½ĵ à½£
à¼¨ à¼¥à¼¦
Ġà¼¡ à¼¤à¼¢
19 6
à½ł à½ĺà½Ħ
à½Ĥà½¦ à½ĸà½ŀ
à½ĵà½¦ à½ı
à¾© à¾Ńà½¼à¼ĭ
à¾¦à¾± à¾Ģ
à½ĺà½ļà½ĺà½¦ à½¦
à½¥ à½Į
Ġà½Ķ à½ĵ
à¼¡à¼¥ à¼¦à¼¦
à¼¡à¼¥ à¼§à¼¥
à½ĺà½īà½ĵ à½ĵà½¦
Ġà½¤ à½Ħà½¦
à¼©à¼¨ à¼¨
à¼¨à¼¨ à¼¦
19 9
20 1
20 3
20 7
Ġ à½Ĳà½ĸ
à½¡ à½¦à½¢
à½ģ à½ĸà½¢
à½Ł à½ĸà½ł
à½Ķà½¦ à½łà½ģ
à½ĸà½ħ à½łà½ĸ
à¾Ķ à¾·
à½Łà½ĳ à½¦
à½ĵà½Ĥ à½Ķ
Ġà¼¡ à¼¥à¼©
à¼¡à¼¢ à¼¤à¼¦
à¼¡à¼£ à¼¨à¼¦
à¼¡à¼¤ à¼¤à¼¡
à¼¡à¼¦ à¼¨à¼£
à¾® à½²
à½¦ à½īà½ĵ
à½ĵ à½ģà½ĺà½¦
à½£ à½ĸà½ĸ
à½Ķà½ł à½ķà½Ĥà½¦
à¾±à½´ à½´
à¾¦ à¾¡à½¼
à½Ľ à½¦à½¢
à½Ħà½ĵ à½ĵ
à¼© à¼¦à¼£
à¼¡à¼¢ à¼¦à¼¡
à¼¡à¼£ à¼§à¼¡
à¼¡à¼£ à¼¨à¼©
Ġà½ĺ à½§
à½Ħ à½ĺà½Ĥ
à½ħ à½ŀ
à½ĸà½Ģ à½ĺ
à½Ĥà½¦à½£ à½Ĥ
à¼¨ à¼¤à¼§
à¼¡à¼§ à¼¢à¼¤
à¼¡à¼¢ à¼¨à¼©
à¼¡à¼¡ à¼¥à¼¤
à¼¡à¼£ à¼¤à¼§
à¼¡à¼¤ à¼¢à¼¡
à¼¡à¼¤ à¼¢à¼¨
à¼©à¼¨ à¼¡
Ġ à½Ħà½¢
à½¡ à½Ķà½¢
à½Ķà½¢ à½Ĥà½Ł
à½Ķà½ĳ à½ł
à½Ĥà½¢ à½Ĥ
Ġà¼¡ à¼¦à¼¨
Ġà¼¡ à¼§à¼¦
Ġà¼¡ à¼©à¼¤
à¼¡à¼¢ à¼¤à¼£
à¾¦à¾²à½´ à¼į
à¼¡à¼£ à¼£à¼¤
à¼¡à¼¤ à¼£à¼¡
à¾ª à½¼à¼ĭ
Ġà¼¢ à¼¡à¼¤
à¼¡à¼¡à¼§ à¼¦
Ġ à½ģà½ĸ
Ġ à½Ĥà½ıà½ĳ
à½Ħ à½Ĥà½ĵ
à¾± à¾·à½²
à½§ à½ª
à½Ĩà½ĳ à½¦
à¼¡à¼¢ à¼£à¼¡
à¼¡à¼¢ à¼§à¼£
à¼¡à¼¡ à¼£à¼¨
à¼¡à¼¡ à¼¦à¼£
à¼¡à¼¡ à¼¦à¼¤
à¾µ à¾Ģà¼ĭ
à¼¡à¼£ à¼¥à¼¨
à½Ĵ à½ĺ
à½Ĵ à½Ĳà½Ħ
à½Ĺ à½Ħ
à½Ĺ à½Ł
20 9
à¾Łà½± à½¾
à½¢ à½łà½ķ
à½ķ à½İ
à½ĸà½ŀ à½ĺ
à½ħà½ĵ à½ĳà½Ĥ
à¾·à¼ĭ à½²
à¼© à¼¡à¼¦
à¼© à¼¥à¼£
à¼¨ à¼£à¼¨
à½ħà½Ĥ à½Ĥ
Ġà¼¡ à¼¤à¼©
à½ĸà½ĺ à½£
à¼¡à¼¡ à¼£à¼§
à¼¡à¼£ à¼¢à¼¥
à¼¡à¼¦ à¼§à¼¥
à¾¶ à½²à¼ĭ
20 8
à½Ĥ à½ĳà½Ĥà½ł
à½ĵ à½ĳà½Ģà½¢
à½£à½ĺ à½ī
à½łà½Ĩ à½Ħà½¦
à¼¡à¼¢ à¼£à¼§
à¼¡à¼¢ à¼¥à¼¦
à¼¡à¼¢ à¼©à¼§
à¼¡à¼£ à¼¢à¼¤
à½ĺà½İ à½Įà½£
à¼ĭà½Ī à¾±à½ºà¼ĭ
20 2
à¼ĭ à¾©à½¼
à½ĺ à½ĺà½ģà½¦
à½ĵà½¦ à½ĸà½ĳà½Ĥ
à½¡à½Ħ à½ĳà½Ħ
à½Ľ à½ĸà½Ľ
à½¨ à½ĵà½¦
à½ģà½¦ à½£
à½¥ à½Ľ
Ġà¼¡ à¼£à¼¨
Ġà¼¡ à¼§à¼¢
à½Ĥà½ĺ à½ĺ
à¼¡à¼¢ à¼¢à¼¤
à¼¡à¼¡ à¼¦à¼¥
à¼¡à¼£ à¼¡à¼¥
à¼¡à¼£ à¼£à¼¡
à¼¨à¼¨ à¼§
à¼¨à¼© à¼¥
à¼¨à¼© à¼¦
à½łà½Ļ à½£à½ĳ
ï Ģ
à½Ĥ à½Ķà½£
à½Ģ à½«
à¾· à¼įà¼ĭ
à½ĳà½ĺ à½ŀ
à½ĸà½ĳ à½Ĩ
à½ĺà½Ľ à½¢
à½¢à½ĸ à½ĳà½Ħ
à¾Ĳà¾± à¾±à½º
à¼© à¼£à¼©
à¼¨ à¼£à¼©
Ġà½¢ à½Ģ
à¼¡à¼¢ à¼£à¼£
à¼¡à¼¢ à¼©à¼¦
à¼¡à¼¡ à¼¥à¼¢
à¼¡à¼£ à¼¥à¼©
à¼¡à¼£ à¼§à¼©
à½Ĵ à½Ħ
ïĢ ¸
à½¢ à½£à½ĺ
à½¢ à½Į
à½Ĥà½¦ à½¦à½Ħà½¦
à½Ł à½ĸà½ħ
à½ĺà½ī à½ł
à½Ħà½Ĥ à½ĺ
à½İ à½ĸ
à¾·à½¼à¼ĭ à¼į
à¼¡à¼£ à¼§à¼¢
2 10
à½ŀ à½Ħà½¦
à¾¡ à¼ĭà¼į
à½Ķà½¦ à½ĸà½ĳà½Ĥ
à¼¨ à¼¦à¼¢
à¼¡à¼¢ à¼¢à¼¨
à¼¡à¼¢ à¼©à¼£
à¼¡à¼¡ à¼¥à¼¥
à¼¡à¼¦ à¼¤à¼¡
20 4
Ġ à½£à½ł
à½ĸ à½ļà½ĵ
à½´à¼ĭ à½¾
à½Ģ à½ĸà½¦
à½Ķà½ł à½ĵ
à½ģ à½§
à½Ķà½¢ à½łà½ķ
à½ĵà½¦ à½ĺà½Ĩ
à½ĺà½Ĳ à½ĸà½¦
à½ĺà½Ħ à½Ħ
à¼© à¼¢à¼¦
à¼© à¼¤à¼¥
à¼¡à¼¢ à¼¢à¼¦
à¼¡à¼¢ à¼£à¼¨
à¼¡à¼¢ à¼¤à¼©
à¼¡à¼£ à¼£à¼§
à¼¡à¼£ à¼¨à¼¡
à¼¡à¼¨ à¼¦à¼¢
Ġà¼¢ à¼¡à¼¥
2 15
Ġ à½ĸà½ŀà½ĳ
à½ĳ à½Ĥà½¦à½Ħ
à½ĵ à½łà½Ĩ
à½ĺ à½ĸà½Ł
à½ĺ à½Ĥà½ĳ
à½ĸà½¦ à½¨
à½ĳà½Ĥ à½ĸà½¢
à¾· à¾²à½±à½²à¼ĭ
à½¨ à½ĸà½¦
à½Ĥà½ŀà½ĵ à½¡
à½Ĩà½Ĥà½¦ à½¢
à¼© à¼¥à¼¦
à¼¨ à¼§à¼©
à½ĺà½ļà½ĺà½¦ à½Ģ
Ġà¼¡ à¼©à¼¦
à¼¡à¼£ à¼¦à¼©
à¼¡à¼¥ à¼¦à¼¥
à¼©à¼§ à¼¤
à¼¡à¼¡à¼§ à¼£
à½¦ à½ĺà½ģà½ł
à½Ħ à½ĺà½ļ
à½ķ à½Ĥà½ĺ
à½ı à½¥
à½ĵà½Ħ à½Ħ
à½Ĩà½Ĥà½¦ à½ĺ
à¼© à¼§à¼©
à¼¨ à¼£à¼¤
à½Łà½¦ à½¦
à¼¡à¼¡ à¼¦à¼¦
à¼¡à¼£ à¼¡à¼©
à¼¡à¼¥ à¼¡à¼§
à¼¨à¼¨ à¼£
à½¢ à½ħà½ĵ
à½Ķ à½ĸà½Ģ
à½ĺà½¦ à½Ļà½ĺ
à¾³ à½±à½²
à½Ļ à½ŀ
à½ħà½ĳ à½ī
à¾« à½±
à½ĸà½ħà½¦ à½¢
à½£à½Ĥ à½ĸà½¢
Ġà¼¡ à¼¤à¼¡
Ġà¼¡ à¼¦à¼¢
à¼¡à¼¢ à¼¡à¼¨
à¼¡à¼¢ à¼¦à¼©
à¾ŀà½¾ à¼ĭà¼į
à¼ĭà½ºà¼ĭ à½º
2 11
à½Ħ à½Ĳà½ĺà½¦
à½¡à½Ħ à½Ĥà½ŀà½ĵ
à½Ĥà½ĵà½¦ à½ĳà½Ħ
à½£à½Ĥ à½ģà½Ħ
à¼¨ à¼©à¼©
à½ŀà½ĸà½¦ à½£
Ġà¼¡ à¼¦à¼§
Ġà¼¡ à¼§à¼¥
à¼¡à¼¢ à¼¥à¼¨
à¼¡à¼¢ à¼¦à¼¦
à¼¡à¼¨ à¼©à¼¢
à¾¥ à½´à¼į
à¾ŀ à½¾à¼į
à¾» à½´à¼ĭ
20 6
à½¦ à½ĺà½ģ
à½ĸ à½ĺà½ģ
à½Ĳ à½ĳà½Ħ
à½ĺà½¦ à½ĺà½Ĳ
à½Ĥà½ĵà½¦ à½¤
Ġà¼¡ à¼¤à¼¥
à¼¡à¼¡ à¼¦à¼¨
à¾ł à½¼à¼ĭ
à¼¡à¼¡à¼§ à¼¨
2 14
à½Ķ à½Ĥà½¦à½Ħ
à½Ľ à½Ľà½ŀ
à½¨ à½ĳà½Ħ
à½ĸà½ĳà½Ĥ à½¤
à½ĸà½¤à½ĳ à½£
à½łà½Ĳ à½ĳà½Ķ
à¼© à¼£à¼¥
à¼¡à¼¡ à¼¥à¼§
2 13
Ġ à½ĺà½Ĥà½¢
à½¦ à½ĺà½ī
à½¢ à½łà½Ľ
à½ĵ à½īà½ĺà½¦
à½º à½¼
à½ł à½ĺà½Ĥ
à¾² à¾±à¼ĭ
à½Ħà½¦ à½¨
à½Ķà½¦ à½łà½ĩ
à½Ĥà½ĵà½¦ à½ĸ
à½¨ à½ĸà½Ľ
à½ĵà½Ħ à½ĵà½¦
à½łà½Ĳ à½ĳà½ĳ
à¼© à¼£à¼¤
à¼© à¼¦à¼§
à¼¨ à¼¥à¼§
à¾Łà½²à¼ĭ à¼į
à¼ĭà¼´ à¼´
Ġ à½ģà½ĺ
à½¦ à½ĺà½īà½ĵ
à½ĳ à½Ļà½Ħ
à½ĸ à½ĵà½¢
à½ħ à½ħ
à½ĳà½ĸ à½ĺ
à½ħà½ĳ à½¢à½Ħ
à½Ĥà½¦à½£ à½£
à¼¡à¼£ à¼¤à¼£
à¼¨à¼© à¼£
à¼¡à¼¡à¼© à¼¡
à½ķà½Ŀ à½«
à¼ĭ à¾³
à¼ĭ à¾Łà¼ĭ
à½¦ à½łà½ķà½Ĥà½¦
à½¢ à½ĺà½¢
à½ĺ à½ĺà½ĵ
à½Ĥà½¦ à½¢à½Ħ
à¾³ à½¾à¼ĭ
à½ĳà½ĸ à½Ł
à½ħà½ĵ à½Ħ
à½ĺà½ģà½ł à½ĺ
à¼¨ à¼¥à¼¨
Ġà¼¡ à¼¨à¼¢
à¼¡à¼¢ à¼§à¼¤
à¼¡à¼£ à¼©à¼£
à¼¡à¼¨ à¼©à¼§
à¼¡à¼¦ à¼¢à¼¡
à¾Łà¾Ń à¾ĥà¼ĭ
Ġ à½Ħà½£
à½Ķ à½ļà½ĵ
à½´à¼ĭ à½´
à½Ķà½¦ à½ĺà½Ĩ
à½Ĥà½ĵà½¦ à½ĸà½¢
à½Ľ à½ĳà½Ħ
à½£à½Ĥ à½ĳà½Ħ
à¼¨ à¼¥à¼¢
Ġà¼¡ à¼¥à¼¢
à¼¡à¼¢ à¼©à¼¨
à¼¡à¼¡ à¼£à¼¥
à¼¡à¼£ à¼¡à¼§
à¼Ģ à½ģ
à¾» à½ºà¼ĭ
à½±à½¼ à¾ĥà¼į
à½¦ à½Ħà½ł
à½£ à½£à½Ĥ
à½ŀ à½¡
à½ĸà½¦ à½ĺà½ļ
à½¡à½Ħ à½ī
à½ıà½ĵ à½ĳà½Ħ
à¼¨ à¼©à¼¨
à½Ģà½¢ à½¤
Ġà¼¡ à¼¦à¼¦
Ġà¼¡ à¼¦à¼¡
à¼¡à¼¢ à¼¥à¼©
à¼¡à¼¢ à¼£à¼¢
à¼¡à¼¨ à¼¦à¼¥
à¾ļ à½¼à½¾à¼į
à¼¨à¼© à¼¤
à½Ĥà½¦ à½ĩ
à½Ĥà½¦ à½ĺà½ĳ
à¼¨ à¼¤à¼¨
Ġà¼¡ à¼¤à¼¦
à¼¡à¼¡ à¼¨à¼¤
à½ĭ à½ŀ
à½Łà½Ĳ à½¥
2 12
Ġ à½Ħà½ĺ
à½Ĥà½¦ à½Ĥà½ŀà½ĵ
à½Ĥà½¦ à½¢à½ĸ
à½łà½ĸ à½Ģ
à½¨ à½ĺà½ł
à½ĸà½ĳà½Ĥ à½Ģ
à½Ĥà½ĵ à½£
à¼© à¼¤à¼£
à¼© à¼¥à¼¡
à¼¨ à¼§à¼¢
Ġà½£ à½¢
à¼¡à¼£ à¼¤à¼¦
à¼¡à¼¤ à¼¢à¼¦
à¼¡à¼¡à¼© à¼¥
Ġ à½Ĳà½ĳ
Ġ à½ĺà½ĵà½ĵ
à½¼ à½º
à½ĺ à½Ĥà½ŀ
à¾Ł à¾¡à½ºà¼į
à½ģ à½łà½ĳ
à½£à½¦ à½ı
à½ĺà½Ĳ à½ĸ
à¼© à¼¥à¼¤
à¼¡à¼¤ à¼£à¼¢
à¼¡à¼¨ à¼©à¼¨
à¼¨à¼¨ à¼¤
à¼ĭ âĢļ
à½Ĥ à½ĺà½Ľà½ĳ
à½ĸà½¤à½ĳ à½ħ
à½Ĳà½¢ à½ĳ
Ġà¼¡ à¼¤à¼§
à½ĸà½ĺ à½ĺà½Ĩ
à¼¡à¼¢ à¼¦à¼¢
à¼¡à¼£ à¼¢à¼¡
à¼¡à¼¨ à¼¥à¼¦
à½ĵà½Ķ à½ĺ
à½Ĥ à½ĸà½¤à½ĳ
à½Ķà½ł à½£
à½Ķà½ł à½ĺà½ĳ
à½Ķà½¢ à½łà½Ľ
à½ĸà½ħà½¦ à½Ģ
à¼© à¼¦à¼©
à½Ĭ à½ĳ
Ġà¼¡ à¼§à¼©
à¼¡à¼£ à¼§à¼¦
à¼¡à¼¨ à¼¥à¼£
à½Ķà½ĺ à½ĺà½Ĩ
à½ħà½ĳà½ĺ à½Ħ
à½¦ à½Ļà½ĺ
à½ł à½¦à½ĺ
à½´à¼ĭ Â¶
à½Ļ à½¤
à¾Ļ à½¾à¼į
à½ĺà½ļà½ĵ à½ĳà½Ħ
à½ĸà½ŀà½Ĥ à½ĺ
à½Łà½Ĥ à½Ĥ
à¼¡à¼¢ à¼§à¼¨
à¼¡à¼¨ à¼§à¼¦
à¼Ģ à½Ĥà½¦
à½Ķà½¢ à½ī
à½Ħà½¦ à½ł
à¾Łà¼ĭ à½º
à½ĺà½ļà½ĵ à½ĺà½ĺ
à½ĵà½ĺ à½ī
à½ĸà½ŀà½Ĥ à½ĸ
Ġà¼¡ à¼¤à¼¨
à¼¡à¼¦ à¼¡à¼¢
à¼Ģ à½Ģà½¢
Ġà¼ī à¼į
à½ĺ à½łà½Ĥà½Ĥà½¦
à½Ķà½¦ à½¨
à¾±à½´à¼ĭ à¼į
à¼ĭà¼ Ĺ
à¼¡à¼¦ à¼§à¼¨
à¼¡à¼¡à¼© à¼¦
23 5
à½´ à½¼
à½Ķ à½Ŀ
à½£ à½ĺà½Ĳà½¢
à½ĺà½ļà½ĵ à½¢
à¾Ĳà¾± à¼ĭà¼į
à¼© à¼¦à¼¦
Ġà¼¡ à¼£à¼§
à¼¡à¼£ à¼¢à¼£
à¼¡à¼£ à¼¢à¼¨
à¼¡à¼£ à¼£à¼¦
à½« à½Ħ
2 18
à¼ĭ à½±à½²à¼ĭ
à½¦ à½Ĳà½ĺà½¦à½ħà½ĳ
à½² à½¼à¼ĭ
à½Ķ à½ĺà½Ĳà½¢
à½£ à½łà½Ĩ
à½£ à½ļà½ĸ
à½ĳà½Ħ à½ĸà½ĳ
à½ħ à½łà½ĳ
à½ļ à½ī
à½¤ à½¢à½ĸ
à½ĵà½¦ à½ĺà½¦
à½¢à½Ħ à½ł
à½ĳà½Ķ à½ĸ
à½Ĥà½Ħ à½ĳà½Ħ
à½ĸà½ĳà½Ĥ à½ı
à¼© à¼£à¼¨
à½Į à½Ĥ
à¼¡à¼§ à¼¤à¼§
à¼¡à¼§ à¼§à¼¢
à½Ĩà½Ĥ à½ĺ
à¼¡à¼£ à¼¤à¼¤
à¼¡à¼£ à¼¤à¼¨
à¼¡à¼£ à¼£à¼¢
à¼¡à¼£ à¼¦à¼¥
à¼¡à¼¤ à¼¦à¼¦
à¾¡à¾· à½´à¼į
à¾°à½´ à½¾
à¾¼ à½±à¼ĭ
à½ĸ à½ĺà½Ĳà½¢
à½ĸ à½ĸà½ıà½ĸ
à½£ à½īà½ĵ
à¾² à½±à¼į
à½ŀ à½Ķà½¦
à½Ĳ à½ŀ
à½Ķà½¦ à½ħ
à½ĸà½Ģ à½ĸà½¦
à½Ĥà½ŀà½ĵ à½ĳà½Ħ
à½ĳà½Ķà½ł à½Ĳà½ĺà½¦
à½łà½Ħ à½ł
à¼¨ à¼¥à¼£
à½¥ à½Ħà½¥
à½łà½Ľà½ĺ à½ĸ
à¼©à¼¨ à¼§
2 19
2 24
Ġ à½¢à½ĸà½¦
Ġ à½Ĥà½ĳà½ĸ
Ġ à½łà½ĳà½ł
à½ĸ à½ļà½£
à½¢ à½ĺà½ļà½ĵ
à½ĺ à½ĺà½ī
à¾± à¾Ńà¼į
à½ĸà½¢ à½ģ
à½Ħà½¦ à½ļ
à½ĳà½Ķ à½Ĩ
à½Ĥà½ŀà½ĵ à½Ķà½ł
à¼© à¼£à¼¡
à¼© à¼¤à¼¡
à¼¨ à¼§à¼¡
à½īà½ĵ à½Ķ
Ġà¼¡ à¼£à¼¡
à¼¡à¼¢ à¼¤à¼¨
à¾Ľ à½±à½²à¼ĭ
à¾·à¾² à½µà¾ĥà¼ĭ
à¾²à½±à¾Ģ à½¾à¼ĭ
Ġ à½ĺà½Ľà½ł
Ġ à½ĸà½Ģà½£
Ġà¼¡ à¼§à¼¨
à¼¡à¼§ à¼§à¼©
à¼¡à¼¤ à¼¢à¼¤
à¼¡à¼¤ à¼§à¼¢
à¼¡à¼¨ à¼§à¼¥
à¼ĭà¼ŀ à¼ŀ
2 17
à½ĳ à½£à½Ĥ
à½¼ à¼µà¼į
à½Ħ à½ĺà½ĵ
à½´à¼ĭ à½´à¼ĭ
à½´à¼ĭ à¼´à¼į
à½Ģ à½ŀà½ĵ
à½ĸà½¦ à½Ĭ
à½Ĳ à½¡
à½Ķà½¢ à½Ķà½¢
à½Ł à½ĸà½Ł
à½İ à½Ĭ
à¼© à¼¤à¼¦
à½ģà½ĸ à½ĵ
à½¦à½Ħ à½¢
à¼¡à¼¡ à¼¨à¼¦
à¼¡à¼£ à¼¢à¼§
à¼¡à¼£ à¼£à¼¥
à¼¡à¼£ à¼¥à¼£
à¼¡à¼£ à¼©à¼¥
à¼¡à¼£ à¼¨à¼£
à¼¡à¼¦ à¼¤à¼¨
à¾²à½± à¾ĥà¼į
22 1
à½ĸà½¦ à½£à½¦
à½ĸà½¤ à½ĳà½Ħ
à½±à¼ĭ à¼Ĳ
à½ĺà½ĳ à½Ķà½¢
à½ĸà½Ļ à½ĸà½¦
à¼¨ à¼§à¼¤
Ġà¼¡ à¼¦à¼£
à¼¡à¼£ à¼¡à¼¦
à¼¡à¼¥ à¼¦à¼¤
Ġ à½ĺà½īà½ĵ
à½¦ à½ĳà½Ķà½ł
à½ĳ à½¥
à½ĳ à½¦à½¦
à½ĳ à½ŀà½¦
à½¢ à½ĵà½ĵ
à¾±à½²à¼ĭ à¼´à¼į
à½ĳà½Ĥ à½ĺà½Ĳ
à¾²à½¼ à½¼
à½Ĥà½ı à½ĵà½ĺ
à¾Ń à¾ĥà¼ĭ
à½łà½Ĩ à½ĳà½Ķ
à¼¨ à¼¥à¼¤
à¾¤à¾±à½² à½²à¼ĭ
à¼ĭà¼ Ļ
à¼¡à¼£ à¼£à¼¨
à¼¡à¼£ à¼¦à¼¢
à¾ŀ à½±
2 28
à½ĳ à½¦à½ĵ
à½ĵ à½Ĳà½ĸà½¦
à½£ à½ĳà½Ķà½£
à½¡ à½ĳà½Ħ
à½ķ à½ĵà½¦
à½Ķà½¦ à½¦à½Ħà½¦
à¼¡à¼§ à¼©à¼§
à¼¡à¼£ à¼¤à¼¥
à¼¡à¼¤ à¼©à¼¨
à¼¡à¼¦ à¼©à¼¤
à¼Ģ à½¨à½Ĥ
Ġ à½Ĥà½ĺ
à½ĸ à½Ĩà½¦
à½¢ à½ĸà½Ģà½ł
à½Ħ à½ĸà½¦à½ĺ
à½£ à½Ħà½Ĥ
à½ı à½ŀ
à½¡à½Ħ à½łà½Ĥ
à¾²à½² à½¾
à½ĺà½ģ à½ª
à¼¨ à¼©à¼§
à½łà½ļà½£ à½ĳ
Ġà¼¡ à¼¦à¼¥
à¼¡à¼£ à¼©à¼§
à¼¡à¼£ à¼¨à¼¢
à¼¡à¼¦ à¼¡à¼¥
2 29
à½ł à½¤à½ĳ
à½ĸà½¦ à½ĺà½Ĩ
à½ķ à½ī
à½łà½Ľ à½£
à½ĵà½Ĥ à½ĺ
à¼© à¼¤à¼¤
à¼¨ à¼§à¼¥
à¾³à½´à¼ĭ à½²
à½Ŀ à½¤
à¼¡à¼£ à¼§à¼¨
à¼¡à¼¤ à¼£à¼¦
à¼¡à¼¤ à¼¤à¼£
à¼¡à¼¨ à¼¡à¼£
à¼¡à¼¨ à¼¡à¼¨
à¼¡à¼¨ à¼¥à¼©
à¼¡à¼¦ à¼£à¼©
à¾ļ à½´à¼ĭ
à¾ŀ à¾ŀà½±à¼ĭ
2 25
à½£ à½ĳà½ĳ
à½Ĩ à½ī
à¾Ĺ à½´à¼ĭ
à¾Ĵà¾±à¼ĭ à½²
à½Ĳà½ĸà½¦ à½ĵ
à¼¡à¼§ à¼§à¼§
à¼¡à¼§ à¼§à¼¤
à½Ĩà½Ĥ à½Ķ
à¼¡à¼¢ à¼¤à¼¥
à¼¡à¼¦ à¼¡à¼£
à¼©à¼¨ à¼¤
22 2
à¼ Ĺ
à½Ĥ à½Ĥà½Ħà½¦
à½¢ à½¦à½¢
à½Ħ à½Ļà½ĺ
à½Ĩ à½ĳà½ĸ
à½ķ à½ķ
à¾Ķ à½²
à½Ĥà½¦à½£ à½¢
à½łà½Ĳ à½£
à½ĵà½ĺà½¦ à½Ĩ
à½ĳà½ĺà½ĵ à½Ķ
à¾µ à½ºà¼į
à¼¡à¼£ à¼¢à¼©
à¼¡à¼¤ à¼¦à¼¢
à½ĭ à½ĳ
à¼ĭ à¾¤
à½Ĥ à½Ĳà½ĸà½¦
à½Ĥ à½Ĥà½¦à½¢
à½Ħ à½ĳà½Ķ
à½ĺ à½ĺà½ģà½ĵ
à½£ à½ĳà½Ģ
à½Ĩ à½ı
à½ĸà½¦ à½Ł
à½¤ à½ĸà½¦
à½ĸà½ł à½ĵ
à½ĺà½ļà½ĵ à½£
à½ĸà½Ĥ à½ĳà½ĸ
à½ĸà½ĸ à½ĺ
à¼¡à¼¤ à¼§à¼§
à¼¡à¼¥ à¼¤à¼£
à½Ĵ à½¨
à¾¶ à¼į
23 0
Ãĥ à½¦
Ġ à½¼à¼ĭ
à½ĵ à½ŀà½Ĥ
à½Ķ à½£à½ĵ
à½ĺà½¦ à½ĺà½īà½ĺ
à¾Ĺ à½²à¼į
à½ķà½ĵ à½¡
à½ķà½ĵ à½Ķà½ł
à¼¨ à¼§à¼¨
à¼¡à¼¢ à¼¨à¼¢
à¼¡à¼¡ à¼¨à¼¥
à¼¡à¼¤ à¼¤à¼¨
à¼¡à¼¤ à¼¥à¼¢
à¾·à¾£ à½±à¼ĭ
2 23
Ġ à½īà½Ĥ
à½ĳ à½ĵà½ł
à½Ĥ à½ĺà½Ĳà½¢
à½¡à½Ħ à½Ĥà½Ħ
à½Ĥà½ŀ à½£à½ĺ
à½ĳà½ĸà½Ħ à½ĵ
à½Ĳà½ĺà½¦ à½¢
à½Ĥà½ĵ à½ĺà½¦
à½İ à½ģ
à¼¡à¼§ à¼¡à¼£
à¼¡à¼§ à¼¨à¼¨
à¾ķà½ºà¼ĭ à¼į
à¼¡à¼¤ à¼¥à¼£
23 9
2 27
Ġ à¼¢à¼¢à¼¡
à½£ à½ĺà½Ħà½ł
à½ŀ à½ģ
à½ĸà½¦ à½Ķà½¢
à½ĵà½¦ à½ĵà½¦
à½Ł à½¨
à½ĳà½ĸà½Ħ à½ĺ
à¼¨ à¼§à¼£
à½£à½Ĥà½¦ à½¦à½ĺ
à½¢à½¦ à½Ĥà½Ł
à¼¡à¼¥ à¼¡à¼¡
à½ķà½ħ à½¥
à½ĵ à½ĸà½Łà½ł
à½ĵ à½Łà½Ħ
à½Ķà½¢ à½Ģ
à½Ł à½ĳà½ĸ
à½¡à½Ħ à½ķ
à½Ķà½¦ à½łà½ĸ
à½¨ à½ĸà½¢
à½ĸà½¤à½ĳ à½Ł
à½ĺà½Ĥ à½ł
à½ĺà½ģà½ł à½ĳà½Ħ
à½ķà½ĵ à½łà½ĳ
à¼¡à¼£ à¼¥à¼¥
à¼ĭà¼¹ à½¼
à½Ĥ à½łà½ļ
à½Ĥ à½Ĩà½¢
à½´à¼ĭ à¾İ
à½ĸà½ł à½ļ
à½ĺà½Ľ à½ĵ
à½ģà½ĺà½¦ à½ŀ
à½İ à½¡
Ġà½¢ à½Ĥ
à½ķà½Ĭ à½ĸ
à¼¡à¼¤ à¼©à¼¢
à¼¡à¼¤ à¼¨à¼¡
à¼¡à¼¤ à¼©à¼£
à½ĥ à½İ
Ġ à½īà½ĺ
à½ĳ à½łà½Ľ
à½ĸà½ħ à½ĳà½Ķà½ł
à½ĳà½Ĥà½ł à½ĺà½Ĥ
à½ģà½ĺà½¦ à½ĳà½Ħ
à½Ħà½Ĥ à½ĳà½Ħ
à½Ŀ à½ģ
à½ħà½Ħ à½ĺ
à¼¡à¼§ à¼¨à¼©
à¼¡à¼£ à¼¥à¼¢
à½Ĵ à½Ĩ
à¼ĭà¼¹ à¼į
à½² à¾ĥà¼ĭ
à½Ħ à½Ĥà½¤
à½Ķ à½ĵà½ĵ
à½ĸà½¦ à½ĸà½¢
à½ĵà½¦ à½Ł
à½¨ à½Ģà½ł
à½ĳà½Ģ à½Ħ
à½Ķà½ĳ à½ĵ
à½ĸà½ŀà½Ĥ à½ģ
à½Ĳà½¢ à½¦
à½ĸà½ıà½Ĥà½¦ à½Ķ
Ġà¼¡ à¼©à¼§
à¼¡à¼§ à¼¡à¼¢
à¼¡à¼¦ à¼¤à¼¤
à¼¡à¼¦ à¼¦à¼¨
à¼©à¼¨ à¼£
23 1
2 20
Ã ¬
à½¦ à½Łà½¦
à½ĸ à½ĳà½Ķà½£
à½ĵ à½ĸà½Ĥ
à½Ħ à½ĳà½ĸà½Ħ
à½ŀ à½Ĩ
à½ĸà½¦ à½ĳà½Ĥ
à½Ķà½¢ à½ĳà½Ħ
à¾£ à¾²à½²à¼ĭ
à½ĵà½¦ à½łà½ģ
à½ħà½ĳ à½ĺà½Ĳ
à½ĸà½ĳà½Ĥ à½ŀ
à¾³à¼ĭ à½²
à¼¡à¼¤ à¼¦à¼¥
à¾¥ à½±à¼ĭ
23 8
24 1
2 26
à½¢ à½ĺà½Ľ
à½£ à½ĸà½Łà½Ħ
à½Ĩ à½Ĥà½Ħ
à½ĺà½¦ à½Ĳà½ĺà½¦
à¾Ĳ à¾²à½º
à½Ķà½¢ à½ĸà½¦à½ĺà½¦
à½Ĥà½¡à½¦ à½ĵ
à½¡à½Ħà½¦ à½Ħà½¦
à¼¡à¼¤ à¼¦à¼¡
à¼ĭ à¾ĥà¼ĭ
à½ĺ à½łà½ĳà½¦
à¾± à¾¦à¾·à½±à½²
à½¤ à½Ĳ
à½ĵà½¦ à½ĸà½ĳ
à½Ķà½¦ à½ĩ
à¾¦ à½ºà¼į
à½ħà½ĵ à½ī
à½łà½ķ à½¦
à½¨ à½Ĥà½¦
à¾« à½±à½²à¼ĭ
à¼¨ à¼§à¼¦
Ġà¼¡ à¼¥à¼¡
Ġà¼¡ à¼©à¼¥
à¼¡à¼§ à¼£à¼£
Ġà½ĳ à½ĵ
à¼¡à¼¢ à¼¥à¼¤
à¼¡à¼¡ à¼¥à¼¦
à¼¡à¼£ à¼§à¼§
à¼¡à¼£ à¼¨à¼§
à¼¡à¼¤ à¼¢à¼¥
à¼¡à¼¦ à¼£à¼¨
à¼¡à¼¦ à¼¨à¼¡
à¼µ à½¼à¼į
23 7
à½ĳ à½ĳà½Ģà½¢
à½Ĥ à½ĳà½ĺà½¢
à½Ĳ à½ĸà½¢
à¾³ à¾Ģ
à½Ľ à½ķ
à½ħà½ĳ à½¤
à¼¡à¼¤ à¼¥à¼¤
23 3
à½ķà½Ł à½«
Ġ à½Ĥà½¦à½ĵ
à¼ĭ à¾ĥ
à½Ĥ à½ĸà½£
à½¡à½Ħ à½Ĥà½¦
à½¢à½Ħ à½ĺ
à½Ľ à½Ļ
à½ĺà½Ħ à½ĸ
à½ĸà½¤ à½ĳà½Ģ
à½ĸà½ħà½ĳ à½¦
Ġà¼¡ à¼¨à¼©
23 4
à½²à¼ĭà½Ī à½ºà¼ĭ
Ġ à½¤à½ĺ
à½Ĥ à½Ĭ
à½ĸ à½ĸà½ı
à½ł à½Ģà½ł
à½Ķ à½Ķà½ĳ
à¾Łà¼ĭ à¼Ĳ
à½ĳà½ĸà½Ħ à½£
à½ħà½ĳ à½¢à½ĸ
à½Ĥà½Ļà½Ħ à½ĺ
à½ĸà½¦à½£ à½ĸ
à¼¡à¼£ à¼¦à¼¦
à¼¡à¼¤ à¼¥à¼¡
à¼¡à¼¥ à¼¡à¼¨
à¼¡à¼¥ à¼¢à¼¦
à¼¡à¼¦ à¼¢à¼¢
à¼¡à¼¦ à¼¥à¼¤
à¾ĳ à½´à¼ĭ
à½£ à½¤à½¢
à½£ à½ĳà½¦
à¾· à½±à½´à¾ĥà¼ĭ
à½ĸà½Ł à½ĺà½¦
à½ĸà½Ģ à½łà½ĸ
à¼© à¼¢à¼¨
à½¡à½¦ à½Ķ
à¼¡à¼§ à¼¨à¼¢
à¼¡à¼¥ à¼¥à¼¦
à¼¡à¼¥ à¼¤à¼¢
Ġà¼¢à¼¢ à¼¥
à½Ĥ à½łà½¥
à½Ķ à½īà½ĵ
à½¼à¼ĭ à½ºà¼į
à½ĳà½Ħ à½ĺà½ļà½ĵ
à½ĵà½¦ à½ĩ
à½£à½¦ à½ħ
à½¡à½Ħ à½Ĳ
à½łà½ķ à½ĸ
à½ĺà½Ľ à½ĺ
à½±à¼ĭ à¼´
à½ĺà½Ĳà½ł à½¦
à¼© à¼¤à¼¨
à½łà½Ĥà½ł à½ĵ
à½Ĥà½ŀà½Ĥ à½Ĥ
à¼¡à¼§ à¼¤à¼¤
à¼¡à¼¢ à¼£à¼¦
à¼¡à¼¦ à¼¢à¼§
à½ĸà½Łà½ĳ à½¦
Ãĥ à½ĳ
Ãĥ à½¢
Ġ à½ĸà½¤à½Ħ
à¼ĭ à¾¡
à½ĸ à½ĵà½ł
à¾±à½²à¼ĭ à½²à¼ĭ
à½ĵà½¦ à½ħ
à½łà½Ĥ à½Ł
à½£à½¦ à½Ł
à¾²à½º à½º
à½Ĥà½¦à½£ à½ĳ
à½ĳà½Ķà½£ à½ĵ
à½ĺà½ĵ à½Ĩà½ĳ
à½Łà½ĸ à½ĸ
à½ĸà½ıà½ĸ à½ĵà½¦
Ġà¼¡ à¼¨à¼§
à¼¡à¼§ à¼¡à¼©
à¼¡à¼¥ à¼¥à¼§
à¼¡à¼¦ à¼©à¼©
à¾¶ à½¾
à½§à½§ à½§
Ġ à½º
à½Ķ à½ĸà½Ĥ
à¾Ĵ à½¼à¼įà¼ĭ
à¾£ à½±à½²à¼ĭ
à½Ħà½¦ à½łà½ĳ
à½łà½Ĥ à½ŀà½ĵ
à½Ķà½¦ à½ĺà½Ħ
à¼© à¼£à¼¦
à¼¡à¼§ à¼¦à¼¦
à¼¡à¼£ à¼¡à¼¨
à¾ª à½¾à¼ĭ
à½ĳà½Ķà½¢ à½ĵ
à¾·à½² à½¾à¼ĭ
à¾¶ à½±
Ġ à½Ĩà½¦
à½ĳ à½łà½ĺ
à½Ĥ à½Ĳà½Ħ
à½¢ à½ĺà½ļ
à½ĺ à½Ĥà½¦à½£
à½Ĥà½¦ à½ĸà½ħ
à½ī à½¤
à½ĳà½ĸ à½ı
à½Ļ à½Ĩ
à¾¦ à½´à¼į
à½ĳà½Ķ à½ŀ
à½ĸà½ı à½ł
à½Ĥà½¤ à½¦
à½Ĳà½ĸà½¦ à½¢
à¼© à¼¦à¼¤
à½¥ à½ĸ
à½ĵà½ĵ à½¢
Ġà¼¡ à¼§à¼¤
à½ª à½£
à½Ĳà½Ģ à½¡
à½Ķ à½Ĩà½Ĥà½¦
à½ļ à½£à½ĵ
à½ĺà½¦ à½ĸà½¦
à½ī à½ĺà½Ĩ
à½Ķà½¦ à½ĵà½ĺ
à½¦à½¢ à½Ķ
à½ĸà½ıà½ĸ à½ĵ
à½Ķà½łà½ĺ à½ĺ
à½ķà½Ĭ à½§
Ġà¼¡ à¼¥à¼£
à¾ł à½²à¼į
à½© à½ĵ
24 8
à½£ à½ļà½ĵ
à½ºà¼ĭ à½±à¼ĭ
à½Ĩ à½ª
à½ĸà½ł à½ĸà½ł
à½Ĥà½ŀ à½Ĥà½£
à¾¦à¾± à¾±à½²
à¾ľ à¾·à¾±à¼ĭ
Ġà¼¡ à¼¤à¼£
à¼¡à¼¥ à¼¢à¼¤
Ġ à½Ĥà½ħà½ĵ
à½ĺ à½£à½ĵ
à½ł à½¡à½Ħ
à½Ķ à½Łà½ĳ
à½£ à½īà½£
à½Ģ à½ĸà½¢
à¾±à½²à¼ĭ à¾İ
à½¤ à½ģ
à½£à½¦ à½ĸà½Ł
à½ħà½ĵ à½Ĳà½ĺà½¦à½ħà½ĳ
à½ĸà½łà½ĺ à½ĺ
à¼¡à¼¥ à¼¤à¼¦
Ġà½ı à½ĳ
à¾± à½±à½´à¼ĭ
à½Ĳ à½¢à½ĸ
à½Ķà½¦ à½Ĥà½ŀà½ĵ
à¾· à¾Ģà¼ĭ
à½± à½¼à½¾à¼į
à¾¡à½¼ à¼µà¼ĭ
à½ĳà½Ģà½ł à½¦
à¼¡à¼§ à¼¤à¼¡
à¾¤à¾² à¾Ģ
à¼¡à¼¤ à¼¨à¼©
23 2
24 2
à½ĳ à½ĵà½¢
à½Ĥ à½ĸà½Ļ
à½¢ à½Ĥà½¡
à½¢ à½Ĥà½¤
à½¢ à½Ĥà½¦à½Ħ
à½Ķà½ł à½ĩà½ĺ
à½Ĳ à½ĸà½ĸ
à½ļ à½ĵà½ĺ
à½ĵà½¦ à½ĸà½Ł
à¾¡ à¾±à½²à¼ĭ
à½£à½¦ à½łà½Ĥ
à¾²à¼ĭ à¼Ĳ
à½ĺà½Ľ à½ĸ
à½¥ à½ĺ
à½¥ à½¡
à¼¡à¼§ à¼¥à¼©
à¼¡à¼§ à¼¥à¼¤
à½Ĥà½ĺ à½£
à¼¡à¼¤ à¼¢à¼¢
à¼¡à¼¥ à¼§à¼§
à¼¡à¼¨ à¼¦à¼£
à¼¡à¼¨ à¼¨à¼¦
à½ĳ à½£à½ĵ
à½ĵ à½Ķà½łà½ĺ
à½Ķ à½ĳà½Ķà½£
à½ļ à½£à½¦
à½ĵà½¦ à½Ĥà½ŀà½ĵ
à½£à½¦ à½¢à½ĸ
à½ħà½ĵ à½ı
à½ĩ à½Ĥà½¦
à½ĺà½¢ à½£
à½Ħà½ĵ à½łà½Ĥ
à½ıà½ĵ à½ĳ
Ġà¼¡ à¼¦à¼©
à¼¡à¼§ à¼¢à¼¥
Ġà½Ķ à½Ĥà½¦
à¼¡à¼¤ à¼©à¼©
à¼¡à¼¨ à¼¦à¼¦
à¼¡à¼¦ à¼¦à¼£
Ġà½ĵ à½Ķ
Ġà½Ĥà½¡ à½Ĥ
à¼ĭ à½¾à¼į
à½ĸ à½Ĩà½Ĥà½¦
à½ºà¼ĭ à½¾
à½ºà¼ĭ à¼ŀ
à½¡ à½ģà½¦
à½ĳà½Ħ à½ĺà½Ĩ
à½¤ à½Ķà½ł
à½ĸà½¢ à½ıà½£
à¾³à½´ à¼įà¼ĭ
à½±à½´ à½´à½¾à¼ĭ
à½£à½ĵ à½Ĥà½ī
à¼¡à¼§ à¼£à¼¢
à¼¡à¼§ à¼©à¼¨
à¾µ à¾¨à¼ĭ
à¼¡à¼¥ à¼¨à¼©
à¼¡à¼¨ à¼¦à¼§
25 3
à½Ĥ à½łà½Ĩ
à½¢ à½ĵà½ĳ
à½Ģ à½Ĥà½¦
à½Ķà½¢ à½Ĩà½Ĥà½¦
à½ĸà½¢ à½łà½ĸ
à½łà½Ĥ à½ı
à½ĸà½ŀ à½ĸ
à½łà½ĸ à½ı
à½£à½¦ à½ĺà½Ľ
à½Ĥà½ı à½£
à½±à¼ĭ à½º
à½Ŀ à½Ľ
à¾¡à½´à¼ĭ à¼į
Ġà½¢ à½Ĥà½¦
à¼¡à¼§ à¼§à¼¡
à¼¡à¼¤ à¼¦à¼£
à¼¡à¼¥ à¼¥à¼¤
24 5
25 4
25 8
à½¦ à½ĺà½ģà½¦
à½¼ à¼´à¼į
à½Ħ à½ĸà½¤à½ĳ
à½²à¼ĭ à¼įà¼ĭ
à½ļ à½ĸà½ħ
à¾Ĳ à¾Ĺà½º
à½ĳà½Ĥ à½Ĥà½Ħ
à½Ķà½¦ à½Ł
à½Ĥà½Ħ à½£à½¦
à½ĸà½¦à½ĺ à½¢
à½ĵà½ĺ à½ĺà½ģ
à¼¡à¼§ à¼¥à¼¢
à¼¡à¼£ à¼©à¼©
à¼¡à¼¤ à¼©à¼¤
à¼¡à¼¥ à¼¦à¼§
à¼Ģ à½¢à½ı
25 2
à½¦ à½ĳà½Ģà½¢
à½ĳ à½ĳà½Ĥà½ł
à½ĺ à½Ĥà½¡à½¦
à½ł à½Łà½Ħ
à½Ĩ à½ħ
à½Ķà½ł à½¦à½Ħà½¦
à½ī à½£à½¦
à½ĳà½ĸ à½Ĥà½¦
à½łà½ķ à½Į
à½Ĥà½Ļ à½¦
à½¥ à½£
à¼¡à¼§ à¼©à¼¦
à¾µ à½±à½¾à¼ĭ
à¼¡à¼¤ à¼¢à¼£
à¼¡à¼¤ à¼£à¼§
à¼¡à¼¤ à¼©à¼¡
à¼¡à¼¦ à¼£à¼¦
à½ĵà½Ķ à½ĳà½Ħ
à¼´ à¼ĭ
24 4
à½¦ à½Ĥà½ĵà½Ħ
à½ĸ à½Ĥà½ıà½ĵ
à½ĸ à½ĺà½ģà½¦
à¾± à¾Ĳà¾±à½º
à½ł à½£à½ĺ
à½Ĳ à½ĺà½Ĳà½ĺà½¦
à½Ķà½¦ à½ĸà½ĳ
à½łà½ģ à½Ħà½¦
à½Ĥà½Ħ à½ĵà½¦
à½Ĥà½ĵà½¦ à½Ĥ
à½ĳà½ĸà½Ħ à½¢
à½ĺà½ł à½Ĩ
à½Ĳà½ĸà½¦ à½ĳà½Ħ
à½ŀà½£ à½Ĥà½ħ
à¼¡à¼§ à¼¢à¼¢
à¼¡à¼¨ à¼§à¼©
à½ª à½Ĥ
à¾¡à½ºà¼į à¼ĭ
à½ĥ à½¢
24 3
à½Ĥ à½ĺà½īà½ĺ
à½ĸ à½łà½ĳà½¦
à½ĸ à½Ĥà½¦à½Ħ
à½Ķ à½Ĥà½£
à½ºà¼ĭ à½¼à¼ĭ
à½ĸà½¦ à½¢à½Ħ
à½ĸà½ħ à½łà½ĺ
à½¨ à½Ķà½ł
à½§ à½ķ
à½¦à½Ħà½¦ à½¦
à½ĸà½Łà½Ħ à½Ĥ
à¼© à¼£à¼¢
à¼¡à¼§ à¼£à¼¨
à¼¡à¼§ à¼¤à¼¢
à¼¡à¼¡ à¼¨à¼£
à¼¡à¼£ à¼©à¼¨
à½ĭ à½ĭ
23 6
à½Ĥà½¦ à½ĺà½¦
à½Ĥà½¦ à½ĺà½ł
à½¡ à½£à½Ĥ
à½ĸà½ĳà½Ĥ à½¡
à¾Łà½ºà¼ĭ à½²
à½īà½ĺà½¦ à½Ķ
à½Ŀ à½Ħà½¦
à¼¡à¼§ à¼£à¼¤
à½ĺà½ĵà½ĵ à½ĵà½¦
à¼¡à¼¤ à¼¥à¼¥
à¼¡à¼¤ à¼©à¼¦
à¼¡à¼¥ à¼¡à¼¢
à¼¡à¼¨ à¼§à¼¡
à¼¡à¼¦ à¼¤à¼£
Ġà¼¢ à¼¡à¼¨
à¾Ľ à½²à¼į
à¾¦à¾· à¾°à¼ĭ
à½Ĵà½ĵ à½¥
à½¢ à½Ģà½¢
à½Ģ à½ĵà½ł
à½Ķà½ł à½ĸà½ł
à¾Ĵà¾± à¼µà¼ĭ
à½ĵà½¦ à½Ĥà½ĵà½¦
à½Ł à½Ĥà½¢
à¾±à½¼ à½¼
à½£à½ĺ à½łà½ĳ
à½¦à½ĺ à½ŀ
à¼¡à¼§ à¼¡à¼¦
à¼¡à¼¤ à¼¦à¼¨
à¼¡à¼¥ à¼¢à¼¥
24 0
26 7
Ġ à½Ĥà½ł
Ġ à½ĸà½Ģà½Ĥ
Ġ à½¤à½ĵ
à¼ĭ à¾£à¼ĭ
à½ĺ à½Ķà½£
à½Ķ à½ĺà½¢
à½Ķ à½Ļà½ĵ
à½ĳà½Ħ à½łà½ĩ
à½ķ à½¤
à¾Ĵà¾± à¼įà¼ĭ
à½ĸà½ł à½ķà½Ĥà½¦
à½ĳà½ĸ à½Ļ
à½Ĭ à½Ļ
à¼¡à¼¦ à¼¤à¼§
à¾Ľ à½¼à¼ĭ
à¾¡à¾· à½¼à¼į
25 1
à½¢ à½Ĳà½¢
à½ĵ à½īà½ĵ
à½ĺà½¦ à½ķ
à½¤ à½Ł
à½ĳà½Ĥ à½£à½ĺ
à¾¡ à¾±à¼ĭ
à½łà½Ĥ à½łà½Ħ
à¾© à¾¡à½¼
à½ħà½ĵ à½łà½ĳ
à¾Ĳà½´ à½´
à½ĺà½Ĳà½ł à½£
à½ĵà½ĳ à½£
à½ķà½Ĭ à½¢
à¼¡à¼§ à¼¥à¼¨
à¼¡à¼¤ à¼¥à¼¦
à¼¡à¼¤ à¼§à¼©
à¼¡à¼¨ à¼¦à¼¤
à¼¡à¼¦ à¼¦à¼§
24 7
â Ī
Ġ à½ģà½ł
à¼ĭ à¾Ĵ
à½¢ à½ĳà½¦
à½Ģ à½ķ
à½Ĳ à½ħ
à½ĺà½¦ à½Ĳ
à½Ķà½¢ à½Ĥà½¡
à½Ł à½ĳà½Ĥ
à½Ļ à½¥
à½Ļà½ĺ à½¢
à½ĺà½Ĥ à½Ĥ
à½£à½ĵ à½¢
à½ĳà½Ĥà½Ĥ à½ĸ
à½¥ à½Ħ
à¼¡à¼¦ à¼£à¼¥
à¼¡à¼¦ à¼¨à¼§
à¾ª à½²à½¾à¼ĭ
âĪ ¶
Ġ à½Ķà½łà½Ħ
à½¦ à½ĸà½£
à½Ħ à½ĸà½£
à½ĺ à½ĸà½¦à½ĺ
à½Ķ à½Łà½ĸ
à½Ĥà½¦ à½ĵà½ĳ
à¾²à½¼ à½¼à¼ĭ
à½Ĥà½ı à½¦
à½±à½´à¼ĭ à¼į
à¾²à½±à½²à¼ĭ à¼į
à¼¡à¼¤ à¼¦à¼§
à¼¡à¼¤ à¼¨à¼¥
à¼¡à¼¨ à¼¤à¼¦
25 6
à¼ŀà¼ŀ à¼ŀ
Ġ à½ķà½ĺ
à¾ ¸
à½¦ à½ĸà½Łà½Ħ
à½Ĥ à½ĺà½ģà½ł
à¾± à¼µà¼ĭ
à½ħ à½ĳà½Ĥà½ħ
à½łà½ĳ à½ŀ
à½ĸà½¢ à½ĺà½Ľ
à½ĸà½Ł à½ĳà½Ķ
à½ĵà½ĺ à½Ħà½¦
à½ĳà½Ģà½ł à½ĺ
à½ĳà½Ģà½ł à½ŀ
à¼¡à¼¤ à¼¤à¼¢
à¼¡à¼¥ à¼£à¼£
à¼¡à¼¦ à¼¤à¼¦
Ġ à½ģà½Ĥ
Ġ à½Łà½Ħ
à½ĳ à½ļà½ĳ
à½¢ à½ĸà½ŀà½Ĥ
à½Ħ à½ĸà½ħà½¦
à½ĺ à½¡à½ĵ
à½¼à¼ĭ à½¾à¼į
à½ĺà½¦ à½¢à½Ħ
à½ī à½Ĥà½¦
à½Ł à½«
à½ĳà½ĸ à½Łà½Ħ
à½ħà½ĳ à½ł
à½Ĥà½ĳ à½Ķà½ł
à½ĺà½ģà½¦ à½Ķà½ł
à½łà½ĺ à½£
à½ĸà½ĸ à½Ħ
à¼¡à¼§ à¼¤à¼¦
à¼¡à¼§ à¼¤à¼©
à¼¡à¼¤ à¼¦à¼¤
à½¦ à½ģà½ĺà½¦
à½Ħ à½Ŀ
à½ĺ à½£à½Ĥ
à½Ķ à½Ĥà½ĵ
à½ĳà½Ħ à½Ĥà½Ħ
à½Ĥà½Ħ à½Ħ
à½ĸà½ĳà½Ĥ à½ł
à½Ĥà½Ļ à½ĸà½¦
à½Ĩà½ĳ à½Ķà½¢
à½£à½ĵ à½ĺà½Ħ
à½Ĳà½£ à½ĸà½¢
à¾Łà½´ à½¾à¼ĭ
à½Łà½¦ à½Ģ
Ġà¼¡ à¼¨à¼¡
à¼¡à¼§ à¼¤à¼¨
à¼¡à¼¦ à¼£à¼¡
à¾¡à¾· à½¾
à½ĳ à½Łà½¦
à½¢ à½ļà½ĳ
à¾Ł à¾±à½±à¼ĭ
à¾±à½² à½º
à¾Ĳ à¾Ĳà¼ĭ
à½Ħà½¦ à½ĺà½¦
à½Ľ à½¡à½ĵ
à½Ĥà½Ļ à½£
à½ķà½£ à½Ĳ
à¼¡à¼¨ à¼¢à¼£
à¼¡à¼¨ à¼©à¼¤
à¾ļ à½¼
Ġ à½łà½ĸà½ĸ
à½¦ à½ĺà½ĵà½ĵ
à½ĸ à½īà½ĵ
à½£ à½Ħà½ĵ
à½ĺà½¦ à½¦à½ĺ
à½ĵà½¦ à½ĳà½ĸ
à¾¡ à¾²à½ºà¼ĭ
à½£à½¦ à½¡à½Ħ
à½ĺà½Ĳà½ł à½¢
à¾ķ à½´à¼ĭ
à¼¡à¼¤ à¼©à¼¥
à¼¡à¼¨ à¼©à¼¦
à¼¡à¼¦ à¼§à¼¦
Ġà¼¢ à¼¡à¼§
à½Ķ à½£à½Ĥ
à½Ĩ à½ĺà½Ĳ
à½ļ à½Ļ
à½£à½ĺ à½ŀ
à¾ľ à½±à½´à¼ĭ
à¼¡à¼¤ à¼¨à¼¦
à¼¡à¼¥ à¼¢à¼©
à¼¡à¼¥ à¼¦à¼¨
à¼¡à¼¨ à¼¨à¼¢
Ġà¼¢ à¼¤à¼¢
Ġà¼´ à¼´
Ġ à½łà½Ĳà½ĳ
à½¦ à½ŀà½ĵ
à½¼ à½±à½¾à¼ĭ
à½ģ à½£à½¦
à¾Ĵà¾± à¼µ
à½Ķà½¦ à½ĺà½Ĳ
à½ĳà½ĺ à½ĸ
à½ĸà½ĳ à½Ģà½¢
à½ĳà½Ķà½£ à½Ĩ
à½Ĳà½£ à½łà½ĳ
Ġà¼¡ à¼¨à¼¤
à¼¡à¼§ à¼¨à¼¦
à½¡à½Ħà½¦ à½¦
à¾·à¾² à½±à½´à½¾à¼į
24 6
26 3
à¼ĭ à¾Ķ
à½Ĥ à½ĺà½ģ
à½Ĥ à½ļà½ĵ
à½Ķ à½Į
à½ħ à½¡
à¾Ļ à½¼à¼ĭà¼į
à½ĸà½ĳà½Ĥ à½ĸ
à½łà½Ĩ à½ĳà½ĳ
à½£à½Ĥà½¦ à½ĳ
à½ĳà½¢ à½ĺ
à½ĸà½Ľ à½Ģ
à½Į à½ļ
à¼¡à¼§ à¼£à¼¥
à¼¡à¼¤ à¼¥à¼§
à¼¡à¼¤ à¼©à¼§
à¼¡à¼¥ à¼¢à¼¡
à¼¡à¼¨ à¼¢à¼§
25 9
à¼Ŀà¼Ŀ à¼Ŀ
Ġ à½ħà½Ħ
à½¦ à½Ĩà½Ĥà½¦
à½ĸ à½¡à½ĵ
à½¼ à½²à¼ĭ
à½Ĥà½¦ à½¡à½Ħ
à½Ĥà½¦ à½ª
à½¡ à½£à½¦
à½Ĩ à½ĺà½īà½ĺ
à½¤ à½ī
à½ĵà½¦ à½£à½¦
à½¡à½Ħ à½ĺà½Ħ
à½Ķà½¦ à½ı
à½ħà½ĳ à½łà½ĳ
à½Ĥà½ıà½ĵ à½ĵ
Ġà½Ķ à½ī
à¼¡à¼¥ à¼£à¼¦
à¼¡à¼¥ à¼£à¼§
à¼£à¼¨ à¼¦à¼¢
à½© à½ĺ
25 0
28 1
à½Ħ à½¤à½¦
à½£ à½Ĳà½ĸà½¦
à½Ķà½¢ à½ı
à½Ķà½¢ à½ĳà½Ĥà½ł
à½ĵà½¦ à½ĺà½Ħ
à¾¡ à½±à½²à¼ĭ
à½Ļ à½ħ
à½Ĥà½ĵà½¦ à½ı
à½ĺà½ģ à½ĺà½¦
à½ĸà½Ĥ à½Ħà½¦
à½ĳà½Ģà½¢ à½ĺ
à½Ķà½łà½Ħ à½ĺ
Ġà¼¡ à¼©à¼¡
à¼¡à¼§ à¼¨à¼¡
à¾¤à¾²à½¼à¼ĭ à¼į
à¼¡à¼¨ à¼¨à¼£
à½ĭ à½ĺ
à¾º à½±
27 0
à½¦ à½ĵà½Ĥ
à½¦ à½ŀà½£
à½¦ à½Łà½ĸ
à½ĵ à½ĸà½Ļ
à½ĵ à½ĵà½ĺà½¦
à½Ħ à½łà½ķ
à½Ķ à½ħà½ĳ
à½Ķ à½Ħà½Ĥ
à¾² à¾¡à½¼à¼ĭ
à½Ł à½¡
à¾±à½ºà¼ĭ à½²
à½İ à½¥
à¼© à¼¤à¼¢
à½¤à½¢ à½ĵ
à½ĸà½ĵ à½ĸà½¦
à¼¡à¼¤ à¼¥à¼©
à¼¡à¼¥ à¼©à¼¦
Ġà¼¢ à¼¡à¼£
24 9
Ġ à½łà½Ĥà½Ĥà½¦
à½¦ à½¥
à½ĵ à½¢à½£
à½£ à½£à½¢
à½ĳà½Ħ à½łà½Ĥ
à½ħ à½ı
à½Ķà½¢ à½łà½ļà½£
à½ĺà½Ĳ à½łà½Ĥà½ī
à½Ĭ à½Ħ
à½£à½Ĥà½¦ à½ŀ
à½ĳà½¢ à½¦
Ġà¼¡ à¼¨à¼¨
Ġà½£ à½ĸ
à¼¡à¼¥ à¼¡à¼©
à¼¡à¼¨ à¼¥à¼¨
à¼¡à¼¦ à¼§à¼¤
26 4
à½º à¾ĥà¼ĭ
à¾² à¼´
à½¡ à½ĳà½ĵ
à½Ķà½ł à½ĺà½¢
à½ĸà½¢ à½ĺà½Ĳ
à½¡à½Ħ à½ħ
à½łà½ĩ à½łà½ļ
à½Ĥà½ĵà½¦ à½ĺà½£
à½īà½ĺà½¦ à½ĺ
à½Ĥà½¡à½¦ à½¦
à¾¦à¼ĭ à¼´
à¾ľ à¾·à¼ĭ
Ġà¼¡ à¼§à¼£
à¼¡à¼§ à¼¥à¼¥
à¼¡à¼§ à¼©à¼¥
à¼¡à¼§ à¼¨à¼§
à¼¡à¼¤ à¼¨à¼¢
à¼¡à¼¥ à¼©à¼¥
à¼¡à¼¨ à¼£à¼¨
à¼¡à¼¨ à¼§à¼£
à¼¡à¼¨ à¼¨à¼§
à½Ħ à½Ģà½ł
à½ĺ à½ŀà½ĵ
à½ĳà½Ĥ à½ĺà½Ħ
à½ĸà½¢ à½łà½ĩ
à½Ħà½¦ à½ī
à½Ļ à½ĵà½ĳà½ĵ
à½ĳà½Ĥà½ł à½ĸà½¦
à½ĺà½Ĳà½¢ à½ĺ
à½Ŀ à½Ŀ
à½Łà½¦ à½ĺ
à¼¡à¼§ à¼§à¼¦
à¼¡à¼¦ à¼¡à¼¡
à¼¡à¼¦ à¼§à¼§
à¼¡à¼¦ à¼§à¼¢
à¼¡à¼¦ à¼©à¼¥
Ġà¼¢ à¼¦à¼¦
Ġà¼Ĳ à¼Ĳ
26 0
26 6
26 8
à¼ĭ à¾²à½²
à½Ĥ à½ª
à½£ à½ļà½Ħà½¦
à½£ à½Ĭà½ł
à½Ģ à½łà½Ĥ
à¾Ļ à½¾
à½łà½Ľ à½ĺà½¦
à½¨ à½Ĭà½ł
à½ĸà½¤à½ĳ à½Ķà½¦
à¾¤à¾± à¼į
à½ĺà½Ĳà½¢ à½ķ
à½ĵà½ĵ à½ıà½ĵ
à½ĸà½ĸà½¦ à½£
à½Į à½¥
à¼¡à¼§ à¼§à¼¥
à¼¡à¼£ à¼¨à¼¤
à¼¡à¼¥ à¼¤à¼¥
25 5
Ġ à½¤à½¦
Ġ à½ĵà½¢
à½Ĥ à½ļà½Ħ
à¾± à¾¡à½º
à¾± à¼µà½²à¼ĭ
à½Ķ à½Ĥà½Ļ
à½ºà¼ĭ à¼ı
à½Ģ à½ĺà½¦
à½ŀ à½ĳà½Ħ
à½Ĳ à½Ĥà½¢
à½ĸà½¢ à½Ķ
à½£à½¦ à½ĸà½ħ
à¾¦ à¾¦
à½łà½ĳà½¦ à½ŀ
Ġà¼¡ à¼¨à¼¥
à¼¡à¼§ à¼£à¼©
à¼¡à¼¤ à¼¨à¼¨
à¼¡à¼¥ à¼§à¼¢
à¼¡à¼¥ à¼©à¼¤
à¼¡à¼¨ à¼¡à¼¥
à¼¡à¼¨ à¼¤à¼¢
à¼¡à¼¨ à¼¨à¼¥
Ġà¼¢ à¼¦à¼¢
à¾ł à½´à¼ĭ
à¼ŀ à¼ĭ
à¼ĭà½¼à¼ĭ à½º
26 9
à½¦ à½ŀà½ĸà½¦
à½ĵ à½ĸà½ħà½¦
à½´ à¾ĥà¼į
à½²à¼ĭ à¼Ŀ
à½ħ à½Ĥà½ĵ
à½ī à½ı
à¾£ à¼µ
à½¡à½Ħ à½ģ
à½Ķà½¦ à½ĺà½¦
à½Ķà½¦ à½Ĥà½Ł
à¾Ĳà¾±à½º à¼įà¼ĭ
à½ĺà½Ĩ à½ĸ
à½§ à½Ĥà½¦
à½łà½ĳà½¦ à½ĸ
à½Ĩà½Ĥà½¦ à½ĵ
à½Ĥà½¢ à½£
à½ĳà½Ĥà½Ĥ à½ĳà½Ħ
à½Į à½Ķ
à½¦à½¦ à½ĵ
26 1
à¾Ĵà¾· à¾ĥà¼ĭ
Ġ à½łà½Ĳà½ĸ
à½ĳ à½ĵà½łà½Ħ
à½Ħ à½Ģà½¢
à½£ à½ĺà½ģà½ł
à¾² à¼µ
à¾Ł à¾Ńà¼į
à½ļ à½ķ
à½ĸà½¢ à½Ĩ
à½ĸà½ł à½Ĥà½ł
à½ĺà½Ħ à½łà½ĺ
à½¢à½ĸ à½Ļ
à½ĺà½ģà½ł à½¦
à¼¡à¼¦ à¼©à¼¢
½ ¶
à ½¶
à½Ĥ à½ĸà½ħà½¦
à½ĵ à½ĳà½Ķà½ł
à½ĵ à½łà½ĩà½ĺ
à½Ħ à½¤à½¢
à½ĺ à½ħà½ĳ
à¾³ à¼įà¼ĭ
à½Ļ à½ģ
à½Ĥà½Ħ à½£à½Ĥà½¦
à½ĺà½ģ à½Ħ
à½§ à½¤
à½ĺà½Ľ à½ĳà½Ħ
à½£à½ĺ à½Ģ
à½Ĳà½£ à½£
à½ĳà½Ĥà½Ĥ à½¢à½Ħ
à¼¡à¼§ à¼¢à¼¦
à¼¡à¼¥ à¼¢à¼¢
à¼¡à¼¦ à¼¥à¼¡
Â ¨
à½Ĥ à½ĳà½ĺà½Ĥ
à½¢ à½ĳà½Ģà½¢
à½Ĥà½¦ à½ĳà½ĸà½Ħ
à½¡ à½łà½ĳ
à½¡ à½ĸà½Ģ
à½ĺà½¦ à½ĸà½ŀ
à½Ķà½¢ à½łà½ģ
à½ĺà½¢ à½¢
à½ĳà½¢ à½ĳ
à½łà½ĩà½ĺ à½ĺà½Ĥ
à¼¡à¼§ à¼©à¼©
à¼¡à¼¥ à¼£à¼¨
à¼¡à¼¥ à¼¤à¼¨
à¼¡à¼¥ à¼¥à¼¢
à¼¡à¼¥ à¼©à¼¢
à¼¡à¼¨ à¼¤à¼¥
Ġà¼¢à¼¢ à¼¨
25 7
28 0
Ġ à½ĭ
à½ĳ à½¦à½¢
à½Ĥ à½ķà½ĵ
à½ĵ à½łà½Ĥà½£
à¾Ł à¾¡à½º
à½Ĩ à½ģ
à½Ĩ à½Ĥà½¤
à½ļ à½Ĩ
à½£à½¦ à½łà½ģ
à½£à½¦ à½łà½ĳà½ł
à½Ĥà½ĵà½¦ à½¡
à½ĵà½ĺ à½¡à½Ħ
à½ĵà½ĳ à½ł
à½ĵà½ĵ à½ł
Ġà¼¡ à¼©à¼£
à½ĸà½ĵ à½ĸ
à½ĵà½Ĥà½¦ à½ļà½£
à¼¡à¼¦ à¼£à¼£
27 1
28 7
Ġ à½ĺà½ĳà½Ħà½¦
à½ĳà½Ħ à½ĸà½ŀ
à½ļ à½ŀ
à½ĳà½Ĥ à½ĳà½Ĥ
à½ĳà½Ĥ à½¢à½Ħ
à½Ħà½¦ à½¡à½Ħ
à½¡à½Ħ à½¢à½Ħ
à½¨ à½Ł
à½ĵà½ĺ à½ĸ
à¼¡à¼¥ à¼¡à¼£
à¼¡à¼¥ à¼¨à¼¨
à¼¡à¼¨ à¼¤à¼¡
à¼¡à¼¦ à¼£à¼§
à¼¡à¼¦ à¼¥à¼¨
Ġà¼¢ à¼£à¼¤
à¾ŀ à¼ĭà¼į
26 2
à¾·à¾²à¼ĭ à½µà¾ĥà¼ĭ
à½łà½Ļ à½ĺ
Ġ à½łà½ĳà½ĺ
à¼ĭ à¾Ģ
à½ĳ à½Ĭ
à½Ķ à½ĺà½ģà½¦
à¾Ĵ à¼ĭà¼į
à½ĵà½¦ à½Ĥà½Ħ
à½ĳà½ĺ à½ĸà½ħà½ł
à½¨ à½ĳà½Ģà½¢
à½ħà½ĳ à½ħ
à¾« à¾«à¼ĭ
à½Ĥà½Ļ à½¢
à¼¡à¼¥ à¼¤à¼¡
à¼¡à¼¨ à¼¨à¼©
à¼¡à¼¦ à¼¤à¼©
à¼£à¼¨ à¼¦à¼¡
à½ĭ à½£à½¦
Ã ĵ
à½Ĥ à½ģà½Ħ
à½ĸ à½ĸà½Ļ
à½ĸ à½Ķà½ĳ
à½Ħ à½ĺà½ļà½ĵ
à½Ķà½ł à½Ĩà½¢
à½¤ à½ĵà½¦
à½łà½Ĥ à½łà½ĺ
à½£à½¦ à½ĸà½ĳ
à¾²à½² à½²
à½ĸà½¦à½ĺ à½Ķà½ł
à½Ħà½ĵ à½ĺà½¦
à½ĺà½ģà½¦ à½Ķà½¦
à¼¡à¼§ à¼¡à¼¥
à¼¡à¼§ à¼¦à¼©
à½łà½Ĥà½Ĥ à½Ķ
à¼¡à¼¨ à¼¡à¼©
à¼¡à¼¦ à¼¥à¼¥
à½Ĵ à½ħ
Ġà½¨ à½ĵ
à¼©à¼§ à¼¦à¼¥
26 5
à¾¨à¾¼à¾» à½´à½¾à¼ĭ
à½¢ à½Ĳà½£
à½£ à½ĳà½Ģà½¢
à½ºà¼ĭ à½ºà¼ĭà½º
à½Ĳ à½łà½ĺ
à½Ĳ à½ĸà½ĺ
à½ī à½ĺà½Ħ
à¾¡ à½¾à¼ĭ
à½īà½ĵ à½¢à½Ħ
à¼¡à¼§ à¼¥à¼¦
à¼¡à¼§ à¼¦à¼¡
à¼¡à¼£ à¼©à¼¤
à¼¡à¼¨ à¼£à¼§
à¼¡à¼¦ à¼¦à¼¡
à½Ĺ à½ģà½Ł
à¾·à½± à½´à¼į
Ġ à½ĸà½Ļà½£
à¼ĭ à¾Ĳà¼ĭ
à½¦ à½Ĥà½£
à½ĵ à½ħà½ĳ
à½´ à½ºà¼ĭ
à½ĺ à½Ĥà½ŀà½Ĥ
à½Ķ à½Ĥà½¤
à½Ķ à½¤à½¢
à½£ à½ģà½ĺà½¦
à½£ à½Ĥà½ħà½ĵ
à½Ģ à½£à½¦
à½Ķà½¦ à½¢à½ĸ
à½Ļ à½ī
à¼¡à¼§ à¼£à¼¦
à¼¡à¼§ à¼¥à¼£
à¼¡à¼¨ à¼¥à¼¤
à¼¡à¼¦ à¼¢à¼¦
à¼¡à¼¦ à¼§à¼£
à¼ĭà½²à¼ĭ à½¼
à½© à½Ģ
à½© à½ı
à¾°à½´ à½¾à¼į
à½ģà½ģ à½ģ
à½¦ à½Ĥà½¤
à½Ĥ à½«
à½Ķ à½ļà½Ħà½¦
à½Ĥà½¦ à½ĵà½ĺ
à¾Ĵ à½±à¼į
à½Ķà½ł à½ĺà½Ĩ
à½ĳà½Ħ à½Ķà½ł
à½ĳà½Ħ à½łà½Ĥà½£
à½Ĳ à½ĵà½¦
à½ĺà½¦ à½Ĥà½Ħ
à¾Łà½¼ à½¼
à½Ļ à½§
à½Ĥà½ĵà½¦ à½ļ
à½ĸà½Ł à½łà½ĸà½¢
à½Ĥà½ı à½ĵà½¦
à½£à½ĺ à½¡
à¾²à½²à¼ĭ à½²
à¾¤à¾± à¾Ģ
à½ŀà½ĸà½¦ à½Ģ
à½łà½ĩà½ĺ à½ĳà½ĸ
à½Į à½Ĩ
à¼¡à¼¦ à¼¡à¼©
à¾¥ à¼į
à¾ļ à¾²à½±à¼ĭ
à¼ĭà¾¢ à½´à¼ĭ
à½Ģ à½¡à½Ħ
à½ĸà½¦ à½Ĥà½ĵà½¦
à½ĸà½¦ à½ĺà½Ĳà½ł
à½ħ à½¤
à¾±à½´ à½¾à¼ĭ
à½łà½ģ à½ĺ
à¾Łà½º à½º
à½Ľ à½ĳà½Ĥ
à¾Ĺà½º à¼´
à½£à½ĺ à½¤
à½Ĩà½ĳ à½ĵ
à¾¤à¾² à½ºà¼į
Ġà½Ķ à½£
à¼ĭà¼ »
à¼¡à¼¦ à¼£à¼¤
27 3
à½¦ à½ĸà½ħà½¦
à½Ĥ à½ĺà½ĩ
à½¢ à½ĺà½Ĳà½ł
à½¢ à½¢à½¦
à½ĺ à½ĸà½Ģ
à½ł à½Ħà½Ĥ
à½ķ à½¢à½£
à½Ķà½¢ à½¢à½Ħ
à½Ł à½¤
à¾¤ à½±à½´à¼ĭ
à½¢à½Ħ à½Ĥà½ŀà½ĵ
à½ĳà½Ķ à½ī
à½¨ à½ĵà½ĳ
à¾ľ à¼ĭà¼į
à½ĵà½ĵ à½łà½Ħ
à¼¡à¼§ à¼§à¼£
à¼¡à¼¤ à¼§à¼¡
à¼¡à¼¥ à¼¦à¼©
à¼¡à¼¦ à¼¨à¼¨
à¼¡à¼¦ à¼¨à¼¥
à¾ļ à½ºà¼į
à¾·à¾² à½µà½¾à¼ĭ
Ġà¼¢à¼¢ à¼¦
à½Ĥ à½łà½Ĳ
à½Ĥ à½ĺà½ļà½ĺà½¦
à½¢ à½ĳà½ĳ
à½ĵ à½Ĥà½¦à½ĵ
à½Ķ à½ĸà½Ģà½ł
à½¡ à½ıà½ł
à½Ļ à½¨
à½łà½ģ à½ĳ
à½Ĥà½ŀà½ĵ à½ĵà½¦
à½ĸà½ħà½¦ à½ĺ
à¾ķ à½²à¼ĭà¼į
à½Ĭ à½Ĥ
à½Ŀ à½Ĭ
à½łà½ĺ à½ħ
à¼¡à¼¥ à¼§à¼¨
à¼¡à¼¥ à¼¦à¼¡
Ġà¼£ à¼¤à¼¥
à½Ĺ à½Ŀ
à½Ĺ à½Ĳà½Ħ
à¾ł à½±à½²à¼ĭ
à½ĳ à½ĺà½Ĳà½¢
à½ĸ à½īà½ĺ
à½ĵ à½ĺà½ģà½ĵ
à½Ħ à½ĸà½Łà½Ħ
à½ŀ à½£à½Ĥ
à½Ł à½Ĥà½£
à½Ķà½¦ à½Ĥà½Ħ
à¾²à½² à½¾à¼į
à½¢à½Ħ à½ĺà½ļà½ĵ
à¾Ĺà½ºà¼ĭ à¼´
à¾Ĺà½º à½ºà¼ĭ
à½łà½ļ à½£à½¦
à½ļà½ĳ à½£
à½Ĥà½ĵà½Ħ à½ĸ
à¼¡à¼§ à¼©à¼¤
à¼¡à¼¤ à¼¥à¼¨
à¼¡à¼¨ à¼¥à¼§
à¼¡à¼¦ à¼¢à¼¤
à¾ł à½±à¼į
à¾±à½± à½ºà¼ĭ
à¾·à¾£ à½¾à¼ĭ
27 4
à½¦ à½ĺà½ģà½ĵ
à½Ĥ à½łà½ĳà½¦
à½ł à½ĺà½ĵ
à¾Ł à¾±à½¼
à½ĳà½Ħ à½łà½ģ
à½ĺà½¦ à½Ĥà½¦
à½ı à½ħ
à½ĸà½¢ à½Ģ
à¾¤ à¾¡à½¼
à¾Ĺ à¼į
à½ħà½ĳ à½ļ
à½ĳà½Ģ à½¢à½ĸ
à½ĺà½Ľ à½ĳà½Ģ
à½İ à½ŀ
à½Ĭ à½ĸ
à½Ĥà½¡à½¦ à½Ķ
à½Ĥà½ŀà½Ĥ à½Ķà½¢
à½Ĥà½Ħà½¦ à½¢
Ġà¼¡ à¼¨à¼£
à¼¡à¼¦ à¼¦à¼¤
27 5
27 6
Ġ à½Ĥà½ıà½¢
à½Ĥ à½ĸà½Łà½Ħ
à½¢ à½ĺà½ĵ
à½Ħ à½ĸà½Ģ
à½²à¼ĭ à¼ı
à½£ à½Ĥà½ĳà½ĺà½¦
à½ģ à½łà½ĸ
à½ļ à½¨
à½ĳà½Ĥ à½łà½Ĥ
à½Ł à½ħ
à½ĸà½ŀ à½Ķ
à½ħà½ĳ à½¦à½Ħà½¦
à¾Ĵà¾² à¼įà¼ĭ
à½ĵà½ĺà½¦ à½ĺà½Ħ
à½ļà½ĵ à½ĵ
à½Ĥà½ŀà½Ĥ à½ĸ
à½ĸà½¦à½ĺà½¦ à½ĺ
à¼¡à¼§ à¼¤à¼¥
à¼¡à¼¥ à¼§à¼£
à¼¡à¼¨ à¼¤à¼©
à¼¡à¼¦ à¼¢à¼¥
à½Ĺ à½ĵà½Ł
à½Ķà½ĺ à½¡
à½¦ à½£à½Ĥ
à½Ķ à½ĵà½Ĥ
à½Ķ à½¡à½ĵ
à½Ķà½ł à½Ĥà½ł
à½ī à½¡
à½Ł à½Ļà½¢
à¾±à¼ĭ à½º
à¾Łà½º à½ºà¼ĭ
à½Ľ à½łà½ĺ
à½Ĳà½ĺà½¦ à½¦
à½£à½ĺ à½ĺà½Ĳ
à½ķà½ĵ à½Ķà½¢
à½Ĭ à½ı
à½ĸà½¦à½ĺà½¦ à½Ķ
à¼¡à¼¨ à¼¡à¼¡
27 9
à½¢ à½łà½ĳà½¦
à½¡ à½Ł
à½Ķà½ł à½¤
à½ļ à½Ķà½ł
à½ĺà½¦ à½Ł
à½ĸà½ı à½¦
à½ĺà½Ĥ à½Ļ
à½Ĩà½Ĥà½¦ à½ŀ
à½Ĩà½Ĥà½¦ à½Ķà½ł
à½Ĥà½¢ à½ĺ
à¼¡à¼¤ à¼¨à¼¤
27 7
28 6
Ãĥ à½ĸ
à¿ Ĭ
à¼ĭ à¾Ĳ
à½ĳ à½ŀà½ĵ
à½ĸ à½ĸà½¤
à½ĸ à½Ħà½Ħ
à½Ĥà½¦ à½ŀà½¦
à½¡ à½ļà½ĵ
à½ŀ à½ļ
à½Ķà½¢ à½ĳà½ĸ
à½Ł à½¦à½¢
à½¡à½Ħ à½ĸà½¢
à½± à½¼à½¾
à½ĺà½Ĳ à½łà½ĳ
à½ħà½ĵ à½Ĥà½ŀà½ĵ
à½¨ à½łà½ĺ
à½ĸà½¤ à½ĳà½Ĥ
à¾²à½²à¼ĭ à¼´
à½ĸà½¦à½ĺ à½ĵ
à½ĸà½Łà½Ħ à½ĸ
à½Ĥà½ıà½ĵ à½¢
à½łà½Ĳà½ĳ à½Ķà½¢
à¼¡à¼§ à¼¦à¼§
à½ĳà½£ à½ĸ
à¼¡à¼¥ à¼¡à¼¤
à¼¡à¼¥ à¼©à¼©
à¼¡à¼¥ à¼©à¼¡
à¼¡à¼¦ à¼¦à¼¥
à½Ĵ à½Ĺ
28 3
Ġ à½Ĥà½¦à½¦
à½Ĥ à½Ĥà½ĵà½ĺ
à½ĵ à½ģà½Ħ
à½Ħ à½ĸà½ĵ
à½ł à½Ķà½¦
à½Ķ à½ŀà½Ĥ
à¾Ł à¾²à½²à¼į
à½ĳà½Ħ à½ĳà½ĸ
à½Ĳ à½ħà½ĳ
à½ļ à½ª
à½¤ à½Ļ
à½ĳà½Ĥ à½¢à½ĸ
à½łà½Ħ à½ĵ
à½łà½ļà½£ à½ı
à½ĸà½ĸ à½Ķ
à½Ĩà½Ĥ à½Ģ
à¼¡à¼¨ à¼¢à¼¢
à¼¡à¼¦ à¼¡à¼¤
à½Ĵ à½Łà½Ĳà½¥
à½Ĥà½¥ à½¢
28 2
Ġ à¼Ģà½¦
à½¦ à½¨à½¢
à½¼ à½´à¼ĭ
à½ĺ à½ĸà½Ĥ
à½Ĩ à½¤
à½¤ à½İ
à½¡à½Ħ à½ĩ
à½Ĥà½¦à½£ à½ĵ
à½ĸà½¦à½ĺ à½ŀ
à½ĺà½īà½ĺ à½Ĥà½ŀà½Ĥ
à½łà½Ĥà½£ à½ŀ
à¼¡à¼§ à¼¦à¼¤
à¼¡à¼§ à¼¨à¼¤
à¼¡à¼¥ à¼£à¼¢
à¼¡à¼¨ à¼¥à¼¡
à¼¡à¼¦ à¼¥à¼¦
à¾ŀ à½¼à¼ĭ
à½ĭ à½Ĥ
à¾·à¾± à½±à½¾à¼į
à¾Łà¾Ń à¾ĥà¼į
à½Ĥà½¥ à½Ħ
< à¼ĭ
à½¦ à½ĳà½Ĥà½ł
à½² à½±à¼ĭ
à½ĳ à½Ĥà½¦à½¢
à½ĵ à½Ĥà½ıà½ĵ
à½ĺ à½Ķà½ĳ
à¾± à½±à½²à¼ĭ
à½Ĩ à½Ł
à½ĸà½¦ à½Ĥà½Ħ
à½Ĳ à½Ł
à½Ĳ à½ĺà½ĳ
à½Ķà½¢ à½ĳà½ĺ
à½Ĥà½ŀ à½ĵà½Ħ
à½ĳà½ĺ à½ģà½ł
à½ĸà½ĳ à½ŀ
à½ĺà½Ħ à½ĺ
à½Ĥà½ŀà½ĵ à½ī
à½ĺà½ł à½¦
à½īà½ĺà½¦ à½£
à½Ħà½Ħ à½£
à½ĸà½Ľ à½ĺ
à½ĸà½¦à½ĺà½¦ à½ĵ
à½£à½Ħà½¦ à½ĵà½¦
à¼¡à¼¥ à¼£à¼©
à¼¡à¼¨ à¼¥à¼¢
à¼¡à¼¦ à¼£à¼¢
à¼ĭà½Ī à¾¡à½º
à½±à½´à½¾ à½¼à¼ĭ
Ġà¼¢à¼¢ à¼£
à¾µà¾¨ à½±à½²
à¼ĭ à¾©
à¼ĭ à¾Ĺà½º
à½¦ à½łà½Ĩ
à½Ĥà½¦ à½ĳà½ĸ
à½Ĥà½¦ à½Ķà½£
à½´à¼ĭ à½ºà¼ĭ
à½¼à¼ĭ à¼ŀ
à½Ģ à½¢à½Ħ
à¾±à½²à¼ĭ à¼ŀ
à¾£ à½±à½¾à¼ĭ
à½£à½¦ à½ĺà½¦
à¾¦ à¾¦à½±à¼ĭ
à½¨ à½Ģà½¢
à½ĺà½Ľ à½Ĥ
à½Ķà½łà½ĺ à½¡à½Ħ
à¼¡à¼¤ à¼¨à¼£
à¼¡à¼¥ à¼£à¼¥
à¼¡à¼¨ à¼§à¼¢
Ġà¼¢ à¼¡à¼©
Ġà¼¢ à¼¦à¼©
à½¦ à½Ĳà½ĸà½¦
à½Ħ à½ĺà½Ĳà½ł
à½Ģ à½ĳà½Ķà½£
à½ļ à½ĳà½ĸ
à½łà½Ĥ à½¡
à½ŀà½£ à½Ĥà½¦
à½ĸà½£ à½ĸ
à½¤à½¢ à½ķ
à½łà½ļà½£ à½ł
à½¢à½¦ à½¦
Ġà½£ à½Ħà½¦
à¼¡à¼¥ à¼¥à¼¥
à¼¡à¼¥ à¼§à¼¡
Ġà½Ĥà½¡ à½ł
à¼ĭà½²à¼ĭ à½²
à½¦ à½ĵà½¢
à½²à¼ĭ à½±à¼ĭ
à½¡ à½ĸà½ŀ
à½ģ à½¥
à½Ĳ à½Ļ
à½ĵà½¦ à½ĺà½ĳ
à½ĸà½ŀ à½Ĥà½¡
à½£à½¦ à½ĸà½ĳà½Ĥ
à½Ļ à½ĵà½ĳ
à½ĳà½Ķà½ł à½¤
à½Ĥà½ĳà½ĺà½¦ à½Ķ
à½ķà½Ĭ à½ķà½Ĭ
à¾²à¼į à¼ĭà¼į
à¼¡à¼¥ à¼§à¼©
à¼¡à¼¨ à¼¢à¼¥
à¼¡à¼¨ à¼¤à¼¨
à¼¡à¼¨ à¼¦à¼¨
à½±à½´à¾ĥ à¼įà¼ĭ
à¼¢à¼¢ à¼¢à¼¢
à¼¡à¼¦ à¼§à¼¡
Ġà½Ģ à½Ģ
à½ĳà½¦ à½£
Ġà¼¢à¼¢ à¼§
Ġà¼¢à¼¢ à¼¤
à½ħà½ĳà½ĸ à½ĳà½Ĥ
à½¦ à½ļà½£
à½ĳ à½łà½ļ
à½ĳ à½īà½ĺà½¦
à½¢ à½ıà½ĵ
à½ĵ à½ķà½ĵ
à½Ĥà½¦ à½łà½ĸ
à½´à¼ĭ à½±à¼ĭ
à½¼à¼ĭ à½´à¼ĭ
à½ĸà½¦ à½Ģà½£
à¾±à½²à¼ĭ Â¶
à¾£ à½²à¼į
à¾³ à½¼à¼įà¼ĭ
à¾Ń à½ºà¼į
à½ĳà½Ķà½ł à½ķ
à½ĸà½ŀà½Ĥ à½¨
à½łà½Ĥà½ł à½¡à½Ħ
à½Ĩà½¢ à½¦
à¼¡à¼¥ à¼¨à¼£
à¼¡à¼¦ à¼¢à¼£
à¾²à½¼à¼į à¼ĭà¼į
à½© à½ŀ
à½ĳ à½£à½Ĥà½¦
à½Ĥ à½Ķà½İ
à½¢ à½Ķà½ĳ
à½¢ à½ĵà½ł
à½Ħ à½ģà½ĺà½¦
à½£ à½ĺà½ģà½ĵ
à½¡ à½ĵà½ĺ
à½ĳà½Ħ à½Ħà½Ĥ
à½ħ à½Ĥà½£
à½ģ à½Ģà½ł
à½ĺà½¦ à½ĳà½Ĥ
à½ĸà½¢ à½ĳà½Ħ
à¾±à½º à¼µ
à½¡à½Ħ à½ĺà½Ĳ
à½Ļ à½Ĳ
à½ĳà½ĺ à½ī
à½ĳà½Ķ à½ĳà½Ħ
à½Ĥà½ĵà½¦ à½Ķà½¦
à½ĺà½Ľà½ĳ à½ĸà½¦
à½£à½Ĥ à½ĸ
à½ģà½Ħ à½ĵ
à½İ à½§
à½Ĥà½£ à½ĸ
à¾¤à¾±à½² à½²
à¼¡à¼§ à¼£à¼¡
à¼¡à¼¥ à¼¢à¼£
à¼¡à¼¥ à¼§à¼¦
à¼¡à¼¨ à¼£à¼¤
à¼¡à¼¨ à¼©à¼¡
à¼¡à¼¦ à¼©à¼£
à¼µ à¼µà¼ĭ
Ġà¼¢à¼¢ à¼©
27 2
29 6
à½Ĥà½¦ à½ĵà½Ħ
à¾Ł à¾²à½±à½²à¼į
à½ĳà½Ħ à½Ĥà½ĵà½¦
à¾±à½²à¼ĭ à½Īà¾±à½²
à½Ĳ à½¦à½ĺ
à½Ķà½¦ à½£à½¦
à½Ľ à½Ĥà½¦
à½īà½ĺà½¦ à½Ķà½¢
à½Łà½ĳ à½¢
à½Ĥà½£ à½Ĩ
à½ĸà½ħà½ĳ à½ĵà½¦
à½ĵà½ĺà½¦ à½¦
à½ģà½Ĥ à½Ĥ
à¼¡à¼¥ à¼¨à¼§
à¼¡à¼¦ à¼¢à¼©
à¼¡à¼¦ à¼¨à¼¦
28 5
28 8
à¾ĳ à½±à¼ĭ
Ġ à½ģà½£
à½¦ à½¦à½Ħ
à½ĳ à½¦à½ł
à½¢ à½ĺà½īà½ĺ
à½Ħ à½Ħà½ĵ
à½£ à½Ħà½ł
à½´à¼ĭ à½Īà½²
à½Ģ à½Ķà½ł
à½ħ à½Ķà½ł
à½£à½¦ à½ĸà½ŀ
à½¡à½Ħ à½łà½ĩ
à½Ķà½¦ à½Ĥà½ĵà½¦
à½ĸà½ħ à½ª
à½¢à½ĸ à½Ľ
à½łà½ĳà½¦ à½Ĩ
à½Ĥà½ıà½ĵ à½ĸà½ŀ
à½ĸà½ıà½Ħ à½ĸ
à¾ľ à½¼
à¼¡à¼¥ à¼¤à¼¤
à¼¡à¼¥ à¼¨à¼¡
Ġà¼¢ à¼¤à¼¤
Ġà¼¢ à¼¤à¼¦
à¾ªà½± à¼ĭà¼į
29 3
Ġ à½ħà½Ĥ
Ġ à¼Ģ
à½ĺ à½ĳà½ĺà½¢
à½£ à½łà½ĳà½¦
à½Ĥà½¦ à½ĺà½Ĳà½ł
à½ŀ à½Ĳ
à½Ħà½¦ à½ĳà½Ĥ
à½ĺà½Ĳ à½Ħà½¦
à½ĸà½Łà½Ħ à½£
à½Ĭ à½§
à½£à½Ĥà½¦ à½Ķ
à¼¡à¼¥ à¼£à¼¡
à¼¡à¼¥ à¼¥à¼£
à¼¡à¼¦ à¼¥à¼©
Ġà¼¢ à¼§à¼¢
à¼ĭà¼´ à¼´à¼´
29 4
» ¿
Â ©
ï »¿
à½¦ à½łà½ļ
à½¦ à½łà½ĩà½ĺ
à½ĵ à½Łà½ĸ
à½ĺ à½ĺà½Ĳà½¢
à½¼à¼ĭ Â¶
à½Ķà½ł à½ī
à½¤ à½Ľ
à½Ķà½¦ à½ĺà½Ľà½ĳ
à¾Ķ à¾¡à½¼
à½Ļ à½ĵà½ĵ
à½¨ à½¦à½¦
à½ħà½ĳ à½ĵà½¦
à½ĺà½Ľ à½ĳà½Ĥ
à½ĺà½Ľà½ĳ à½Ķà½¦
à½Ĩà½ĳ à½£
à½łà½ļà½£ à½ĸ
Ġà½¢ à½¢
Ġà¼¡ à¼¨à¼¦
à¼¡à¼¥ à¼¦à¼£
Ġà¼¢ à¼£à¼¦
à¼£à¼¨ à¼¢à¼¤
29 7
à½Ħ à½ĺà½Ľ
à½ºà¼ĭ Â¶
à½ĸà½¦ à½ħà½ĵ
à¾±à½²à¼ĭ à½´
à½ģ à½Ĥà½ī
à¾±à½² à½¾à¼ĭ
à½ĵà½¦ à½Ĥà½ī
à½£à½¦ à½ħà½ĵ
à½£à½¦ à½ĺà½Ĩ
à½ĳà½ĺ à½ģà½ĵ
à½Ĥà½¦à½£ à½ŀ
à¾¦à¾± à¼į
à¼¡à¼¤ à¼¨à¼§
à¼¡à¼¥ à¼§à¼¤
à¼¡à¼¨ à¼¦à¼¡
à¼¢à¼¢ à¼¢à¼¤
à¼¡à¼¦ à¼¦à¼©
à¼¡à¼¦ à¼¨à¼©
Ġà¼¢ à¼¥à¼¥
à½Ĺ à½Ģ
à¾´ à½´à¼ĭ
Ġ à½¼
à½¦ à½¤à½¢
à½¢ à½īà½ĺà½¦
à½ĵ à½ļà½ĵ
à½´ à½±à¼ĭ
à¾± à¾¤à¾±à½²
à½ł à½ħà½¦
à½²à¼ĭ à¼ī
à½Ĥà½¦ à½Ĥà½ĵà½¦
à¾² à¾Ĺà½²
à½¼à¼ĭ à½¾
à½Ĳ à½ĳà½Ĥ
à½ĸà½¢ à½ı
à½ĵà½¦ à½¢à½ĸ
à½łà½ĸ à½¤
à½Ĥà½ĵà½¦ à½Ĥà½¦
à½¾ à½¼
à½ĳà½Ķà½ł à½ł
à½İ à½¤
à½Ŀ à½ī
à½ĸà½ĺ à½ĺ
à¼¡à¼¨ à¼¡à¼¤
Ġà¼¢ à¼§à¼©
Ġà¼£ à¼¢à¼¢
à¾¡à¾· à½±à½²à¼ĭ
à¼ĭà¾¢ à½¼
27 8
28 4
Ãĥ à½£
à½²à¼ĭà½²à¼ĭ à½²à¼ĭ
à½¦ à½Ĥà½ıà½ĵ
à½Ĥ à½Ĳà½£
à½¢ à½Ĥà½ĵ
à½ĵ à½¡à½ĵ
à½ĵ à½Ĳà½¢
à½ĺ à½Ĥà½¤
à½ł à½¢à½Ħ
à½¡ à½ĳà½ĳ
à½ħ à½ļ
à½ĺà½¦ à½¨
à½Ķà½¢ à½ĸà½Ł
à½ĵà½¦ à½ĵà½ĺ
à½Ħà½¦ à½ķ
à½Ħà½¦ à½Ł
à½łà½ĸ à½ĳà½Ķ
à¾Ļ à¾±à½º
à½ĳà½Ķ à½£à½ĺ
à¾Ĳà¾±à½º à½º
à½łà½Ľ à½ŀ
à½¨ à½Ķà½¢
à½ĺà½ĳ à½ħ
à¾¤à¾±à½¼ à½¼
à½Ĩà½Ĥà½¦ à½ĸ
à½ĺà½ī à½ĺà½¢
à½Ŀ à½Ĥà½¦
à½¦à½Ħ à½¤
à¼¡à¼¨ à¼¢à¼¨
à¼¡à¼¨ à¼¤à¼¤
à¼¡à¼¨ à¼£à¼¡
à¼¡à¼¨ à¼§à¼¨
à½Ĳà½ĺà½¦à½ħà½ĳ à½ĳà½Ħ
à¾²à½±à½² à½¾à¼į
28 9
à½Ģà½ĺà½£ à½¤
à½¦ à½ĳà½¢
à½¦ à½łà½Ĩà½ĳ
à½Ĥ à½Ĳà½¢
à½Ĥ à½Ĥà½ıà½ĺ
à½Ĥà½¦ à½ĺà½Ľà½ĳ
à¾² à¾Ĵà¾±
à½ļ à½Ł
à½ĳà½Ĥ à½Ĥà½£
à½£à½¦ à½ĳà½ĸ
à¾© à½¾à¼į
à¾¦ à½²à¼į
à½¨ à½Ļà½¢
à¾Ķà¼ĭ à½²
à½ĳà½Ģà½¢ à½¦
à½ĳà½ĳ à½ł
à½Ĭ à½¡
à½ĸà½¦à½ĳ à½¦
à¼¡à¼¥ à¼¥à¼©
à¼¡à¼¨ à¼¨à¼¤
à½¦à½¦ à½ĺà½¦
à½Ĺ à½Ĵ
à¾·à½º à½ºà¼ĭ
à½© à½ł
Ġ à½ĳà½Ķà½Ħ
Ġ à½Ļà½Ģ
à½¢ à½ĵà½Ĥ
à½´ à½²à¼į
à½ł à½łà½ĳà½¦
à½Ĥà½¦ à½ĸà½ħà½ĳ
à½¡ à½ĳà½ĸ
à½ŀ à½¤
à¾Ł à¾²à¾Ģ
à¾Ł à¾²à½¾à¼ĭ
à½ķ à½ĺà½ł
à½ī à½Ķà½¢
à½¤ à½ļ
à½£à½¦ à½Ĳà½ĺà½¦
à½¡à½Ħ à½ĺà½ĳ
à½Ķà½¦ à½ĸà½ħ
à½¢à½Ħ à½ĳà½Ħ
à½ĸà½ĳà½Ĥ à½Ĩ
à½Ĥà½ŀà½ĵ à½ĳà½ĸà½Ħ
à½ĳà½Ķà½ł à½ī
à¾³à½² à½¾à¼ĭ
à½Ŀ à½Ļ
à½Ĥà½ĳà½ĺà½¦ à½Ħà½Ĥ
à¼¡à¼¥ à¼£à¼¤
Ġà¼¢ à¼£à¼©
Ġà¼¢ à¼¤à¼¡
à½Ĺ à½Ľ
à¼ĭà½ºà¼ĭ à½ºà¼ĭà½º
à½¦ à½łà½Ĥà½ł
à½ĳ à½¦à½ĺ
à½Ĥ à½ļà½Ħà½¦
à½¢ à½£à½ĵ
à¾± à¾ĥà¼ĭ
à½ł à½ĺà½Ĳ
à½£ à½łà½ĩà½ĺ
à½Ĥà½¦ à½ĸà½ĳ
à¾² à½±à½´à½¾à¼į
à½ŀ à½Ķà½ł
à½Ĳ à½ª
à½ĺà½¦ à½ĸà½¢
à½Ł à½łà½ĳ
à½¡à½Ħ à½łà½ĸ
à½Ĳà½ĺà½¦ à½ħà½ĵ
à¾Ĺà½º à¼µà¼ĭ
à½ĸà½ħà½¦ à½ĸ
à½łà½ĳà½¦ à½Ĥ
à¾Ķà½¼ à½¼
à½¡à½ĵ à½ł
à½¦à½¢ à½£
à½Ĭ à½ĭ
à½ĳà½¢ à½Ĥ
à½Ģà½¢ à½İ
Ġà¼¢ à¼¥à¼¢
Ġà¼¢ à¼¨à¼¢
Ġà¼£ à¼¡à¼¢
Ġà¼£ à¼¡à¼¡
à½Ĵ à½Ķ
à¼ĭà¾§ à½²à¼ĭ
Ġ à½Ĥà½¤à½ĺ
à½¦ à½ĸà½Ļ
à½¦ à½ģà½¦
à½¼ à½²à¼į
à½Ķ à½Ĩà½ĳ
à½ħ à½Ķà½¢
à½ĳà½Ĥ à½ĳà½ĸà½Ħ
à½ĵà½¦ à½ĺà½Ĳ
à½£à½¦ à½ĺà½Ľà½ĳ
à½¢à½Ħ à½ĳ
à½ĸà½Ģ à½Ģ
à½¦à½Ħà½¦ à½Ħà½¦
à½Ĥà½ıà½ĵ à½ĳ
à½Ĥà½¦à½¢ à½Ķ
à½łà½Ĥà½£ à½ĸà½ł
à½ĳà½Ĥà½Ĥ à½Ķ
à½¢à½¦ à½ĺà½¦
à½łà½Ĥà½Ĥ à½ĺ
à¼¡à¼¥ à¼¤à¼©
à¼¡à¼¥ à¼¦à¼¢
Ġà¼¢ à¼©à¼©
30 5
à¿ ļ
Ġ à½ĺà½ļà½¢
à½¢ à½¦à½ĺ
à½ĺ à½ĸà½ŀà½Ĥ
à½ĸà½¦ à½ħ
à½¤ à½¥
à½ĸà½¢ à½Ĳà½£
à½ĵà½¦ à½Ĥà½ħ
à½¡à½Ħ à½ļ
à½Ĥà½ŀ à½ĸ
à½ĺà½Ĳ à½łà½Ĥà½ħ
à¾Ļ à¾°
à¾Łà½ºà¼ĭ à¼Ĳ
à½Ħà½Ĥ à½ģ
à½¡à½ĵ à½Ķ
à½Ĭ à½ķ
à½¡à½¦ à½ĵ
Ġà½¦ à½ĵ
à½ĸà½ĺ à½¡
à¾¦à¾² à¼ĭà¼į
à¼¡à¼¥ à¼¥à¼¨
à¼¡à¼¨ à¼¡à¼¢
Ġà¼¢ à¼©à¼¥
à½ĵ à½ĺà½ļà½ĵà½ĺ
à¾± à½±à½¾à¼į
à¾Ł à¾ĥà¼ĭ
à½ĳà½Ħ à½ĺà½Ħ
à½Ĳ à½Ĥà½Ł
à½ĳà½Ĥ à½Ĥà½ī
à¾¡ à½±à½´à¼ĭ
à½£à½¦ à½Ĥà½ī
à¾¨ à¾±à½ºà¼į
à¾³à½´ à½¾à¼ĭ
à½¡à½ĵ à½£
à½ĸà½ıà½Ĥà½¦ à½¦
à½ĳà½Ĥà½Ĥ à½ĺ
à¾·à½²à¼ĭ à¼į
à¼¡à¼¨ à¼¡à¼¦
à¼¡à¼¨ à¼¤à¼§
à¼¡à¼¨ à¼§à¼§
à¼ĭà½²à¼ĭ à½²à¼ĭ
à½ĵ à½Ĥà½¦à½¢
à½£ à½łà½ļ
à½£ à½¢à½¦
à½ħ à½ģ
à½Ĳ à½ī
à½ĺà½¦ à½ĩ
à½ı à½Ŀ
à½ĸà½¢ à½Ĳ
à½ĵà½¦ à½§
à½Ħà½¦ à½¢à½Ħ
à½Ľ à½Ĭ
à½ĺà½ģ à½ĺ
à½§ à½ī
à½ĸà½ŀà½Ĥ à½¡à½Ħ
à½ķà½Ĭ à½ĺ
à¼¡à¼§ à¼¦à¼£
à¼¡à¼§ à¼¨à¼£
Ġà¼¢ à¼¥à¼¤
Ġà¼¢ à¼©à¼¢
29 0
à½ĳ à½Ĩà½ĳ
à½ĵ à½£à½Ĥà½¦
à½ĵ à½ĸà½Ľ
à½¡ à½ĩ
à½Ģ à½Ĥà½ī
à½ĸà½¦ à½£à½ĺ
à½ĸà½¢ à½ĺà½Ħ
à½Ķà½¦ à½ĳà½ĺ
à½Ĥà½ĳ à½łà½ĺ
à¾Łà½ºà¼ĭ à¼ı
à½±à½´ à¼µà¼ĭ
à½Ħà½ĵ à½ĸ
à½ĸà½ŀà½Ĥ à½Ĥà½¡
à½¦à½¢ à½ĺ
à½Ĳà½Ĥ à½Ķ
à½Ĩà½Ĥ à½Ĩ
à¼¡à¼¨ à¼¦à¼©
Ġà¼¢ à¼£à¼¥
Ġà¼¢ à¼¥à¼¦
Ġà¼¢ à¼§à¼§
Ġà¼£ à¼¢à¼©
à¼µ à½ºà¼į
à¾ŀ à½´
à½ĸà½ĸà½ĸà½ĸ à½ĸà½ĸà½ĸ
Ġ à½ŀà½Ĥà½¦
à½² à½±
à½Ĥ à½łà½Ľà½ĺ
à½ĵ à½łà½ļ
à½Ħ à½Į
à½¼à¼ĭ à½´
à¾Ł à¾Ĺà½¼
à¾£ à¾²
à½ĳà½ĺ à½ģà½¦
à½łà½ĩ à½Ħà½¦
à½ħà½ĳ à½ĳà½Ĥ
à½ĸà½Ģà½ł à½¦à½£
à½Łà½ĳ à½ħ
à½Ĥà½£ à½¢
à½ĳà½¢ à½£
à½Ģà½¢ à½¦
à¼¡à¼§ à¼§à¼¨
à¼¡à¼¨ à¼¢à¼¡
Ġà¼¢ à¼¦à¼¤
29 2
à½ĳ à½łà½ķà½Ĥà½¦
à½Ħ à½£à½Ĥ
à½ĺ à½Ĥà½ıà½ĵ
à½Ķ à½ĺà½ģà½ł
à½Ķ à½ŀà½ĸà½¦
à½¡ à½ĸà½ł
à½Ģ à½łà½ĸ
à½Ķà½¢ à½ħ
à½ĵà½¦ à½ĳà½Ģ
à½Ħà½¦ à½£à½¦
à¾¦ à¾·à¾±à¼ĭ
à½ħà½ĵ à½Ĩ
à½¨ à½łà½ĳ
à½¾ à¼´
à½İ à½ļ
à½Ĥà½ıà½ĵ à½ĵà½¦
à½¤à½¦ à½¢à½ĸ
à½£à½ł à½Ħà½¦
à¼¡à¼¥ à¼¨à¼¢
à¾Ńà½± à¼ĭà¼į
à¾ŀ à½±à½²
à½Ĵ à½ķ
à¾¡à¾·à½² à½¾à¼ĭ
Ġ à½łà½ķà½¢
à½¦ à½ĳà½ĵ
à½Ķà½¦ à½Ĥà½ī
à½Ļ à½ĺà½ļ
à½ĺà½Ĳ à½łà½ĸ
à½Ľ à½Ľà½¦
à¾·à¼ĭ à¼´
à¾¡à½¼ à½¼
à½İ à½¨
à½ĵà½ĺà½¦ à½£
Ġà½¢ à½ĺ
à½ĺà½ĳà½ł à½¦
à½Į à½ģ
à½Į à½¤
à¼¡à¼¨ à¼¤à¼£
à¼¡à¼¦ à¼¥à¼§
Ġà¼£ à¼¢à¼¨
à¼ĭà¾¢ à½¼à¼ĭ
à¼ĭ à¾²à¼ĭ
à½ł à½ĺà½ļ
à½Ģ p
à½Ķà½ł à½ĳà½¦
à½ĸà½¦ à½ĸà½ħ
à½ı à½ĳà½Ħ
à¾Ĳ à¾±à½²à¼į
à½ĵà½¦ à½ĳà½ĺ
à½ĸà½¤ à½Ĥà½¦à½ĵ
à½ĸà½¦à½ĺ à½¡à½¦
à½ģà½Ħ à½ĳ
à½¤à½¢ à½Ĥ
à¼¡à¼¥ à¼¥à¼¡
à¼¡à¼¥ à¼©à¼¨
à¼¡à¼¥ à¼¨à¼¥
Ġà¼¢ à¼£à¼§
Ġà¼¢ à¼£à¼¨
Ġà¼¢ à¼¦à¼¡
à¼µ à½²à¼į
Ġ à½ĵà½ł
à½¦ à½łà½ĳà½¦
à½¦ à½Ĥà½Ļà½Ħ
à½¦ à½Ķà½łà½Ħ
à½¦ à½ĸà½ĸ
à½ĳ à½ĺà½ļà½ĺà½¦
à½Ĥ à½Ĥà½¢
à½´ à½º
à½Ħ à½£à½Ĥà½¦
à½Ķ à½ĸà½ħà½¦
à½Ĥà½¦ à½Ļà½ĺ
à½Ĩ à½İ
à½ĳà½Ħ à½ĸà½¦à½ĺ
à½ģ à½Ĥà½£
à½ķ à½łà½Ħ
à¾¨ à¾¨à½¼
à½ĳà½ĺ à½ĸà½¦
à½ĵà½Ħ à½¢
à½łà½ĳà½¦ à½¤
à½ĸà½ŀà½Ĥ à½ķ
à½ĳà½ĺà½¢ à½¦
à¾¨à¾² à¾Ģ
à¼¡à¼§ à¼¦à¼¨
Ġà¼¢ à¼§à¼¦
à½¦ à½£à½ł
à½¢ à½ĳà½Ķà½£
à½Ħ à½İ
à½Ħ à½ĺà½£
à½ĺ à½¡à½¦
à½£ à½¡à½ĵ
à½Ĩ à½ĳà½Ķà½ł
à¾Ĵ à¾·à½±à¼ĭ
à¾Ĵ à¾·à½¾
à½Ķà½ł à½ł
à½Ķà½¢ à½Ĥà½ı
à½£à½¦ à½¦à½Ħà½¦
à½ĸà½ħ à½ĳà½ĸ
à½Ļ à½ĺà½Ĩ
à½Ħà½ĵ à½¢
à½¤à½¢ à½£
à½ĸà½ĸà½¦ à½¦
30 1
Ġ à½łà½ķà½ĵ
à½¦ à½Ļà½ĵ
à½¢ à½ĺà½ģà½¦
à½Ħ à½ĸà½ĺ
à¾± à½¼à¼įà¼ĭ
à½ĸà½¦ à½Ĥà½ŀà½ĵ
à½ĳà½Ĥ à½¡à½Ħ
à½ĳà½Ĥ à½ĵà½ĺ
à½Ħà½¦ à½Ĳ
à½£à½¦ à½ĺà½Ĳ
à½£à½¦ à½łà½ĩ
à½Ĥà½ĵà½¦ à½Ĩ
à½¢à½ĸ à½ĸà½¦
à½Ĥà½ĵ à½Ķ
à½ĸà½Ĥ à½ĵà½Ħ
à¾¦à¾± à¾³à½¼
à½ķà½ĵ à½ĵ
à½ĳà½¢ à½¢
à½Ŀ à½łà½ĺ
à½Ĥà½ŀà½Ĥ à½Ķà½ł
à½Ĩà½Ĥ à½ĸà½¦
à¾µ à½´à¾ĥà¼ĭ
à¼¡à¼¨ à¼£à¼¥
à¼¡à¼¦ à¼©à¼¡
Ġà¼¢ à¼¦à¼§
Ġà¼¢ à¼¦à¼¥
Ġà¼¢ à¼§à¼¤
Ġà¼£ à¼¡à¼¨
à½ĳà½Ĥà½¦ à½¦
à½¢à½Ħà½¦ à½¦
à¼Ģ à½Į
à¼¤à¼¤ à¼¤à¼¤
29 1
à¾ĳ à½´à½¾à¼ĭ
à½Ĥ à½Ĥà½ıà½ĵ
à½¢ à½Ķà½£
à½ĵ à½łà½Ĳ
à½ĺ à½£à½ł
à½£ à½Łà½¦
à¾² à¾ĥà¼į
à½´à¼ĭ à¼įà¼ĭ
à½ģ à½ĺà½ĳ
à½ģ à½ĺà½Ĥ
à½ī à½Ķà½ł
à½ī à½Ļ
à¾±à½´ à¼įà¼ĭ
à½ħà½ĳ à½łà½ĸ
à½ĸà½ħà½¦ à½ĵ
à½ĸà½Ģà½ł à½¢
à½ģà½ĺà½¦ à½ĵà½¦
à¾¨à¼ĭ à½²
à½¡à½¦ à½£
à½£à½Ħ à½ĺ
Ġà¼¢ à¼¤à¼§
Ġà¼¢ à¼£à¼¢
Ġà½Ĥ à½Ĥ
à½ĭ à½¨
à¼ĭà¼µ à¼ĭ
à¾ ĸ
à½Ķ à½Ħà½ĵ
à¾² à¼µà¼ĭ
à½Ĩ à½¨
à½ĺà½¦ à½ĺà½Ĩ
à¾Ĵà¾± à½ºà¼į
à½ĵà½¦ à½Ĥà½ŀ
à¾²à½´ à¼µ
à½Ķà½¦ à½¡à½Ħ
à½ħà½ĵ à½ĺà½Ħ
à½ĵà½ĺ à½¡
à¼¡à¼§ à¼¦à¼¥
à¼¡à¼¥ à¼¢à¼¨
à¼¡à¼¥ à¼©à¼§
à¼¡à¼¨ à¼¢à¼©
à½¢ à½łà½ķà½Ĥà½¦
à½ĵ à½Ĥà½¤à½Ĥà½¦
à½£ à½łà½ĸà½ĳ
à½Ĥà½¦ à½ĸà½¤à½ĳ
à½Ģ à½ĳà½ĺ
à½ĵà½¦ à½Ĥà½Ł
à½Ł à½Ķà½ł
à½Ķà½¦ à½ĳà½Ķ
à¾· à¾²à½²à½¾à¼ĭ
à½¢à½Ħ à½¤
à½ĳà½ĸà½Ħ à½Ĩ
à½ĵà½Ħ à½ĺ
à½ĸà½¤à½ĳ à½ĵà½¦
à½Ĥà½Ļ à½ł
à¾Ĵà¾²à½² à¼į
à¾©à½ºà¼ĭ à½²
à½£à½ĵ à½£
à¼¡à¼¨ à¼¨à¼¡
Ġà¼¢ à¼¤à¼¥
à½¼à½¾ à½¾à¼ĭ
30 2
Ġ à¼ŀ
à½¦ à½ŀà½Ĥ
à½Ĥ à½«à½¥
à½Ħ à½Ķà½£
à½£ à½¥
à½Ĥà½¦ à½§
à¾Ł à½¼à¼ĭà¼į
à½Ĩ à½£à½¦
à½ģ à½ĸà½ĳ
à½łà½ĳ à½Ķà½£
à¾³ à¼µà¼ĭ
à½± à½ºà¼į
à½§ à½ĵà½ł
à½ĩ à½Ķ
à½łà½ĳà½¦ à½ĺà½īà½ĵ
à½ĺà½ģà½ł à½ĺà½Ĳà½ł
à½ĸà½ħà½ĳ à½ĵ
à½Ħà½Ħ à½ł
à½¤à½¦ à½¦
à½¢à½¦ à½Ĥ
à¾ľ à½º
à¼¡à¼¥ à¼¤à¼§
à¼¡à¼¦ à¼¨à¼¤
Ġà¼¢ à¼¤à¼©
30 0
3 10
3 11
Ġ à½Ĥà½ĳà½Ĥà½¦
à¼ĭ à¾³à½¼à¼ĭ
à½ĳ à½Ĩà½¦
à½¢ à½ĸà½ħà½ĵ
à½º à½¼à¼ĭ
à½ĺ à½Ĥà½¦à½Ħ
à½¡ à½łà½ĸ
à½ŀ à½ķ
à½ĳà½Ħ à½ı
à½ģ à½ĺà½Ĩ
à½ģ à½ª
à½ı à½ķà½¥
à½Ħà½¦ à½ĸà½¦
à½Ľ à½ħ
à½Ľ à½ļ
à½īà½ĺà½¦ à½ĵ
à½Ķà½ĳ à½£
à½łà½Ĥà½£ à½ļà½ĸà½¦
à½ĸà½ıà½Ĥà½¦ à½Ķà½ł
à½ļà½ĵ à½¢
Ġà½¦ à½ĸ
à½Į à½Ħ
à¼¡à¼¥ à¼¨à¼¦
à½ĵà½Ķ à½Ħ
à¾ļ à½¾à¼į
à½Ĺ à½ļ
à½Ĺ à½Ĥà½¢
à¼ĭà¿ ļ
3 19
à½Ķ à½ģà½¦
à¾Ł à¾¨à¼ĭ
à½ħ à½ĳà½ĸà½ĳ
à½ļ à½ĳà½Ģ
à½ļ à½ĵà½ĳ
à¾Ĳ à¾©à½¼
à¾Ĳ à½±à½²à¼ĭ
à½ĸà½¢ à½łà½ģ
à½łà½ İ
à½Ķà½¦ à½ĺà½ļ
à½ĸà½Ģ à½Ĥà½ĵà½¦
à½ĺà½ł à½Ĳ
à¾Ń à¾°à¼į
à½Ĥà½ĵ à½ĸ
à¾Ĳà¾± à¾±à½²
à½ĵà½Ĥ à½Ĥ
à½ĳà½Ģà½ł à½ĵ
à½ĸà½ĸà½¦ à½ĺà½¦
à½ķà½Ĭ à½ĸà½¦
à¼¡à¼¥ à¼©à¼£
à¼¡à¼¨ à¼£à¼¦
Ġà¼¢ à¼£à¼¡
Ġà¼¢ à¼©à¼¨
à½¦à½¦ à½ĸ
Ġà¼£ à¼£à¼£
à¼ĭà½²à¼ĭ à½º
3 26
à½Ħ à½ĳà½Ģà½¢
à½Ķ à½ļà½¢
à½Ĥà½¦ à½ĺà½Ĳà½¢
à½ģ à½Ŀ
à½ĵà½¦ à½ĵà½Ħ
à½Ł à½Ĥà½ĳ
à½£à½¦ à½īà½ĺà½¦
à½Ķà½¦ à½ĳà½ĸ
à½Ľ à½Ĳ
à½ĳà½ĸà½Ħ à½Ħ
à½ŀà½ĸà½¦ à½¦
à¾µ à½±à½´à¼ĭ
à¼¡à¼¥ à¼¨à¼¤
à¼ĭà½² à½²à½²
à¼¡à¼¦ à¼¦à¼¦
à¼Ģ à½łà½ĳ
à¾·à¾± à½¼à¼ĭà¼į
à¾¡à¾² à¼ĭà¼į
à½ĥ à½Ĭ
29 5
30 3
à½¦ à½ĸà½¦à½ĺà½¦
à½ĳ à½ŀà½£
à½Ħ à½ĺà½īà½ĺ
à½Ķ à½ĳà½Ĥà½ł
à½Ķ à½ĳà½Ĥà½Ĥ
à½Ĥà½¦ à½Ĥà½¦à½£
à½Ķà½¢ à½ģà½¦
à¾¡ à¾±à½±à¼ĭ
à½£à½¦ à½Ĥà½ħ
à½Ĥà½Ļ à½Ħà½¦
à½ĺà½Ĳà½¢ à½Ĥ
à½łà½ĺ à½ŀ
à½Ĥà½¡à½¦ à½Ĥà½¡
Ġà¼¢ à¼¥à¼§
Ġà¼£ à¼¤à¼©
à½ĵà½Ķ à½ī
à½¦à½Ķ à½ĳà½Ħ
29 9
30 9
à½ĸà½ĳà½ĸ à½ĳà½Ĥ
à½ĳà½ĳà½ĸ à½ħà½¦
Ġ à½ĸà½łà½ĺ
à½ĳ à½Į
à½Ĥ à½Ĥà½Ļà½Ħ
à½Ĥ à½ĸà½Ļà½ĵ
à½ĵ à½ĳà½ĺà½¢
à½ĵ à½Ļà½Ħ
à½Ħ à½Ķà½ĳ
à½ĺ à½ĸà½ħà½¦
à½ł à½ĺà½ļà½ĵ
à½Ķ à½ĵà½ł
à½Ķ à½ıà½Ħ
à½Ĥà½¦ à½ĸà½ĳà½Ĥ
à½Ĥà½¦ à½ĺà½ļà½ĵ
à½Ģ à½İà½ł
à½Ĩ à½ĸà½ħ
à½ĳà½Ħ à½Ł
à½ħ à½Ĥà½¢
à½ķ à½ª
à½ļ à½łà½Ħ
à½ī à½ĸà½¦
à½Ķà½¢ à½ĸà½Ģ
à¾¡ à¼µ
à½łà½Ĥ à½Ĥà½ħ
à½£à½¦ à½£à½Ħà½¦
à½Ķà½¦ à½ĺà½ļà½ĵ
à¾© à½´à¼į
à½ĳà½Ķ à½İ
à½ħà½ĳ à½Ķà½ł
à½ĸà½ħà½¦ à½ĵà½¦
à½Ļà½ĺ à½ī
à½ĸà½¦à½ĺ à½ĵà½¦
à½ĸà½¦à½ĺ à½Ķà½¦
à½ĳà½Ķà½ł à½¡
à½ĵà½ĺ à½īà½ĵ
à½Ĳà½¢ à½¢
à½īà½ĵ à½ĵ
à½ĺà½ĩà½£ à½ĳ
Ġà¼¢ à¼¦à¼¨
Ġà¼£ à¼¡à¼¤
Ġà¼£ à¼¦à¼¡
3 28
à¼ĭ ïĢ¸
à½¦ à½ĸà½ĵ
à½Ķ à½ģà½ĺà½¦
à½ķ à½£à½¦
à½Ķà½¢ à½ĸà½ĳ
à½Ĥà½Ħ à½łà½ĳ
à¾Łà½º à½ºà¼į
à¾Ĺà½º à½º
à½Ĥà½¡ à½ĳ
à½łà½Ħ à½¢
à¾¦à¾² à¾Ģà¼ĭ
à¼¡à¼¨ à¼£à¼©
à½ħà½ĳà½ĺ à½Ĩ
3 27
à½¼ à½ºà¼ĭ
à½Ħ à½ĸà½Ĥ
à½²à¼ĭ à½¾à¼ĭ
à½Ķ à½Ĥà½ıà½ĵ
à½Ĩ à½Ĥà½ĵ
à½ĸà½¦ à½ĳà½Ķ
à½ĳà½Ħ à½ĸà½ħ
à½¤ à½Ķà½ĳà½ł
à¾Ĳ à¾²à½ºà¼ĭ
à½Ķà½¢ à½Ĥà½¦à½£
à½łà½ĳ à½Ķà½ł
à½Ł à½ĸà½ĳ
à¾²à½´ à½´
à½Ĥà½ŀà½ĵ à½Ĥà½Ħ
à½ĸà½ħà½¦ à½Ķà½¢
à½ĳà½Ķà½ł à½Ĥà½Ħ
à½ĸà½Ļ à½ĸ
à½ĳà½Ķà½£ à½ĳ
à½ĸà½ŀà½Ĥ à½łà½ĳ
à½ĵà½Ĥ à½ĸ
à½ıà½ĵ à½Ĳà½ĺà½¦
à½£à½Ĥà½¦ à½Ģ
à½Łà½¦ à½£
à½¥ à½Ļ
à¾²à½ºà¼ĭ à½Īà¾±à½²
à½Į à½ı
à½¦à½Ħ à½£
à½ķà½ĸ à½ĵà½¦
à½¦à½ĺà½¦ à½ĺ
à¼ĭà¼ŀ à¼ŀà¼ŀ
3 23
Ġ à½łà½ķà½Ħ
Ġ à½ĺà½ĵà½¢
à½¦ à½ĳà½Ķà½Ĥ
à½¢ à½ĸà½¤
à½ĵ à½ĸà½¤
à½ĵ à½Ķà½łà½Ħ
à½ł à½¦à½ĳ
à½ĳà½Ħ à½¨
à½ħ à½ĸà½¢
à½Ĳ à½¨
à½Ĳ à½łà½Ħ
à½ĳà½Ĥ à½ĸà½ħ
à½ĵà½¦ à½Ķà½ł
à¾²à½² à½±à¼ĭ
à½ĳà½ĺ à½ĸà½ħà½¦
à½Ľ à½£à½ĵ
à½ħà½ĳ à½łà½ĩ
à½£à½ĺ à½ĸ
à½Ĳà½ĸà½¦ à½¤
à¾¦à¾±à½² à½²
à½Ĥà½£ à½Ĥà½¦
à½ĸà½ıà½Ĥà½¦ à½ĵ
à½¡à½ĸ à½¡
Ġà¼¢ à¼¥à¼©
Ġà¼¢ à¼¨à¼¨
Ġà¼¢ à¼¨à¼©
Ġà¼¢ à¼©à¼¤
Ġà¼£ à¼¡à¼¦
Ġà¼£ à¼£à¼¢
3 13
Ġ à½ĺà½ĩà½£
Ġ à½łà½ķà½Ĥ
à½¦ à½Ķà½łà½ĺ
à½² à½´à¼ĭ
à½ĳ à½łà½ĳà½¦
à½ĳ à½ģà½ĺà½¦
à½ĸ à½Ĳà½ĸ
à½´à¼ĭ à½¼à¼ĭ
à¾Ł à½´à¼ĭà¼į
à½Ĩ à½ĸà½ĳ
à½Ķà½ł à½Ĩà½ĳ
à½ĳà½Ħ à½¦à½Ħà½¦
à½ħ à½ħà½ĵ
à½Ĳ à½ĺà½ĵ
à½Ķà½¢ à½łà½ķà½Ĥà½¦
à½Ļ à½ĵà½¦
à½ĸà½ĳ à½Ķà½ł
à½ħà½ĵ à½ł
à½ĺà½Ħ à½łà½ĸ
à½ĸà½¦à½£ à½ĵà½¦
à½Į à½¡
à½Ĩà½¦ à½¦
à½Ĩà½Ĥ à½Ĳ
Ġà¼£ à¼¢à¼¤
à¼µ à¼µ
à½Ĵ à½ĳà½Ħ
à½ĭ à½£
Ġà½ħ à½¦
30 4
30 6
à¾ĳ à½±à½²à¼ĭ
à½¦ à½ķà½ĵ
à½Ĥ à½ģà½¦
à½Ķ à½ŀà½£
à½£ à½ĸà½Ļ
à½´à¼ĭ à¼ŀ
à½¡ à½¢à½Ħ
à½Ģ à½Ĥà½¡
à¾Ł à½±à½²à¼į
à½ĸà½¦ à½Ĥà½ī
à½ĸà½¦ à½ĩ
à½ļ à½ĳà½ĺà½¢
à½ļ à½£à½ĺà½Ĥ
à½Ķà½¢ à½ĸà½ĳà½Ĥ
à½ĸà½¢ à½ķ
à½ĵà½¦ à½ĸà½ŀ
à½Ķà½¦ à½Ĥà½ŀ
à¾Ķ à½¼à¼įà¼ĭ
à½ħà½ĵ à½ĵà½ĺ
à½ħà½ĳ à½Ĳ
à¾« à¼ĭà¼į
à½ĩ à½ĺà½¦
à¾Ĵà¾±à½´à¼ĭ à½²
à½łà½Ħ à½£
à½ĳà½ĳ à½ĸà½ŀ
à½Łà½¦ à½ĵ
à¾¨à½²à¼ĭ à¼į
à½ķà½Ĭ à½£
à½ĳà½ĵ à½£à½¦
Ġà½ĸà½¦ à½Ħà½¦
à¾° à½²à¼ĭ
à½Ģà½Ģ à½Ģà½Ģà½Ģ
29 8
33 2
3 16
3 18
3 39
à½Ĥ à½ĸà½Ľ
à½Ĥ à½Ĩà½ĸ
à½ĸ à½ĺà½ģà½ł
à½¢ à½īà½ĵ
à½ĵ à½Ĳà½£
à½Ħ à½īà½ĺà½¦
à½Ħ à½ĳà½¦
à½ĺ à½ĺà½Ħà½ł
à¾Ł à¾¤à½º
à½Ĩ à½Ĥà½¡
à½ĸà½¦ à½ĳà½ĸ
à½ģ à½Ĥà½ı
à½Ĳ à½ĺà½Ĳ
à½ļ à½ģ
à½ı à½łà½ĳ
à½Ķà½¢ à½ĺà½Ĩ
à½ĸà½ĳ à½Ģà½ł
à½ĸà½¤ à½Ĭ
à½¢à½ĸ à½ĺà½Ĩ
à½Ĥà½ĳ à½ĵà½ĳ
à½ĸà½ı à½Ħà½ĵ
à½ĺà½¢ à½ĸà½¦
à½ķà½ĵ à½ĸà½ĳ
à½ĸà½Ľ à½§
Ġà¼¢ à¼©à¼§
à¾ļ à½¼à½¾à¼ĭ
30 7
3 14
à½ĳ à½ģà½Ħ
à½ĺ à½ĺà½£
à½ĺ à½Ļà½İ
à½Ķ à½ĵà½¢
à½ĸà½¦ à½ĸà½ĳà½Ĥ
à½ĸà½¦ à½ĺà½ł
à½ĳà½Ħ à½ĸà½ĳà½Ĥ
à½ı à½ĸà½¦
à½ī à½Ĳ
à½Ķà½¢ à½Ĥà½Ħ
à½łà½ĳ à½ĸà½¢
à¾£ à¼įà¼ĭ
à½ĺà½ļà½ĵ à½Ķ
à½ĸà½ı à½£
à½łà½Ĩ à½łà½ĺ
à¾¡à½¼ à½¾
à½Ĥà½¦à½ĵ à½ĵà½¦
à¼¡à¼¨ à¼£à¼¢
Ġà¼£ à¼¢à¼¦
Ġà½Ģ à½¦
à½¦à½Ķ à½ĺ
à¼¢à¼¡à¼¢ à¼¢
30 8
3 37
Ġ à½Łà½ĵ
Ġ à½Ĥà½ŀà½Ħ
à½ĳ à½ħà½ĳ
à½ĸ à½ĸà½ŀà½Ĥ
à½¢ à½Ĥà½Ļ
à½ĺ à½ĸà½Ľ
à½Ķ à½Ĳà½ĸà½¦
à½Ķ à½ĸà½£
à½Ķ à½£à½łà½Ħ
à½£ à½ķà½ĸ
à½£ à½ĸà½ĵ
à½ĸà½¦ à½ĳà½ĵ
à½ļ à½¡à½Ħ
à½ļ à½Ľ
à½ī à½ĺà½ł
à½ĸà½¢ à½ĸà½¦à½ĺ
à½ĵà½¦ à½ĸà½¤à½ĳ
à½Ł à½Ĥà½ĵ
à½£à½¦ à½§
à½£à½¦ à½Ĥà½Ł
à¾Ķ à¾·à½ºà¼ĭ
à½Ĥà½Ħ à½ļ
à½Ĥà½ı à½Ķ
à¾« à½¾à¼ĭ
à½Łà½ĳ à½Ķà½¦
à¼¤ à¼¡à¼¥à¼¨
à½ĸà½ŀà½Ĥ à½Ĩ
à½Ĥà½£ à½ł
à½¢à½¦ à½Ħ
à½Ĩà½Ĥ à½ĳà½Ķà½£
à¼¡à¼¨ à¼§à¼¤
à¼¡à¼¦ à¼¢à¼¨
Ġà½ķ à½¦
à½Ĵà½¢ à½¥
à¾·à¾²à¼ĭ à½µà½¾à¼ĭ
à¾µà½² à½¾
à½±à½¼ à¾ĥ
à½Łà½Ĳ à½«
3 17
3 24
à¼ĭ âĢ¦
à½Ĥ à½Ķà½ĵ
à½ĵ à½ĳà½Ģà½ł
à½ĵ à½Łà½¦
à½ł à½¢à½ĸ
à½Ķ à½ĺà½ł
à½Ģ à½«à½¥
à½Ĳ à½ģ
à½Ĳ à½Ĳà½ĸà½¦
à½ı à½Ķà½£
à½ĵà½¦ à½ĺà½Ĥ
à½łà½ĸ à½Ł
à¾· à¾Ńà½²à¼ĭ
à½Ĥà½ĵà½¦ à½łà½ĳ
à½Ľ à½ĵà½¦
à½²à¼į à¼ĭà¼įà¼ĭ
à¾©à¼ĭ à½²
à½ĺà½Ĥ à½ĺ
à½ĳà½ĳ à½Ĩ
à½ĺà½ģà½ĵ à½Ĩ
à½Ĳà½£ à½łà½Ĥ
à½ĸà½¦à½Ĥà½¦ à½Ķ
à½ĺà½īà½ĵ à½¡
Ġà¼¢ à¼¦à¼£
Ġà¼¢ à¼¥à¼£
Ġà¼¢ à¼©à¼¡
Ġà¼£ à¼¡à¼£
à¾²à½± à¾ĥ
3 20
3 25
3 36
à½¦ à½Ĥà½¦à½¢
à½Ĥ à½Ĥà½ĳà½ĵ
à½¢ à½ĳà½¢
à½ĵ à½ĺà½ĳà½ł
à½Ħ à½ĳà½ĳ
à½ĺ à½Ģà½¢
à½Ķ à½ĭ
à½¡ à½¤à½¦
à½ķ à½ĸà½ĸà½¦
à½łà½Ĥ à½Ĭ
à½£à½¦ à½Ĳà½¢
à½ħà½ĵ à½Ĳ
à¾²à½¼à¼ĭ à½²
à¾²à½¼à¼ĭ à¼´
à¾Ĵà¾±à¼ĭ à¼Ĳ
à½ĵà½ĺ à½ĳà½Ķ
à½ĵà½ĺ à½ĵà½ĵ
à½ļà½Ħ à½ĺ
à½¢à½ĸà½¦ à½ĺà½¦
à½¥ à½Ķ
Ġà¼¢ à¼¥à¼¡
à¼Ģ à½ķ
3 29
3 21
Ġ à½ĵà½łà½Ħ
à½¢ à½ĺà½ģ
à½Ħ à½ĺà½ī
à¾± à¾Ļà½º
à½²à¼ĭ à¾±
à½Ĥà½¦ à½Ķà½ĳ
à½ĳà½Ħ à½ħ
à½ģ à½ĺà½ģ
à½Ĳ à½ĵà½¢
à½ĺà½¦ à½¡à½Ħ
à½ĳà½Ĥ à½Ĥà½ŀà½ĵ
à½Ł à½łà½Ħ
à¾Ĵà¾±à½´ à½´
à½£à½Ĥ à½Ĩ
à½ĳà½Ĥà½ł à½ĵà½¦
à½ĺà½ģà½ł à½¢
à½Ħà½Ĥ à½Ģ
à½¤à½¢ à½¢
à½Ĳà½Ĥ à½Ĩ
à½łà½ļà½£ à½ĸà½¦
à½Ĥà½ŀà½£ à½¡à½¦
Ġà¼¢ à¼§à¼¥
à½Ĵ à½Ĥà½¦
à½ħà½ĳà½Ĥ à½Ł
à½¦ à½£à½Ĥà½¦
à½Ĥ à½ĺà½ĳà½ł
à½Ħ à½Ĥà½Ļ
à½¡ à½Ŀ
à½ĸà½¦ à½¢à½ĸ
à½ĸà½¦ à½ĵà½ĺ
à½ĸà½¢ à½ĸà½¤à½ĳ
à½£à½¦ à½ĵà½ĺ
à½¨ à½ĩ
à½Ĳà½ĺà½¦ à½Ĳà½ĺà½¦
à¾Ĵà½¼ à½¼
à½ĸà½ħà½¦ à½ı
à¾Ĳà½´à¼ĭ à¼´
à½ĸà½ŀà½Ĥ à½Ģ
à½¢à½¦ à½£
à½ķà½Ĭ à½ŀ
Ġà¼¢ à¼§à¼£
Ġà¼¢ à¼©à¼¦
Ġà¼£ à¼¢à¼¥
3 30
Ġ à½ĺà½ļà½£
à½¦ à½ĸà½ıà½ĸ
à½Ĥ à½Ĳà½ĳ
à½Ķ à½ĸà½Łà½Ħ
à½Ĥà½¦ à½ĵà½ĵ
à½Ĥà½¦ à½Ķà½ĵ
à½¡ à½Ĥà½ī
à½ĳà½Ħ à½Ĥà½¡
à½ģ à½Ĥà½Ħ
à½ģ à½ĸà½Ģ
à½Ĳ à½£à½Ĥ
à½ı à½ĺà½ł
à½Ķà½¢ à½ĳà½Ķ
à½Ħà½¦ à½Ĥà½ŀà½ĵ
à¾³ à¾Ĵà¾²à½¼
à½łà½ĸ à½Ģà½ł
à½ĺà½ļ à½ĺà½ļà½ĺà½¦
à½łà½Ľ à½ĺà½Ĥ
à½ĸà½¦à½ĺ à½Ķà½¢
à½ĺà½¢ à½¡
à½ĺà½ģà½ł à½ĺà½īà½ĺ
à½łà½Ĳ à½ĳà½Ķà½ł
à½ĸà½£ à½¢
à¾¤à¾²à½´ à¼į
à½Ĳà½Ĥ à½ĺ
à½łà½Ĥà½£ à½£
à½Ĥà½Ħà½¦ à½ħà½ĵ
à¼¡à¼¨ à¼£à¼£
Ġà¼£ à¼¡à¼§
à¾²à¾Ń à¼ĭà¼į
Ġà½ĺ à½ĺ
à¼Ģ à½Ŀ
34 0
33 1
à¾±à½²à¼ĭà½Ī à¾±à½²à¼ĭ
3 34
Ġ à½Ĥà½ĳà½Ħà½¦
à½¦ à½łà½Ĳ
à½ĸ à½Ĥà½¡à½¦
à½ĸ à½ļà½Ħà½¦
à½¢ à½ĺà½ģà½ł
à½ĵ à½ŀà½£
à¾± à½¼à¼ĭà¼į
à½ł à½ĺà½ģ
à¾² à¾±
à½Ĩ à½Ķà½ł
à¾£ à¾²à¾Ģà¼ĭ
à½ĸà½ł à½ł
à½ĸà½ł à½ĺà½¦
à½ĸà½ł à½Ĥà½£
à½Ļ à½£à½¦
à½ĸà½Ģ à½łà½ģ
à½£à½ĺ à½ĸà½¦
à¾Ĵà¾±à½´à¼ĭ à½Īà½²
à½£à½Ĥ à½Ĥà½ī
à½Ĥà½£ à½ĳ
à½Ĭ à½Į
à½Ŀ à½ª
à¾¤à½¼ à½¼
à½¥ à½¤
à½¥ à½¨
à½ļà½Ħà½¦ à½Ķà½ł
à½ķà½Ĭ à½¢à½Ħ
à½ģà½ł à½¢
à¼ĭà½² à½²
à½Ĵ à½ŀ
à½Ķà½ī à½ĳ
à½²à¼ĭà½Ī à¾²à½º
3 12
3 15
3 38
à½¦ à½Ĥà½¢
à½ĳ à½Ĳà½ĸà½¦
à½ĸ à½Ĩà½¢
à½Ħ à½ĸà½Ģà½ł
à½ł à½¦à½ĺà½¦
à½£ à½ĸà½Ħ
à¾Ł à½±à½´à¼ĭ
à½ĸà½¦ à½ĺà½ļà½ĵ
à½Ĳ à½ĸà½ł
à½ı à½ĸà½¢
à½ĸà½¢ à½ĺà½ļ
à¾£ à½±à½ºà¼ĭ
à½Ķà½¦ à½ĵà½¦
à½Ķà½¦ à½ĺà½ĳ
à¾±à¼ĭ à¼´
à½ħà½ĵ à½¤
à¾Ĵà¾±à¼ĭ à¼´
à½łà½Ĩ à½ĳà½Ķà½ł
à½£à½Ĥ à½ł
à½£à½Ĥ à½ĺà½Ĳ
à½ĵà½ĺ à½ĩ
à½ĺà½ī à½ĵà½ĳ
à½ģà½Ħ à½Ķ
à½Į à½§
à½ĸà½ĵ à½¡
à½£à½¢ à½ĵ
Ġà¼¢ à¼§à¼¡
Ġà¼¢ à¼©à¼£
Ġà¼£ à¼¥à¼¥
Ġà¼£ à¼§à¼§
Ġà¼£ à¼¦à¼¢
34 6
à½¦ à½¦à½ł
à½Ĥ à½Ĥà½ĵà½ł
à½¢ à½Ĥà½ĺ
à½º à¾ĥ
à½£ à½ģà½¦
à½£ à½ļà½¢
à½Ķà½ł à½ĺà½Ĳ
à½ķ à½ĸà½¢
à½ļ à½Ķà½¢
à½ļ à½ĳà½Ķ
à½Ķà½¢ à½Ħà½¦
à½Ķà½¢ à½ĺà½ģ
à½ĵà½¦ à½ĺà½ļà½ĵ
à½Ķà½¦ à½ĺà½Ľ
à¾¨ à¾¨
à¾¦ à¾¦à½¾à¼ĭ
à½ĸà½Ģ à½¤
à½Ĥà½ĳ à½łà½ĳ
à½ĺà½ł à½ļà½£
à½Ĩà½Ĥà½¦ à½Ķà½¢
à½£à½ł à½¢
Ġà¼¢ à¼¤à¼¨
Ġà¼£ à¼¡à¼©
Ġà¼£ à¼£à¼¤
Ġà¼£ à¼¥à¼§
à¼ĭà½Ī à¾²à½²
à¾ļ à½º
Ġà½Ł à½ĺ
à¾° à¼ĭà¼į
Ġà¼¤ à¼¤à¼¤
à½¼à½¾ à½¾à½¾à¼ĭ
à¼ĭà¾¢ à¾±à¼ĭ
ģ à¾ĥà¼ĭ
à½ĳ à½łà½Ĩ
à½Ĥ à½ĺà½Ħà½ł
à½Ĥ à½ĸà½ĺ
à½ĵ à½ŀà½ĸà½¦
à½ĵ à½Ĥà½ŀà½£
à½ĺ à½ĳà½Ĥà½ł
à½ĺ à½łà½ķà½Ĥà½¦
à½Ĩ à½ĸà½ŀ
à½ģ à½ĵà½Ħ
à¾¡ à½¼à¼įà¼ĭ
à½¡à½Ħ à½ĸà½ħ
à½ĸà½Ģà½ł à½£
à½Łà½ĳ à½Ļà½ĺ
à½ĺà½ļà½ĺà½¦ à½ĵà½¦
à½Ŀ à½ļ
Ġà½ĳ à½¦
à½Ĥà½ĺ à½ŀ
Ġà¼¢ à¼¨à¼¤
à½¦à½¦ à½£
à¼ĭà½Ī à¾Ļà½²
à½ĭ à½ı
à¾¶ à¾±à¼ĭ
à¾¦à¾· à½²à¼į
34 8
3 22
Ġ à½ķà½ĸ
à½¦ à½¦à½ĳ
à½ĳ à½¡à½ĵ
à½Ĥ à½ĳà½Ĥà½Ĥ
à½ĵ à½Ĳà½Ħ
à½ĵ à½ĺà½Ħà½ł
à½Ħ à½Ĥà½¦à½Ħ
à½º à½´à¼ĭ
à½ĺ à½Ķà½ĵ
à½ł à½ĺà½ł
à½£ à½ŀà½£
à½ŀ à½Ĥà½ī
à½Ĩ à½Ĥà½ĵà½¦
à¾Ĵ à¾Ń
à½ĳà½Ħ à½Ĥà½ħ
à½ļ à½İ
à½¡à½Ħ à½ĺà½Ĩ
à¾© à¼įà¼ĭ
à¾¦ à½±à½´à¼ĭ
à½Ľ à½Ĩ
à½¢à½ĸ à½ī
à½łà½ĳà½¦ à½Ĥà½£
à½ĳà½Ĥà½ł à½ĵ
à¾¨à¾² à¾±à½´à½¾à¼ĭ
Ġà½¦ à½Ķ
à½ļà½Ħà½¦ à½Ķ
à½ĸà½¦à½£ à½ĸà½ł
à½Į à½Ĭ
à½Ĩà½Ĥ à½ķ
à½ĸà½ĵ à½Ķ
à½ĳà½Ķà½¦ à½ĵ
35 0
35 2
à½¦ à½ĵà½ĺà½¦
à½ĳ à½ŀà½Ĥ
à½Ĥ à½Ĳà½Ĥ
à½£ à½ĳà½¢
à½¡ à½ĳà½¢
à½ŀ à½¨
à½ĸà½¦ à½ĸà½ŀ
à½ĳà½Ħ à½£à½¦
à½Ķà½¢ à½ĩ
à½Ħà½¦ à½ĸà½¢
à½Ł à½Łà½ĸ
à½ħà½ĵ à½Ķ
à½Ĥà½ŀà½ĵ à½ĸ
à½±à¼ĭ à½¾
à½±à¼ĭ à½±à½´à¾ĥà¼ĭ
à½Ĥà½ĳ à½Łà½Ĥ
à½ĺà½ł à½¢
à½Ĥà½ĵ à½Ĥà½ĵà½¦
à½ĳà½Ģà½¢ à½£
à½īà½ĺà½¦ à½Ķà½ł
à½Ħà½ĵ à½ł
à½£à½ĵ à½Ķ
à½±à½²à¼ĭ à½²
Ġà¼£ à¼¡à¼¥
Ġà¼£ à¼¤à¼¢
Ġà¼£ à¼§à¼¢
à¼Ģ à½Ķà½ī
à½Ĳà½ĺà½¦à½ħà½ĳ à½¢
à¾¡à¾· à½±à¼į
34 2
35 8
Ġ ï»¿
à¼ĭ ï¼ī
à½ĸ à½ļà½Ħ
à½¢ à½łà½Ĩ
à½ĵ à½¤à½¢
à¾² à½ºà¼įà¼ĭ
à½¡ à½ĸà½ħ
à½ĸà½¦ à½ĸà½ĳ
à½ĸà½¦ à½ĳà½ĳ
à½ģ à½Ĥà½ĵà½¦
à½ķ à½ĵà½ĺ
à½¤ à½Ĭ
à½ĳà½Ĥ à½ĸà½ĳà½Ĥ
à½ĳà½Ĥ à½Ĥà½Ł
à½ĳà½Ķ à½ļ
à½Ĥà½ı à½ĺà½Ĥ
à½ĳà½ĸà½Ħ à½¤
à½Ĳà½ĺà½¦ à½ħà½¢
à½£à½ĺ à½ĺà½Ĩ
à½ĺà½ļà½ĵ à½ĺà½¦
à½ĸà½ħà½¦ à½Ķà½¦
à½ĸà½Ģà½ł à½ĵ
à¾Ĳà¾± à¾±à½ºà¼ĭ
à½£à½ĵ à½ĸ
à½Ĳà½¢ à½ĸà½¢
à½ĸà½ıà½Ħ à½ĵà½¦
à½£à½Ĥà½¦ à½ı
à½Ĩà½Ĥ à½Ĥà½¦
à¾Łà½² à½¾
Ġà¼¢ à¼¤à¼£
Ġà¼£ à¼¢à¼§
Ġà¼£ à¼¦à¼¥
Ġà¼£ à¼¥à¼¢
à½¢à½ĳ à½ĸà½ŀ
à½¦à½Ģ à½£
à¾ł à½¾à¼į
34 3
34 4
35 3
33 3
Ġ à½ĳà½ĺà½ł
à½ĳ à½ĳà½ĺà½¢
à½ĳ à½ĳà½Ĥà½Ĥ
à½ĸ à½ĸà½Ľ
à½ĸ à½Ĳà½ł
à½¢ à½ĳà½Ģ
à½¢ à½ļà½ĵ
à½´ à¾ĥ
à½Ķ à½ĳà½Ģà½¢
à½Ĩ à½ĵà½Ķ
à½Ķà½ł à½Ĥà½£
à½¤ à½¦à½ĺ
à¾Ĳ à½²à¼į
à½¡à½Ħ à½Ģ
à½Ķà½¦ à½Ĥà½ĳ
à¾±à¼ĭ à¼º
à½Ĥà½ı à½ĺà½¢
à½§ à½Ķ
à½Ħà½Ĥ à½£à½¦
à½ĺà½ļà½ĺà½¦ à½¢
à½¢à½ĸà½¦ à½Ģ
à½Ĥà½ŀà½Ĥ à½ĺ
Ġà¼¢ à¼¨à¼¥
Ġà¼£ à¼¢à¼£
Ġà¼£ à¼¢à¼¡
à½Ĵ à½Ŀ
à½ĭ à½ģ
36 2
à½ľ à½£
Ġ à½ıà½Ħ
Ġ à½ŀà½ĵ
à½¦ à½Łà½ĳ
à½ĳ à½ŀà½ĸà½¦
à½¢ à½Ĥà½ıà½ĵ
à½¢ à½ª
à½ĵ à½Ĩà½¢
à½´ à½¼à¼ĭ
à½ĺ à½Ģà½¦
à½£ à½ŀà½Ĥ
à½´à¼ĭ à½Īà½ºà¼ĭ
à½ŀ à½Ķà½¢
à½ģ à½ĸà½ł
à½ģ à½ĺà½ł
à½ļ à½ħ
à½ī à½ĳà½Ħ
à½¤ à½ķ
à½ĳà½Ĥ à½Ĥà½ħ
à½Ħà½¦ à½ĺà½Ħ
à½£à½¦ à½ĸà½¤à½ĳ
à½Ķà½¦ à½ĳà½ĸà½Ħ
à½ĸà½ħ à½ĺà½¦
à½Ļ à½ķ
à½Ĥà½Ħ à½ĸà½¢
à½Ľ à½ĸà½¢
à½ĺà½Ĩ à½ĵà½ĺ
à½ĳà½ĸà½Ħ à½ĳà½Ħ
à½ħà½ĳ à½łà½Ĥ
à¾Ĺà½ºà¼ĭ à¼Ĳ
à½ĸà½¤à½ĳ à½ĸà½ł
à½łà½ĳà½¦ à½ħ
à½ĳà½Ķà½ł à½ĳà½Ħ
à¾¦à¾±à½¼ à½¼
à½Ĥà½¢ à½ĵ
à½ĸà½¦à½ĺà½¦ à½ĺà½¦
à½Ĥà½ŀà½£ à½ĸ
à¼¡à¼§ à¼¤à¼£
Ġà¼¢ à¼¥à¼¨
Ġà¼£ à¼¤à¼¤
à½Ĺ à½§
Ġà½¨ à½Ĥ
à½ĭ à½Į
à¾·à½± à½ºà¼ĭ
34 1
à¼ĭ à¾·
à½¦ à½Ħà½Ħ
à½ĵ à½ļà½Ħà½¦
à½ĵ à½Ĳà½ĺ
à¾± à¾²à½²
à½ł à½ħà½ĳ
à½ĸà½¦ à½ĺà½Ľà½ĳ
à½ĺà½¦ à½Ļà½ĵ
à½Ł à½ı
à¾Ĺ à¼ĭà¼į
à½ĳà½ĸ à½¤
à½Ĥà½ŀ à½Ĥà½ħ
à¾²à½² à½²à¼ĭ
à½ĸà½ĳ à½ĸà½ł
à½ħà½ĵ à½ķ
à½ĩ à½¡
à½ĺà½ł à½ļ
à¾Ĳà½´ à¼µà¼ĭ
à½ĺà½ī à½ĺà½ĳ
à½Ŀ à½¦à½ı
à½ĸà½ıà½ĸ à½Ķ
à½ļà½ĵ à½Ķ
à½ĳà½Ĥà½Ĥ à½Ķà½ł
à½ĵà½ĵ à½Ĥà½¦
à½Į à½¨
à¾«à½´à¼ĭ à¼į
à½ĳà½ĵ à½£
à¾ł à½¼
Ãĥ à½Ķ
35 4
Ġ à½ĳà½ĸà½ĸ
Ġ à½¤à½Ħ
à½¦ à½Ĩà½¢
à½Ĥ à½Ĩà½Ĥ
à½Ĥ à½Ĩà½Ħ
à½ĸ à½ĸà½ıà½Ĥà½¦
à½ĸ à½ĵà½ĺà½¦
à½ĵ à½ĸà½ı
à½ĵ à½ĸà½ĵ
à½Ķ à½ļà½Ħ
à½£ à½ļà½Ħ
à½ºà¼ĭ à¼įà¼ĭ
à½Ķà½ł à½ļà½£
à½¤ à½¦à½¢
à½Ķà½¢ à½ĺà½ļ
à½ĸà½ł à½ĩà½ĺ
à½§ à½łà½ĺ
à½ĺà½Ĳà½ł à½ł
à½Łà½ĳ à½ĵ
à½İ à½Ĥ
à½ıà½ĵ à½ĸ
à½ĵà½ĺà½¦ à½ļ
à½¦à½ĺ à½¡à½¦
à½¥ à½Ĥ
à½¢à½¦ à½ĵ
à½ķà½Ĭ à½ĵ
Ġà¼¢ à¼¨à¼¦
Ġà¼§ à¼§à¼§
à½ĵà½ĺà½ģà½ł à½£
à¼¢à¼¡à¼¤ à¼¢
Ġ à½ĺà½ĵà½ł
à½ĳ à½£à½ł
à½ĸ à½Ķà½£
à½¢ à½Ĩà½Ĥà½¦
à½ĵ à½ĳà½Ķà½Ĥ
à½Ħ à½ĳà½Ģ
à½Ħ à½ĺà½ļà½ĺà½¦
à½²à¼ĭ à½±à½´à¾ĥà¼ĭ
à½Ķ à½£à½¢
à½£ à½Ĥà½¡à½¦
à½£ à½Ĥà½ıà½ĳ
à¾² à¾¤à¾±à½²
à½¡ à½łà½Ħ
à¾Ł à½´à¼įà¼ĭ
à½Ķà½ł à½Ħà½¦
à½ĸà½¦ à½łà½ģ
à½ĺà½¦ à½¢à½ĸ
à½ĳà½Ĥ à½łà½Ĩ
à½Ħà½¦ à½ŀà½¦
à½£à½¦ à½ĳà½ĸà½Ħ
à½Ķà½¦ à½Ĥà½ħ
à½Ľ à½Ķà½ĳ
à½Ĥà½¦à½£ à½ł
à½ĸà½Ĥ à½ĺà½¦
à½ĺà½Ĳà½ł à½ī
à½ĳà½Ķà½£ à½Ĥà½ŀ
à½Ĳà½ĸà½¦ à½ĸ
à½ļà½Ħ à½ĸ
à½Ŀ à½ĵà½¦
à½Ĥà½ĳà½ĵ à½ĵ
à½ĸà½ĸà½¦ à½Ĥà½¦
à¾µ à¾¼à¼ĭ
à½ĳà½ĵ à½Ķ
à¼¡à¼¨ à¼¢à¼¤
Ġà¼£ à¼£à¼¥
Ġà¼£ à¼§à¼©
à½¢à½ı à½ł
à¾ļ à¾²à¼ĭ
Ġà½Ĩ à½ĺ
à½Ĳà½ĺà½¦à½ħà½ĳ à½¦
à½ĳà½¦ à½Ķ
à½Ĺ à½ī
à¾» à½±
34 9
36 4
37 1
38 5
à½¦ à½ĸà½ıà½Ĥà½¦
à½ĸ à½ģà½ĺà½¦
à½´ à¾Ģà¼ĭ
à½Ħ à½ħà½¦
à½ĺ à½ŀà½£
à½£ à½£à½Ĥà½¦
à½£ à½ĳà½Ģà½ł
à½ģ à½Ĥà½¢
à½Ĳ à½ķ
à¾Ĳ à¾Ĺà½¼
à½Ķà½¢ à½Ĥà½ŀ
à½Ķà½¢ à½¨
à½ĵà½¦ à½ĺà½ļ
à¾Ķ à½²à¼ĭ
à¾© à¾¨à¼ĭ
à¾²à½¼ à½¾
à½ĳà½ĺ à½ĺà½ģà½ł
à½ĺà½Ĩ à½ł
à½ħà½ĳ à½ħà½ĳ
à½£à½ĺ à½İ
à½±à¼ĭ à½±
à½ĺà½ĳ à½Ĥà½¦
à½ĸà½ı à½Į
à½Łà½ĳ à½£
à½Ĥà½ĵà½Ħ à½ĵ
à½Łà½ĸ à½Ķ
à½Ģà½¢ à½£
à¼¡à¼¨ à¼¢à¼¦
Ġà¼£ à¼£à¼§
à½²à¼ĭà¼į à¼ĭà¼į
à½ĭ à½ĸ
à½Ħà½ĸ à½ĳà½Ħ
à¾İ à¼į
3 35
à¼ĭ à¾¨à¾²
à½ĵ à½£à½ł
à½ĵ à½Ĳà½ĺà½¦à½ħà½ĳ
à½£ à½ŀà½ĸà½¦
à½£ à½Łà½ĸ
à½Ĥà½¦ à½Ĥà½ŀ
à½¡ à½ĸà½ĳ
à½ķ à½ĺà½¢
à½ĺà½¦ à½īà½ĺà½¦
à½Ł à½ĸà½£
à½Ł à½Łà½¦
à½£à½¦ à½ĵà½¦
à½Ķà½¦ à½ĵà½ĳ
à¾²à½¼ à¼µ
à½ĳà½Ķ à½¡
à½Ĥà½Ħ à½ĺà½¦
à½Ĥà½Ħ à½ĺà½Ħ
à½ħà½ĵ à½¢à½Ħ
à½ĸà½Ł à½ĺ
à½ħà½ĳ à½ģ
à½§ à½İ
à½ĩ à½łà½ĺ
à½ģà½ĺà½¦ à½Ĥ
à½Ħà½Ĥ à½ĳà½ĸà½Ħ
à½Ĥà½£ à½ļ
à½ĳà½Ģà½ł à½ĸà½¦
à¾¡à½º à½ºà¼ĭ
à¾¦à¼ĭ à½²
à½łà½Ĩà½¢ à½Ģ
à½Ī à¾²à½º
Ġà¼¢ à¼£à¼£
Ġà¼¢ à¼§à¼¨
Ġà¼¢ à¼¨à¼¡
Ġà¼£ à¼¨à¼¢
à½Ľà½ĺ à½ĸ
à¼ĭ à¾ľ
à½¦ à½Ĳà½¢
à½Ĥ à½ĳà½Ģà½ł
à½ł à½łà½ļ
à½Ķ à½ĸà½Ļ
à½Ĥà½¦ à½Ĥà½ħ
à½¼à¼ĭ à½²à¼į
à¾Ĵ à¾Ĵà¼ĭ
à½ĳà½Ħ à½ĳà½Ķ
à½ģ à½¢à½¦
à½¤ à½¨
à½ĸà½¢ à½ĺà½ł
à½ĵà½¦ à½£à½ĺ
à½ĵà½¦ à½ĸà½¦à½ĺ
à½Ħà½¦ à½Ĥà½¦
à½ĸà½ŀ à½Ģ
à½£à½¦ à½Ĥà½ŀ
à½¡à½Ħ à½Ĥà½ĵà½¦
à¾· à¾°
à½Ļ à½Ħà½¦
à½ĳà½ĺ à½¢à½ĸ
à¾¦ à¾·à½±à½´à¼ĭ
à½Ĥà½Ħ à½ħ
à½Ĥà½ĵà½¦ à½Ĳ
à½łà½ķ à½ª
à½łà½Ľ à½¦
à¾Ń à½±à½²
à½łà½Ĩ à½¢à½ĸ
à½Ĥà½ĵ à½łà½Ħ
à½£à½Ĥ à½ĸà½ĳ
à½ĺà½ģà½ł à½ĺà½Ľ
à½Ĥà½ıà½ĵ à½Ĥà½¦
à½¤à½¢ à½ĵà½¦
à½ĸà½ħà½ĳ à½Ķà½¦
à½Ħà½Ħ à½Ħ
à½Ĥà½ŀà½Ĥ à½ĳà½Ħ
à½¦à½Ħ à½ĺ
à¾Ĳà¾±à½´ à¼į
Ġà¼£ à¼¤à¼¦
à¼¢à¼¡à¼¢ à¼¡
37 3
Ġ à½łà½ĩà½£
Ġ à½łà½ĩà½Ħ
à½¦ à½Ķà½İ
à½Ĥ à½ķà½¢
à½ĸ à½ĺà½ī
à½ĵ à½Łà½Ĥ
à½ĵ à½łà½Ĥà½ł
à½ĺ à½ĸà½ıà½Ħ
à½£ à½Ĥà½ıà½ĵ
à½£ à½ģà½¢
à½Ĥà½¦ à½ĸà½Ł
à½Ģ à½ĩ
à½ĸà½¦ à½ĳà½ĺ
à¾±à½²à¼ĭ à½¾
à½Ķà½¢ à½łà½ļ
à½ĵà½¦ à½ĳà½ĸà½Ħ
à½Ħà½¦ à½ĸà½ł
à½ĳà½ĸà½Ħ à½Ĳ
à½¨ à½ģà½¦
à½ĸà½ĳà½Ĥ à½Ĥà½¦
à½ĺà½ł à½ĵ
à½Ļà½ĺ à½¡
à½ĺà½Ľà½ĳ à½Ķà½¢
à½Ĥà½¦à½£ à½Ķ
à¾Ĳà¾±à½ºà¼ĭ à½²
à½£à½Ĥ à½Ĥà½¦
à½łà½ļ à½£à½Ĥ
à½ĳà½Ĥà½ł à½Ħ
à½Ĥà½ıà½ĵ à½Ĥà½ī
à½Ĭ à½¤
à½ĸà½ĸ à½ĸà½ĸà½¦
à¾Ĳà¾² à¼ĭà¼į
à¾µ à¾¨à½ºà¼ĭ
Ġà¼£ à¼¤à¼§
à¾ļ à¾²à½²à¼ĭ
à½Ĺ à½ŀ
à½© à½£
à½ĥ à½ĸ
à¼¢à¼¡à¼£ à¼¨
34 7
35 1
36 5
37 6
à¾µà¾¨ à½±à½¾à¼ĭ
Ġ à½²
à¼ĭ à½¶
à½¦ à½¡à½¦
à½² à¼ŀà¼į
à½Ĥ à½ĸà½ĵ
à½ĸ à½ģà½¦
à½ĸ à½ļà½¢
à½¢ à½ĵà½¢
à½ĵ à½Ĥà½¡à½¦
à½ł à½łà½Ħ
à½£ à½ĸà½ħà½¦
à½ºà¼ĭ à¼´à¼į
à½¡ à½Ķà½£
à½Ĩ à½ĸà½Ĥ
à½ĸà½¦ à½łà½ĸ
à½ĳà½Ħ à½ĺà½ĳ
à½ī à½£à½ĵ
à¾³ à¾²
à½łà½Ĥ à½¤
à½£à½¦ à½ĺà½ĳ
à¾²à½¼ à½¾à¼į
à½Ĥà½Ħ à½ķ
à½ĺà½Ĩ à½ĵà½¦
à½ĳà½Ģ à½łà½ĳ
à½£à½ĺ à½ĩà½£
à¾Ĵà½¼à¼ĭ à½²
à½īà½ĺà½¦ à½¢
à½ĳà½ĳ à½ĸà½¦
à½İ à½Ħ
à½ĸà½ŀà½Ĥ à½Ĳ
à½Ĳà½£ à½ĳà½Ħ
à½ĳà½Ģà½ł à½ł
à½łà½ĩà½ĺ à½Ķà½ł
à½¢à½¦ à½ĳ
à½ķà½ĺ à½Ķà½¢
Ġà¼£ à¼¤à¼¡
Ġà¼£ à¼©à¼¢
Ġà¼§ à¼¡à¼¡
à¼£à¼£ à¼£à¼£
à¾» à½´
à½© à½Ķ
à½ĵà½Ķà½¦ à½ĵ
à½Ĥà½Ĳ à½ķ
35 7
37 2
à½Łà½Ł à½Ł
à¼ĭ à¾¡à½¼à¼ĭ
à¼ĭ âĪ¶
à½ĳ à½¦à½Ħ
à½Ĥ à½ĺà½ģà½¢
à½ĸ à½ĳà½ĺà½¢
à½ĸ à½Ĳà½¢
à½¢ à½Ĥà½ŀà½Ĥ
à½Ħ à½Ķà½ī
à½ĺ à½Łà½ĸ
à½ĺ à½Ģà½ł
à½£ à½ĳà½Ķà½ł
à½¡ à½«
à½Ģ à½Ĥà½ŀà½ĵ
à½Ĩ à½łà½ĸ
à½ħ à½ķ
à½ħ à½ī
à¾±à½²à¼ĭ à½Īà½º
à½ļ à½Ħà½ĵ
à½ī à½Ł
à½Ķà½¢ à½£à½¦
à½ĸà½¢ à½¢à½ĸ
à½ĵà½¦ à½Ĥà½ĳ
à½Ħà½¦ à½ĩ
à½¡à½Ħ à½łà½ģ
à½ĳà½ĸ à½Ķ
à¾© à½±à½²à¼ĭ
à½ĳà½ĺ à½ħà½ĵ
à½Ĥà½Ħ à½Ķ
à½ĺà½ģ à½ĵà½ĺ
à½ĸà½ĳà½Ĥ à½Ĥà½¡
à½¢à½ĸ à½¡
à½ĸà½¦à½ĺ à½ī
à½Ĥà½ĵ à½ĳà½ĳ
à½ĺà½Ĳà½ł à½ħà½ĵ
à½ĺà½ģà½ł à½ĵ
à½ĺà½Ĳà½¢ à½Ģ
à½ĳà½ĺà½¢ à½£
à½¦à½¢ à½ĸà½¦
à½łà½ļà½£ à½ŀ
à½ĸà½Ľ à½¦
à½Ĩà½Ĥ p
à½Ĥà½ĳà½Ĥà½¦ à½¦
à½¦à½¦ à½Ķ
Ġà½ĵ à½ĸ
à¾Łà¾Ń à¾ĥ
à½ĥ à½ı
35 5
39 8
à¼ĭ à¾Ĳà¾±à½º
à½¦ à½Ĥà½¡à½¦
à½ĳ à½§à½¢
à½Ĥ à½ĺà½ī
à½¢ à½Ĥà½ł
à½ĵ à½ĸà½ĸ
à½Ħ à½ĺà½ģà½¦
à½ĺ à½ĸà½Łà½Ħ
à½ł à½ĺà½ī
à½Ķ à½Ĥà½¢
à½¡ à½ĳà½ĸà½Ħ
à½Ģ à½ĸà½ħ
à½ŀ à½łà½ĳ
à½ģ à½¢à½Ħ
à¾¡ à¾¡à½¼
à½ĸà½ł à½ĺà½¢
à½ĸà½ł à½Ĩà½ĳ
à½łà½ĸ à½ĺà½¦
à½¨ à½Į
à½Ĥà½ŀà½ĵ à½Ĥà½ī
à¾Ĺà½ºà¼ĭ à½²
à½ĺà½ļà½ĵ à½ĸ
à½ŀà½£ à½ĵ
à½ĺà½Ĳà½¢ à½ĳ
à½Ĳà½¢ à½£
à½Ĳà½¢ à½Ķà½¢
à½£à½Ĥà½¦ à½ĺ
à½ļà½ĵ à½£
à½łà½ĸà½ĳ à½ĵ
à¾µ à½ºà½¾à¼ĭ
Ġà¼£ à¼§à¼¤
à¾ļ à½±à¾Ģà¼ĭ
Ġà½¨ à½ĺ
à½£à½£ à½£
à¼ĭà¾¢ à¼į
35 9
37 5
à½Ĺà½ı à½Ł
Ġ à½łà½ĸà½Ħà½¦
à¼ĭ [
à½¦ à½ĵà½łà½Ħ
à½¦ à½ļà½Ħà½¦
à½Ħ à½Ĩà½Ĥà½¦
à½Ķ à½Łà½Ĥ
à½£ à½Łà½ĳ
à½¼à¼ĭ à¼ŀà¼į
à½Ģ à½¦à½¢
à½Ķà½ł à½ĸà½¢
à½ģ à½¢à½ĸ
à½ģ à½ĺà½ĺ
à½Ĳ à½ĺà½Ħ
à½¤ à½£à½¦
à½¤ à½Ķà½ĳ
à½¤ à½ĺà½Ĳà½ĸà½¦
à¾Ĳ à¾Ń
à½ĳà½Ĥ à½łà½ĩ
à½ĵà½¦ à½Ķà½¢
à¾²à½´ à½¾
à¾© à¾±à½²à¼ĭ
à¾· à¾±à½º
à½¢à½Ħ à½ĳà½ĸà½Ħ
à½ĺà½Ĳ à½łà½ģ
à½ĳà½ĺ à½¡
à½¾ à½²
à½ĺà½Ľà½ĳ à½Ĩ
à½łà½ĳà½¦ à½ĩ
à½ĵà½ĺ à½Ķ
à¼¤ à¼¡à¼¨à¼¢
à½İ à½Ĩ
à½ıà½ĵ à½ĺà½Ĳà½ł
à½Ĥà½¢ à½¢
à½¤à½¢ à½ĸà½ł
à½ĸà½ıà½Ĥà½¦ à½ĵà½¦
Ġà½¢ à½ĳ
Ġà¼£ à¼¥à¼©
Ġà¼£ à¼¤à¼¨
à½ĳà½Ĥà½¦ à½Ħà½¦
à¼Ģ à½Ĩ
36 6
36 7
Ġ à½Ĥà½ĵà½Ĥ
Ġ à½ĩà½Ĥ
à¼ĭ à½³
à½Ĥ à½ĸà½ħà½ĳ
à½ĸ à½ĸà½Ģà½Ĥ
à½¢ à½ĳà½Ĥà½ł
à½Ħ à½£à½ĵ
à½¼à¼ĭ à½Īà½²à¼ĭ
à½ĳà½Ħ à½¢à½ĸ
à½ĳà½Ħ à½Ĳà½ĸà½¦
à½ģ à½łà½Ĥ
à½ļ à½Ĥà½ħ
à½ĺà½¦ à½ĳà½Ķ
à½ī à½łà½Ħ
à½ĸà½¢ à½Ħà½¦
à¾£ à¾²à¼ĭ
à½ĵà½¦ à½ĳà½Ķ
à½Ħà½¦ à½Ģà½¢
à¾³ à¾Ĺà½¼à¼ĭ
à¾¡ à¾Ńà¼ĭ
à½łà½Ĥ à½ĸà½¦
à½£à½¦ à½łà½ķ
à½Ķà½¦ à½Ķà½ł
à¾· à¾°à¼ĭ
à½Ļ à½ĳà½Ħ
à½Ļ à½Ŀ
à½Ļ à½łà½ĺ
à½ħà½ĳ à½Ĥà½¦
à½¢à½ĸ à½ıà½Ħ
à½£à½ĺ à½£à½¦
à¾¡à½´ à¼įà¼ĭ
à½ĵà½ĺ à½¤
à¾£à¼ĭ à¼´
à½ĺà½¢ à½ĵ
à½ģà½ĺà½¦ à½ħà½ĳ
à½ĺà½ļà½ĺà½¦ à½ĵ
à½ĺà½ĩ à½Ĥ
à½¥ à½§
à½¢à½¦ à½ł
à½Į à½ĸà½¦
à½ĳà½£ à½¢
à½¢à½Ĥ à½£à½¦
Ġà¼£ à¼¦à¼¦
Ġà¼£ à¼©à¼¤
à½Ĺ à½ĺà½¦
Ġà½¨ à½Ģ
à¾·à¾± à¾ĥà¼ĭ
à½ĸà½ī à½ĳ
38 2
à¼ĭ à¾Ģà¼ĭ
à½ĳ à½¦à½ĳ
à½Ĥ à½ĸà½¤
à½Ĥ à½Ķà½łà½ĺ
à½Ĥ à½ķà½£
à½ĸ à½Ħà½ł
à½ĵ à½£à½łà½Ħ
à½Ħ à½łà½ĳà½¦
à½Ĥà½¦ à½ĳà½Ķ
à½Ģ à½ĵà½ĳ
à¾Ł à¾Ĳà½¼
à½Ķà½ł à½ŀ
à½ĺà½¦ à½ĺà½Ľà½ĳ
à½ĳà½Ĥ à½ĩ
à½łà½ĳ à½łà½ĸà½ł
à½Ł à½ĸà½ŀ
à½Ł à½ķà½¡
à½ĸà½ŀ à½Ħà½¦
à½£à½¦ à½ĳà½ĺ
à½¡à½Ħ à½Ĥà½ī
à½Ķà½¦ à½ĵà½Ħ
à½ĺà½Ĳ à½łà½Ĥ
à¾¨ à½´à¼į
à½ħà½ĵ à½£à½¦
à½ĸà½Ł à½ĸà½Łà½Ħ
à½¨ à½ĳà½Ĥ
à½ĩ à½łà½Ħ
à½İ à½Ļ
à½ĺà½Ĳà½¢ à½¦
à½Ĳà½£ à½¢à½Ħ
à½¤à½¢ à½¦
à½Ĭ à½łà½ĺ
à¾³à½´à¼ĭ à½´
à½łà½ĸà½¢ à½ĸà½¦
à½ķà½Ĭ à½ı
à½ĳà½ĺà½ĵ à½Ķà½ł
à½Ĩà½Ĥ à½ĺà½ĳ
à½Ĩà½Ĥ à½¥
à¼¡à¼¨ à¼¡à¼§
à½Ģà½¦ à½£
à½´à¼ĭà¼į à¼ĭà¼į
à¾ł à½±à½´à¼ĭ
34 5
38 0
38 4
à½Ľà½Ľ à½¨
à½Ĥà½Ŀ à½Ĥ
à½¦ à½ĸà½¤
à½ĺ à½Łà½ł
à½ł à½ĵà½Ħ
à½ļ à½ĵà½Ĥ
à½łà½ĳ à½ĸà½ŀ
à¾£ à½±à¼į
à¾£ à¼´
à½ĵà½¦ à½Ĥà½¦à½Ħ
à½Ł à½ĵà½¦
à½łà½ĸ à½ª
à½ĺà½Ĳ à½ª
à½ħà½ĵ à½ĸà½¦
à½ħà½ĵ à½ļ
à½ĳà½ĸà½Ħ à½Ĥà½¦
à½ĩ à½Ģ
à½Ĥà½ĳ à½ĳà½Ĥ
à½ĺà½Ľà½ĳ à½ĳà½Ĥ
à½Ĩà½Ĥà½¦ à½Ĩ
à½ĸà½Ģà½ł à½ĸà½ŀ
à½ģà½ĺà½¦ à½ĳ
à¾Ńà¼ĭ à½²
à½Ħà½ĵ à½Ķà½ł
à½ĵà½ĳ à½ĳà½Ħ
à½ĳà½ĺà½¢ à½ĺ
à½Ĭ à½¨
à½ŀà½ĸà½¦ à½Ĥà½ī
à½ĵà½ĺà½¦ à½ĺà½ĵ
à½łà½ĸà½¢ à½¦
Ġà½ĳ à½ĸà½¢
à¾Łà½²à¼ĭ à½²
Ġà¼£ à¼¥à¼¤
Ġà¼£ à¼¦à¼£
à¾Ľ à½¾à¼į
à¾´ à½±à¼ĭ
à¾¶ à½²
à½ĥ à½ī
à¾·à½±à½´ à½±à¼ĭ
35 6
Ġ à½ĺà½Ľà½Ħà½¦
à¼ĭ à¾´
à½¦ à½¡à½ĵ
à½¦ à½Ģà½¦
à½Ħ à½ĳà½Ķà½£
à½£ à½ĸà½Ľ
à½Ĩ à½Ķà½¦
à½Ķà½¢ à½Ł
à½ĸà½¢ à½ĳà½Ģà½ł
à½ĸà½ł à½Ĥà½Ĥ
à½Ļ à½ĺà½Ĳ
à½ĸà½ĳ à½ĸà½¢
à½Ĥà½ĵà½¦ à½ĺà½Ĩ
à½Ľ à½ĳà½ĺ
à¾²à½¼à¼ĭ à¼Ĳ
à½ĺà½ļà½ĵ à½¡
à½¾ à½¾à¼į
à½ĸà½¦à½ĺ à½īà½ĺ
à½łà½Ĥà½£ à½ĸà½¢
à¾Ģ à¼ĭà¼į
à½ķà½Ĭ à½Ĥ
à¾µ à½±à½²à½¾à¼ĭ
Ġà¼£ à¼¦à¼©
Ġà¼£ à¼§à¼£
à¾ļ à¾Ģà¼ĭ
à¾ļ à¾Ńà½±à¼ĭ
à¾ľà¼ĭ à½±à½²à¼ĭ
à½Ĺ à½ĳà½Ħ
à½±à½²à¼į à¼ĭ
à½£à½ķ à½Ĥà½¦
36 9
37 9
à½Ľà½Ľ à½Ľà½§
à½¢ à½¤à½¢
à½ĵ à½īà½ł
à½Ħ à½ĺà½ģà½ĵ
à½ĺ à½Į
à¾± à¾¤à¾²à½²
à½ł à½łà½ĺ
à½²à¼ĭ à¼ŀà¼į
à½ĸà½¦ à½ĺà½Ĳà½¢
à½ģ à½ĳà½ĸ
à½ģ à½Ĥà½ħ
à½łà½ĸ à½ĳà½ĺ
à½ĳà½ĸ à½łà½ĳ
à¾Ļ à¼ĭà¼į
à¾Ļ à½±à½²à¼ĭ
à½ħà½ĳ à½ĸà½¢
à½ħà½ĳ à½ĺà½ļà½ĵ
à¾« à¾²à¼ĭ
à½ĩ à½ī
à½£à½ĺ à½ĺà½Ħ
à½ĳà½Ķà½ł à½ĺà½Ĩ
à½ĸà½Ĥ à½Ķ
à½ĸà½Ģà½ł à½¤
à½Ħà½Ĥ à½ĺà½Ħ
à¾¤à¾± à¾¡à½¼
à½ĸà½ŀà½Ĥ à½ļ
à½ĸà½ŀà½Ĥ à½¢à½Ħ
à½Ĭ à½Ķ
à½£à½Ħ à½ļ
à½ĸà½ĵ à½£
à¾©à¾Ńà¼ĭ à½²
Ġà¼£ à¼¦à¼¨
Ġà¼£ à¼©à¼¡
à½ĭ à½§
à¼¢à¼¡à¼¤ à¼£
36 1
à¼ĭà¿ Ģ
Ġ à½ĸà½¤à½ĺà½¦
à½¦ à½ļà½ĵ
à½¦ à½£à½¢
à½ĳ à½Łà½ĳ
à½ĳ à½¤à½¢
à½ĳ à½ķà½£
à½ĳ à½Ļà½¦
à½Ĥ à½Ĥà½ĵà½ĳ
à½Ĥ à½Ģà½¢
à½Ĥ à½Ĥà½Łà½ł
à½ĸ à½ĸà½ħà½ĳ
à½ĸ à½ĳà½Ķà½Ĥ
à½ĵ à½¢à½ĺ
à½Ķ à½ĳà½Ķà½ł
à½Ĩ à½¢à½Ħ
à½ĳà½Ħ à½§
à½ĳà½Ĥ à½Ĥà½ĵà½¦
à½ĳà½Ĥ à½¡à½¦
à½Ķà½¢ à½Ĥà½ŀà½ĵ
à¾²à½´ à¾ĥà¼į
à¾· à¾±à½²à¼ĭ
à¾²à½¼ à¼µà¼ĭ
à½ħà½ĳ à½ĳà½ĳ
à½£à½ĺ à½ĩ
à½Ĥà½ĵ à½ĵà½¦
à½ĳà½Ķà½ł à½ĸà½¢
à¾Ĳà½¼ à½¼
à½ĳà½Ĥà½ł à½ł
à½Ħà½Ĥ à½Ķ
à½Ħà½Ĥ à½Ĩ
à½İ à½łà½ĺ
à½Ĥà½£ à½Ħ
à½¤à½¦ à½£
Ġà¼£ à¼¥à¼¦
Ġà½Ĥà½¦ à½ĳ
à¾ł à¾Ģ
à½« à½¡
à¼ĭà¼ŀ à¼ĭ
37 7
39 3
à½ĸ à½ĸà½ıà½Ħ
à½ĸ à½Ĩà½Ĥ
à½Ķ à½Ħà½Ħ
à½ŀ à½Ĥà½ĵà½¦
à½ŀ à½Ĥà½ħ
à½ĸà½¦ à½łà½Ĥ
à½ĳà½Ĥ à½Ļà½Ħ
à½Ł à½ī
à½¡à½Ħ à½Ĥà½Ł
à½¡à½Ħ à½¢à½ĸ
à½¨ à½ĳà½ĸ
à½ĸà½ĳà½Ĥ à½Ĥà½ŀà½ĵ
à½Ĥà½ĳ à½¡
à¾«à½¼ à½¼
à½Ļà½ĺ à½¡à½Ħ
à½ĸà½Ģà½ł à½ĺà½Ĩ
à½ĺà½ĵ à½ĵà½ĵ
à½£à½ĵ à½Ĥà½ħ
à½£à½ĵ à½Į
à½Ĥà½¢ à½ĺà½ģà½ĵ
à½Ŀ à½ĳà½Ħ
à½ĸà½ħà½ĳ à½£
à½¦à½Ħ à½ĸ
à½Ĥà½ĺ à½İ
à½ĸà½¦à½Ĥà½¦ à½Ķà½ł
à¼¡à¼¡ à¼¡à¼¡à¼¡
à½łà½Ĥà½Ĥà½¦ à½Ķ
à¾ŀ à¾ŀà¼į
4 39
Ġ à½ļà½ĸ
à½¦ à½ĸà½ı
à½Ĥ à½ĳà½ĺà½Ħà½¦
à½ĵ à½ĸà½ıà½Ĥà½¦
à½ĵ à½ĸà½Ħ
à½Ħ à½ĸà½łà½ĺ
à½Ķ à½£à½Ħ
à½Ģ à½ĺà½Ħ
à½ŀ à½ĸà½ĳ
à½Ĩ à½Ĥà½Ł
à½Ķà½ł à½ļà½Ħ
à½ģ à½¡à½Ħ
à½Ĳ à½Ĭ
à½ĸà½ł à½Ĥà½¦
à¾· à½¾à¼ĭà¼į
à½ĺà½Ĩ à½ĺ
à½ĺà½Ħ à½£à½ĵ
à½£à½Ĥ à½ĸà½¦
à½£à½Ĥ à½ĸà½ŀ
à½Ħà½Ĥ à½ĸà½¦
à¾ķ à¼į
à½ĺà½ģà½¦ à½Ĥ
à½£à½ĵ à½ĸà½ĳ
à½łà½ĺ à½ĸ
à½ĳà½Ķà½Ĥ à½Ķ
à½łà½Ĥà½£ à½¢
à½ĵà½ĺà½¦ à½ĸ
à½¡à½¦ à½ģà½Ħ
à½¦à½ĳ à½¦à½¢
Ġà¼£ à¼£à¼¦
Ġà¼£ à¼¥à¼¨
Ġà¼£ à¼¥à¼£
Ġà¼¤ à¼¡à¼¡
à½ĭ à½ĸà½Ľ
à¼¢à¼¡à¼£ à¼¢
36 0
36 8
38 7
40 6
4 14
à¼ĭ à½²à¼ĭà¼į
à¾ ¢
à½¦ à½Ĥà½Ħà½¦
à½¢ à½ģà½¦
à½Ħ à½ĺà½ģ
à½£ à½ĸà½ŀà½Ĥ
à½£ à½ĺà½ļà½ĺà½¦
à½Ģ à½¢à½ĸ
à½ķ à½Ĩ
à½ķ à½ŀà½Ħ
à½ļ à½£à½ĺ
à¾Ĳ à½ºà¼įà¼ĭ
à½ĸà½¢ à½ĳà½ĺ
à¾£ à¾¡à½¼
à½ĸà½ŀ à½Ĥà½ī
à½¡à½Ħ à½¤à½¦
à½Ķà½¦ à½£à½ĺ
à¾· à¾²à¼į
à½Ļ à½ĺà½ģ
à¾²à¼ĭ à½¼
à¾³à½¼ à¼µà¼ĭ
à½ĺà½ģ à½ĸ
à½¨ à½Ŀà½ł
à½ĵà½Ħ à½£
à¾·à¼ĭ à¼Ĳ
à½ĺà½Ĥ à½ĵà½Ħ
à½ĳà½Ķà½ł à½Ĳ
à½ĺà½Ĳà½ł à½ĵà½¦
à¾£à¼ĭ à½²
à½ĸà½Ģà½ł à½ĸà½¦
à½ģà½ĺà½¦ à½Ĳà½ĺà½¦
à½Ħà½Ĥ à½Ĥà½¦
à½£à½ĵ à½ļ
à½¢à½ĸà½¦ à½¦
à½ĸà½Ľ à½¢
à½£à½łà½Ħ à½ĺ
à½ļà½Ħà½¦ à½Ķà½¢
Ġà¼¡ à¼¡à¼¡à¼¢
à½ĸà½¤à½Ĥà½¦ à½¦
à½Ī à¾±à½º
à¾ª à½±à½²à¼ĭ
Ġà¼£ à¼©à¼©
Ġà¼£ à¼§à¼¥
à¼Ģ à½Ļà½Ģ
à¾¶ à½º
à¼ĭà¼Ŀ à¼Ŀà¼į
37 8
38 3
38 9
Ġà¼ Ĵ
à¾ľà¾» à½²à¼ĭ
4 13
4 22
Ġ à½ĺà½Ħà½¢
à½¢ à½ĸà½Łà½Ħ
à½¢ à½Ĥà½¢
à½ĵ à½łà½Ĩà½ĳ
à½ĵ à½ĳà½Ĥà½Ĥ
à½ĵ à½Ģà½ł
à½ĺ à½ĺà½ļà½ĺà½¦
à½ĺ à½ĺà½ĩ
à½ł à½Łà½ĳ
à½Ķ à½Ĩà½ĵ
à½£ à½Łà½Ĥ
à½£ à½¤à½¦
à½Ĥà½¦ à½Ļ
à½Ĥà½¦ à½ĸà½ĺ
à½ºà¼ĭ à½¾à¼ĭ
à½¡ à½ĸà½£
à½Ĩ à½Ĥà½ŀ
à½Ĩ à½¢à½ĸ
à½ĳà½Ħ à½ĳà½ĸà½Ħ
à½ħ à½Ĥà½ī
à½ħ à½Ĥà½ħ
à½ĳà½Ĥ à½ĸà½ĳ
à½Ħà½¦ à½ĺà½ĳ
à½Ł à½Ĥà½ħ
à½ĳà½Ķ à½Ķ
à½Ľ à½Ŀ
à½ĺà½Ĩ à½£
à½ĳà½Ģ à½ĸ
à½ĺà½Ľ à½łà½ĸ
à½¾ à½²à¼ĭ
à½Ĳà½ĸà½¦ à½ĳ
à½ĺà½īà½ĺ à½ŀ
à½ĵà½Ĥ à½Ħà½¦
à½ıà½ĵ à½ĺà½Ħ
à½¥ à½ļ
à½¢à½¦ à½Ĩ
à¾Ĳà¾²à½´ à¼į
à¾ª à¼ĭà¼į
Ġà¼£ à¼©à¼§
Ġà¼£ à¼©à¼£
Ġà¼¤ à¼¢à¼¢
38 6
38 8
39 0
Ġ à½łà½ļà½Ħ
à½¦ à½Ĳà½£
à½¢ à½Ļà½ĺ
à½¢ à½Ĳà½ĸà½¦
à½¢ à½ĳà½ĺà½¢
à½¢ à½ĭ
à½Ħ à½ĳà½Ĥà½ł
à½º à½²à¼į
à½ł à½Ķà½Ħ
à½Ķ à½ķà½ĵ
à½£ à½ħà½ĳ
à½Ģ à½ĸà½ĳ
à½ŀ à½ĸà½ŀ
à½Ĩ à½¡à½Ħ
à½ĸà½¦ à½ĸà½ł
à½ĳà½Ħ à½Ĥà½ŀ
à½ģ à½¤à½¦
à½Ĳ à½ĸà½Ģ
à½Ķà½¢ à½Ĥà½ħ
à½ĸà½¢ à½ĺà½ģ
à¾£ à½´à¼į
à½ĵà½¦ à½łà½ķ
à½ĵà½¦ à½ĺà½Ĳà½¢
à½ĸà½ħ à½ĸà½ħà½¦
à½Ļ à½Ķà½ł
à½ĵà½ĺ à½Ģ
à¾Ĳà¾± à½¼à¼ĭà¼į
à½ĺà½ģà½ł à½£à½¦
à½ģà½Ħ à½£
à½Ģà½ł à½¦
à½ĵà½¢ à½¢
Ġà¼¢ à¼¨à¼§
Ġà¼£ à¼©à¼¦
Ġà½¡ à½ĳ
à¼§à¼§ à¼§à¼§
à¾·à¾² à½±à½´
à¼¢à¼¡à¼£ à¼§
39 9
40 0
4 10
4 21
Ã ł
à½¦ à½Ĩà½ĵ
à½Ħ à½ļà½ĳ
à½£ à½łà½Ĩà½ĳ
à½£ à½ģà½ł
à½Ĥà½¦ à½łà½ģ
à½¡ à½¢à½ĸà½¦
à½Ģ à½ĺà½Ĳ
à½Ģ à½Ĥà½ħ
à½Ģ à½£à½ĵ
à½Ķà½ł à½ĺà½Ħ
à½ĸà½¦ à½£à½ĵ
à½ģ à½ĸà½£
à½Ĳ à½Ĥà½ħ
à½ķ à½ģ
à½ĺà½¦ à½ĺà½ĳ
à½Ħà½¦ à½ħ
à¾³ à½±à½´à¼ĭ
à½Ł à½Ķà½¢
à½ĸà½ł à½£
à½łà½ Į
à½¡à½Ħ à½Ħà½Ĥ
à½Ķà½¦ à½Ĳà½ĺà½¦
à¾© à¾ªà¼ĭ
à¾© à½²à¼įà¼ĭ
à½¢à½ĸ à½ķ
à½ĺà½ī à½Ĥ
à½ĳà½ĳ à½ħ
à½ĵà½Ĥ à½ģ
à½Ĭ à½ģ
à½¡à½¦ à½Ģ
à½ĳà½ĺà½Ĥ à½ļ
à½Į à½ĭ
à½łà½ĸà½ĳ à½Ķà½¦
à½Ĩà½Ĥ à½Ĩà½Ĥ
à½ĸà½Ħ à½¢
à½ª à½Ĥà½¦
Ġà¼£ à¼§à¼¦
Ġà¼£ à¼¨à¼©
à¼ĭà½Ī à¾¤à¾²à½²
à½ĵà½ıà½ĵ à½ĵ
à½łà½ł à½ł
à½ķà½Ł à½¥
à¼Ŀà¼Ŀ à¼į
Ã ī
Ġ à½ıà½ł
à½ĳ à½łà½Ĳ
à½ĸ à½§à½ł
à½Ħ à½ĺà½Ĳà½¢
à½Ĥà½¦ à½Ĥà½¦à½Ħ
à¾² à¾¤à½º
à½¡ à½ĸà½ĳà½Ĥ
à½¡ à½Ĥà½¡
à½ŀ à½łà½ĺ
à½Ĩ à½Ļ
à½ģ à½łà½ģ
à½ĺà½¦ à½ĺà½ł
à½ĺà½¦ à½ĳà½Ķà½¦
à½Ķà½¢ à½īà½ĵ
à½ĸà½¢ à½ī
à½Ħà½¦ à½Ĥà½Ħ
à¾²à½´ à¼įà¼ĭ
à½£à½¦ à½£à½ĺ
à½Ķà½¦ à½¦à½¦
à¾²à½¼ à¾ĥà¼ĭ
à½Ļ à½ĸà½¢
à½ħà½ĳ à½ķ
à½ħà½ĳ à½ĵà½ĺ
à¾Ĺà½ºà¼ĭ à¾İ
à½£à½ĺ à½ĳà½ł
à½Ĥà½¡ à½¦à½¢
à½ģà½ĺà½¦ à½ĺà½Ĳà½ł
à½ĳà½ĳ à½ĺà½ļ
à½ĸà½£ à½ĳ
à½ĳà½¢ à½ĵ
à½ĸà½¦à½ĺà½¦ à½ı
à½Ĩà½Ĥ à½łà½ĳ
à½ģà½¢ à½ĺ
à½ĵà½¢ à½Ĥ
à¾¤à½´à¼ĭ à¼į
à½Ī à¾²à½ºà¼ĭ
à½ĺà½īà½ĵ à½Ķ
à½ŀà½Ĥà½¦ à½Ķ
Ġà¼£ à¼¤à¼£
Ġà¼£ à¼¨à¼¨
Ġà¼£ à¼§à¼¡
Ġà¼£ à¼¨à¼¦
à½Ĵ à½łà½Ħ
Ġà½Ĳ à½ł
à¼ĭà½µ à¾ĥ
à½ħà½ĳà½ĺ à½ĳ
36 3
37 0
37 4
39 6
40 2
40 9
Ġ à¿ļ
à½¦ à½Į
à½ĸ à½Ķà½ĵ
à½¢ à½¢à½£
à½ĵ à½Ķà½İ
à½´à¼ĭ à½Īà½¼
à½ŀ à½ĳà½Ĥ
à¾Ł à¾±
à¾Ł à¾©à½¼
à½Ķà½ł à½ĺà½Ĥ
à½ĸà½¦ à½Ĥà½¦à½ĵ
à½ļ à½Ĭ
à½Ķà½¢ à½īà½ĺà½¦
à½ĸà½ł à½ĺà½ĳ
à½£à½¦ à½Ķà½ł
à½£à½¦ à½Ĥà½ĵà½¦
à½ĳà½ĺ à½ĵà½¦
à¾¦ à½¾à¼į
à½ĸà½Ł à½£
à½ĺà½ĳ à½łà½ĺ
à½ĸà½¦à½ĺ à½¡
à½ĳà½Ķà½ł à½Ĥ
à½£à½Ĥ à½ĵà½Ħ
à½ĸà½ŀà½Ĥ à½Ķà½ł
à½ĸà½ĸà½¦ à½ĵ
à½łà½ĸà½ĳ à½Ķà½¢
Ġà¼£ à¼¦à¼§
Ġà¼£ à¼¦à¼¤
à½ĳà½Ķà½¢ à½ĸ
à¾Ľ à½±à¼į
à¾·à¾² à¾ĥà¼ĭ
à¼ĭà¼ı à¼ĭ
à½¦ à½ĺà½Ħà½ł
à½Ĥ à½ĸà½Łà½ł
à½Ĥ à½ĳà½ĺà½ĵ
à½ĸ à½Ĩà½Ħ
à½¢ à½ĺà½ģà½ĵ
à½ĵ à½ģà½¦
à½ĵ à½ıà½ĺ
à¾± à¾±à½ºà¼ĭ
à½£ à½Ĥà½ĳà½ĵ
à½Ģ à½łà½ĩ
à½Ĩ à½ĺà½Ĩ
à½Ķà½ł à½Ĥà½Ĥ
à½ģ à½ĸà½ŀ
à½Ĳ à½ĺà½Ĥ
à½ĺà½¦ à½ĺà½Ĥ
à½ī à½Ħà½¦
à½Ķà½¢ à½ĸà½ħ
à¾· à¾Ńà¼į
à½Ĥà½ŀ à½Ĥà½ĵ
à½ĺà½ģ à½¡
à½£à½ĺ à½Ķ
à½¾ à½¼à¼ĭ
à½Ļà½ĺ à½£à½¦
à½ļà½ĳ à½¢
à½ĳà½Ģà½¢ à½Ĥ
à½ŀà½£ à½£
à½Ĥà½¦à½¢ à½¦
à½Ŀ à½Į
à½ĵà½ĺà½¦ à½ĵ
à½Ķà½łà½ĺ à½£
à½ĸà½ĸ à½ĵà½¦
Ġà¼£ à¼£à¼¨
à½ĳà½Ķà½¢ à½ĺ
à¼Ģ à½ģà½İ
à½Ĳà½ĺà½¦à½ħà½ĳ à½£à½¦
à½ĭ à½İ
à½ĭ à½Ģà½ł
Ġà¼Ĳ à¼į
à½ĳà½ĸà½ł à½¦à½ĺà½¦
à½© à½¨
à½ĥ à½Ķ
à¾¦à¾· à¾±à½±à¼ĭ
à½±à½¾ à¼ĭà¼į
Ãĥ à½ĺ
39 5
44 1
4 16
4 17
4 18
4 31
à½¢ à½ĺà½Ĳà½¢
à½Ħ à½łà½Ĳ
à½ł à½ĺà½Ĳà½ł
à½²à¼ĭ à¾²
à½£ à½ĸà½ıà½Ħ
à½£ à½ĸà½ĺ
à½Ĥà½¦ à½ĸà½¦à½ĺ
à¾² à¾¡à½º
à½ŀ à½ı
à½ĸà½¦ à½ĵà½ĳ
à½ĳà½Ħ à½łà½Ľ
à½ģ à½Ĥà½ŀà½ĵ
à½Ĳ à½Ķà½ł
à½Ĳ à½Ŀ
à½ĺà½¦ à½£à½ł
à½ı à½£à½ł
à½¡à½Ħ à½ĸà½ĳà½Ĥ
à½ĺà½ļ à½Ĥà½¦
à½Ĥà½ĵà½¦ à½ģ
à½ĺà½ģ à½łà½ĳ
à½ĺà½Ħ à½¤
à½ĸà½ı à½Ĥà½¦à½£
à½ĸà½Ļ à½ĵà½¦
à½ĸà½Łà½Ħ à½¢
à½ĺà½Ĳà½ł à½ĺà½Ħ
à½ĵà½ĺ à½Ķà½¢
à½łà½Ħ à½ĳ
à½Ĥà½¢ à½ĳ
à½ĸà½Ļà½ĵ à½Ķ
à½ļà½£ à½ĳ
à¼įà¼ĭà¼į à¼ĭà¼į
à½¦à½ĵà½¦ à½ĵ
à½ĸà½ĸà½ĸà½ĸ à½ĸà½ĸà½ĸà½ĸ
à¾·à¾²à½´ à½¾à¼į
4 25
Ġ à½Ĳà½ĺà½¦à½ħà½ĳ
à½¦ à½Ĥà½ĳà½ĵ
à½Ĥ à½Ķà½ĺ
à½ĸ à½Ĳà½£
à½¢ à½ĳà½ĵ
à½Ķ à½Ĥà½¦à½¢
à½Ķ à½Ģà½¢
à½£ à½łà½Ĥà½£
à½Ģ à½ĸà½ŀ
à½Ģ à½ĵà½Ĥ
à½ŀ à½Ł
à¾Ł à¾Ĺà½º
à¾Ł à¾Ńà½±
à½ĳà½Ħ à½ĺà½¢
à½ļ à½Ķà½¦
à¾Ĳ à¾²à½¼à¼ĭ
à½ĳà½Ĥ à½ĳà½ĸ
à½Ķà½¢ à½Ĥà½ĵ
à½Ł à½Ĥà½¡
à½ĳà½ĸ à½ĳà½¦
à½ĸà½ħ à½ĳà½Ħ
à½Ľ à½ĺà½¦
à½¨ à½ĸà½ĳ
à½Ĳà½ĺà½¦ à½ĺ
à½ħà½ĳ à½łà½ģ
à½±à¼ĭ à½±à¼ĭ
à½Ĥà½ĳ à½ŀ
à¾Ļà½² à½²
à½łà½ĳà½¦ à½ĺà½Ħ
à½łà½Ĩ à½ĸà½¦
à½ķà½ĵ à½Ĥà½ĳà½Ĥà½¦
à½Ĥà½¢ à½ĸà½¦
à½£à½Ĥà½¦ à½ĸ
à½ĳà½Ģà½ł à½ĺà½Ĩà½ĵ
à½Ĥà½ĵà½ĳ à½¦
à½Ĥà½ŀà½Ĥ à½Ĥà½¡
Ġà½¢ à½ĵ
à¾·à½²à¼ĭ à¾İ
à½Ĩà½Ĥ à½ģ
à½£à½Ħ à½¢
à¾µ à¾¨à½²à¼ĭ
à½ĺà½ĵà½ĵ à½Ķ
à¾«à½² à½¾à¼ĭ
à¾²à½±à½² à¾ĥà¼ĭ
à½Ķà½ı à½ĸ
à¾Łà½± à¼ĭà¼į
à¼ĭà¾§ à½´à¼ĭ
4 26
Ġ à½Ĥà½ıà½Ħ
Ġ à½ĸà½Ļà½¦
à¼ĭ à¾Ĺà½ºà¼ĭ
à½ĳ à½ĸà½łà½ĺ
à½ĵ à½Ĩà½¦
à½ĵ à½łà½Ľà½ĺ
à½ĵ à½Ļà½Ĥ
à¾± à¾Ĺà½¼
à¾± à¼µà½º
à½ŀ à½ħ
à¾Ĵ à½±à½²
à½ĸà½¦ à½ĳà½Ķà½ł
à½ĳà½Ħ à½Ĥà½ı
à½ĳà½Ħ à½ĺà½ĩà½£
à½ģ à½ĺà½Ħ
à½ļ à½ı
à½ļ à½ĸà½ŀ
à½ļ à½ĸà½ĳ
à½ı à½Į
à½¤ à½¢à½Ħ
à½¤ à½Ĥà½¡
à½ĳà½Ĥ à½ĵà½ĳ
à½ĵà½¦ à½Ĳà½ĺà½¦
à½ĸà½ŀ à½Ĥà½ŀ
à½łà½ĸ à½ħà½¦
à½Ļ à½ĺà½Ħ
à½Ľ à½ĸà½ŀ
à½Ľ à½ĳà½ĺà½¢
à½ħà½ĳ à½¡à½Ħ
à½ĳà½Ģ à½ĳ
à½ĺà½ļà½ĵ à½Ĥà½ŀ
à½ĳà½ĳ à½ŀ
à½Ĳà½£ à½ĸà½ł
à½Ĳà½¢ à½Ĥ
à¾¨à½² à½¾
à½īà½ĵ à½Ķà½¢
à½Ĥà½Ļà½Ħ à½ĺà½ł
à¾¤à¾² à¼į
Ġà¼£ à¼£à¼¡
à½ĵà½Ķ à½ŀ
à¼¢à¼¡ à¼¡à¼¢
à½ĳà½¦ à½ĺà½¦
Ġà½ģ à½Ģ
Ġà¼¤ à¼¥à¼¥
à¾·à½±à½´à¼ĭ à¼į
à¾´ à½²à¼į
à½ĥ à½ł
à¼ĭà¼ı à¼į
44 8
à¾¨à¾¼à¾» à½´à¾ĥà¼ĭ
4 28
Ġ à½ĸà½ĸà½ĸ
à¼ĭ à½´à¼ĭà¼į
à¼ĭ à¾Ĺà½¼à¼ĭ
à½¢ à½ļà½Ħà½¦
à½Ħ à½ŀà½¦
à½Ķ à½¤à½¦
à½£ à½Ĩà½ĳ
à½Ĥà½¦ à½łà½Ĥ
à½Ĥà½¦ à½Ĥà½ı
à½ºà¼ĭ à¾İ
à½Ĩ à½Ĥà½ŀà½ĵ
à½ĸà½¦ à½łà½ĩ
à½ĳà½Ħ à½ĳà½ĺ
à½ĳà½Ħ à½ĩ
à½ħ à½Ł
à½Ĳ à½łà½ĳ
à½ī à½łà½ĳ
à¾¡ à¾Ģ
à½£à½¦ à½ĺà½ļà½ĵ
à½Ķà½¦ à½ĺà½Ĥ
à¾© à¾²à½ºà¼ĭ
à½Ĥà½ī à½Ħ
à½ĺà½Ĳ à½Ķ
à¾²à¼ĭ à¾İ
à¾¨ à½±à½²
à½Ĥà½Ħ à½ĩ
à½Ĥà½ĵà½¦ à½Ħ
à½ĸà½Ł à½Ķ
à½§ à½ĸà½¦
à½§ à½ĳà½Ħ
à½Ĳà½ĸà½¦ à½Ĩ
à½ģà½ĺà½¦ à½łà½ĳ
à½¦à½¢ à½Ĥ
à½¦à½¢ à½¢
à½Ĥà½ŀà½Ĥ à½Ĥà½ī
à¾¦à¾² à½ºà¼į
à½ĸà½ĵ à½Ĥà½¦
à¾²à¾Ģ à¼ĭà¼į
Ġà¼¥ à¼¢à¼¢
Ġà¼¤ à¼¡à¼¢
Ġà¼¤ à¼¢à¼§
Ġà½Ĳ à½¦
Ġà½¨ à½¦
à¾·à½º à½¾
Ġà½ł à½¦
à¼¢à¼¡à¼¡ à¼¡
à¾ĳ à½´
39 1
40 5
45 2
45 4
à½¬ à½ĺ
4 15
Ġ à½ª
Ġ à½łà½ģà½¢
à½¦ à½ģà½Ħ
à½Ĥ à½Ĥà½ĳà½ĺà½¦
à½¢ à½ĳà½£
à½Ħ à½Ĳà½ĸà½¦
à½£ à½ĳà½Ķà½Ĥ
à½£ à½ĸà½ĸà½¦
à½Ĥà½¦ à½ĺà½ļ
à½Ĥà½¦ à½łà½Ľ
à½¡ à½ĵà½ĳ
à½¡ à½¡à½¦
à½Ģ à½ĵà½Ħ
à¾Ł à¾Ģà¼ĭ
à¾Ł à¾²à½±à½²
à¾Ł à¼µà¼ĭ
à½Ķà½ł à½¡
à½ĳà½Ħ à½ĸà½Ģ
à½Ĳ à½¤
à½ī à½ĵà½ĺ
à½ĳà½Ĥ à½ĺà½Ĩ
à½ĳà½Ĥ à½ĵà½Ħ
à½ĸà½¢ à½ļà½ĳ
à½łà½Ĥ à½£à½¦
à½¡à½Ħ à½ĵà½¦
à½Ķà½¦ à½Ķà½¢
à½ĳà½ĸ à½ħà½ĳ
à½ĳà½ĸ à½ıà½Ħ
à¾Ķ à¾·à½±à¼ĭ
à¾· à¾¨à½±à¼ĭ
à½Ļ à½łà½ĳ
à½Ļ à½ĺà½ł
à½ĳà½ĺ à½Ħà½ł
à½ħà½ĵ à½Ĥà½¦
à½łà½ķ à½ĸà½¦
à½Ĥà½ı à½ĳà½ĳ
à½łà½ĳà½¦ à½Ķà½¢
à½ĳà½ĳ à½ĸà½¢
à½ķà½ĵ à½Ĩà½ĳ
à½łà½ķà½Ĥà½¦ à½¦
à¾¨à¾²à¼ĭ à½²
à½Ħà½Ħ à½ĵà½¦
à½ĸà½ıà½ĸ à½ĸ
à½Ķà½İ à½ł
à½Ĥà½Ħà½¦ à½Ħà½¦
à½Į à½ķ
à½ĸà½¦à½ĺà½¦ à½¦
à½Ķà½ĵ à½Ķ
Ġà¼£ à¼£à¼©
à½ĵà½Ķ à½£à½¦
à¼Ģ à½ļ
à½¢à½ĳ à½ĩ
à¾¶ à½ºà¼ĭ
à½ĵà½ĵà½¦ à½ī
Ġà¼¡à¼© à¼¥à¼©
à¼¢à¼¡à¼£ à¼©
39 7
à½£à½ĺà½Ĳ à½ĺà½¦
4 23
4 29
4 32
à¼ĭ à½¼à¼ĭà¼į
à½ĳ à½Ĳà½£
à½ĸ à½Ĳà½Ĥ
à½ĸ à½ĺà½ļà½ĺà½¦
à½¢ à½ĺà½£
à½Ħ à½łà½Ĩ
à½ĺ à½ĸà½¦à½ĺà½¦
à¾± à¾Ļà½²
à½Ķ à½ĳà½Ģà½ł
à½Ĥà½¦ à½ĸà½Ģà½ł
à½¡ à½ĵà½Ĥ
à½Ĩ à½Ķà½¢
à½ĳà½Ħ à½ĵà½ĺ
à½ģ à½Ĥà½¡
à½ķ à½Ļ
à½ĺà½¦ à½£à½ĺ
à½ĳà½Ĥ à½ıà½ĵ
à½łà½Ĥ à½£à½ĺ
à½¡à½Ħ à½Ĥà½ħ
à½Ĥà½ĵà½¦ à½Ħà½ĵ
à½Ľ à½ĸà½¦
à½¨ à½ĸà½ŀ
à½¢à½ĸ à½Ĥà½ĵà½¦
à¾Ń à½´
à½ĺà½īà½ĺ à½ĸ
à½ıà½ĵ à½Ĩ
à½£à½ĵ à½ł
à½Ĭ à½ŀ
à½Ĥà½¦à½¢ à½ĺ
à½£à½Ħ à½£
à¾µ à¾¨à½±à¼ĭ
Ġà¼£ à¼©à¼¨
à½Ĥà½ĳà½ł à½¦
à½Ĵ à½ģ
à¾° à½´à¼ĭ
Ġà¼¤ à¼¡à¼§
à½Ĥà½Ķ à½ŀ
40 4
à½Ĳà½ĺà½¦à½ħ à½ĳà½Ħ
à½ºà¼ĭà½Ī à½±à½²
4 12
à½¦ à½ĸà½ħà½ĳ
à½¦ à½¡à½ĸ
à½Ĥ à½ĸà½ĸ
à½Ĥ à½Ĥà½¡à½Ħ
à½ĵ à½łà½ļà½£
à½ł à½¦à½Ħà½¦
à½Ķ à½ĳà½Ķà½Ĥ
à½£ à½¡à½ĸ
à½Ĥà½¦ à½ĳà½Ķà½£
à½ŀ à½ĸà½ł
à½Ĩ à½Ĥà½ı
à½ĸà½¦ à½¦à½Ħà½¦
à½ģ à½ĵà½¢
à½Ĳ à½ĸà½ĳ
à½Ĳ à½ĺà½Ĩ
à½ı à½Ķà½ł
à½¤ à½ĩ
à½łà½ĸ à½Ļ
à½Ļ à½Ł
à½ĸà½ĳà½Ĥ à½ģ
à½Ĥà½ĳ à½ĸà½¢
à½ĸà½ħà½¦ à½ĳ
à½ĸà½Ļ à½£à½ĵ
à½ĳà½Ģà½¢ à½Ĩà½Ĥ
à½ŀà½£ à½ĳ
à½ĺà½ģà½¦ à½£
à½Ĳà½£ à½¡
à½Ĳà½£ à½Ĩ
à½Ĭ à½ļ
à½¡à½¦ à½Ķà½ł
à½Ģà½¢ à½ĺ
Ġà½¦ à½ĺà½¦
à½ĵà½ĵ à½ĸ
à½ĸà½Ģà½Ĥ à½Ķ
à½¢à½Ĥ à½Ĥ
à¾Ĵà¾²à½¼à¼ĭ à¼į
Ġà¼£ à¼§à¼¨
à½ĺà½ĺ à½§
à¼Ĳ à¼į
à½Ĺ à½ģ
4 19
4 24
4 38
Â ģ
Ġ à½łà½ķà½Ħà½¦
Ġ à½Ŀà½Ħ
à½¦ à½Łà½Ĥ
à½¢ à½ĸà½¤à½Ĥà½¦
à½ĵ à½Ĳà½Ĥ
à½ĺ à½ĸà½£
à½ł à½ŀà½Ĥ
à½¼à¼ĭ à¼ĭ
à½¡ à½ķà½Ĭ
à½Ģ à½ħà½ĵ
à½ĸà½¦ à½Ĥà½Ł
à½ĳà½Ħ à½ĵà½Ħ
à½ģ à½ĸà½ħ
à½ģ à½ĩ
à½ģ à½Ĥà½ĳ
à½ĺà½¦ à½łà½ĩ
à½ī à½ĺà½Ĳ
à½ĸà½¢ à½łà½ļà½£
à½ĵà½¦ à½Ļ
à¾³ à¾¡à½¼à¼ĭ
à½¡à½Ħ à½ĳà½ĺ
à¾¦ à½±à¼į
à½Ĥà½ĳ à½ĵà½Ĥ
à½ĸà½ı à½ĸà½ĳ
à½ĸà½ı à½ĸà½£
à½łà½ĳà½¦ à½ł
à½¾à¼ĭ à½²
à½ĳà½Ķà½ł à½Ģ
à½ĺà½ī à½Ľ
à½ĳà½Ģà½¢ à½¢
à½Ĳà½ĸà½¦ à½Ĥ
à¾¦à¾±à½² à¼į
à½ĸà½ŀà½Ĥ à½ĳà½Ĥ
à½£à½Ĥà½¦ à½ĸà½ħ
à½Ŀ à½ħ
à½łà½Ĥà½ł à½¢
à½łà½ĸà½¢ à½ĸà½¢
à½Ĳà½ĳ à½¦
à½ĸà½ĺ à½Ķ
à½Ĩà½Ĥ à½ĺà½Ĩ
à½¢à½Ĥà½¦ à½Ķ
Ġà¼£ à¼¨à¼£
Ġà½ļ à½¦
à¼¢à¼£ à¼¢à¼£
à½Ĵ à½ķà½¦
Ġà½ģ à½ĳ
à¾·à½º à½¾à¼į
à½¢à½ĸà½ı à½Ĥà½¦
à¼¡à¼¤à¼© à¼¢à¼©
39 2
40 1
40 8
à½Ķà½Ł à½ĺà½¦
à¼´à¼´ à¼´
à½¦ à½Ĥà½ĳà½ĸ
à½² à½´
à½Ĥ à½ĸà½ı
à½Ĥ à½Ķà½ĳà½Ħ
à½ĸ à½ĳà½ĺà½ł
à½¢ à½ĸà½łà½ĺ
à½Ħ à½ĺà½ģà½ł
à½Ħ à½ŀà½Ĥ
à½²à¼ĭ à¾£
à½£ à½£à½ł
à½Ĥà½¦ à½łà½ķ
à½¡ à½łà½Ĥ
à½ĸà½¦ à½ĵà½Ħ
à½ĸà½¦ à½¦à½ĺ
à½ĳà½Ħ à½ĸà½ł
à½ģ à½ĺà½Ĳ
à½Ĳ à½ĸà½ħ
à½Ĳ à½Ĥà½ī
à½ļ à½£à½Ĥ
à½ĺà½¦ à½ĸà½ĳ
à½ĺà½¦ à½ĵà½ĳ
à½ı à½ĳà½Ĥ
à½ĸà½¢ à½ĵà½¦
à½Ħà½¦ à½ĸà½ŀ
à¾³ à½±à¼į
à¾¡ à¼µà½¼à¼ĭ
à½ĸà½ł à½ĸà½¢
à½£à½¦ à½Ĥà½¦à½Ħ
à½ĸà½ħ à½ĳà½Ĥà½ħ
à½Ĥà½ī à½ĵà½¦
à¾¨ à¾²à½´
à¾¨ à¼įà¼ĭ
à½ĳà½ĺ à½Ĥà½¦à½¦
à½ĳà½Ķ à½Ĥà½Ħ
à½¨ à½Ĥà½ī
à½¢à½ĸ à½ļ
à½£à½ĺ à½ĸà½¢
à½£à½ĺ à½łà½ĸ
à¾Ĵà½¼ à½¼à¼ĭ
à½Ļà½ĺ à½ĸ
à½ĳà½Ķà½£ à½ĸ
à½ĳà½Ķà½£ à½łà½ĸ
à½ĺà½ģà½ł à½Ħ
à½Ħà½Ĥ à½ĳà½Ķà½£
à½ĸà½£ à½łà½Ħ
à¾²à½´à¼ĭ à½²
à½Ŀ à½Ĩ
à½Ŀ à½Ĳ
à½Ŀ à½Ł
à½Ģà½¢ à½Ĥ
à½Ĥà½ŀà½Ĥ à½Ĥà½¦
Ġà¼£ à¼¥à¼¡
à½ĸà½¤à½ĺà½¦ à½ĵà½¦
à¼¢à¼¤ à¼¢à¼¥
Ġà¼¥ à¼¦à¼§
à¼¥à¼¦ à¼¥à¼§
à¾·à¾² à½±à¾Ģà¼ĭ
à¼¢à¼¡à¼¢ à¼§
à¼¢à¼¡à¼£ à¼£
à¾²à¾° à½²à¼į
à¾·à¾²à¾Ģ à½¾à¼ĭ
39 4
40 7
45 9
44 6
Ġ à½¤à½Ĥ
à¼ĭ à¾Ĺà¼ĭ
à½¦ à½ĺà½ĩ
à½Ĥ à½ķà½Ĥ
à½ĵ à½Łà½ĳ
à½ĵ à½Ĩà½Ħ
à½Ķ à½ĺà½ļà½ĺà½¦
à½Ķ à½ĺà½ĩ
à½Ķ à½¡à½ĸ
à½£ à½Ĳà½£
à½´à¼ĭ à¼ĭ
à½¡ à½ģà½ĺà½¦
à½¡ à½ĸà½Ľ
à½¡ à½¢à½¦
à½Ģ à½ĵà½ĺ
à½Ĩ à½łà½Ĥ
à½ĸà½¦ à½¡à½Ħ
à½ĸà½¦ à½Ĥà½ĳ
à½ħ à½łà½ĺ
à¾±à½²à¼ĭ à¼Ŀà¼į
à½ĺà½¦ à½Ĥà½ī
à¾Ĳ à¾Ńà¼ĭ
à½Ł à½Ĥà½ī
à¾¡ à¾±à½²
à¾¡ à½±à¼į
à½£à½¦ à½Ķà½¦
à½¡à½Ħ à½ĺà½ļ
à½Ķà½¦ à½§
à¾© à½ºà¼įà¼ĭ
à¾· à¾Ģ
à½ĸà½ĳ à½ı
à½Ĥà½Ħ à½ĸà½ł
à½¨ à½Ħà½ł
à½ĸà½ĳà½Ĥ à½ĺà½Ĥ
à½Ĥà½ŀà½ĵ à½ĵà½ĺ
à½¢à½ĸ à½ĺà½Ľ
à½ĸà½¤à½ĳ à½Ĩ
à½ĺà½ł à½Ĩà½ĳ
à¾³à½´ à½±à¼ĭ
à½ĵà½ĺ à½¨
à½ĳà½ĳ à½ĺà½Ĳ
à½Ĩà½ĳ à½¢
à½¦à½ĺ à½Ĥà½¦
à¾¦à¼ĭ à¼Ĳ
à½ķà½£ à½ļ
à½ĳà½£ à½łà½ĸ
à½īà½£ à½ĸ
Ġà½Ģ à½ĺ
à¾ļ à½¾
à½ĭ à½¡
Ġà½ı à½ı
à½ºà½º à½º
Ġà¼ »
à½ļà½ļ à½ļ
4 35
Ġ à½łà½Ľà½Ĥ
à¼ĭ à¾ľà¼į
à½¦ à½ĺà½ĩà½£
à½ĳ à½ĸà½ŀà½Ĥ
à½ĳ à½Ļà½Ĥ
à½ĸ à½Ĥà½Ļà½Ħ
à½ł à½łà½Ĳ
à½Ķ à½ĵà½ĺà½ĺà½ģà½ł
à½£ à½łà½Ĳ
à½£ à½ķà½¢
à½£ à½Ģà½¦
à½Ĥà½¦ à½łà½ĩ
à½Ĥà½¦ à½ĸà½Łà½Ħ
à½Ĥà½¦ à½ĳà½Ģà½¢
à½ĳà½Ħ à½ĺà½Ĥ
à¾±à½²à¼ĭ à½¼à¼ĭ
à½ī à½İ
à½ĳà½Ĥ à½łà½ķ
à½Ķà½¢ à½ĺà½¦
à½Ķà½¢ à½ĺà½ĳ
à½łà½ĳ à½ª
à½ĸà½¢ à½¦à½Ħà½¦
à½ĸà½ł à½ī
à½łà½ĸ à½ĸà½ĸ
à¾Ķ à¾¡à½¼à¼ĭ
à½Ļ à½Ļà½ĺ
à¾¦ à¾¦à½²à¼ĭ
à½¨ à½Ħà½£
à½ĳà½Ģ à½łà½Ĥ
à½ĵà½Ħ à½ĸ
à¾Ĺà½º à¼µ
à½ĸà½¤à½ĳ à½ĸà½¦
à½ĺà½¢ à½ĳà½Ħ
à½Ĩà½ĳ à½ĵà½¦
à½ĸà½ŀà½Ĥ à½£à½¦
à½ĸà½ŀà½Ĥ à½Ĥà½ŀà½ĵ
à½Ĳà½¢ à½ĺ
à½ĳà½Ķà½Ĥ à½ĸà½¦à½ĺ
à½ĸà½Ľ à½Ĥ
à¾¡à¼ĭ à½²
à½ķà½Ĭ à½ģ
à½ķà½Ĭ à½ĸà½¢
à½Ĥà½ł à½¦
Ġà½ĳ à½ĸà½ł
à½Ħà½ĺ à½ĺ
à¾·à½±à¼ĭ à½²
à¾ª à½¼
Ġà½Ĥ à½İ
Ġà¼§ à¼¡à¼§
à½Ĵ à½ķà½¢
à¼¢à¼¡à¼¢ à¼£
à¼¢à¼¡à¼£ à¼¦
38 1
45 3
46 0
4 11
4 20
Ġ à½ħà½¢
à½¦ à½Ĩà½ĳ
à½¦ à½ĸà½ŀà½Ĥ
à½¦ à½ĳà½ĺà½¢
à½Ĥ à½łà½ĸà½¢
à½Ĥ à½Ĳà½ł
à½ĸ à½Ŀà½Ħ
à½¢ à½ģà½ĺà½¦
à½ĵ à½¡à½ĸ
à½Ħ à½Ĭ
à½Ħ à½ĸà½ĳà½¦
à¾± à¾³à½¼
à½ł à½łà½Ĩ
à½Ķ à½ĸà½¦à½£
à½Ĥà½¦ à½ĺà½īà½ĺ
à½ŀ à½Ĥà½ĵ
à¾Ł à¾³à½¼
à½Ĩ à½¦à½ĺ
à½ģ à½Ķà½ł
à½Ĳ à½Ħà½Ĥ
à½ļ à½ĸà½ĳà½Ĥ
à½ĺà½¦ à½Ĥà½ĵà½¦
à½Ħà½¦ à½¢à½ĸ
à¾³ à¾Ģà½¾à¼ĭ
à¾© à¾©à¼ĭ
à½Ĥà½Ħ à½ĸà½¦
à½Ĥà½ĵà½¦ à½ĸà½¦
à½¨ à½łà½ĸ
à½¨ à½¢à½Ħ
à½ĺà½ĳ à½ĺà½¦
à½ĸà½ħà½¦ à½ŀ
à½ĸà½ı à½ĸà½ħ
à¾²à½²à¼ĭ à¼Ĳ
à½Ļà½ĺ à½ĳà½Ħ
à½ĺà½Ĳà½ł à½ĸà½ŀ
à½Ĩà½Ĥà½¦ à½ĳ
à½Ĳà½ĸà½¦ à½ŀ
à½Ħà½ĵ à½ĳà½Ħ
à½ıà½ĵ à½ļ
à½ĺà½ģà½¦ à½Ķà½¢
à½ĺà½ĵ à½ĵà½¦
à½ĳà½¢ à½ł
à½ŀà½ĸà½¦ à½¢
à½ĺà½ĩ à½¢
à½Ĥà½¡à½¦ à½Ģ
à½¢à½ĸà½¦ à½¢
à½Ħà½Ħ à½£à½¦
à½ĵà½ĺà½¦ à½ĳà½Ħ
à½ģà½¦ à½¦
à½ĸà½¦à½£ à½ĳ
à½Į à½ŀ
à¾Łà½² à½¾à¼į
à¼¢à¼¢ à¼¢à¼¡
Ġà¼¢ à¼¨à¼£
à½¢à½ı à½£
à½ĳà½Ķà½¦ à½¦
à½¦à½Ķ à½ĵà½¦
à¾ł à½¾
à¾²à½± à½ºà¼ĭ
40 3
44 3
46 4
Ġ à½łà½ĳà½¢
à¼ĭ à¾¤à¼ĭ
à¾ ¯
à½ĳ à½Ĩà½Ĥ
à½ĵ à½¢à½ĸà½¦
à½ĵ à½¡à½¢
à½ĵ à½ķà½£
à½£ à½ĸà½ıà½Ĥà½¦
à½Ĥà½¦ à½łà½Ĩà½Ħ
à½Ĥà½¦ à½ĸà½¦à½£
à½¡ à½ħ
à½¡ à½ĵà½Ħ
à½¡ à½ĺà½ł
à½¡ à½ģà½ĸ
à½Ģ à½Ħà½¦
à½ĸà½¦ à½Ĳà½ĺà½¦
à½ģ à½Ļà½ĺ
à½ķ à½¦à½¢
à½ĺà½¦ à½ĺà½ī
à¾±à½² à¼ŀ
à½ī à½ķ
à½ī à½ĺà½Ĳà½Ĥ
à½ĵà½¦ à½Ĥà½¡
à¾³ à¾·à½²à½¾à¼ĭ
à½ĸà½ł à½Ĥà½ĵà½¦
à½ĸà½ŀ à½Ĥà½¤
à½Ķà½¦ à½ĺà½īà½ĺ
à½ĳà½ĸ à½ıà½Ĥà½¦
à¾© à¾±à½ºà¼ĭ
à¾¨ à½±à½¾à¼ĭ
à½ħà½ĵ à½Ĥà½ī
à½ĳà½ĸà½Ħ à½ĸà½ŀ
à½Ĥà½ŀà½ĵ à½łà½ķ
à½£à½ĺ à½¡à½ĵ
à¾Ĺà½¼ à½¼
à½ĺà½Ĳà½ł à½¡
à½ĵà½ĺ à½İ
à½ĺà½ģà½ł à½ł
à½ķà½ĵ à½ĸ
à½İ à½Ĳ
à½ĺà½ĵ à½ı
à½ĺà½ĵ à½¢à½ĺ
à¼¨ à¼§à¼©à¼§
à½Ħà½Ħ à½ĳ
à½Ĥà½ıà½ĺ à½ĺ
à½ĺà½ĳà½ł à½¢
à½¢à½£ à½Ķ
à½ģà½¢ à½Ĥ
à½ĺà½£ à½¢
à½Ĥà½ĳà½ĸ à½ĸ
à½Ģà½ĵ à½Ģ
à¾ª à½²à¼į
à¼Ģ à½ĸà½¦
Ġà¼¤ à¼£à¼£
à½Ĺ à½£à½ł
Ġà¼© à¼©à¼©
à¼ĭà¾ Ŀ
à¼ĭà¼¹ à½²
à¼ĭà¾¢ à½²
à¾©à¾Ń à¼ĭà¼į
44 7
à½Ĺà½Ĵ à½Ħà½Ĥ
Ġ à½Ĥà½ŀà½¦
à½² à¼µà¼į
à½ĳ à½Łà½Ĥ
à½ĸ à½ĺà½ģà½ĵ
à½¢ à½¡à½ĵ
à½ĵ à½ĸà½ŀà½Ĥ
à½Ħ à½¢à½¦
à½ĺ à½ĺà½ĩà½£
à¾± à¾·à½²à¼ĭ
à½£ à½ģà½Ħ
à½£ à½Ģà½¢
à½£ à½ģà½ĸ
à½Ĥà½¦ à½Ĥà½¦à½¢
à½Ģ à½ŀà½£
à½Ĩ à½ĸà½Ģ
à½ĸà½¦ à½ĺà½ģ
à½ģ à½Ĥà½ŀ
à½ģ à½ĺà½ļ
à½ķ à½ļ
à½ļ à½ĳà½ĸà½Ħ
à½ı à½Ħà½ł
à½ī à½Ĭ
à½Ķà½¢ à½Ķà½ł
à¾£ à¾²à½¼à¼ĭ
à½Ł à½łà½Ĥ
à½Ł à½łà½ĸ
à½Ł à½Ķà½Ĥ
à½ĸà½ł à½Ĩà½¢
à½£à½¦ à½ĸà½¦à½ĺ
à½Ķà½¦ à½Ļ
à¾Ķ à¾²
à½ĸà½ĳ à½Ŀ
à½Ĥà½Ħ à½Ĩ
à½¨ à½¢à½ĸ
à½§ à½Ĭ
à½ĸà½ĳà½Ĥ à½łà½ĳ
à¾³à¼ĭ à¼´
à½¢à½ĸ à½£à½¦
à¾Ĳà½´à¼ĭ à½²
à½Ļà½ĺ à½ĵà½¦
à½Ĥà½¦à½£ à½ĸà½¦
à½Ĥà½¤ à½Ħà½¦
à½ģà½ĺà½¦ à½Ĩ
à½Ħà½Ĥ à½ĵà½Ħ
à½Łà½Ĥ à½ĸà½ħà½¦
à½ļà½ĵ à½ĸ
à½ĸà½¦à½£ à½ĸà½¢
à¾µ à¾ĥà¼ĭ
à½Ķà½ĵ à½Ĩ
à½ĺà½īà½ĵ à½Ķà½¢
à½ĵà½Ķ à½Ĥ
à¾·à½² à¼´
à¼£à¼¨ à¼¤à¼¦
à¾¶ à¼ĭà¼į
à¼¢à¼¡à¼¤ à¼¥
à¼¢à¼¡à¼£ à¼¡
45 0
44 4
47 6
à¿ Ģ
4 30
4 40
4 33
Ġ à½Ĩà½ł
Ġ à½ĸà½łà½Ħ
à½¦ à½Ĥà½ĵà½ĳ
à½¦ à½Ĥà½ĳà½ĺà½¦
à½¢ à½¢à½ĸà½¦
à½ĵ à½ĸà½ĺ
à½º à¼µà¼į
à½ĺ à½ĸà½Ļ
à½ĺ à½ŀà½Ĥ
à¾± à¾Ļà½²à¼ĭ
à½ł à½ĳà½Ĥà½ł
à½ł à½Ķà½£
à½²à¼ĭ <
à½Ģ à½Ķà½¢
à½Ĩ à½ļà½Ħ
à½ħ à½Ļ
à½ħ à½¨
à½ģ à½¡à½¦
à½ģ à½ĸà½ĸ
à½ķ à½ĳà½Ħ
à½ļ à½¢à½ĸà½¦
à½ĺà½¦ à½ĺà½ĵ
à½ī à½ĸà½ł
à½łà½ĳ à½¤
à½ĵà½¦ à½Ĥà½ı
à½ĵà½¦ à½łà½Ĩ
à½łà½Ĥ à½Ļ
à½¡à½Ħ à½Ĥà½ŀ
à½Ķà½¦ à½Ĥà½¦à½Ħ
à½¨ à½ĺà½Ĩ
à½¨ à½£à½Ĥà½¦
à½ĸà½ĳà½Ĥ à½£à½¦
à½ĸà½ĳà½Ĥ à½ĺà½ĳ
à½ĳà½Ģ à½łà½Ħ
à½ĵà½Ħ à½¤
à½£à½Ĥ à½¥
à½łà½ļ à½¦
à½ļà½ĳ à½ĸà½¢
à½ĳà½Ĥà½ł à½ĳà½Ħ
à½Ħà½Ĥ à½Ĳ
à½Ħà½Ĥ à½łà½ĳ
à½Ĥà½ĵà½Ħ à½ĵà½¦
à½ĸà½ŀà½Ĥ à½Ĥà½¦
à½ĵà½Ĥ à½Ĥà½¡
à½ĺà½ģà½ĵ à½¢
à¾Łà½´ à½¾à¼į
à½Ĳà½Ĥ à½Ķà½ł
à½ĸà½ħà½ĳ à½Ķà½¢
à½łà½ĸà½¢ à½ĺ
à½±à½² à½¾à¼į
à½ĸà½Ļà½£ à½ĳ
à¼¢à¼¥ à¼¢à¼¦
à¼¢à¼¤ à¼¢à¼¤
à½Ĵ à½¤
Ġà¼¥ à¼¡à¼¡
Ġà½¨ à½ĸ
à½Ĥà½Ĥ à½Ĥ
Ġà½łà½ĸ à½ĺ
à½Ĥà½Ķ à½Ĩ
à½© à½ĸ
à¾¼ à½²à¼ĭ
44 2
à¼ĭà¾§ à½±à¼ĭ
Â¨ Â¶
Ã ģ
Ġ à½łà½Ĥà½ĵ
Ġ à½¡à½Ĥ
à¼ĭ à¾³à¼ĭ
à¼ĭ à½±à½´à¾ĥà¼į
à½¦ à½ļà½¢
à½¦ à½Ĥà½¦à½ĵ
à½ĳ à½łà½ĸà½¢
à½ĸ à½Ħà½£
à½¢ à½Łà½ĸ
à½¢ à½ĺà½ĳà½ł
à½ĺ à½Łà½¦
à½ł à½Ĥà½¦à½¦
à½Ķ à½Ħà½ł
à½£ p
à½Ĥà½¦ à½ļà½ĳ
à½Ĥà½¦ à½Ħà½Ĥ
à½¼à¼ĭ à¼Ŀà¼į
à½Ģ à½Ĥà½ĵà½¦
à½ŀ à½¡à½Ħ
à½ĳà½Ħ à½ĸà½Ĥ
à½ģ à½ħà½¦
à½ķ à½£à½ĺ
à½ĵà½¦ à½ĸà½Ģà½ł
à½Ķà½¦ à½īà½ĺà½¦
à¾· à½¼à½¾à¼ĭ
à½ĳà½ĺ à½ĵà½ĵ
à¾¦ à¾¦à½ºà¼ĭ
à½Ĥà½Ħ à½ģ
à½ħà½ĵ à½¡à½Ħ
à½ħà½ĵ à½ĺà½ł
à½¨ à½¡à½Ħ
à½ĸà½Ģ à½łà½Ĩ
à½£à½ĺ à½£à½ĺ
à½ĸà½¦à½ĺ à½¤
à½łà½Ĩ à½ĳà½ĸ
à½Ĥà½ĵ à½ĳà½Ģ
à½ĺà½¢ à½Ģ
à½łà½Ħ à½Ħ
à½ĸà½ŀà½Ĥ à½ĸà½¦
à½ĸà½ŀà½Ĥ à½ĳà½Ħ
à½ĺà½ģà½¦ à½¢
à½¢à½ĸà½¦ à½£
à½Ĩà½¢ à½Ķ
à½ĺà½Ħà½ł à½¢
à¾ľ à¾·
à½¦à½Ħ à½ĳ
à½¢à½Ģ à½¦
à½ĳà½Ĥà½¦ à½ĳ
à¾ļ à½±à¼į
à¾° à½¾à¼ĭ
Ġà¼¤ à¼¡à¼©
Ġà¼¤ à¼¡à¼£
à½ĭ à½ĳà½ĺà½¢
à½ĵà½Ķà½¢ à½ĸ
à½Ķà½ŀ à½¦
à½²à¼ĭà½² à½²à½²
à¼ĭà½µ à¼ĭ
à¼ĭà¾¢ à½ºà¼į
à¼¢à¼¡à¼¤ à¼¡
Ãĥ à½Ĥ
4 27
4 36
4 45
à½ĳ à½ķà½ĵ
à½ĳ à½Łà½ĸ
à½Ĥ à½łà½Ĥà½ł
à½Ĥ à½ģà½ł
à½Ĥ à½ĸà½ħà½¢
à½ĸ à½¡à½¦
à½ĸ à½Ĥà½ĵà½ĺ
à½ł à½łà½ķà½Ĥà½¦
à½¡ à½ª
à¾Ĵ à½±à½´
à½ģ à½ĺà½¢
à½ģ à½ĺà½ģà½¦
à½ĺà½¦ à½Ĥà½ħ
à½ı à½¢à½Ĥ
à½ī à½Ĩ
à½łà½ĳ à½łà½ĺ
à½ĸà½¢ à½Ķà½¢
à½ĸà½¢ à½Ĥà½ı
à¾³ à¼µà½¼à¼ĭ
à½ĸà½ł à½ĺà½Ĩ
à½łà½Ĥ à½łà½Ļà½ĺ
à½ĸà½ŀ à½Ĥà½ı
à½Ķà½¦ à½łà½ķ
à½ĳà½ĸ à½ĳà½ĳ
à½ħà½ĵ à½ĵà½¦
à¾³à½¼ à½¾à¼ĭ
à½¨ à½īà½ł
à½¢à½ĸ à½Ĥà½¦à½£
à½ĺà½ĳ à½Ķà½¦
à½ĳà½Ķà½ł à½łà½ĳ
à½£à½Ĥ à½Ķà½ł
à½łà½ļ à½Ħà½¢
à½ĸà½Łà½Ħ à½ŀ
à½ĺà½¢ à½ł
à½ĳà½ĳ à½ĳà½Ħ
à½Ĥà½¦à½Ħ à½ĵ
à½ĺà½īà½ĺ à½£
à½ĸà½ŀà½Ĥ à½Ĥà½ī
à½ıà½ĵ à½ĸà½¦
à¾¨à¼ĭ à¼´
à½īà½ĵ à½ĸ
à¾¨à¾² à¼įà¼ĭ
à½¦à½ĺ à½İ
à½ĳà½Ĥà½Ĥ à½ķ
à½¥ à½ŀ
à½ĺà½Ħà½ł à½ł
à½Į à½łà½ĳ
à½ĸà½ĺ à½ĸ
à½łà½Ĥà½Ĥ à½Ķà½¢
à½Ħà½ĺ à½Ĥà½¦
à½ĳà½Ĥà½¦ à½ĺ
à¼¢à¼¦ à¼¢à¼¦
Ġà¼¤ à¼¢à¼¡
Ġà¼¤ à¼£à¼¢
à¾¡à¾· à¼ĭà¼į
à¾·à½± à¼ĭà¼į
à¼¢à¼¡à¼¢ à¼©
Ġ à½ĸà½Ģà½Ħ
à½ĳ à½ĸà½ŀà½ĵ
à½ĸ à½Ĥà½ĳà½ĵ
à½ĸ à½Ĥà½ĵà½ĳ
à½¢ à½ĺà½ī
à½ĺ à½łà½ĩà½ĺ
à½Ĥà½¦ à½Ķà½ĳà½Ħ
à½¡ à½Ĳà½ł
à½Ģ à½ĳà½ĸ
à½Ĩ à½ĺà½Ħ
à½Ĩ à½Ĳà½ĺà½¦
à½ĳà½Ħ à½Ķà½ĳ
à½ģ à½ĳà½Ķ
à½ļ à½§
à½ı à½łà½ĸ
à½ī à½ª
à½Ķà½¦ à½ĸà½Ģà½ł
à¾²à½² à¾ĥà¼ĭ
à½ĺà½ģ à½ĵà½¦
à½ĺà½ģ à½ĵà½Ĥ
à½¨ à½ĳà½ĺà½¢
à½ħà½ĳ à½ĳà½ĸ
à½ħà½ĳ à½ĳà½ĺ
à¾Ń à¼įà¼ĭ
à½łà½ĳà½¦ à½Ħ
à½ĺà½Ĳà½ł à½łà½ģ
à½ĳà½Ķà½£ à½Ģ
à½ĺà½¢ à½Ĥà½¦
à½Ĩà½Ĥà½¦ à½Ķà½¦
à½īà½ĺà½¦ à½Ģ
à½łà½Ħ à½ĸ
à½łà½ķà½Ĥà½¦ à½ĸ
à½łà½ķà½Ĥà½¦ à½ĺà½ł
à½Ħà½Ħ à½¢
à½Ĥà½Ļà½Ħ à½ĸ
à½¦à½ĺ à½Ķ
à½Ĥà½ŀà½Ĥ à½Ģ
à½£à½ł à½ĵ
à½¡à½¢ à½ĺ
à½Ĥà½ıà½ĳ à½ĵà½¦
à½ĵà½Ķ à½¡
à¼Ģ à½Ĭ
Ġà¼¥ à¼¤à¼¤
Ġà¼¤ à¼£à¼¤
Ġà¼¤ à¼¥à¼¦
Ġà¼¤ à¼¤à¼§
Ġà½¨ à½ł
à½¢à½ĳ à½ı
à¾·à¾² à½¾à¼į
à½ĵà½ĺà½ĺà½ģà½ł à½ĺà½Ĳà½ł
46 1
à½ķà½Ŀ à½Ĥ
à½Ĳà½ĺà½¦à½ħ à½ĳà½ĸ
Ġà¼¡à¼©à¼© à¼£
4 34
à½¦ à½ļà½Ħ
à½² à¾ĥ
à½Ĥ à½Ĥà½ĵà½Ħ
à½¢ à½łà½ļ
à½ĵ à½łà½ĸà½¢
à½Ħ à½ŀà½£
à½ĺ à½łà½Ĥà½Ĥ
à½ĺ à½£à½Ĥà½¦à½¦
à¾± à¾±à½¼
à½ł à½ĵà½ĺ
à½²à¼ĭ à½ºà¼į
à½Ĥà½¦ à½ĺà½ģà½ł
à½Ĩ à½¦à½¢
à½ĸà½¦ à½Ĥà½ħ
à½ĳà½Ħ à½Ĥà½ĵ
à½ı à½¦à½¢
à½łà½ĸ à½ĸà½ħ
à½Ķà½¦ à½ĸà½ŀ
à½Ļ à½ĵà½ĺ
à½Ĥà½ı à½Ħà½¦
à½¨ à½Ķà½¦
à½¨ à½ĸà½ħ
à½Ĳà½ĺà½¦ à½Ģ
à½ĺà½ļà½ĵ à½ŀ
à½ĸà½¤à½ĳ à½ĳà½Ħ
à½ĸà½ı à½ĸà½¢
à½Ļà½ĺ à½Ķ
à¾Ĳà¾±à½ºà¼ĭ à½Ī
à½łà½ĳà½¦ à½ĺà½¦
à½£à½Ĥ à½Ģ
à½Ĳà½ĸà½¦ à½ĸà½¦
à¾Ĳà¾± à¾¦à¾·à½º
à½ĺà½īà½ĺ à½ĵ
à½ĺà½īà½ĺ à½ĸà½ŀà½Ĥ
à½Ĥà½ıà½ĵ à½Ķ
à¾¨à¼ĭ à¼Ĳ
à½Ĳà½¢ à½ĸà½ł
à½Łà½Ĥ à½Ĥà½Ħ
à¾·à½´ à¾ĥà¼ĭ
à½Ĳà½Ĥ p
à½īà½ĵ à½ĵà½¦
à½±à½´à¾ĥà¼ĭ à½±à½´à¾ĥà¼ĭ
à½Ģà½¢ à½¢
à½ĸà½ĸà½¦ à½ĳ
à½ķà½Ĭ à½¡
à½Ĩà½Ĥ à½ĳà½Ħ
à½ķà½¢ à½ķ
à½ĵà½Ĥà½¦ à½¦
à½Ī à¾±à½ºà¼ĭ
Ġà¼£ à¼¨à¼¥
à¼ĭà½Ī à½¼à¼ĭ
à½ĵà½Ķ à½Ĩ
Ġà¼§ à¼¢à¼¢
à¾¥ à½ºà¼į
à¾ļ à¾²à½±à¾Ģà¼ĭ
à½Ĵ à½ĵà½Łà½«
Ġà½ģ à½ħ
Ġà½¨ à½ı
à½¨à½ł à½¢
à½²à¼ĭà¼´ à¼ĭ
45 6
à½łà½« à½¥
Ġ à½łà½Ħ
à½¦ à½ĭ
à½ĳ à½īà½ĵ
à½ĳ à½ļà½£
à½ĳ à½ķà½Ĥ
à½Ĥ à½ĸà½Ħ
à½Ĥ à½ĺà½Ĩà½ĵ
à½ĸ à½Ĳà½ĳ
à½ĵ à½ĸà½ıà½Ħ
à½Ħ à½ķà½ĵ
à½Ħ à½ĸà½ĸ
à¾± à¾Ĺà½ºà¼ĭ
à½ł à½¦à½£
à½Ķ à½Łà½¦
à½£ à½ĳà½ĺà½¢
à½£ à½Ĥà½ŀà½Ĥ
à½£ à½£à½łà½Ħ
à¾² à½±à½´à¾ĥà¼į
à¾Ĵ à¾·à½¼à¼ĭ
à½ĸà½¦ à½ĳà½ĸà½Ħ
à½ĳà½Ħ à½£à½ĺ
à½ħ à½İ
à½ļ à½ĺà½Ĩ
à½¤ à½ĺà½Ħ
à½Ķà½¢ à½Ĥà½ĳ
à½ĸà½¢ à½łà½Ľ
à¾£ à½¼à¼ĭà¼į
à¾£ à¼µà¼ĭ
à½ĵà½¦ à½Ĥà½Ļ
à½Ł à½ĸà½Ĥ
à½¡à½Ħ à½ĺà½ļà½ĵ
à½Ķà½¦ à½ĺà½Ĳà½ł
à½ĳà½ĸ à½Ļà½ĵ
à¾²à½² à¼µ
à½ĳà½Ķ à½ĵà½¦
à½¨ à½ĺà½ĳ
à¾Ķà¼ĭ à¼´
à½łà½ĳà½¦ à½łà½ĳ
à¾¡à½¼ à½¼à¼ĭ
à½łà½Ĳ à½ĸà½ĺ
à½Łà½ĳ à½ĵà½¦
à½£à½ĵ à½ĸà½¢
à½Ĥà½¦à½¢ à½ĳ
à¾¨à¾² à½ºà¼į
à½¡à½¦ à½ĺà½¦
à½Ĥà½ĵà½ĳ à½£
à½Ģà½¢ à½ł
à½Ģà½¢ à½İà½ł
à½¤à½¦ à½Ģ
à½łà½Ĥà½Ĥ à½Ĥ
à½ĳà½ĺà½ĵ à½¢
à½¦à½¦ à½ĸà½¦
Ġà¼£ à¼¨à¼§
à½¦à½ĵ à½£
Ġà¼¤ à¼¢à¼¤
Ġà¼¤ à¼¢à¼£
à¾» à½´à½¾à¼ĭ
47 2
Ġ à½§à½ĵ
à½ĳ à½ĺà½ļà½¢
à½Ĥ à½Ĩà½¦
à½ĸ à½Ĥà½¦à½¢
à½Ħ à½łà½ļ
à½Ħ à½łà½ĩà½ĺ
à½ĺ à½ĸà½ħà½ĳ
à¾± à¾ľà¼ĭ
à½Ķ à½ŀà½ĵ
à½£ à½Ħà½Ħ
à¾² à¾Ĺà½ºà¼ĭ
à½´à¼ĭ à¼ī
à½¡ à½Ĥà½ĵà½¦
à½Ģ à½ĸà½ł
à½Ģ à½łà½ģ
à½Ģ à½ĺà½Ĩ
à½Ģ à½¦à½ĺ
à½ĸà½¦ à½Ĥà½ŀ
à½ĸà½¦ à½Ĥà½¦à½£
à½ħ à½Ķà½¦
à½ģ à½¤à½ĳ
à½ļ à½¢à½Ħ
à½ĺà½¦ à½ĸà½ĳà½Ĥ
à½ı à½ª
à½Ł à½Ķà½¦
à¾¡ à¼įà¼ĭ
à½£à½¦ à½Ĥà½£
à¾© à¾±à½¼
à¾· à¾²à½ºà¼ĭ
à½Ĥà½ŀ à½Ĥà½ĵà½¦
à½Ļ à½ĵà½ł
à¾Ļ à½±à½¾à¼ĭ
à½Ľ à½łà½ĳ
à½ĸà½Ł à½Ł
à½łà½ķ à½ł
à½§ à½ĺà½¦
à½£à½ĺ à½ĳà½Ĥ
à¾¡à½¼à¼ĭ à¼Ĳ
à½ĸà½¤à½ĳ à½ĸà½¢
à½¾ à½ºà¼ĭ
à½łà½Ĩ à½Ħà½Ĥ
à½Ĥà½ĵ à½ĸà½¦
à½ĳà½Ķà½ł à½ģ
à½£à½Ĥ à½Ħà½¦
à½£à½Ĥ à½ĸà½ħ
à½ĸà½Łà½Ħ à½ĵ
à½Ĥà½¦à½Ħ à½ł
à¾Ĵà¾²à¼ĭ à¼Ĳ
à½Ĩà½ĳ à½Ķà½¦
à½£à½Ĥà½¦ à½ģ
à½Ŀ à½ķ
à½ħà½Ĥ à½ĺ
à½Ĥà½ĳà½ĸ à½Ķ
à½łà½ĸà½ĸ à½Ĩ
à½łà½ĸà½ł à½¤
à½ĳà½ĵ à½Ĥà½¦
à¾ª à½ºà¼į
à¾ļ à½±à½²
à¾ŀ à½±à¼į
à¼ĭà¼Ĳ à¼ĭ
Ġà½ģ à½ĵ
Ġà½ĳà½Ĥ à½Ħ
à¾¶ à½¾à¼į
à¼¢à¼¡à¼¢ à¼¤
à¼ĭà¼Ŀ à¼Ŀ
à½±à½¾ à¼įà¼ĭ
45 7
46 8
47 3
à¾łà½² à¾Ģà¼į
âĢ¦ âĢ¦
à½ĸà½Ģà½łà½Ĥ à½ĳà½ĺà½¦
à½Łà½Ķà½Ĥ à½¥
4 37
Ã ®
Ġ à½Ĥà½ħà½ĳ
à½ĳ à½£à½łà½Ħ
à½Ĥ à½łà½Ĥà½£
à½¢ à½ĳà½Ķà½ł
à½¢ à½łà½Ĳ
à½¢ à½łà½ĩà½ĺ
à½ĵ p
à½ĺ à½¤à½¦
à½ł à½Łà½¦
à½Ķ à½ĵà½ĺà½¦
à½£ à½Ĥà½Ļà½Ħ
à½Ĥà½¦ à½ĵà½Ĥ
à½¡ à½ĸà½¦à½ĺ
à¾Ł à¾Ńà½±à½¾à¼ĭ
à½ĸà½¦ à½ĺà½ģà½¦
à½ĺà½¦ à½Ĥà½ŀà½ĵ
à½ī à½ĵà½ĳ
à½¤ à½Ĥà½ħ
à¾Ĳ à½¼à¼ĭà¼į
à¾Ĳ à½±à¼į
à½ĳà½Ĥ à½ħà½Ĥ
à½Ķà½¢ à½łà½ļà½ĳ
à½ĸà½¢ à½ħ
à½ĵà½¦ à½Ķà½¦
à¾²à½´ à½±à¼ĭ
à½ĸà½ł à½Ħà½ĺ
à½ĳà½ĸ à½ĳà½Ķ
à½ĸà½ħ à½Ķ
à½Ĥà½ŀ à½Ĥà½ŀ
à½Ĥà½ŀ à½ŀà½ĵ
à¾Ļ à¾±à½±à¼ĭ
à¾²à¼ĭ à½º
à½ĳà½ĺ à½Ģ
à½ĸà½ĳà½Ĥ à½ķ
à¾« à¾«
à½Ĥà½ŀà½ĵ à½Ĳà½ĺà½¦
à½ĺà½ļà½ĵ à½ĵà½¦
à½ĸà½ħà½¦ à½¡
à½¾à¼ĭ à½¾à¼ĭ
à½ĺà½Ĥ à½Ĥà½¦
à½ĵà½ĺ à½§
à½ĺà½¢ à½Ĥà½ĵà½¦
à½ģà½ĺà½¦ à½Ĥà½Ħ
à½ģà½Ħ à½ĳà½Ħ
à½¡à½ĵ à½ı
à½ĳà½¢ à½¤
à½ĳà½Ģà½ł à½¢
à½łà½ĸà½¢ à½£
à½¡à½¢ à½£
à½Į à½Ļ
Ġà¼¡ à¼¡à¼¡à¼¡
à½¢à½ĺ à½ĺ
à½¢à½ĺ à½ŀ
à½Ħà½ĺ à½ŀ
à½īà½ĺ à½ĺ
à¾ŀ à½²à¼į
à¼¢à¼¥ à¼¢à¼¥
Ġà½¡ à½Ģ
à¼¢à¼§ à¼¢à¼¨
Ġà½Ĥà½¡ à½¢
Ġà½ģ à½Ĥà½ī
Ġà¼¤ à¼£à¼¨
Ġà½Ħ à½Ģ
à½ºà½º à½¾à¼ĭ
à½ĸà½ŀà½ĵ à½Ĥà½¤
à¼¢à¼¡à¼£ à¼¥
à¾¦à¾· à½±à½²à¼į
Ãĥ à½¡
à½Ľà½Ľ à½Ľ
49 2
à¼´à¼´ à¼´à¼į
à½Ĵà½ħ à½«à½Ĥ
Ġ à½¼à¼į
à½Ĥ à½ģà½¢
à½ĸ à½ĳà½ĺà½Ĥ
à½ĸ à½Ĥà½ıà½ĺ
à½ĸ à½ĳà½Ħà½¦
à½¼ à¼ģà¾ĥ
à½¢ à½ģà½Ħ
à½ĵ à½Ģà½¢
à½Ħ à½Ĥà½ıà½ĺ
à½ĺ à½ĺà½¦à½ĺ
à½Ķ à½Ħà½ĺ
à½¡ à½ĳà½£
à½Ģ à½ĵà½ĵ
à½ŀ à½ĵà½ĵ
à¾Ł à¾Łà½±à¼ĭ
à½Ķà½ł à½¦à½ĺà½¦
à½ĳà½Ħ à½łà½ķ
à½ĺà½¦ à½ĳà½ĺ
à½ĺà½¦ à½¦à½Ħà½¦
à½ı à½ĸà½Ľ
à½ı à½¦à½ĺ
à½¤ à½łà½ĳ
à½ĳà½Ĥ à½ĺà½ļà½ĵ
à½ĵà½¦ à½ĺà½Ĳà½ł
à½Ł à½Ļ
à½łà½Ĥ à½Ĥà½¦à½ĵ
à¾¤ à¼ĭà¼į
à½ºà¼į à¼ĭà¼įà¼ĭ
à½Ĥà½ŀ à½Ĥà½ŀà½ĵ
à½Ļ à½Ķà½¢
à½Ĥà½Ħ à½Ĳ
à¾Łà¼ĭ à½¼
à¾Łà¼ĭ à¼´
à½Ĥà½ħ à½ĳà½Ķà½¢
à½łà½ķ à½Ĥà½¦à½£
à¾Ĵà¾±à½´à¼ĭ à¼Ĳ
à½ĸà½ħà½¦ à½¤
à½łà½ĳà½¦ à½ĸà½ĳà½Ĥ
à½ĺà½Ĥ à½Ħà½¦
à¾Ĳà½´ à½¾à¼ĭ
à½Ħà½ĵ à½Ĥà½¦
à½ıà½ĵ à½ł
à¼© à¼¡à¼©à¼¡
à½ĺà½ģà½ĵ à½£
à½ĸà½£ à½£
à½Ĳà½Ĥ à½Ĥ
à½ĳà½Ģà½ł à½ĸà½¢
à½łà½ĩà½ĺ à½Ķ
à½¤à½¦ à½ĵ
à¾Ķà½¼à¼ĭ à½²
à½¡à½Ħà½¦ à½Ķ
à½ĳà½Ķà½¢ à½ĳ
Ġà¼¤ à¼¡à¼¤
Ġà¼¤ à¼£à¼§
Ġà¼¤ à¼¤à¼¥
à½µ à¾ĥ
à½¢à½ĳ à½¦à½Ħà½¦
45 1
à½ģà½ģ à½ģà½ģ
à½ĺà½ĺà½¦ à½ĺà½¦
à½Ķà½ĩ à½ĳ
à½łà½« à½Ĳ
à¾Łà½ºà¼ĭà¼ı à¼ĭ
Ġ à½Ĥà½Łà½ĵ
à½¦ à½ĸà½Ħ
à½ĳ à½Ĩà½¢
à½Ĥ à½ļà½¢
à½¢ à½Ĥà½¦à½¢
à½¢ à½ļà½£
à½ĵ à½Ĥà½ĵà½Ħ
à½Ħ à½Ĥà½ĳà½ĺà½¦
à½ĺ à½łà½Ĥà½£
à¾± à¾¦à¾·à½º
à½Ķ à½ĸà½ıà½Ħ
à½Ķ à½Ķà½łà½ĺ
à½£ à½Ĩà½Ħ
à½£ à½ĺà½Ĩà½ĵ
à½Ĥà½¦ à½ĳà½Ķà½ł
à½Ĥà½¦ à½īà½ĺà½¦
à½Ĥà½¦ à½ĳà½ĳ
à¾² à¾³à¼ĭ
à½¡ à½ĺà½ĵ
à½Ĩ à½ĩ
à½Ķà½ł à½ĺà½ģ
à½Ķà½ł à½¨
à½Ķà½ł à½Ĩà½Ħ
à½ħ à½ĳà½ĸà½ħ
à½ļ à½łà½ĸ
à½ļ à½ĵà½Ħ
à¾Ĵà¾± à½¾à¼ĭ
à½¤ à½ĳà½ĸ
à½Ķà½¢ à½ĺà½īà½ĺ
à½Ķà½¢ à½¦à½¦
à½łà½ĳ à½ĺà½¢
à½ĸà½¢ à½ĸà½ŀ
à½ĸà½¢ à½ĺà½Ĩ
à½ĸà½¢ à½ĸà½Ł
à½¡à½Ħ à½Ħà½¦
à½¡à½Ħ à½£à½¦
à¾Ķ à¼µà¼ĭ
à¾Ļ à½¼à½¾à¼ĭ
à¾¨ à¼µà¼ĭ
à½ĳà½ĺ à½łà½ĸ
à½Ĥà½ĵà½¦ à½Ĥà½ĵà½¦
à½Ĥà½ħ à½«à½Ĥ
à½ħà½ĵ à½ĩ
à½Ĳà½ĺà½¦ à½Ĩà½ĳ
à½ĺà½ļà½ĵ à½ħà½ĵ
à½ĺà½ł à½Ĩà½¢
à½ĺà½Ľà½ĳ à½ģ
à½ĸà½¦à½ĺ à½ĸà½¦
à½ĸà½Ļ à½Ķ
à½ĺà½¢ à½łà½Ĥ
à½Ħà½Ĥ à½ļ
à½ŀà½£ à½ĺà½Ĳ
à½ŀà½£ à½Łà½¦
à½ĳà½ĺà½¢ à½ĵà½Ĥ
à½¦à½¢ à½ĵ
à½Ĭ à½Ĩ
à½Ŀ à½ĺà½¦
à½łà½ĺ à½¡à½Ħ
à½Ħà½Ħ à½ļ
à½¦à½ĺ à½Ģ
à½łà½Ĩà½Ħ à½ĸ
à½ļà½£ à½£
à½Ĩà½Ĥ à½ļ
à½Ĩà½Ĥ à½ĸà½¢
à½ĸà½łà½ĺ à½¡à½Ħ
Ġà½Ķ à½Ħ
à½ĵà½¢ à½Ģ
à¾µ à¾ŀà½±à¼ĭ
à½ģà½ł à½£
à¼¢à¼¢ à¼¡à¼¢
à¼¢à¼¢ à¼¡à¼¡
à¾·à½´à¼ĭ à¼į
à½ħà½¢ à½Į
à¾ŀ à½º
à¾Ľ à½¼
Ġà¼¤ à¼¤à¼¢
à¼ĭà½¼ à½²
à½ĥ à½£
à¼¢à¼¡à¼¡ à¼¨
à¾¼ à½±à½²à¼ĭ
à¾µà¾¨ à½¾à¼ĭ
à¾µà¾¨ à¾¼à¾»
Ġ à½Ĥà½ĳà½ł
Ġ à½Ļà½İ
à¼ĭ à¾¡à¼ĭ
à½Ĥ à½Ĥà½ŀà½£
à½ĸ à½ķà½ĵ
à¾± à¾³à½º
à½²à¼ĭ >
à½£ à½¢à½£
à½£ à½£à½Ħ
à½£ à½Ĥà½Łà½ł
à½Ĥà½¦ à½ĸà½ħà½¦
à½ºà¼ĭ à½±
à½¼à¼ĭ à¾ĥà¼ĭ
à½¡ à½ŀà½ĵ
à¾Ĵ à¾¡à½¼
à½ħ à½ĳà½Ĥà½Ħ
à½ħ à½ĵà½¦à½Ħà½¦
à½Ĳ à½ĳà½Ģà½¢
à½ķ à½¨
à½ı à½£à½¦
à½ı à½Ĥà½ĵà½¦
à¾±à½² à¼´à¼į
à½¤ à½ĸà½ł
à½¤ à½ĳà½Ķ
à½ĳà½Ĥ à½Ĳà½ĺà½¦à½ħà½ĳ
à½Ķà½¢ à½¢à½Ĥ
à½Ł à½ĳà½ĸà½Ħ
à½£à½¦ à½ĸà½ı
à½£à½¦ à½łà½ķà½Ĥà½¦
à½Ķà½¦ à½Ĥà½¦à½£
à¾· à¾±à½´à¼ĭ
à½ĺà½Ĳ à½¢à½ĸ
à¾¨ à¾Ģà¼ĭ
à½łà½ģ à½Ĥà½¦
à½Ĥà½ĵà½¦ à½ĳà½Ĥ
à½ħà½ĵ à½ĺà½Ĳà½ł
à½ĺà½ģ à½ĳ
à½Ĳà½ĺà½¦ à½Ħ
à½ħà½ĳ à½Ļ
à½Ĥà½ŀà½ĵ à½Ģ
à½ĺà½ĳ à½ĸà½¦
à½Ĥà½¦à½£ à½ı
à½łà½ĳà½¦ à½ı
à½łà½ĳà½¦ à½ĺà½ł
à½ĸà½¦à½ĺ à½Ģ
à½ļà½ĳ à½Ļà½ĺ
à½ĺà½¢ à½Ķ
à½Ħà½Ĥ à½ķ
à½Ħà½Ĥ à½¨
à½ģà½Ħ à½¢
à¾ķ à¼ĭà¼į
à½ķà½ĵ à½ĳ
à½ĺà½ģà½¦ à½¦
à½łà½ĺ à½¢à½Ħ
à½ĵà½ĺà½¦ à½ŀ
à½łà½ĸà½¢ à½¢
à½¥ à½ģ
à½ģà½Ĥ à½ĸ
à½Ĥà½ĺ à½Ĥà½ī
à½ĸà½Ģà½Ĥ à½Ķà½ł
à½Ĥà½ĳà½ĸ à½ĳ
à¾µ à½¼
à¼¢à¼¢ à¼¡à¼§
à½Ī à¾±à½²à¼ĭ
à½Ĳà½ĸ à½Ĳà½ĸà½¦
à½¢à½ĵ à½ĸ
à½¢à½ı à½ĺ
Ġà½¡ à½ĺ
Ġà½¤ à½ł
à½Ĵ à½¢à½Ĥ
Ġà¼¨ à¼¢à¼¢
à¾¡à¾· à¾Ńà¼ĭ
à¼¦à¼¦ à¼¦à¼¦
45 5
à½Łà½Ĳ à½ķ
à½Ĥà½łà½ļà½£ à½£
à½Ĺà½ĵ à½¥
à½į à½Ģ
Ġ à½łà½ļà½ĺà½¦
Ġ à½łà½Ľà½ĸ
à½¦ à½łà½ĸà½¢
à½Ĥ à½ĸà½ıà½Ħ
à½ĸ à½Ĩà½ĵ
à½¢ à½ķà½ĵ
à½ĵ à½ĸà½¦à½£
à½ĵ à½Ĥà½ĵà½ĺ
à½ĵ à½ĸà½Łà½Ħà½¦
à½ĵ à½ĸà½ĳà½¦
à¾± à¾¤à¾±à½¼
à½ł à½īà½ĵ
à½£ à½ĸà½ı
à½Ĥà½¦ à½Ľ
à½Ĥà½¦ à½ģà½ĺà½¦
à½¡ à½Ĥà½ħ
à½¡ à½£à½ĺ
à½ģ à½ĺà½£
à½Ĳ à½Ĥà½£
à½ĺà½¦ à½Ļ
à½ı à½łà½Ĥ
à½¤ à½ĳà½Ĥ
à½Ķà½¢ à½łà½Ĩ
à½łà½ĳ à½Ķà½¢
à½ĵà½¦ à½ĸà½Ļ
à½ĵà½¦ à½ĳà½Ķà½£
à½Ħà½¦ à½ĵà½ĺ
à½Ħà½¦ à½¦à½ĺ
à¾¡ à¾²à½¼à¼ĭ
à¾Ĺ à¼µà½ºà¼ĭ
à½Ķà½¦ à½Ĥà½ı
à½Ķà½¦ à½ĺà½ī
à¾· à¾³à¾Ģà¼ĭ
à½Ļ à½Ľ
à¾²à¼ĭ à½²à¼ĭ
à¾¦ à¾©à½¼
à½¨ à½łà½Ħ
à½Ĳà½ĺà½¦ à½Ļ
à½§ à½Ļ
à½ĩ à½§
à½£à½ĺ à½Ĥà½ī
à½ĺà½Ĥ à½Ļà½Ħ
à½ĳà½Ķà½ł à½ļà½ĵ
à½łà½ļ à½£à½ĺ
à½ĳà½Ģà½¢ à½ĵà½Ĥ
à½Łà½ĳ à½ĸà½¢
à½ĸà½ŀà½Ĥ à½ł
à½ıà½ĵ à½Ģ
à½Ĳà½¢ à½ĵà½¦
à½ĸà½ıà½Ĥà½¦ à½ĳ
à½Ķà½łà½ĺ à½ĸ
à½ĺà½Ħà½ł à½¦
à½Ķà½İ à½¦
à½ŀà½Ĥ à½Ĥ
à½ŀà½Ĥ à½ĸà½ĳ
à½ĵà½ĵ à½£
à½ĺà½ļà½¢ à½Ĩ
Ġà½£ à½ĸà½¦
à½£à½Ħ à½¤
Ġà¼£ à¼©à¼¥
Ġà¼£ à¼¨à¼¤
Ġà½Ģ à½£
Ġà½¤ à½ĳ
Ġà¼¥ à¼¡à¼¥
Ġà¼¤ à¼§à¼¥
à½¦à½ĺà½¦ à½ĺà½¦
à¼£à¼© à¼£à¼©
à½ĵà½Ķà½¢ à½ĺ
à¾©à¾Ń à½²à¼ĭ
à¼¢à¼¡à¼¤ à¼¤
à½Ĺà½ı à½¡
à¼ĭà¿ ĳ
à½ĸà½Łà½łà½ĸ à½ı
à¾Łà¼µ à½ºà¼į
à½¦ à½ĳà½Ģà½ł
à½¦ à½¡à½¢
à½ĳ à½ĳà½ĺà½Ĥ
à½¢ à½ŀà½£
à½ĵ à½ļà½Ħ
à½²à¼ĭ à¾Ĵ
à½²à¼ĭ à½²à¼į
à½Ķ à½ĺà½ģà½ĵ
à½Ķ à½Ĩà½¢
à½£ à½ĸà½¤
à½£ à½ĳà½Ĥà½Ĥ
à½¼à¼ĭ à½¾à¼ĭ
à½ŀ à½£à½ĺ
à½Ĩ à½ħà½ĵ
à½Ķà½ł à½Ľà½ĺ
à½Ķà½ł à½Ĥà½Ĥà½¦
à½ħ à½ĳà½ĺà½Ĥ
à½ģ à½ĸà½ı
à½ļ à½ļà½ĳ
à½ĺà½¦ à½ĺà½ļ
à½ĺà½¦ à½ĵà½Ħ
à½ı à½Ķà½¢
à½¤ à½ĵà½ł
à½ĳà½Ĥ à½ĸà½ŀ
à½ĵà½¦ à½ĸà½Ģ
à½Ł à½ĸà½Ģ
à¾¡ à½¾
à½ĸà½ŀ à½ĵà½ĵ
à½łà½ĸ à½ĳà½ĳ
à½£à½¦ à½Ħà½ĵ
à½¡à½Ħ à½ĳà½ĸ
à½Ķà½¦ à½ĳà½Ģ
à½Ķà½¦ à½ĸà½¦à½ĺ
à½ĳà½ĸ à½¡
à½ĳà½ĸ à½Ľ
à½ĳà½ĸ à½ĵà½ŀ
à¾· à¾±à½ºà¼į
à½Ļ à½¡à½Ħ
à½± à¼µà¼ĭ
à½Ĥà½ĵà½¦ à½ī
à½Ĳà½ĺà½¦ à½¨
à½ħà½ĳ à½ĳà½ĸà½Ħ
à½ĵà½Ħ à½Ķ
à½£à½ĺ à½ĵà½ĵ
à¾Ń à½´à¼ĭ
à½łà½ĳà½¦ à½ļ
à½ĳà½Ķà½ł à½ĺà½Ĳ
à½ĵà½ĺ à½Ł
à½Ĩà½Ĥà½¦ à½¤
à½ĸà½Ģà½ł à½łà½ĸ
à½ĳà½ĳ à½ĳà½Ķ
à½Ħà½ĵ à½łà½Ħ
à½İ à½ī
à½ıà½ĵ à½¡
à½ĸà½Ľ à½ĵ
à½¢à½¦ à½Ģ
à¼įà¼ĭ à¼´à¼ĭ
Ġà½¦ à½£
à½Ĩà½Ĥ à½¨
à¾²à½²à¼į à¼ĭà¼į
à¼¢à¼¥ à¼¢à¼§
à¼Ģ à½Ļà½ĵ
à½¢à½¢ à½¢
à½Ĵ à½Ľ
Ġà¼¥ à¼¤à¼©
Ġà¼¤ à¼¥à¼£
Ġà¼¦ à¼¦à¼¦
à¾¶ à½±à½¾à¼ĭ
à½ĥ à½ŀ
à½Ĩà½Ĩ à½Ĩ
à½Ĳà½Ĳ à½Ĳ
Ġ à½ĳà½Ħà½¦
à½ĸ à½ĺà½Ħà½ł
à½¢ à½łà½ĸà½¢
à½¢ à½¢à½Ĥ
à½¢ à½Ķà½ĵ
à½ĵ à½ĳà½ĺà½Ĥ
à½²à¼ĭ à¼Ŀà¼Ŀà¼Ŀ
à½Ķ à½ĳà½ĺà½¢
à½£ à½īà½ĺ
à½£ à½ŀà½¦
à½Ĥà½¦ à½ĳà½¦
à½ºà¼ĭ à½Īà½¼
à½Ģ à½Ĥà½Ħ
à½ĸà½¦ à½§
à½ģ à½ģà½ĺà½¦
à½Ĳ à½ĳà½Ķ
à½ĺà½¦ à½łà½Ĩà½£
à½ī à½ĺà½Ĥ
à½ĳà½Ĥ à½ĺà½īà½ĺ
à½ĳà½Ĥ à½ŀà½£
à½ĸà½¢ à½¢à½Ħ
à½łà½ĸ à½¤à½ĳ
à½£à½¦ à½ĸà½Ģà½ł
à½¡à½Ħ à½Ķ
à½¡à½Ħ à½Ĥà½£
à¾· à¾±à½²
à½Ļ à½łà½Ħ
à½Ĥà½ĵà½¦ à½Ĥà½ŀà½ĵ
à½Ĥà½ħ à½ĳà½ĳ
à½¨ à½łà½Ĥ
à½Ĳà½ĺà½¦ à½Ļà½ĳ
à½ĸà½Ģ à½łà½ķ
à¾« à¾·à¼ĭ
à½±à¼ĭ à½¼
à½ĵà½ĺ à½ĳà½Ħ
à½ıà½ĵ à½ı
à½£à½ĵ à½łà½ĳ
à½¡à½ĵ à½Ķà½ł
à½Ĥà½¢ à½Ģ
à½¤à½¢ à½ĺ
à½Ĭ à½łà½Ħ
à½īà½ĵ à½Ķà½ł
à½¢à½ĸà½¦ à½ĳ
à½Ĥà½ŀà½Ĥ à½Ĩ
à½Ĥà½ŀà½Ĥ à½łà½ĳ
à¾Ģ à½²à¼ĭ
à½ĸà½ĸà½¦ à½ĸ
à½ĸà½ĸ à½ĸà½Ķ
à½ļà½£ à½¢
à½ļà½¢ à½Ĥà½ħ
à½Ĩà½Ĥ à½ĳà½Ĥ
à½ĵà½ł à½¢
à½ĸà½Ħ à½ĳ
à½Ķà½ĵ à½£
Ġà¼£ à¼¨à¼¡
à½ŀà½ĵ à½Ķ
à½Łà½Ħ à½Ł
à¾ļ à½±à½¾à¼į
à¼Ģ à½ĵà½¦
à¼¢à¼§ à¼¢à¼§
à¼¢à¼¨ à¼¢à¼¨
Ġà¼¥ à¼¥à¼¥
Ġà¼¤ à¼¡à¼¨
Ġà¼¤ à¼¤à¼¦
à½Ĺ à½İ
Ġà½Ĥà½ī à½£
à¾¡à¾· à¾°à¼ĭ
Ġà½Ħ à½ħ
à¾·à¾± à½±à¼į
à¼ĭà½²à¼ĭ à½¼à¼ĭ
à¼¢à¼¡à¼¢ à¼¨
à½Ħà½ĵà½¦ à½Ħ
47 0
Ġ à½Ħà½ĳ
à½¦ à½Ķà½ī
à½ĸ à½Ĥà½ŀà½£
à½ĸ à½Ĳà½ĺ
à½ł à½łà½ĩà½ĺ
à½Ķ p
à½Ķ à½Ĩà½¦
à½£ à½Ĥà½ĵà½ĳ
à½£ à½¡à½¢
à¾² à¾«à½²à¼ĭ
à½¼à¼ĭ à½±à¼ĭ
à½¡ à½Ľà½ĳ
à½Ģ à½¦à½Ħà½¦
à¾Ł à¾Ģ
à½ĳà½Ħ à½łà½Ĩ
à½ĳà½Ħ à½ĺà½Ĳà½ł
à¾±à½²à¼ĭ à½ºà¼ĭ
à½ģ à½Ĥà½Ł
à½Ĳ à½ĳà½Ģ
à½ļ à½Ĥà½ī
à½ĺà½¦ à½ĺà½ļà½ĵ
à½ĺà½¦ à½ĺà½Ĳà½ł
à¾Ĵà¾± à½¾
à½ĳà½Ĥ à½Ĥà½¦à½Ħ
à½ĸà½¢ à½ĸà½¦à½ĺà½¦
à½ĵà½¦ à½ŀà½Ĥ
à½ĵà½¦ à½¤à½Ķ
à¾¡ à¾¡à¾·à¼ĭ
à¾±à½´ à½±à¼ĭ
à½£à½¦ à½ĳà½Ģ
à¾¤ à¾±à½ºà¼ĭ
à½Ĥà½ŀ à½¦à½¦
à¾¨ à¾±à¼į
à¾¨ à¾²à½²à¼į
à¾¦ à½±à½´
à¾¦ à¾·à½¼à¼į
à¾Ĵà¾±à½´ à¼µà¼ĭ
à½Ĥà½ĵà½¦ à½ķ
à½Ľ à½¨à½¢
à½ħà½ĵ à½ĳà½ĸ
à½ĺà½ģ à½ŀ
à½ĸà½Ł à½łà½ĺ
à½¨ à½ĺà½¢
à½ĸà½ĳà½Ĥ à½ĳà½Ĥ
à½ĳà½Ģ à½Ģ
à½ĵà½Ħ à½Ĥà½¦à½Ħ
à½Ĥà½ŀà½ĵ à½ĸà½¦
à½ĩ à½¤
à½ĺà½ļà½ĵ à½Ĩ
à¾Ĵà¾²à½´ à¼į
à¾Ķà¼ĭ à¼Ĳ
à½£à½Ĥ à½ĳà½ĸ
à½łà½ļ à½Ķ
à¾³à½´ à½´à¼ĭ
à½ļà½ĳ à½ł
à½Ĩà½Ĥà½¦ à½ĵà½¦
à¾Ļà½º à½º
à½Ħà½ĵ à½Ķà½¢
à½ŀà½£ à½¢
à½ĺà½ģà½¦ à½ĺ
à½ĺà½ĵ à½łà½ĺ
à½ĳà½Ģà½ł à½łà½Ĥ
à½łà½Ĥà½ł à½¦
à½Łà½¦ à½Ł
à½Ģà½¢ à½Ģ
à½ĳà½Ĥà½Ĥ à½łà½ĸ
à½¥ à½ĭ
à½ĸà½ĸà½¦ à½Ķ
à½łà½ĳà½ĸ à½ĺà½ł
à½łà½ĳà½ĸ à½Ĩà½Ĥà½¦
Ġà½ĸ à½Ķ
à½ĵà½¢ à½ĳ
à¾µ à¾³à¾Ģà¼ĭ
à¾¡à¾·à¼ĭ à¾İ
Ġà½ļ à½Ĥà½¦
à¾ŀ à¾ŀà½²à¼ĭ
Ġà¼¥ à¼¡à¼¢
Ġà¼¥ à¼¢à¼¥
Ġà½Ĳ à½ĵ
Ġà¼¦ à¼¡à¼©
Ġà½Ħ à½ĸ
à¾·à¾² à½±à¾ĥà¼ĭ
à½²à¼ĭà¼Ĳ à¼Ĳ
46 5
46 6
47 1
à¼ĭà¼ī à¼į
à¾Ĵà¾· à½±à½¾à¼ĭ
5 11
Ġ à½łà½Ĩà½£
à½¦ à½Ĥà½ĵà½ĺ
à½Ĥ à½Ĥà½¦à½ĵ
à½ĸ à½ģà½Ħ
à½ĸ à½Ħà½ĺ
à½¢ à½İà½ł
à½ĵ à½¡à½¦
à½ĵ à½Ļà½¢
à½Ħ à½īà½ĵ
à½ĺ à½ĺà½ģà½¢
à½ĺ à½ıà½ł
à½Ķ à½Ĥà½ĵà½Ħ
à½£ à½Ķà½İ
à½¡ à½ĺà½Ĩ
à½¡ à½ģà½ł
à½Ģ à½Ģà½ł
à½ĸà½¦ à½ĺà½Ľ
à½Ĳ à½Ķà½¢
à½Ĳ à½¢à½Ħ
à½ĺà½¦ à½ĳà½ĸ
à½ı à½ĺà½§
à½ı à½ĭ
à¾Ĳ à¼ĭà½²
à½ĳà½Ĥ à½ĳà½ĺ
à½ĵà½¦ à½łà½Ľ
à½ĵà½¦ à½Ĥà½¤
à½ĵà½¦ à½łà½ķà½Ĥà½¦
à½ĵà½¦ à½łà½ĩà½ĺ
à½Ł à½łà½ģ
à½Ł à½§
à¾±à½¼ à½¾
à½£à½¦ à½ļà½ĳ
à½¡à½Ħ à½ĸà½¦à½ĺ
à½Ķà½¦ à½Ĥà½ĵ
à½¢à½Ħ à½¡
à½¢à½Ħ à½Ĥà½¦à½£
à½ĺà½Ĳ à½ĺà½Ĳà½ł
à½ĸà½ĳ à½ĸà½¦
à½ħà½ĵ à½ĸà½¢
à½Ĥà½ŀà½ĵ à½ł
à½£à½ĺ à½¡à½Ħ
à½ĸà½¤à½ĳ à½£à½¦
à½¦à½Ħà½¦ à½ĺ
à½łà½ĳà½¦ à½ĳà½Ħ
à½ĸà½Łà½Ħ à½Ħ
à½ļà½ĳ à½ĳà½Ħ
à½ĺà½ī à½ĺà½Ĥ
à½ĸà½Ģà½ł à½ĳà½Ħ
à½Ħà½Ĥ à½¡à½Ħ
à½ĸà½ŀà½Ĥ à½Ĥà½¡à½¦
à½£à½ĵ à½ĸà½ıà½ĸ
à½Ĳà½¢ à½ĵ
à½Ŀ à½ĳà½Ĥ
à½Ĥà½¡à½¦ à½Ķà½ł
à½Łà½¦ à½ĳà½Ħ
à½ĳà½Ĥà½Ĥ à½Ĥ
Ġà½¦ à½ı
à½Ĥà½ĺ à½Ķ
à¼¢à¼¢ à¼¢à¼£
à½Ī à½±à½²
à½¦à½¦ à½¦à½¦à½¦
à½¢à½Ħà½¦ à½¢
à½Ĳà½ł à½ĵ
Ġà¼¦ à¼¢à¼¢
à½¦à½ĺà½¦ à½ĳà½Ķà½ł
à½¦à½Ķ à½£à½¦
à½ĵà½ŀ à½¦
à½© à½ĳà½Ħ
45 8
48 1
49 5
à¼ĭà¼Ŀà¼Ŀà¼Ŀ à¼Ŀ
à¼ĭ à¾¤à½´à¼ĭ
à½¦ à½ĳà½Ĥà½Ĥ
à½ĳ à½ħà½Ħ
à½ĳ à½Ĩà½Ħ
à½ĳ à½Ĳà½ĺà½¦à½ħà½ĳ
à½ĸ p
à½¢ à½ĵà½ĺà½¦
à½Ħ à½ĸà½¦à½Ĥà½¦
à¾± à¼µà½¼
à½Ķ à½ĸà½¤
à½Ķ à½Ĳà½¢
à½ºà¼ĭ à½Īà½º
à¾Ł à¾Ĺà½ºà¼ĭ
à½Ķà½ł à½ĳà½Ĥ
à½Ĳ à½ĺà½ģ
à½Ĳ à½ħà½¦
à½ĺà½¦ à½ĳà½ĸà½ł
à½ī à½Ķà½¦
à¾Ĳ à¾³à½¼
à½łà½ĳ à½Ĩ
à½ĸà½¢ à½ĸà½£
à½ĵà½¦ à½ĺà½ģà½ł
à½Ł à½£à½¦
à¾¡ à½±à½²
à½Ķà½¦ à½ĸà½Ł
à½ĸà½ħ à½ĳà½¢
à¾· à¾±à½´
à½ĺà½ļ à½ī
à½ĳà½ĺ à½ĸà½ĳ
à½Ľ à½Ģà½¢
à½¨ à½łà½ģ
à½§ à½Ĳ
à½§ à½ĸà½¢
à½£à½ĺ à½Ĥà½¦
à½¾à¼ĭ à¼Ĳ
à½ĳà½Ķà½ł à½ĺà½Ħ
à½ĵà½ĺ à½ĳà½Ĥ
à½ĳà½Ĥà½ł à½Ķ
à½Ĥà½¦à½Ħ à½Ĩ
à½£à½ĵ à½ĺà½¦
à½¤à½¢ à½ł
à½¦à½¢ à½ĳ
à½ŀà½ĸà½¦ à½ĳ
à½łà½ĸà½¢ à½ŀ
à½ĳà½ĺà½Ĥ à½ĳà½Ķ
à½Ģà½¢ à½ĳ
à½ħà½Ĥ à½Ģ
à¾²à½ºà¼ĭ à¼´
à¾¡à¼ĭ à½¼
à½ĵà½ĵ à½ŀ
à½Į à½Ĳ
à½ķà½Ĭ p
à½ĸà½ħà½ł à½¦
à½¢à½ĺ à½İ
à¾µ à½¾à¼į
Ġà¼§ à¼¢à¼¥
à¾¥ à¼ĭà¼į
Ġà½Ģ à½Ĥ
Ġà¼¥ à¼¤à¼¢
Ġà¼¥ à¼¤à¼¡
Ġà¼¤ à¼¤à¼¡
Ġà¼¤ à¼¤à¼£
Ġà½Ĳ à½Ĳ
à¾²à½±à½² à½²à¼ĭ
à¼£à¼§ à¼¨à¼¦
Ġà¼¦ à¼¢à¼§
à¼£à¼¨ à¼¦à¼¥
à¾·à¾± à¼ĭà¼į
à¾¶ à½´
Ġà½Ļ à½ı
à¾²à½± à½¼à¼ĭ
44 9
46 2
46 3
48 5
48 6
à½Ĵà½Ĥ à½«
Ġ à¼ŀà¼į
à¾ ¿
à½¦ à½ĸà½ıà½Ħ
à½¦ à½Ĳà½Ĥ
à½¦ à½ĸà½¦à½£
à½¦ à½łà½Ľà½ĺ
à½ĳ à½Ĥà½¦à½ĵ
à½ĸ à½Ĥà½ĳà½ĺà½¦
à½ĸ à½ĸà½Łà½ł
à½ĵ à½ĸà½ħà½ĳ
à½ĵ à½ĸà½Ļà½ĵ
à½ĵ à½Ĥà½ĳà½ĺà½¦
à½ĵ à½£à½¢
à½Ħ à½łà½ķà½Ĥà½¦
à½Ħ à½¤à½Ĥ
à¾± à¾©à½¼
à½Ķ à½Ķà½İ
à½£ à½Ģà½ł
à½£ à½Ķà½£
à½Ĥà½¦ à½ĸà½¦à½Ĥà½¦
à½ŀ à½ĵà½ĺ
à½ŀ à½Ĭ
à½Ĩ à½ĵà½ĺ
à½ģ à½ļà½¢
à½Ĳ à½Ĥà½ĳ
à½ļ à½¢à½ĸ
à½ī à½¨
à½ĳà½Ĥ à½īà½ĵ
à½Ķà½¢ à½ĺà½Ĥ
à½£à½¦ à½ĳà½Ķ
à½£à½¦ à½Ĥà½¦à½£
à½£à½¦ à½ĺà½Ĳà½ł
à¾Ķ à¾·à½¼à¼ĭ
à½ĺà½Ĳ à½ĺ
à½ħà½ĵ à½ħ
à½ĺà½Ħ à½łà½ĸà½ĳà½Ĥ
à½§ à½ĸà½Ľ
à½ĸà½Ģ à½£à½¦
à½ĸà½¤à½ĳ à½ļ
à½ĳà½Ķà½ł à½ĺà½¦
à½ĸà½Łà½Ħ à½Ħà½ĵ
à½ĳà½Ķà½£ à½ŀ
à½ĸà½Ģà½ł à½Ĳ
à¼£ à¼¡à¼£à¼£
à½ĸà½ŀà½Ĥ à½ĺà½ĳ
à½ĵà½Ĥ à½ł
à½ĺà½Ĳà½¢ à½¢
à½ĸà½£ à½ĸà½¦
à½ĸà½£ à½ķ
à½Ĥà½¦à½¢ à½Ĥ
à½±à½²à¼ĭ à¼´
à½łà½Ĥà½£ à½ı
à½Ĥà½ĳà½ĵ à½¢
à¾Ĵà¾² à¾Ģ
à½Ĥà½ŀà½Ĥ p
à½Ĥà½ŀà½Ĥ à½Ĳ
à½Ĥà½ĳà½ĺà½¦ à½Ķà½ł
à½±à¼į à¼ĭà¼į
Ġà¼¡ à¼©à¼©à¼©
à½łà½ĸà½ĳ à½¦
à¾Ķà¼į à¼ĭà¼į
à½Ķà½Ĥà½¦ à½Ķ
Ġà½Ģ à½İ
à¾ŀ à½¼
à¼¢à¼¦ à¼¢à¼§
Ġà¼¤ à¼¦à¼¦
à½Ĺ à½¢à½¥
à½ºà¼ĭà¼į à¼ĭà¼į
Ġà½Ĥà½ī à½Ĥà½¦
à¼ĭà½º à½ºà½º
à¼ĭà¼º à¼ĭ
à½ĵà½ĸ à½ī
à¾±à¾Ńà¼ĭ à¼´
à¼¢à¼¡à¼¡ à¼¥
à½ĵà½ĳà½Ĥ à½¡
46 9
47 7
48 9
Ġ à½¾à¼ĭ
à¼ĭ ]
à¼ĭ à½´à¼į
à½¦ à½ĳà½£
à½¦ à½ģà½£
à½¦ à½Ķà½Ħ
à½ĳ à½ĳà½ĺà½ĵ
à½ĸ à½Ĳà½Ĥà½¦
à½¢ à½ĳà½Ģà½ł
à½ĵ à½ĺà½Ħà½£
à½´ à¼ŀ
à½Ħ à½Łà½Ħ
à½º à½´
à½ĺ à½ĸà½ı
à½ĺ à½łà½Ĥà½ł
à½ł à½£à½Ĥà½¦
à½ł à½¢à½¦
à½Ķ à½ĸà½ĺ
à¾Ł à½¼à¼įà¼ĭ
à½Ĩ à½ĳà½ĸà½Ħ
à½Ĩ à½§
à½Ķà½ł à½ĺà½ĵ
à½Ķà½ł à½Ĳà½ĳ
à½ĸà½¦ à½Ĥà½¡
à½ĳà½Ħ à½Ĥà½ĳ
à½ħ à½ĺà½¦
à½ħ à½ĸà½ħ
à½ī à½ģà½ł
à¾³ à½±à½´
à¾³ à½±à½²à½¾à¼ĭ
à¾³ à½±à¾Ģà½¾à¼ĭ
à½łà½ĸ à½ĸà½ł
à½£à½¦ à½Ļ
à¾¨ à¾¨à½²à¼ĭ
à¾¨ à¾¨à½±à¼į
à½ĳà½ĺ à½ĸà½ł
à½ĳà½Ķ à½ı
à½ħà½ĵ à½ĺà½Ĳ
à½ħà½ĳ à½ĺà½ļ
à½§ à½Ľ
à½ĸà½¤à½ĳ à½¡
à½ĺà½ł à½ł
à½ĸà½¦à½ĺ à½ĸà½¦à½ĺ
à½Ĥà½ĵ à½ı
à½ĺà½Ĳà½ł à½ĸà½¢
à¾¦à¾± à¼ĭà¼į
à½ĸà½Ģà½ł à½¡
à½łà½Ħ à½¤
à½ĸà½ŀà½Ĥ à½ĺà½Ĩ
à½Ĥà½¢ à½Ĥà½¦
à½¦à½¢ à½ı
à½ĺà½ļà½ĺà½¦ à½£
à½Ŀ à½łà½ĳ
à½ĳà½Ģà½ł à½£
à½īà½ĵ à½¢
à½ĳà½ĺà½ĵ à½£
à½Ĩà½Ĥ à½ĳà½ĸ
à½Ĥà½ĳà½ĸ à½ħ
à½łà½ĸà½ĸ à½Ķ
à½Ģà½ĵ à½£
à¾Ńà½± à½¼à¼ĭ
à¾Ĵà¾±à½´à¼į à¼ĭà¼į
à¾ļ à½´
à½Ĺ à½ķà½Ŀ
à½Ĺ à½ģà½¥
à½¡à½ĳ à½Ĩ
Ġà¼© à¼¡à¼¡
Ġà½Ħ à½ģ
à½ĵà½ı à½ĵà½ĺ
à¼¢à¼¡à¼¤ à¼¨
à½Ķà½ı à½Ĥà½¦
à½²à½² à½²
à½²à¼ĭà½Ī à¾±à½ºà¼ĭ
à¾ĳ à½²à¼ĭ
47 8
50 0
à¼ĭà¼µ à¼µ
5 16
< à¼ĭà½²à¼ĭ
à¼ ¹
à½ĳ à½ļà½Ħ
à½ĸ à½ĵà½łà½Ħ
à½¢ à½ļà½Ħ
à½²à¼ĭ à¾³
à½Ķ à½ĸà½Ģà½Ĥ
à½Ķ à½īà½ĺ
à½£ à½¢à½ĸà½¦
à½£ à½ļà½£
à½Ĥà½¦ à½ŀà½£
à½¡ à½ĳà½Ķ
à½¡ à½ĸà½Ĥ
à½Ģ à½£à½ĺ
à½Ģ à½ļà½ĵ
à½ŀ à½Ĳà½ĺà½¦
à¾Ł à¼µà½ºà¼ĭ
à¾Ĵ à½²à¼į
à½ħ à½ĺà½ģ
à½ĳà½Ĥ à½łà½ķà½Ĥà½¦
à½łà½ĳ à½Ķà½Ĥ
à½ĸà½¢ à½Ĥà½Ħ
à½ĵà½¦ à½ĺà½Ľà½ĳ
à½ĵà½¦ à½£à½Ĥ
à½ĵà½¦ à½¤à½¢
à½Ħà½¦ à½ĳà½ĺ
à½Ħà½¦ à½ĵà½Ħ
à½Ł à½Ĥà½ı
à¾¡ à¾±à½ºà¼ĭ
à¾¡ à¾¡à¼ĭ
à½łà½Ĥ à½Ĥà½ĳ
à½łà½Ĥ à½Ĥà½¢
à½łà½ĸ à½ĳà½¢
à½¡à½Ħ à½ĸà½ĳ
à½Ķà½¦ à½ĺà½Ĳà½¢
à¾Ķ à¾±à½¼
à¾· à¾Ńà½±à¼ĭ
à½Ĥà½ŀ à½Ĥà½¡
à½¢à½Ħ à½£à½¦
à½ĺà½Ĳ à½łà½ļ
à¾¨ à¾¨à½±
à½ħà½ĵ à½Ĥà½Ł
à½ĺà½Ħ à½ª
à½ħà½ĳ à½Ł
à½ĩ à½ŀ
à¾©à¼ĭ à¼Ĳ
à½łà½ĳà½¦ à½ĸà½ł
à½¾à¼ĭ à½º
à½ĸà½Ģà½ł à½īà½ĵ
à½ĺà½ģà½ł à½ĸà½ŀ
à½Ħà½Ĥ à½ĳà½Ĥ
à½Ĥà½ıà½ĵ à½ĸ
à½Ŀ à½ķà½¥
à½Ĳà½Ħ à½£
à½łà½Ĥà½ł à½£
à½Ģà½ł à½ĵ
à½Į à½Ł
à½ķà½Ĭ à½ķ
à½Ĥà½ĺ à½ĳà½Ħ
à¾µ à½±à½´à½¾à¼ĭ
à¾Ĳà½´à¼į à¼ĭà¼į
à¾¦à¾²à½º à½º
à¼Ģ à½ĺà½ī
Ġà¼¥ à¼§à¼¢
Ġà¼¤ à¼£à¼¥
à¾¨à½º à½ºà¼ĭ
à½ĭ à½ĺà½¦
à¾·à¾² à½±
à½ĵà½łà½ĳà½¦ à½£
Ġà¼¡à¼¤ à¼¡à¼¥
à¾ĳ à¼į
à½Ľà½Ľ à½Ľà½ŀ
à¼ŀà¼ŀ à¼ŀà¼ŀ
à½ķà½İ à½ķ
Ġ à¼Ģà½¨
à½¦ à½ĸà½ĺ
à½ĳ à½ļà½ĵ
à½ĳ à½ģà½¦
à½ĵ à½¤à½¦
à½ĺ à½ĳà½ĺà½Ĥ
à½ĺ à½ĳà½ĺà½Ĥà½¦
à½Ķ à½ĸà½ı
à½Ķ à½Ĳà½Ĥ
à½£ à½ĸà½¦à½ĺà½¦
à½ºà¼ĭ à½Īà½ºà¼ĭ
à½¼à¼ĭ à¼Ŀ
à½¡ à½¢à½ĸ
à½Ĩ à½Ħà½Ĥ
à½ĳà½Ħ à½Ĥà½¦à½Ħ
à½ħ à½Ĥà½ŀ
à½ģ à½ĸà½ĳà½Ĥ
à½ģ à½ĵà½ĳ
à½ģ à½Łà½Ħ
à½Ĳ à½ŀà½Ĥ
à½ī à½Ĥà½ĵà½¦
à½ĳà½Ĥ à½ĺà½ĳ
à½Ķà½¢ à½Ħà½Ĥ
à½ĵà½¦ à½ĺà½Ľ
à½Ħà½¦ à½Ĥà½¦à½£
à¾²à½´ à½´à¼ĭ
à½ĸà½ł à½Ĥà½Ĥà½¦
à½łà½Ĥ à½Ķ
à½¡à½Ħ à½ĵà½ĺ
à½Ķà½¦ à½ģà½ĺà½¦
à½Ķà½¦ à½Ĥà½£
à½Ķà½¦ à½īà½ĵ
à½Ķà½¦ à½¦à½ĺ
à½ĸà½ħ à½ĳà½ĺ
à¾· à½¼à¼įà¼ĭ
à¾· à¼µà¼ĭ
à½Ĥà½ŀ à½Ģ
à½ĺà½ļ à½ĵà½Ħ
à¾¨ à¾¨à½ºà¼ĭ
à½ĳà½Ķ à½£à½ĺà½Ĥ
à½Ĥà½ĵà½¦ à½ĸà½ŀ
à¾« à¾Ļà¼ĭ
à½Ĥà½Ł à½ĸà½¢
à½Ĥà½ĳ à½Ĭ
à½ĺà½ł à½Ĥà½¦
à½łà½ĳà½¦ à½Ĥà½Ħ
à½£à½Ĥ à½Ĳà½ĺà½¦
à¾Ķà½¼ à½¼à¼ĭ
à¾Ĳà¾± à¾¡à½¼
à½ĳà½ĳ à½ĳà½ĳà½ĳ
à½ĺà½ģà½¦ à½ĵ
à½ĵà½ĳ à½Ĳà½ĺà½¦
à½Ĳà½£ à½¤
à¾ĥ à¼ĭà¼į
à½£à½Ĥà½¦ à½Ĥ
à½ĺà½ĩ à½¦
à½ĸà½Ľ à½ł
à½¡à½¦ à½ĳ
à½Ĥà½ĵà½ĳ à½ĵ
à½Ĥà½ŀà½Ĥ à½ģ
à½ģà½¦ à½ĺà½¦
à½Ĩà½¢ à½£
à½Į à½ħ
à½±à½² à½²à¼ĭ
à½Ĥà½ĵà½ĺ à½£
à½¦à½Ħ à½¥
Ġà½ĳ à½Ķà½¦
à½ĺà½£ à½Ĩ
à½ĸà½Ļà½£ à½ĵà½¦
à¼ĭà½² à½²à¼ĭ
Ġà½ĵ à½£
à¾ŀ à¾±à¼ĭ
à¼¢à¼¤ à¼¢à¼¢
Ġà½ģ à½Ķ
Ġà¼¥ à¼¤à¼¥
Ġà¼¥ à¼¥à¼¤
Ġà¼¤ à¼¡à¼¥
Ġà¼¤ à¼¡à¼¦
Ġà¼¤ à¼¦à¼¨
Ġà¼¤ à¼§à¼£
à¾ł à½ºà¼į
à½ĳà½ĸà½ł à½¢
à¾¶ à½±à¼į
à¼©à¼© à¼©à¼©
à½ĺà½Ķà½¢ à½ĳà½Ĥ
à½© à½ĳ
à¼ĭà¾¢ à½¾à¼ĭ
à½ħà½ĳà½ĺ à½ī
à½ĥ à½¨
à¼¢à¼¡à¼¢ à¼¥
à¼¢à¼¡à¼¤ à¼¦
à¼¢à¼¡à¼£ à¼¤
à½ĳà½ŀ à½ĺà½¦
à½²à½² à½²à¼ĭ
à¼ĭà¼ı à¼ı
à½Ħà½ĵà½£à½¦ à½łà½ĳà½¦
46 7
47 9
à½ºà¼ĭà¼ı à¼ĭ
5 10
Â ±
à½¦ à½łà½Ĥà½£
à½¦ à½Ĥà½ıà½ĺ
à½¦ à½īà½ĺ
à½¦ à½£à½ĸ
à½ĳ à½łà½ĩà½ĺ
à½ĸ à½ĳà½ĺà½ĵ
à½ĵ à½£à½Ħ
à½´ à½±à½´à¼ĭ
à½Ħ à½¡à½ĵ
à½Ħ à½ĳà½¢
à½ĺ à½Łà½Ĥ
à½ł à½¦à½ĵ
à½²à¼ĭ à¾Ł
à½£ à½Ŀà½¢
à½Ĥà½¦ à½ĸà½Ģ
à½¡ à½Ĥà½ĵ
à½Ģ à½Ĥà½£
à½ŀ à½¢à½£
à¾Ł à¾£à¼ĭ
à½Ĩ à½ĸà½ĳà½Ĥ
à½Ķà½ł à½Ķ
à½ĳà½Ħ à½ĺà½Ĳà½¢
à½ģ à½ŀà½ĵ
à½Ĳ à½ĵà½ĺ
à½ĳà½Ĥ à½ĳà½Ķ
à½ĳà½Ĥ à½ĺà½Ĥ
à½ĸà½¢ à½ĸà½ŀà½Ĥ
à½ĵà½¦ à½ĺà½¢
à½ĵà½¦ à½īà½ĺà½¦
à¾±à½º à½¾à¼ĭ
à½¡à½Ħ à½ĺà½¡
à½Ķà½¦ à½Ĥà½¡
à¾Ķ à¾·à½¾à¼į
à¾²à½¼ à½ºà¼ĭ
à¾¨ à½¾à¼į
à½ĳà½ĺ à½īà½ĺà½¦
à¾Łà¼ĭ à¼º
à½Ľ à½ĵà½ł
à½ĺà½Ħ à½Ħà½¦
à½¨ à½£à½ĵ
à½§ à½Ĩ
à½§ à½£à½¦
à½ĸà½ĳà½Ĥ à½ļ
à½ĸà½¤ à½ĳà½Ķà½£
à¾« à¾±à½¼
à½Ĥà½Ł à½ĺ
à½¢à½ĸ à½Ĥà½¦
à½ĩ à½«
à½ĺà½ĳ à½ĸà½¢
à½ĺà½Ľà½ĳ à½¡
à½Ĥà½¦à½£ à½Ĥà½¦
à½Ĥà½¦à½£ à½łà½ĳ
à½£à½Ĥ à½ķ
à½£à½Ĥ à½£à½¦
à½ĸà½Łà½Ħ à½ĳ
à½ĺà½ī à½ĵà½ĵ
à½ģà½ĺà½¦ à½ĺà½Ħ
à½Ħà½Ĥ à½ĸà½¢
à½ĸà½ŀà½Ĥ à½ĸà½¢
à½ıà½ĵ à½Ĥà½¦
à½ĺà½ĵ à½¢à½¦
à½Ĥà½¦à½¢ à½¢
à½Ģà½¢ à½ī
à½ĵà½ĵ à½ĺà½ģà½ł
à½ķà½£ à½Ķ
à½ķà½Ĭ à½ĸà½ĳà½Ĥ
à½¾à¼į à¼ĭà¼į
Ġà½Ķ à½ı
à½ķà½ĺ à½Ķ
à½ĸà½¤à½Ĥà½¦ à½Ķà½¢
à½ĳà½ĵ à½ĸ
à¾ľà½²à¼ĭ à¼į
à½ª à½ĸà½¦
à½¦à½¦ à½Ķà½¦
à½¦à½ĵ à½ĸ
à½Ĳà½ĺà½¦à½ħà½ĳ à½ħ
Ġà¼¤ à¼£à¼©
Ġà¼¤ à¼¦à¼¢
Ġà¼¤ à¼¥à¼¢
Ġà¼¤ à¼¦à¼¤
à½¦à½Ķ à½¡
à¾·à½± à¾Ģà¼ĭ
à¾¶ à½¼à¼ĭ
à¼ĭà¾¢ à½²à¼į
à¾Ļà½± à½ºà¼ĭ
à¾º à½±à½¾à¼ĭ
à¾²à¾° à½¾
à¾ĳ à½±
à¾ĳ à½±à½´à¼ĭ
47 5
48 3
48 4
à½Ĳà½ĺà½¦à½ħà½ĳà½ĺ à½īà½ĺ
Ã® à½ŀ
à½¦ à½ĺà½ĳà½ł
à½¦ à½Ĥà½ł
à½¦ à½Ĥà½ŀà½£
à½ĳ à½ĸà½¦à½ĵ
à½Ĥ à½Ĥà½īà½ĵ
à½Ĥ à½Ĩà½ĵ
à½¢ à½Ĩà½ĳ
à½ĵ à½Ĩà½ł
à½ĵ à½ª
à½´ à¼µà¼į
à½Ħ à½ĸà½¤à½Ĥà½¦
à½ĺ à½¡à½ĸ
à½ĺ à½Ĥà½ĳà½ĺà½¦
à½²à¼ĭ à¼ĭ
à½£ à½ĳà½ĸà½ĸ
à½£ à½ŀà½ĵ
à½Ģ à½łà½ķ
à½Ģ à½ĵà½¢
à½ŀ à½łà½ĸ
à½Ķà½ł à½łà½ĸ
à½Ķà½ł à½ĺà½Ĳà½ł
à½ĸà½¦ à½ĳà½Ģ
à½ĸà½¦ à½Ĥà½ıà½ĵ
à½ĸà½¦ à½Į
à½ħ à½łà½Ĥ
à½ģ à½ģà½Ħ
à½ģ à½ħà½Ĥ
à½Ĳ à½Ĥà½Ħ
à½Ĳ à½Ĥà½ĵà½¦
à½ļ à½łà½ģ
à½ĺà½¦ à½ĸà½ħ
à½ĺà½¦ à½ĵà½ĺ
à½łà½ĳ à½¢à½¢
à½ĸà½ł à½ŀ
à½£à½¦ à½Ĥà½ĳ
à½Ķà½¦ à½ĸà½¤à½ĳ
à½ĳà½ĸ à½ī
à½Ļ à½ĳà½Ĥ
à½Ļ à½¢à½ł
à½ĳà½ĺ à½ĳà½ł
à½ĳà½Ķ à½Ģ
à½Ľ à½Ĥà½ĳ
à½ħà½ĵ à½ĺà½¦
à½ħà½ĵ à½Ł
à½Ĥà½ı à½ĳà½Ķ
à½¨ à½¨à½¢
à¾±à½ºà¼ĭ à¼Ĳ
à½Ĥà½ĵ à½ĳà½ĺ
à½Ĥà½Ļ à½Ģ
à½ĵà½ĺ à½ķ
à½ĵà½ĺ à½ı
à½łà½Ĳ à½ĸà½ĸ
à½ıà½ĵ à½ĸà½¢
à½Ĭ à½Ľ
à½ĸà½ıà½Ħ à½ĸà½ł
à½Ŀ à½¥
à½ĸà½ıà½ĸ à½Ķà½¦
à½ģà½¦ à½Ħ
à¾ľ à¼ĭà½²
à¾ľ à½±à½²à¼į
à¾ľ à½±à¼ĭà¼į
à½ĸà½ĸà½¦ à½ĵà½¦
à½ĸà½¦à½£ à½£
Ġà½¢ à½ł
à½ĸà½¦à½ĳ à½ĵà½¦
à½Ķà½ĵ à½ĸ
à½Ĳà½ĺ à½Ķ
Ġà¼§ à¼¡à¼¢
à½¤à½ĺ à½ĸ
Ġà½ī à½¢
à½Ĳà½ĺà½¦à½ħà½ĳ à½Ĩ
Ġà¼¥ à¼¢à¼¡
Ġà¼¥ à¼¤à¼¦
Ġà¼¤ à¼¥à¼§
Ġà¼¤ à¼§à¼§
à¾¶ à½¼
à½ĵà½ĺà½ĺà½ģà½ł à½ĳà½Ħ
à½ĥ à½Ĥ
à¾·à¾Ń à½¾à¼į
48 0
49 8
Ġà¼ ģ
à½ºà¼ĭà½Ī à¾·à½²
à¼ĭà¼´à¼´ à¼´à¼į
Â¨ Â©
5 12
5 22
< à¼ĭà½¼à¼ĭ
Ġ à½Ŀà½¢
à¼ĭ à¾·à¼ĭ
à½¦ à½¤à½¦
à½¦ à½ĸà½ĸà½¦
à½ĳ à½ļà½Ħà½¦
à½ĳ à½Ĩà½ĵ
à½Ĥ à½¨à½Ħ
à½¢ à½Łà½ĳ
à½ĵ à½ĸà½¦à½Ĥà½¦
à½ĵ à½Ĩà½ĸ
à½ĵ à½ĵà½ĺà½ĺà½ģà½ł
à½ł à½£à½Ĥ
à½ł à½Ķà½Ĥ
à½Ķ à½Ĳà½£
à½Ĥà½¦ à½Ĥà½ĳ
à¾² à¾±à½¼
à½Ģ à½ĺà½ĳ
à¾Ĵ à½±à½´à¼ĭ
à½Ĳ à½Ľ
à½Ĳ à½İ
à½Ĳ à½Ĳà½Ĥ
à½ķ à½Ģà½Ł
à½ļ à½łà½ķà½Ĥà½¦
à½ļ à½ĳà½Ķà½Ĥ
à½ĺà½¦ à½łà½ģ
à½ī à½ħ
à½ī à½łà½ģ
à¾Ĵà¾± à½¼à¼į
à½¤ à½łà½ĸ
à½¤ à½Ŀ
à½Ķà½¢ à½Ĥà½ī
à½łà½ĳ à½Ĩà½Ĥà½¦
à½ĸà½¢ à½ĺà½ĳ
à½ĸà½¢ à½Ĥà½¦à½£
à½ĵà½¦ à½Ĥà½ĵ
à½ĵà½¦ à½ĵà½ĳ
à¾¡ à¾²à½º
à½ĸà½ł à½ļà½£
à¾±à½¼ à¼µ
à½£à½¦ à½ĵà½Ħ
à½£à½¦ à½ĺà½Ĥ
à½Ķà½¦ à½łà½Ľ
à½Ķà½¦ à½ĸà½Ĥ
à½Ķà½¦ à½łà½ķà½Ĥà½¦
à¾±à¼ĭ à¾±à¼ĭ
à¾· à¾¨à¼ĭ
à½Ļ à½ĵà½¢
à½ĺà½ļ à½ļ
à¾¦ à½¾
à½Ĥà½ĵà½¦ à½£à½¦
à½ħà½ĵ à½łà½ĩ
à½¨ à½ĺà½Ĳ
à½¨ à½¦à½¢
à¾³à¼ĭ à½±
à½ĸà½¤ à½ĸ
à½£à½ĺ à½ĸà½ıà½ĸ
à½łà½ĳà½¦ à½ī
à¾©à½¼ à½¼
à½ĳà½Ķà½£ à½§
à½ķà½ĵ à½¢
à½İ à½ħ
à½İ à½ķ
à½ĸà½ŀà½Ĥ à½Ķà½¢
à½ĵà½Ĥ à½Ĩ
à½Ĥà½¢ à½¡à½Ħ
à½Ģà½¢ à½ĵ
à½Ģà½¢ à½Ķ
à½¥ à½łà½ĺ
à¾ľ à½ºà¼į
à½Ĥà½ŀà½£ à½ĳ
à½łà½ĳà½ł à½ł
à¾µ à¾±
à½Ĥà½ĳà½Ĥà½¦ à½Ķ
Ġà¼§ à¼¢à¼¨
à¼¢à¼© à¼¢à¼©
Ġà¼¥ à¼¢à¼¦
Ġà¼¥ à¼£à¼¦
Ġà¼¤ à¼¢à¼¥
Ġà¼¤ à¼¨à¼£
à½Ĺ à½Ĥà½İ
à½Ĺ à½łà½«
Ġà½¨ à½ĳ
à¾ł à½´
à¾ł à½º
Ġà½Ħ à½Ĩ
à¾·à¾² à½±à½¾à¼ĭ
à½Ĥà½İ à½Į
à½¡à½Ħà½ĳà½Ĥ à½Ķà½¢
à¼ĭà¼ŀ à¼ŀà¼į
à½ĸà½ķ à½Ĥà½¦
47 4
48 8
49 3
49 7
49 9
50 2
50 6
50 7
5 14
Ġ à½ĸà½ħà½¢
Ġ à½ĸà½¤à½£
Ġ à½łà½Ĳà½Ĥ
Ġ à¼ı
à½¦ à½Ĳà½Ħ
à½¦ à½ĸà½Ļà½ĵ
à½¦ à½£à½Ħ
à½¦ à½Łà½Ħ
à½¦ à½¤à½Ħ
à½ĳ à½Ĳà½¢
à½ĳ à½łà½Ĩà½ĳ
à½ĳ à½ĸà½¦à½£
à½Ĥ à½ĳà½Ķà½Ĥ
à½Ĥ à½Ĳà½ĸ
à½ĸ à½¡à½¢
à½¼ Â¶
à½¢ à½ĺà½īà½ĵ
à½Ħ à½ĳà½Ģà½ł
à½Ħ à½¤à½ĵ
à½Ķ à½ĺà½īà½ĵ
à½£ à½łà½ĸà½¢
à½£ à½Ĥà½ĵà½ĺ
à½Ĥà½¦ à½Ĥà½Ļ
à¾² à¼µà½¼à¼ĭ
à½´à¼ĭ à½±à½´à¾ĥà¼ĭ
à½¡ à½łà½ģ
à½¡ à½Ĳà½¢
à½¡ à½Ģà½ł
à½ŀ à½ĵà½ĳ
à½Ĩ à½łà½ģ
à½Ĩ à½Ļà½ĺ
à½Ķà½ł à½ĺà½Ľà½ĳ
à½ĳà½Ħ à½ĺà½ģ
à½ħ à½¡à½Ħ
à½ģ à½Ķà½¢
à½Ĳ à½ĸà½ŀ
à½ĳà½Ĥ à½£à½ł
à½Ķà½¢ à½Ľ
à½łà½ĳ à½Ķà½¦
à½ĸà½¢ à½łà½ķ
à½ĸà½¢ à½Ĥà½Ł
à½ĵà½¦ à½ĺà½īà½ĺ
à½Ł à½ĸà½ĳà½Ĥ
à½¡à½Ħ à½§
à½ĸà½ħ à½łà½ĸà½¢
à¾±à¼ĭ à½¼
à¾±à¼ĭ à½±à¼ĭ
à¾© à¾Ģ
à½Ļ à½Ķà½¦
à¾¨ à¾¨à¼į
à½łà½ĩ à½Ĭ
à½ĸà½ĳ à½Ļ
à½Ĥà½ĵà½¦ à½Ĥà½Ħ
à½Ĥà½ĵà½¦ à½¨
à½Ĥà½ĵà½¦ à½ĺà½ĳ
à½Ľ à½ĵà½ĵ
à½łà½ķ à½Ħà½£
à½Ĥà½ŀà½ĵ à½Ĥà½¦
à½Ĥà½ĳ à½£à½¦
à½ĸà½¤à½ĳ à½ŀ
à½ĺà½Ĥ à½ĸ
à½ĳà½Ķà½ł à½łà½ĺ
à½ĸà½Ģà½ł à½Ħ
à½ģà½ĺà½¦ à½¡
à½Ħà½Ĥ p
à½Ħà½Ĥ à½Ħà½¦
à½ĳà½ĳ à½¡
à½Ĩà½ĳ à½ĳà½Ħ
à½Ĩà½ĳ à½ħ
à½Ĳà½£ à½ķ
à½Ĥà½¢ à½ł
à½Łà½Ĥ à½ĳà½Ħ
à½Łà½ĸ à½Ķà½ł
à½¡à½¦ à½ĸ
à½¡à½¦ à½ı
à½¦à½ĺ à½ĺà½¦
Ġà½¢ à½ĸà½Ģà½ł
à½¢à½£ à½¢
à½Ĩà½Ĥ à½ĸà½ħ
Ġà½Ķ à½Ĥ
à¼¡à¼¡ à¼¡à¼£à¼¥
à¼¢à¼¢ à¼¢à¼¥
à¼µ à¼ĭà¼į
Ġà¼§ à¼¡à¼£
à½¦à½ĵ à½łà½ĳ
à¾Łà¼į à¼ĭà¼į
à¼Ģ à½¢à½Ģ
à½Ĵ à½Łà½Ĳ
Ġà¼¥ à¼¡à¼©
Ġà¼¥ à¼©à¼¨
Ġà¼¤ à¼£à¼¦
Ġà¼¤ à¼§à¼¨
Ġà¼¤ à¼©à¼©
Ġà¼¤ à¼§à¼¦
à½Ĺ à½©
Ġà¼¦ à¼©à¼¢
à½¼à½¾ à½¼à¼ĭ
à¾Ĵà¾·à½¾à¼ĭ à¼´
à½¨à½¨ à½ŀ
à¾ĳ à½²
à½ĸà½¤à½ĳà½Ķ à½ĵ
à¼ĭà¾§ à½ºà¼ĭ
49 6
50 1
50 4
à½Łà½Ł à½Łà½Ł
à½į à½ł
Ġà½İ à½ı
à½Ģà½Ģà½Ģà½Ģ à½Ģà½Ģ
5 17
5 19
5 26
Ġ Ġ
à¼ĭ à¾Ń
à½¦ à½ĺà½ĵà½¢
à½ĳ à½¡à½¢
à½ĳ à½Ĩà½ĸ
à½Ĥ à½Ģà½ł
à½ĸ à½ĸà½¤à½Ĥà½¦
à½ĸ à½ĭ
à½ĵ à½Ĥà½ĳà½ĵ
à½´ à¼´à¼į
à½Ħ à½Łà½Ĥ
à¾± à¼´
à½Ķ à½ĸà½¤à½Ĥà½¦
à½£ à½ĸà½Ļà½ĵ
à½£ à½Ĩà½¢
à½£ à½Ĥà½ıà½ĺ
à½£ à½¢à½ĺ
à½£ à½¢à½Ĥà½¦
à½´à¼ĭ à½Īà½²à¼ĭ
à½Ģ à½ĳà½Ķ
à½ŀ à½§
à¾Ł à¾²à½¼à¼ĭ
à¾Ł à¾Ĳà¾±à½ºà¼ĭ
à½ħ à½łà½ĸ
à½ħ à½ĳà½Ĥà½ī
à¾±à½²à¼ĭ à¼įà¼ĭ
à½Ĳ à½Ĳà½¢
à½ķ à½ĺà½Ĩ
à½ķ à½ĸà½ĸ
à½ļ à½Ĥà½ĳ
à¾±à½² à½¾
à½ĳà½Ĥ à½łà½ĸà½ĳ
à½Ķà½¢ à½łà½ĳà½¦
à½łà½ĳ à½Ģà½¢
à½ĸà½¢ à½ĸà½ĳà½Ĥ
à½ĸà½¢ à½ĩ
à¾³ à¾©à½¼
à½Ł à½Łà½ĳ
à½ĸà½ł à½ĺà½Ĳ
à¾¤ à¾Ĺà½¼
à½Ĥà½ŀ à½Ķ
à½ĳà½ĺ à½ĵà½ĺ
à½ĸà½ĳ à½Ķà½¢
à½ĸà½ĳ à½¦à½ł
à½Ľ à½Ĥà½ī
à½łà½ķ à½Ķ
à½ĳà½ĸà½Ħ à½Ģ
à½§ à½Ħà½¦
à½ĸà½ĳà½Ĥ à½ĸà½¦
à¾« à½±à½´à¼ĭ
à½¢à½ĸ à½Ĥà½ī
à½Ĥà½ĳ à½ĵà½ĺ
à½ĺà½Ľà½ĳ à½ĸà½ł
à¾©à¼ĭ à¼´
à½ĸà½Ļ à½ĵà½Ĥ
à½ĺà½Ĳà½ł à½ŀ
à½´à¼į à¼ĭà¼įà¼ĭ
à½Ħà½Ĥ à½Ĥà½ī
à½ģà½Ħ à½Ħ
à½ıà½ĵ à½ķ
à½Łà½Ĥ à½Ĩ
à½Ĳà½Ĥ à½ĸ
à½¢à½ĸà½¦ à½Ĥà½¦
à½±à½´à¾ĥà¼ĭ à¼´
à½¦à½ĺ à½Ł
à½Ĥà½ŀà½Ĥ à½ĸà½¢
à½Ĩà½¢ à½ĺ
à½ĺà½Ħà½ł à½Ĥà½¦
à½Ĩà½Ĥ à½ĳà½Ķ
à½¡à½Ħà½¦ à½ĺ
à¾µ à½±à½²
à¾µ à¾±à½±à¼ĭ
à¾µ à¾³à½±à¾Ģà¼ĭ
à½¦à½ĳ à½Ķà½¢
à½ĺà½īà½ĵ à½Ķà½ł
à½ĳà½Ķà½¢ à½¦
Ġà¼§ à¼¡à¼¤
à¾Ľ à½²à½¾à¼ĭ
à¼Ģ à½Ĳ
à¾±à½ºà¼į à¼ĭà¼į
Ġà¼¥ à¼¡à¼¨
Ġà¼¥ à¼£à¼§
Ġà¼¥ à¼¥à¼¦
Ġà¼¦ à¼¡à¼¨
Ġà¼© à¼©à¼¢
à½¦à½Ł à½ĺà½¦
à¾ĳ à¾Ĵ
à½ĵà½ĳà½Ĥ à½ĳ
48 2
49 0
49 4
à½¨à½Ŀ à½§
Ġ à½§à½¢
à½¦ à½ĵà½Ĥà½¦
à½Ĥ à½ļà½Ĥ
à½ĸ à½ĺà½ĩ
à½¢ à½ĵà½łà½Ħ
à½ĵ à½Ģà½ĵ
à½ĵ à½¡à½ĳ
à½Ħ à½¤à½Ħ
à½²à¼ĭ à½²à¼ĭà¼į
à½Ķ à½ĸà½ŀà½Ĥ
à½Ĥà½¦ à½¤à½¢
à¾² à¾£à¼ĭ
à½Ģ à½Ģà½¢
à½ĸà½¦ à½ĵà½ĵ
à½ĳà½Ħ à½ĺà½¦
à½ĳà½Ħ à½ģà½ĺà½¦
à½ģ à½Ĥà½ĵ
à½Ĳ à½ĵà½Ĥ
à½Ĳ à½ĸà½£
à½ķ à½łà½ĳ
à½ļ à½Ħà½Ĥ
à¾Ĳ à¾Ĺà½ºà¼ĭ
à½łà½ĳ à½¦à½Ħà½¦
à½Ķà½¦ à½łà½Ĩ
à¾© à¾Ģà¼ĭ
à¾· à¼´
à½± à¼´
à½ĸà½ĳ à½ĳà½Ĥ
à½ħà½ĵ à½łà½ģ
à¾Ĳà¾±à½º à½ºà¼ĭ
à½ĺà½Ĩ à½ĵà½¢
à½ĳà½ĸà½Ħ à½ĺà½Ĩ
à½¨ à½ĸà½¦à½ĺ
à½¨ à½¡à½¦
à½¨ à½ģà½ł
à½§ à½Ŀ
à½ĸà½ĳà½Ĥ à½ĺà½Ĩ
à¾« à½ºà¼į
à¾¡à½´ à½±à¼ĭ
à½Ĥà½ĳ à½£à½Ĥà½¦
à½¾ à½¾
à½Ĥà½¦à½£ à½Ĩ
à½Ĥà½¦à½£ à½ģ
à½ĸà½¦à½ĺ à½ĸà½¢
à½łà½Ĩ à½Ķ
à½ĳà½Ķà½ł à½Ľ
à½ĸà½Ļ à½Ģ
à¾Ĳà¾±à½¼ à½¼
à½ĵà½ĺ à½ĺà½Ĩ
à½ĳà½Ĥà½ł à½ĸà½ŀ
à¾¦à¾± à¾¡à½¼
à½ĸà½Ģà½ł à½£à½¦
à½Ĳà½ĸà½¦ à½¡
à½ģà½ĺà½¦ à½¤
à¾¡à½ºà¼ĭ à½Īà¾±à½²
à½łà½ķà½Ĥà½¦ à½ĺà½Ĩ
à½£à½ĵ à½ī
à½Łà½Ĥ à½ĸ
à½Ĳà½Ħ à½ĺ
à½Ĥà½¡à½¦ à½ĵà½¦
à½ĸà½Ľ à½Ķ
à½ĳà½ĺà½Ĥ à½Ĥ
à½¡à½ĸ à½ĸ
à½ĺà½Ħà½ł à½ĸà½ł
à½¤à½¦ à½ł
à¾ľ à½¾à¼į
à½Ĩà½Ĥ à½ĸà½ĳ
Ġà½Ķ à½Ģ
à½ķà½ĺ à½ĺ
à¾µ à¾¼
à½ĳà½ĵ à½¡à½Ħ
à½ĳà½ĵ à½ĳà½Ģà½¢
à½ĸà½Ħ à½¤
à¼ĭà½Ī à¾¡à½ºà¼ĭ
à¼ĭà½Ī à½±à½²à¼ĭ
à½¤à½ĵ à½ı
Ġà½Ĥ à½ĳà½ĺ
à½ĳà½Ĥà½¦ à½Ģ
Ġà½Ģ à½ı
à¾Ľ à½º
à¼¢à¼£ à¼¢à¼¤
Ġà¼¥ à¼¤à¼§
Ġà¼¥ à¼¤à¼¨
Ġà¼¥ à¼¨à¼¨
Ġà¼¤ à¼©à¼¨
à½Ķà½£ à½£
à¼¡à¼©à¼© à¼¥à¼¨
à½¡à½ĺ à½¤
à½ĵà½Ķà½ł à½ĳ
à¼ĭà¾ ¹
à½ĳà½ĸà½ł à½ĸ
à½¨à½¨ à½¨
à½£à½ļ à½ĳà½Ħ
à½¼à¼ĭà½Ī à½±à½²
5 20
Ġ à½ıà½ĺ
à¾ Ĭ
à½¦ à½łà½ļà½£
à½¦ à½łà½ĸà½ĳ
à½¦ à½ĸà½¦à½ĳ
à½ĳ à½¡à½ĸ
à½ĳ à½Łà½Ħ
à½Ĥ à½ĸà½ħà½ł
à½¢ à½Ĥà½¡à½¦
à½ĵ à½Ĥà½Ļà½Ħ
à½ĵ à½Ĥà½ıà½ĺ
à½Ħ à½ħà½ĳ
à½Ħ à½ĸà½Ļ
à½Ħ à½ĸà½Ļà½ĵ
à½º à¼ŀ
à½ĺ à½Łà½Ħ
à½²à¼ĭ à½¼à¼ĭà½º
à½²à¼ĭ à¼ģà¾ĥ
à½Ķ à½Ĥà½Ħà½¦
à½£ à½ķà½£
à½£ à½Ĥà½ŀà½£
à½Ĥà½¦ à½ĺà½¢
à½Ĩ à½ĺà½ļ
à½ĳà½Ħ à½Ĥà½¦à½£
à½Ĳ à½ĳà½ĸ
à½Ĳ à½ĸà½ĸà½¦
à½ļ à½łà½ķ
à½ļ à½¤à½¦
à¾±à½² à½²à¼į
à½¤ à½ħ
à½ĳà½Ĥ à½ıà½ĺ
à½Ķà½¢ à½ĳà½Ģ
à½ĸà½¢ à½Ĥà½ŀ
à½ĸà½¢ à½ĺà½Ĥ
à½Ħà½¦ à½łà½Ľ
à¾³ à¾Ĳà½¼
à¾³ à¾³à½´
à¾¡ à¾¡à¾·
à½łà½Ĥ à½łà½ĸ
à½łà½Ĥ à½£à½Ĥ
à½ĸà½ŀ à½ĵà½ĳ
à½£à½¦ à½Ĥà½ı
à½£à½¦ à½Ĳà½ĸà½¦
à¾© à¾¡à½ºà¼ĭ
à¾· à¾·à¾Ń
à½Ĥà½ĵà½¦ à½¦à½ĺ
à½ĸà½Ł à½ĳà½Ķà½ł
à½Ĥà½ı à½ĸà½¦
à½¨ à½¤à½ĳ
à½§ à½ļ
à¾Ĵà¾±à¼ĭ à½º
à¾Ĺà½ºà¼ĭ à¼º
à½¢à½ĸ à½ĸà½¢
à½¢à½ĸ à½Ļà½ĺ
à½£à½ĺ à½īà½ĵ
à¾Ĵà¾±à½´à¼ĭ à¼įà¼ĭà¼į
à½ĸà½ı à½Ĥà½¦à½¢
à½ĺà½ł à½ĸà½¢
à½¦à½Ħà½¦ à½ĵ
à¾Łà½ºà¼ĭ à¼´
à½Ĥà½¦à½£ à½ķ
à½Ĥà½ĵ à½ĳà½ĸ
à½Ĥà½Ļ à½Ķ
à½£à½Ĥ à½łà½ĳ
à¾Ĳà¾± à¾¤à½º
à½īà½ĺà½¦ à½¤
à½ĸà½£ à½ļ
à½¦à½¢ à½Ģ
à½Ĭ à½İ
à¾¨à¾² à½¾à¼ĭ
à½¡à½¦ à½ĵà½¦
à½ģà½¦ à½ĵ
à½Ĩà½¢ à½Ĥ
à½ĳà½Ĥà½Ĥ à½ĳà½ĸ
à½łà½Ĩà½¢ à½ĸà½ł
à½ŀà½Ĥ à½Ĥà½ħ
à¾¡à¼ĭ à¾¢
à½ĸà½¦à½ĺà½¦ à½Ķà½ł
à½ķà½Ĭ à½ł
à½¢à½£ à½ĸ
à½Ĥà½¦à½ĵ à½¢
Ġà½ĳ à½ł
à½¡à½Ħà½¦ à½ĺà½¦
à¾µ à½±à¼į
à¾Ĵà½º à½ºà¼ĭ
à½Ĥà½Łà½ł à½¦
à¼¢à¼¢ à¼¤à¼¥
à½ĳà½Ķà½¢ à½Ĥ
à½ŀà½ĵ à½£
à½ĵà½Ķ à½ĳà½Ĥ
Ġà¼§ à¼¢à¼¦
Ġà¼§ à¼¤à¼©
Ġà½Ģ à½Ģà½Ģ
à¾Ľ à¼ĭà½²
à¼Ģ à½ł
Ġà¼¤ à¼£à¼¡
Ġà¼¦ à¼¢à¼¦
Ġà¼¦ à¼¦à¼¨
à¼¥à¼¥ à¼¥à¼¥
à¼ĭà½²à¼ĭ à½ºà¼ĭ
à¼¢à¼¡à¼¡ à¼¦
Ġà½Ļ à½ļ
Ãĥ à½Ģ
Ãĥ à½ĳà½Ħ
à¼ĭà¾§ à½²
à½Ĳà½ĺà½¦à½ħ à½ĳà½Ĥ
5 13
5 18
Ġ à½Ļà½Ħ
Ġ à½Ľà½§
Ġ à½ĸà½ĸà½ĸà½ĸ
à¼ĭ à¾©à¼ĭ
à¼ĭ à¾´à¼ĭ
à¼ĭ Âģ
à½Ĥ à½ĭ
à½ĸ à½¡à½ĸ
à½ĸ à½ĳà½ĸà½ĳ
à½¢ à½ĺà½Ħà½ł
à½¢ à½¡à½¢
à½¢ à½Ĥà½Ħà½¦
à½ĵ à½ħà½Ħ
à½ĺ à½ĳà½Ķà½Ĥ
à½ĺ à½ĸà½¦à½£
à½ĺ à½ĸà½Ħ
à½ĺ à½ĭ
à½Ķ à½¡à½¦
à½£ à½Ĳà½Ĥ
à½£ à½ħà½Ħ
à½£ à½Ĥà½ŀà½¦
à½´à¼ĭ à¾±
à½´à¼ĭ à¼µ
à½´à¼ĭ à½Īà½º
à½´à¼ĭ à¼Ŀà¼į
à½¡ à½ĺà½Ĳ
à½ŀ à½ĳà½ĸà½Ħ
à½Ķà½ł à½£à½ĺ
à½ĳà½Ħ à½¦à½ĺ
à½ĳà½Ħ à½ĺà½£
à½Ĳ à½£à½ĵ
à½Ĳ à½Ģà½ł
à½ļ à½Ĥà½Ħ
à½ı à½ĸà½ŀ
à½¤ à½Ĩà½Ħ
à½Ķà½¢ à½ĸà½ħà½¦
à½Ķà½¢ à½Ĥà½ıà½ĵ
à½łà½ĳ à½łà½ĳ
à½łà½ĳ à½ĸà½ł
à½ĸà½¢ à½£à½¦
à½ĵà½¦ à½ĸà½Ĥ
à½ĵà½¦ à½ļà½Ħà½¦
à¾³ à¾Ģà¼į
à¾¡ à¾²à½²à¼į
à½ĸà½ł à½Ħà½¦
à½łà½ĸ à½Łà½Ħ
à¾¤ à½¾à¼į
à½ĺà½ļ à½ª
à½ĳà½ĺ à½ĳà½Ħ
à½ĸà½ĳ à½ħ
à½Ĥà½Ħ à½Ħà½¦
à½ħà½ĵ à½ĸà½ĳ
à½ħà½ĵ à½ļà½ĳ
à½ĺà½Ħ à½Ĭ
à½łà½ķ à½Ĥà½Ķ
à½¨ à½ĺà½Ĥ
à½¨ à½Ħà½ĵ
à½ħà½ĳ à½£à½ĺ
à½§ à½ĵà½¦
à½ĸà½ħà½¦ à½ĳà½Ħ
à½Ĥà½¦à½£ à½¡
à½łà½ĳà½¦ à½¡
à½Ĥà½ĵ à½Ķà½ł
à½ĳà½Ķà½ł à½ĳà½Ĥ
à½ĺà½ī à½ĺà½Ĩ
à¾¤à¾±à½²à¼ĭ à½Ī
à¾¡à½ºà¼ĭ à½²
à½ģà½Ħ à½ĸ
à½ĳà½ĳ à½łà½ĳ
à½Ħà½ĵ à½Ķà½¦
à½Łà½ĳ à½ĸà½¦
à½Ķà½ĳ à½Ĩ
à½ĵà½Ĥ à½ķ
à½ıà½ĵ à½ĺà½Ĳ
à½ĺà½ĵ à½Ķ
à½ĺà½ĵ à½łà½Ħ
à½ĺà½ģà½ĵ à½ĵ
à½¡à½ĵ à½¢
à½Ĳà½£ à½ŀ
à½Łà½ĸ à½ĸà½¦
à½Ĥà½¡à½¦ à½ĺ
à½ĸà½Ļà½ĵ à½¢
à½Ĩà½¢ à½¡à½Ħ
à½ĺà½Ħà½ł à½ŀ
à¾¡à¼ĭ à½º
à½ĸà½ĸà½¦ à½¢
à½ĸà½Łà½ł à½ĳà½Ħ
à½ķà½Ĭ à½¦à½¢
à½Ĳà½ĳ à½ĵà½¦
à½ĸà½łà½ĺ à½£
à½ĺà½£ à½ĸ
à½¡à½Ħà½¦ à½¤
à½łà½ĸà½ĸ à½ĵ
à¼Ģ à½¨à½¢
à¼¢à¼£ à¼£à¼£
à½Ĵ à½Ł
Ġà¼¥ à¼¡à¼¦
Ġà¼¥ à¼£à¼£
Ġà¼¥ à¼£à¼©
à½Ĺ à½ĸà½ĵ
à¼£à¼£ à¼¡à¼¡
à¾» à¼ĭà¼į
Ġà¼¦ à¼¡à¼¦
Ġà¼¨ à¼¤à¼¨
à¾·à½º à½ºà½¾à¼ĭ
à¾·à¾² à½±à¾Ģ
à¾¶ à½±à½²à¼ĭ
Ġà½¦à½Ħà½¦ à½¢
Ġà¼¡à¼§ à¼¡à¼¨
à½²à¼ĭà½º à½²
48 7
50 5
à½²à¼ĭà¾İ à¼į
5 15
5 25
5 34
5 31
5 32
Ġ à½Ľà½Ķ
à¼ĭ à¾Ĳà½¼
à¼ĭ à½±à¼ĭà¼į
à½Ĥ à½ļà½£
à½ĸ à½ĵà½ĺà½ĺà½ģà½ł
à½¢ à½ĳà½Ķà½Ĥ
à½¢ à½Ĥà½ŀà½£
à½Ħ à½Ĥà½ŀà½Ĥ
à½Ħ à½ŀà½ĵ
à½ĺ à½Ķà½Ħ
à½ł à½ĵà½ĳ
à½ł à½Ģà½Ĥ
à½Ķ à½ĺà½£
à½£ à½ĺà½ģà½¢
à½£ à½ļà½Ĥà½¦
à½ŀ à½Ĥà½ŀà½ĵ
à½ŀ à½łà½Ħ
à½Ĩ à½ĳà½Ķà½£
à½Ĩ à½Ĩà½¦
à½Ķà½ł à½£à½¦
à½Ķà½ł à½¦à½¦
à½ĳà½Ħ à½Ķà½¢
à½ĳà½Ħ à½ĺà½ģà½ł
à½ĺà½¦ à½ĸà½ł
à½ĺà½¦ à½ĳà½ĳ
à½ı à½Ł
à½ı à½ĵà½Ħ
à½ī à½łà½ĸ
à½ĳà½Ĥ à½ĺà½Ĳà½ł
à½Ķà½¢ à½£à½ĺ
à½Ķà½¢ à½Łà½ĳ
à½ĵà½¦ à½ģà½ĺà½¦
à½ĵà½¦ à½ĺà½ģà½¦
à½ĵà½¦ à½Ħà½ł
à¾³ à¾±à½º
à½ĸà½ł à½ĺà½Ħ
à¾¤ à½±à½²à¼ĭ
à½¡à½Ħ à½Ĥà½¦à½Ħ
à½Ķà½¦ à½Ĥà½Ļ
à½Ķà½¦ à½ļà½ĳ
à½łà½ĩ à½ĺà½¢
à½ĸà½ĳ à½ŀà½ĵ
à½Ĥà½ĵà½¦ à½ł
à½ħà½ĵ à½Ĥà½ħ
à½ĳà½ĸà½Ħ à½łà½ĸ
à½¨ à½¨à½ĵ
à½§ à½£à½ł
à½ĸà½Ģ à½łà½ĸà½ĸà½¦
à½£à½ĺ à½Ĥà½Ħ
à½ĺà½ļà½ĵ à½Ģ
à¾²à½²à¼ĭ à½º
à½ĺà½Ľà½ĳ à½ķ
à½ĺà½Ľà½ĳ à½ĸà½¢
à½£à½Ĥ à½ģ
à½Ĳà½ĸà½¦ à½ļ
à½ģà½ĺà½¦ à½Ķ
à½Ħà½Ĥ à½łà½ģ
à½łà½Ĳ à½Ħà½¦
à½Ĥà½£ à½łà½Ħ
à½ĸà½£ à½ŀ
à½ĸà½£ à½ĵà½Ĥ
à½ĳà½Ķà½Ĥ à½Ĥ
à½ĺà½ĩ à½£à½¦
à½ĸà½ıà½ĸ à½Ķà½ł
à½Łà½¦ à½Ĥà½Ļà½Ħ
à½Ĥà½ŀà½Ĥ à½ļ
à½Ĥà½ŀà½Ĥ à½Ķà½¦
Ġà½¦ à½Ĥ
à½ħà½Ħ à½£
Ġà¼¡ à¼¡à¼¡à¼£
à½Ĥà½ıà½ĳ à½£
à½Ĥà½ĺ à½ĸ
Ġà½ĸ à½ī
à½Ħà½£ à½ĸ
Ġà½Ķ à½ĸ
à½ĵà½¢ à½ł
à½ķà½ĸ à½Ķ
à½ĸà½Ħ à½ĸ
à½ĸà½Ļà½£ à½ĸ
à½ĺà½İ à½£
Ġà½Ĥ à½Ĥà½¦
Ġà½ķ à½Ĥà½¦
à¾Ľ à½´à¼ĭ
à¾¨à¾±à½´ à¼į
Ġà½łà½ĳ à½ĵ
Ġà¼¤ à¼¢à¼¦
Ġà¼¤ à¼¢à¼©
à¼£à¼§ à¼£à¼¨
à¼£à¼¨ à¼¢à¼¥
Ġà½Ħ à½ī
à¼ĭà¾ ¿
à½ĥ à½¡
à¾Ļà½± à½¼à¼ĭ
à½¼à½¼ à½¼
à½ĸà½ĩ à½£
à½Įà½İ à½£
à½´à¼ĭà½º à½²
à¾ŀà¾ŀ à½¼à¼ĭ
5 21
5 33
5 50
Ġ à½ĺà½ļà½Ħ
Ġ à½Ŀà½¦
à½Ĥ à½ĺà½ĩà½£
à½Ĥ à½Ĥà½¤à½ĺ
à½ĸ à½ĸà½Ļà½ĵ
à½ĸ à½Ĥà½ıà½ĳ
à½¢ à½£à½ł
à½Ħ à½ģà½Ħ
à½Ħ à½Ĥà½¦à½¢
à½ł à½Ĥà½¦à½£
à½ł à½łà½ļà½£
à½ł à½łà½Ĥà½£
à½ł à½Ķà½ĵ
à½Ķ à½ĺà½ī
à½Ķ à½Ĳà½Ħ
à½Ķ à½Ĥà½Ļà½Ħ
à½Ķ à½ĸà½Ħ
à½Ĥà½¦ à½Ķà½łà½ĺ
à¾² à¼µà½¼
à½¡ à½ĳà½Ģ
à½¡ à½Ĥà½ĳ
à½¡ à½ĺà½Ĥ
à½Ģ à½ħà½¦
à¾Ł à½²à¼įà¼ĭ
à½Ķà½ł à½Ģ
à½Ķà½ł à½ĳà½ĸ
à½ĸà½¦ à½Ĥà½¦à½Ħ
à½ĳà½Ħ à½ĵà½¦
à½ģ à½¦à½¢
à½ģ à½ĳà½¦
à½ķ à½ĺà½£
à½ĺà½¦ à½łà½ĸ
à½ĺà½¦ à½ļà½ĳ
à½ı à½ĺà½Ĩ
à½Ķà½¢ à½ĺà½¢
à½ĸà½¢ à½łà½ļ
à½ĵà½¦ à½Ĥà½¦à½£
à½Ħà½¦ à½ĺà½ł
à½łà½Ĥ à½ĳà½ĵ
à¾¤ à¾¤à¼ĭ
à½¡à½Ħ à½ı
à½¡à½Ħ à½¨
à½Ķà½¦ à½ĸà½Ģ
à½ĳà½ĺ à½Ĥà½¦à½ĵ
à¾¦ à¾·à½¾à¼ĭ
à½ĳà½Ķ à½ĸà½¦
à½ĳà½Ķ à½¤
à¾Łà½º à½¼
à½Ľ à½¢à½Ħ
à½Ľ à½İ
à½Ľ à½¤à½¢
à½ħà½ĵ à½ĺà½Ĩ
à½ĳà½ĸà½Ħ à½ĺà½Ħ
à½¨ à½ĺà½ģ
à½¨ à½ĸà½ĳà½Ĥ
à½Ĳà½ĺà½¦ à½£
à½ĺà½ļà½ĵ à½Ķà½ł
à½ĺà½ļà½ĵ à½ĺà½ģà½ĵ
à½Ĥà½ĵ à½ĳà½Ĥ
à½£à½Ĥ à½ĺà½Ĩ
à½łà½ļ à½ĸà½¢
à½ĺà½Ĳà½ł à½Ģ
à½ĵà½ĺ à½ĩà½£
à½Ĳà½ĸà½¦ à½Ĥà½¦
à½łà½Ĳ à½ĸà½¢
à½Ĥà½ĵà½Ħ à½ĸà½ł
à½İ à½ĺà½ł
à½ĵà½Ĥ à½ĳà½ĸ
à½ĺà½ģà½¦ à½ĸ
à½ļà½Ħ à½ĸà½ł
à½ĺà½ĵ à½ĵà½ĳ
à½Ĳà½£ à½Ģ
à½ĳà½ĺà½¢ à½¢
à¾³à½´à¼ĭ à½º
à½£à½Ĥà½¦ à½¤
à½Ĥà½¦à½¢ à½£
à½Ŀ à½Ķà½ł
à½łà½ĩà½ĺ à½ŀ
à½łà½ĺ à½¤
à½Łà½¦ à½ĳ
à½Ĥà½ŀà½Ĥ à½ķ
à½ĳà½Ĥà½Ĥ à½Ĥà½ī
à½¢à½¦ à½ĸ
à½ħà½Ĥ à½Ĥà½¡
à½ĵà½łà½Ħ à½ĳ
à½Į à½Ķà½ł
à½Ĩà½Ĥ à½łà½ĸ
à½Ĥà½ĺ à½ĳà½Ħà½¦
à½ģà½¢ à½¢
à½ĺà½£ à½£
à½łà½ĸà½ł à½ĸ
à½łà½ĳà½ł à½ĸà½¦
à½ĸà½¤à½Ĥà½¦ à½Ķ
à½¦à½ĳ à½ħ
Ġà½ŀ à½¦
à¾Ľ à¾ľ
Ġà½¤ à½ĸ
à½Ĵ à½Ĳà½Ĥ
Ġà¼¥ à¼¡à¼§
Ġà¼¥ à¼¢à¼¨
Ġà¼¥ à¼§à¼¡
Ġà¼¦ à¼¡à¼§
Ġà¼¦ à¼¡à¼¡
Ġà¼¦ à¼¤à¼¥
à½¦à½ĺà½¦ à½¦
Ġà¼© à¼¡à¼§
à¾·à¾± à½¾à¼į
à½ĵà½ħ à½Ķ
à¼¢à¼¡à¼¢ à¼¦
à¼¢à¼¡à¼¡ à¼£
Ġà¼¡à¼© à¼¥à¼¨
à½²à¼ĭà¼Ĳ à¼į
à½ĺà½ĺà½Ĩ à½¦
à½ĵà½ıà½ĵ à½£
à½ĸà½Ļà½ĺ à½£
à½¢à½İ à½¦
Ãĥ à½ĸà½¦
à½į à½ĳ
à½²à¼ĭà½²à¼ĭà½²à¼ĭà½²à¼ĭ à½²à¼ĭà½²à¼ĭà½²à¼ĭà½²à¼ĭ
à¾¸ à¼ĭ
à½ĳ à½¤à½¦
à½ĳ à½ģà½¢
à½ĳ à½¡à½Ħà½¦
à½Ĥ à½łà½ķà½Ħ
à½ĸ à½łà½ĳà½ł
à½ĵ à½ĸà½ĸà½¦
à½ĵ à½ļà½¢
à½Ħ à½ĸà½¤
à½Ħ à½Ĩà½¢
à½Ħ à½łà½Ĩà½¢
à½ĺ à½¤à½ĺ
à½ĺ à½ŀà½ĺ
à½ł à½Ķà½ĳ
à½Ķ à½ĳà½ĺà½ĵ
à½Ĥà½¦ à½Ļà½ĵ
à½¡ à½¡à½ĵ
à¾Ł à¾Ĵà¾²à½¼
à½Ĩ à½Ĩà½¢
à¾Ĵ à½ºà¼ĭà¼į
à½ģ à½ĳà½ĺ
à½ģ à½ĺà½ļà½ĵ
à½ļ à½łà½Ĥ
à½ī à½ļ
à½ī à½ĺà½ļ
à½ī à½ĺà½¢
à½ĳà½Ĥ à½Ĥà½ŀ
à½ĳà½Ĥ à½ĳà½ĵ
à½ĸà½¢ à½ģà½¦
à½ĵà½¦ à½ĸà½£
à½Ħà½¦ à½ĸà½ħ
à½Ħà½¦ à½¦à½Ħà½¦
à½Ł à½İ
à¾±à½º à½ºà¼į
à½łà½Ĥ à½£à½ĵ
à½ĸà½ŀ à½ĳà½Ķà½ł
à½łà½ĸ à½Ķ
à½¡à½Ħ à½ĸà½¤à½ĳ
à½Ķà½¦ à½£à½ĵ
à¾© à¾±à½¼à¼ĭ
à½¢à½Ħ à½ı
à½ĳà½ĺ à½Ķà½¦
à½ĺà½ģ à½¢à½¦
à½Ĥà½ı à½ĺà½ĵ
à½ĳà½ĸà½Ħ à½ŀ
à½¨ à½ĸà½ł
à½¨ à½ĳà½ĺ
à½Ĳà½ĺà½¦ à½Ķ
à½§ à½ģ
à½ĵà½Ħ à½ĳà½Ħ
à½¢à½ĸ à½Ĳà½ĸà½¦
à½£à½ĺ à½ĸà½ŀ
à½£à½ĺ à½łà½ģ
à½ĸà½¤à½ĳ à½ķ
à½Ļà½ĺ à½ħ
à½Ĥà½¦à½£ à½ļ
à½łà½Ĩ à½ª
à½ĳà½Ķà½ł à½ĵà½ĺ
à½£à½Ĥ à½ĳà½Ĥ
à½ļà½ĳ à½£à½¦
à½ĺà½¢ à½ļ
à¾¦à¾± à½¼à¼ĭà¼į
à½ĸà½Ģà½ł à½łà½Ĥ
à½ģà½ĺà½¦ à½ĸ
à½ĺà½īà½ĺ à½Ķà½ī
à½Ĥà½ĵà½Ħ à½ŀ
à½Ĳà½£ à½ł
à½ĳà½¢ à½ĳà½Ħ
à½Ŀ à½¡à½Ħ
à½ĸà½ħà½ĳ à½ħ
à½Łà½ĸ à½Ĩ
à¾¤à¾²à½¼ à½¼
à½¢à½ĸà½¦ à½Ħ
à½ĵà½ĺà½¦ à½¡
à½¦à½ĺ à½¡à½Ħ
à½łà½Ĩà½¢ à½¢
à½¡à½¢ à½Ģ
à½ĸà½Łà½ł à½¦
à½ļà½£ à½ĸ
à½Ĩà½Ĥ à½ļà½ĳ
à½Ķà½ĵ à½ĺà½ģà½ł
Ġà½ĵ à½Ģ
à¾ŀ à½±à½¾à¼ĭ
à¼Ģ à½ģà½¢
à½Ĵ à½Ĺà½¥
Ġà¼¥ à¼¡à¼£
Ġà¼¥ à¼¢à¼¤
Ġà¼¥ à¼¢à¼£
Ġà¼¤ à¼¦à¼¥
Ġà¼¤ à¼¦à¼¡
à½ĸà½¦à½Ħà½¦ à½¦
Ġà½¨ à½Ĭ
Ġà¼¦ à¼¢à¼¨
Ġà¼© à¼¢à¼¢
Ġà½Ħ à½Ķ
à¼¢à¼¡à¼¡ à¼¤
à½ĳà½ĳà½Ĥ à½ī
Ġà½Ľ à½ĸ
49 1
57 2
55 3
1 à¼¡
5 27
5 41
Ġ à½¤à½£
Ġ à½ıà½¦
Ġ à½łà½Ľà½ĳ
Ġ à½Ŀà½ł
à¼ĭ à¾±à½º
à½¦ à½ĸà½Ľ
à½ĳ à½¨à½Ħ
à½Ĥ à½¨à½¢
à½Ĥ à½Ķà½Ħ
à½Ĥ à½Ŀà½¢
à½¢ à½Ĥà½ĵà½Ħ
à½¢ à½łà½Ľà½ĺ
à½Ħ à½ĸà½ı
à½Ħ à½Ĥà½ıà½ĵ
à½Ħ à½ĳà½ĺà½¢
à½ł à½ħà½ĵ
à½ł à½¤à½Ĥà½¦
à½Ķ à½Ĥà½ĳà½ĺà½¦
à½£ à½łà½Ĥà½ł
à½£ à½£à½Ħà½¦
à½Ĥà½¦ à½ħà½ĳ
à¾² à¾³à½º
à½¡ à½ĺà½¢
à½Ķà½ł à½łà½Ĥ
à½ĳà½Ħ à½ĳà½Ĥà½ł
à½ĳà½Ħ à½ĳà½ĳ
à½ħ à½£à½¦
à½ħ à½¢à½¦
à½ģ à½£à½ĺ
à½Ĳ à½¡à½¦
à½Ĳ à½ĭ
à½ķ à½ĸà½ĳ
à½ı à½ĺà½ĳ
à½ı à½Ħà½Ĥ
à½ī à½ĵà½Ħ
à¾Ĳ à¼įà¼ĭ
à½Ķà½¢ à½ĸà½ı
à½ĵà½¦ à½¤à½ĸ
à½Ħà½¦ à½ĸà½ĳà½Ĥ
à¾³ à¾º
à½£à½¦ à½Ķà½¢
à½£à½¦ à½ĸà½ł
à½£à½¦ à½ĸà½Ĥ
à½£à½¦ à½Ķà½ĳ
à½£à½¦ à½łà½ĩà½ĺ
à½£à½¦ à½¦à½ĺ
à¾¤ à¾©à½¼
à½Ķà½¦ à½ĺà½ģà½¦
à¾Ķ à¼µ
à½¢à½Ħ à½Ķ
à½¢à½Ħ à½ĵà½¦
à½ĺà½Ĳ à½Ĳ
à½ĺà½ļ à½Ķ
à¾²à¼ĭ à¼´à¼į
à¾¨ à¾¨à½¼à¼ĭ
à½ĳà½ĺ à½Ĥà½ī
à½łà½ģ à½Ĥ
à½Ĥà½ħ à½ĳà½Ķ
à½ĺà½Ĩ à½Ķ
à½¨ à½Ħà½ĺ
à½ħà½ĳ à½ĺà½¦
à½ĸà½Ģ à½Ĥà½ĳ
à½±à¼ĭ à½²à¼ĭ
à½Ĥà½ĳ à½łà½ĸ
à½Ĥà½¡ à½Ĥà½¦
à½ĺà½ĳ à½łà½ĸ
à½ĺà½Ľà½ĳ à½ļ
à½Ĥà½¦à½£ à½Ģ
à½Ĥà½¤ à½ĸ
à½łà½Ĩ à½Ħà½ĵ
à½ĵà½ĺ à½łà½ĳ
à½ĺà½¢ à½ı
à¾Ĵà¾²à¼ĭ à½²
à½Łà½ĳ à½Ĩ
à½Ķà½ĳ à½ĳà½Ģà½¢
à½İ à½ĵà½ħà½Ķ
à½ĵà½Ĥ à½ļ
à½Ĳà½¢ à½Ĥà½¦
à½ĺà½ĩ à½Ħ
à½Ĥà½ŀà½Ĥ à½ĸà½¦
à½Ĩà½¢ à½¢
à½Ķà½İ à½¢
à½ģà½Ĥ à½Ķ
à¾Ģ à½¾
à½ķà½Ĭ à½ĸà½Ľ
à¾¤à¾² à½¼à¼įà¼ĭ
Ġà½ĸ à½ķ
à½ĳà½£ à½ĳ
à¼ĭà½² à½¾
Ġà¼§ à¼¡à¼¨
Ġà¼§ à¼¢à¼¡
Ġà¼§ à¼§à¼¢
à½ĸà½Ģà½Ħ à½ĵà½¦
à¾ļ à¾²à¾Ģ
à¼¢à¼£ à¼¡à¼¢
Ġà½¤ à½Ķ
à¼¢à¼¡ à¼¡à¼§
à½ĳà½¦ à½ĸ
Ġà¼¥ à¼¦à¼¥
Ġà¼¤ à¼¥à¼¤
à½Ĺ à½ķà½¢
à¼£à¼¤ à¼£à¼£
à¾» à½±à¼į
Ġà¼¦ à¼¡à¼¢
à½ĭ à½Ķ
à¼ĭà½¼ à½¼
à¾¶ à¾Ńà¼ĭ
à½ĵà½Ķà½¦ à½¦
à½¨à½Ļ à½£
Ġà¼´ à¼ĭ
5 24
5 29
5 40
Ġ à½ĳà½Ĥà½¢
Ġ à½ĸà½¤à½ĺ
à½¦ à½£à½łà½Ħ
à½Ĥ à½ĸà½ŀà½Ĥ
à½Ĥ à½łà½ĳà½ĸ
à½¢ à½ĺà½ļà½ĺà½¦
à½ĵ à½Ĥà½ĵà½ĳ
à½ĺ à½ķà½ĵ
à¾± à¾Ĳà¾±à½ºà¼ĭ
à½ł à½£à½Ħ
à½Ķ à½ıà½ĵ
à½Ķ à½Ĩà½Ĥ
à½£ à½Ĩà½¦
à½Ĥà½¦ à½ĳà½Ģà½ł
à½´à¼ĭ à¼ģà¾ĥ
à½¡ à½łà½ĩ
à½¡ à½Ĥà½Ħ
à½¡ à½Ĥà½¤
à½¡ à½İà½¢
à½Ģ à½Ķà½¦
à½Ģ à½Ĥà½ŀ
à½Ģ à½łà½Ľ
à½Ģ à½łà½ļ
à½Ģ à½ŀà½¦
à½ŀ à½ĩ
à¾Ł à¾±à½²à¼ĭ
à½Ķà½ł à½ĺà½ļ
à½ĸà½¦ à½Ĥà½ı
à¾±à½²à¼ĭ à¼Ŀ
à½Ĳ à½ĸà½Ĥ
à½Ĳ à½Ĳà½ĸ
à½ļ à½ĳà½Ķà½£
à½ĺà½¦ à½§
à½ı à½ĸà½ħ
à½ı à½ĺà½Ħ
à½¤ à½Ģà½ł
à½¤ à½Į
à¾Ĳ à¾Ĳ
à½ĳà½Ĥ à½ĸà½Ĥ
à½Ķà½¢ à½ĸà½Ģà½ł
à½ĸà½¢ à½ĸà½ĳ
à½ĵà½¦ à½Ħà½Ĥ
à½ĵà½¦ à½ŀà½ĸà½¦
à½£à½¦ à½ĺà½ļ
à½¡à½Ħ à½Ł
à¾Łà½¼ à¼µ
à¾· à¾²à½¼à¼ĭ
à¾²à¼ĭ à¼º
à¾¦ à½²à½¾à¼ĭ
à½ĸà½Ł à½ĳà½ĺ
à½łà½Ľ à½ĺà½ł
à½§ à½ķà½Ĭ
à½ĸà½¤ à½ĺà½ĺ
à½ĸà½¤ à½ĳà½Ĥà½ī
à½ĺà½Ľ à½łà½ĸà½¤
à½£à½ĺ à½ķ
à½ĺà½ļà½ĵ à½ĸà½¢
à½ĸà½¤à½ĳ à½ģ
à¾Ń à¾ĥà¼į
à¾Ĳà¾±à½ºà¼ĭ à¼Ĳ
à½ĺà½ī à½¢
à½ĳà½Ģà½¢ à½Ĥà½¦
à½Ĳà½ĸà½¦ à½łà½ĳ
à¾¡à½ºà¼ĭ à½Īà½²
à½ĳà½ĳ à½£à½¦
à½ĸà½ŀà½Ĥ à½Ĥà½ı
à¼© à¼¡à¼¡à¼¡
à½¤à½¢ à½ĸà½¦
à½ĸà½ıà½Ħ à½ĸà½¦
à½Ŀ à½ĸà½¦
à½Ŀ à½Ĥà½¥
à½ĸà½ħà½ĳ à½ĸà½¢
à½¢à½ĸà½¦ à½ĵ
à½ĸà½Ľ à½ĸ
à½ĳà½Ĥà½Ĥ à½Ĥà½ŀà½ĵ
à½ĺà½Ħà½ł à½łà½ĺ
à½Ķà½İ à½Ĭ
à½ĵà½ĵ à½Ķ
à½¦à½ł à½¦
à½ħà½Ħ à½ĺà½ģ
à½ĺà½ĩà½£ à½ĸ
à½ĸà½ħà½ł à½ĸà½ł
à½Ĥà½¦à½ĵ à½Ķ
à½ĸà½ĺ à½ŀ
à½£à½Ħ à½Ģà½ł
à½ĳà½ĵ à½ĳà½Ħ
à½ĵà½Ĥà½¦ à½Ģ
à½ĺà½Ĩà½ĵ à½ī
à½ª à½¢
à½¦à½¦ à½Ĥ
Ġà¼§ à¼£à¼¦
à¼¢à¼¨ à¼¢à¼©
à¾° à½¼à½¾à¼ĭ
Ġà¼¥ à¼©à¼§
Ġà¼¤ à¼¤à¼¨
Ġà¼¤ à¼¥à¼¡
Ġà¼¤ à¼¨à¼¢
à½Ĺ à½Ĳà½Ĥ
Ġà¼¦ à¼¢à¼¡
Ġà¼¦ à¼§à¼¨
Ġà¼¦ à¼¦à¼¡
à½Ĳà½ĵ à½Ĳà½ĺà½¦
Ġà½ĸà½Ģà½ł à½ĺà½ĳ
à¾·à¾² à½±à½´à½¾
à½ĸà½ĳà½ĺ à½Ĩ
50 3
50 9
à¾Ĭ à½Ķ
5 38
5 43
Ġ à½łà½Ĩà½ĺ
Ġ à½ıà½Ĥ
à¾ ĵ
à½¦ à½ĳà½ĺà½Ĥ
à½¦ à½ģà½¢
à½¦ à½ĸà½¦à½Ĥà½¦
à½¦ à½ĸà½Ģà½Ħ
à½ĸ à½Ķà½łà½ĺ
à½¼ à½¼à½¾à¼ĭ
à½¢ à½łà½Ĥà½£
à½¢ à½¡à½ĳ
à½ĵ à½łà½ĳà½ĸ
à½ĵ à½ĳà½ĺà½ĵ
à½ĵ à½ķà½ĺ
à½ĵ à½Ĥà½Łà½ł
à½Ħ à½Ĥà½Ļà½Ħ
à½ĺ à½ĺà½ĳà½ł
à½ł à½ĺà½Ĳà½¢
à½£ à½¢à½Ģ
à½£ à½¤à½ĳ
à½Ĥà½¦ à½ĺà½Ľ
à½Ĥà½¦ à½Ĥà½¡
à½Ĥà½¦ à½ĺà½ģà½¦
à½Ĥà½¦ à½ĵà½ĺà½¦
à½ºà¼ĭ à¾±
à½¼à¼ĭ à½¼à¼ĭà½ºà¼ĭ
à½Ģ à½ŀà½Ĥ
à½ŀ à½ĸà½ħ
à½ĳà½Ħ à½Ĳà½ĺà½¦
à½ĳà½Ħ à½Ħà½ĵ
à½ĳà½Ħ à½Ĭ
à¾±à½²à¼ĭ à¼Ŀà¼Ŀà¼Ŀ
à½ģ à½łà½ĩ
à½ĺà½¦ à½Ĥà½ı
à½ī à½łà½Ĥ
à½ī à½Ĥà½Ħ
à½Ķà½¢ à½ĸà½ł
à½Ķà½¢ à½ĳà½ĸà½Ħ
à½Ķà½¢ à½ĸà½¤
à½ĸà½¢ à½Ł
à½ĵà½¦ à½Ĳà½¢
à½ĵà½¦ à½łà½Ĩà½ĳ
à¾¡ à¾¤à½ºà¼ĭ
à½łà½Ĥ à½Ĥà½£
à½£à½¦ à½īà½ĵ
à½¡à½Ħ à½ĵà½Ħ
à½Ķà½¦ à½ĺà½ģ
à½ĳà½ĸ à½ĸà½ĸ
à½ĳà½ĸ à½ĵà½Ķ
à½Ĥà½ŀ à½Ĥà½¤
à¾Ļ à½±à½´
à¾¨ à¾Ģ
à¾¨ à¼µ
à½Ĥà½Ħ à½Ĥà½Ħ
à½Ľ à½ĺà½Ĩ
à½ĸà½Ł à½Ĥà½¦
à½¨ à½Ģà½¦
à½Ĳà½ĺà½¦ à½ĸ
à½ĳà½Ģ à½łà½Ĩ
à½ĸà½Ģ à½łà½ļ
à½ĸà½¤ à½Į
à¾« à½²à¼ĭà¼į
à½¢à½ĸ à½Ķ
à½ĺà½ļà½ĵ à½ı
à½Ĥà½ĳ à½ĸà½ł
à½łà½ĳà½¦ à½ĸà½¦
à½łà½ĳà½¦ à½ģ
à½łà½ĳà½¦ à½Ķà½¦
à½łà½ĳà½¦ à½ĺà½Ĳ
à½ĳà½Ķà½ł à½Ĳà½ĺà½¦à½ħà½ĳ
à½ĳà½Ĥà½ł à½Ķà½ł
à½ĳà½Ģà½¢ à½ĳà½ĺà½¢
à½Ħà½Ĥ à½łà½ĸ
à½łà½Ħ à½Ĥà½¦
à½Ħà½ĵ à½Ĩ
à¼¤ à¼¡à¼£à¼¤
à½ĺà½ĵ à½ĸà½¢
à½Ĥà½¢ à½ĳà½Ħ
à½Ĭ à½Ĳ
à¾·à½´ à½¾
à½Ĳà½Ħ à½ĳ
à½Ĥà½¡à½¦ à½£
à½ĸà½Ľ à½¨
à½¡à½ĸ à½ĺ
à½¦à½ĺ à½ĸà½¦
à½¦à½ĺ à½ĳà½Ħ
à½Ĥà½ĳà½ĺà½¦ à½¦
à½¢à½¦ à½ı
Ġà½¦ à½Ģ
à½ĸà½ĸà½¦ à½Ħ
à½ĸà½ĸ à½Ķà½ł
à½ĺà½ĩà½£ à½ĵà½¦
à½Ĥà½ł à½ĸà½ł
à½ļà½£ à½ĳà½Ħ
Ġà½£ à½ĳ
à½Ĥà½ĺ à½¡
à½ĸà½¦à½Ĥà½¦ à½ĵà½¦
à½¢à½ĺ à½ĸ
à¼¢à¼¢ à¼¢à¼¦
à¼¢à¼¢ à¼¢à¼§
à¾²à¾Ń à½²à¼ĭ
Ġà½Ĥ à½Ķ
Ġà½ĺ à½ĳà½Ħ
à¾¥ à¾±à½¼
à¾ŀ à¾ŀà½¾à¼ĭ
à½Ĵ à½Ļ
à½Ĵ à½Ĩà½Ĳ
Ġà¼¥ à¼¡à¼¤
Ġà¼¥ à¼¢à¼©
Ġà¼¥ à¼£à¼¨
Ġà¼¥ à¼§à¼©
Ġà¼¥ à¼§à¼¤
Ġà¼¤ à¼¦à¼©
Ġà¼¤ à¼§à¼©
à¼£à¼§ à¼£à¼§
Ġà¼¦ à¼¢à¼¤
Ġà¼© à¼¡à¼¢
Ġà¼© à¼©à¼£
Ġà½ı à½Ĥà½¦
à½ĺà½Ķà½¢ à½¤
Ġà¼¡à¼¢ à¼¡à¼¢
à½ĥ à½ĺ
à¾·à¾²à¼ĭ à½³
à¾¨à¾±à¼ĭ à½²à¼ĭ
56 5
à½ĺà½Ĳà½ĺà½¦ à½ħà½ĳ
à¼ĭà½±à½´à¾ĥà¼ĭ à½±à½´à¾ĥà¼ĭ
5 56
5 58
Ġ à½ĸà½Ģà½¦
à¼ĭ à¾¦
à½Ĥ à½łà½ĩà½ł
à½¢ p
à½¢ à½ķà½£
à½¢ à½Ĥà½¦à½ĵ
à½ĺ p
à½ĺ à½ŀà½ĸà½¦
à¾± à¼ĭà¼įà¼ĭ
à½ł à½ĺà½Ľ
à½ł à½ĺà½ģà½¦
à½ł à½¤à½¢
à½ł à½łà½ĳà½ĸ
à½²à¼ĭ à½ºà¼ĭà½ºà¼ĭ
à½²à¼ĭ à¼Ŀà¼Ŀà¼į
à½Ķ à½ĺà½Ħà½ł
à½£ à½ĳà½ĺà½Ĥ
à½£ à½ĳà½£
à½¡ à½īà½ĺ
à½¡ à½ģà½ĵ
à½ŀ à½łà½Ĥ
à½ŀ à½Ĥà½Ħ
à½Ĩ à½ĸà½¦à½ĺ
à¾Ĵ à¾·à¼į
à½Ķà½ł à½¢à½Ħ
à½Ķà½ł à½ĺà½ļà½ĵ
à½ģ à½£à½ł
à½Ĳ à½ĸà½ı
à½ļ à½ĺà½Ĳ
à½ļ à½ĺà½ļ
à½ĺà½¦ à½ĸà½Ł
à½ĺà½¦ à½İ
à½ĺà½¦ à½ĳà½Ķà½¢
à½ī à½Ľ
à½¤ à½ĳà½Ģ
à½ĳà½Ĥ à½ļà½ĳ
à½ĳà½Ĥ à½ĳà½Ĥà½¦
à½Ķà½¢ à½łà½Ĳ
à¾£ à¾ĥ
à¾³ à¼µ
à½ĸà½ł à½Ĥà½ĵ
à½ĸà½ł à½Ľà½ĺ
à½ĸà½ŀ à½ĳà½Ķ
à½£à½¦ à½Ħà½¦à½¢
à½Ķà½¦ à½ĳà½Ĥà½ł
à½ĳà½ĸ à½Ģà½Ĥ
à¾Łà½¼ à½¾à¼ĭ
à¾Ļ à¾²à½º
à½ĳà½ĺ à½ĩ
à¾¦ à¼´
à½ĳà½Ķ à½¡à½Ħ
à½łà½ĩ à½Ĥà½¢
à½ĸà½ĳ à½ī
à½ĸà½ĳ à½ĵà½Ķ
à½Ľ à½ĸà½ħ
à½Ľ à½Ĥà½ĵ
à½ħà½ĵ à½¨
à½ĺà½Ħ à½ĸà½¦
à½Ĥà½ı à½ĺà½ļ
à½¨ à½ĳà½ĸà½Ħ
à½Ĳà½ĺà½¦ à½ĵ
à¾±à½ºà¼ĭ à¼´
à¾³à¼ĭ à½¼
à½ĩ à½ĩ
à½£à½ĺ à½ĸà½ĳ
à¾·à¼ĭ à½º
à½ĺà½ļà½ĵ à½ĸà½¦
à½ĺà½ļà½ĵ à½ķ
à½ĸà½¤à½ĳ à½ĸà½ŀ
à¾Ĺà½¼ à¼µ
à¾Łà½ºà¼ĭ à¼º
à½ĸà½Ĥ à½ļ
à½£à½Ĥ à½ļ
à½£à½Ĥ à½Ĥà½¡
à½ĵà½ĺ à½ĸà½Łà½Ħ
à½ĵà½ĺ à½ĵà½¢
à½Ĩà½Ĥà½¦ à½£à½¦
à½ĺà½ī à½Ķ
à½ĳà½Ģà½¢ à½ĸà½ł
à½Ĥà½¦à½Ħ à½¤
à½İ à½Ŀ
à½łà½ķà½Ĥà½¦ à½¢
à½Ĳà½£ à½ļ
à½łà½ļà½£ à½¢
à½ĺà½ļà½¢ à½¢
à½£à½Ħ à½ĸ
Ġà½ĸ à½ĳà½Ħ
à½ĵà½ł à½ĵ
à½Ħà½ĺ à½ĸ
à¾µ à¾Ģ
à½łà½ķà½Ħ à½Ĳ
à½łà½Ĥà½Ĥà½¦ à½Ķà½¦
à½ĸà½Ħ à½Ĩ
à¼¢à¼¢ à¼¤à¼¢
à½ª à½ĵ
à½ĸà½¤à½ĺà½¦ à½£
Ġà½ĺ à½Ģ
à¼¢à¼£ à¼¢à¼¢
à¼¢à¼£ à¼¢à¼¥
à½ļà½ĸà½¦ à½Ĩ
Ġà¼¥ à¼¥à¼£
Ġà¼¤ à¼©à¼§
Ġà¼¤ à¼©à¼¤
Ġà¼¦ à¼¦à¼¢
à¾ł à¼ĭà¼į
à¼¤à¼¨ à¼¢à¼¤
à½Ĥà½Ķ à½£à½¦
à¼ĭà½²à¼ĭ à½¼à¼ĭà½ºà¼ĭ
à½Ķà½Ģ à½Ĥ
à½ĺà½¦à½ħà½ĵ à½£
56 2
à¾³à½± à¾Ģà¼į
à¾ĳà¾Ĵ à¾Ĵà¾·
5 35
5 44
5 47
Ġ à½Ĺ
Ġ à½§à½ł
à¼ ķ
à½¦ à½ĸà½ħà½ł
à½¦ à½Ĩà½ĸ
à½¦ à½ŀà½Ħ
à½¦ à½«
à½¦ à½Ħà½Ĥà½ł
à½Ĥ à½Ĥà½ĳà½ĸ
à½Ĥ à½Ĩà½ł
à½Ĥ à½ĺà½īà½ĵ
à½¢ à½ħà½ĳ
à½¢ à½łà½ļà½£
à½¢ à½Ļà½ĵ
à½ĵ à½łà½Ĥà½Ĥ
à½ĵ à½¡à½Ħà½¦
à½Ħ à½Ĥà½¡à½¦
à½Ħ à½ĸà½ıà½Ĥà½¦
à½Ħ à½£à½ł
à½ĺ à½ĸà½ĵ
à½ł à½ĺà½Ľà½ĳ
à½ł à½Ģà½¢
à½Ķ à½Łà½ł
à½£ à½¡à½¦
à½£ à½ĸà½ıà½ĸ
à½£ à½łà½ĳà½ĸ
à½Ĥà½¦ à½¦à½¦
à½Ĥà½¦ à½Ķà½ĺ
à¾² à¾©à½¼
à½Ģ à½Ĥà½ĵà½ĺ
à¾Ł à¼´
à½Ĩ à½Ĩà½Ĥà½¦
à½Ķà½ł à½łà½ĳ
à½ĸà½¦ à½Ļ
à½ĸà½¦ à½ĸà½ĸ
à½ģ à½ħà½ĳ
à½Ĳ à½łà½ĸ
à½ļ à½ĸà½Ĥ
à½ĺà½¦ à½ĳà½ĸà½Ħ
à½ı à½Ĥà½ī
à½ı à½ĩ
à½ī à½£à½ĺ
à½¤ à½ĵà½Ħ
à½ĳà½Ĥ à½¨
à½ĳà½Ĥ à½ĸà½¤à½ĳ
à½ĳà½Ĥ à½Ĥà½ĵ
à½ĳà½Ĥ à½łà½ļà½£
à½Ķà½¢ à½łà½Ĩà½ĳ
à½Ķà½¢ Ãģ
à½łà½ĳ à½łà½Ħ
à½ĸà½¢ à½Łà½ĳ
à½ĵà½¦ à½Ħà½ĵ
à½ĵà½¦ à½ŀà½£
à½Ħà½¦ à½§
à½Ħà½¦ à½Ķà½£
à¾³ à¾±à½²
à½Ł à½ĺà½Ĩ
à½Ł à½ĵà½ĺ
à½łà½Ĥ à½İ
à½¡à½Ħ à½īà½ĵ
à½ĳà½ĸ à½Ĩ
à¾Ķ à½±à¼ĭ
à½Ļ à½ĵà½Ĥ
à½¢à½Ħ à½Ĥà½¦
à½ĳà½ĺ à½īà½ĵ
à½ĳà½Ķ à½ĳà½Ĥ
à½ĳà½Ķ à½Ĥà½ĳ
à½ĸà½ĳ à½ĳà½Ħ
à½ħà½ĵ à½ĸà½¦à½ĺ
à½¨ à½¢à½ł
à½¨ à½¨à½ł
à½§ à½łà½Ħ
à¾²à½¼à¼ĭ à½º
à½ĸà½Ģ à½Ĥà½ĵ
à½ĸà½Ģ à½ĳà½¦
à½£à½ĺ à½Ł
à½±à¼ĭ à¼ŀ
à½ĸà½ħà½¦ à½Ĥ
à½ĵà½ĺ à½ĳà½ĸ
à½ĳà½Ķà½£ à½¡
à½ĳà½Ķà½£ à½ĳà½Ħ
à¾Ĵà½¼à¼ĭ à¼Ĳ
à¼£ à¼¡à¼£à¼¢
à½ĳà½ĳ à½¦à½Ħà½¦
à½İ à½Ľ
à½ĵà½Ĥ p
à½ıà½ĵ à½ħà½ĵ
à½ıà½ĵ à½ĺà½Ĩ
à½łà½ķà½Ĥà½¦ à½ĵ
à½ĺà½ĵ à½ĵà½Ĥ
à½ĵà½ĳ à½ĸà½ŀ
à½Ĥà½¢ à½ı
à½¦à½¢ à½Ĥà½¦
à½Ĭ à½łà½ĳ
à½Ĳà½Ĥ à½ģ
à½ĳà½¢ à½ĸà½¦
à½Ŀ à½ĳà½ĺà½¢
à¾¨à½² à½¾à¼į
à½łà½ĺ à½¡
à½ĵà½ĺà½¦ à½ĺà½Ĩ
à¾©à½º à½ºà¼ĭ
à½łà½Ĩà½ĳ à½ĵ
à½ĳà½Ĥà½Ĥ p
à½ĳà½Ĥà½Ĥ à½ļ
à½£à½łà½Ħ à½ĳ
à¾¡à½´à¼ĭ à½²
à½ĸà½ĸà½¦ à½Ķà½¦
à½ħà½Ħ à½ħà½ĳ
à½Ĳà½ĳ à½ĵ
Ġà¼¡ à¼£à¼¥à¼¦
à½ļà½¢ à½ĺ
à½łà½Ĥà½Ĥ à½Ĥà½¡
Ġà½ĳ à½ŀ
à½ĵà½ł à½ĸà½ł
à½Ĥà½ĳà½ĸ à½£
à¼¡à¼¡ à¼¡à¼¡à¼¢
à½¡à½Ĥ à½Ĥ
à½£à½¢ à½ĳ
à¾¡à¾·à¼ĭ à½²
à½Ĥà½ĳà½Ĥà½¦ à½Ķà½¢
à½¦à½¦ à½Ģ
à½ĵà½Ķ à½¤
Ġà¼§ à¼¢à¼§
Ġà¼§ à¼§à¼¥
à½ĳà½ĺà½ł à½¦
à¼¢à¼§ à¼¡à¼¡
à½Ĵ à½Łà½Ĥ
à½Ĵ à½¢à½ĺ
Ġà¼¥ à¼¦à¼¦
Ġà¼¥ à¼¦à¼£
Ġà¼¥ à¼©à¼¥
Ġà¼¤ à¼§à¼¡
Ġà¼¤ à¼§à¼¢
à½Ķà½£ à½ķ
à½Ĥà½Łà½¢ à½ĵà½¦
Ġà¼¦ à¼¡à¼£
à½¦à½Ķ à½ŀ
à¾ł à½´à½¾à¼ĭ
à¾ł à¾¡à¾¡à¾·
à¾·à½± à½¾à¼į
à¼¢à¼¡à¼¥ à¼£
à½ĵà½ıà½ĵ à½ĳà½Ħ
à¾µà½² à½¾à¼į
à¾¼ à¾»à¼ĭ
56 0
57 8
55 2
à½ħà½ĳà½ĸ à½Ģ
à¿ ĳ
à¾·à¾²à½´ à¾ĥà¼į
à½Ĺà½Ĳ à½Ł
5 48
5 57
â Ŀ
à¼ ģà¾ĥà¼ĭ
à¼ĭ à¾Ļ
à½¦ à½ķà½£
à½¦ à½Ĩà½¦
à½¦ à½łà½ĳà½ł
à½¦ à½«à½Ħ
à½² à¼ŀ
à½ĳ à½ķà½ł
à½Ĥ à½ĸà½ıà½Ĥà½¦
à½Ĥ à½łà½Ĩà½¢
à½¢ à½Ĳà½Ħ
à½ĵ à½Ļà½Ģ
à½Ħ à½ĳà½Ķà½ł
à½Ħ à½ŀà½ĸà½¦
à½Ħ à½ģà½¢
à½ĺ à½ĸà½ıà½ĸ
à½ĺ à½ĸà½ĸ
à¾± à¾Łà½º
à½²à¼ĭ à¾ĥ
à½Ķ à½Ĥà½¦à½ĵ
à½Ķ à½Ĩà½Ħ
à½£ à½łà½Ĩà½¢
à½Ĥà½¦ à½ĺà½ī
à½Ģ à½łà½ķà½Ĥà½¦
à½ŀ à½¢à½Ħ
à½ŀ à½ĸà½Ĥ
à½ŀ à½ª
à½Ĩ à½ĸà½Ł
à½Ķà½ł à½ĳà½ĺ
à½ĸà½¦ à½īà½ĺà½¦
à½ĳà½Ħ à½Ĥà½Ļ
à½ģ à½ĸà½Ł
à½ģ à½¦à½Ħà½¦
à½Ĳ à½Ĩà½ĳ
à½ķ à½ķà½£
à½ĺà½¦ à½łà½Ĥ
à½ı à½ĺà½Ĥ
à½ı à½¦à½ł
à½ı à½ħà½Ħ
à¾Ĳ à¾µà¼ĭ
à½Ķà½¢ à½Ĳà½ĺà½¦
à½Ķà½¢ à½Ĥà½¤
à½łà½ĳ à½ĵà½¦
à½ĸà½¢ à½ĸà½ħ
à½ĵà½¦ à½Ķà½ĳ
à½ĵà½¦ à½¡à½¢
à½ĸà½ł à½ĺà½Ĥ
à½Ķà½¦ à½ŀà½£
à½ĳà½ĸ à½ıà½ĸ
à½Ĥà½ŀ à½ŀà½£
à½Ļ à½ĺà½łà½ĺ
à½ĺà½ļ à½Ģ
à½ĺà½ļ à½ĸà½¦
à¾¨ à½¼à¼ĭà¼į
à½Ĥà½Ħ à½¤à½¢
à½ħà½ĵ à½łà½Ĥ
à½ĺà½Ħ à½ŀ
à½ĺà½Ħ à½ĸà½¢
à½¨ à½Ĥà½ĵ
à½¨ à½ģà½ĸ
à½ĳà½Ģ à½łà½ļ
à½ĺà½Ľ à½Ģ
à½ĩ à½ĸà½¦
à½ĩ à½ģ
à½ĩ à½ĸà½¢
à½ĩ à½ª
à½ĺà½ļà½ĵ à½ł
à½ĸà½¤à½ĳ à½Ĥà½¦
à½Ĥà½¦à½£ à½Ħ
à½ĸà½¦à½ĺ à½¨
à½ĳà½Ķà½ł à½ĳà½ĸ
à½Ĥà½Ļ à½Ħà½Ĥ
à½ĸà½Ļ à½¡
à½£à½Ĥ à½Ķà½¢
à½£à½Ĥ à½Ķà½¦
à½ĸà½Łà½Ħ à½Ĩ
à½ĳà½Ķà½£ à½¨
à½ĺà½¢ à½Ħà½¦
à½ĺà½ī à½ĳ
à½ĳà½Ģà½¢ à½ĵ
à½Ĳà½ĸà½¦ à½ħà½ĵ
à½Ħà½Ĥ à½ĳà½ĸ
à½łà½Ĳ à½ĸà½Ģ
à½ķà½ĵ à½Ĥ
à½ĸà½ŀà½Ĥ à½łà½ĸ
à½ĸà½ŀà½Ĥ à½£à½Ĥ
à½ĺà½ģà½¦ à½¤
à½ĺà½ĵ à½ĵà½ĺ
à¾³à½² à½²
à½ĺà½Ĳà½¢ à½ĵ
à½£à½ĵ à½łà½Ĥà½ł
à½¡à½ĵ à½ĸ
à½¼à½¾à¼ĭ à¼Ĳ
à½Łà½Ĥ à½ĩ
à½ĺà½ļà½ĺà½¦ à½Ĩ
à½Ŀ à½¦à½¢
à½Ŀ à½«à½Ħ
à½Łà½ĸ à½ĸà½ĸ
à½łà½ļà½£ à½ĺà½Ĩ
à½¡à½¦ à½ŀ
à½Ķà½İ à½ĵ
à½¢à½¦ à½Ķ
à½ģà½Ĥ à½ĺ
à½Ĥà½ł à½£
Ġà¼¡ à¼¢à¼¢à¼¤
à½ĸà½Ģà½Ĥ p
à½ĵà½¢ à½Ĥà½¦
à½łà½Ĥà½Ĥà½¦ à½ĺ
à½ĺà½ĵà½ĵ à½£
à½ĺà½İ à½ł
Ġà½ĵ à½ĸà½¦
à½ĳà½ĺà½ł à½ĵ
à¼¢à¼¥ à¼¢à¼¢
à½Ĳà½ĺà½¦à½ħà½ĳ à½ŀ
à¾¡à¾·à½²à¼ĭ à¼į
Ġà¼¥ à¼¥à¼§
Ġà¼¥ à¼¥à¼¨
Ġà¼¥ à¼¥à¼¢
Ġà¼¥ à¼¦à¼¡
Ġà¼¥ à¼©à¼¦
Ġà¼¥ à¼¨à¼¤
à½Ĺ à½ķà½¦
Ġà¼¦ à¼¥à¼¥
Ġà¼¦ à¼§à¼©
à¼£à¼¨ à¼¥à¼¦
à¼£à¼¨ à¼§à¼¢
à¼¥à¼¦ à¼§à¼¨
Ġà¼¢à¼¢ à¼¢à¼¢
à½łà½Ļ à½ĵ
50 8
à½´à½¾ à½¾à¼ĭ
55 1
à¾±à¼ĭà¼Ĳ à¼į
Ġà¼¡à¼©à¼© à¼¢
à¼ĭà¾Ŀ à¾±à¼ĭ
âĿ Ģ
5 28
5 30
5 37
5 39
5 45
Ġ à½łà½ĳà½Ĥ
Ġ à½łà½Ĩà½Ĥ
à¼ĭ à½±à½²
à¼ĭ à¾ļ
à¼ĭ à¾ĥà¼į
à¼ĭ à¾©à½¼à¼ĭ
à½¦ à½Ĩà½Ĥ
à½ĳ à½Ĳà½Ħ
à½Ĥ à½Ĥà½¡à½Ĥ
à½ĸ à½Ŀà½ĵ
à½¢ à½¢à½Ģ
à½¢ à½¢à½ĵ
à½ĵ à½łà½Ĩà½¢
à½´ à½¼à¼į
à½Ħ à½ĸà½ŀà½Ĥ
à½Ħ à½Ĳà½¢
à½Ħ à½Ĥà½ĵà½ĺ
à½ĺ à½ĸà½¦à½Ĥà½¦
à½ĺ à½ŀà½¦
à½ł à½ĸà½¦à½ĺ
à½Ķ à½ĵà½łà½Ħ
à½Ķ à½Ĥà½ĵà½ĺ
à½Ķ à½ĸà½ĵ
à½Ķ à½ĵà½Ĥà½¦
à½Ķ à½Ĳà½ĺ
à¾² à¾ĥ
à½ºà¼ĭ à¾ĥ
à½¼à¼ĭ à¼ī
à½¡ à½Ĥà½ı
à½Ģ à½ĸà½Ģ
à½Ģ à½¦à½Ħ
à½ŀ à½Ĥà½£
à½Ĩ à½£à½Ĥ
à½Ĩ à½ĸà½ĺ
à½Ķà½ł à½ĸà½ĳ
à½ĸà½¦ à½ĺà½ģà½ł
à½ĳà½Ħ à½Ľ
à½ħ à½¦à½¦
à½ģ à½Ķà½¦
à½ģ à½ĺà½ĵ
à½ģ à½ģà½¦
à½ļ à½ĳà½Ķà½ł
à½ı à½Ħà½Ħ
à½Ķà½¢ à½ĳà½ĳ
à½łà½ĳ à½ĸà½£
à½ĸà½¢ à½ĵà½ĺ
à¾£ à¾£à¼ĭ
à½Ł à½¡à½Ħ
à½Ł à½¢à½Ħ
à½Ł à½Ĥà½Ħ
à½ĸà½ł à½łà½ĳ
à½ĸà½ŀ à½Ĥà½Ħ
à¾¤ à¾³à½¼à¼ĭ
à½¡à½Ħ à½Ĥà½¦à½£
à½¡à½Ħ à½īà½ĺà½¦
à½Ķà½¦ à½Ĩà½Ĥà½¦
à½ĸà½ħ à½ĳà½Ģ
à¾© à¼´
à¾· à¾«
à½Ļ à½ĸà½ł
à½Ļ à½łà½ĸ
à½Ļ à½Ĥà½ī
à½± à½±à½²à¼ĭ
à½ĺà½ļ à½ĺà½ĺ
à½ĳà½ĺ à½Ł
à½Ĥà½Ħ à½Ĥà½ł
à½Ľ à½Ł
à½ħà½ĵ à½ĸà½ĳà½Ĥ
à½ħà½ĵ à½ĵà½ĺà½¦
à¾²à½º à½²
à½Ĥà½ı à½ĵà½Ħ
à½Ĥà½ı à½ª
à½ĸà½ĳà½Ĥ à½Ħ
à½ĸà½Ģ à½ļ
à¾Ĵà¾±à¼ĭ à¼º
à½ĺà½Ľ à½ĺà½Ľà½ĳ
à½Ĥà½ŀà½ĵ à½ĺà½īà½ĺ
à½£à½ĺ à½Ĥà½ŀà½ĵ
à½ĺà½ļà½ĵ à½Ĳ
à½ĺà½ł à½£
à¾Łà½ºà¼ĭ à½¼
à¾Łà½ºà¼ĭ à½º
à½¾à¼ĭ à¾İ
à½Ĥà½ĵ à½ĳà½Ħ
à½ĳà½Ķà½ł à½¡à½Ħ
à½£à½Ĥ à½Ĳ
à½ĵà½ĺ à½Ĥà½¦
à½ĳà½Ķà½£ à½ķ
à½Ĩà½Ĥà½¦ à½ħà½ĵ
à¾Ńà¼ĭ à¼´
à½ģà½Ħ à½ĺ
à¼£ à¼¡à¼¡à¼¡
à¼¤ à¼¡à¼¨à¼£
à½Ĩà½ĳ à½ŀ
à½İ à½łà½ĳ
à½ĸà½ŀà½Ĥ à½Ķà½¦
à½ıà½ĵ à½Ĳ
à½Ĥà½£ à½£
à½ĳà½ĺà½¢ à½Ĥ
à½Ĭ à½ĳà½Ħ
à½łà½ļà½£ à½ĸà½ł
à½Ĥà½ŀà½Ĥ à½¡à½Ħ
à½ĳà½Ĥà½Ĥ à½Ĩ
à½¤à½¦ à½Ķ
à¾ľ à½´
à¾ľ à¾»à¼ĭ
à½łà½Ĩà½Ħ à½Ĩ
à½ĸà½Łà½ł à½ł
à½ĸà½¦à½£ à½ĸà½¦
à½ĸà½¦à½£ à½ı
Ġà½¢ à½Ħà½¦
à½Į à½ī
à½ķà½Ĭ à½ļ
à½ĸà½ĺ à½ĳà½Ħ
à½łà½Ĥà½Ĥ p
à½¢à½ĺ à½§
à½¡à½Ħà½¦ à½Ķà½ł
Ġà½Ķ à½ĺ
à½ĳà½£ à½ķ
à¾µ à¾¼à½±à¾Ģà¼ĭ
à½¦à½ĳ à½ĵà½¦
à½Ħà½¢ à½łà½Ľ
à½£à½¢ à½¢
à½ĺà½Ĩà½ĵ à½ĸ
à½ĺà½Ĩà½ĵ à½Ķ
à½ĺà½īà½ĵ à½ĸ
à½īà½ĺ à½Ķ
à½Ĥà½ĳà½ł à½ł
Ġà½ĵ à½Łà½Ħ
Ġà¼§ à¼¥à¼©
à¾¥ à¾±
à¼¢à¼¤ à¼¡à¼¢
à¼¢à¼¦ à¼¡à¼§
à¼¢à¼¦ à¼¢à¼¢
à¼¢à¼¡ à¼¡à¼©
à½Ĵ à½Ĥà½Ħ
à½Ĵ à½Łà½ĸ
à¾·à¼į à¼ĭà¼į
à½Ķà½ī à½Ļ
Ġà¼¥ à¼¨à¼¦
Ġà¼¤ à¼¨à¼¥
à½Ĺ à½Ķ
à¼£à¼¦ à¼£à¼§
Ġà¼¦ à¼¡à¼¥
Ġà¼¦ à¼¢à¼¥
Ġà¼¦ à¼¢à¼£
à¼ĭà½º à½ºà¼ĭ
à¾¡à¾· à¾±à½±à¼ĭ
à½ĭ à½Ĩ
Ġà½ł à½¢
à¼ĭà¼¹ à½´
à¾²à½± à½¼à½¾à¼ĭ
à¾¤à¾±à½²à¼į à¼ĭ
à¾·à¾Ń à¾ĥà¼ĭ
à½Ĳà½ĺà½¦à½ħ à½ĳà½Ķ
à½Ģà½ĭ à½Ĳ
à½Ĺà½Ł à½«
5 46
Ġ à½Ŀà½ĵ
Ġ à½Ĭà½ĺ
à½¦ à½Ĥà½Łà½ł
à½¦ à½ħà½¦
à½¦ à½İà½ł
à½ĳ à½ĳà½Ħà½¦
à½Ĥ à½Ĥà½ł
à½¢ à½Ĥà½ĳà½ĺà½¦
à½¢ à½«
à½ĵ à½ŀà½ĵ
à½Ħ à½Łà½ĸ
à½Ħ à½Ļà½ĵ
à½ĺ à½ĸà½ıà½Ĥà½¦
à½ĺ à½Ķà½łà½ĺ
à½ĺ à½¡à½¢
à½ĺ à½ĺà½īà½ĵ
à½ĺ à½Įà½İà½£
à½ł à½ĺà½ģà½ł
à½ł à½łà½ĸà½¢
à½²à¼ĭ ï¼Ī
à½Ķ à½ĸà½ħà½ĳ
à½Ķ à½ķà½£
à½Ķ à½ĸà½¦à½ĺà½¦
à½Ķ à½Ĥà½ŀà½£
à½Ķ à½ļà½ĸ
à½£ à½Ĳà½Ħ
à½£ à½łà½Ľà½ĺ
à½£ à½¡à½ł
à½Ĥà½¦ à½ĺà½Ĥ
à½¡ à½ĸà½¤
à½¡ à½Ĥà½ŀà½ĵ
à½¡ à½¦à½Ħà½¦
à½¡ à½īà½ł
à½ŀ à½ĸà½¦à½ĺ
à½Ĩ à½łà½ĩ
à½ĸà½¦ à½Ĥà½ĵà½Ħ
à½ĸà½¦ à½ĺà½ļà½ĺà½¦
à½ĳà½Ħ à½ļà½ĳ
à½ĳà½Ħ à½Ĩà½Ĥà½¦
à½ĳà½Ħ à½ĵà½ĳ
à½ħ à½Ĥà½¤
à½ħ à½ĳà½Ķà½£
à½ħ à½ĳà½Ħà½¦
à¾±à½²à¼ĭ à¾±à½²à¼ĭ
à½ģ à½¤à½¢
à½Ĳ à½§
à½ķ à½ĺà½Ĳà½ł
à½ķ à½ķà½ĵ
à½ļ à½ĩ
à½ļ à½ĳà½Ĥà½ħ
à½ĺà½¦ à½łà½ķ
à½ĺà½¦ à½łà½Ľ
à½ı à½Ĥà½ı
à½ī à½Ĥà½ī
à½ī à½Ĥà½ħ
à½ī à½ĵà½Ĥ
à½¤ à½Ĩà½Ĥà½¦
à½ĳà½Ĥ à½ķà½ĵ
à½łà½ĳ à½¢à½ĸ
à½łà½ĳ à½łà½ĳà½¦
à½ĸà½¢ à½ĳà½ĸ
à½Ł à½Ĥà½ŀ
à½łà½Ĥ à½¡à½¦
à½ĸà½ŀ à½ĵà½¦
à½Ķà½¦ à½ĺà½ģà½ł
à½ĳà½ĸ à½Ĥà½ı
à¾±à¼ĭ à½Īà½²
à½Ĥà½ŀ à½Ĥà½ı
à½ĺà½Ĳ à½łà½Ĥà½Ħ
à¾¨ à¾¡à½¼
à¾¨ à½±à½´à¼ĭ
à½ĳà½ĺ à½ĸà½¢
à¾¦ à¾±à½ºà¼ĭ
à¾¦ à¾·à½±
à½łà½ģ à½Ģ
à½ĳà½Ķ à½ģ
à½ĸà½ĳ à½łà½Ĥ
à½Ĥà½Ħ à½¡à½ĵ
à½ħà½ĵ à½Ķà½ł
à½ħà½ĵ à½ĸà½ŀ
à½ĺà½Ħ à½łà½ĳ
à½¨ à½ĸà½ĵ
à½¢à½ĸ à½Ļà½ĵ
à½£à½ĺ à½§
à½ĺà½ļà½ĵ à½Ĥà½¦
à½Ĥà½¦à½£ à½ĳà½Ħ
à½ĸà½Ļ à½£à½¦
à½ĺà½¢ à½ģ
à½Ĩà½Ĥà½¦ à½Ħ
à½īà½ĺà½¦ à½Ĩà½Ĥ
à½Łà½ĳ à½¡
à½Ķà½ĳ à½ŀ
à½Ĩà½ĳ à½Ĩ
à½ĺà½ĵ à½łà½ĳ
à½£à½ĵ à½ŀ
à½£à½ĵ à½ĳà½Ħ
à½ĸà½£ à½łà½ĳ
à½ĸà½£ à½ĸà½¢
à½¡à½ĵ à½Ĳ
à¾Ĵà¾²à½¼ à½¼
à½łà½ĺ à½Ģ
à½īà½ĵ à½ı
à½łà½Ĥà½£ à½ĸà½¦
à½Ĥà½ĳà½ĵ à½ĳà½Ħ
à½ļà½ĵ à½ĳà½Ħ
à½£à½łà½Ħ à½¢
à½¤à½¦ à½ĸ
à½Ķà½İ à½Ĥ
à¾ľ à¾·à¾±à¼į
à½ŀà½Ĥ à½ĺ
à½ĵà½ĵ à½Ĩ
à½ĵà½ĵ à½ı
à¾¤à¾²à½² à½²
à½ĵà½łà½Ħ à½ĺ
à½ķà½Ĭ à½ĳà½Ħ
à½ķà½Ĭ à½ĳà½Ĥ
à½łà½Ĳà½ĳ à½Ķà½¦
à½Ĥà½ł à½¢
Ġà¼¡ à¼¡à¼£à¼¢
à½Ĩà½Ĥ à½łà½Ĥ
Ġà½ĳ à½Ĥà½¦
Ġà½ĳ à½ĺà½ļ
à½ĺà½ĵà½ĵ à½Ķà½ł
à½ĺà½ĵà½ĵ à½ı
à¾ª à¾«à¾«
à½ĳà½ĸà½ĸ à½Ķ
Ġà½ļ à½ĸà½¦
Ġà½ĺ à½ĸ
Ġà¼§ à¼¡à¼¥
Ġà¼§ à¼¤à¼¤
Ġà¼§ à¼¥à¼¥
Ġà¼§ à¼¦à¼¢
Ġà¼§ à¼©à¼¨
à½Ĥà½ħà½ĵ à½Ĥà½Łà½ĵ
à¾ļ à¾²à½¼
à¾ŀ à¾ŀà½ºà¼ĭ
à¼¢à¼£ à¼¡à¼¡
Ġà½Ĩ à½ĵ
à½ļà½ĸà½¦ à½ħà½ĵ
à½Ĳà½ĺà½¦à½ħà½ĳ à½¢à½ĸ
Ġà½ģ à½ģ
Ġà½ģ à½İ
Ġà¼¥ à¼¦à¼¢
Ġà¼¥ à¼©à¼¢
Ġà¼¤ à¼¦à¼£
Ġà¼¤ à¼¨à¼¤
à½Ĺ à½ħ
à½Ķà½£ à½łà½ĩ
à½¦à½£ à½£
à½¦à½Ķ à½Ĥ
Ġà¼¨ à¼¡à¼¢
Ġà¼¨ à¼¡à¼¡
Ġà½Ļ à½¦
à½Ŀà½£ à½Ĭ
à¾ĳ à½ºà¼ĭ
à½Ķà½ķ à½ĸà½ĸ
à¾·à¾Ń à½ºà¼į
à½±à½¼ à½´à½¾à¼ĭ
à¾¦à¾²à½´à¼ĭ à¼į
à½Ĩà½Ĩ à½Ĩà½Ĩ
à½ħà½ĳà½Ĥ à½ĵà½¦
à½ķà½ħ à½Ĳ
à¾łà½² à¾Ģ
à¾±à½²à¼ĭà½Ī à¾²à½º
à¾·à¾²à½´ à¾ĥ
5 23
< >
Ġ à½ĸà½Ļà½ł
Ġ à½ĺà½ĵà½£
à¼ĭ à½±à¼į
à½¦ à½ĺà½ģà½¢
à½Ĥ à½Ĥà½ĸ
à½ĸ à½Ķà½İ
à½¢ à½ŀà½Ĥ
à½¢ à½¢à½ı
à½ĵ à½ĸà½¦à½ĺà½¦
à½ĵ à½łà½ĸà½ĸ
à½´ à¾°à¼ĭ
à½Ħ à½Ĳà½Ĥ
à½ĺ à½ĸà½¤
à½ĺ à½ĺà½Ľà½ł
à¾± à¾°
à½ł à½Ĥà½¦à½ĵ
à½²à¼ĭ à½¼à¼į
à½Ķ à½Ĥà½ł
à½£ à½ĸà½ħà½ĳ
à½£ à½łà½ļà½£
à½£ à½¤à½ĵ
à½£ à½ģà½ĵ
à½Ĥà½¦ à½ĳà½¢
à½Ĥà½¦ à½Ŀ
à½Ĥà½¦ à½łà½ĩà½ĺ
à½¡ à½¡à½ĸ
à½¡ à½¡à½¢
à½Ģ à½Ĥà½ı
à½Ģ à½ĸà½ĳà½Ĥ
à½Ģ à½Ĥà½Ł
à½Ģ à½¦à½¦
à½ŀ à½ĺà½ģà½ł
à¾Ł à¾¦à¾·à½º
à½Ĩ à½ĸà½£
à½ħ à½Ĥà½ĵà½¦
à½ħ à½Ĭ
à½ħ à½ĳà½Ĥà½ŀ
à¾±à½²à¼ĭ à½Īà½ºà¼ĭ
à½ĺà½¦ à½£à½łà½Ħ
à½ı à½ĺà½ĺ
à¾Ĳ à½±à½´à¼ĭ
à½ĳà½Ĥ à½łà½ļ
à½ĳà½Ĥ à½ĳà½ĺà½¦
à½Ķà½¢ à½ĳà½Ĥà½Ķ
à½łà½ĳ à½Ģà½ł
à½ĸà½¢ à½¨
à¾£ à¾Ģà¼ĭ
à½ĵà½¦ à½ĸà½ı
à½Ħà½¦ à½Ĥà½ĵà½¦
à½£à½¦ à½Ĩà½Ĥà½¦
à¾¤ à¾Ĳà½¼
à½Ķà½¦ à½ĸà½ł
à½ĸà½ħ à½ĳà½Ĥà½ī
à½Ĥà½ī à½ĳ
à½Ļ à½łà½Ĥ
à½¢à½Ħ à½ŀ
à½± à½´à¼įà¼ĭ
à¾²à¼ĭ à½µà½¾à¼ĭ
à½Ĥà½ĵà½¦ à½łà½Ĥ
à¾Łà½º à¼µà¼ĭ
à½Ĥà½ħ à½ĳà½Ķà½ł
à½Ľ à½¦à½ł
à¾³à½¼ à¼µ
à½¨ à½ĵà½ĺ
à½¨ à½Ħà½Ĥ
à½ħà½ĳ à½ļà½¢
à½§ à½ħ
à½ĸà½ĳà½Ĥ à½Ĥà½ī
à½ĳà½Ģ à½ĺ
à½ĸà½¤ à½łà½ĸ
à½Ĥà½Ł à½£
à½Ĥà½ŀà½ĵ à½ķà½ĵ
à½Ĥà½ŀà½ĵ à½¡à½ĳ
à¾Ĺà½º à½¾à¼ĭ
à½ĩ à½Ĩ
à½ĺà½ĳ à½łà½ĳ
à½ĺà½ĳ à½ĳà½¦
à½ĸà½ħà½¦ à½ļ
à½Ĥà½ĵ à½ĺà½Ĥ
à½ĳà½Ķà½ł à½Ķ
à½ĸà½Ĥ à½Ļà½ĺ
à¾Ĳà½´ à½¼
à½ĵà½ĺ à½ĸà½¢
à½ĵà½ĺ à½ĺà½ģà½¦
à½Ĩà½Ĥà½¦ à½¡
à½Ĳà½ĸà½¦ à½ħ
à½ģà½ĺà½¦ à½ī
à½īà½ĺà½¦ à½ĸ
à½ĺà½ģà½ł à½ĵà½¦
à¼£ à¼¡à¼£à¼¡
à¼£ à¼¢à¼£à¼¢
à½ĺà½īà½ĺ à½ĳà½Ħ
à½Ħà½ĵ à½łà½ĳà½ł
à½ĵà½ĳ à½Ĥà½¦
à½ĺà½ģà½ĵ à½ĸ
à½£à½ĵ à½ı
à½Ĳà½£ à½ĸà½¦
à½Ĳà½¢ à½ĸà½¦
à½Ĭ à½ħ
à½£à½Ĥà½¦ à½Ķà½¦
à½ĺà½ļà½ĺà½¦ à½ŀ
à½Ŀ à½Ķà½¢
à½Ŀ à½İà½ł
à½īà½ĵ à½ħ
à½ĸà½ıà½Ĥà½¦ à½ĸ
à½ļà½ĵ à½Ĥà½¦
à½¦à½ĺ à½ħ
à½Ķà½łà½ĺ à½¡
à½łà½Ĩà½¢ à½Ģà½¦
à¾ľ à¾Ģà¼ĭ
à½£à½ł à½¦
à½ĸà½ĸ à½ĸà½¢
à½łà½ĳà½ĸ à½ĵ
à½ķà½Ĭ à½Ĥà½ĵ
Ġà½Ķ à½Ĩ
à¼ĭà¼ ģà¾ĥà¼ĭ
à½ķà½ĸ à½ĵ
à¼¢à¼¢ à¼¥à¼¢
à¼µ à¾ĥà¼ĭ
à½ĵà½Ķ à½ĵà½¦
Ġà¼§ à¼¥à¼¦
à½£à½ĸ à½ĳà½Ħ
Ġà½Ģ à½ĸ
à½ĳà½Ķà½¦ à½ĺ
à½Ĵ à½¦à½¢
Ġà¼¥ à¼¢à¼§
Ġà¼¥ à¼§à¼¨
Ġà¼¥ à¼§à¼¦
Ġà¼¥ à¼¨à¼§
Ġà¼¤ à¼¦à¼§
Ġà¼¤ à¼©à¼¢
à½´à½¾à¼ĭ à½±à½´à¾ĥà¼ĭ
à¼£à¼¨ à¼¨à¼§
à½¦à½ĺà½¦ à½ĵ
à½¦à½Ģ à½łà½Ħ
Ġà½ĩ à½ĺ
à½ĺà½Ķ à½Ĳà½ĺà½¦
à½ĵà½ĺà½ĺà½ģà½ł à½ĺ
à¼ĭà½¼à¼ĭ à½¼
à¼ĭà½¼à¼ĭ à½²à¼ĭ
à½ĵà½ĳà½Ĥ à½łà½ĸ
Ãĥ à½łà½ĳ
à½¡à½ģ à½¡
à½ĺà½Ļ à½ĺà½¦
à½£à½ĵà½Ĥ à½ĳà½ĸ
5 42
à¼ĭ à¾Łà½¼
à¼ĭ à¾¨à½¼à¼ĭ
à½¦ p
à½¦ à½¨à½ĵ
à½ĳ à½£à½Ħ
à½Ĥ à½ģà½Ĥ
à½ĸ à½ĸà½łà½Ĥ
à½¢ à½¡à½¦
à½¢ à½Łà½¦
à½¢ à½łà½Ĩà½ĳ
à½ĵ à½Ĥà½ŀà½Ĥ
à½ĵ à½ĸà½¤à½Ĥà½¦
à½ĵ à½Ļà½ł
à½Ħ à½ĳà½Ķà½Ĥ
à½º à½±à¼ĭ
à½ĺ à½ıà½ĵ
à½ĺ à½£à½łà½Ħ
à½ĺ à½Ķà½ī
à½ł à½£à½ĵ
à½ł à½ħà½Ħ
à½ł à½ħà½ł
à½Ķ à½Ĥà½ĳà½ĵ
à½£ à½ĸà½¦à½£
à½£ à½ķà½ĺ
à½£ à½¢à½ĸà½ı
à½Ĥà½¦ à½ĸà½£
à½Ĥà½¦ à½ĳà½Ķà½¢
à½´à¼ĭ >
à½´à¼ĭ à¼ı
à½¡ à½Ĭà½ł
à½Ģ à½ĺà½ł
à½ŀ à½ĸà½ĳà½Ĥ
à½ŀ à½Ĥà½¢
à½Ķà½ł à½Ĥà½ĵà½¦
à½Ķà½ł à½ĺà½ī
à½ĸà½¦ à½ĸà½¦à½ĺà½¦
à½ĸà½¦ à½ĳà½£
à½ĳà½Ħ à½Ŀ
à½ĳà½Ħ à½īà½ĵ
à½ħ à½ĸà½ł
à½ħ à½ĳà½ĸà½Ħ
à½ħ à½ĳà½ĺà½ĵ
à½ķ à½ĵà½Ħ
à½ļ à½ļà½ĵ
à½ļ à½¢à½¦
à¾Ĳ à½¾
à½Ķà½¢ à½ĵà½ĺ
à½Ķà½¢ à½ĸà½ıà½Ĥà½¦
à½ĸà½¢ à½§
à½ĵà½¦ à½ĺà½ĵà½¢
à½Ł à½ģà½Ħ
à½£à½¦ à½Ĥà½¡
à¾Ĺ à½´à¼į
à½¡à½Ħ à½Ĳà½ĺà½¦
à½Ķà½¦ à½Ĳà½ĸà½¦
à½ĳà½ĸ à½ĳà½Ħ
à¾Ķ à½ºà¼į
à¾²à½² à¼µà¼ĭ
à½Ļ à½ĸà½ħ
à½ĺà½Ĳ à½£à½¦
à½ĳà½ĺ à½¤
à½ĳà½ĺ à½łà½ĳ
à½ĳà½ĺ à½£à½¦
à½ĳà½ĺ à½¢à½Ħ
à½ĳà½ĺ à½ĳà½ĺ
à¾¦ à¾¦à¾·
à½Ĥà½Ħ à½£à½łà½Ħ
à½Ľ à½ĵà½Ĥ
à½ħà½ĵ à½ĺà½Ĥ
à½Ĥà½ı à½ļ
à½¨ à½Ĥà½ĵà½¦
à½¨ à½Ľà½ĳ
à½§ à½ĳà½Ģà½¢
à½ĵà½Ħ à½Ĥà½¦
à¾« à½±à½²
à½Ĥà½ŀà½ĵ à½Ĩ
à½Ĥà½ŀà½ĵ à½ı
à½Ĥà½ŀà½ĵ à½łà½ĳ
à¾Ĺà½ºà¼ĭ à¼´à¼į
à½£à½ĺ à½ĵà½¢
à½ĺà½ļà½ĵ à½Ĥà½ī
à½ĸà½¤à½ĳ à½ī
à½¦à½Ħà½¦ à½Ģ
à½ĺà½Ľà½ĳ à½Ĥà½¦
à½ĳà½Ķà½ł à½ĺà½ģà½¦
à¼¢ à¼¡à¼©à¼¢
à½ĳà½Ķà½£ à½ĸà½Łà½Ħ
à½ĳà½Ĥà½ł à½ĳà½Ĥ
à½ĺà½ī à½ĺà½Ħ
à½ĳà½Ģà½¢ à½ĳ
à¾Ĳà¾± à½´à¼ĭà¼į
à¼£ à¼¡à¼¡à¼£
à½ĸà½ŀà½Ĥ à½§
à¾¨à¼ĭ à½º
à½ĵà½ĳ à½ŀ
à½ĵà½ĳ à½Ķà½¦
à½¤à½¢ à½ı
à½Ŀ à½ĸà½¢
à½Ŀ à½Ķà½¦
à½Ģà½¢ à½§
à½Ĩà½¢ à½ĳ
à¾ľ à½¾
à½Į à½ĳà½Ħ
à½Į à½ĳà½Ĥ
Ġà½£ à½ī
Ġà½£ à½ĺà½ļà½ĵ
à½Ĩà½¦ à½£
à½£à½Ħ à½Ģ
à½£à½Ħà½¦ à½ı
à½ĳà½ĵ à½ĳà½Ĥ
à½ĳà½ĵ à½ĺà½Ħ
à½ĸà½Ļà½£ à½ĸà½¢
à¼¢à¼¢ à¼¤à¼§
à½ĺà½İ à½Į
à½¦à½¦ à½Ĥà½¦
Ġà¼£ à¼¡à¼£à¼¢
à½Ĳà½ĺ à½ĸ
Ġà¼§ à¼¡à¼¦
Ġà¼§ à¼¢à¼£
Ġà¼§ à¼£à¼§
à¾¥ à½±à½²à¼ĭ
à¾ŀ à½´à¼į
à¾Ľ à½²à½¾
à½Ĵ à½¢à½ł
Ġà¼¥ à¼£à¼¤
Ġà¼¤ à¼¥à¼¨
Ġà¼¤ à¼©à¼¦
à½Ĺ à½ĸà½ı
Ġà¼¦ à¼¡à¼¤
Ġà¼¦ à¼£à¼£
Ġà¼¦ à¼£à¼¦
Ġà¼¦ à¼¤à¼¤
Ġà¼¦ à¼¤à¼¨
Ġà¼¦ à¼¦à¼¤
à½¦à½ĺà½¦ à½Ģ
à½łà½ĳà½Ĥ à½ĳ
à¼¤à¼¥ à¼¤à¼¦
à½¦à½Ķ à½¤
Ġà¼¨ à¼¡à¼¨
Ġà½ĸà½ĳ à½£
à¾¨à½± à¼ĭà¼į
à¼ĭà¾¢ à½´
Ġà¼¡à¼© à¼£à¼£
à¼ĭà½¼à¼ĭ à½ºà¼ĭà½²
à½¨à½§ à½§
57 1
58 1
55 4
à¼ĭà¼ī à¼ĭ
à¾ŀà¾ŀ à¾±à¼ĭ
à½ĸà½Ģà½łà½Ĥ à½ı
à¾Ľà¾ľ à¾ľà¾·
à¾³à¾º à¾¼à¾»à¼ĭ
5 49
Ġ à½Ļà½¢
à¼ ģ
à½¦ à½ĸà½Ģà½Ĥ
à½¦ à½¡à½£
à½ĳ à½łà½Ľà½ĺ
à½ĳ à½ĭ
à½Ĥ à½ĺà½Ľà½ł
à½Ĥ à½Ĳà½ĵ
à½ĸ à½łà½ĳà½ĸ
à½ĸ à½īà½£
à½¢ à½ļà½¢
à½¢ à½Ģà½ĵ
à½Ħ à½Ĳà½Ħ
à½Ħ à½¢à½ĺ
à½Ħ à½ĺà½īà½ĵ
à½ĺ à½Ĥà½ĵà½ĺ
à½ĺ à½ĸà½¤à½Ĥà½¦
à½ĺ à½ħà½¦
à½£ à½ĸà½łà½ĺ
à½£ à½Ķà½ĵ
à½£ à½Łà½Ħ
à½Ĥà½¦ à½ĺà½ĵ
à¾² à¾±à½ºà¼ĭ
à½´à¼ĭ à½Īà¾±à½²
à½¡ à½Ķà½ĳ
à½¡ à½ģà½Ĥ
à½¡ à½Ģà½¦
à½¡ à½«à½Ĥ
à¾Ł à¾¤à½ºà¼ĭ
à¾Ł à¾²à½±à¾Ģà¼ĭ
à½ĳà½Ħ à½ĺà½ĵ
à½ħ à½ĳà½Ĥà½ĳ
à½ģ à½ĳà½Ģ
à½ģ à½ĺà½Ľ
à½ģ à½Ĥà½¤
à½ģ à½Ĥà½¦à½Ħ
à½Ĳ à½Ĳà½£
à½Ĳ à½ĸà½ĸà½ĸ
à½ı à½łà½ģ
à½ī à½ĺà½ĳ
à½¤ à½ĸà½ĳ
à½ĳà½Ĥ à½ĺà½ļ
à½Ķà½¢ à½Ķà½¦
à½ĸà½¢ à½ĺà½ļà½ĺà½¦
à½ĵà½¦ à½ĳà½Ĥà½ł
à½ĵà½¦ à½Ĥà½£
à½ĵà½¦ à½ĵà½ĵ
à½ĵà½¦ à½ĸà½¦à½Ĥà½¦
à¾³ à½±à¾Ģ
à½Ł à½Łà½Ĥ
à½ĸà½ł à½ĸà½ĸ
à½ĸà½ŀ à½ĳà½ĵ
à½£à½¦ à½ĺà½īà½ĺ
à½£à½¦ à½ĵà½ĳ
à½¡à½Ħ à½ĳà½Ķ
à½¡à½Ħ à½ĸà½Ł
à½¡à½Ħ à½ĺà½Ĳà½ł
à½¡à½Ħ à½łà½ķà½Ĥà½¦
à½¢à½Ħ à½Ģ
à½ĳà½ĺ à½Ĩà½ĵ
à½Ĥà½Ħ à½Ĥà½Ł
à½Ĥà½Ħ à½Ĥà½ŀà½ĵ
à½Ĥà½ĵà½¦ à½Ĥà½ī
à¾Łà¼ĭ à½¾
à½ħà½ĵ à½łà½ĸ
à¾²à½º à½²à¼ĭ
à½ĺà½Ĩ à½Ĩ
à½ĺà½ģ à½Ģ
à½¨ à½ĸà½£
à½ħà½ĳ à½Ĥà½¦à½£
à½£à½ĺ à½ĳà½Ħà½¦
à½¾ à½º
à½¾ à½¾à½¾à¼ĭ
à½ĸà½ħà½¦ à½Ĳ
à½Ļà½ĺ à½Ģ
à½ĺà½Ľà½ĳ à½ĳà½Ħ
à½ĸà½¦à½ĺ à½¡à½Ħ
à½ĳà½Ķà½ł à½¦à½Ħà½¦
à¾³à½¼à¼ĭ à½²
à½ĸà½Ļ à½ĵà½ĳ
à½ĺà½Ĳà½ł à½Ĳ
à½ĵà½ĺ à½ħ
à½ĳà½Ķà½£ à½ļ
à½ĳà½Ķà½£ à½¤
à½ĳà½Ķà½£ à½Ĥà½¦à½Ħ
à½ļà½ĳ à½ī
à½ĳà½Ĥà½ł à½¢à½ĸ
à½īà½ĺà½¦ à½ĳà½Ħ
à½Ĥà½¦à½Ħ à½¢
à¾¤à¾± à¾±à½²à¼ĭ
à½ĺà½Ĳà½¢ à½£
à½¡à½ĵ à½Ĩ
à½Ĭ à½Ļà½ł
à½ĸà½ıà½Ħ à½£
à½Ĥà½¡à½¦ à½Ķà½¦
à½ĸà½ıà½Ĥà½¦ à½ĺ
à½Łà½¦ à½ĸ
à½ĸà½Ļà½ĵ à½ĵ
à½Ģà½¢ à½ı
à½¦à½ĺ à½ķ
à½¦à½ĺ à½¢à½Ħ
à½Ĥà½ŀà½Ĥ à½ĳà½Ĥ
à½¥ à½ķ
à½ĸà½ĸ à½Ħà½¦
à½¢à½£ à½Ħ
Ġà¼¡ à¼¢à¼¥à¼¡
à½Ĥà½¦à½ĵ à½ĸ
à½Ĥà½¦à½ĵ à½£
à½Ĥà½ıà½ĳ à½¦
à½Ĩà½Ĥ à½ĸà½ŀ
à½ĺà½£ à½Ħà½¦
à¾¦à¾² à½±à¼ĭ
à½ĸà½ĵ à½ŀ
à½ĸà½ĵ à½ļ
à½Ĥà½īà½ĵ à½Ķ
à¾ª à¼ĭà½²
à½¢à½ĵ à½Ķ
à¾²à¾Ń à¼įà¼ĭ
Ġà½ĵ à½Ħà½¦
à½¢à½ı à½Ĥà½¦
Ġà¼§ à¼£à¼£
Ġà¼§ à¼¤à¼¨
à¾¥ à¾¦à¾¦à¾·
à¼Ģ à½Ħ
à½Ĥà½¦à½¦ à½£
à½ĳà½¦ à½Ģ
Ġà¼¥ à¼¨à¼¢
Ġà¼¥ à¼©à¼¤
Ġà¼¤ à¼¢à¼¨
Ġà¼¤ à¼¥à¼©
à½Ĺ à½Ĥà½¦
à½ĺà½§ à½£
Ġà¼¦ à¼£à¼¢
Ġà¼¦ à¼¨à¼§
Ġà¼¨ à¼¢à¼¨
Ġà¼¨ à¼¦à¼¦
Ġà¼¨ à¼©à¼¨
à½ĭ à½ļ
à¾´ à½¾à¼ĭ
Ġà½ħ à½£
à¾·à½± à½¼à¼ĭ
à½Ĥà½Ķ à½Ĥ
Ġà¼¡à¼¢ à¼¡à¼£
Ġà¼¡à¼¦ à¼¡à¼¦
à¼¢à¼¡à¼¨ à¼¡
à½´à¼ĭà¼Ĳ à¼Ĳ
à½Ķà½ļ à½ĺà½¦
à½²à¼ĭà½Ī à¾²à½ºà¼ĭ
56 9
57 9
58 6
58 8
à½Ĵà½Ĥ à½«à½¥
Ġà¼¡à¼©à¼¨ à¼¥
Ġà¼¡à¼©à¼¨ à¼©
Ġ à½ĸà½Łà½ĳ
Ġ à½ĳà½Ķà½Ħà½¦
à¼ĭ à¾±à½´
à¼ĭ à¾¨à¼ĭà¼į
à½¦ à½¤à½Ĥ
à½ĳ à½Ĳà½Ĥ
à½Ĥ à½Ķà½Ĥà½¦
à½ĸ à½Ĥà½ŀà½Ĥ
à½¢ à½Ĳà½Ĥ
à½¢ à½ĸà½ĳà½ĳ
à½ĵ à½ķà½¢
à½ĵ à½ģà½¢
à½ĵ à½ģà½ł
à½Ħ à½¢à½ĸà½¦
à½ĺ à½Ĥà½ĳà½ĵ
à½ĺ à½ĸà½Ģà½Ĥ
à½ł à½łà½Ĩà½Ħ
à½ł à½Łà½ł
à½²à¼ĭ à½ºà¼ĭà½º
à½Ķ à½Ĥà½ĵà½ĳ
à½Ķ à½ļà½£
à½Ķ à½Įà½İ
à½£ à½ĸà½Łà½ł
à½£ à½¡à½Ħà½¦
à½Ĥà½¦ à½¦à½¢
à½¡ à½Ĳà½ĺà½¦
à½ŀ à½Ĥà½ŀ
à¾Ł à¾²à½±
à¾Ł à¼µà½¼
à½Ĩ à½ĸà½ħà½¦
à¾Ĵ à¼įà¼ĭ
à½ĸà½¦ à½ĵà½¢
à½ĳà½Ħ à½ŀà½ĸà½¦
à½ĳà½Ħ à½Ķà½£
à½ħ à½Ħà½ĵ
à½ħ à½«à½Ĥ
à¾±à½²à¼ĭ à¼įà¼ĭà¼į
à½ģ à½Ĥà½¦à½ĵ
à½Ĳ à½ĸà½Ł
à½Ĳ à½Ĥà½ĵ
à½Ĳ à½ĺà½ĳà½ĳ
à½ķ à½Ķà½¦
à½ķ à½ĸà½ħ
à½ķ à½ĺà½ļ
à½ļ à½Ĥà½ĵà½¦
à½ļ à½Į
à½ĺà½¦ à½ĺà½Ĳà½¢
à½ı à½Ģà½ł
à½ī à½ĺà½ļà½ĵ
à½¤ à½ĳà½ĺ
à½ĳà½Ĥ à½ĸà½Ł
à½Ķà½¢ à½ĸà½¦à½£
à½łà½ĳ à½Ł
à½ĸà½¢ à½ĳà½Ĥà½ł
à½ĵà½¦ à½ĳà½ĳ
à½ĵà½¦ à½Ĥà½¡à½¦
à½ĵà½¦ à½¦à½ĺ
à½Ħà½¦ à½ĸà½ĳ
à½Ħà½¦ à½ĸà½Ģà½ł
à¾³ à¾±à½¼à¼ĭ
à½łà½Ĥ à½ĵà½ĳ
à½£à½¦ à½Ĥà½Ļ
à¾© à½´à¼ĭà¼į
à¾· à½²à¼įà¼ĭ
à¾· à¾³à½±à¾Ģà¼ĭ
à½ĺà½Ĳ à½łà½Ĩ
à½ĺà½ļ à½¡
à¾¨ à¾²à½´à¼ĭ
à½ĳà½ĺ à½ģà½¢
à¾¦ à½´à¼ĭà¼į
à½Ĥà½Ħ à½ī
à½Ĥà½Ħ à½Ļà½ĺ
à½Ľ à½ĳà½Ģà½¢
à½ħà½ĵ à½Ļ
à½ħà½ĵ à½ĺà½ļ
à½ħà½ĵ à½ĳà½Ķà½Ĥ
à½¨ à½ĺà½Ħ
à½¨ à½ĳà½¦
à½ħà½ĳ à½¦à½£
à½ĳà½Ģ à½łà½ģ
à¾³à¼ĭ à¼Ĳ
à¾« à¾Ļà¾°
à½±à¼ĭ à½±à½²à¼ĭ
à½ĺà½ļà½ĵ à½łà½ĳ
à½ĺà½ļà½ĵ à½ĺà½£
à½ĺà½ĳ à½ŀ
à½ĺà½ĳ à½ĸà½ł
à½¾ à½´à¼ĭ
à½Ĥà½¦à½£ à½Ĳ
à½Ĥà½ĵ à½Ģ
à½ĺà½Ĥ à½£à½ĺ
à½ĳà½Ķà½ł à½¨
à½ĸà½Ļ à½£à½ĺ
à½īà½ĺà½¦ à½Ĩà½Ĥà½¦
à½ĳà½ĳ à½ĳà½ĸ
à½Łà½ĳ à½ģ
à½Ķà½ĳ à½ī
à¾¤à¾± à¼µà½²à¼ĭ
à½İ à½ĳà½Ĥ
à½Ĳà½¢ à½Ģ
à½łà½ĸà½¢ à½Ĥ
à½ĳà½Ĥà½Ĥ à½ĳà½ĸà½Ħ
à½¥ à½ĳà½Ħ
à½Ĥà½ıà½ĺ à½£
à½ģà½Ĥ à½Ĥà½¦
à½łà½Ĩà½Ħ à½£
à½ĸà½ĸà½¦ à½Ģ
à½Ĥà½Ħà½¦ à½¦
à½ĳà½Ħà½¦ à½ĺà½¦
Ġà¼¡ à¼¢à¼¢à¼¢
Ġà¼¡ à¼¡à¼¢à¼¢
Ġà¼¡ à¼¡à¼¦à¼¨
à½łà½Ĥà½Ĥà½¦ à½¦
à¼¢à¼¢ à¼¤à¼¡
à¾ª à½±à½²
à½¨à½Ħ à½ĳ
à½ĵà½Ķ à½Ĥà½Ħ
Ġà¼§ à¼§à¼©
Ġà¼§ à¼¥à¼¢
Ġà½ī à½ł
Ġà½Ģ à½ī
à¾ŀ à½¼à½¾à¼ĭ
à¼¢à¼¥ à¼¡à¼¡
à¼¢à¼¦ à¼¡à¼¡
à¼Ģ à½ĸà½¢
à¼¢à¼£ à¼£à¼¡
à½¤à½ĳ à½¦
Ġà½Ł à½¢
à½Ĵ à½ķà½ĳ
Ġà¼¥ à¼§à¼¥
Ġà¼¤ à¼©à¼¥
Ġà¼¤ à¼©à¼£
Ġà½Ĳ à½Ĥà½¦
à½Ĺ à½Ħà½Ł
à¼£à¼£ à¼£à¼¤
à¼£à¼§ à¼¢à¼¡
à¾» à½¼à¼ĭà¼į
Ġà¼¦ à¼§à¼£
à½ĭ à½¥
à½ĭ à½īà½ł
à¼ĭà½¼ à½¾
à¾·à¾± à½±à¼ĭà¼į
à½¡à½ĺà½¦ à½ĺ
à½±à½´à½¾ à½¾à¼į
à¼¤à¼¡ à¼¡à¼§
à¾¡à¾² à½±
Ġà¼¡à¼¢ à¼¡à¼¡
à¼ĭà¾¢ à½±
Ãĥ à½Ĩ
Ãĥ à½Ķà½ł
à¾Łà¾² à½¾à¼į
Ġà¼´ à¼´à¼´
56 1
56 3
56 6
57 3
57 5
55 5
59 2
5 36
Ġ à½Ľà½¦
à¼ĭ à¾µà¼ĭ
à¼ĭ Â©
à½ĳ à½¡à½¦
à½Ĥ à½ģà½£
à½Ĥ à½Ŀà½ı
à½ĸ à½ģà½ł
à½¢ à½Łà½Ĥ
à½¢ à½Ĥà½ĳà½ĵ
à½ĵ à½ĺà½ģà½£
à½ĵ à½Ĩà½ĵ
à½Ħ à½Ĩà½ĳ
à½Ħ à½ĳà½Ĥà½Ĥ
à½Ħ à½¢à½£
à½Ħ à½Ľà½ĳ
à½ĺ à½ĸà½ĸà½¦
à½ł à½¦à½¢
à½ł à½īà½ĺ
à½Ķ à½ĸà½ĸ
à½£ à½ķà½Ĥ
à½£ à½Ļà½Ħ
à½£ à½ĵà½ĺà½ĺà½ģà½ł
à½Ĥà½¦ à½Ĳà½ĸà½¦
à½Ĥà½¦ à½İ
à¾² à¾±à½´
à½ºà¼ĭ à¼ī
à½¡ à½ĺà½ļ
à½Ģ à½ĺà½ļ
à½Ģ à½ĺà½§
à½Ģ à½ģà½Ĥà½Ĥ
à½Ĩ à½Ħà½ĵ
à½Ĩ à½Ŀ
à½ĸà½¦ à½ĸà½Ł
à½ĸà½¦ à½Ħà½ĵ
à½ĸà½¦ à½Ĥà½¦à½¢
à½ħ à½Ĳà½ĺà½¦
à½ģ à½ĸà½Ĥ
à½ķ à½ĺà½Ĥ
à½ļ à½ĺà½Ĥ
à½ĺà½¦ à½Ĥà½¡
à½ı à½Ķà½¦
à½ī à½ĸà½ħ
à½ī à½ĺà½ģà½ł
à½ĳà½Ĥ à½Ħà½Ĥ
à½ĳà½Ĥ à½Ħà½ł
à½Ķà½¢ à½Ĥà½ĵà½Ħ
à½Ķà½¢ à½¤à½¦
à½ĸà½¢ à½Ĥà½ŀà½ĵ
à½ĵà½¦ à½ķà½ĵ
à½Ħà½¦ à½Ĥà½ī
à½ĸà½ŀ à½ĳà½Ħ
à½ĸà½ŀ à½ļ
à½ĸà½ŀ à½£à½¦
à½£à½¦ à½łà½Ľ
à½¡à½Ħ à½łà½Ĩ
à½¡à½Ħ à½ĺà½Ĥ
à½Ķà½¦ à½ĳà½Ķà½£
à½Ķà½¦ à½ŀà½Ĥ
à½Ĥà½ŀ à½£à½ĵ
à½Ļ à½Į
à½ĺà½Ĳ à½łà½ĳà½Ķ
à½ĺà½ļ à½¢à½ĸ
à½Ĥà½Ħ à½¢à½Ħ
à½Ĥà½ĵà½¦ à½Ĥà½ħ
à½Ľ à½¢à½ı
à½Ľ à½Ľà½¢
à½ħà½ĵ à½¢à½ĸ
à½ĺà½ģ à½ģ
à½ĺà½Ħ à½łà½ĸà½¢
à½Ĥà½ı à½ĺà½ĳ
à½¨ à½Ŀà½ĳ
à½§ à½ħà½ĳ
à½ĸà½ĳà½Ĥ à½Ł
à½ĸà½ĳà½Ĥ à½Ĥà½ĺ
à½ĵà½Ħ à½ĺà½Ĩ
à¾Ĺà½ºà¼ĭ à½Īà½²
à½¢à½ĸ à½Ĳ
à½ĺà½ļà½ĵ à½ĳà½Ķà½£
à½Ĥà½¡ à½Ķ
à¾¡à½¼à¼ĭ à¾Ĺ
à½ĸà½¤à½ĳ à½łà½ĳ
à½ĸà½ħà½¦ à½ĸà½¦
à¾Ļà½² à¼µ
à¾Ń à¾Ģà¼ĭ
à½Ĥà½¦à½£ à½łà½Ħ
à½łà½ĳà½¦ à½£à½¦
à½ĸà½¦à½ĺ à½ĳà½Ħ
à½łà½Ĩ à½¢à½¦
à½łà½Ĩ à½Ĥà½¦à½¦
à½ĳà½Ķà½ł à½£à½¦
à½ĺà½Ĳà½ł à½łà½ĺ
à½ĳà½Ķà½£ à½ł
à¾¦à¾± à½´à¼ĭ
à½Ĳà½ĸà½¦ à½ħà½ĳ
à½ģà½ĺà½¦ à½ł
à½ģà½ĺà½¦ à½£à½¦
à½Ħà½Ĥ à½ĸà½ĳ
à¼£ à¼¢à¼£à¼£
à½ĳà½ĳ à½ĳà½ĵ
à½ıà½ĵ à½łà½ĸ
à½ŀà½£ à½ı
à½ĺà½ģà½¦ à½ĺà½Ĩ
à½ĵà½ĳ à½Ĩ
à½ĸà½£ à½Ķ
à½¦à½¢ à½ł
à¾·à½´ à½¾à¼į
à½£à½Ĥà½¦ à½łà½ĳ
à½Ŀ à½«à½Ĥ
à½ĳà½Ķà½Ĥ à½ĳà½Ģà½ł
à½ĸà½ıà½Ĥà½¦ à½ı
à½łà½ĸà½¢ à½ĵ
à½¦à½ĺ à½¤
à½¦à½ĺ à½ĸà½¢
à½¦à½ĺ à½ĸà½ħ
à½±à½´à½¾à¼ĭ à¼´
à½ĵà½ĵ à½Ģ
à½ļà½Ħà½¦ à½¢
à½ħà½Ħ à½Ģ
à½ĸà½ĸ à½Ĳ
à½ĸà½ĸ à½Ķà½¢
à½Į à½Ľ
à½ĺà½ļà½¢ à½ĳ
à½ķà½Ĭ à½¤
à½¢à½£ à½ĳ
Ġà¼¡ à¼¡à¼¡à¼¦
à¾·à½²à¼ĭ à½²
à½Ĩà½Ĥ à½ĸà½Ģà½ł
Ġà½ĸ à½Ĩ
à½ĺà½£ à½ķ
à½¢à½Ĥà½¦ à½¦
à¾ľà½²à¼ĭ à½²
à½Ĩà½ł à½ĵ
à½ĺà½Ĩà½ĵ à½£
à½¦à½¦ à½ŀ
à½ĺà½Ħà½£ à½ĳ
Ġà½ļ à½Ĥ
Ġà¼§ à¼¡à¼©
Ġà¼§ à¼£à¼©
Ġà¼§ à¼¥à¼§
Ġà¼§ à¼£à¼¢
Ġà¼§ à¼§à¼£
Ġà½Ģ à½Ħ
à¾¨à½ºà¼ĭ à¼į
à¼¢à¼© à¼¡à¼¡
à¼¢à¼© à¼¢à¼¢
à½Ĳà½ĺà½¦à½ħà½ĳ à½ī
à¾° à½²
Ġà¼¥ à¼¦à¼©
Ġà¼¥ à¼¨à¼¥
à½Ĥà½ĵà½Ĥ à½Ķ
Ġà¼¦ à¼©à¼¦
à½¦à½Ķ à½ĸ
à¾´ à½¼à¼ĭ
à½Ļà½Ħ à½¥
à¾³à½²à¼ĭ à½´à¼ĭ
à½ĥ à½ĸà½Ľ
à½ĳà½ĺà½¦ à½Ħ
à½²à¼ĭà¼´ à¼´
à¼¢à¼¡à¼¦ à¼£
à¼¢à¼¡à¼¥ à¼¢
à½´à¼ĭà¼Ĳ à¼į
Ãĥ à½ķ
à½ĳà½ĳà½Ķ à½ĺ
56 7
58 0
58 4
à½į à½ĵ
à½ºà¼ĭà½ºà¼ĭ à½ºà¼ĭà½º
Ġà¼¡à¼©à¼© à¼§
à¾·à¾²à½´ à½¾
à¾ªà¾«à¾« à¾·
Ġ à½Ĥà½Łà½¢
à½¦ à½ķà½¢
à½¦ à½Łà½ĵ
à½ĳ à½ĸà½¦à½ĺà½¦
à½ĳ à½ĳà½ĺà½Ħà½¦
à½ĳ à½ĸà½¦à½ĳ
à½Ĥ à½łà½Ĩà½ĳ
à½Ĥ à½Ģà½ĵ
à½ĸ à½ķà½£
à½ĸ à½Ĥà½Łà½ł
à½ĸ à½Ĩà½ł
à½¢ à½Ĥà½ĵà½ĳ
à½¢ à½ĳà½Ĥà½Ĥ
à½¢ à½łà½ĸà½ĳ
à½¢ à½Ĥà½Łà½ł
à½¢ à½ĸà½łà½Ħ
à½ĵ à½ŀà½Ħ
à½ĵ à½ŀà½Ĥà½¦
à½ĵ à½£à½ĳ
à½´ à½¾à¼ĭà¼į
à½Ħ à½Ĥà½ĵà½ĳ
à½Ħ à½Łà½¦
à½Ħ à½¤à½ĺ
à½ĺ à½ĳà½Ĥà½Ĥ
à½ĺ à½£à½Ħ
à½ĺ à½ĺà½ĵà½ĵ
à½ĺ à½Ģà½ĵ
à½ł à½¦à½¦
à½ł à½ıà½ĸ
à½²à¼ĭ à¾ĥà¼ĭ
à½Ķ à½ĸà½Ľ
à½£ à½Ĩà½ĸ
à½£ à½ŀà½Ħ
à½£ à½¡à½ĳ
à½£ à½ĭ
à½Ĥà½¦ à½ĳà½Ĥà½ł
à½Ĥà½¦ à½Ĥà½£
à½¼à¼ĭ à¾±
à½¼à¼ĭ à¾ľà¼ĭ
à½¡ à½ĺà½Ħ
à½¡ à½Ĥà½¢
à½¡ à½ĺà½§
à½ŀ à½¢à½ĸ
à½ŀ à½¥
à½ŀ à½Į
à½Ĩ à½¦à½Ħà½¦
à½ĸà½¦ à½ŀà½¦
à½ĳà½Ħ à½ĳà½Ģ
à½ĳà½Ħ à½łà½Ĳ
à½ĳà½Ħ à½ĺà½ļà½ĺà½¦
à½ħ à½¢à½Ħ
à½ħ à½Ĥà½Ħ
à½ħ à½§
à¾±à½²à¼ĭ à½²à¼ĭà½²à¼ĭ
à½ģ à½¢à½£
à½ģ à½ĵà½ł
à½Ĳ à½ĺà½ļ
à½ķ à½ĺà½ĳ
à½ĺà½¦ à½ĺà½¢
à½ı à½łà½ķà½Ĥà½¦
à¾Ĵà¾± à¾ĥ
à½¤ à½Ħà½Ĥ
à½ĳà½Ĥ à½ĸà½¦à½ĺ
à½ĳà½Ĥ à½ŀà½Ĥ
à½Ķà½¢ à½ĺà½ģà½¦
à½Ķà½¢ à½¦à½ĺà½¦
à½łà½ĳ à½Ĥà½¦à½£
à½ĵà½¦ à½ĺà½ģ
à½ĵà½¦ à½Ĩà½Ĥà½¦
à½Ħà½¦ à½ĺà½Ĩ
à½Ħà½¦ à½ĸà½¤à½ĳ
à½Ł à½Į
à½ĸà½ł à½¤
à½ĸà½ł à½Ĩà½Ħ
à½ĸà½ŀ à½¡
à½łà½ĸ à½ĳà½Ħ
à½£à½¦ à½ĳà½Ķà½£
à½¡à½Ħ à½£à½ĺ
à½Ķà½¦ à½ķà½ĵ
à½Ķà½¦ à½Ħà½¦à½¢
à½ĸà½ħ à½ĳà½Ĥ
à½ĸà½ħ à½łà½Ħ
à¾±à¼ĭ à½¾
à¾Ķ à½¾à¼ĭ
à¾© à½¼à¼ĭà¼į
à¾· à¾²à½±à½²
à½Ļ à½Ģà½¢
à½Ĥà½Ħ à½ĺà½Ĳ
à½Ľ à½ķà½Ĭ
à¾²à½º à¼µ
à½ĺà½Ĩ à½ĵà½ĳ
à½ĺà½ģ à½ĵà½ĳ
à½ĸà½Ł à½ĺà½¦à½ħà½ĳ
à½łà½ķ à½¢à½ĸ
à½ĸà½Ģ à½Ĥà½£
à½Ĥà½ŀà½ĵ à½ģ
à½¢à½ĸ à½ĳà½ĸ
à¾·à¼ĭ à½¾
à½ĺà½ļà½ĵ à½ĺà½Ĩ
à½Ĥà½ĳ à½Ĩ
à½¦à½Ħà½¦ à½ĳ
à½Ļà½ĺ à½ĸà½¢
à¾Ń à½²à¼į
à½łà½ĳà½¦ à½Ĥà½ī
à½łà½Ĩ à½ĳà½ĺ
à½Ĥà½ĵ à½ĺà½ĳ
à¾¡à½¼ à½¾à¼ĭ
à½£à½Ĥ à½¡à½Ħ
à½ĺà½Ĳà½ł à½ĺà½ł
à½ļà½ĳ à½ŀ
à½ĳà½Ĥà½ł à½¤
à½Ĩà½Ĥà½¦ à½ģ
à½ģà½ĺà½¦ à½ļà½ĳ
à½ĺà½ģà½ł à½Ĥà½¦à½Ħ
à½Ħà½Ĥ à½£à½ĺ
à½ģà½Ħ à½ł
à½ģà½Ħ à½Ĩ
à½ĳà½ĳ à½ĵà½¦
à½Ħà½ĵ à½¡
à½Ħà½ĵ à½ŀ
à½ķà½ĵ à½£
à½ķà½ĵ à½Ĩ
à½Ĥà½ĵà½Ħ à½Ħ
à½ıà½ĵ à½ĸà½¦à½ĺ
à½£à½ĵ à½Ģ
à½£à½ĵ à½łà½Ħ
à½ĸà½£ à½¡
à½Ĳà½Ĥ à½ĸà½¦
à½ĳà½¢ à½Ķ
à½ĸà½ıà½Ĥà½¦ à½¡
à½ĵà½ĺà½¦ à½ĺà½ĳ
à½łà½Ĩà½ĳ à½£
à½¼à¼ĭà¼į à¼ĭà¼įà¼ĭ
à½¡à½¢ à½¢
à½ĸà½ĸ à½Ĩ
à½ķà½Ĭ à½Ĩ
à½ĸà½¦à½Ĥà½¦ à½¦
à½ĸà½łà½ĺ à½ĸ
à½£à½Ħà½¦ à½ĺ
à½ĵà½¢ à½ı
à½ĵà½¢ à½łà½Ĥ
à½Ħà½ĺ à½Ħà½¦
à½ĸà½ĵ à½ĸà½ŀ
à½ĸà½¦à½ĳ à½Ķà½¢
à¼ĭà½Ī à¾¤à½º
à½ĳà½ĸà½ĸ à½Ķà½ł
Ġà¼§ à¼£à¼¥
Ġà¼§ à¼©à¼§
Ġà¼§ à¼§à¼¤
à¼¢à¼§ à¼¡à¼¢
à¼¢à¼§ à¼¢à¼¢
à½Ĵ à½ļ
à½Ĵ à½ĸà½Ľ
Ġà¼¥ à¼§à¼£
Ġà¼¤ à¼¨à¼©
Ġà½¨ à½Ķ
Ġà¼¦ à¼£à¼©
Ġà¼¦ à¼£à¼¡
Ġà¼¦ à¼¦à¼©
Ġà¼¦ à¼§à¼¢
à½¦à½ĺà½¦ à½£
à¼¥à¼¥ à¼¥à¼¦
à½łà½ĸà½Ĥ à½Ķ
à¾¶ à¾±
à¼ĭà¼¹ à½º
à¼¦à¼¡ à¼¡à¼¢
à½¦à½ĵà½¦ à½¦
Ġà½łà½ĩ à½¢
Ġà¼¡à¼¤ à¼¡à¼©
à¼¢à¼¡à¼¤ à¼§
à¼¢à¼¡à¼¤ à¼©
à¼ĭà½¼à¼ĭ à½ºà¼ĭà½ºà¼ĭ
à¾²à½±à½²à¼į à¼ĭ
à¾²à¾° à½¾à¼į
à½łà½Ķ à½Ħà½¦
à½ĳà½Ĥà½łà½ĸ à½ĳà½Ħ
à½ĵà½¦à½Ħà½¦ à½¢
à¾¨à¾±à¼ĭ à½¼
58 5
à½ĳà½ĳà½ĸ à½ħ
60 4
à½ºà¼ĭà½ºà¼ĭ à½ºà¼ĭ
à¼ĭà¼µ à¼į
2 à¼¡
6 13
à¼ĭ Â¨Â¶
à½¦ à½ĸà½Łà½ł
à½¦ à½Ĩà½Ħ
à½¦ à½Ģà½ĵ
à½¦ à½łà½ķà½Ħà½¦
à½ĳ à½łà½Ĥà½Ĥ
à½ĳ à½ŀà½Ĥà½¦
à½Ĥ à½łà½Ĥà½Ĥ
à½ĸ à½ĸà½ħà½ł
à½¢ à½Ķà½İ
à½¢ à½ĸà½¢à½ĸ
à½ĵ à½łà½ĸà½ĳ
à½ĵ à½īà½£
à½ĵ à½¨à½Ħ
à½ĵ à½Ĥà½ĵà½Ĥ
à½Ħ à½Ĳà½£
à½Ħ à½Ĥà½ŀà½£
à½Ħ à½ª
à½ĺ à½Ĥà½¦à½¢
à½ĺ à½Ķà½İ
à½ĺ à½ĺà½İ
à½ĺ à½Ķà½Ĥà½¦
à¾± à¾¦à¾·à½±à½²à¼ĭ
à½ł à½¢à½ĺ
à½Ķ à½ĺà½ĳà½ł
à½Ķ à½ķà½¢
à½Ķ à½¡à½Ħà½¦
à½£ à½ĸà½¤à½Ĥà½¦
à½Ĥà½¦ à½Ĥà½¡à½¦
à½Ĥà½¦ à½Ķà½łà½Ħ
à½ºà¼ĭ à½¼à¼į
à½ºà¼ĭ à½¾à¼į
à½¼à¼ĭ à½Īà½ºà¼ĭ
à½¡ à½ıà½ĵ
à½¡ à½ģà½¢
à½Ģ à½ĺà½¢
à½ŀ à½ĵà½Ħ
à½ŀ à½Ĥà½¦à½£
à¾Ł à¾Łà½ºà¼ĭ
à¾Ł à¾¡à½ºà¼ĭ
à¾Ł à¾±à¼į
à¾Ĵ à½¾à¼į
à½ĸà½¦ à½ĸà½¤à½ĳ
à½ĸà½¦ à½Ĥà½Ļ
à½ĸà½¦ à½Ħà½Ĥ
à½ĳà½Ħ à½ĸà½Ł
à½ĳà½Ħ à½łà½ļ
à½Ĳ à½łà½Ĥ
à½Ĳ à½ĺà½ļà½ĵ
à½ķ à½Ĥà½¢
à½ļ à½Ĥà½ı
à½ļ à½ĸà½Ģ
à½ļ à½ĸà½£
à½ĺà½¦ à½ĺà½£
à½ı à½ĺà½¢
à½ı à½Ķà½ĳ
à½¤ à½ĺà½Ĩ
à½¤ à½ĺà½ĳ
à½¤ à½ĳà½ĳ
à½¤ à½¤à½¢
à½ĳà½Ĥ à½£à½ĵ
à½Ķà½¢ à½Ļ
à½Ķà½¢ à½ĺà½ļà½ĵ
à½łà½ĳ à½¡
à½łà½ĳ à½ĳà½Ĥ
à½łà½ĳ à½ĺà½Ĥ
à¾£ à¾²à½ºà¼ĭ
à½ĵà½¦ à½¦à½¢
à½ĵà½¦ à½īà½ĵ
à½ĵà½¦ à½¡à½ĸ
à½Ł à½Ĥà½ĵà½¦
à½Ł à½Ĥà½¤
à½ĸà½ł à½łà½Ĥ
à½łà½Ĥ à½ĵà½Ħ
à½łà½Ĥ à½ıà½ĵ
à½ĸà½ŀ à½Ĥà½Ł
à½ĸà½ŀ à½ĳà½Ĥà½ĳ
à¾±à½¼ à½¾à¼ĭ
à½£à½¦ à½ĺà½Ĳà½¢
à¾Ĺ à¼µà½º
à½Ķà½¦ à½ĺà½ļà½ĺà½¦
à¾Ķ à½´à¼ĭà¼į
à½Ĥà½ŀ à½Ĥà½Ħ
à½¢à½Ħ à½łà½ĳ
à¾²à¼ĭ à½µ
à¾¨ à½¾
à½ĸà½ĳ à½Ĩà½ĳ
à½Ĥà½ĵà½¦ à½łà½ĩ
à½Ľ à½Ĥà½¤
à½Ľ à½Ľà½ĳ
à½ħà½ĵ à½ĺà½ĳ
à½ħà½ĵ à½Ħà½ĺ
à½ĺà½Ħ à½¡à½Ħ
à½ĸà½Ł à½ĳà½ĸ
à½łà½ķ à½ĳà½¦
à½ĳà½ĸà½Ħ à½ĸà½ł
à½¨ à½¢à½ı
à½Ĳà½ĺà½¦ à½ĺà½¦
à¾« à½¼à¼ĭà¼į
à½Ĥà½ŀà½ĵ à½ļ
à½£à½ĺ à½īà½ĺà½¦
à½ĺà½ļà½ĵ à½łà½ķ
à½ĺà½ł à½Ħà½¦
à½ĸà½¦à½ĺ à½Ĥà½¦
à½Ĥà½ĵ à½łà½ĳ
à½Ĥà½ĵ à½ĺà½ģà½ł
à½ĸà½Ļ à½ĵà½ĺ
à½ĸà½Ļ à½¦à½¦
à½ĳà½Ķà½£ à½ĺà½Ĩ
à¾¦à¾± à½±à¼ĭ
à½Ĳà½ĸà½¦ à½£à½¦
à½Ħà½Ĥ à½łà½Ĥ
à½ĳà½ĳ à½Ĥà½¦
à½Ĥà½ıà½ĵ à½Ĩ
à½ĸà½ŀà½Ĥ à½ĸà½ĳ
à½łà½ķà½Ĥà½¦ à½ĸà½ł
à½ĺà½ĵ à½Ķà½¢
à½¡à½ĵ à½ŀ
à½Ĳà½¢ à½ı
à¾±à¼į à¼ĭà¼įà¼ĭ
à½ĳà½¢ à½Ĥà½¦
à½Ŀ à½Ħà½Ĥ
à½Ŀ à½¦à½¦
à½Ĳà½Ħ à½Ĳà½ĸà½¦
à½łà½Ĩà½ĳ à½ĸà½¢
à½Ģà½¢ à½ĳà½Ħ
à½ĳà½Ĥà½Ĥ à½Ĳ
à½¥ à½Ĭà½¢
à½±à½´à½¾à¼ĭ à¼Ĳ
à½ļà½Ħà½¦ à½¦
à½ĸà½¦à½£ à½¢
à½ķà½Ĭ à½ĺà½ĳ
à½ķà½Ĭ à½£à½ĵ
à½ĸà½ĺ à½Ĥà½ı
à½Ĥà½ıà½ĳ à½ĵ
à½¦à½Ħ à½Ķ
à½Ħà½£ à½¢
à½£à½Ħà½¦ à½¦
à¾«à½´ à½¾à¼ĭ
à¾¦à¾² à¾Ģ
à½łà½ĸà½ł à½¢
à½łà½ĳà½ł à½ŀ
à½ĺà½ĵà½ĵ à½ħ
à½±à½´à¾ĥ à¾ĥà¼ĭ
à¼¢à¼¢ à¼¡à¼£
à¼¢à¼¢ à¼¡à¼¦
à¼¢à¼¢ à¼¥à¼§
à¼¢à¼¢ à¼¤à¼£
Ġà¼§ à¼¢à¼©
Ġà¼§ à¼¥à¼¨
à¾ļ à½´à½¾à¼ĭ
à¾ŀ à½ºà¼į
à¼¢à¼¥ à¼£à¼¢
à½¦à½ĵ à½¡à½Ħ
à¼Ģ à½ĳà½ĺà½¢
Ġà½¡ à½ĺà½¦
Ġà½Ĥà½¡ à½ĵ
à½Ĳà½ĺà½¦à½ħà½ĳ à½¢à½Ħ
à¾Ĳà¾±à½ºà¼į à¼ĭà¼į
Ġà¼¥ à¼§à¼§
Ġà¼¥ à¼©à¼©
Ġà¼¥ à¼¦à¼¤
Ġà¼¤ à¼©à¼¡
à½Ĺ à½Ĭ
Ġà½¨ à½¥
Ġà¼¦ à¼£à¼¨
à¾¡à¾· à¾±
à¾¡à¾· à½±à½´
à¾¡à¾· à¾ĥà¼į
à¾ł à½¼à¼į
Ġà¼© à¼¢à¼¤
Ġà¼© à¼©à¼§
à¼£à¼¡ à¼¡à¼¢
à½Ķà½ĳà½Ħ à½Ķ
à½ĥ à½Ħ
Ġà¼¡à¼© à¼¤à¼©
à½ĳà½ĺà½ļ à½Ĥ
à¼ĭà¼įà¼ĭà¼į à¼ĭà¼į
Ãĥ à½ģ
Ãĥ à½ĸà½¢
Ãĥ à½¨
à½£à½ĺà½ģà½¦ à½Ķ
à½ļà½ĳà½ĺ à½ĺ
à½łà½Ļ à½ĺà½¦
à¼ĭà¾§ à½¼à¼ĭ
56 8
57 4
58 2
Ġà¼¡à¼©à¼© à¼¦
à¼ĭ à¾¥à¼ĭ
à½¦ à½Ĥà½ıà½ĳ
à½¦ à½Ĥà½ĳà½Ĥà½¦
à½¦ à½ĵà½Ķ
à½¦ à½Ĥà½¦à½¦
à½ĳ p
à½ĳ à½ıà½ĵ
à½ĳ à½łà½ļà½£
à½ĳ à½łà½Ĥà½ł
à½Ĥ à½ĸà½ĸà½¦
à½Ĥ à½ģà½ĸ
à½Ĥ à½Ķà½ī
à½ĸ à½¡à½ł
à½¼ à½ºà¼į
à½ĵ à½ĸà½ıà½ĸ
à½ĵ à½łà½ĳà½ĺ
à½Ħ à½ĸà½łà½Ħ
à½ĺ à½Ĥà½¦à½ĵ
à½ł à½¦à½Ħ
à½ł à½ĵà½¢
à½Ķ à½Ĥà½Łà½ł
à½Ķ à½Ħà½¢
à½Ķ à½Ĩà½ł
à½£ à½ŀà½Ĥà½¦
à½Ĥà½¦ à½Ĥà½Ł
à½Ĥà½¦ à½Ĥà½¢
à½´à¼ĭ à½¾à¼ĭ
à½¡ à½Ĥà½£
à½Ģ à½ħà½ĳ
à½Ģ à½ĺà½Ĥ
à½Ģ à½ļà½ĳ
à½Ģ à½ıà½ĵ
à½Ĩ à½ĺà½ĳ
à½Ĩ à½ĺà½Ĥ
à½Ĩ à½ħà½¦
à½Ķà½ł à½ļà½ĳ
à½ħ à½ļà½ĳ
à¾±à½²à¼ĭ à¾£
à½ģ à½łà½ķ
à½ļ à½ĺà½¢
à½ĺà½¦ à½Ĥà½ŀ
à½ĺà½¦ à½ĳà½Ķà½£
à½ĺà½¦ à½ĸà½Ģà½ł
à½ĺà½¦ à½ļà½¢
à½¤ à½Ĥà½ĳ
à¾Ĳ à½±à¼ĭà¼į
à½Ķà½¢ à½ĸà½Ļ
à½łà½ĳ à½£à½¦
à½ĸà½¢ à½Ĩà½Ĥà½¦
à½ĵà½¦ à½ĳà½Ķà½ł
à½ĵà½¦ à½Ĥà½ıà½ĵ
à½ĵà½¦ à½£à½ĵ
à½ĵà½¦ à½ĺà½ļà½ĺà½¦
à½ĵà½¦ à½Ĥà½ĳà½ĵ
à½ĵà½¦ à½Łà½¦
à¾¡ à¼µà¼ĭ
à½ĸà½ŀ à½ī
à½£à½¦ à½ĳà½ĳ
à½£à½¦ à½ĺà½ģà½ĵ
à½Ķà½¦ à½Ķà½ĳ
à½Ķà½¦ à½łà½Ĩà½ĳ
à½Ķà½¦ à½ĵà½ĵ
à½ĳà½ĸ à½£à½¦
à½Ĥà½ŀ à½¡
à½Ļ à½Ĥà½ħ
à½¢à½Ħ à½ķ
à½ĺà½ļ à½ĺà½ī
à¾¨ à¾ĥà¼ĭ
à½ĳà½ĺ à½ħ
à½ĳà½ĺ à½Ľà½ł
à½łà½ĩ à½Ķ
à½Ĥà½Ħ à½Ģ
à½Ĥà½ĵà½¦ à½ĸà½ł
à½Ĥà½ĵà½¦ à½ĺà½ļ
à½Ľ à½łà½Ĥ
à½Ľ à½ĸà½ĳ
à½ħà½ĵ à½ĺà½ļà½ĵ
à½ĺà½ģ à½ħ
à½ĺà½ģ à½£à½ĺ
à½ĺà½Ħ à½¢à½ĸ
à½Ĥà½ı à½ĳà½Ķà½ł
à½ĳà½ĸà½Ħ à½¡
à½ĳà½ĸà½Ħ à½ĳà½ĸà½Ħ
à½¨ à½¡à½ł
à½ħà½ĳ à½Ķà½¦
à½ħà½ĳ à½łà½ķ
à½ħà½ĳ à½Ĳà½ĺà½¦
à½§ à½ķà½Ħ
à½ĸà½ĳà½Ĥ à½Ļ
à¾³à¼ĭ à½´
à¾³à¼ĭ à½º
à¾« à¾Ńà¼ĭ
à½Ĥà½ŀà½ĵ à½ħ
à½Ĥà½ŀà½ĵ à½ķ
à½Ĥà½ŀà½ĵ à½łà½ĸ
à½ĺà½ļà½ĵ à½ĺà½Ħ
à½ĸà½ı à½ĵà½¦
à½Ļà½ĺ à½¤
à½ĺà½Ľà½ĳ à½łà½ĳ
à½łà½ĳà½¦ à½ķ
à½łà½Ĩ à½ĳà½Ħ
à½łà½Ĩ à½ĳà½¢
à½£à½Ĥ à½Ĥà½ŀà½ĵ
à½ĺà½Ĳà½ł à½ĺà½¢
à½ļà½ĳ à½ĸà½¦
à½ĸà½Ģà½ł à½ĸà½¢
à½ĳà½Ģà½¢ à½ŀ
à¾Ĳà¾± à¾Ĳà½¼
à½ģà½ĺà½¦ à½ĺà½¦
à½ĳà½ĳ à½ĳà½Ĥ
à½±à½´ à¼µà¼į
à½ķà½ĵ à½ĸà½ıà½Ĥà½¦
à¾¤à¾± à¾±à½²
à½ĸà½ŀà½Ĥ à½ĳà½ĸ
à½ĵà½Ĥ à½Ĥà½¦
à¼¦ à¼¡à¼¡à¼¡
à½łà½ķà½Ĥà½¦ à½Ģ
à½Ŀ à½ĵà½ĺ
à½Ĳà½Ħ à½¢
à½łà½ĺ à½Ĥà½¦
à½łà½ĺ à½łà½ĸ
à½ĳà½Ķà½Ĥ à½Ķà½ł
à½Ĥà½¡à½¦ à½Ĥ
à½ĸà½Ľ à½¡
à¾Ĵà¾² à¾Ģà¼ĭ
à½Ĥà½Ļà½Ħ à½ĸà½ł
à½ĳà½ĺà½Ĥ à½ĺ
à½¦à½ĺ à½ĺà½Ĩ
à½ģà½¦ à½ĳ
à½ĳà½Ĥà½Ĥ à½Ķà½¢
à½ĳà½Ĥà½Ĥ à½ĸà½Ģà½Ĥ
à½¥ à½Ĳ
à½łà½Ĩà½¢ à½£
à½¡à½¢ à½ļ
à½ħà½Ĥ à½Ĥà½¦
à½¦à½ł à½ĸà½ł
à½ĺà½ĳà½ł à½ĳà½Ħ
à½łà½ĳà½ĸ à½ĺà½¢
à½łà½ĸà½ĳ à½Ŀ
à½ĸà½ĺ à½łà½Ĥ
à½Ĩà½Ħ à½ĺ
à¾µ à½¾
à¾µ à¾ŀ
à½ĳà½ĵ à½łà½ĳ
à¾Ĵà½º à½¾
à½łà½Ĥà½Ĥà½¦ à½ĵà½¦
à½Ĥà½Łà½ł à½ĳà½Ħ
à¾ª à½±à½´à¼ĭ
à½¦à½¦ à½¦à½ĸ
à½ĺà½Ħà½£ à½ĵà½¦
à¾Ńà½± à½¼à½¾à¼ĭ
Ġà¼§ à¼¢à¼¤
Ġà¼§ à¼£à¼¨
Ġà¼§ à¼©à¼©
à½ĺà½ĺ à½ĸ
Ġà½ĸà½¦ à½ĵ
à¾ļ à½±à¾ĥà¼ĭ
à½¦à½ĵ à½Ĩ
à¼¢à¼© à¼¤à¼¢
Ġà¼¥ à¼£à¼¥
Ġà¼¥ à¼¥à¼©
Ġà¼¥ à¼©à¼¡
Ġà¼¤ à¼¨à¼¨
Ġà¼¤ à¼¨à¼¦
Ġà½¨ à½ī
Ġà¼¦ à¼£à¼¤
Ġà¼¦ à¼¦à¼§
à¼£à¼¨ à¼£à¼£
à¼£à¼© à¼¥à¼¡
Ġà¼¨ à¼¢à¼©
Ġà¼¨ à¼£à¼¦
Ġà¼¨ à¼¦à¼¢
à¾´ à½º
à½Ķà½ŀ à½ĳ
Ġà¼¡à¼© à¼¥à¼¦
à¼¢à¼¡à¼¦ à¼¢
à½¢à½ĸà½ı à½ĸ
à½ĸà½ĩ à½ĺ
à½±à½¼ à½´à¾ĥà¼ĭ
57 0
57 6
55 9
60 8
à½ħà½ĳà½Ĥ à½¡
à½²à¼ĭà¼ī à¼ĭ
Ã ¡
Ġ à½łà½Ĩà½ĸ
Ġ à½ĺà½Ĥà½£
à¾ §
à½¦ à½Łà½ĺ
à½¦ à½Łà½ł
à½ĳ à½łà½ĸà½ł
à½ĳ à½ĳà½Ķà½Ħ
à½ĳ à½¤à½ĳ
à½Ĥ à½ĸà½ıà½ĸ
à½Ĥ à½Ĥà½ŀà½Ĥ
à½Ĥ à½ģà½ĵ
à½ĸ à½Ķà½ĺ
à½¢ à½Ĥà½ĵà½ĺ
à½¢ à½¢à½ł
à½¢ à½Ĥà½ĳà½Ĥà½¦
à½ĵ à½Ĩà½Ĥ
à½ĵ à½ĸà½¦à½ĳ
à½ĵ à½ĸà½Ļà½£
à½ĵ à½Łà½Ħà½¦
à½ĵ à½ħà½¦
à½Ħ à½ĸà½ħà½ĳ
à½ĺ à½ĳà½Ģà½ł
à½ĺ à½Ķà½łà½Ħ
à½ł à½Ĥà½¦à½Ħ
à½ł à½ĺà½īà½ĺ
à½ł à½ĸà½ŀà½Ĥ
à½ł à½ĸà½¦à½ĸ
à½²à¼ĭ à¾Ĳ
à½²à¼ĭ à¾Ģà¼ĭ
à½Ķ à½Ĩà½ĸ
à½£ à½ĳà½ĵ
à½£ à½Ĥà½ĳà½Ĥà½¦
à½ºà¼ĭ à¼ĭ
à½´à¼ĭ <
à½´à¼ĭ à¼Ŀ
à½¡ à½ģà½ģ
à½Ģ à½Ĥà½ĳ
à½Ķà½ł à½Ĥà½¦
à½ĸà½¦ à½łà½ķ
à½ĸà½¦ à½ŀà½£
à½ĸà½¦ à½ĳà½¢
à½ģ à½Ĥà½Ļ
à½ģ à½ļà½ĳ
à½ģ à½ģà½Ĥ
à½Ĳ à½ķà½ķ
à½ķ à½ĸà½ł
à½ļ à½ļà½Ħ
à½ļ à½Ŀ
à½ĺà½¦ à½Ĥà½¦à½£
à½ı à½Ĥà½Ħ
à½ī à½ĳà½Ĥ
à½ī à½īà½ĺà½¦
à½ī à½ĺà½£
à½¤ à½ĸà½¢
à½¤ à½£à½ĺ
à½¤ à½ĳà½£
à½ĳà½Ĥ à½Ĥà½ı
à½ĸà½¢ à½Ķà½ł
à½ĸà½¢ à½ĸà½Ģ
à¾£ à¾±à¼ĭ
à¾¡ à½±à½´
à¾¡ à¾²à½¾à¼ĭ
à½ĸà½ł à½ĺà½ĵ
à½ĸà½ŀ à½ĸà½ŀà½Ĥ
à½łà½ĸ à½ĸà½¢
à½Ķà½¦ à½Ĥà½¤
à½Ķà½¦ à½ĺà½¢
à½Ķà½¦ à½¦à½ĺà½¦
à½ĸà½ħ à½łà½ĳ
à¾© à¾²à½²à¼ĭ
à¾²à½² à¼´
à¾Ļ à½±à½´à¼ĭ
à½ĳà½ĺ à½ĺà½Ĩ
à½ĳà½ĺ à½Ĥà½¢
à½Ĥà½ĵà½¦ à½ģà½Ħ
à½Ľ à½ĳà½ĸ
à½Ľ à½ĵà½ĺ
à½ĳà½ĸà½Ħ à½Ł
à½¨ à½łà½ĩ
à½¨ à½ĸà½Ģ
à½¨ à½ĺà½ļà½ĵ
à½¨ à½ģà½ĺà½¦
à½¨ à½ļà½ĵ
à½¨ à½ĳà½ł
à½¨ à½¨à½¦
à½ħà½ĳ à½Ķà½¢
à½§ à½¢à½ı
à¾²à½¼à¼ĭ à¼º
à½Ĥà½ŀà½ĵ à½ĺà½Ħ
à½¢à½ĸ à½ĺà½ļ
à½ĺà½ļà½ĵ à½ħ
à½ĺà½ļà½ĵ à½Ķà½¢
à½ĸà½¤à½ĳ à½ł
à½ĺà½ĳ à½Ĩ
à½ĸà½ħà½¦ à½Ħ
à¾²à½²à¼ĭ à¾İ
à½Ĥà½¦à½£ à½¤
à½Ĥà½¦à½£ à½£à½¦
à½ļà½ĳ à½Ĩ
à½ĳà½Ĥà½ł à½Ĳ
à½ĳà½Ĥà½ł à½łà½ĺ
à½ĺà½¢ à½łà½ĳ
à½ĳà½Ģà½¢ à½Ĩ
à¾Ńà¼ĭ à¼Ĳ
à¼¤ à¼¡à¼¥à¼¤
à½ŀà½£ à½ķ
à½ŀà½£ à½Ĥà½Ł
à½ļà½Ħ à½ĸà½¢
à½ĺà½Ĳà½¢ à½¨
à½£à½ĵ à½Ķà½ł
à½£à½ĵ à½Ļ
à½Ĳà½¢ à½ĳà½Ħ
à½Ĭ à½¥
à½ĸà½ıà½Ħ à½Ħ
à¾³à½´à¼ĭ à½±à¼ĭ
à½£à½Ĥà½¦ à½Ķà½ł
à½£à½Ĥà½¦ à½Ķà½¢
à½ĳà½¢ à½ļ
à½łà½ĩà½ĺ à½£
à½±à½²à¼ĭ à½¾
à½Ĥà½¡à½¦ à½ĺà½Ĩ
à½ĸà½Ľ à½Ľ
à½ĸà½Ľ à½ĺà½§
à½ĵà½ĺà½¦ à½ĳ
à½¡à½¦ à½¡
à½łà½ĸà½¢ à½ĳ
à½ļà½ĵ à½łà½ĳ
à½Ĥà½Ļà½Ħ à½£
à½ĺà½Ħà½ł à½ĸà½¦
à½ŀà½Ĥ à½Ĥà½¦
à½¡à½¢ à½ĵ
Ġà½¦ à½Ļ
à½Ķà½łà½Ħ à½¢
à½Ķà½łà½Ħ à½¡
à½ĸà½ĸ à½ĳà½Ħ
à½ĸà½¦à½ĺà½¦ à½ĸ
à½ķà½Ĭ à½łà½ĳ
à½ĳà½ĺà½ĵ à½ĸ
à½Ĩà½Ĥ à½Ķà½ł
à½Ĩà½Ĥ à½Ĥà½ī
Ġà½ĳ à½İ
à½ĳà½£ à½£
à½ķà½ĺ à½ĸ
à½ķà½ĸ à½Ķà½ł
à¾µ à¼įà¼ĭ
à½ĸà½ĵ à½Ķà½ł
à½ĸà½Ħ à½ĺà½Ľ
à¼¢à¼¢ à¼¤à¼¨
à¼¢à¼¢ à¼¥à¼¡
à½¢à½Ģ à½¤
à¾¡à¾·à¼ĭ à½µ
Ġà¼¢ à¼¡à¼¡à¼©
Ġà½ļ à½ĺ
Ġà½ļ à½ļ
à½Ĥà½ĳà½ł à½¢
Ġà½Ĥ à½ĳà½Ħ
à½ĵà½Ķ à½ļ
Ġà¼§ à¼¦à¼¨
Ġà½Ģ à½ĳ
à¾ľà¼ĭ à½±à¼ĭ
à¼¢à¼¤ à¼¢à¼§
Ġà½ģ à½ĸà½¦
à½łà½Ĩà½£ à½Ķ
à½Ĥà½īà½ł à½¤
Ġà¼¥ à¼£à¼¡
Ġà¼¤ à¼¤à¼©
à¾» à¾»à¼ĭ
Ġà¼¦ à¼¥à¼§
Ġà¼¦ à¼¥à¼¨
Ġà¼¦ à¼¦à¼¥
Ġà¼¦ à¼©à¼¨
Ġà¼¦ à¼§à¼¦
Ġà¼¨ à¼¢à¼¦
à½¦à½Ģ à½ĺ
à½ĭ à½¤
à¼ĭà¾ ¶
à¼ĭà½¼ à¾±à½²
à½ĳà½ĸà½ł à½ĵ
Ġà½§ à½£
à¼§à¼¦ à¼§à¼§
Ġà¼¡à¼© à¼¡à¼¢
Ġà¼¡à¼© à¼¦à¼¥
à¼¡à¼¡à¼£ à¼¡à¼¢
à½Ķà½ı à½ı
Ãĥ à½Ĥà½ī
à½ĸà½¦à½ĺà½Ĥà½ıà½ĵ à½ĳà½Ħ
à½ĳà½Ļ à½ĳ
59 8
60 3
à¼ĭà¾ĵ à½±à¼ĭ
à¼ĭà½ºà¼ĭà½ºà¼ĭ à½ºà¼ĭà½º
à¾µà¾¨à¾¼à¾» à½´à½¾à¼ĭ
6 11
Â Ĳ
Ġ à½Ĥà½ıà½ĺà½¦
Ġ à¼Ģà½ĺ
à½¦ à½Ĥà½ĺ
à½ĳ à½łà½Ĩà½¢
à½ĳ à½¨à½ĵ
à½ĳ à½ĳà½Ĥà½ĵ
à½Ĥ à½ĸà½¦à½£
à½Ĥ à½ĳà½ĺà½ł
à½ĸ à½ģà½¢
à½ĸ à½ĸà½łà½ĺ
à½ĸ à½¡à½ĳ
à½ĸ à½Ķà½ĳà½Ħ
à½¢ à½¢à½Ĥà½¦
à½ĵ à½ļà½£
à½ĵ à½Ĥà½īà½ĵ
à½Ħ à½łà½Ĥà½£
à½Ħ à½ģà½¦
à½Ħ à½ĺà½ĳà½ł
à½Ħ à½īà½ĺ
à½Ħ à½Ķà½Ĥ
à½ĺ à½Ĥà½ĵà½ĳ
à½ĺ à½ĺà½ļà½¢
à½ĺ à½ķà½ĺ
à½ĺ à½Ķà½ĺ
à½ĺ à½ıà½ĺ
à½ĺ à½Ķà½ĳà½Ħ
à¾± à½±à½´
à½ł à½łà½Ĩà½ĳ
à½ł à½ĵà½ĵ
à½Ķ à½ĸà½ıà½Ĥà½¦
à½Ķ à½Ĥà½ĺ
à½Ķ à½¡à½ĳ
à½Ĥà½¦ à½ĸà½Ĥ
à½Ĥà½¦ à½Ĥà½ĵà½Ħ
à½Ĥà½¦ à½ĺà½Ħà½ł
à½¼à¼ĭ à¾Ģ
à½¼à¼ĭ à¼ģà¾ĥ
à½¡ à½ļà½ĺà½¦
à½Ģ à½ĳà½Ģ
à½Ģ à½¡à½ĸ
à½Ģ à½īà½ł
à½ŀ à½ĵà½Ĥ
à½ŀ à½ŀà½ĵ
à½Ĩ à½Ķà½£
à½Ķà½ł à½ĺà½Ľ
à½ħ à½«à½Ħ
à½ģ à½ĳà½Ķà½£
à½ķ à½¢à½Ħ
à½ķ à½Ĥà½£
à½ķ à½ĸà½£
à½ļ à½łà½ĩ
à½ļ à½Ĳà½ĺà½¦
à½ļ à½ļà½¢
à½ļ à½ĳà½ĺà½ĳ
à½ĺà½¦ à½Ĥà½ĳ
à½¤ à½łà½ķ
à¾Ĳ à¾³à½¼à¼ĭ
à½ĳà½Ĥ à½Ļà½ĺ
à½Ķà½¢ à½§
à½Ķà½¢ à½ĸà½łà½ĸ
à½ĸà½¢ à½ĸà½ıà½Ĥà½¦
à½ĵà½¦ à½ļà½ĳ
à½ĵà½¦ à½Ŀ
à½Ħà½¦ à½Ĥà½ŀ
à½Ħà½¦ à½ĺà½Ĳà½ł
à½Ł à½ĺà½Ĳ
à½Ł à½Ħà½ĺ
à½ĸà½ł à½ĺà½ģ
à½ĸà½ł à½Ĳà½ĳ
à½łà½ĸ à½¡
à½£à½¦ à½ĺà½¢
à½£à½¦ à½ģà½ĺà½¦
à½£à½¦ à½ĺà½ģà½ł
à½£à½¦ à½¡à½ĵ
à½£à½¦ à½Ĳà½ĺà½¦à½ħà½ĳ
à¾¤ à½±à¼į
à½¡à½Ħ à½ĳà½ĸà½Ħ
à½¡à½Ħ à½Ĥà½Ļ
à½¡à½Ħ à½łà½Ĳ
à½Ķà½¦ à½ļà½Ħà½¦
à¾±à¼ĭ à½ºà¼ĭ
à¾· à¾ľ
à¾· à¾²à½²à¼į
à½Ĥà½ŀ à½¡à½Ħ
à½¢à½Ħ à½ĸà½¦
à½¢à½Ħ à½ĳà½Ĥ
à½ĺà½Ĳ à½ı
à¾¦ à¾¦à½±
à½ĳà½Ķ à½Ĭ
à½ĸà½ĳ à½ĵà½¦
à½ĸà½Ł à½Ĳ
à½łà½ķ à½ĺà½¦
à½łà½ķ à½Ĥà½ĺ
à½łà½ķ à½¢à½ĺ
à½Ĥà½ı à½ĳà½ĺ
à½ĳà½ĸà½Ħ à½ĸà½¢
à½¨ à½Ķà½ĳ
à½¨ à½Ŀà½¢
à½Ĳà½ĺà½¦ à½ŀ
à½ħà½ĳ à½ı
à½ĳà½Ģ à½ļ
à¾³à¼ĭ à½¼à¼ĭ
à½£à½ĺ à½ĺà½Ĳà½¢
à½ĺà½ļà½ĵ à½ĺà½ļ
à½ĺà½ļà½ĵ à½ĳà½Ķ
à¾¡à½´ à½²
à½Ĥà½ĳ à½¡à½Ħ
à¾²à½²à¼ĭ à½¾
à½ĺà½ł à½Ĳà½ĳ
à¾Łà½ºà¼ĭ à¼įà¼ĭ
à½¾à¼ĭ à½²à¼ĭ
à½ĸà½¦à½ĺ à½£à½¦
à½ĳà½Ķà½ł à½ĺà½īà½ĺ
à¾³à½¼à¼ĭ à½¼
à¾Ĳà½´ à¼´
à½£à½Ĥ p
à½£à½Ĥ à½¢à½Ħ
à½łà½ļ à½ĸà½ł
à½ĸà½Łà½Ħ à½ĸà½¦
à½ĵà½ĺ à½ĵà½¦
à½ĵà½ĺ à½ĳà½Ħà½¦
à½ļà½ĳ à½łà½ĸ
à½ĳà½Ģà½¢ à½ĳà½Ħ
à½Ĳà½ĸà½¦ à½Ķ
à½Ĳà½ĸà½¦ à½ģ
à½Ĳà½ĸà½¦ à½£à½ĺà½ģà½¦
à½ģà½ĺà½¦ à½Ĥà½ŀà½ĵ
à½ĺà½ģà½ł à½ŀ
à½ĳà½ĳ à½ļ
à½ĳà½ĳ à½łà½ĸ
à¼¤ à¼£à¼¤à¼¤
à½ķà½ĵ à½ķ
à½Ĥà½ıà½ĵ à½ŀ
à½Ĥà½ıà½ĵ à½¤
à½ıà½ĵ à½ĳà½Ĥ
à½£à½ĵ à½¡
à½ĳà½ĺà½¢ à½ĳ
à½Ĳà½¢ à½¡
à½Ĳà½¢ à½łà½ĳ
à½Ĭ à½Ŀ
à½Ŀ à½Ķà½ĳ
à½±à½²à¼ĭ à¼Ĳ
à½łà½ļà½£ à½ĸà½¢
à½ļà½ĵ à½ĺà½ģ
à½Łà½¦ à½Ĥ
à½¦à½ĺ à½¨
à½Ķà½łà½ĺ à½¤
à½¥ à½ĸà½¦
à½¥ à½Ł
à½ģà½Ĥ à½Ģ
à½¡à½¢ à½ĳ
à¾±à½´à¼ĭ à½²
à½ĸà½Łà½ł à½ŀ
à½Ķà½łà½Ħ à½ĳ
à½ĺà½ĳà½ł à½ĵ
à½ĳà½Ħà½¦ à½¦
à½¢à½£ à½Ħà½¦
à½ĸà½ħà½ł à½£
[...]
