{"<s>":0,"<pad>":1,"</s>":2,"<unk>":3,"<mask>":4,"!":5,"\"":6,"#":7,"$":8,"%":9,"&":10,"'":11,"(":12,")":13,"*":14,"+":15,",":16,"-":17,".":18,"/":19,"0":20,"1":21,"2":22,"3":23,"4":24,"5":25,"6":26,"7":27,"8":28,"9":29,":":30,";":31,"<":32,"=":33,">":34,"?":35,"@":36,"A":37,"B":38,"C":39,"D":40,"E":41,"F":42,"G":43,"H":44,"I":45,"J":46,"K":47,"L":48,"M":49,"N":50,"O":51,"P":52,"Q":53,"R":54,"S":55,"T":56,"U":57,"V":58,"W":59,"X":60,"Y":61,"Z":62,"[":63,"\\":64,"]":65,"^":66,"_":67,"`":68,"a":69,"b":70,"c":71,"d":72,"e":73,"f":74,"g":75,"h":76,"i":77,"j":78,"k":79,"l":80,"m":81,"n":82,"o":83,"p":84,"q":85,"r":86,"s":87,"t":88,"u":89,"v":90,"w":91,"x":92,"y":93,"z":94,"{":95,"|":96,"}":97,"~":98,"¡":99,"¢":100,"£":101,"¤":102,"¥":103,"¦":104,"§":105,"¨":106,"©":107,"ª":108,"«":109,"¬":110,"®":111,"¯":112,"°":113,"±":114,"²":115,"³":116,"´":117,"µ":118,"¶":119,"·":120,"¸":121,"¹":122,"º":123,"»":124,"¼":125,"½":126,"¾":127,"¿":128,"À":129,"Á":130,"Â":131,"Ã":132,"Ä":133,"Å":134,"Æ":135,"Ç":136,"È":137,"É":138,"Ê":139,"Ë":140,"Ì":141,"Í":142,"Î":143,"Ï":144,"Ð":145,"Ñ":146,"Ò":147,"Ó":148,"Ô":149,"Õ":150,"Ö":151,"×":152,"Ø":153,"Ù":154,"Ú":155,"Û":156,"Ü":157,"Ý":158,"Þ":159,"ß":160,"à":161,"á":162,"â":163,"ã":164,"ä":165,"å":166,"æ":167,"ç":168,"è":169,"é":170,"ê":171,"ë":172,"ì":173,"í":174,"î":175,"ï":176,"ð":177,"ñ":178,"ò":179,"ó":180,"ô":181,"õ":182,"ö":183,"÷":184,"ø":185,"ù":186,"ú":187,"û":188,"ü":189,"ý":190,"þ":191,"ÿ":192,"Ā":193,"ā":194,"Ă":195,"ă":196,"Ą":197,"ą":198,"Ć":199,"ć":200,"Ĉ":201,"ĉ":202,"Ċ":203,"ċ":204,"Č":205,"č":206,"Ď":207,"ď":208,"Đ":209,"đ":210,"Ē":211,"ē":212,"Ĕ":213,"ĕ":214,"Ė":215,"ė":216,"Ę":217,"ę":218,"Ě":219,"ě":220,"Ĝ":221,"ĝ":222,"Ğ":223,"ğ":224,"Ġ":225,"ġ":226,"Ģ":227,"ģ":228,"Ĥ":229,"ĥ":230,"Ħ":231,"ħ":232,"Ĩ":233,"ĩ":234,"Ī":235,"ī":236,"Ĭ":237,"ĭ":238,"Į":239,"į":240,"İ":241,"ı":242,"Ĳ":243,"ĳ":244,"Ĵ":245,"ĵ":246,"Ķ":247,"ķ":248,"ĸ":249,"Ĺ":250,"ĺ":251,"Ļ":252,"ļ":253,"Ľ":254,"ľ":255,"Ŀ":256,"ŀ":257,"Ł":258,"ł":259,"Ń":260,"à¼":261,"à¼ĭ":262,"à¾":263,"½¦":264,"à½¦":265,"½²":266,"à½²":267,"½ĳ":268,"à½ĳ":269,"½Ĥ":270,"à½Ĥ":271,"½ĸ":272,"à½ĸ":273,"½¼":274,"à½¼":275,"½¢":276,"à½¢":277,"½ĵ":278,"à½ĵ":279,"½´":280,"à½´":281,"½Ħ":282,"à½Ħ":283,"½º":284,"à½º":285,"½ĺ":286,"à½ĺ":287,"à¾±":288,"½ł":289,"à½ł":290,"à½²à¼ĭ":291,"½Ķ":292,"à½Ķ":293,"½£":294,"à½£":295,"à¼į":296,"à½Ĥà½¦":297,"à¾²":298,"à½ºà¼ĭ":299,"à½´à¼ĭ":300,"à½¼à¼ĭ":301,"½¡":302,"à½¡":303,"½Ģ":304,"à½Ģ":305,"½ŀ":306,"à½ŀ":307,"à¾Ł":308,"½Ĩ":309,"à½Ĩ":310,"à¾Ĵ":311,"à½Ķà½ł":312,"à½ĸà½¦":313,"à½ĳà½Ħ":314,"½ħ":315,"à½ħ":316,"à¾±à½²à¼ĭ":317,"½ģ":318,"à½ģ":319,"½Ĳ":320,"à½Ĳ":321,"½ķ":322,"à½ķ":323,"½ļ":324,"à½ļ":325,"à½ĺà½¦":326,"½ı":327,"à½ı":328,"à¾±à½²":329,"½ī":330,"à½ī":331,"à¾Ĵà¾±":332,"½¤":333,"à½¤":334,"à¾Ĳ":335,"à½ĳà½Ĥ":336,"à½Ķà½¢":337,"à½łà½ĳ":338,"à½ĸà½¢":339,"à¾£":340,"à½ĵà½¦":341,"à½Ħà½¦":342,"à¾³":343,"½Ł":344,"à½Ł":345,"à½¼à¼į":346,"à¼ĭà¼į":347,"à¾¡":348,"à¾±à½º":349,"à¾±à½´":350,"à¾²à½´":351,"à½ĸà½ł":352,"à½łà½Ĥ":353,"à½ĸà½ŀ":354,"à¾±à½¼":355,"à½łà½ĸ":356,"à½£à½¦":357,"à¾¤":358,"à½łà":359,"à½łà½":360,"à¾Ĺ":361,"à½¡à½Ħ":362,"à½Ķà½¦":363,"à½ĳà½ĸ":364,"à½ĸà½ħ":365,"à¾Łà½¼":366,"à¾±à¼ĭ":367,"à¾Ķ":368,"à½ºà¼į":369,"à¾©":370,"à¾·":371,"à½Ĥà½ŀ":372,"à¾²à½²":373,"à½Ĥà½ī":374,"à¾²à½¼":375,"½Ļ":376,"à½Ļ":377,"à½¢à½Ħ":378,"½±":379,"à½±":380,"à½ĺà½Ĳ":381,"à¾Ļ":382,"à½ĺà½ļ":383,"à¾²à¼ĭ":384,"à¾¨":385,"à½ĳà½ĺ":386,"à¾¦":387,"à½łà½ģ":388,"à½ĳà½Ķ":389,"à¾Ĵà¾±à½´":390,"à½łà½ĩ":391,"à½ĸà½ĳ":392,"à½Ĥà½Ħ":393,"à½Ĥà½ĵà½¦":394,"à¾Łà½º":395,"à¾Łà¼ĭ":396,"à½Ĥà½ħ":397,"½Ľ":398,"à½Ľ":399,"à½ħà½ĵ":400,"à¾²à½º":401,"à¾³à½¼":402,"à¾Ĳà¾±à½º":403,"à½ĺà½Ĩ":404,"à½ĺà½ģ":405,"à½ĺà½Ħ":406,"à½ĸà½Ł":407,"à½łà½ķ":408,"à½Ĥà½ı":409,"à½²à¼į":410,"à½ĳà½ĸà½Ħ":411,"à½łà½Ľ":412,"½¨":413,"à½¨":414,"à½Ĳà½ĺà½¦":415,"à½ħà½ĳ":416,"à¾±à½ºà¼ĭ":417,"½§":418,"à½§":419,"à½ĸà½ĳà½Ĥ":420,"à½ĳà½Ģ":421,"à¾³à¼ĭ":422,"à¾²à½¼à¼ĭ":423,"à½ĵà½Ħ":424,"à½ĸà½Ģ":425,"à¾Ĵà¾±à¼ĭ":426,"à½ĸà½¤":427,"à¾«":428,"à½ĺà½Ľ":429,"à½Ĥà½Ł":430,"à½Ĥà½ŀà½ĵ":431,"à¾Ĺà½ºà¼ĭ":432,"à½¢à½ĸ":433,"à¾Ĺà½º":434,"½ĩ":435,"à½ĩ":436,"à½£à½ĺ":437,"à¾·à¼ĭ":438,"à½±à¼ĭ":439,"à¾Ĵà¾±à½´à¼ĭ":440,"à½ĺà½ļà½ĵ":441,"à¾Ĵà¾²à½´":442,"à¾¡à½´":443,"à¾Ķà¼ĭ":444,"à½Ĥà½ĳ":445,"à½Ĥà½¡":446,"à¼¡":447,"à¾¡à½¼à¼ĭ":448,"à½ĸà½¤à½ĳ":449,"à¾Łà½ºà¼į":450,"à½ĺà½ĳ":451,"½¾":452,"à½¾":453,"à¾Ĵà½¼":454,"à½ĸà½ħà½¦":455,"à¾Ĳà½´à¼ĭ":456,"à½ĸà½ı":457,"à¾²à½²à¼ĭ":458,"à¾Ĺà½¼":459,"à½ĺà½ł":460,"à½¦à½Ħà½¦":461,"à¾«à½¼":462,"à¾Łà½ºà¼ĭ":463,"à½Ļà½ĺ":464,"à½ĺà½Ľà½ĳ":465,"à¾Ļà½²":466,"à¾Ń":467,"à¾¤à¾±à½¼":468,"à½Ĥà½¦à½£":469,"à¾Ĳà¾±à½ºà¼ĭ":470,"à¾©à¼ĭ":471,"à½łà½ĳà½¦":472,"à½Ĥà½¤":473,"à½¾à¼ĭ":474,"à½ĸà½¦à½ĺ":475,"à½łà½Ĩ":476,"à½Ĥà½ĵ":477,"à¾¡à½¼":478,"à½ĺà½Ĥ":479,"à½ĳà½Ķà½ł":480,"à½Ĥà½Ļ":481,"à¼¢":482,"à¾¦à¾±à½¼":483,"à¾³à½¼à¼ĭ":484,"à¾Ĳà½¼":485,"à½ĸà½Ĥ":486,"à¾Ĳà½´":487,"à½ĸà½Ļ":488,"à½£à½Ĥ":489,"à½łà½ļ":490,"à¾©à½¼":491,"à¾Ĳà¾±à½¼":492,"à½ĸà½Łà½Ħ":493,"à¾³à½´":494,"à½ĺà½Ĳà½ł":495,"à½ĵà½ĺ":496,"à¾Ķà½¼":497,"à½ĳà½Ķà½£":498,"à½ļà½ĳ":499,"à¾Ĵà½¼à¼ĭ":500,"à½ĳà½Ĥà½ł":501,"à¾£à¼ĭ":502,"à½´à¼į":503,"à½ĺà½¢":504,"à½Ĩà½Ĥà½¦":505,"à¾¦à¾±":506,"à½ĺà½ī":507,"à½ĸà½Ģà½ł":508,"à½ĳà½Ģà½¢":509,"à¾Ļà½º":510,"à½Ĳà½ĸà½¦":511,"à¾Ĳà¾±":512,"à½ģà½ĺà½¦":513,"à½īà½ĺà½¦":514,"à½ĺà½ģà½ł":515,"à½Ħà½Ĥ":516,"à¼§":517,"à¾¤à¾±à½²à¼ĭ":518,"à¾Ńà¼ĭ":519,"à½łà½Ħ":520,"à½łà½Ĳ":521,"à¾¡à½ºà¼ĭ":522,"à½ģà½Ħ":523,"à¼£":524,"à½ĳà½ĳ":525,"à½±à½´":526,"à¾¨à½¼":527,"ln":528,"à½Ĥà½¦à½Ħ":529,"à½ĺà½īà½ĺ":530,"à½Ħà½ĵ":531,"à¾Ĵà¾²à¼ĭ":532,"à½Łà½ĳ":533,"à¼¤":534,"à¾ķ":535,"à½ķà½ĵ":536,"à½Ĥà½ĵà½Ħ":537,"à½Ķà½ĳ":538,"à¾Ĵà¾²à½²":539,"à¾¦à¾±à½²":540,"à½Ĩà½ĳ":541,"à¾¤à¾±":542,"à¾©à½ºà¼ĭ":543,"½İ":544,"à½İ":545,"à¼¥":546,"à½Ĥà½ıà½ĵ":547,"à½ĸà½ŀà½Ĥ":548,"à½ĵà½Ĥ":549,"à½ıà½ĵ":550,"à¾¨à¼ĭ":551,"à½ŀà½£":552,"à¼¦":553,"à½ĺà½ģà½¦":554,"à¼©":555,"à½Ĥà½£":556,"à½łà½ķà½Ĥà½¦":557,"à½ļà½Ħ":558,"à½ĺà½ĵ":559,"à½ĵà½ĳ":560,"à½ĺà½ģà½ĵ":561,"à¾³à½²":562,"à½ĺà½Ĳà½¢":563,"à½£à½ĵ":564,"à½ĸà½£":565,"à½¡à½ĵ":566,"à½Ĳà½£":567,"à¾¤à¾²à½´":568,"à½ĳà½ĺà½¢":569,"à½Ĥà½¢":570,"à¾²à½´à¼ĭ":571,"à½Ĳà½¢":572,"à½¤à½¢":573,"à¾ĥ":574,"à¾Łà½´":575,"à¾Ĵà¾²à½¼":576,"à½¦à½¢":577,"à¼¨":578,"à½¼à½¾à¼ĭ":579,"½Ĭ":580,"à½Ĭ":581,"à½ĸà½ıà½Ħ":582,"à¾³à½´à¼ĭ":583,"à½Łà½Ĥ":584,"à¾±à¼į":585,"à¾©à½²":586,"à¾·à½´":587,"à½£à½Ĥà½¦":588,"à½Ĥà½¦à½¢":589,"à½Ĳà½Ĥ":590,"à½ĳà½¢":591,"à½ĺà½ļà½ĺà½¦":592,"½Ŀ":593,"à½Ŀ":594,"à¾¨à½²":595,"à¾³à½º":596,"à¾±à½²à¼į":597,"à½Ĳà½Ħ":598,"à½ĸà½ħà½ĳ":599,"à¾¤à½¼":600,"à½ŀà½ĸà½¦":601,"à½ĳà½Ģà½ł":602,"à¾ĥà¼ĭ":603,"à¾¡à½²":604,"à½Łà½ĸ":605,"à¾¡à½º":606,"à½łà½ĩà½ĺ":607,"à¾¨à¾²à¼ĭ":608,"à½łà½ĺ":609,"à½ĳà½Ķà½Ĥ":610,"à¾Ļà½¼":611,"à½īà½ĵ":612,"à½±à½²à¼ĭ":613,"à½łà½ļà½£":614,"à½łà½Ĥà½£":615,"à¾£à½¼":616,"à¾¤à¾²à½¼":617,"à½ĺà½ĩ":618,"à¾¨à¾²":619,"à½Ĥà½¡à½¦":620,"à½ĸà½ıà½Ĥà½¦":621,"à½¢à½ĸà½¦":622,"à½Ħà½Ħ":623,"à½łà½Ĥà½ł":624,"à½Ĥà½ĳà½ĵ":625,"à¾¤à¾±à½²":626,"à¾©à½²à¼ĭ":627,"à½ĸà½Ľ":628,"à¾Ĵà¾²":629,"à½±à½´à¾ĥà¼ĭ":630,"à½ĵà½ĺà½¦":631,"à½¡à½¦":632,"à½ĸà½ıà½ĸ":633,"à½Ĥà½ĵà½ĳ":634,"à½łà½ĸà½¢":635,"à½ļà½ĵ":636,"à½Łà½¦":637,"à½Ĥà½Ļà½Ħ":638,"à¾©à½º":639,"à½ĸà½Ļà½ĵ":640,"à½ĳà½ĺà½Ĥ":641,"à½¡à½ĸ":642,"à½łà½Ĩà½ĳ":643,"à¾²à¾Ńà¼ĭ":644,"à½Ģà½¢":645,"à½¦à½ĺ":646,"à½Ĥà½ŀà½Ĥ":647,"à½ģà½¦":648,"à½Ĥà½ĳà½ĺà½¦":649,"à½Ķà½łà½ĺ":650,"à½Ĩà½¢":651,"à½ĳà½Ĥà½Ĥ":652,"à½£à½łà½Ħ":653,"½¥":654,"à½¥":655,"à½ĺà½Ħà½ł":656,"à¾¤à½º":657,"à½¤à½¦":658,"à¾·à½¼à¼ĭ":659,"à½Ĥà½ıà½ĺ":660,"à¾Ĳà¾±à½²":661,"à¾¦à¼ĭ":662,"à½Ķà½İ":663,"à½¢à½¦":664,"à½±à½´à½¾à¼ĭ":665,"à½ģà½Ĥ":666,"à½¼à¼ĭà¼į":667,"à½łà½Ĩà½¢":668,"à¾Ģ":669,"à¼įà¼ĭ":670,"à¾ľ":671,"à½£à½ł":672,"à¾Ĳà¾±à¼ĭ":673,"à½ŀà½Ĥ":674,"à½¡à½¢":675,"Ġà½¦":676,"à½ħà½Ĥ":677,"à¾²à½ºà¼ĭ":678,"à½łà½Ĩà½Ħ":679,"à¾¡à¼ĭ":680,"à½ĵà½ĵ":681,"à¾¤à¾²à½²":682,"à¾¡à½´à¼ĭ":683,"à½¦à½ł":684,"à½Ģà½ł":685,"à½ĵà½łà½Ħ":686,"à½ķà½£":687,"à¾Ķà½¼à¼ĭ":688,"à½ĸà½ĸà½¦":689,"à¾±à½´à¼ĭ":690,"à½ļà½Ħà½¦":691,"à¾¤à½´":692,"à½ħà½Ħ":693,"à½ĸà½Łà½ł":694,"à½ĸà½¦à½£":695,"à½±à¼į":696,"à½Ķà½łà½Ħ":697,"Ġà½¢":698,"à½ĺà½ĳà½ł":699,"à½ĸà½ĸ":700,"à½Ĥà½Ħà½¦":701,"à½ĺà½ĩà½£":702,"à½łà½ĳà½ĸ":703,"½Į":704,"à½Į":705,"à½ĳà½Ħà½¦":706,"à½ĺà½ļà½¢":707,"à¾¨à½²à¼ĭ":708,"à½ĸà½¦à½ĺà½¦":709,"à½ķà½Ĭ":710,"à½łà½Ĳà½ĳ":711,"à½¢à½£":712,"à½Ĥà½ł":713,"à½Ĳà½ĳ":714,"Ġà¼¡":715,"à¾·à½²à¼ĭ":716,"à½ģà½ĸ":717,"à½ļà½£":718,"à¾Ĳà¾²":719,"à½Ĥà½ŀà½£":720,"à½ĸà½ħà½ł":721,"à½ĺà½ģà½¢":722,"à½ļà½¢":723,"à½łà½ĸà½ĳ":724,"à½Ĥà½¦à½ĵ":725,"à½Ħà½ł":726,"à¼¡à¼©":727,"Ġà½£":728,"à½ĸà½ĺ":729,"à½Ĥà½ıà½ĳ":730,"à¾Ģà¼ĭ":731,"à¼¡à¼§":732,"à¾¤à¾²à½¼à¼ĭ":733,"à½Ĩà½¦":734,"à½łà½Ĥà½Ĥ":735,"à½±à½²":736,"à½ĳà½ĺà½ĵ":737,"à½Ĩà½Ĥ":738,"à½Ĥà½ĵà½ĺ":739,"à½£à½Ħ":740,"à½¦à½Ħ":741,"Ġà½ĳ":742,"à½¾à¼į":743,"à½łà½Ľà½ĺ":744,"à½Ĥà½ĺ":745,"à¾¤à¾²":746,"à½ķà½¢":747,"à½ģà½¢":748,"à½ĸà½Ģà½Ĥ":749,"Ġà½ĸ":750,"à¾²à¼į":751,"à¾Ĳà¾²à½´":752,"à½ĳà½ĺà½Ħà½¦":753,"à¾Ńà½±à¼ĭ":754,"à½ĸà½¦à½Ĥà½¦":755,"à½ĸà½łà½ĺ":756,"à½ĺà½£":757,"à½ĵà½ł":758,"à½¢à½ĺ":759,"à¼¡à¼¢":760,"à½Ħà½£":761,"à½¡à½Ħà½¦":762,"à½Ĩà½Ħ":763,"à½£à½Ħà½¦":764,"à½Ĥà½ĳà½ĸ":765,"Ġà½Ķ":766,"à½łà½ĸà½ĸ":767,"à¼ĭà¼":768,"à½Ĩà½ĸ":769,"à½ĳà½£":770,"à½ķà½Ĥ":771,"à¾«à½´":772,"à½ĵà½¢":773,"à¾¦à¾²":774,"à½¢à½Ĥ":775,"à½¢à½Ĥà½¦":776,"à½ļà½ĸ":777,"à½Ħà½ĺ":778,"à½±à½´à¼ĭ":779,"à¾«à½´à¼ĭ":780,"à½ķà½ĺ":781,"à½ķà½ĸ":782,"à½łà½ĸà½ł":783,"à¼¡à¼¡":784,"à½łà½ĳà½ł":785,"à¾¦à¾²à½´":786,"à¾²à½±à½²à¼ĭ":787,"à¾µ":788,"à¾Ĵà¼ĭ":789,"à½ĸà½ĵ":790,"à¾¤à½´à¼ĭ":791,"à½łà½Ĥà½ĵ":792,"à½łà½ķà½Ħ":793,"à¾·à½¼":794,"à½ĸà½¤à½Ĥà½¦":795,"à½ĳà½ĵ":796,"à¾Ĵà½º":797,"à½īà½£":798,"à¾ķà½ºà¼ĭ":799,"à½ĸà½¦à½ĳ":800,"à¾Ĵà½´":801,"à¾Ĳà¾±à½´":802,"à¾Ĺà½²":803,"à½łà½Ĥà½Ĥà½¦":804,"à½ĵà½Ĥà½¦":805,"à¾£à½´":806,"à½¦à½ĳ":807,"à¾Ĳà¾±à½¼à¼ĭ":808,"à¾Ĵà¾²à½¼à¼ĭ":809,"à½ĸà½Ħ":810,"à½ĺà½ĳà½Ħà½¦":811,"à¾Łà½²":812,"à½¡à½Ĥ":813,"à½łà½Ĳà½ĸ":814,"à½¡à½£":815,"à½ĸà½Ļà½£":816,"à½Ĥà½Łà½ł":817,"à½Ĥà½īà½ĵ":818,"à¾Ĳà¾²à¼ĭ":819,"à¾Łà½²à¼ĭ":820,"à½Ļà½ĵ":821,"à¼¡à¼£":822,"à½ŀà½Ħ":823,"à½ĺà½ĵà½ĵ":824,"à¾·à½±à¼ĭ":825,"à½Ģà½ĵ":826,"à½ģà½ł":827,"à¾«à¼ĭ":828,"à¼¡à¼¤":829,"à¼¡à¼¥":830,"à¼¡à¼¨":831,"à½±à½´à¾ĥ":832,"à¼¢à¼¢":833,"à¾±à½¼à¼ĭ":834,"à¼ĭà½²":835,"à½ĺà½İ":836,"à½Ĥà½¡à½Ħ":837,"à½Ķà½ĵ":838,"½Ī":839,"à½Ī":840,"à½Ħà½¢":841,"à¾¦à½¼":842,"à¾ľà½²à¼ĭ":843,"à¾Łà½¼à¼ĭ":844,"à¼¡à¼¦":845,"à½¢à½Ģ":846,"à¾ª":847,"à¾¨à½´":848,"à½Łà½Ħà½¦":849,"à¾²à½¼à¼į":850,"à½Ĩà½ł":851,"à¾²à¾Ģà¼ĭ":852,"à¾¦à½´":853,"à¾©à¾Ńà¼ĭ":854,"à½łà½ĩà½ł":855,"à¾Ķà¼į":856,"à½£à½¢":857,"à½ĺà½Ĩà½ĵ":858,"à½¢à½ł":859,"à¾¡à¾·à¼ĭ":860,"à½Ĥà½ĵà½ł":861,"à½Ĥà½ĳà½Ĥà½¦":862,"à½ĺà½īà½ĵ":863,"à¾©à½´":864,"à½ŀà½Ĥà½¦":865,"à¾·à½´à¼ĭ":866,"Ġà¼¢":867,"à½łà½ļà½Ħ":868,"à¾Ĳà½º":869,"½ª":870,"à½ª":871,"à½¦à½¦":872,"à¾Ĳà¼ĭ":873,"Ġà¼£":874,"à½łà½ĸà½Ħà½¦":875,"à½ĸà½ŀà½ĳ":876,"à½²à¼ĭà¼į":877,"à½ĺà½Ħà½£":878,"à¾ķà½²à¼ĭ":879,"à¼ĭà½Ī":880,"à¾µà¼ĭ":881,"à½ĳà½ĸà½ĸ":882,"à¾Ńà½±":883,"à¾£à½ºà¼ĭ":884,"à½īà½Ĥ":885,"à½¤à½ĵ":886,"à½ĳà½Ķà½¢":887,"à½ĸà½łà½Ħ":888,"à½¤à½Ĥ":889,"à½ıà½Ħ":890,"à½Ĳà½ĸ":891,"Ġà½ļ":892,"à½¨à½Ħ":893,"à½īà½ĺ":894,"à½ŀà½ĵ":895,"à¾¤à¾²à½º":896,"à½¢à½ĵ":897,"à¾²à¾Ń":898,"à½ĸà½¦à½Ħ":899,"à¾Ĳà½´à¼į":900,"à¾Ĵà¾±à½´à¼į":901,"à½Ĥà½ĳà½Ħà½¦":902,"à½ħà½¢":903,"à½Łà½Ħ":904,"à½Ĥà½ĳà½ł":905,"à½¼à¼įà¼ĭ":906,"Ġà½ĵ":907,"à½ĸà½¤à½ĺà½¦":908,"à¾«à½²":909,"à½Ĳà½ĺ":910,"à½Ĥà½ıà½Ħ":911,"Ġà½Ĥ":912,"à½¢à½ı":913,"à¼µ":914,"à¼ĭà¼´":915,"Ġà½ĺ":916,"à¾Ļà½±à¼ĭ":917,"à½¨à½¢":918,"à¾Ķà½´":919,"à½ĵà½Ķ":920,"à½łà½ķà½¢":921,"à¾Ĵà¾²à½º":922,"à¼ĭà¼įà¼ĭ":923,"à¾Ĺà½ºà¼į":924,"à½łà½ķà½Ħà½¦":925,"à¾Ĳà½¼à¼ĭ":926,"Ġà¼§":927,"à½łà½ļà½ĺà½¦":928,"à½±à½´à½¾à¼į":929,"à½¤à½ĺ":930,"à½Ĥà½ħà½ĵ":931,"à¾¦à¾²à½º":932,"à½ĺà½ĺ":933,"à¾¥":934,"à½Ķà½Ĥà½¦":935,"Ġà½ĸà½¦":936,"à½ĳà½Ĥà½¦":937,"à½ļà½Ĥà½¦":938,"à½ĸà½Ģà½Ħ":939,"à¾·à½ºà¼ĭ":940,"à½£à½ĸ":941,"à½łà½ĩà½£":942,"Ġà½ī":943,"à½łà½ĳà½ĺ":944,"à¾ªà¼ĭ":945,"à½ĺà½Ħà½¢":946,"Ġà½Ģ":947,"à¾²à½²à¼į":948,"à½Łà½ĵ":949,"à½ĺà½Ľà½ł":950,"à½¢à½Ħà½¦":951,"à½Ģà½¦":952,"à¾ķà½º":953,"à½Ĥà½ĸ":954,"à¾ļ":955,"à¾¤à¼ĭ":956,"à¾ľà¼ĭ":957,"à½ĳà½ĺà½ł":958,"Ġà½ķ":959,"à½ĺà½ĵà½¢":960,"à¾·à½²":961,"à¾ŀ":962,"à¼¢à¼¥":963,"à½Ĥà½¤à½ĺ":964,"à¾¤à½¼à¼ĭ":965,"à½ıà½ł":966,"à¼¢à¼¤":967,"à¾£à½¼à¼ĭ":968,"à¾ķà½¼":969,"Ġà½ŀ":970,"à½ĳà½Ķà½Ħ":971,"à½łà½Ľà½Ĥ":972,"à½±à½¾à¼ĭ":973,"à½¦à½ĵ":974,"à¾Ľ":975,"à¼¢à¼¦":976,"à¾Łà¼į":977,"à½łà½ĩà½Ĥà½¦":978,"à½¤à½£":979,"à½±à½´à¾ĥà¼į":980,"à¾²à¾Ģ":981,"à¼ĭà¼Ĳ":982,"à½¤à½Ħ":983,"à½Ŀà½Ħ":984,"à¾¨à¾±à½´":985,"à¼Ģ":986,"à¼¢à¼£":987,"Ġà½¡":988,"Ġà½Ĩ":989,"à¼ĭà½Īà½²":990,"à¾«à½²à¼ĭ":991,"à½Ĥà½Łà½ĵ":992,"à½ĸà½ħà½¢":993,"à¼´":994,"à½ĳà½ĸà½£":995,"à½¼à¼įà¼ĭà¼į":996,"à½ģà½ĺ":997,"à½Ĥà½ŀà½¦":998,"à¾¨à½ºà¼ĭ":999,"à¼¢à¼§":1000,"à¾¡à¾²à¼ĭ":1001,"à½ĳà½Ķà½¦":1002,"Ġà½¤":1003,"à½¢à½¢":1004,"à¼¢à¼¡":1005,"à½¤à½ĳ":1006,"à½Ĥà½¦à½¦":1007,"à½ļà½ĸà½¦":1008,"à¼¢à¼©":1009,"Ġà½Ł":1010,"Ġà½Ĥà½¡":1011,"à¼¢à¼¨":1012,"Ġà½ĳà½Ħ":1013,"à½ĸà½Łà½ĳ":1014,"à½Ĥà½ħà½ĳ":1015,"à½Ĥà½¡à½Ĥ":1016,"à½ģà½£":1017,"à¾¡à½ºà¼į":1018,"à¾Ļà½´":1019,"à½ŀà½¢":1020,"à½Ĳà½ĺà½¦à½ħà½ĳ":1021,"à¾Ĳà¾±à½ºà¼į":1022,"à½ĺà½Ħà½Ĥà½¦":1023,"à½Ĥà½Łà½ĸ":1024,"à½Łà½ĺ":1025,"à½łà½ĳà½¢":1026,"Ġà½Ķà½ł":1027,"½Ĵ":1028,"à½Ĵ":1029,"à½łà½ļà½ĺ":1030,"à½ĳà½¦":1031,"Ġà½łà½ĳ":1032,"Ġà½ģ":1033,"à¾·à¼į":1034,"à½ĳà½Ĥà½¢":1035,"à½ĳà½ĸà½¢":1036,"à½Ķà½ī":1037,"à¾¨à¾±à½¼":1038,"à½¤à½ł":1039,"à¾¨à½¼à¼ĭ":1040,"à¼Ĳ":1041,"à½łà½Ĩà½£":1042,"à½Ĥà½īà½ł":1043,"à½Ļà½Ģ":1044,"à¾±à½ºà¼į":1045,"à¾¡à¾·à½²à¼ĭ":1046,"Ġà½ĸà½¢":1047,"Ġà½Ĥà½¦":1048,"à¾°":1049,"Ġà¼¥":1050,"Ġà¼¤":1051,"Ġà½Ĳ":1052,"½Ĺ":1053,"à½Ĺ":1054,"à¾¨à½º":1055,"à½ĸà½Ļà½¦":1056,"à¾·à½±à½´à¼ĭ":1057,"à½¦à½ı":1058,"à½ĸà½¦à½Ħà½¦":1059,"à¾¦à¾²à¼ĭ":1060,"à¾Ĳà½ºà¼ĭ":1061,"à½´à¼ĭà¼į":1062,"à½´à½¾à¼ĭ":1063,"Ġà½¨":1064,"½µ":1065,"à½µ":1066,"à½Łà½ł":1067,"à½Ķà½£":1068,"à½Ĥà½¡à½ł":1069,"à¾Ļà½ºà¼ĭ":1070,"à¾²à½±à½²":1071,"à¾±à½±à¼ĭ":1072,"à½ºà¼ĭà¼į":1073,"à½ĸà½¤à½Ħ":1074,"à¾¦à½´à¼ĭ":1075,"à½¼à¾ĥà¼ĭ":1076,"à¼µà¼ĭ":1077,"à½Ķà½Ħ":1078,"à¾·à½¾à¼ĭ":1079,"à½ĺà½§":1080,"à¼£à¼£":1081,"à½īà½¢":1082,"à½Ĥà½ĵà½Ĥ":1083,"à¾Ĵà¾±à¼į":1084,"à¾³à¼į":1085,"à½ķà½¦":1086,"à½ģà½ĳ":1087,"à½Ĥà½ıà½¢":1088,"à½¡à½ł":1089,"à½Ģà½Ħ":1090,"à¾¦à¾·à¼ĭ":1091,"à½ĸà½ħà½Ħà½¦":1092,"à¼įà¼ĭà¼į":1093,"à½ĺà½ĵà½ł":1094,"à½ĺà½Ĥà½¢":1095,"à½łà½Ĩà½ĺ":1096,"à½¨à½ĵ":1097,"à½łà½Ĥà½¢":1098,"à½£à½ĳ":1099,"à¾Ľà¼ĭ":1100,"à½Ĥà½¦à½ĳ":1101,"à½¢à½ĳ":1102,"à½Ĥà½Łà½¢":1103,"à¼£à¼¥":1104,"à¼£à¼¤":1105,"à½¦à½ĸ":1106,"Ġà½Ĥà½ī":1107,"Ġà½ĳà½Ĥ":1108,"à¼£à¼¦":1109,"à¼£à¼§":1110,"à½²à½¾à¼ĭ":1111,"à½¡à½ĳ":1112,"à½Ħà½ĳ":1113,"à½łà½ĳà½ĸà½¦":1114,"à½Ĥà½Ĥ":1115,"à½Ĳà½ł":1116,"à½ĺà½ģà½£":1117,"à½¢à½ĺà½¦":1118,"à¾»":1119,"à¼¡à¼©à¼©":1120,"Ġà¼¦":1121,"à¼£à¼¨":1122,"à½¦à½ĺà½¦":1123,"à½łà½ĳà½Ĥ":1124,"à¼ĭà½º":1125,"à¼£à¼©":1126,"à½¦à½£":1127,"à½ĸà½Łà½Ħà½¦":1128,"à¼¤à¼¥":1129,"à½Ĥà½¡à½¢":1130,"à½¦à½Ķ":1131,"à½§à½ĵ":1132,"à½Ķà½ĺ":1133,"Ġà¼¨":1134,"à¼¡à¼©à¼¨":1135,"à½¤à½Ħà½¦":1136,"à½ĺà½łà½ĺ":1137,"à½ĸà½¤à½£":1138,"Ġà½ĳà½Ķà½£":1139,"à¼¥à¼©":1140,"à½ĸà½¤à½ĺ":1141,"à½Ľà½ĺ":1142,"à½¨à½Ĥ":1143,"à¾·à¾±à½¼à¼ĭ":1144,"à½Ĥà½ĳà½ĺ":1145,"à½ıà½ĺ":1146,"à¾¡à¾·":1147,"à½Ĳà½ĵ":1148,"à¼¤à¼¤":1149,"à½ļà½ł":1150,"à½¦à½Ģ":1151,"à½ĵà½£":1152,"à¾ł":1153,"½ĭ":1154,"à½ĭ":1155,"à¾Ĵà½´à¼ĭ":1156,"à½ıà½Ĥ":1157,"à½ĸà½ħà½Ĥ":1158,"à½¨à½ĺ":1159,"à½ºà¼įà¼ĭ":1160,"à¾Ĵà½ºà¼ĭ":1161,"à½ĩà½Ĥ":1162,"à½Ĩà½ĸà½¦":1163,"à½łà½ĳà½Ħ":1164,"Ġà½¡à½Ħ":1165,"à½łà½Ĥà½¦":1166,"à½ĸà½ħà½Ħ":1167,"à¾´":1168,"à½ĳà½ł":1169,"à½ĺà½ļà½£":1170,"à½łà½ķà½ĵ":1171,"à¾³à½ºà¼ĭ":1172,"à¾¨à½±à¼ĭ":1173,"à¾¨à¾²à½¼":1174,"à½ĳà½Ĥà½Ħ":1175,"à¾ŀà¼ĭ":1176,"à¾¥à¼ĭ":1177,"à½ĸà½Ģà½ĸ":1178,"à¼¥à¼¦":1179,"à¼¤à¼§":1180,"à½īà½Ħ":1181,"Ġà½ħ":1182,"Ġà½ĵà½¦":1183,"à¾¨à¾±à½¼à¼ĭ":1184,"à¼¥à¼§":1185,"à¼¤à¼¦":1186,"à½łà½Ĩà½Ĥà½¦":1187,"à¾¨à¾²à½²":1188,"à½Ĩà½ĵ":1189,"à½ĸà½Ģà½¦":1190,"à½ĸà½Ļà½ł":1191,"à½ĸà½Ģà½£":1192,"à¾Ĵà½±":1193,"à¼¥à¼¨":1194,"à¼¤à¼©":1195,"à½¦à½Ĥ":1196,"à½Ĥà½ıà½ĺà½¦":1197,"à½±à½²à¼į":1198,"Ġà¼©":1199,"à½¡à½ĺ":1200,"à½ĵà½Ħà½¦":1201,"à¼£à¼¡":1202,"à½łà½Ĩà½ł":1203,"à½ĳà½Ķà½Ħà½¦":1204,"à¼¤à¼¨":1205,"à¾¦à½º":1206,"à½Ļà½Ħ":1207,"à½łà½Ĳà½Ĥ":1208,"à½ĵà½Ķà½ł":1209,"Ġà½Ķà½¢":1210,"à¼¥à¼¥":1211,"à½ıà½¦":1212,"à¾Ķà½´à¼ĭ":1213,"à½łà½Ľà½ĳ":1214,"à¾Ĵà¾±à½²":1215,"à½µà¾ĥà¼ĭ":1216,"à¼§à¼§":1217,"à¼ĭà¼º":1218,"à¾²à½ºà¼į":1219,"à½īà½ł":1220,"Ġà½Ħ":1221,"à¼£à¼¢":1222,"à½Ŀà½¢":1223,"à½ĸà½Ģà½¢":1224,"à½ĺà½ļà½Ħ":1225,"à¾Ĵà¾²à¼į":1226,"à¾Ĳà¾±à½´à¼ĭ":1227,"à½ĵà½ı":1228,"à½Ĥà½¡à½ĸ":1229,"à½Ĭà½ł":1230,"à¾¡à¾·à½ºà¼ĭ":1231,"à¾·à¾±à¼ĭ":1232,"à½ĺà½ĵà½£":1233,"à½ĸà½ĳà½¢":1234,"Ġà½ĸà½ĳ":1235,"à¼¦à¼¦":1236,"à¼ĭà¾":1237,"à¾Ĳà¾±à½²à¼ĭ":1238,"à½ĺà½Ħà½¦":1239,"à½łà½ģà½¢":1240,"à½Ħà½ĸ":1241,"à¾·à½±":1242,"à½ĵà½ĸ":1243,"à½ķà½ł":1244,"à½ĸà½¦à½ĵ":1245,"à¾»à¼ĭ":1246,"à¾ļà¼ĭ":1247,"à¾Ńà½¼à¼ĭ":1248,"Ġà½ĸà½Ģà½ł":1249,"à½Ĩà½ĺ":1250,"Ġà¼Ĳ":1251,"Ġà½łà½ĸ":1252,"à½Ķà½ĳà½Ħ":1253,"à¾¤à½ºà¼ĭ":1254,"à½łà½ĸà½Ĥ":1255,"à½²à¼įà¼ĭ":1256,"à½ĳà½ħ":1257,"à¼ĭà½¼":1258,"à½łà½ĩà½Ħ":1259,"à¾Ĵà¾±à½¼":1260,"à¾Ļà½²à¼ĭ":1261,"à¾Ļà¼ĭ":1262,"à¾²à½±à¼ĭ":1263,"à½§à½ł":1264,"à¾·à¾±":1265,"à¼¦à¼§":1266,"à¾°à¼ĭ":1267,"à¾±à¾Ģà¼ĭ":1268,"à¾¡à½²à¼ĭ":1269,"à¾·à½±à½²à¼ĭ":1270,"à½§à½¢":1271,"Ġà½Ĥà½Ħ":1272,"à½Ļà½İ":1273,"Ġà½¢à½Ħ":1274,"à½¡à½ĺà½¦":1275,"à¼¦à¼¨":1276,"à½ĳà½ĸà½ł":1277,"Ġà½ı":1278,"à¾Ķà½¼à¼į":1279,"à½ķà½Ħà½¦":1280,"à½¡à½Ģ":1281,"à½łà½Ĩà½Ĥ":1282,"à½Ŀà½ĵ":1283,"à¼¦à¼©":1284,"à½Ĥà½¤à½Ĥà½¦":1285,"à½ĸà½ĳà½ĺà½¦":1286,"à¾Łà½±à¼ĭ":1287,"Ġà½£à½¦":1288,"à¾·à½º":1289,"à½±à½´à½¾":1290,"à¾³à½´à¼į":1291,"à¾£à½º":1292,"à¼¤à¼¢":1293,"à½łà½ĳà½ĵ":1294,"Ġà½ĸà½ħ":1295,"à¼§à¼©":1296,"à¾·à¾²":1297,"à¾±à¾Ńà¼ĭ":1298,"à¼¦à¼¥":1299,"à½ļà½Ĥ":1300,"à½ĳà½Ħà½Ħà½¦":1301,"Ġà½ł":1302,"à½ĸà½¦à½Ĥ":1303,"à¼¤à¼¡":1304,"à¾©à¼į":1305,"à¾ļà½²à¼ĭ":1306,"à½ĸà½ĳà½Ħ":1307,"à¾Ĵà½¼à¼į":1308,"à¾¨à¾²à¼į":1309,"Ġà½ĳà½ĸ":1310,"à¾¶":1311,"à½ĺà½ĳà½Ħ":1312,"à¼§à¼¨":1313,"à¾¨à¾²à½ºà¼ĭ":1314,"à½Ĥà½ĳà½Ħ":1315,"Ġà½ĸà½ŀ":1316,"à½¨à½ł":1317,"à¾µà½²à¼ĭ":1318,"à½ĺà½Ľà½Ħà½¦":1319,"à½ĺà½łà½Ħ":1320,"à½ĵà½Ķà½¢":1321,"à½Ĥà½Ķ":1322,"à¼©à¼©":1323,"à¾ľà½²":1324,"à¾Ĳà½²à¼ĭ":1325,"à¾±à½²à¼ĭà¼į":1326,"à¾³à½²à¼ĭ":1327,"à¾´à¼ĭ":1328,"à½ģà½İ":1329,"à¼¤à¼£":1330,"à¼ĭà½²à¼ĭ":1331,"à½Ĥà½ĳà½£":1332,"à½ºà½º":1333,"Ġà½łà½Ĥ":1334,"à½Ĥà½¦à½ĸ":1335,"Ġà½ĩ":1336,"à¾²à½¾à¼ĭ":1337,"à½Ļà½¢":1338,"à¼º":1339,"à¼¥à¼¡":1340,"Ġà½łà½ģ":1341,"à½Ĥà½¦à½Ķ":1342,"à¾Łà½¾à¼ĭ":1343,"à½Ĳà½Ĥà½¦":1344,"à½£à½£":1345,"à½łà½Ĩà½ĸ":1346,"à¼ĭà¼¹":1347,"à½ĸà½ĳà½£":1348,"à½¼à½¾":1349,"à¾©à½ºà¼į":1350,"à½Ķà½ŀ":1351,"à½¤à½ĸ":1352,"à½Ķà½¢à½ĸ":1353,"à½ıà½¢":1354,"à¾Ĵà¾±à½º":1355,"à½±à½¾à¼į":1356,"à¾Łà½´à¼ĭ":1357,"à¼¦à¼¢":1358,"à¾ķà½´":1359,"à½ħà½¦":1360,"à¾¤à¾²à¼ĭ":1361,"à¾«à½¼à¼ĭ":1362,"à½İà½ł":1363,"à½ĵà½ĵà½¦":1364,"à¾²à½´à¼į":1365,"à¼¥à¼¢":1366,"à¼¥à¼¤":1367,"à½§à½ĺ":1368,"à½ĳà½Ħà½¢":1369,"à½ĺà½Ĳà½¦":1370,"à¾³à½¼à¼į":1371,"à½Ĥà½Ĥà½¦":1372,"à¾ķà½²":1373,"à½Ķà½Ĥ":1374,"à½łà½¦":1375,"à¾Ĵà¾·à½¾à¼ĭ":1376,"à¾©à½²à¼į":1377,"à¾²à¾Ĺà½¼":1378,"à¼¦à¼¡":1379,"à½Łà½¢":1380,"à½Ĥà½İ":1381,"à¾¡à½´à¼į":1382,"à¾±à¼ĭà¼į":1383,"à¾Łà½ºà¼įà¼ĭ":1384,"à¼¦à¼£":1385,"à½ķà½ĸà½¦":1386,"à¼¥à¼£":1387,"à½ĺà½Ķ":1388,"à¾Ńà¼į":1389,"à½łà½ĩà½Ĥ":1390,"Ġà½Ĥà½ŀà½ĵ":1391,"à½Ķà½Ģ":1392,"Ġà½ĳà½ĺ":1393,"à¾Łà½²à¼į":1394,"Ġà½łà½ķà½Ĥà½¦":1395,"à¼©à¼§":1396,"à¼©à¼¨":1397,"à¼¦à¼¤":1398,"à¾¦à½²à¼ĭ":1399,"à½łà½ļà½¢":1400,"à½łà½Ĥà½Ħà½¦":1401,"à½ºà½ºà¼ĭ":1402,"à½ĸà½ħà½Ĥà½¦":1403,"à¾Ńà½±à½¾à¼ĭ":1404,"à½ĸà½ŀà½ĵ":1405,"à½¦à½ĵà½¦":1406,"à¾Ĳà¾²à½¼":1407,"à½ĺà½Ħà½Ĥ":1408,"à½Ģà½łà½Ħ":1409,"à½ĸà½Łà½¦":1410,"Ġà½ĸà½ĳà½Ĥ":1411,"Ġà½łà½ĩ":1412,"à½Ĥà½ŀà½Ħ":1413,"Ġà½ĵà½Ħ":1414,"à¾¥à½´à¼ĭ":1415,"à½§à½Ħ":1416,"à¾ŀà½¾":1417,"à¼§à¼¥":1418,"à¾Łà¾Ń":1419,"à¼¨à¼¨":1420,"Ġà½¢à½ĸ":1421,"à½łà½ĩà½¢":1422,"à¼ĭà¼´à¼į":1423,"Ġà½¦à½Ħà½¦":1424,"à½Ŀà½¦":1425,"à¾±à¾Ģ":1426,"à¼§à¼¡":1427,"à½¨à½ı":1428,"à¼¢à¼¢à¼¡":1429,"à½´à¼įà¼ĭ":1430,"Ġà¼į":1431,"à¾¡à¾²":1432,"à½łà½¢":1433,"à½łà½ļà½ĸ":1434,"à¼§à¼£":1435,"à½ĸà½¤à½ł":1436,"à¾łà¼ĭ":1437,"à½Ľà½§":1438,"à½ģà½ĵ":1439,"à½²à¼ĭà½²":1440,"à½ĺà½¦à½ħà½ĵ":1441,"à½ĸà½ĳà½ł":1442,"à½§à½¦":1443,"Ġà½ĺà½ļà½ĵ":1444,"à½¦à½Ħà½¦à½¢":1445,"à¾·à½±à½²":1446,"à½ĳà½Ķà½Ĥà½¦":1447,"à½ĸà½ī":1448,"à½ĸà½Ĩ":1449,"à¼§à¼¢":1450,"Ġà½ĺà½ĳ":1451,"à½Ķà½Ĩ":1452,"à¾Łà¾²à¼ĭ":1453,"à½Ĥà½Łà½¦":1454,"à½ĸà½ħà½£":1455,"à½±à½¼à¾ĥà¼ĭ":1456,"à½¨à½¦":1457,"à¼ĭà½µ":1458,"Ġà½ĺà½Ĩ":1459,"à½ĸà½ħà½ĸà½¦":1460,"à½ĺà½¦à½Ģ":1461,"à½Ħà½¦à½¦":1462,"à¼§à¼¤":1463,"à½ŀà½ł":1464,"à½Ģà½Ģ":1465,"à¾¦à¾²à½²":1466,"à½łà½Ľà½ĸ":1467,"Ġà½§":1468,"10":1469,"à½¤à½Ķ":1470,"à¾±à½´à¼į":1471,"à½Łà½Ĥà½¦":1472,"à¼§à¼¦":1473,"à½ķà½Ħ":1474,"à½±à¾Ģà¼ĭ":1475,"Ġà½Ļà½ĺ":1476,"à¾ĥà¼į":1477,"à¼ŀ":1478,"à½ĺà½Ķà½¢":1479,"à½Ľà½¦":1480,"à½¤à½Ĥà½¦":1481,"à¼¨à¼©":1482,"à½ĵà½ŀ":1483,"Ġà½ĳà½ĸà½Ħ":1484,"à½Ĥà½¦à½Ģ":1485,"à¾Ĳà½ºà¼į":1486,"à½ĺà½ĸ":1487,"à½±à¾ĥà¼ĭ":1488,"à½łà½ĩà½ĸ":1489,"à½Ĥp":1490,"à¾«à½º":1491,"à¾¤à¾²à½¼à¼į":1492,"à¾£à¼į":1493,"à½ĵà½ĺà½ĺà½ģà½ł":1494,"Ġà½Ĥà½ĵà½¦":1495,"à½¨à½Ģ":1496,"à½Ļà½Ĥ":1497,"à½ĸà½ĳà½¦":1498,"Ġà¼¡à¼¢":1499,"à½Ħà½Ķ":1500,"à¾·à½¼à¼į":1501,"à½¼à½¾à¼į":1502,"à¼¡à¼¡à¼¢":1503,"à½ĺà½¡":1504,"à½¦à½Ķà½ł":1505,"à½ĸà½Ķ":1506,"à½łà½Ĳà½¦":1507,"à½¨à½ĳ":1508,"à¾µà½ºà¼ĭ":1509,"à½¨à½ĸ":1510,"à¾Łà½²à½¾à¼ĭ":1511,"à½Ĩà½£":1512,"11":1513,"à½Ĥà½ģ":1514,"½©":1515,"à½©":1516,"à½ĵà½łà½ĳà½¦":1517,"à½ĳà½Ĩ":1518,"à¼ĭà½Īà¾±à½²":1519,"à½Ģà½ĺ":1520,"à½ĵà½¡":1521,"à¾¨à½±":1522,"à½Ĳà½¦":1523,"à½Ĥà½¤à½ł":1524,"à¼ĭà¾¢":1525,"à½Ļà½ł":1526,"à¾¦à½¼à¼ĭ":1527,"à½łà½ĸà½ĸà½¦":1528,"à½Ĥà½īà½£":1529,"à½łà½Ĩà½ĺà½¦":1530,"à½Ĥà½Ĩ":1531,"à½Ĥà½ħà½£":1532,"à½ĸà½¤à½ĵ":1533,"à¾¡à¾·à½´à¼ĭ":1534,"à½ŀà½¦":1535,"à¼´à¼į":1536,"à¾¡à¾·à½±à¼ĭ":1537,"à¾Łà½´à¼į":1538,"à½ĳà½Ħà½Ĥà½¦":1539,"12":1540,"à½Ŀà½ł":1541,"Ġà½Ĥà½Ł":1542,"à¾Ĵà½±à¼ĭ":1543,"à¼©à¼¢":1544,"à¼©à¼¥":1545,"à½Ģà½£":1546,"à½Ķà½¡":1547,"à¼ĭà½µà¾ĥà¼ĭ":1548,"à½Ĥà½¦à½Ĥ":1549,"Ġà½ĺà½Ħ":1550,"à½¢à½Ķ":1551,"à½ļà½¦":1552,"à½¦à½Ĥà½¦":1553,"Ġà½Ĥà½¦à½Ħ":1554,"Â¶":1555,"à¼¨à¼¢":1556,"à½ħà½ĳà½ĺ":1557,"Ġà½ĳà½Ķ":1558,"à¾¨à¼į":1559,"à¾±à½¾à¼ĭ":1560,"à½Ħà½Ĩ":1561,"13":1562,"à¾¡à¼į":1563,"Ġà¼º":1564,"à¼©à¼¦":1565,"à¾·à¾²à½±à½´à¾ĥà¼ĭ":1566,"à¾¨à½´à¼ĭ":1567,"à½Ķà½ĸ":1568,"à½¦à½ŀ":1569,"à¼ĭà¾İ":1570,"à¼¨à¼§":1571,"à½ĵà½Ķà½¦":1572,"à¾©à¾Ń":1573,"à¾¨à¾±":1574,"à½Ķà½¢à½ĺ":1575,"à½ļà½ĺ":1576,"à¾¦à½²":1577,"à½ĸà½Ĥà½¦":1578,"à½ĵà½Ĩ":1579,"à¼©à¼¡":1580,"à½Ĥà½¦à½Ķà½ł":1581,"à¼¨à¼¥":1582,"Ġà½łà½ĩà½ĺ":1583,"Ġà¼¡à¼¡":1584,"à½£à½Ķ":1585,"à½ĳà½ĸà½ŀ":1586,"à¾¨à¾±à½´à¼ĭ":1587,"Ġà¼¡à¼¥":1588,"à½ĸà½¦à½ĸ":1589,"à½ĵà½ĺà½ģà½ł":1590,"à¼¡à¼©à¼¥à¼©":1591,"à½Īà½²":1592,"à½ĵà½ħ":1593,"Ġà½Ĥà½ŀ":1594,"à½Ĥà½¦à½ĺ":1595,"Ġà½£à½ĺ":1596,"à½¢à½ĸà½ł":1597,"14":1598,"à½£à½Ģ":1599,"½ĥ":1600,"à½ĥ":1601,"à¼¨à¼¡":1602,"à½ĳà½ĺà½¦":1603,"à½ĳà½Ĥà½ĸ":1604,"à¾Ńà½ºà¼ĭ":1605,"à¼©à¼£":1606,"à½²à¼ĭà¼´":1607,"à¾Łà½ºà¼ĭà¼į":1608,"à¼¡à¼¡à¼§":1609,"à¼¨à¼¦":1610,"à½ĳà½ĳà½Ħ":1611,"à½ĺà½Ĥà½£":1612,"à¼¨à¼£":1613,"à½ĳà½Ķà½łà½¦":1614,"à¾·à¾±à½¼":1615,"à½Ľà½ł":1616,"à¾©à½¼à¼ĭ":1617,"à¼¨à¼¤":1618,"15":1619,"à¼¢à¼¡à¼¢":1620,"à½Ĭà½ĺ":1621,"Ġà½ĵà½ĳ":1622,"à½¨à½ī":1623,"à¼¢à¼¡à¼¡":1624,"à¼©à¼¤":1625,"Ġà½ĸà½ħà½¦":1626,"à½ºà½¾à¼ĭ":1627,"à½§à½ĸ":1628,"à½ħà½£":1629,"à½ĳà½Ķà½łà½Ĩ":1630,"Ġà¼¡à¼£":1631,"à½Ĥà½ŀà½ł":1632,"Ġà½Ĥà½ħ":1633,"à½ĵà½ĳà½Ħ":1634,"à¾¦à¾¦à¼ĭ":1635,"à½ĳà½İ":1636,"à¾¦à½ºà¼ĭ":1637,"Ġà¼¡à¼¤":1638,"à½ĸà½Ļà½Ĥà½¦":1639,"16":1640,"à¼¡à¼¡à¼©":1641,"à½Ĥà½¤à½Ħ":1642,"à¾±à½ºà½ºà¼ĭ":1643,"à½ĳà½ĵà½¦":1644,"à½ĩà½ł":1645,"à½¦à½¢à½ĸ":1646,"Ġà½Ĥà½ı":1647,"à½łà½ĸà½Ĥà½¦":1648,"à½ıà½ĳ":1649,"à½Łà½£":1650,"à½ĸà½Ļà½Ĥ":1651,"à½ĵà½Ģ":1652,"à½Ĭà½¢":1653,"à½§à½£":1654,"Ġà¼¢à¼¢":1655,"à¾¤à¾±à½¼à¼ĭ":1656,"à½Ģà½İ":1657,"Ġà½ĳà½Ģ":1658,"à¾£à½²à¼ĭ":1659,"à½ĸà½Ĥà½ĳ":1660,"à½ĳà½Ĥà½£":1661,"à½łà½ĸà½ĺ":1662,"Ġà½ĸà½ł":1663,"à¼Ģà½ĸà½Ľ":1664,"Ġà¼¡à¼©":1665,"Ġà¼¡à¼§":1666,"à½¦à½ĸà½¦":1667,"à¾²à¾Ńà¼į":1668,"Ġà¼¡à¼¨":1669,"à½§à½ĳ":1670,"à¾Łà¾Ńà½¾à¼ĭ":1671,"à½ĸà½ıà½Ĥ":1672,"à¾¡à½¼à¼į":1673,"à½´à¾ĥà¼ĭ":1674,"à¾¥à½ºà¼ĭ":1675,"17":1676,"à½Ķà½Ķ":1677,"à½ĳà½ĺà½ļ":1678,"à½Ķà½¦à½ĵ":1679,"à¼¡à¼©à¼¥":1680,"à¼¢à¼¡à¼¤":1681,"à¾Ńà½¼":1682,"Ġà½Ĳà½ĺà½¦":1683,"à½īà½¦":1684,"à½¡à½Ħà½ĺ":1685,"18":1686,"Ġà½Ļ":1687,"à½ĺà½¦à½£":1688,"à½Ķà½łà½ĳ":1689,"à½ĺà½¦à½¢":1690,"à½²à¼ĭà¼Ĳ":1691,"à½ĳà½Ĥà½ĵ":1692,"Ġà½ĺà½Ĳ":1693,"à½Ķà½¢à½¢":1694,"à¼¢à¼¡à¼£":1695,"à½¦à½Ĩ":1696,"à½łà½Ĥà½ĸ":1697,"à¾·à¾±à½¼à¼į":1698,"à¼ĭà¼įà¼ĭà¼į":1699,"à½Ĥà½ĳà½Ĥ":1700,"à½ĸà½¡":1701,"à½Ħà½ĸà½ł":1702,"à¼¡à¼¡à¼¡":1703,"à½ĳà½ĸà½¦":1704,"à½Ĥà½ĸà½¦":1705,"à½Ĥà½ıà½ł":1706,"à½Ĥà½¥":1707,"à½łà½ĸà½¦":1708,"à½Ĥà½Ķà½ł":1709,"à¾²à½±":1710,"à½Ķà½¢à½¦":1711,"19":1712,"Ġà¼¡à¼¦":1713,"à¼¢à¼¡à¼¦":1714,"à½¨à½¨":1715,"à¼Ļ":1716,"à½ĳà½ĸà½ĳ":1717,"à¾µà½´à¼ĭ":1718,"à½ĳà½ı":1719,"à¼Ģà½¨":1720,"à¾±à½±":1721,"à¼¡à¼©à¼¦":1722,"à½ŀà½ĺ":1723,"à½ĵà½Ł":1724,"à¾±à¾±à½²":1725,"à½ĺà½ĳà½¢":1726,"à½ĺà½ĺà½Ĩ":1727,"à½£à½ŀ":1728,"Ġà½Ķà½¦":1729,"à½¢à½ī":1730,"20":1731,"à½±à½¼à½¾à¼ĭ":1732,"à½Ķà½¦à½¦":1733,"Ġà½Ĥà½£":1734,"à¾¡à¾·à½¼à¼ĭ":1735,"à¾²à½²à½¾à¼ĭ":1736,"à½ĸà½ıà½ĸà½¦":1737,"à½ĺà½ĳà½Ĥ":1738,"à½łà½£":1739,"à½¢à½ĸà½ı":1740,"à¾Ĵà¾±à½´à¼ĭà¼į":1741,"à½ĸà½ŀà½¢":1742,"à½Ĥà½¤à½Ĥ":1743,"à½ĺà½ĵà½ĸà½¦":1744,"à¼ĭà½ºà¼ĭ":1745,"Ġà½ĺà½Ĥ":1746,"à½£à½ķ":1747,"à½£à½ī":1748,"à½ĸà½¢à½ĸ":1749,"Ġà½ļà½ĳ":1750,"à¾Ĺà½¼à¼ĭ":1751,"à½Ŀà½£":1752,"à¾¤à¾²à½´à¼ĭ":1753,"à½ĸà½Ģà½ĵ":1754,"à¾Ĵà¾²à½ºà¼ĭ":1755,"à½£à½ļ":1756,"à½£à½Ĩ":1757,"à½ĵà½¦à½¦":1758,"à½łà½ĵ":1759,"à½łà½ķà½Ĥ":1760,"à¾²à½´à½¾à¼ĭ":1761,"à¼ĭà½¼à¼ĭ":1762,"à½¦à½łà½ĺ":1763,"à½Ĥà½īà½Ĥà½¦":1764,"à½ĺà½ĵà½ĺ":1765,"à½ĺà½ļà½ĵà½ĺ":1766,"à¾¶à¼ĭ":1767,"à½ĺà½ĳà½¦":1768,"à¾ªà½²":1769,"½«":1770,"à½«":1771,"à½¼à½¼à¼ĭ":1772,"à¾ªà½±":1773,"à½ħà½ĳà½Ģ":1774,"à¾Ļà½±":1775,"à½łà½ĸà½£":1776,"à½Ĥà½ĵà½ĵ":1777,"à¾±à½¼à¼į":1778,"à¼ĭà½´":1779,"à½Ķà½£à½¦":1780,"à¾¥à½´":1781,"à½Ĵà½¢":1782,"à½ĵà½ī":1783,"à¼¢à¼¡à¼¥":1784,"Ġà½Łà½ĸ":1785,"à½ĸà½Ļà½ĳ":1786,"à½£à½ĸà½¢":1787,"à¾º":1788,"à½Ħà½ĵà½¦":1789,"à½Ķà½¢à½łà½Ĥ":1790,"à½ĸà½¤à½¦":1791,"à½ĸà½ĵà½¦":1792,"à½¦à½Ķà½¢":1793,"Ġà½ĺà½ģà½¦":1794,"Ġà½ĸà½¦à½ĺ":1795,"à¼¢à¼¡à¼¨":1796,"à½¡à½Ħà½ĳà½Ĥ":1797,"à¼¡à¼¡à¼¥":1798,"à½ĵà½ĸà½¦":1799,"à¾¤à¾²à½²à¼ĭ":1800,"à½ĳà½ĳà½Ĥ":1801,"à¼¡à¼¢à¼§":1802,"à½ĸà½¦à½¦":1803,"à¾Ĳà¼į":1804,"à½ĺà½Ĳà½Ħ":1805,"à½Ĥà½ĵà½Ħà½¦":1806,"à½ĺà½ŀ":1807,"à½¤à½Ģ":1808,"à½ĸà½¢à½ĺ":1809,"23":1810,"à½¦à½ļ":1811,"à¼¡à¼¡à¼£":1812,"à½Ĥà½ļ":1813,"à¾·à¾Ńà¼ĭ":1814,"à½ĸà½łà½ĳ":1815,"à½łà½Ľà½ĵ":1816,"à½¦à½ĳà½Ħ":1817,"à½ķà½ĳ":1818,"à½£à½¦à½¦":1819,"à½£à½ĸà½¦":1820,"à¾¦à¾·":1821,"à¼¡à¼¡à¼¦":1822,"Ġà½ĺà½ĵ":1823,"à¼¡à¼¡à¼¨":1824,"Ġà½Ŀ":1825,"à¼ĭà¼ŀ":1826,"à½ĳà½ŀ":1827,"à½¨à½£":1828,"à¼¢à¼¡à¼§":1829,"à½Ĥà½¡à½ĺ":1830,"à½£à½ģ":1831,"à¾¤à¾±à½²à¼į":1832,"à¾²à½±à½²à¼į":1833,"à½Ĥà½Ģ":1834,"à¾·à¾£":1835,"à¾Ĳà½²":1836,"24":1837,"à½ĺà½¦à½¦":1838,"à½ĳà½Ħà½Ħ":1839,"à¼¡à¼©à¼§":1840,"à¼¡à¼¢à¼¨":1841,"à½ĵà½łà½ĳ":1842,"à¾Ĳà¾±à¼į":1843,"à¼¡à¼¢à¼©":1844,"à½ĸà½¦à½¢":1845,"à¾łà½±à¼ĭ":1846,"à½Ķà½ĳà½Ĥ":1847,"à½īà½ĳ":1848,"à½Ĥà½ķ":1849,"à¾²à¾°":1850,"à½ĵà½ıà½ĵ":1851,"à½ĸà½Ļà½ĺ":1852,"à¾¤à¾²à½ºà¼ĭ":1853,"à½ĳà½ĵà½ĺà½¦":1854,"Ġà½ĺà½ģà½ł":1855,"à¼¡à¼©à¼¤":1856,"à½łà½ģà½Ħ":1857,"à½¼à¼ĭà¼Ĳ":1858,"Ġà½łà½ķ":1859,"Ġà½Ĥà½¤":1860,"à½£à½¦à½¢":1861,"à¾¤à¾±à½´":1862,"à½Ĥà½Ĳ":1863,"à½Ķà½¤":1864,"à½ĳà½¡":1865,"à½ĺà½¦à½ĵ":1866,"à¼¡à¼¢à¼¦":1867,"25":1868,"à½Ķà½¢à½Ĥ":1869,"à½Ľà½Ķ":1870,"à½łà½Ĳà½ĺà½¦":1871,"à¾¨à¾±à½²":1872,"à¾Ĳà¾²à¾Ģà¼ĭ":1873,"à¼¡à¼¡à¼¤":1874,"à½Ĥà½¦à½ĵà½¦":1875,"Ġà½ĵà½ĺ":1876,"à½ĺà½¦à½ĳà½Ķà½ł":1877,"à½¢à½ĸà½Ģ":1878,"à½Ķà½ı":1879,"à½ŀà½ĳ":1880,"à½¢à½ŀ":1881,"à½´à¼ĭà¼Ĳ":1882,"à½Ħà½ĸà½¢":1883,"à¾·à½²à¼į":1884,"à½ĸà½£à½¦":1885,"à¾Ńà½¾à¼ĭ":1886,"à½Ĥà½Ķà½¢":1887,"26":1888,"à½£à½ı":1889,"à¾Łà½¾":1890,"à½Ķà½ļ":1891,"à¼¢à¼¢à¼¢":1892,"à½ĸà½¤à½¢":1893,"à¾²à½±à½²à½¾à¼ĭ":1894,"à½ĳà½ĺà½Ĥà½¦":1895,"à½Ķà½ª":1896,"à½¦à½ī":1897,"à½¦à½¤":1898,"Ġà½Ľ":1899,"à½Ģà½Ĥ":1900,"à½ħà½ł":1901,"à½²à½²":1902,"à½łà½Ľà½ł":1903,"Ġà½Ĥà½ĳ":1904,"à½ħà½ĳà½ĺà½ģ":1905,"à½¦à½¡":1906,"à¼¡à¼¢à¼¥":1907,"à¼¡à¼¢à¼¤":1908,"à½Ħà½ŀ":1909,"à½±à½ºà¼ĭ":1910,"Ġà½ħà½ĵ":1911,"à¾ķà½²à¼į":1912,"à½ĺà½Ģ":1913,"à½ĸà½§":1914,"à¼¡à¼¢à¼¢":1915,"à½Ħà½ģ":1916,"à¼¡à¼¤à¼¢":1917,"à¼¡à¼¢à¼¡":1918,"à¾¡à½±à¼ĭ":1919,"Ġà½Ĥà½Ħà½¦":1920,"à¾Ľà½²à¼ĭ":1921,"à¾Ńà½²à¼ĭ":1922,"Ġà½ĺà½ļ":1923,"à½Ĩà½Ħà½¦":1924,"à½ĸà½ŀà½ĺà½¦":1925,"à½ĸà½Łà½¢":1926,"à½¥à½ł":1927,"à½ıà½ı":1928,"27":1929,"à½ĺà½ĵà½¦":1930,"à½Ħà½Ģ":1931,"à½ĸà½Ħà½¦":1932,"à¼Ģà½ĺ":1933,"à½£à½¡":1934,"à¼ĭÂ¶":1935,"à½Ĥà½¡à½ĵ":1936,"à¾Łà½±":1937,"à½Ĥà½ħà½¢":1938,"à½ĺà½¤":1939,"à¼¡à¼£à¼©":1940,"à½Ħà½¦à½Ķ":1941,"28":1942,"à½ĳà½ª":1943,"à¼¡à¼¢à¼£":1944,"à½ĵà½ļ":1945,"à¼ĭà½µà½¾à¼ĭ":1946,"à¾Ķà½º":1947,"à½Ĥà½łà½ĳ":1948,"Ġà½ĸà½Ģ":1949,"à¼¡à¼£à¼¥":1950,"à¾ªà½±à¼ĭ":1951,"à¼¡à¼¤à¼¥":1952,"à½¨à½İ":1953,"à¼¡à¼©à¼£":1954,"à½ĺà½¦à½ĺ":1955,"à¼¡à¼¤à¼©":1956,"à¾·à½±à½´":1957,"à½Ľà½ĳ":1958,"à½²à½²à¼ĭ":1959,"à¼¡à¼©à¼¢":1960,"à½īà½§":1961,"à½Ĺà½¥":1962,"à½łà½ļà½Ħà½¦":1963,"à¾±à¾²à½º":1964,"Ġà½Ķà½ĳ":1965,"à½£à½łà½ĳ":1966,"à¼ĭà½Īà½º":1967,"à¼¡à¼¤à¼¤":1968,"à½Ĥà½Ĥà½¡":1969,"Ġà½¡à½ĵ":1970,"à¾Ĵà¾±à¼ĭà¼į":1971,"à¾°à½´":1972,"à½£à½łà½ĸ":1973,"à½Ĥà½Łà½ĸà½¦":1974,"à½ĸà½Ĥà½ĺ":1975,"Ġà½ĳà½Ĥà½ł":1976,"à½Ĭà½Ģ":1977,"à¼¡à¼¥à¼§":1978,"à¾Ģà¼į":1979,"à¼¡à¼¤à¼¡":1980,"à½ĵà½£à½¦":1981,"Ġà½ģà½ĺà½¦":1982,"à¼¡à¼£à¼¨":1983,"à¼¡à¼£à¼¦":1984,"à¼¡à¼§à¼¨":1985,"29":1986,"Ġà½ĸà½Ł":1987,"à¼¢à¼¡à¼©":1988,"à¼¡à¼¥à¼¥":1989,"à¼¡à¼£à¼£":1990,"Ġà¼¢à¼¤":1991,"à¾Ĳà¾±à½¼à¼į":1992,"à¼¡à¼¤à¼¨":1993,"à½ĵà½¦à½¢":1994,"à½Ĥà½Ļà½Ĥà½¦":1995,"à½ļà½ĳà½Ħ":1996,"à½¡à½Ļ":1997,"à¾Ļà½¾à¼ĭ":1998,"à½±à¼ĭà¼į":1999,"à½¦à½ģ":2000,"à¾Łà½¾à¼į":2001,"à½ĸà½ŀà½Ĥà½¦":2002,"à¼¡à¼¦à¼¨":2003,"à½¢à½Ħà½Ĥ":2004,"à¼¡à¼¥à¼©":2005,"à¼¡à¼£à¼¤":2006,"à¼¡à¼£à¼¢":2007,"à¼¡à¼§à¼¥":2008,"à¼Ŀ":2009,"à¼¡à¼©à¼¡":2010,"à¼¡à¼£à¼§":2011,"à¼¡à¼§à¼§":2012,"à¼¡à¼¦à¼¢":2013,"à½ĳà½Ħà½£":2014,"à¾Ķà¼ĭà¼į":2015,"à½ĳà½Ħà½ĺ":2016,"à¾·à¾²à½±à½´à½¾à¼ĭ":2017,"à¼¡à¼¥à¼¤":2018,"à¼¡à¼£à¼¡":2019,"à½¨à½Ļ":2020,"à¼¡à¼¤à¼§":2021,"à½¨à½¥":2022,"à¾ºà¼ĭ":2023,"à½ĵà½ĵà½ĺ":2024,"à½łà½ļà½Ĥ":2025,"à¼¡à¼¥à¼¨":2026,"à½²à¼ĭà½Ī":2027,"Ġà¼¢à¼¥":2028,"Ġà½ĸà½¤à½ĳ":2029,"à½¦à½Ķà½¦":2030,"à¼¡à¼§à¼¡":2031,"à¼¡à¼¤à¼£":2032,"à½ĸà½Ķà½ł":2033,"à½ĵà½ģ":2034,"Ġà¼¢à¼¦":2035,"à¾·à½¾à¼į":2036,"à¼¡à¼¤à¼¦":2037,"à¼¡à¼¨à¼©":2038,"à¾Łà½¼à¼į":2039,"à¼¡à¼§à¼¢":2040,"à¼¡à¼§à¼©":2041,"à½ĸà½Ĳ":2042,"à¾²à½±à½¾à¼ĭ":2043,"à½ĵà½¤":2044,"à½ĸà½ĸà½¢":2045,"à½ĸà½ĳà½ĳ":2046,"à½ħà½ĳà½£":2047,"à½ĸà½¢à½łà½Ĥ":2048,"à½¦à½Ł":2049,"à½ĳà½Ģà½ª":2050,"à¾ŀà½²à¼ĭ":2051,"à¾·à¾²à¼ĭ":2052,"à¼¡à¼¦à¼¥":2053,"à¾Ĺà½²à¼ĭ":2054,"à½¨à½§":2055,"à¾·à¾²à¾Ģ":2056,"à½Ĥà½¦à½Ħà½¦":2057,"à½Ĥà½ŀà½¢":2058,"à¼¡à¼¥à¼¦":2059,"à¼¡à¼¦à¼£":2060,"à¼¡à¼¦à¼§":2061,"à½¢à½İ":2062,"à½ĳà½§":2063,"Ġà¼¢à¼¡":2064,"à¾ķà¼ĭ":2065,"à½Ĥà½Ļà½Ĥ":2066,"à¾¡à¾·à½²":2067,"à½Ķà½¦à½ĳ":2068,"à½¢à½ĸà½¢":2069,"à½ĸà½ħà½ĵ":2070,"à½Ħà½¤":2071,"à½ģà½ħ":2072,"à½£à½¦à½Ģ":2073,"30":2074,"à½£à½£à½¦":2075,"à½±à½´à¼į":2076,"Ġà½ĸà½Ĥ":2077,"à½¦à½ĸà½¢":2078,"à¼¡à¼¦à¼©":2079,"à¼¡à¼©à¼©à¼©":2080,"à¾Ĵà¾±à½ºà¼ĭ":2081,"à½Łà½ĸà½¦":2082,"à½ĸà½Ķà½¢":2083,"à½Ĥà½¦à½Ķà½¢":2084,"à½Ĵà½ĵ":2085,"à½łà½ł":2086,"à¼¡à¼¦à¼¡":2087,"à¾¡à¾·à½¾à¼ĭ":2088,"à½£à½ĸà½ł":2089,"à¾±à½²à¼ĭà½²":2090,"à½Ħà½ĸà½¦":2091,"à½ĸà½ıà½ĳ":2092,"Ġà½łà½Ľ":2093,"Ġà½Ĥà½Ļà½Ħ":2094,"à½ºà¼ĭà½Īà½²":2095,"à¼¡à¼¦à¼¤":2096,"à¾ĳ":2097,"à½Ķà½ĵà½¦":2098,"à¼¡à¼§à¼£":2099,"à¼ĭà¼Ŀ":2100,"à½Ģà½ª":2101,"à¾ľà½±à½²à¼ĭ":2102,"à¼Ģà½§":2103,"à¾¡à¾·à½¼":2104,"à½Ľà½¢":2105,"à½Ķà½¦à½¢":2106,"à½łà½Ľà½¢":2107,"à½ĸà½Ģà½łà½¦":2108,"Ġà½Ĥà½Ļ":2109,"à½Ľà½ĸ":2110,"à¾¥à½¼à¼ĭ":2111,"à¾²à¼ĭà¼į":2112,"à½ĸà½ĸà½ŀ":2113,"à¾¦à¾±à½²à¼ĭ":2114,"à¼¡à¼§à¼¦":2115,"à½łà½Ĳà½ĺ":2116,"à¾£à¾²à½¼":2117,"à½ĸà½ĳà½Ĥà½ī":2118,"à½Ģà½łà½ĺ":2119,"à½łà½Ĳà½ĸà½¦":2120,"à½¢à½Ħà½ĸà½ŀ":2121,"à¼¡à¼¦à¼¦":2122,"à½ĺà½Ķà½ł":2123,"à½ĸà½¤à½ĳà½Ķ":2124,"à½ĵà½ĳà½Ĥ":2125,"à½ĳà½ĸà½Ĥ":2126,"à½²à¼įà¼ĭà¼į":2127,"à½ĺà½ĺà½Ĳ":2128,"à½ĺà½Ħà½ĵ":2129,"à½ĵà½ĺà½Ĩ":2130,"à½£à½łà½ĺ":2131,"à½±à½¾":2132,"à¼¡à¼¥à¼£":2133,"22":2134,"à½Ħà½ħ":2135,"à½ĸà½ĸà½ĸ":2136,"à½Ĥà½¤à½¢":2137,"à¾µà¼į":2138,"à½ĸà½ĳà½ĺ":2139,"Ġà½Ĥà½ĵà½ł":2140,"à½ħà½ĳà½ĵ":2141,"à½Ķà½ĸà½¦":2142,"à½ĺà½Ł":2143,"à½Ħà½Ĥà½¦":2144,"à½ĵà½ķ":2145,"à½ĳà½Ĥà½ī":2146,"à½ĺà½īà½ĺà½¦":2147,"à½Ĩà½łà½Ħ":2148,"Ġà¼¢à¼§":2149,"à¾¨à¾¨à¼ĭ":2150,"à½¨à½Ĭ":2151,"Ãĥ":2152,"à½±à½¼à¼ĭ":2153,"à½Ľà½ŀ":2154,"à½£à½¦à½ĺ":2155,"à½£à½ĺà½Ħ":2156,"à½ĸà½ģ":2157,"Ġà½ĳà½Ģà½¢":2158,"à½ĸà½ļ":2159,"à½Ĥà½Ħà½Ĥ":2160,"Ġà½Ĥà½ĵ":2161,"à¼¡à¼¨à¼¢":2162,"à½ĵà½ĸà½¢":2163,"34":2164,"à½ĸà½ķ":2165,"à½Ķà½¢à½¤":2166,"à½ĸà½¢à½ĵ":2167,"à¾Ĺà¼ĭ":2168,"à¼¡à¼§à¼¤":2169,"à½¢à½ĳà½Ħ":2170,"à½ĳà½ĺà½ĳ":2171,"Ġà¼¢à¼¨":2172,"à¾ķà½ºà¼į":2173,"à½Ĭà½¦":2174,"à¾±à½²à¼įà¼ĭ":2175,"à½ĸà½¤à½Ĥ":2176,"à½¡à½ĵà½£à½Ĥ":2177,"à½Ĩà½łà½ĺ":2178,"à¾¦à¼į":2179,"à½Ħà½ī":2180,"à½ĵà½¦à½ĳ":2181,"à½Ĥà½ħà½Ĥà½¦":2182,"à¾¦à½±à¼ĭ":2183,"Ġà½ĸà½Ļà½ĵ":2184,"à½ıà½£":2185,"à¼¡à¼©à¼¨à¼©":2186,"Ġà¼¢à¼©":2187,"à¼¡à¼©à¼¥à¼¨":2188,"à½´à½´à¼ĭ":2189,"à½łà½Ķ":2190,"à½£à½¤":2191,"à½Ĥà½Ĥà½ī":2192,"à½Ĥà½łà½ĺ":2193,"à¾³à¼ĭà¼į":2194,"à½¡à½ı":2195,"à¾¦à¾±à½¼à¼ĭ":2196,"à½¢à½ĸà½łà½ĸ":2197,"Ġà¼¢à¼£":2198,"à¾ŀà½±à¼ĭ":2199,"à½ĳà½Ĥà½łà½ĸ":2200,"à¾³à½±à¼ĭ":2201,"Ġà½Ĳà½ĸà½¦":2202,"à½ķà½Ĥà½¦":2203,"Ġà½łà½Ĩ":2204,"à½Ĥà½ĳà½¢":2205,"à½¦à½Ĳ":2206,"à¾ļà½±à¼ĭ":2207,"à½ĺà½ħ":2208,"à½Įà½¢":2209,"35":2210,"à½Ģà½ĳ":2211,"à½ĵà½Ĳ":2212,"Ġà½ĳà½Ķà½ł":2213,"à½¦à½łà½ĳ":2214,"à½¡à½ŀ":2215,"à½łà½Ħà½¦":2216,"à½ĳà½Ħà½ĵ":2217,"à½Ķà½¦à½ĺ":2218,"à¼¡à¼¨à¼¨":2219,"Ġà½ĺà½ģ":2220,"à½Ļà½£":2221,"à¾µà½²":2222,"à½ĺà½Ĩà½ĳ":2223,"à½Ķà½Ĳà½ĺà½¦":2224,"à½İà½¦":2225,"à½łà½Ģ":2226,"à½Ľà½ĵ":2227,"à½ºà¼ĭà½²":2228,"à½ĸà½¢à½Ĥ":2229,"à¾ľà½ºà¼ĭ":2230,"à¼¡à¼¥à¼¢":2231,"à¾İ":2232,"à½£à½ĳà½Ħ":2233,"à¾Ĳà½±à¼ĭ":2234,"à½Ļà½ĸ":2235,"à¾łà½²à¼ĭ":2236,"à¾²à¾°à½²à¼ĭ":2237,"à¾Łà¼ĭà¼į":2238,"à¾Ĵà¾·à¼ĭ":2239,"Ġà½īà½ĺà½¦":2240,"à½ĸà½ĺà½¦":2241,"à½ĳà½£à½¦":2242,"à½£à½ĺà½Ĩ":2243,"à½Ķà½ģ":2244,"36":2245,"à½¢à½¡":2246,"à¼¡à¼¥à¼¡":2247,"37":2248,"à½ĸà½¦à½ĸà½¦":2249,"à½¼à½¼":2250,"à½łà½Ľà½Ĥà½¦":2251,"à½Ĥà½¨":2252,"à¼¡à¼¨à¼§":2253,"à¼¡à¼¨à¼£":2254,"à½£à½ĵà½¦":2255,"à¾¼":2256,"à¾¦à¾·à½±à½²à¼ĭ":2257,"à¼ĭà½¾":2258,"à¾·à¾£à½±":2259,"à½Ħà½¦à½ĺ":2260,"à½ĸà½ĳà½Ķ":2261,"à¾µà½±à¼ĭ":2262,"à½ĸà½Ĥà½Ħ":2263,"à½ĸà½ĳà½ĵ":2264,"à¾¨à¾²à½º":2265,"à½´à¼ĭà½²":2266,"Ġà½Ĥà½¦à½£":2267,"38":2268,"à½²à¼ĭà½²à¼ĭ":2269,"à½ĸà½ª":2270,"à¾©à½´à¼ĭ":2271,"Ġà½Ħà½Ĥ":2272,"à½ĳà½Ħà½ĸà½ħà½¦":2273,"à½ĵà½łà½ĺ":2274,"à½¦à½ĳà½¦":2275,"à½£à½Ĥà½ĵà½¦":2276,"à¼¡à¼¨à¼¥":2277,"à½Ĵà½¥":2278,"à¾Ĵà½ºà¼į":2279,"à¼¡à¼¨à¼¤":2280,"à½Ħà½ĳà½Ħ":2281,"à½Ģà½ı":2282,"à¾±à¼įà¼ĭ":2283,"à½ĳà½ĳà½Ķ":2284,"à¾¡à¾·à¼į":2285,"Ġà½ĺà½Ĳà½ł":2286,"à¼¡à¼©à¼¨à¼§":2287,"à½ħà½ĺ":2288,"à½ĸà½łà½Ĥ":2289,"39":2290,"à¼¡à¼©à¼¨à¼¥":2291,"à½ħà½ĵà½¢":2292,"à¾©à½±à¼ĭ":2293,"Ġà¼£à¼¥":2294,"à¼¡à¼¨à¼¦":2295,"à½¢à½ļ":2296,"à½ĸà½ĳà½Ĥà½Ĥ":2297,"à½ĵà½ĳà½ĺ":2298,"à½ĺà½ı":2299,"à½£à½ĺà½ģà½¦":2300,"à¾´à½²à¼ĭ":2301,"à¾·à¾²à¾Ģà¼ĭ":2302,"à¾ªà¼į":2303,"à¾°à¼į":2304,"à½Ĥà½¦à½ł":2305,"à¾¦à¾·à½²à¼ĭ":2306,"à¾£à½±à¼ĭ":2307,"21":2308,"Ġà½ĺà½īà½ĺ":2309,"à¾·à½ºà¼į":2310,"à¾°à½´à½¾à¼ĭ":2311,"à½¼à¼ĭà¼Ĳà¼į":2312,"à½¢à½ĵà½¦":2313,"à½¦à½Ļ":2314,"à½łà½ĳà½£":2315,"à¼¡à¼¨à¼¡":2316,"à½Ĥà½ĵà½¦à½¦":2317,"à½Ĥà½£à½¦":2318,"Ġà¼£à¼©":2319,"à½¦à½ķ":2320,"à¾¡à¾·à½¾à¼į":2321,"à½ĸà½Ģà½ĳ":2322,"à½Ĳà½ĳà½ĳ":2323,"à½ĵà½¡à½Ħ":2324,"à¾¶à½¾à¼ĭ":2325,"à½Ļà½¦":2326,"à½ĳà½ĺà½Ħ":2327,"Ġà½łà½ĳà½¦":2328,"à½ĺà½ļà½ĵà½ī":2329,"à½Ħà½¦à½ĵà½¦":2330,"Ġà½ŀà½£":2331,"à½Ĥà½łà½Ħ":2332,"à½Ķà½Ĥà½Ħ":2333,"à½ĳà½Ĩà½Ĥà½¦":2334,"à½£à½¦à½ĸ":2335,"à½łà½ī":2336,"à½²à¼ĭà¼º":2337,"à½ĸà½ĩ":2338,"à¼¢à¼¢à¼¥":2339,"à¾Ńà½²":2340,"Ġà¼£à¼§":2341,"40":2342,"Ġà½ĳà½ĸà½£":2343,"à½¢à½ħ":2344,"à½ıà½ĸ":2345,"à¼¡à¼©à¼©à¼¡":2346,"à½ĵà½¦à½ĵ":2347,"Ġà½ħà½ĳ":2348,"à½Ķà½ķ":2349,"à½Įà½ł":2350,"à½ĳà½Ĥà½ħ":2351,"à½łà½ĸà½Ħ":2352,"à½ĺà½łà½ĳ":2353,"à½ĸà½¢à½¦":2354,"Ġà½ĸà½Ļ":2355,"à½ĳà½ķ":2356,"Ġà¼£à¼¡":2357,"à¼¡à¼©à¼©à¼¦":2358,"à¾¥à½º":2359,"Ġà½ķà½ĵ":2360,"à½Ķà½ħ":2361,"à½Ħà½¦à½ĵ":2362,"Ġà½ĸà½£":2363,"à¼¡à¼©à¼©à¼¥":2364,"à¾Łà¾Ńà½¾à¼į":2365,"Ġà¼£à¼£":2366,"à½Ľà½Ľ":2367,"à¾Łà¾Ńà¼ĭ":2368,"Ġà½£à½Ĥ":2369,"à¾·à¾Ń":2370,"Ġà¼£à¼¦":2371,"à½ĳà½Ĥà½Ķà½¢":2372,"à¾¦à¾²à½¼":2373,"à½Ķà½ĸà½ŀ":2374,"à½Ĥà½ĸà½¢":2375,"à½£à½¡à½Ħ":2376,"à½¢à½¥":2377,"à½ĳà½ģ":2378,"à½ļà½ĳà½ĺ":2379,"à½Ĥà½Ħà½£":2380,"à½Įà½Ģ":2381,"Ġà¼£à¼¨":2382,"à½Ķà½¢à½Ħ":2383,"à½ĵà½¦à½Ħà½¦":2384,"à½ĺà½ĸà½¢":2385,"à½£à½ĺà½Ĥ":2386,"à½Ķà½¢à½ĸà½¦":2387,"à½Ķà½Ĥà½ī":2388,"à½ĺà½ĸà½Ģà½ł":2389,"à½²à¼ĭà½¼":2390,"à½ĳà½¤":2391,"à½łà½ķà½ĺ":2392,"à¼¡à¼©à¼©à¼¢":2393,"Ġà½ĺà½Ľ":2394,"à½£à½¦à½ĵ":2395,"à¼¡à¼©à¼©à¼§":2396,"à½łà½Ľà½Ħà½¦":2397,"à¾ļà½²à½¾à¼ĭ":2398,"à½ĳà½Ħà½ĸ":2399,"à¼¡à¼©à¼¨à¼¨":2400,"à¾¦à¾·à½ºà¼ĭ":2401,"à½¡à½Ķ":2402,"à½Ķà½¡à½Ħ":2403,"à½£à½¦à½£":2404,"à¼¢à¼¢à¼¤":2405,"à½ĺà½ĳà½ĸ":2406,"à½ĺà½ª":2407,"à½µà¾ĥà¼į":2408,"à¼ĭà½´à¼ĭ":2409,"à½²à¼ĭà½º":2410,"à½¦à½¨":2411,"à½ĵà½¦à½ĺ":2412,"à½£à½Ĳ":2413,"à½Ģà½ī":2414,"à½¦à½ħà½ĵ":2415,"à¾Ļà½¼à¼ĭ":2416,"33":2417,"à½Ķà½Ĳ":2418,"Ġà½Ķà½İ":2419,"à½ĸà½¢à½Ħ":2420,"à¾¨à¾²à½²à¼ĭ":2421,"à½¢à½łà½ĳ":2422,"à¼ĭà¼ı":2423,"à½¨à½Ķ":2424,"à¾«à½ºà¼ĭ":2425,"à¼¢à¼¢à¼¦":2426,"à¼¡à¼©à¼©à¼£":2427,"à½¡à½Ħà½ĵ":2428,"à½Ĥà½¡à½£":2429,"à¾·à¾±à½±à¼ĭ":2430,"Ġà¼£à¼¤":2431,"à½ĳà½ĸà½ĵ":2432,"à½łà½Ļ":2433,"à¼¢à¼¢à¼§":2434,"à½Ĥà½ħà½Ĥ":2435,"à½Ħà½Ĳ":2436,"à½Ĥà½Ħà½ŀ":2437,"à½ĸà½ĸà½ĸà½ĸ":2438,"45":2439,"à¼¡à¼©à¼©à¼¨":2440,"Ġà½¤à½¢":2441,"à½£à½¨":2442,"à½¢à½Ķà½ł":2443,"à½Ĥà½¢à½Ħ":2444,"à½ĵà½Ĥà½ĵà½¦":2445,"à½ĳà½ĳà½ĺ":2446,"à½łà½ĳà½¦à½Ģ":2447,"à½ĳà½Ł":2448,"à½¢à½ģ":2449,"à¾Ľà½±à¼ĭ":2450,"à½ĺà½ĸà½¦":2451,"à¼¢à¼¢à¼¨":2452,"à¾²à½±à¾Ģà¼ĭ":2453,"à¼Ģà½Ĥ":2454,"à½Ĺà½Ĥ":2455,"à½ĸà½İ":2456,"à½ĳà½Ħà½Ķ":2457,"à¼¡à¼©à¼¥à¼¡":2458,"à½ĸà½Ĥà½ī":2459,"à¾²à½¼à¼ĭà¼į":2460,"à¾¡à¾·à½º":2461,"à¼Ģà½ĵ":2462,"Ġà¼£à¼¢":2463,"à½ķà½Ł":2464,"à¼ı":2465,"à½¡à½Ĥà½¦":2466,"à¾Ĳà½¼à¼į":2467,"à¾£à½¼à¼į":2468,"à½µà¼ĭ":2469,"à½ĸà½¦à½ĺà½Ĥà½ıà½ĵ":2470,"à½ŀà½ĸ":2471,"à¼µà¼į":2472,"44":2473,"à½Ķà½ħà½ĵ":2474,"à½Ķà½łà½ĸ":2475,"à½Ħà½ĩ":2476,"à½´à¼ĭà¼´":2477,"à½Ħà½¡":2478,"à¾·à¾±à¼į":2479,"à½¢à½¤":2480,"à½ĺà½Ĥà½¦":2481,"à½ĸà½¢à½ĳ":2482,"à¼¡à¼©à¼¨à¼¦":2483,"à¾¦à¾·à½±à½²":2484,"à½Ĥà½ħà½ĺ":2485,"à½Ģà½¤":2486,"à½ħà½ĵà½Ĥ":2487,"à¼¡à¼©à¼§à¼©":2488,"à½ĳà½ļ":2489,"Ġà½Ĩà½Ĥà½¦":2490,"à½¥à½Ĭ":2491,"à½¢à½Ĩ":2492,"à½Ŀà½Ģ":2493,"à¼¡à¼©à¼¨à¼¢":2494,"à½£à½Ĭ":2495,"à½Ģà½ĸ":2496,"à½łà½ģà½£":2497,"à¾¤à½±à¼ĭ":2498,"à½Ħà½ĵà½£à½¦":2499,"à½ĳà½Ļ":2500,"à½ĵà½¦à½£":2501,"à½Ĥà½ŀà½ĵà½£":2502,"à¼ĭà½Īà½¼":2503,"à¾·à½±à½²à¼į":2504,"à¾ªà½ºà¼ĭ":2505,"à½ĸà½ħà½ĸ":2506,"à¼¡à¼©à¼©à¼¤":2507,"à¾Ĳà½´à¼ĭà¼į":2508,"à½ĳà½Ĥà½Ķ":2509,"à¼¡à¼©à¼¨à¼¤":2510,"à½ĳà½ĺà½Ĩ":2511,"à½ģà½ģ":2512,"à¼¢à¼¢à¼©":2513,"à½±à½¼":2514,"à½¾à¼ĭà¼į":2515,"à¾¡à¾·à½ºà¼į":2516,"à½ĳà½ī":2517,"à½ĩà½¢":2518,"à¼¢à¼¦à¼¢":2519,"à½ĸà½Ĳà½ĺà½¦":2520,"à½¼à¼ĭà½²":2521,"à½Ħà½ķ":2522,"à¼¢à¼¢à¼£":2523,"46":2524,"à¾©à¼ĭà¼į":2525,"à½ĸà½ĳà½Ĥà½ĺ":2526,"à½Ĥà½¦à½ĳà½Ħ":2527,"à¾ŀà½±à½²à¼ĭ":2528,"47":2529,"à½ĵà½Ĥà½Ħ":2530,"à½ĳà½Ķà½ĳ":2531,"Ġà½Ģà½¢":2532,"à¼ĭà¾§":2533,"à½ħà½ĳà½¦":2534,"à¾Ńà½±à¼į":2535,"à¾·à¼ĭà¼į":2536,"à½ıà½Ĳ":2537,"à¾«à¾Ļà½±à¼ĭ":2538,"à½¦à½ĳà½Ĥ":2539,"à½ļà½ĺà½¦":2540,"à½ĺà½£à½¦":2541,"à¾²à½¼à½¾à¼ĭ":2542,"à½İà½¢":2543,"à¼¡à¼©à¼¥à¼¦":2544,"à¾ŀà¾ŀà¼ĭ":2545,"à½Ĥà½£à½ı":2546,"à½łà½ĳà½ĺà½¦":2547,"à¼ĭà¼¹à¾Ģà¼ĭ":2548,"à¼¡à¼©à¼¨à¼£":2549,"à½Ħà½ĳà½Ĥ":2550,"à½Ķà½Ķà½ł":2551,"à½Ŀà½ĺ":2552,"à½Ķà½¢à½ĳà½Ĥ":2553,"à¾ľà½±à¼ĭ":2554,"à½Ļà½ĳ":2555,"à¾¦à¾·à½¼à¼ĭ":2556,"à½¢à½¡à½Ħ":2557,"à½Ĥà½ŀà½ĵà½¡à½Ħ":2558,"à½Ħà½ı":2559,"Ġà½ĺà½Ľà½ĳ":2560,"Ġà½ĳà½ĳ":2561,"à¾¥à½²à¼ĭ":2562,"à½ĵà½ĺà½ĳ":2563,"à¾Ľà¼į":2564,"à½Ĥà½ıà½Ĥà½¦":2565,"à½Ĥà½¦à½ŀ":2566,"Ġà½ĺà½¢":2567,"à½ĵà½ĸà½ł":2568,"à½Ķà½ĸà½¢":2569,"à½ĳà½łà½ĳ":2570,"à¾µà½¼à¼ĭ":2571,"48":2572,"à¾Łà¾²":2573,"à¾ļà½±":2574,"à½ĵà½¢à½Ħ":2575,"à½łà½łà½ĳ":2576,"à½ĩà½ĺ":2577,"à¾Ĺà½¼à¼į":2578,"à½łà½ļà½ĳ":2579,"à½¼à¼ĭà¼´":2580,"à¾·à¾²à½²à¼ĭ":2581,"à¾°à½´à¾ĥ":2582,"à½£à½Ķà½ł":2583,"à¾±à½²à¼ĭà¼´":2584,"à½ĸà½ĺà½Ħ":2585,"à½Ħà½¦à½Ķà½ł":2586,"Ġà½ĸà½Łà½Ħ":2587,"à½ħà½ĳà½ĳ":2588,"à¾ªà½²à¼ĭ":2589,"49":2590,"à¼¢à¼£à¼§":2591,"à½ĵà½ĺà½Ħ":2592,"à½ĳà½Ĥà½ĺ":2593,"à¼Ģà½¦à½¢":2594,"à½Ķà½¦à½£":2595,"Ġà½ĺà½ģà½ĵ":2596,"à¾Łà½±à½¾à¼ĭ":2597,"31":2598,"à¼¢à¼¤à¼¢":2599,"à¼¡à¼©à¼¤à¼©":2600,"à½Ķà½Ł":2601,"à½´à½¾à¼į":2602,"à½łà½ŀ":2603,"à½£à½ĳà½Ĥ":2604,"à½ĸà½¢à½Ĥà½¦":2605,"à½ģà½łà½ĺ":2606,"à½ĸà½Łà½ĸà½¦":2607,"à¼¢à¼¥à¼¢":2608,"à½ħà½ĵà½¦":2609,"à½¦à½ĺà½Ĳ":2610,"à¼¢à¼§à¼¢":2611,"à½£à½ĺà½¦":2612,"à½ĸà½¦à½Ģ":2613,"à½ĩà½£":2614,"à¾³à¾Ģà¼ĭ":2615,"Ġà½ĵà½Ĥ":2616,"à½¼à¼µ":2617,"à¾Ĺà½ºà¼ĭà¼į":2618,"à½ħà½ĵà½ĺ":2619,"à½ĵà½Ĥà½ī":2620,"à½£à½Ĥà½¦à½¦":2621,"Ġà½£à½ĵ":2622,"à¾¨à¾±à½º":2623,"à½ĳà½Ĥà½ĳ":2624,"à¼¢à¼¦à¼§":2625,"à½ĳà½ĳà½ĳ":2626,"à¼Ģà½¤":2627,"à¼ĭà½ºà¼į":2628,"à¾²à½²à¼ĭà¼į":2629,"à½Įà½£":2630,"50":2631,"à½ħà½ĵà½ĵ":2632,"à¾£à½´à¼ĭ":2633,"à¼¢à¼§à¼§":2634,"à¼¢à¼£à¼¤":2635,"à½¡à½ģ":2636,"à¼¢à¼¦à¼¡":2637,"à¼¢à¼£à¼¥":2638,"à½¦à½ĺà½Ħ":2639,"à½¦à½łà½Ħ":2640,"à¼¢à¼§à¼¥":2641,"à¾£à½±":2642,"à¼¢à¼¦à¼¦":2643,"à½ĸà½Ļà½ĺà½¦":2644,"à½Ķà½Ķà½¢":2645,"à½łà½Ĥà½Ħ":2646,"à½łà½Ĥà½ĺ":2647,"à½²à½¾":2648,"32":2649,"à¾Ĵà¼į":2650,"à½ĵà½¦à½ĸ":2651,"à¼¢à¼¦à¼¤":2652,"à¼¢à¼¥à¼¤":2653,"à¼¢à¼¦à¼¥":2654,"Ġà¼´":2655,"à½¤à½ĺà½¦":2656,"à½¥à½¦":2657,"à¾Ĵà¾²à½´à¼ĭ":2658,"à¼¢à¼£à¼¨":2659,"à¼¢à¼¥à¼¦":2660,"à¼¢à¼£à¼¢":2661,"à½ĺà½¦à½Ķ":2662,"à¼¢à¼¤à¼¦":2663,"Ġà¼":2664,"à¾Ńà¾°":2665,"à½ĸà½łà½ĸ":2666,"à¼¢à¼£à¼¦":2667,"à¾¤à½²à¼ĭ":2668,"à½£à½Ĥà½ĵ":2669,"à¾²à½¾à¼į":2670,"à½łà½ĸà½ĵ":2671,"à½ĺà½ĵà½ĸ":2672,"à¼¢à¼¥à¼§":2673,"à¼¢à¼¨à¼¢":2674,"à¼¢à¼£à¼©":2675,"à¼¢à¼¦à¼©":2676,"à½Ħà½Ķà½ł":2677,"à½Łà½Ĳ":2678,"à½ĺà½ķ":2679,"à¼¢à¼¥à¼¥":2680,"à¼¢à¼¤à¼¥":2681,"à½ıà½Ķ":2682,"à½Ķà½Ķà½¦":2683,"à¼¢à¼£à¼¡":2684,"Ġà½¡à½¦":2685,"à½Ĥà½īà½Ĥ":2686,"à½Ĥà½ŀà½ĵà½Ĥ":2687,"à¼Ģà½ĸ":2688,"à½ĺà½ĺà½¦":2689,"à¼ĭà¼¹à½²à¼ĭ":2690,"à¾Łà¾²à½²à¼ĭ":2691,"à¼¢à¼¤à¼§":2692,"à½£à½ĺà½ļà½ĵ":2693,"à½¼à¼ĭà½Īà½²":2694,"à¼¢à¼§à¼¡":2695,"à¼¢à¼¥à¼¨":2696,"à¼¢à¼¤à¼©":2697,"à¼¢à¼©à¼¢":2698,"à½¦à½Ĳà½ĺà½¦":2699,"à½Ĥà½¦à½Ķà½¦":2700,"à½ĳà½Ģà½ĵ":2701,"à¼¢à¼¤à¼¨":2702,"Ġà½īà½ĵ":2703,"à½Ĳà½ļ":2704,"à½£à½¦à½ĳ":2705,"à¼¢à¼¥à¼¡":2706,"à¼¢à¼¦à¼¨":2707,"Ġà½ĺà½Ĳà½¢":2708,"à¼¢à¼©à¼©":2709,"à¾±à½ºà½º":2710,"à¾·à¾²à½´à½¾à¼ĭ":2711,"à½ĺà½Ĥà½ı":2712,"à¾¦à¾·à½º":2713,"à½ĵà½¨":2714,"Ġà½²à¼ĭ":2715,"à¾Łà½±à½²à¼ĭ":2716,"à¾ľà¼į":2717,"à¼¢à¼¥à¼©":2718,"à½£à½Ĥà½ī":2719,"à¼¢à¼§à¼¨":2720,"à¼ĭà¼Ŀà¼į":2721,"à½Ĥà½łà½ļà½£":2722,"à¼ŀà¼į":2723,"à½ĵà½Ļ":2724,"à½ķà½Ŀ":2725,"à¼¢à¼§à¼©":2726,"à½Ĥà½ĸà½ĳ":2727,"à½Ħà½łà½ĺ":2728,"à½ºà¼įà¼ĭà¼į":2729,"à½Ĥà½Ĥà½ŀà½ĵ":2730,"Ġà¼¤à¼¥":2731,"à½Ģà½Ĳ":2732,"à½ķà½¥":2733,"à½ĺà½ļà½ĳ":2734,"à¾¨à½²à¼į":2735,"à¾¨à¾±à¼ĭ":2736,"à¼¢à¼©à¼§":2737,"à¼¢à¼¤à¼¡":2738,"à¼Ģà½¦":2739,"Ġà½ĺà½ĩ":2740,"à½Ĥà½¦à½Ĩ":2741,"à½ĺà½ļà½ĺ":2742,"à¼¢à¼¤à¼¤":2743,"à½Ķà½¢à½£":2744,"à¼¢à¼©à¼¦":2745,"à½£à½ĺà½ĳ":2746,"à½¦à½Ĥà½ī":2747,"à½²à¼´":2748,"à½ĳà½Ĳ":2749,"à¼¢à¼§à¼¦":2750,"à½ºà¼ĭà½º":2751,"à¾Ĳà¾²à¼į":2752,"à¼¢à¼¤à¼£":2753,"Ġà½ŀà½Ħ":2754,"à½ĵà½łà½ĸ":2755,"à½£à½ĺà½ĵ":2756,"à¼¢à¼©à¼¨":2757,"à½ĸà½Ĥà½Ĥà½¦":2758,"à½Ĥà½łà½ĸ":2759,"à½ĺà½¦à½ĳà½Ħ":2760,"à¾ļà½²":2761,"à¼¢à¼¦à¼£":2762,"Ġà¼¤à¼¤":2763,"à¼¢à¼¥à¼£":2764,"à¾»à½±à¼ĭ":2765,"à½Ĥà½ŀà½ĵà½ĵ":2766,"à¼¢à¼©à¼¤":2767,"à½£à½¦à½ĳà½Ħ":2768,"Ġà½Ħà½ĵ":2769,"à½Ħà½¥":2770,"à½ħà½ĵà½Ĳà½ĺà½¦":2771,"à½Ķà½Ļà½ĺ":2772,"à½Ķà½ĺà½Ħ":2773,"à¼¢à¼¨à¼¦":2774,"Ġà½ŀà½ĸà½¦":2775,"à½¢à½łà½ĺ":2776,"à¼¢à¼£à¼£":2777,"à½¡à½Ħà½¢":2778,"à½Ķà½ĩ":2779,"à½ĸà½ĳà½ĸ":2780,"à¾ŀà½¾à¼ĭ":2781,"à½ģà½Ħà½¦":2782,"à¼¡à¼©à¼¨à¼¡":2783,"à½¢à½ķ":2784,"à¾¤à½´à¼į":2785,"à¼£à¼£à¼¡":2786,"à½ıà½Ģ":2787,"à½Ħà½¦à½£":2788,"à½ĺà½¦à½ŀ":2789,"à¾Ĵà½²à¼ĭ":2790,"à¾²à½´à¾ĥà¼ĭ":2791,"à½¨à½¡":2792,"à½ĳà½ĸà½łà½¦":2793,"ģà¾ĥ":2794,"56":2795,"à½¦à½łà½ĸ":2796,"à½ĵà½ĺà½Ĳ":2797,"à¼¢à¼¨à¼¥":2798,"à½ĵà½Ħà½Ĥ":2799,"à¾°à½´à¾ĥà¼ĭ":2800,"Ġà¼¤à¼¦":2801,"à½ĳà½Ĥà½ŀ":2802,"à½ķà½¡":2803,"à½ĳà½Ĥà½¦à½£":2804,"à½Ķà½ĳà½ĺ":2805,"à½ĳà½Ĥà½Ģ":2806,"Ġà½Ĥà½ıà½ĵ":2807,"à½Īà½¼":2808,"à½łà½ļà½£à½£":2809,"à½łà½ħ":2810,"à¾±à½²à½²à¼ĭ":2811,"à¾±à¾Ń":2812,"à¾·à½¾":2813,"à½ģà½Ģ":2814,"à¼¢à¼©à¼¥":2815,"57":2816,"à½Ĥà½ŀà½ĵà½ĺ":2817,"à¼¢à¼§à¼£":2818,"à½¦à½£à½¦":2819,"à¼¢à¼©à¼¡":2820,"à½¨à½ŀ":2821,"à½´à½¾":2822,"à½Ĥà½¦à½¤":2823,"à½ĸà½¢à½¢":2824,"à½ĸà½ĳà½Ĥà½ħà½Ĥ":2825,"à½ĵà½ĸà½ŀ":2826,"à½īà½ĵà½Ĳ":2827,"à½£à½¢à½Ħ":2828,"à½Ĥà½¡à½ĸà½¦":2829,"à¼¢à¼§à¼¤":2830,"à¼£à¼¡à¼¡":2831,"à¾Ńà½±à¾ĥà¼ĭ":2832,"à¼¢à¼¨à¼¡":2833,"à½£à½łà½ĩ":2834,"à¼ĭà½Īà½²à¼ĭ":2835,"à½Ĥà½ŀà½ĵà½ĳ":2836,"à½Ķà½Ĭ":2837,"à½ĺà½łà½Ĥ":2838,"à½¦à½ĺà½Ĩ":2839,"58":2840,"à½łà½Ĥà½łà½ŀ":2841,"à¼ĭà¼¹à¼ĭ":2842,"à¼¢à¼¨à¼¨":2843,"à½ģà½¤":2844,"à¾Ĳà¾²à½´à¼ĭ":2845,"à¼įà¼ĭà¼įà¼ĭ":2846,"à½Ķà½łà½ĩ":2847,"Ġà½Ĳà½¢":2848,"à¾¨à¾²à¾Ģà¼ĭ":2849,"à½Ķà½¦à½ĸ":2850,"Ġà¼¤à¼¢":2851,"à½ĸà½ĺà½Ĩ":2852,"Ġà½Ĩà½ĸ":2853,"à¼¢à¼¨à¼§":2854,"à½Ģà½Ĩ":2855,"à¼¢à¼¨à¼¤":2856,"à¼ĭà½Īà½ºà¼ĭ":2857,"à½¦à½ĸà½ħ":2858,"à½Ĥà½ıà½ĸ":2859,"à½ĺà½ĳà½ĳ":2860,"à¼¢à¼¨à¼©":2861,"à½Ĳà½ĺà½¦à½ħ":2862,"à½Ķà½łà½Ĥ":2863,"Ġà½Łà½¦":2864,"à½Ĥà½Ĥà½Ħ":2865,"à½ĳà½ĳà½ĸ":2866,"à¾²à½±à½´à½¾à¼ĭ":2867,"à½Ĥà½ŀà½ĳ":2868,"à¼µà½²":2869,"Ġà½Ĥà½Łà½ł":2870,"à¾²à½±à¾ĥà¼ĭ":2871,"à½Łà½ģ":2872,"à½ħà½ĵà½ĳ":2873,"à½Ĳà½Ħà½¦":2874,"à¾¡à¾²à½²à¼ĭ":2875,"à½£à½Ł":2876,"à½Ħà½¦à½ĳ":2877,"à½ĸà½¤à½ĳà½ĳ":2878,"à½ĸà½ıà½Ħà½¦":2879,"à½łà½ĳà½ĳ":2880,"à½ĳà½Ķà½ĵ":2881,"à½Ĥà½ĸà½ŀ":2882,"à¾Ľà½²":2883,"à¾¡à¾·à½´":2884,"à½¦à½ħ":2885,"à½Ķà½¢à½ĳ":2886,"à½Ħà½ļ":2887,"à½Ĥà½īà½¦":2888,"Ġà½Ĥà½¡à½¦":2889,"à¾µà½²à½¾à¼ĭ":2890,"à½Ľà½¨":2891,"à½Ķà½¢à½ĵ":2892,"55":2893,"à½ĳà½Ĥà½Ĥà½¦":2894,"à½Ĩà½ĺà½¦":2895,"à½ĸà½ŀà½Ĥà½ĳ":2896,"à½ĸà½¡à½Ħ":2897,"à½¨à½Ľ":2898,"ï¼":2899,"à½¢à½łà½Ĥ":2900,"à¾³à¾³à½¼à¼ĭ":2901,"Ġà½ĺà½ļà½ĺà½¦":2902,"à½ĺà½¨":2903,"à½Ĥà½¦à½ı":2904,"à½łà½ķà½£":2905,"à½¦à½¢à½Ħ":2906,"Ġà½Ĳà½£":2907,"à¼£à¼¡à¼£":2908,"à¼¢à¼©à¼£":2909,"à½£à½ħ":2910,"à½ºà¼ĭà¼Ĳ":2911,"à¼µà½¼":2912,"à½¢à½¢à½Ħ":2913,"à½ģà½Ĭ":2914,"à¾·à¾²à½²":2915,"à½ĵà½łà½Ĥ":2916,"à½ĳà½Ħà½ĳ":2917,"à½Ĥà½ĸà½ĳà½Ĥ":2918,"à¼ŀà¼ŀ":2919,"à½£à½ĺà½Ĳ":2920,"à½ĺà½ļà½Ħà½¦":2921,"à½łà½Ł":2922,"à¾£à½ºà¼į":2923,"à¾¦à¾±à¼ĭ":2924,"à¾Łà¼ĭà½²":2925,"à¾ļà½¾à¼ĭ":2926,"à¾«à¼į":2927,"41":2928,"à½Ħà½ĺà½¦":2929,"à¾¦à¾²à½´à¼ĭ":2930,"à½¢à½ĸà½ŀ":2931,"à½¢à½Ĳ":2932,"à¾¡à¾·à½²à¼į":2933,"42":2934,"à¼¡à¼©à¼¥à¼¤":2935,"à½Ħà½łà½ĳ":2936,"à½Ĥà½Ĥà½ħ":2937,"à¾«à½±à¼ĭ":2938,"59":2939,"à½ĺà½Ľà½ĳà½Ķ":2940,"à½£à½ĺà½¢":2941,"à½ĳà½¨":2942,"à½ĺà½Ļ":2943,"43":2944,"à¼¡à¼©à¼¦à¼¢":2945,"à¾Łà¾²à¼į":2946,"à½Ķà½łà½ļ":2947,"à¾·à¾±à½±":2948,"à¾Ńà¼ĭà¼į":2949,"à¾²à¾±à½²":2950,"à½Ĳà½Ģ":2951,"60":2952,"Ġà¼§à¼¢":2953,"à¾¤à½¼à¼į":2954,"à½ĵà½ĸà½ħ":2955,"à¼£à¼¡à¼§":2956,"à½ĸà½ĸà½ĳ":2957,"à½Ĳà½ĺà½£":2958,"à¾Łà¾¡à½¼":2959,"à½´à½´":2960,"à½Ĥà½Ħà½ĵ":2961,"Ġà½ĳà½ĺà½¢":2962,"à½¢à½ĳà½Ĥ":2963,"Ġà½Ĥà½ĵà½ĺ":2964,"à¾Ļà½ºà¼į":2965,"à½Īà¾±à½²":2966,"Ġà½¡à½¢":2967,"Ġà¼¥à¼©":2968,"Ġà½¦à½¢":2969,"à½ĳà½Ħà½Ĥ":2970,"Ġà¼§à¼§":2971,"à½ļà½ļ":2972,"à½£à½¦à½Ĥ":2973,"Ġà¼¤à¼§":2974,"à¼ĭà½¼à¼į":2975,"à½Ĥà½Łà½Ĥà½¦":2976,"à½ĳà½ĸà½ħ":2977,"à¼¡à¼©à¼§à¼¨":2978,"Ġà½Ĳà½ĺ":2979,"à½ĵà½Ĳà½ĺà½¦":2980,"à¼¢à¼¨à¼£":2981,"à½ĸà½ŀà½ł":2982,"à¼£à¼¤à¼¥":2983,"à½¼à¼ĭà¼ı":2984,"Ġà¼¤à¼£":2985,"à½Ĥà½ĵà½¦à½Ķ":2986,"à½¼à¼įà¼ĭà¼įà¼ĭ":2987,"à½²à¼µà¼ĭ":2988,"Ġà½łà½ļ":2989,"à¼¡à¼©à¼¦à¼¦":2990,"à½ĵà½ĸà½ĳà½Ĥ":2991,"à½ĺà½Ĥà½ī":2992,"à¼ĭà¾±":2993,"à¾Ĵà½²":2994,"à¾¤à¾±à¼ĭ":2995,"à¾¨à¾±à½²à¼ĭ":2996,"à½Ħà½¦à½ı":2997,"à¼£à¼¦à¼¡":2998,"Ġà½Ĥà½ĳà½ĵ":2999,"à½Ħà½¦à½¢":3000,"à½Ĥà½ĺà½Ĩ":3001,"à¼£à¼¡à¼¢":3002,"à¾²à½ºà½¾à¼ĭ":3003,"Ġà½łà½Ľà½ĺ":3004,"à¾Ńà½¾à¼į":3005,"à½¡à½İ":3006,"à½ĳà½Ķà½łà½¢":3007,"à½Ĥà½ĺà½¢":3008,"à½Ĩà½Ĩ":3009,"à½£à½¦à½łà½ĳà½¦":3010,"à½ĸà½¨":3011,"à½ĺà½Ĳà½Ĥ":3012,"à½ĵà½ĸà½ĳ":3013,"à½ģà½ĸà½¦":3014,"à¼£à¼£à¼£":3015,"Ġà½Łà½Ĥ":3016,"à½Łà½Ł":3017,"à½ĸà½ĸà½ł":3018,"à¾£à½²":3019,"à½ĸà½ĸà½ħ":3020,"à½§à½§":3021,"à½Ķà½¨":3022,"à¾Ĳà¾±à½ºà¼ĭà¼į":3023,"à½Ķà½¢à½łà½ĳ":3024,"à¾·à½±à¼į":3025,"à¾·à½´à¼į":3026,"à¼£à¼¢à¼¢":3027,"Ġà¼¤à¼¨":3028,"Ġà¼¥à¼¤":3029,"à½ĵà½¦à½ŀ":3030,"à½łà½¨":3031,"Ġà½Ĥà½ĳà½ĺà½¦":3032,"à¼£à¼¦à¼¥":3033,"à½²à¼µ":3034,"à¾²à¼įà¼ĭ":3035,"à½ĳà½¢à½Ħ":3036,"à½´à¼ĭà¼º":3037,"à¼£à¼¡à¼©":3038,"à¼¡à¼©à¼¦à¼£":3039,"à½Ĺà½ĵ":3040,"à½ĸà½ĳà½Ĥà½¦":3041,"à½Ĥà½ĺà½ł":3042,"à¼£à¼¡à¼¥":3043,"à¼£à¼¤à¼¤":3044,"à½ĵà½¦à½Ģ":3045,"à¼£à¼¥à¼§":3046,"à½±à¼įà¼ĭ":3047,"à½ĸà½Ĥà½Ĥ":3048,"Ġà¼§à¼¦":3049,"à½£à½Ļ":3050,"à½Ķà½łà½ķ":3051,"à½Ķà½¢à½łà½ĩ":3052,"à½ĸà½ħà½¦à½Ķ":3053,"Ġà¼§à¼¥":3054,"à¼£à¼¢à¼£":3055,"à¼Ŀà¼Ŀ":3056,"à½¦à½Ĥà½Ħ":3057,"à½Ķà½Ļ":3058,"à¾²à¾³":3059,"Ġà½ĳà½ĺà½Ħà½¦":3060,"à¼£à¼¤à¼£":3061,"à½ĳà½ĺà½£":3062,"à½Ĥà½Ħà½¡":3063,"à¼£à¼¢à¼§":3064,"à½¦à½§":3065,"à½Łà½ĸà½ĺ":3066,"à¾Ĳà½±":3067,"à½Ĥà½ĵà½¦à½ĵ":3068,"à½ħà½ĵà½£":3069,"à¼£à¼¦à¼§":3070,"à½Ĥà½Ķà½¦":3071,"Ġà½ĸà½Ľ":3072,"à¼£à¼£à¼¤":3073,"à½Ķà½ĺà½Ĳ":3074,"à¼£à¼¡à¼¤":3075,"à½ħà½ĳà½ĸ":3076,"à½¡à½¡":3077,"Ġà½Į":3078,"à¾Ĺà½´":3079,"à½ĺà½ĸà½ŀ":3080,"à½Ľà½Ľà½§":3081,"à¼£à¼¤à¼§":3082,"à¼£à¼¡à¼¦":3083,"à¾ŀà½ºà¼ĭ":3084,"à½Ĺà½ĸ":3085,"à½£à½ĺà½£":3086,"à½ºà¼µ":3087,"à½¥à½¢":3088,"à½´à¼µ":3089,"à¼£à¼¥à¼¥":3090,"à½¼à¼ĭà½ºà¼ĭ":3091,"à¾±à½ºà¼ĭà¼į":3092,"à½ĵà½ĳà½Ĥà½ł":3093,"à½ĵà½Ĥà½ŀà½ĵ":3094,"à½¡à½Ħà½ĳ":3095,"à½ĳà½Ķà½łà½ĺ":3096,"à¼¡à¼©à¼¥à¼§":3097,"à¼Ģà½ĳ":3098,"à¼£à¼¢à¼¥":3099,"à½Ĭà½£":3100,"à½Ŀà½ı":3101,"à¼£à¼£à¼¥":3102,"à½ĵà½¦à½Ħ":3103,"à¼£à¼¦à¼£":3104,"Ġà¼§à¼¨":3105,"à½Ĥà½ĺà½ĳ":3106,"à½ĵà½ĺà½ł":3107,"à¼£à¼§à¼§":3108,"à½ķà½ı":3109,"à¼£à¼¦à¼©":3110,"à¼ĭà½ºà½²":3111,"Ġà½ļà½Ħà½¦":3112,"à½ĸà½¦à½ĵà½¦":3113,"à¼£à¼¥à¼¦":3114,"à½ĵà½ĳà½ĸ":3115,"à¼ĭà¼ŀà¼į":3116,"à½łà½Ĥà½ĳ":3117,"à½ĵà½£à½ĺ":3118,"à½Ĥà½§":3119,"à½ĵà½¦à½ļ":3120,"à½ĸà½Ĥà½Ĩà½Ĥà½¦":3121,"à¼µà½²à¼ĭ":3122,"à¼£à¼¤à¼©":3123,"à¼£à¼§à¼£":3124,"à½Ĥà½ĳà½Ķ":3125,"à½Ĥà½ĳà½ĸà½¦":3126,"à½ĸà½ĺà½Ĳ":3127,"à½£à½¦à½Ĥà½¦":3128,"à½ĺà½Ľà½ĳà½ĳ":3129,"à½Ģà½ŀ":3130,"Ġà¼¥à¼¨":3131,"à¼£à¼¤à¼¡":3132,"à½ĺà½ĳà½ĺ":3133,"à¾Ĵà¾²à½²à¼ĭ":3134,"à¼£à¼£à¼§":3135,"à½Ħà½¦à½Ģ":3136,"à¼£à¼¢à¼¦":3137,"à¼¡à¼©à¼¦à¼©":3138,"à¾´à½²":3139,"à½¢à½ĸà½ĳ":3140,"à½Ĥà½ĺà½Ĳ":3141,"à¼¡à¼©à¼§à¼¤":3142,"Ġà¼¤à¼¡":3143,"à¾©à½¾à¼ĭ":3144,"à½ĵà½ĺà½ģ":3145,"à½ĵà½ĺà½Ĥ":3146,"à½ĵà½¥":3147,"à½ĳà½ĸà½Ħà½¦":3148,"à¼£à¼§à¼¥":3149,"à¼ĭà½²à¼į":3150,"à½ĸà½¤à½ĳà½Ķà½ł":3151,"Ġà¼§à¼¤":3152,"à¾«à½²à¼į":3153,"à¼¤à¼¤à¼¤":3154,"à¾Łà½±à½¾à¼į":3155,"à¼£à¼£à¼¦":3156,"à½łà½ĩà½ĺà½¦":3157,"à½ĺà½ģà½łà½£":3158,"66":3159,"à½Ħà½Ĥà½ī":3160,"à¼¡à¼©à¼¦à¼¡":3161,"Ġà¼¥à¼¥":3162,"à¼£à¼¦à¼¤":3163,"à½¦à½ĩ":3164,"à½Ĥà½ĺà½Ħ":3165,"à¼£à¼¤à¼¦":3166,"à¼ĭà½µà¾ĥà¼į":3167,"½į":3168,"à½į":3169,"à½¼à¾ĥ":3170,"à½ĳà½Ĥà½łà½¦":3171,"à½Ĥà½Ļà½ĺ":3172,"à½ĺà½Ĳà½łà½ĺ":3173,"à½Ķà½¦à½Ĩ":3174,"à½Ĵà½Ĥ":3175,"à¼£à¼£à¼©":3176,"à½ĳà½Ķà½łà½¦à½ĺà½¦":3177,"à¾°à½´à¾ĥà¼į":3178,"à¼£à¼¡à¼¨":3179,"à¾ļà¼į":3180,"51":3181,"à½Ĳà½Ĳ":3182,"à¼£à¼¢à¼¡":3183,"à¼£à¼¢à¼©":3184,"à¼£à¼¥à¼©":3185,"à½ĳà½Ĥà½ı":3186,"à½£à½łà½ģ":3187,"à½Ģà½ļ":3188,"à¼£à¼¢à¼¤":3189,"à¼£à¼¦à¼¢":3190,"à½´à¼µà¼ĭ":3191,"à½ĺà½ĳà½Ķ":3192,"à¼£à¼¥à¼¢":3193,"53":3194,"à¾Ķà½ºà¼ĭ":3195,"à¼¡à¼©à¼¥à¼¥":3196,"67":3197,"Ġà½ķà½¢":3198,"à¾´à½ºà¼ĭ":3199,"à½Ķà½¢à½ŀ":3200,"à½ĸà½łà½ģ":3201,"à½łà½łà½Ĥ":3202,"à¼£à¼£à¼¢":3203,"à¼Ģà½Ķ":3204,"à½ĸà½Łà½ĵ":3205,"à¼£à¼¢à¼¨":3206,"à¼£à¼¥à¼¤":3207,"à½¢à½Ħà½¦à½Ħà½¦":3208,"à¼£à¼§à¼¦":3209,"Ġà½İ":3210,"à¼©à¼¢à¼¤":3211,"à½Ĥà½ĩ":3212,"52":3213,"à½£à½¢à½ĸ":3214,"à¼¤à¼¡à¼§":3215,"54":3216,"à½Ĺà½¢":3217,"à½Ĥà½¦à½ħà½ĵ":3218,"à¼£à¼¤à¼¢":3219,"à½ĳà½Ĥà½Ĩ":3220,"à¼£à¼§à¼¡":3221,"à¾Łà¾²à½±à½²à¼ĭ":3222,"à¼ĭà¼ī":3223,"à½ĵà½ĺà½ļà½ĵ":3224,"à¾±à½²à½²":3225,"à¼£à¼¦à¼¦":3226,"à½£à½§":3227,"à½ĸà½¦à½Ķ":3228,"à¼£à¼£à¼¨":3229,"Ġà½ĳà½¢":3230,"à¼£à¼¥à¼¡":3231,"à¼£à¼¤à¼¨":3232,"à½±à¾Ģ":3233,"à½Ĥà½Ĥà½ĵà½¦":3234,"à¾Łà½±à¼į":3235,"à½¡à½§":3236,"à½´à¼įà¼ĭà¼į":3237,"Ġà½ºà¼ĭ":3238,"à½Ĥà½ĸà½ħ":3239,"Ġà½ĺà½ł":3240,"Ġà¼¦à¼¢":3241,"68":3242,"à½ħà½ĳà½Ĥ":3243,"à½£à½Ĥà½¦à½ĵ":3244,"à¾ľà½±":3245,"à¼£à¼¨à¼¦":3246,"à¾¥à½²":3247,"à½Ķà½¦à½ŀ":3248,"à½ķà½ħ":3249,"à½£à½łà½Ĥ":3250,"à½ĵà½łà½ģ":3251,"à½ĵà½łà½ĩ":3252,"à¾Ļà½¼à¼į":3253,"à½£à½Ĥà½Ħ":3254,"à½ĸà½¦à½Ĩ":3255,"à¾³à½±à½²à¼ĭ":3256,"à¾·à¾²à½±à½´à¾ĥ":3257,"à¼£à¼¨à¼©":3258,"à½Ķà½¢à½ĺà½Ľà½ĳ":3259,"à¾³à½¼à¼ĭà¼į":3260,"à¼¡à¼©à¼¥à¼¢":3261,"Ġà¼¤à¼©":3262,"à½Ģà½Ļ":3263,"à½Ķà½¦à½ģ":3264,"à½£à½ĵà½ĵ":3265,"à¼¡à¼©à¼§à¼£":3266,"à½Ĥà½Ĥà½ŀ":3267,"à½ĸà½Łà½ĸ":3268,"à½ĳà½ĸà½Ħà½Ķ":3269,"à½Įà½Į":3270,"à½¦à½Ĥà½ŀ":3271,"à½ħà½ĳà½ĳà½Ħ":3272,"à¾Ńà½±à½²à¼ĭ":3273,"Ġà¼¥à¼§":3274,"à¼£à¼¦à¼¨":3275,"à¾¡à¾²à¼į":3276,"à¼¤à¼¡à¼¢":3277,"à½ĸà½¢à½£":3278,"à¼£à¼¥à¼¨":3279,"à½¦à½ĸà½ŀ":3280,"à¾Ĵà¾·":3281,"à½ĳà½Ģà½¢à½Ķ":3282,"à¾Ľà½±":3283,"à½Ķà½Ĥà½ŀà½ĵ":3284,"à½¢à½£à½¦":3285,"à¼¤à¼¡à¼¡":3286,"à¾±à¼ĭà½²":3287,"Ġà¼¦à¼¦":3288,"à½Ľà½£":3289,"à¼¡à¼©à¼¤à¼§":3290,"à½²à¼ĭà½Īà½º":3291,"à¼¡à¼©à¼¦à¼¥":3292,"69":3293,"à½ĸà½Ĥà½ŀà½ĵ":3294,"à½Ģà½Ģà½Ģ":3295,"à½£à½¦à½Ħà½¦":3296,"à½¦à½ĺà½ļ":3297,"à½²à¼ĭà¼´à¼į":3298,"à½ºà¼ĭà½´à¼ĭ":3299,"à¼£à¼§à¼¢":3300,"à½ĵà½¢à½ĸ":3301,"à½ĺà½¦à½ĵà½¦":3302,"à¼Ģà½¢":3303,"à½Ļà½ĺà½ĵ":3304,"à¼¤à¼¢à¼¡":3305,"à¼£à¼©à¼¡":3306,"à½Ĥà½łà½Ĥ":3307,"à½Ģà½ħ":3308,"à½ħà½ĳà½Ħ":3309,"à½ĸà½¦à½ĺà½ĺ":3310,"à½ĳà½Ĥà½¡":3311,"à½±à¼ĭà½²":3312,"à¼£à¼©à¼§":3313,"à½£à½ĳà½ĺ":3314,"à½¡à½ĵà½ĵ":3315,"à½ĳà½Ĥà½ĵà½¦":3316,"à¼¡à¼©à¼§à¼¦":3317,"à¼£à¼§à¼¨":3318,"à½ĺà½¦à½ĳ":3319,"à½īà½ĸ":3320,"à½ĳà½Ĥp":3321,"à¼¤à¼¤à¼¥":3322,"à½£à½ĸà½ĳ":3323,"70":3324,"à¾Ļà½²à¼į":3325,"à½Ĥà½¡à½Ħà½¦":3326,"à¼£à¼§à¼©":3327,"Ġà¼¥à¼¢":3328,"à¼£à¼¨à¼¥":3329,"à½ĵà½¢à½¦":3330,"à½ĵà½Ħà½ĵ":3331,"à¼£à¼¥à¼£":3332,"à½Ķà½łà½Ľ":3333,"à½±à½²à½¾à¼ĭ":3334,"à½Ĥà½¤à½ĵ":3335,"Ġà½Ĭ":3336,"à¾Ĵà¾±à½²à¼ĭ":3337,"à½ĸà½¦à½ĺà½Ĥ":3338,"Ġà½ķà½Ĥ":3339,"à¾©à¾±à½²":3340,"à½ĸà½ıà½ĵ":3341,"à¼ĭà½±à¼ĭ":3342,"à½Ĥà½¦à½ļ":3343,"à½ĺà½Ĳà½ĳ":3344,"à¼£à¼©à¼¦":3345,"à¼£à¼§à¼¤":3346,"à¼£à¼¨à¼£":3347,"à½¦à½İ":3348,"à½ıà½Ĥà½¦":3349,"à¼¡à¼©à¼§à¼§":3350,"à½ªà½¦":3351,"à½łà½ģà½ĵ":3352,"à¾µà½´":3353,"à¾¶à½±à¼ĭ":3354,"à½¦à½Ľ":3355,"à¾Ļà½´à¼ĭ":3356,"Ġà½ģà½Ħ":3357,"à½Ĩà½ĳà½Ħ":3358,"à½¦à½ĺà½ĳ":3359,"à½Ķà½łà½¦":3360,"à½ĸà½ĺà½Ĳà½ł":3361,"à¼¡à¼©à¼¦à¼¤":3362,"à¼¤à¼¦à¼¥":3363,"à½ĺà½Ķà½¦":3364,"à¼ĭà¾¢à½²à¼ĭ":3365,"à½ĵà½¦à½Ĥ":3366,"à¾³à¾³à¼ĭ":3367,"à½Ģà½¡":3368,"à¾Łà¾²à½ºà¼į":3369,"à½łà½ĳà½Ĥà½¦":3370,"à½£à½¦à½Ĥà½ŀà½ĵ":3371,"à¼£à¼©à¼©":3372,"à¼¤à¼¥à¼¥":3373,"à¼£à¼©à¼¤":3374,"à¼£à¼¨à¼¡":3375,"à½£à½Ĩà½Ĥà½¦":3376,"Ġà¼¥à¼¡":3377,"à½£à½ĸà½ĳà½Ĥ":3378,"à½¥à½ī":3379,"à½£à½£à½ĺ":3380,"à½ģà½Ĩ":3381,"Ġà¼¦à¼¨":3382,"à¼£à¼¨à¼¢":3383,"à½ĳà½ĺà½Ĳ":3384,"à½¦à½Ĥà½ŀà½ĵ":3385,"à½¤à½łà½ĺ":3386,"à½Ļà½ı":3387,"à½łà½ĸà½łà½ŀ":3388,"à½¦à½¦à½ĺ":3389,"Ġà½ĳà½Ģà½ł":3390,"à¾£à½¾à¼ĭ":3391,"à½ħà½ĳà½¢":3392,"à¾·à¾²à½¾à¼ĭ":3393,"à½Ĥà½¦à½¡":3394,"à¼¤à¼¡à¼¥":3395,"à¼¤à¼¢à¼¢":3396,"à½łà½¤":3397,"à½ħà½ĸ":3398,"à¼£à¼©à¼¢":3399,"à½ĵà½Ĥà½ŀ":3400,"à¾²à¾«à½´":3401,"à¾Łà¾±à½ºà¼į":3402,"à¼¤à¼¤à¼©":3403,"Ġà¼ī":3404,"à½Ħà½Ĥà½¢":3405,"à¾¥à½¼":3406,"Ġà½Ĳà½Ħ":3407,"à½ĺà½Ĳà½£":3408,"à½ģà½ĺà½¦à½Ĥà½¦":3409,"à½Ģà½Ł":3410,"à¾±à½²à¼ĭà¼Ĳ":3411,"Ġà½Ĥà½īà½ĵ":3412,"à¾ŀà¼į":3413,"à½Ħà½Ħà½¦":3414,"à½£à½Ĥà½ŀà½ĵ":3415,"Ġà½Ĥà½¦à½¢":3416,"à½¦à½¦à½Ħà½¦":3417,"Ġà½ĳà½Ĥà½Ĥ":3418,"à½¡à½¡à½Ħ":3419,"à¾±à¼įà¼ĭà¼į":3420,"Ġà½¡à½ĸ":3421,"à½¡à½Ľ":3422,"à½łà½Ĳà½Ĥà½¦":3423,"Ġà½ĺà½Ħà½ł":3424,"à½£à½ĸà½ŀ":3425,"à¾³à½±à¾Ģà¼ĭ":3426,"à¼¤à¼¤à¼¢":3427,"à¾²à½¾":3428,"à¾¡à¾·à½±":3429,"à¾·à½±à½²à¼ĭà¼į":3430,"à¾Ļà¾°à¼ĭ":3431,"à¾µà½¾à¼ĭ":3432,"à½Ķà½ĸà½ħ":3433,"à½¼à¼ĭà¼įà¼ĭà¼į":3434,"à¼£à¼¨à¼§":3435,"à½Ĥà½ĵà½¦à½Ķà½ł":3436,"à¾Ĵà¾²à½¼à¼į":3437,"65":3438,"à¼£à¼©à¼¨":3439,"à½¤à½ı":3440,"à½ħà½Ĳ":3441,"63":3442,"à½ĸà½Ķà½¦":3443,"à½ĳà½Ĥà½Ķà½ł":3444,"à½£à½ĵà½Ĥà½¦":3445,"à½łà½Ķà½Ĥà½¦":3446,"à½ĵà½¦à½Ĩ":3447,"62":3448,"à½ºà½ºà¼į":3449,"à½¦à½Ģà½ĸà½¦":3450,"à½¡à½¤":3451,"à½Ķà½¢à½Ĥà½¦":3452,"61":3453,"à¼ĭà½Īà¾²à½º":3454,"à½Ĥà½ĺà½¦":3455,"à½Įà½ĵ":3456,"à¼¤à¼¢à¼¤":3457,"à¾µà¾¨":3458,"à½¦à½Ĥà½ĵà½¦":3459,"à½£à½Ķà½¢":3460,"à¼£à¼©à¼£":3461,"à½Ģà½Ķ":3462,"à¾³à½¼à½¼à¼ĭ":3463,"à½¦à½Ĥà½¦à½Ħ":3464,"à½Ĥà½Ŀ":3465,"à½Ĥà½¦à½£à½¦":3466,"à½ĸà½¦à½ŀ":3467,"à½ĸà½łà½ĩ":3468,"64":3469,"Ġà½ĸà½¤":3470,"à½£à½ĺà½ĺ":3471,"à½Ĩà½Ĭ":3472,"à¼£à¼©à¼¥":3473,"à¼¤à¼¥à¼§":3474,"à½ºà½¾":3475,"à½ĳà½Ħà½ł":3476,"à½Ĥà½ıà½ĵà½ļ":3477,"à½Ĵà½ĳ":3478,"à½±à½º":3479,"à½¨à½£à½¦":3480,"à½ĸà½ħà½ĺ":3481,"à½ĳà½ĺà½ª":3482,"à¾ļà½ºà¼ĭ":3483,"à¾ļà½±à½¾à¼ĭ":3484,"à½ĸà½ĺà½ĳ":3485,"Ġà½łà½Ĥà½£":3486,"à½¼à½´":3487,"à½Ĥà½¦à½Ĥà½¦":3488,"à¼£à¼¨à¼¤":3489,"Ġà½Ĥà½¢":3490,"à½ĳà½Ļà½ĺ":3491,"à½łà½ĳà½Ħà½¦":3492,"à½ĳà½ĸà½Ħà½Ĥ":3493,"à¼¤à¼¡à¼£":3494,"à½ºà¼ĭà¼´":3495,"à½¼à¼ĭà½º":3496,"à¼¤à¼¦à¼¢":3497,"à½Ĥà½ıà½Ĥ":3498,"à¼¤à¼§à¼¥":3499,"à½ĸà½ĵà½ĺ":3500,"à¾¨à¾¨à½±à¼ĭ":3501,"à¼¤à¼¡à¼¤":3502,"à½Ŀà½ĳ":3503,"à¼¤à¼¤à¼§":3504,"à½Ħà½ĸà½ŀ":3505,"à½ļà½ĳà½¦":3506,"à¼¡à¼©à¼§à¼¥":3507,"à¼¥à¼¥à¼¥":3508,"Ġà½Ĥà½ıà½ĺ":3509,"à½Ķà½ĳà½ĳ":3510,"à½ģà½ļ":3511,"à½¡à½ĸà½¦":3512,"Ġà¼§à¼©":3513,"à¿":3514,"à½ĵà½ĩ":3515,"à¼¤à¼¡à¼¦":3516,"à½ĸà½Ļà½Ħ":3517,"à¼¤à¼§à¼§":3518,"à½ĸà½Ĥà½ĵà½¦":3519,"à¾£à¾²à½º":3520,"à½ĸà½ĳà½Ĥà½ĵ":3521,"à½ĵà½Ĥà½ħ":3522,"à½Ģà½Į":3523,"à½Ĭà½ĵ":3524,"à¼¦à¼¡à¼§":3525,"à¼Ģà½Ľ":3526,"à¼£à¼¨à¼¨":3527,"à½ĳà½¦à½Ħà½¦":3528,"à½¨à½ģ":3529,"à¼¤à¼¢à¼¦":3530,"77":3531,"à½Ĳà½£à½ĺ":3532,"à¼¡à¼©à¼¦à¼§":3533,"à½ģà½łà½Ħ":3534,"à½ĵà½¦à½ģ":3535,"à½£à½¦à½ŀ":3536,"à¼¡à¼¡à¼¡à¼¡":3537,"à½Ĺà½Ĩ":3538,"à¼¥à¼¦à¼§":3539,"à½Ķà½¢à½łà½ĸ":3540,"à½Ĥà½ĺà½ļà½ĵ":3541,"à¼¤à¼¢à¼¥":3542,"Ġà¼©à¼©":3543,"à¼Ģà½Ģ":3544,"à½Ķà½§":3545,"à½ĳà½Ģà½¦":3546,"Ġà¼§à¼£":3547,"à¼¡à¼©à¼¡à¼£":3548,"à½ĺà½łà½ĸ":3549,"à½ĸà½ħà½ĳà½Ķ":3550,"à¾ĳà¼ĭ":3551,"Ġà½ĳà½Ķà½Ĥ":3552,"à¾¨à½±à¼į":3553,"à½§à½Ĥ":3554,"Ġà¼¦à¼¥":3555,"à½²à½¼à¼į":3556,"à¼¡à¼©à¼¡à¼¢":3557,"à½¼à¼µà¼ĭ":3558,"à½Ķà½Ĥà½ħ":3559,"à¾²à¾±à½²à¼ĭ":3560,"à¾¤à¾±à½¼à¼į":3561,"Ġà¼¥à¼¦":3562,"à½ĺà½¦à½ĸ":3563,"à½£à½¦à½ł":3564,"à½¼à¼´":3565,"à½¦à½łà½Ĥ":3566,"à½łà½ģà½ĺà½¦":3567,"à½¾à½¾à¼ĭ":3568,"à½Ķà½¢à½ĸà½¢":3569,"à¾¦à¾²à½ºà¼ĭ":3570,"à½ĳà½¡à½Ħ":3571,"à½¢à½Ķà½¦":3572,"à½Ĥà½łà½ģ":3573,"à½ĺà½ĵà½ĺà½¦":3574,"à¼¤à¼¤à¼¦":3575,"à¼¤à¼¤à¼¡":3576,"à½¦à½ĺà½ļà½ĵ":3577,"à¾Ĳà¾²à½²à¼ĭ":3578,"à¼¤à¼¡à¼©":3579,"à½Ĥà½Ħà½Łà½Ĥ":3580,"Ġà¼¦à¼©":3581,"à½Ķà½¢à½Ĳà½£":3582,"à¾³à½´à¼ĭà¼į":3583,"à½¦à½ĸà½ĳà½Ĥ":3584,"78":3585,"à½¦à½Ĥà½ħ":3586,"à½ĸà½ĸà½¦à½ĺ":3587,"à½¢à½Ĥà½ĵà½¦":3588,"à½Ķà½Ľ":3589,"à¼¤à¼¡à¼¨":3590,"à¾²à¾ĥà¼ĭ":3591,"à½Ķà½¦à½Ģ":3592,"à¼¤à¼¦à¼¤":3593,"à¼ĭà¾±à¼ĭ":3594,"à¾Ķà¾·à¼ĭ":3595,"à½ĵà½ĺà½¢":3596,"à½ĳà½Ĥà½łà½ĺ":3597,"Ġà½ĸà½ĸ":3598,"à½Ĥà½Ĩà½Ĥà½¦":3599,"à½ĵà½ĳà½Ķ":3600,"à½Ķà½¦à½Ħà½¦":3601,"à¼¡à¼©à¼¦à¼¨":3602,"à½Ħà½£à½¦":3603,"à½ħà½ĵà½ĳà½Ħ":3604,"à¼¡à¼©à¼¥à¼£":3605,"à½Ĥà½łà½ĩ":3606,"à¾¡à½ºà¼ĭà¼į":3607,"à½¢à½ĺà½ĳ":3608,"à½ĺà½Ĳà½ĺà½¦":3609,"à¼¤à¼¥à¼¦":3610,"à½Ĥà½ŀà½Ĥà½¦":3611,"à¼§à¼§à¼§":3612,"à¾Łà¾Ńà½¾":3613,"à¾¤à½¾à¼ĭ":3614,"à½ĺà½¦à½Ķà½¢":3615,"à¾¤à¼į":3616,"à¾¡à½±":3617,"à½±à¾ĥà¼į":3618,"à¾Ńà¾°à¼ĭ":3619,"à½łà½ĳà½¦à½£":3620,"à¼¤à¼¢à¼§":3621,"à¼ĭà¾±à½²à¼ĭ":3622,"à½£à½¦à½Ĩ":3623,"à½Įà½İ":3624,"à½¢à½ĸà½ĳà½Ĥ":3625,"à¾£à¾²à½´":3626,"à¼¤à¼¥à¼¢":3627,"âĢ":3628,"à½ĸà½ĺà½ł":3629,"Ġà½ĸà½ŀà½Ĥ":3630,"à½¦à½łà½ģ":3631,"à½Ĥà½ĳà½ĸà½Ħ":3632,"à¼¤à¼¥à¼©":3633,"à½¦à½ĸà½ĳ":3634,"à¼¥à¼¢à¼¢":3635,"Ġà¼¦à¼¤":3636,"à¼¤à¼§à¼¢":3637,"à½ĸà½ĳà½Ĥà½£":3638,"à½ļà½łà½ĺ":3639,"à¼¥à¼¡à¼¡":3640,"à½ĺà½ĺà½Ħ":3641,"à½Ħà½Ĥà½ł":3642,"71":3643,"72":3644,"à½ĵà½Ĥà½Ł":3645,"à½ģà½¡":3646,"à½ĳà½Ĥà½łà½ĸà½¢":3647,"à¼¤à¼¦à¼§":3648,"80":3649,"à½¦à½¡à½Ħ":3650,"à½Ħà½¦à½¤":3651,"à¾¨à½¼à¼į":3652,"à½ĥà½¦":3653,"à½ºà¼ĭà½ºà¼ĭ":3654,"à½ĸà½Ĥà½ħ":3655,"à½ĸà½Ŀ":3656,"à¼¡à¼©à¼§à¼¢":3657,"à½£à½Ĥà½Ł":3658,"74":3659,"à½Ķà½ĺà½Ĩ":3660,"à½Ħà½¦à½ĸ":3661,"75":3662,"à½ĺà½ļà½ł":3663,"à½¢à½¨":3664,"à¾¨à½²à½¾à¼ĭ":3665,"à¼¡à¼©à¼§à¼¡":3666,"à½łà½Ļà½£":3667,"à½ĸà½Łà½Ħà½Ķ":3668,"à½Ķà½ĳà½ĸ":3669,"à½ĺà½¦à½ĺà½¦":3670,"à½ĳà½Ĥà½łà½ĳ":3671,"à½łà½ķà½Ĥà½¦à½Ķ":3672,"à½Ŀà½İ":3673,"Ġà½Ĩà½ĳ":3674,"à¾¦à½¾à¼ĭ":3675,"à½ĳà½Ĥà½¤":3676,"à½łà½ĩà½ĳ":3677,"à¼ĭà¼´à¼ĭ":3678,"à½Ĵà½ł":3679,"à¼¤à¼¥à¼¡":3680,"à½ĸà½Ĭ":3681,"à½¢à½§":3682,"à½£à½Ĥà½ŀ":3683,"à½Ķà½łà½Ĩ":3684,"à¾©à½±":3685,"à½īà½ĺà½¦à½¦":3686,"79":3687,"à¾²à½±à½´":3688,"à½łà½ĳà½ĸà½ĺ":3689,"Ġà¼¦à¼§":3690,"à½ģà½Ł":3691,"à¾¤à½²":3692,"à½Ĥà½ŀà½ĵà½¦":3693,"à½Ĥà½Ĥà½£":3694,"à½Ķà½łà½ģ":3695,"à½ĳà½ĸà½ĳà½Ĥ":3696,"à¾¨à¾±à½ºà¼ĭ":3697,"à½¢à½¢à½ĸ":3698,"Ġà½Ħà½¦":3699,"à¾£à¼ĭà¼į":3700,"à½ĺà½ĩà½ł":3701,"à½¢à½¦à½Ħà½¦":3702,"à½£à½ħà½ĵ":3703,"à½ĳà½Ħà½łà½ĳ":3704,"à¼¤à¼¥à¼¤":3705,"à¼¤à¼¥à¼¨":3706,"à¾¡à½¼à¼ĭà¼į":3707,"73":3708,"à½ĺà½ĺà½ĳ":3709,"à¼¥à¼¡à¼¢":3710,"à½ªà½ĸ":3711,"à¼¤à¼¦à¼¡":3712,"à¾ľà½¼à¼ĭ":3713,"à¼¤à¼¦à¼¨":3714,"à¼¤à¼¨à¼©":3715,"à½¨à½ļ":3716,"à½ĸà½¤à½Ħà½¦":3717,"à½¨à½¤":3718,"à½Łà½łà½ĺ":3719,"à¼¥à¼¡à¼¥":3720,"à¼ĭà½µà½¾à¼į":3721,"à½Ģà½§":3722,"à½£à½ĺà½īà½ĺ":3723,"à½¦à½ĵà½ĺ":3724,"à½²à¼ĭà½Īà½²":3725,"à½ĳà½Ĥà½Ł":3726,"à½ĸà½ŀà½£":3727,"à½Ĥà½ŀà½ĵà½ĳà½Ĥ":3728,"à½Įà½¦":3729,"à¼µà½º":3730,"Ġà½łà½Ĳ":3731,"à½¼à½¼à¼į":3732,"à½¡à½Ħà½¤":3733,"à½ĺà½Ľà½Ħ":3734,"à¼¡à¼§à¼¡à¼§":3735,"à½ĺà½¦à½ı":3736,"Ġà¼¥à¼£":3737,"à¾¨à¼ĭà¼į":3738,"Ġà½ŀà½¢":3739,"à½Ģà½Ĭ":3740,"à½Ľà½¡":3741,"à½Ľà½Ģ":3742,"à½¦à½ĸà½ł":3743,"à½Īà½º":3744,"à¼ĭà¾ĵ":3745,"à¾¦à¾±à½¼à¼į":3746,"à½ĳà½Ħà½¤":3747,"à½ĵà½ħà½ĵ":3748,"à½¢à½ĸà½ħ":3749,"à½Ħà½ĵà½ĺ":3750,"à¼¤à¼¦à¼©":3751,"à½ĵà½ĵà½ĳ":3752,"à½Ķà½¦à½Ĥ":3753,"Ġà½ļà½¢":3754,"76":3755,"à½Ĥà½¢à½ĸ":3756,"Ġà¼§à¼¡":3757,"à½ģà½ĺà½¦à½ĵ":3758,"à½£à½Ĥà½ħ":3759,"à½ĺà½Ĩà½Ĥà½¦":3760,"à¼¤à¼¨à¼¥":3761,"à½¢à½Ĥà½ŀà½ĵ":3762,"à½Ħà½¡à½Ħ":3763,"à½ĺà½ĩà½ĳ":3764,"Ġà½Ĥà½ĵà½Ħ":3765,"à½¢à½Ĥà½ī":3766,"à¼¡à¼©à¼£à¼¥":3767,"Ġà¼¦à¼¡":3768,"à½ĵà½ĳà½ĸà½Ħ":3769,"à½łà½Ĥà½ĵà½¦":3770,"à¼¡à¼¢à¼¨à¼§":3771,"à½ĺà½ħà½ĵ":3772,"à½łà½ķà½Ĭ":3773,"à¾²à¾Ģà¼į":3774,"à¼¥à¼¦à¼¥":3775,"à¾±à½¾à¼į":3776,"à½ĳà½Ħà½ĺà½Ĳ":3777,"à¼¤à¼¢à¼©":3778,"à¼¦à¼¢à¼©":3779,"à¼¤à¼§à¼¦":3780,"à¼¤à¼£à¼£":3781,"à½ĳà½Ĥà½ŀà½ĵ":3782,"à¼Ģà½ı":3783,"à½¦à½¦à½¦":3784,"à½Ĥà½ħà½Ħ":3785,"à½ģà½ŀ":3786,"à½ĳà½ĳà½Ķà½ł":3787,"à½Ħà½łà½Ħ":3788,"à½łà½Ĳà½¢":3789,"à½Ĺà½Ļ":3790,"à¾²à½±à¾Ģ":3791,"à¾±à½±à½¾à¼ĭ":3792,"à½Ķà½¦à½ĸà½¦":3793,"à½Ĥà½¤à½ĳ":3794,"à¼¤à¼£à¼§":3795,"à¾²à¾°à½²":3796,"à¾Łà¾±à½ºà¼ĭ":3797,"à½Ĥà½ĵà½¦à½£":3798,"à½Ĥà½ĳà½¦":3799,"à½ĸà½¦à½ĺà½Ķ":3800,"à½Ĵà½¦":3801,"à½ĺà½ĸà½ħ":3802,"à½Ķà½¢à½¦à½Ħà½¦":3803,"à½Ĺà½¡":3804,"à¼¤à¼¦à¼¦":3805,"à½¦à½ĺà½Ľà½ĳ":3806,"à½²à½¾à¼į":3807,"à½ĺà½Ħà½Ķ":3808,"à¼ĭà¾£":3809,"à½Ĩà½ĳà½ĺ":3810,"à¼¤à¼£à¼¦":3811,"82":3812,"à½łà½¡":3813,"à½ĸà½Ģà½Ħà½¦":3814,"à¾³à¾³":3815,"à¼¤à¼£à¼¥":3816,"à¼¥à¼¦à¼¢":3817,"90":3818,"à½ĵà½§":3819,"Ġà¼¦à¼£":3820,"à¼¤à¼§à¼¡":3821,"à½ĵà½¦à½ĸà½¦":3822,"à¼Ŀà¼į":3823,"à½Ĥà½ĳà½Ķà½£":3824,"à½Ħà½Ķà½¢":3825,"à½łà½ĳà½¦à½¢":3826,"à¼¥à¼¢à¼¡":3827,"à½¥à½ĵ":3828,"81":3829,"83":3830,"à½ĵà½Ķà½£":3831,"à½ĵà½¦à½¡":3832,"à½ĳà½ĺà½Ķ":3833,"à¼¤à¼¤à¼¨":3834,"84":3835,"à½ĳà½ħà½ĵ":3836,"à½ĺà½īà½ĺà½Ķ":3837,"à½Ĥà½Ĥà½Ł":3838,"à½Ħà½Ł":3839,"à½£à½¦à½łà½ĳ":3840,"à¼ĭà½Īà½±à½²":3841,"85":3842,"à½ŀà½Ķ":3843,"à¾¦à½±à½²à¼ĭ":3844,"à¼¥à¼¦à¼¡":3845,"à¼©à¼©à¼©":3846,"à½Ŀà½¡":3847,"à¼¥à¼¦à¼©":3848,"à½£à½ĳà½ĸà½Ħ":3849,"à½Ĳà½ĺà½¦à½ħà½Ħ":3850,"à½ĺà½ĳà½ĵ":3851,"à¼¤à¼¤à¼£":3852,"à½¡à½ķ":3853,"à½ĳà½ĺà½Ķà½ł":3854,"à½łà½ĩà½¦":3855,"à¼¤à¼¢à¼¨":3856,"à¼¤à¼£à¼¤":3857,"à¼¥à¼§à¼¥":3858,"87":3859,"à½Ķà½ĸà½ĳ":3860,"à½ĵà½¦à½łà½ĳ":3861,"à¾¨à½ºà¼į":3862,"à½ĳà½Ķà½łà½ĸ":3863,"à¼¦à¼¢à¼¢":3864,"à½ĸà½¢à½ĸà½¦":3865,"à½Ķà½¦à½łà½ĳ":3866,"Ġà½ĺà½¦":3867,"à½¡à½ī":3868,"à½ĸà½łà½ķ":3869,"à½ĩà½¦":3870,"à¾Ĳà¼ĭà¼į":3871,"à½ĵà½ĺà½ĺ":3872,"à¾Ĵà¾±à½¼à¼ĭ":3873,"à¼¦à¼¡à¼¡":3874,"à¼¤à¼¨à¼¡":3875,"à¼¤à¼§à¼¤":3876,"à¼¤à¼§à¼©":3877,"à½Ķà½¢à½ĸà½Ĥ":3878,"à¼¥à¼§à¼§":3879,"à¼¤à¼©à¼§":3880,"88":3881,"à½£à½ĩ":3882,"à½ĺà½¦à½ħà½ĳ":3883,"à¾·à¾²à½´à¾ĥà¼ĭ":3884,"à¼¡à¼©à¼¤à¼¥":3885,"à¼§à¼¡à¼¡":3886,"à¾±à¾²à½ºà¼ĭ":3887,"à½Ķà½Ħà½¦":3888,"à¼¦à¼¡à¼¢":3889,"à¾¡à¾·à½±à½´à¼ĭ":3890,"à½ķà½Ĭà½ħ":3891,"Ġà½ĸà½ħà½ł":3892,"à¼¤à¼©à¼¥":3893,"à½¦à½łà½ĩ":3894,"à½Ķà½¢à½Ĥà½ĵà½¦":3895,"à½Ķà½¦à½ļ":3896,"Ġà¼¡à¼¡à¼¡":3897,"à¾ºà½±à¼ĭ":3898,"à¾³à½±":3899,"à½łà½ģà½ł":3900,"à¼¥à¼¡à¼§":3901,"à½ĺà½¢à½Ħ":3902,"à½ĵà½¦à½ķ":3903,"à½ĸà½ŀà½¦":3904,"à½¢à½ĸà½£":3905,"à¼¤à¼§à¼¨":3906,"à½ĺà½Ĥà½ħ":3907,"à½£à½ĵà½ĺ":3908,"à¼§à¼¡à¼¢":3909,"à½łà½ĳà½¦à½ĺ":3910,"à½ĳà½Ħà½ĺà½ļ":3911,"Ġà½Ļà½ĵ":3912,"à½ĸà½ĸà½ĳà½Ĥ":3913,"à¾Łà½ºà¼įà¼ĭà¼į":3914,"à¼¥à¼¦à¼¦":3915,"à¼¤à¼¨à¼¦":3916,"Ġà½Ĥà½ĵà½ĳ":3917,"à¼¡à¼©à¼£à¼§":3918,"à¾ŀà½´à¼ĭ":3919,"Ġà½ĳà½ĺà½Ĥ":3920,"à½ĳà½Ħà½ŀ":3921,"à½£à½Ĥà½¢":3922,"à½ĳà½ĩ":3923,"à¼¦à¼¦à¼¦":3924,"à½¦à½ĺà½ĵ":3925,"à½ĵà½ĵà½Ħ":3926,"à½Ĥà½¦à½£à½ĸ":3927,"à¾²à¾°à½¾à¼ĭ":3928,"à¾±à¼ĭà¼Ĳ":3929,"89":3930,"Ġà½ģà½¦":3931,"à½łà½łà½ĸ":3932,"à½Ĳà½ĺà½¢":3933,"à½ĺà½¦à½Ķà½ł":3934,"à¼¤à¼£à¼©":3935,"à½ĳà½Ĥà½Ĥà½¡":3936,"à¼¤à¼¢à¼£":3937,"86":3938,"à½£à½ĳà½ĸ":3939,"à¼¥à¼¢à¼¥":3940,"à½ĳà½ĳà½¦":3941,"à¾¨à¾±à½¼à¼į":3942,"Ġà½łà½ĸà½¢":3943,"Ġà¼©à¼¡":3944,"à½Ĺà½ĳ":3945,"à½Ĥà½ĸà½ł":3946,"à¼¡à¼©à¼£à¼£":3947,"à¼¤à¼¨à¼¢":3948,"à¼ĭà¾±à½²":3949,"à¾±à½²à¼ĭà¼º":3950,"à½İà½ĺ":3951,"Ġà¼¨à¼¦":3952,"à½¼à¼ĭà½¼":3953,"à½ĺà½Ĩà½¦":3954,"à¾Ńà½º":3955,"à½ĳà½Ķà½łà½ĵ":3956,"à½ķà½ĵà½ļ":3957,"à¼¡à¼©à¼¡à¼¤":3958,"à½łà½ĺà½ĺ":3959,"Ġà½¢à½£":3960,"à½Ĥà½ĺà½Ĥ":3961,"à½Ĩà½Ķ":3962,"à½ĳà½Ĥà½£à½¦":3963,"à¼¥à¼©à¼¦":3964,"à¾·à½ºà½¾à¼ĭ":3965,"Ġà½Łà½ĳ":3966,"à½ĺà½¦à½£à½¦":3967,"à½ĸà½¢à½łà½ĳ":3968,"à½ĸà½Ħà½Ĥ":3969,"à½ĺà½Ŀ":3970,"à¼¨à¼¤à¼¥":3971,"à½ĺà½ĺà½ģ":3972,"à½Ĩà½Ĥà½¢":3973,"à½łà½ĳà½Ķ":3974,"à½ĸà½ĺà½Ľà½ĳ":3975,"à½¢à½ĺà½Ħ":3976,"à½łà½ģà½¦":3977,"à½Ĥà½Ļà½ĳ":3978,"à½İà½ı":3979,"à½Ĥà½£à½Ĥ":3980,"à½ĺà½ĳà½Ķà½ł":3981,"à½ĸà½ıà½ĺà½¦":3982,"à½ĳà½Ķà½£à½¦":3983,"à½Ľà½Ĥ":3984,"à½ĵà½ĵà½ĵ":3985,"à¼¥à¼¥à¼¢":3986,"91":3987,"à¾²à½¼à¼įà¼ĭ":3988,"à¼¤à¼§à¼£":3989,"à¼¤à¼¦à¼£":3990,"à½łà½£à½¦":3991,"à¾²à½±à½´à¼ĭ":3992,"à½ĸà½Ĥà½¢":3993,"à½Ħà½Ĥà½Ĥ":3994,"à¼ĭà¾¢à½ºà¼ĭ":3995,"à½Ķà½¦à½¡":3996,"à¾ľà½²à¼į":3997,"à¼¡à¼¦à¼¤à¼¢":3998,"½ľ":3999,"à½ľ":4000,"à½Ĥà½ıà½ĵà½£":4001,"à½ĵà½¦à½ł":4002,"à½£à½Ĥà½ı":4003,"à½£à½Ĥà½ĳ":4004,"à½łà½Ĩà½ĵ":4005,"à½Ĳà½¢à½Ķ":4006,"à½ģà½Į":4007,"à¼ĭà½¼à¼ĭà½ºà¼ĭ":4008,"à½¦à½£à½ĺ":4009,"à½¡à½Ħà½ĸ":4010,"à¼¤à¼©à¼©":4011,"à¼¥à¼¥à¼¡":4012,"à¾ļà½±à½²à¼ĭ":4013,"à½¢à½Ĥà½Ħ":4014,"à½ĺà½ĸà½ł":4015,"à¾»à¼į":4016,"à½¦à½ĳà½ĸ":4017,"à½¦à½ĸà½¤à½ĳ":4018,"à½Ķà½¢à½ĸà½¤à½ĳ":4019,"à½ĺà½¢à½ĺ":4020,"à¼¦à¼¤à¼¡":4021,"à¼¥à¼§à¼¢":4022,"à½ĺà½ĵà½Ĥ":4023,"à½Ĥà½Ħà½ĳà½Ĥ":4024,"à¼µà½ºà¼ĭ":4025,"à¼¤à¼©à¼¦":4026,"ï¼Ī":4027,"à½Įà½ĺ":4028,"à¼Ģà½£":4029,"à¼¤à¼¨à¼§":4030,"93":4031,"à½ģà½Ļ":4032,"à½Ĥà½Łà½ĳ":4033,"à¼¤à¼¥à¼£":4034,"à¾Ĵà¾Ńà¼ĭ":4035,"à¼¤à¼£à¼¡":4036,"à½ĭà½Ģ":4037,"ï¼ī":4038,"à¾±à½¾":4039,"à½£à½¦à½¡":4040,"à½Ĳà½ĺà½¦à½ħà½ĳà½£":4041,"99":4042,"à½Īà½²à¼ĭ":4043,"à¼µà½¼à¼ĭ":4044,"à½ºà¼µà¼ĭ":4045,"à½¡à½Ħà½¡":4046,"à½£à½Ĥà½£":4047,"à¼¦à¼¦à¼¢":4048,"à¼¦à¼¡à¼¥":4049,"à½ķà½Ĭà½¦":4050,"Ġà½ĺà½ĳà½ł":4051,"à½Ĥà½£à½ĺ":4052,"94":4053,"à½Ĳà½ĺà½¦à½ħà½ĳà½Ģ":4054,"à¼ī":4055,"à½ģà½ī":4056,"à¼¡à¼©à¼£à¼¦":4057,"à¼¥à¼©à¼¥":4058,"à¾łà¼į":4059,"à½¨à½Ŀ":4060,"à¼¤à¼£à¼¨":4061,"à½Ľà½Ħ":4062,"à¼¦à¼¡à¼¨":4063,"à½ĳà½łà½Ĥ":4064,"à½¦à½ĳà½ĺ":4065,"à½¦à½Ŀ":4066,"à½Ħà½Ĥà½ĵà½¦":4067,"à¼§à¼©à¼§":4068,"à½ĵà½Ĩà½ĳ":4069,"à½ĺà½ĺà½ģà½ł":4070,"à½ĳà½Ĥà½ĳà½Ħ":4071,"à¼¥à¼§à¼©":4072,"à½ĺà½ĵà½Ħà½Ĥ":4073,"à¼¦à¼¢à¼¤":4074,"à¼¥à¼¨à¼¥":4075,"à½ĺà½Ĥà½Ħ":4076,"à¾·à¾²à½´à¼ĭ":4077,"à¼¥à¼¢à¼©":4078,"à½Ĥà½ĵà½¦à½ĺ":4079,"à½¨à½Ĩ":4080,"à¼¦à¼¥à¼¢":4081,"à½Ĥà½Ħà½ĳ":4082,"à½Īà½ºà¼ĭ":4083,"à¼¤à¼©à¼¢":4084,"Ġà¼¡à¼©à¼©":4085,"à½²à¼ĭà½ºà¼ĭ":4086,"à¾łà½ºà¼ĭ":4087,"à½ĺà½£à½Ĥà½¦":4088,"à½ļà½Ģ":4089,"à¾Ĵà½¼à¼ĭà¼į":4090,"à¼¤à¼¨à¼¤":4091,"92":4092,"Ġà½ĺà½Ĩà½ĵ":4093,"à¼¡à¼©à¼£à¼©":4094,"95":4095,"à¾«à½´à¼į":4096,"à½Ĥà½Łà½Ĥ":4097,"à½ĵà½¦à½ī":4098,"à½Ķà½łà½¢":4099,"à¼¥à¼¤à¼¢":4100,"96":4101,"à½¦à½¦à½¢":4102,"à¼¥à¼¢à¼§":4103,"à½Ħà½łà½ĸ":4104,"à½ĩà½ĵ":4105,"à¼¥à¼¡à¼©":4106,"à¾Łà¾±à½º":4107,"à½ĺà½Ĳà½łà½¡à½¦":4108,"à¼¥à¼¡à¼£":4109,"à½ĳà½ĵà½ĺ":4110,"à½ĳà½Ĥà½łà½ĸà½ł":4111,"à¼¤à¼£à¼¢":4112,"Ġà½ĸà½ĺ":4113,"à½ĵà½ĺà½Ľà½ĳ":4114,"à½£à½ķà½ĵ":4115,"à¼¥à¼¦à¼¨":4116,"à½Ħà½Ĥà½ŀ":4117,"à½Łà½ĳà½Ķ":4118,"à½Ĥà½Łà½Ħ":4119,"à¼¥à¼¨à¼¦":4120,"à¾¦à¾·à½²":4121,"à¼¡à¼©à¼¤à¼¨":4122,"à½Ĥà½ŀà½ĵà½¢":4123,"à¼¥à¼¡à¼¦":4124,"à¼¥à¼¥à¼§":4125,"à¼¥à¼©à¼¢":4126,"à¼¦à¼¨à¼¢":4127,"Ġà½łà½Ĩà½ĳ":4128,"à½¢à½Ł":4129,"à½Ļà½ĺà½Ĥ":4130,"Ġà½¢à½¦":4131,"à½ļà½Ķ":4132,"à½¢à½ĸà½¤à½ĳ":4133,"à½Ħà½ĺà½ł":4134,"à½łà½ĺà½¦":4135,"à¼¥à¼¤à¼¤":4136,"à¾Ĵà¾²à¼ĭà¼į":4137,"à½ķà½łà½ĺ":4138,"à¾±à¾°à¼ĭ":4139,"à½Ħà½¦à½Ķà½¢":4140,"à½łà½ĳà½¦à½Ķ":4141,"à¼¦à¼§à¼¨":4142,"à¼¦à¼¨à¼§":4143,"à½¢à½łà½ĸ":4144,"à½²à¼ĭÂ¶":4145,"à½£à½Ĥà½¦à½£":4146,"à½¡à½Ħà½Ĥ":4147,"à¾Ĳà¾²à¾Ģ":4148,"à½ĸà½Ĥà½ŀ":4149,"à½Ģà½¥":4150,"à½ĳà½Ķà½Ĥà½ı":4151,"à¼§à¼¥à¼¦":4152,"à¼¡à¼©à¼¤à¼¡":4153,"à½¦à½Ģà½ĳ":4154,"à½Ĳà½Ķ":4155,"à¾©à¾Ńà¼į":4156,"à¼¦à¼§à¼¢":4157,"à¾¦à¾±à½´":4158,"à½Ĥà½ĵà½¢":4159,"à½ĳà½Ķà½Ĥà½ĺ":4160,"Ġà½Łà½Ħà½¦":4161,"à½Łà½ĺà½¦":4162,"à½¢à½ĸà½ĵ":4163,"à¾Ķà¼įà¼ĭ":4164,"à½¨à½ķ":4165,"à¼¥à¼¥à¼¤":4166,"à½£à½ĵà½Ĥ":4167,"à½ĳà½Ĥà½łà½¢":4168,"Ġà½ĸà½ĵ":4169,"à½ĵà½łà½Ħà½¦":4170,"à½Ĥà½¤à½ĺà½¦":4171,"à½²à¼ĭà½´":4172,"à½ĸà½łà½¦":4173,"à½Ĥà½ĵà½¦à½ĵà½¦":4174,"à½łà½ļà½£à½ĵ":4175,"à¼¦à¼¥à¼§":4176,"Ġà½ĳà½£":4177,"à½ĺà½ĵà½Ħ":4178,"à½£à½ĸà½ħ":4179,"à½¨à½İà½ł":4180,"à½ĸà½ħà½¦à½Ķà½ł":4181,"à¼¤à¼¨à¼¨":4182,"à½£à½ĵà½ĳ":4183,"à½Ħà½¦à½ŀ":4184,"à½Ħà½¦à½Ħà½¦":4185,"à¼¥à¼£à¼¥":4186,"Ġà¼©à¼¢":4187,"98":4188,"à½ĳà½łà½ĸ":4189,"97":4190,"Ġà½ĸà½ı":4191,"à½ĳà½Ħà½łà½ĸ":4192,"à½ĺà½¦à½Ĩ":4193,"à¼¥à¼¢à¼¤":4194,"à¼¥à¼¨à¼§":4195,"à½Ħà½Ĥà½Ħ":4196,"à½Ģà½¨":4197,"à½ĸà½ĳà½Ĥà½ħ":4198,"à¼¥à¼©à¼©":4199,"à½Ĳà½£à½¦":4200,"à½¤à½§":4201,"à¼¥à¼¢à¼¨":4202,"à½ģà½¦à½ĺ":4203,"à¼¥à¼¥à¼¦":4204,"à¼¥à¼©à¼¡":4205,"à¼¥à¼©à¼§":4206,"à½¦à½ĸà½Ģà½ł":4207,"à½ģà½ĺà½¦à½Ģ":4208,"à¼¦à¼¢à¼¦":4209,"à¼¥à¼¨à¼¢":4210,"à½Ħà½Ĥà½ŀà½ĵ":4211,"à½ĳà½£à½ĺ":4212,"à½ºà¼ĭà½¼":4213,"à½ħà½Ķ":4214,"à¼¥à¼¤à¼¥":4215,"à¼¦à¼©à¼©":4216,"à¼¦à¼¢à¼¥":4217,"à¾²à½´à¼ĭà¼į":4218,"à½ĳà½Ĳà½ĺà½¦":4219,"à½Ħà½ĸà½ĳ":4220,"à½Ķà½¦à½Ħ":4221,"à½ģà½ĺà½¦à½¦":4222,"à¼¥à¼¡à¼¨":4223,"à½ĸà½¢à½ł":4224,"à¼¤à¼¨à¼£":4225,"Ġà½ĺà½İ":4226,"à½ĺà½łà½ģ":4227,"à¼¥à¼¢à¼¦":4228,"à¾±à¾±à½º":4229,"à¼§à¼£à¼§":4230,"à¼¦à¼£à¼£":4231,"à¼ĭà¼ģà¾ĥ":4232,"à¼¦à¼¦à¼¥":4233,"à½Ķà½¢à½ł":4234,"à¼¥à¼§à¼¡":4235,"à¼¥à¼¤à¼¡":4236,"à¼¥à¼§à¼¦":4237,"à½łà½ķà½ĳ":4238,"à¼¦à¼¡à¼¤":4239,"à¼¦à¼¡à¼¦":4240,"à¼¦à¼¦à¼¡":4241,"à½Ħà½łà½Ĥ":4242,"à¾¼à¾Ģà¼ĭ":4243,"à¼§à¼¢à¼¢":4244,"à¼¦à¼¢à¼¡":4245,"à½¼à¼ĭà¼įà¼ĭ":4246,"à¼¤à¼©à¼¡":4247,"Ġà½ŀà½Ĥ":4248,"à½ĺà½Ĭ":4249,"à½Łà½ĸà½¢":4250,"à¼¤à¼©à¼¤":4251,"à½Ħà½ĺà½Ħ":4252,"à½Ķà½ĺà½ĳ":4253,"à¼¦à¼¤à¼¥":4254,"à½¦à½ĺà½Ĳà½ł":4255,"à½ĵà½ĺà½Ĳà½ł":4256,"à½ĸà½¦à½ĳà½Ħ":4257,"à½ĸà½¦à½łà½ĳ":4258,"à¾łà½¾à¼ĭ":4259,"Ġà½ĸà½Ģà½łà½łà½Ĥ":4260,"à½ĸà½ĵà½ĳ":4261,"à½Ģà½ĵà½¦":4262,"à¼¦à¼¦à¼©":4263,"à¼¦à¼¦à¼¨":4264,"à½¢à½Ħà½ī":4265,"à¼¦à¼©à¼¨":4266,"à¼ĭà½¾à¼ĭ":4267,"à½Ĥà½¦à½ģ":4268,"à½´à¼ĭà½º":4269,"à¾¤à¾±à½²à¼ĭà¼į":4270,"à½Ķà½ĵà½ĺ":4271,"à½īà½Ģ":4272,"à¾£à½¾":4273,"à¼ĭà½Īà¾±à½º":4274,"à½ĸà½Ĩà½ĳ":4275,"à½Ķà½¦à½ķ":4276,"Ġà¼¨à¼©":4277,"à½ĵà½Ķà½ĳ":4278,"à¼ĭà¾¨à¼ĭ":4279,"à½łà½Ĳà½ł":4280,"à¼¦à¼¢à¼§":4281,"à¼¡à¼©à¼£à¼¨":4282,"à½¢à½Ľ":4283,"à¼¦à¼¡à¼©":4284,"à½Ļà½ĺà½ĺ":4285,"à½Ĵà½¡":4286,"à½¢à½ĩ":4287,"à½Łà½Ķ":4288,"Ġà½Ĥà½ŀà½£":4289,"à½ºà¼ĭà¼º":4290,"à½¾à¼įà¼ĭ":4291,"à¾µà¾ŀà¼ĭ":4292,"à¼¤à¼©à¼¨":4293,"à½ĸà½łà½Ľ":4294,"à½Ĺà½£":4295,"à¾±à½±à¼į":4296,"à¼§à¼¡à¼§":4297,"à¼§à¼¦à¼¢":4298,"à¼¥à¼£à¼¡":4299,"à½łà½Ĥà½ī":4300,"à½ģà½ĺà½¦à½ĺ":4301,"Ġà½ĸà½ıà½Ħ":4302,"à½ĸà½Ļà½Ħà½¦":4303,"à¼¥à¼¢à¼£":4304,"à¼¥à¼¦à¼£":4305,"à¾Łà¾²à½ºà¼ĭ":4306,"à¼¦à¼¤à¼¢":4307,"à¼¥à¼¦à¼¤":4308,"à¼¥à¼¨à¼©":4309,"à¼Ģà½Ķà½ĳ":4310,"à¼¥à¼§à¼¨":4311,"à½Ĥà½Ĥà½ı":4312,"à½ªà½Ħ":4313,"à½ĺà½¡à½Ħ":4314,"à½ĺà½ĸà½ĳà½Ĥ":4315,"à½Ĳà½ĺà½ł":4316,"à¼¥à¼¤à¼§":4317,"à¼ĭ<":4318,"à½Ħà½ĺà½Ĩ":4319,"à¾¦à¾·à½´à¼ĭ":4320,"à¼¦à¼§à¼¥":4321,"à½¦à½ĳà½ĸà½Ħ":4322,"à½łà½ĺà½¢":4323,"à½²à¼ĭà½Īà½¼":4324,"à¾¦à½±":4325,"à½ĺà½Ĳà½łà½ĳà½Ĥ":4326,"à½Ĺà½ĵà½¡":4327,"Ġà¼©à¼¨":4328,"à½£à½ĵà½Ħ":4329,"à½Łà½ļ":4330,"à½ĸà½ŀà½Ĥà½¢":4331,"à¼¦à¼¨à¼©":4332,"à½ĸà½Ĥà½Ł":4333,"à¼ĭà¾İà¼į":4334,"Ġà½Ĩà½Ħ":4335,"à½¦à½ĺà½Ľ":4336,"à½¢à½Ħà½£":4337,"à¼¦à¼¡à¼£":4338,"à½ĸà½Ĥà½ı":4339,"Ġà½¦à½ł":4340,"à¼¦à¼§à¼¡":4341,"à½ĵà½ĺà½ĵ":4342,"à¼¡à¼©à¼£à¼¤":4343,"à¼¥à¼©à¼¤":4344,"à¼¦à¼§à¼©":4345,"à¼¦à¼©à¼¥":4346,"à¾·à¼ĭà½µ":4347,"à½Ĥà½ĵà½¦à½Ģ":4348,"à¼¥à¼¡à¼¤":4349,"à¼¡à¼©à¼¡à¼¡":4350,"à¼¡à¼¤à¼¡à¼©":4351,"Ġà½ĸà½Łà½ł":4352,"à½ĳà½Ħà½Ĩ":4353,"à¼¤à¼©à¼£":4354,"à¼´à¼´":4355,"à½ĳà½Ħà½¡":4356,"à½Łà½ĩ":4357,"à¼§à¼¢à¼§":4358,"à¾²à½±à½¾à¼į":4359,"à¼¦à¼¦à¼¤":4360,"Ġà½łà½Ĥà½ł":4361,"à½£à½¦à½ģ":4362,"à¼§à¼¤à¼¢":4363,"à½ĵà½ĺà½¦à½¢":4364,"Ġà½Ħà½Ħ":4365,"à½ĳà½ĸà½Ħà½ĳ":4366,"à½ĺà½ļà½ĵà½ĺà½ł":4367,"à½ĸà½£à½Ĥà½¦":4368,"à½²à¼ĭà¾İ":4369,"à½ĳà½Ĥà½Ħà½¦":4370,"à¾¡à¾²à½±à¼ĭ":4371,"à½¡à½Ħà½Ħ":4372,"à¾Ĵà¾±à½´à¼įà¼ĭ":4373,"à¼¦à¼¤à¼©":4374,"à¾ľà½´à¼ĭ":4375,"à¼¦à¼§à¼¦":4376,"à½Ħà½ĸà½ħ":4377,"Ġà¼¡à¼¢à¼¢":4378,"à½Ħà½Ĥà½ħ":4379,"à½İà½ĵ":4380,"Ġà¼¨à¼¤":4381,"à½ĵà½ĵà½Ĥ":4382,"à½ĺà½ļà½ĵà½¦":4383,"à¼¦à¼¤à¼¨":4384,"à¾¡à¾·à¾±à¼ĭ":4385,"à½¢à½Ļ":4386,"à¼¦à¼£à¼¥":4387,"à¼¦à¼©à¼¢":4388,"à½ĵà½ĸà½¦à½ĺ":4389,"à¾±à½²à¼´":4390,"à¼ĭà¼µ":4391,"à¾¤à½ºà¼į":4392,"à¼¦à¼£à¼¦":4393,"à¼¦à¼¥à¼¡":4394,"à½¦à½Ĭ":4395,"à½¢à½Ķà½¢":4396,"à½¡à½Ĩ":4397,"à¼¥à¼£à¼©":4398,"Ġà½īà½Ħ":4399,"à¼¥à¼¨à¼¨":4400,"à½¡à½ļ":4401,"à¾©à½¼à¼į":4402,"à¼¥à¼¨à¼¤":4403,"à½Ħà½¦à½Ķà½¦":4404,"à¼¥à¼£à¼¦":4405,"à¼¡à¼¢à¼¥à¼§":4406,"à½Ĥà½¦à½łà½ĳ":4407,"à½Ĥà½Ļà½ĵ":4408,"à¼¥à¼£à¼§":4409,"à¾µà½´à½¾à¼ĭ":4410,"à¼¦à¼©à¼§":4411,"à½ĵà½ĺà½ļ":4412,"à½Ķà½ĺà½Ľà½ĳ":4413,"à½¡à½Ĳ":4414,"à½ĩà½Ħ":4415,"à¼¦à¼¨à¼¨":4416,"à½ļà½ĵà½¦":4417,"à½±à¾ĥ":4418,"à½łà½ļà½ĵ":4419,"à¼¥à¼£à¼¢":4420,"à¼¡à¼©à¼¤à¼¦":4421,"à¼¡à¼¡à¼¡à¼¢":4422,"à¼¦à¼¦à¼£":4423,"Ġà¼¨à¼¢":4424,"à½Ĥà½ĳà½ĳ":4425,"à¼¥à¼¥à¼£":4426,"à½¢à½ĺà½Ĩ":4427,"à¼¡à¼©à¼¡à¼©":4428,"à½¡à½ĵà½¦":4429,"à½ĳà½Ħà½ķ":4430,"à¼¡à¼¢à¼¨à¼£":4431,"à¾ŀà½²":4432,"à½ĵà½Łà½«":4433,"à¾·à½µà¼ĭ":4434,"à¼¦à¼¤à¼¤":4435,"à¼¦à¼¨à¼¥":4436,"Ġà½ĸà½¦à½Ħ":4437,"à½ĵà½Ĥà½¦à½£":4438,"à½ĵà½¦à½ĸà½ħ":4439,"à½ĳà½Ķà½Ĥà½ļà½ĳ":4440,"à½ĺà½¦à½¡":4441,"à½¢à½ĸà½Ĥ":4442,"Ġà½ĸà½ıà½Ĥà½¦":4443,"à¼¦à¼£à¼©":4444,"à½ĸà½ĸà½ĵ":4445,"à¼¡à¼©à¼¢à¼§":4446,"à½ĵà½¦à½ĸà½¢":4447,"à¾Ńà½¼à¼į":4448,"à¼¦à¼¢à¼¨":4449,"à¼¦à¼£à¼¤":4450,"à¼¦à¼¥à¼¥":4451,"à¾¦à¾·à½ºà¼į":4452,"à½ķà½Ĳà½Ĥ":4453,"à¼§à¼¥à¼¥":4454,"100":4455,"à½ıà½İ":4456,"à¾³à¼ĭà½±à¼ĭ":4457,"Ġà¼¡à¼©à¼¨":4458,"à½Ĵà½«":4459,"à¼¥à¼§à¼¤":4460,"à½ĵà½Ĥà½ĳ":4461,"à½£à½¦à½£à½¦":4462,"à½¢à½Ĭ":4463,"à¾¦à½±à½²":4464,"à½łà½ĩà½ĺà½ĳà½Ķà½£":4465,"à¼¥à¼¨à¼¡":4466,"à¼¦à¼¨à¼¡":4467,"à½ĵà½ĳà½Ģ":4468,"à½²à¼ĭà½¼à¼ĭ":4469,"à¾³à¾³à½¼":4470,"à½Łà½Ģ":4471,"à½ĸà½ŀà½Ĥà½ĵà½¦":4472,"à½ĺà½Ĩà½Ĥ":4473,"à½Ķà½ļà½ĳ":4474,"à½ĸà½Ĥà½£":4475,"à¼§à¼¢à¼¡":4476,"à¼¥à¼©à¼£":4477,"à½£à½¦à½łà½ĸ":4478,"à¼§à¼§à¼¢":4479,"à¼¦à¼¥à¼¤":4480,"à½Ķà½Ĥà½Ł":4481,"à½Ĥà½¦à½£à½ĺ":4482,"à½´à¼´":4483,"à½ĺà½Łà½ĳ":4484,"à½Ļà½ĸà½¦":4485,"à½łà½ĳà½¦à½Ķà½ł":4486,"à¾Ĳà¾±à¾²à½º":4487,"à½¦à½ĵà½Ħ":4488,"à½¼à¼ĭà¼´à¼į":4489,"à½Ĺà½ı":4490,"Ġà¼¨à¼¨":4491,"à¾ķà½¼à¼ĭ":4492,"à¼¥à¼£à¼£":4493,"à½Ħà½łà½Ľ":4494,"à½£à½¦à½Ħ":4495,"à½Ĳà½£à½ĳ":4496,"à½ķà½£à½Ĩ":4497,"à¼¡à¼©à¼¤à¼¢":4498,"½³":4499,"à½³":4500,"à½Ĥà½Ħà½¡à½Ħ":4501,"à¾©à½ºà¼ĭà¼į":4502,"à½ĳà½Ģà½łà½ĸ":4503,"à½Ļà½¡":4504,"à¼¦à¼¢à¼£":4505,"à¼¦à¼¨à¼¦":4506,"à½Ļà½ĺà½ĳ":4507,"à½ļà½Ĳ":4508,"à½¦à½ĺà½īà½ĺ":4509,"à½£à½Ŀ":4510,"à½ĺà½¦à½Ħà½¦":4511,"à½ĸà½Ģà½łà½ĳ":4512,"à½ĸà½¤à½ĳà½Ķà½¢":4513,"à¼¡à¼¦à¼©à¼¨":4514,"Ġà½¦à½ĺ":4515,"à¾¦à½¼à¼į":4516,"à½Ĥà½Ħà½ł":4517,"à½ħà½ĵà½¡":4518,"à¾Ńà½¾":4519,"à½¥à½İ":4520,"Ġà¼¡à¼¡à¼¢":4521,"à¼Ģà½¡":4522,"Ġà½ļà½ĵ":4523,"à½Ĩà½Ģ":4524,"à¼¡à¼¤à¼¡à¼¥":4525,"à¼¦à¼©à¼¡":4526,"Ġà½¢à½ı":4527,"à½Ĥà½ĺà½ļ":4528,"à½ĵà½ĳà½ĳ":4529,"à½ĺà½ĸà½ĳ":4530,"à¾Łà¾Łà¼ĭ":4531,"à½ĺà½Ľà½ĳà½Ķà½ł":4532,"à½Ģà½Ģà½Ģà½Ģ":4533,"à½¼à¼ĭà¼º":4534,"à½Ķà½¢à½¡":4535,"à½ħà½ĵà½ĳà½ĺ":4536,"à½Ķà½¦à½Ķ":4537,"à¼¥à¼¤à¼¨":4538,"à¼¦à¼¤à¼§":4539,"Ġà½£à½Ħ":4540,"à¾¦à¾·à¼į":4541,"à½Ľà½ı":4542,"à¼¥à¼£à¼¤":4543,"à½¦à½Ĥà½Ł":4544,"à½ĳà½łà½Ħ":4545,"à½ħà½ĳà½£à½¦":4546,"à¼¥à¼£à¼¨":4547,"à¼¥à¼¥à¼©":4548,"à¼¥à¼¥à¼¨":4549,"à½¦à½Ħà½Ĥ":4550,"à½Ħà½ĺà½Ĳ":4551,"à½ĸà½ĳà½Ģ":4552,"à½ĸà½¤à½ĳà½ĸ":4553,"à½łà½ĳà½¦à½ĵ":4554,"à¼¥à¼¤à¼©":4555,"à½Ĥà½ŀà½ĺà½¦":4556,"à½Ĥà½ĵà½¦à½¢":4557,"à½Ĥà½ħà½¦":4558,"à¾Ĳà¾±à¾²à½ºà¼ĭ":4559,"à¾ľà½±à½²":4560,"à½¢à½ĸà½ĺ":4561,"à¼¦à¼¥à¼¦":4562,"à½ĸà½¦à½¡":4563,"à½ĸà½¢à½ĺà½Ľà½ĳ":4564,"à½łà½Ĩà½¦":4565,"à½ĵà½ĺà½ĺà½ģà½¢":4566,"à½£à½ĺà½ļ":4567,"à¼¡à¼¢à¼¡à¼¢":4568,"à½Ħà½Ķà½¦":4569,"à½ħà½ĵà½ŀ":4570,"à¼§à¼¡à¼¤":4571,"à¼§à¼§à¼©":4572,"à¾·à¾£à½±à½¾à¼ĭ":4573,"à½¦à½ĸà½¦à½ĺ":4574,"à¼¦à¼£à¼¡":4575,"à¼¦à¼¦à¼§":4576,"à½ĺà½Ĩà½¢":4577,"à½ĺà½Ħà½ĳ":4578,"à¼¦à¼£à¼¨":4579,"à¾µà½º":4580,"à¼§à¼§à¼¨":4581,"à¼§à¼¡à¼£":4582,"à½Ĥà½¦à½¨":4583,"à½ĺà½ģà½łà½Ĥ":4584,"à¼¥à¼¤à¼£":4585,"à½ĵà½Ĥà½£":4586,"à¼¦à¼§à¼£":4587,"à¼§à¼¢à¼¥":4588,"à¼¡à¼©à¼¢à¼¦":4589,"à½Ķà½¦à½¤":4590,"à¾Ķà½´à¼į":4591,"à½ĵà½Ħà½ĳ":4592,"à½£à½Ĥà½Ķ":4593,"à¼§à¼¦à¼¥":4594,"à¼¦à¼£à¼¢":4595,"à¼ĭà¼Ĳà¼Ĳ":4596,"à½ĸà½ĸà½Ģ":4597,"à½ĺà½ĺà½Ľà½ĳ":4598,"à½ĳà½Ĥà½Ĳà½ĺà½¦":4599,"à½ĸà½łà½Ĩ":4600,"à¼§à¼¢à¼¦":4601,"à½ĺà½īà½ĺà½Ķà½¢":4602,"à¼§à¼§à¼¡":4603,"à¼§à¼§à¼¥":4604,"à¾«à¾Ļà¾°à¼ĭ":4605,"à¼§à¼¢à¼©":4606,"à½Ĥà½Ľ":4607,"à½¡à½Ħà½£":4608,"à¼¥à¼§à¼£":4609,"à½Ķà½¦à½Ĥà½¦":4610,"à¼¦à¼£à¼§":4611,"à¼¦à¼¤à¼¦":4612,"à½ķà½Ĭà½¨":4613,"à¼§à¼©à¼¨":4614,"Ġà½Ģà½ĵ":4615,"à½Ķà½ĸà½ĳà½Ĥ":4616,"à¼§à¼¦à¼£":4617,"à½ĺà½ģà½¦à½Ķ":4618,"à¾Ĵà½±à½²à¼ĭ":4619,"à¾±à¼ĭà½²à¼ĭ":4620,"à½ĵà½Ĥà½¤":4621,"à½£à½¦à½ĸà½¦":4622,"à½ĸà½ıà½Ĭ":4623,"Ġà¼´à¼į":4624,"Ġà¼©à¼§":4625,"à¾±à¾Ģà¼į":4626,"à½łà½ı":4627,"à¾Łà¾±à¼ĭ":4628,"à½ķà½ĺà½¦":4629,"à½ĸà½¢à½Ĥà½ŀà½Ĥ":4630,"à¼¦à¼¥à¼£":4631,"102":4632,"à½ĳà½Ħà½ĸà½¦":4633,"à½ĵà½¦à½Ĥà½¦":4634,"à¼ĭà½Īà¾¤à¾±à½²":4635,"Ġà½Ĩà½¢":4636,"à½Ķà½¤à½ĳ":4637,"à½£à½¦à½ķ":4638,"à½ŀà½£à½ĵà½¦":4639,"à½¢à½łà½ĩ":4640,"à¾±à¾±à½²à¼ĭ":4641,"à½ŀà½Ģ":4642,"à½Ķà½łà½Ĳ":4643,"à½ĸà½¢à½ĺà½¦":4644,"à½Ļà½ļ":4645,"à½Ĥà½ĵà½¦à½Ķà½¢":4646,"101":4647,"à½¢à½ĳà½ĸ":4648,"à½ĵà½İ":4649,"à½Ħà½¢à½Ħ":4650,"à½īà½łà½ĺ":4651,"à¼§à¼©à¼¡":4652,"à¼¡à¼©à¼¢à¼©":4653,"104":4654,"à½ıà½łà½ĺ":4655,"à½Ĥà½¦à½ī":4656,"à½Ĳà½ķà½Ħ":4657,"à¼¦à¼©à¼¤":4658,"105":4659,"à½£à½Ķà½¦":4660,"à½Ĥà½¦à½Ģà½¢":4661,"à½ĵà½¦à½¤":4662,"à½Ĥà½īà½¢":4663,"à¾²à¼ĭà¼´":4664,"à¾±à½±à½²":4665,"à½ģà½Ĥà½¦":4666,"à½ĳà½Ķà½łà½ĳ":4667,"à¼¥à¼¤à¼¦":4668,"à½ıà½ĵà½ĵ":4669,"à½Ŀà½§":4670,"Ġà½¥":4671,"à½Ļà½Ķ":4672,"à¼¦à¼¥à¼©":4673,"à¼¦à¼¥à¼¨":4674,"Ġà½ĵà½Ĥà½¦":4675,"à¾Ĵà¾·à½¾à¼į":4676,"à½¨à½Ļà½ł":4677,"103":4678,"106":4679,"à½¼à¼ĭà¼ıà¼ĭ":4680,"à½ĳà½¢à½ĸ":4681,"à½£à½ĺà½Ĳà½ł":4682,"Ġà¼¨à¼¥":4683,"Ġà½łà½ļà½£":4684,"à½ĵà½¦à½Ķ":4685,"à½ĵà½¦à½Ĳ":4686,"à½£à½¦à½Ĳ":4687,"à½¨à½Ĳ":4688,"à¼¦à¼§à¼§":4689,"à¼¡à¼©à¼¢à¼¤":4690,"à½ĺà½¦à½ī":4691,"à½ĸà½¢à½¤":4692,"à½ĺà½Ľà½ĳà½ĵà½¦":4693,"à½ĺà½Ĥà½¡":4694,"à½Ķà½¦à½Ĳ":4695,"à½Ĩà½Ĥà½¦à½Ķ":4696,"à½Ķà½İà½Ĩ":4697,"à¾łà½²":4698,"à¼§à¼¨à¼§":4699,"Ġà½£à½Ĥà½¦":4700,"Ġà½ĵà½ĵ":4701,"à½Ĥà½Ĥà½¦à½Ħ":4702,"à½ºà½²à¼ĭ":4703,"à½Ĥà½¦à½ĸà½ł":4704,"à½ĸà½¦à½¤":4705,"à¾¦à¾²à½²à¼ĭ":4706,"à½ĺà½ģà½łà½łà½Ĥ":4707,"à¼§à¼¡à¼¥":4708,"à¼¦à¼©à¼¦":4709,"à½²à½²à¼į":4710,"à½Ĥà½ĸà½¦à½ĺ":4711,"à½¢à½ĺà½Ĳ":4712,"à½Ģà½łà½ĳ":4713,"à½ĵà½ĺà½īà½ĺ":4714,"à½łà½ķà½Ĥà½¦à½Ķà½ł":4715,"à½Ŀà½Ĥ":4716,"Ġà¼¡à¼¡à¼¦":4717,"109":4718,"à¼ģà¾ĥ":4719,"à½ĸà½ĵà½Ħ":4720,"à½Ķà½Ĳà½ĺà½¦à½ħà½ĳ":4721,"à½¨à½ıà½ł":4722,"à½ĳà½Ķà½łà½Ĩà½ĵ":4723,"Ġà¼¡à¼¡à¼£":4724,"à¼¡à¼©à¼£à¼¢":4725,"à¾²à¾²à½º":4726,"à¼¥à¼©à¼¨":4727,"à¼ĭà¼ĭ":4728,"à½ĺà½¢à½ĸ":4729,"à½ħà½Ĥà½¦":4730,"à½ĵà½łà½Ľ":4731,"à½¡à½¨":4732,"à½ĸà½¢à½Ĥà½ĵà½¦":4733,"à½Ļà½ª":4734,"à½ĸà½Ľà½ĳ":4735,"à½Ķà½£à½ł":4736,"à½İà½£":4737,"à½ĸà½Ĳà½ĸà½¦":4738,"à½¢à½ĺà½ł":4739,"à¾¦à¼ĭà¼į":4740,"à½ĩà½ĸ":4741,"à¼§à¼¡à¼©":4742,"à¼§à¼¥à¼§":4743,"à½¥à½¥":4744,"à¼¡à¼©à¼¤à¼£":4745,"à½łà½łà½ĩ":4746,"à½¡à½Ĭ":4747,"Ġà¼©à¼¥":4748,"Ġà½Ĳà½Ĥ":4749,"à½¦à½¢à½ĸà½Ģ":4750,"107":4751,"âĢ¦":4752,"à½Ĳà½Ĩ":4753,"à½¢à½Ħà½¢":4754,"à¼§à¼¡à¼¦":4755,"à½Ħà½Ĥà½ĳ":4756,"à½ĺà½¦à½¤":4757,"à½ıà½¤":4758,"à¾·à¾±à½ºà¼ĭ":4759,"à½łà½ļà½ĸà½¦":4760,"à¼§à¼¢à¼¨":4761,"à¾»à½¼à¼ĭ":4762,"à½Ķà½ĺà½ļ":4763,"à¼§à¼¢à¼¤":4764,"Ġà¼©à¼£":4765,"à½Ķà½ĳà½Ķ":4766,"à½Łà½Ĥà½ĺ":4767,"à¾¼à½±à¾Ģà¼ĭ":4768,"à½¢à½ĸà½¦à½ĺ":4769,"à½£à½ĸà½£":4770,"à½Łà½ĳà½ĺ":4771,"à½ĸà½ıà½¢":4772,"à¼¡à¼©à¼¤à¼¤":4773,"à½ģà½ķ":4774,"à¾¨à¾²à½¼à¼ĭ":4775,"à¼§à¼¦à¼¡":4776,"à½İà½Į":4777,"à¼©à¼¡à¼¡":4778,"Ġà¼¡à¼¡à¼©":4779,"à¼¥à¼¨à¼£":4780,"à¾µà¼ĭà¼į":4781,"à¼§à¼§à¼¤":4782,"à¼§à¼¨à¼¨":4783,"à½ĵà½ĺà½ģà½¦":4784,"à½Ĥà½¦à½ĸà½¦":4785,"à½£à½¦à½ļ":4786,"à½łà½ĸà½¢à½ĸ":4787,"à¼ĭ>":4788,"à½ĸà½ĸà½¤à½ĳ":4789,"Ġà¼©à¼¤":4790,"à½ĵà½Ĭ":4791,"à½Ķà½¥":4792,"à½Ķà½¢à½Ĥà½ŀà½Ĥ":4793,"à¼§à¼£à¼£":4794,"108":4795,"à½ĵà½¦à½¨":4796,"à½Ħà½¦à½Ħ":4797,"à½ĸà½£à½Ħ":4798,"à¼¨à¼¢à¼¢":4799,"à½Ĳà½ĺà½ħà½ĳ":4800,"à½Ħà½Ľ":4801,"à¼¨à¼¤à¼¡":4802,"à¾ļà¾²à½±à½²à¼ĭ":4803,"à¾»à½¼":4804,"112":4805,"à½ĳà½ĺà½ļà½ĵ":4806,"à½Ĥà½ĸà½Ģ":4807,"à¾³à½²à¼į":4808,"à¾·à½±à½´à½¾à¼ĭ":4809,"à½ĳà½Ķà½łà½£":4810,"Ġà¼¨à¼¡":4811,"à½Ĩà½ĸà½¢":4812,"à½ģà½ĺà½¦à½¢":4813,"à½ĸà½ĸà½ĸà½ĸà½ĸ":4814,"à¾¶à½´à¼ĭ":4815,"à½Ĥà½¦à½ĸà½¢":4816,"à½īà½ģ":4817,"à¾Ĳà¾²à½²":4818,"à½Ķà½¢à½ĸà½¦à½ĺ":4819,"à½ĳà½Ķà½£à½£":4820,"à½ĳà½§à½ł":4821,"à½Ĩà½Į":4822,"à½ĸà½ĳà½Ģà½ĵ":4823,"à¼§à¼£à¼©":4824,"à½İà½İ":4825,"à¼¦à¼©à¼£":4826,"à½¦à½ĺà½Ĥ":4827,"à½Ĩà½ļ":4828,"à¾²à½²à¼įà¼ĭ":4829,"113":4830,"à½ģà½ı":4831,"à½ĳà½ĸà½ĸà½¦":4832,"à½łà½Ľà½Ħ":4833,"à½ĸà½¦à½ļ":4834,"à¾Ļà½±à¼į":4835,"à½«à½¥":4836,"à½£à½ļà½ĳ":4837,"à¼§à¼¡à¼¨":4838,"Ġà½ıà½ĵ":4839,"à¼§à¼¦à¼¨":4840,"à½ĺà½ĵà½ĳ":4841,"à¼¡à¼¤à¼¡à¼¤":4842,"à½¢à½Ĥà½ħ":4843,"à½Ĥà½¦à½ķ":4844,"à½ĸà½¢à½Ĩà½ĳ":4845,"à¼Ģà½£à½¦":4846,"à½©à½¢":4847,"110":4848,"à½ĺà½¦à½Ħ":4849,"à½ĸà½Ģà½Ĥà½¦":4850,"à¼§à¼£à¼¦":4851,"à½¦à½¢à½¦":4852,"à½£à½Į":4853,"à½ĳà½Ħà½ĺà½īà½ĺ":4854,"à½ĳà½Ģà½Ĥ":4855,"111":4856,"à½ĳà½Ŀ":4857,"à½ĸà½ĳà½Ĥà½¢":4858,"à¼¡à¼©à¼¢à¼£":4859,"à¾Łà½¾à¼ĭà¼į":4860,"à½ĵà½¦à½¢à½Ħ":4861,"à¼§à¼¤à¼¥":4862,"115":4863,"à½¦à½ĺà½¢":4864,"à½ŀà½£à½¦":4865,"à¼§à¼¤à¼¡":4866,"à¼¨à¼¡à¼¢":4867,"à¼¨à¼¡à¼¥":4868,"à½ĺà½Ļà½ĵ":4869,"à½Ĥà½¦à½Ĳ":4870,"à½£à½¦à½Ĥà½Ħ":4871,"à¾Ģà½¾à¼ĭ":4872,"à¼ĭà½±à½´à¾ĥà¼ĭ":4873,"à½ģà½ĳà½Ĥ":4874,"à¾¦à¾·à½±à¼ĭ":4875,"à½ĳà½ĸà½Ħà½ĸà½¦":4876,"à½Ĵà½£":4877,"à¾´à¼į":4878,"à½ĥà½ĵ":4879,"à½´à¼ĭà½Ī":4880,"à½Ĩà½Ĥà½¦à½¦":4881,"à¼¡à¼¡à¼¡à¼£":4882,"à½Ķà½¢à½ĺà½Ĳ":4883,"à½ĳà½ĺà½¢à½Ķ":4884,"à½ģà½¦à½ĸ":4885,"Ġà½ĸà½ħà½ĳ":4886,"à½Ħà½Łà½ĳ":4887,"à½£à½ĺà½ģ":4888,"à½Ķà½¢à½¡à½Ħ":4889,"à½ĵà½¦à½ĳà½Ĥ":4890,"à¼§à¼¤à¼§":4891,"à½ĭà½ĵ":4892,"à½ĸà½ĸà½Ĥ":4893,"à½¢à½Ĥà½ı":4894,"à½Ķà½Ĥà½ĵà½¦":4895,"à¾Łà¾²à½²":4896,"à¼§à¼£à¼¥":4897,"à¼¡à¼©à¼¢à¼¢":4898,"à½łà½ĳà½łà½¦":4899,"à½ĳà½ĳà½ĸà½Ħ":4900,"à½¢à½ĵà½ĺ":4901,"à½ģà½Ķ":4902,"à½Łà½ĳà½ĳ":4903,"à½¦à½ĺà½¡":4904,"120":4905,"121":4906,"à¾ī":4907,"à½Ķà½¢à½ĺà½Ľ":4908,"Ġà¼¨à¼§":4909,"à½ĺà½ĺà½Ĥ":4910,"à½łà½ĸà½ŀ":4911,"à½Ĳà½ĸà½¦à½ĺ":4912,"à¼¦à¼¤à¼£":4913,"à¾Ĵà¾²à¾±à½²":4914,"à¼¡à¼¡à¼¨à¼¢":4915,"114":4916,"à½Ķà½ĺà½Ĳà½ł":4917,"à½¡à½ĳà½ĺ":4918,"à½Ĩà½¡":4919,"à½ĸà½¦à½ĺà½ĳ":4920,"à¼§à¼£à¼¡":4921,"à½ĳà½Ħà½Ĥà½ŀà½ĵ":4922,"à½łà½ĳà½¦à½¦":4923,"à½ĵà½ĳà½ĵ":4924,"à½Ĳà½¢à½Ķà½ł":4925,"à½Ĩà½Ĥà½ĳà½Ģà½¢":4926,"à¾ļà¾²à¾Ģà¼ĭ":4927,"à½ĺà½ļà½£à½¦":4928,"à½Ĳà½ĸà½¦à½Ģ":4929,"à½Ĥà½łà½Ľ":4930,"à½Ĩà½Ĥà½£":4931,"117":4932,"à½ĸà½ĸà½Ł":4933,"à½¤à½ª":4934,"à½ĸà½¤à½ĳà½ĵ":4935,"à½ĳà½Ħà½ī":4936,"à½ķà½Ĳ":4937,"à½ĳà½Ĥà½ģ":4938,"à¼¡à¼©à¼¡à¼¨":4939,"à¼Ģà½ĺà½§":4940,"à¼¦à¼¨à¼¤":4941,"à¼ĭà¼Ŀà¼Ŀà¼Ŀ":4942,"à½ĺà½¦à½ł":4943,"à½£à½¦à½¤":4944,"à½Ķà½¦à½ł":4945,"à½¢à½ĸà½Ħ":4946,"à½Ħà½Ĥà½£":4947,"à½Ĥà½Į":4948,"à¾±à½²à¼ĭà½Ī":4949,"à½ļà½ĸà½¢":4950,"à¼¡à¼¦à¼¡à¼§":4951,"Ġà½łà½Ĩà½¢":4952,"à¼ĭà¾¨":4953,"à½ĵà½ĺà½Ľ":4954,"à½ķà½Į":4955,"Ġà¼¡à¼¢à¼¡":4956,"Ġà½ķà½£":4957,"Ġà½łà½ĸà½ĳ":4958,"à½¦à½ŀà½¦":4959,"à½ĸà½ĺà½īà½ĺ":4960,"à½ıà½¡":4961,"Ġà½ĳà½Ķà½¢":4962,"à½Ĥà½ĸà½Ģà½ł":4963,"à½Ħà½ĺà½Ľà½ĳ":4964,"à½¾à¼ĭà¼´":4965,"à¼¡à¼©à¼¢à¼¨":4966,"à¼¡à¼£à¼¥à¼§":4967,"116":4968,"123":4969,"à¾·à¾²à½±à¼ĭ":4970,"à½ĳà½ĸà½Ħà½ķ":4971,"à½¥à½ĳ":4972,"Ġà½ĸà½¤à½Ĥà½¦":4973,"à½ĳà½Ħà½ģ":4974,"à½ĺà½ļà½ĵà½Ĥ":4975,"Ġà½ĺà½ģà½¢":4976,"à½Ĥà½Ĥà½ĳ":4977,"à½ĵà½Ķà½ĵ":4978,"à½¨à½Ħà½¦":4979,"Ġà¼¨à¼£":4980,"à¾Ĳà½¾à¼ĭ":4981,"à½ļà½ĳà½ĺà½¦":4982,"à½Ĥà½¦à½Ħà½ĸ":4983,"à½Ŀà½¨":4984,"à¼¡à¼¢à¼¥à¼¡":4985,"à½ĭà½¦":4986,"à¼§à¼©à¼¢":4987,"à½¦à½ĸà½Ł":4988,"à½Ĥà½Ĳà½ĺà½¦":4989,"à½Ĥà½¦à½ĳà½Ĥ":4990,"à½´à¼ĭà½¼":4991,"à½ĸà½¦à½ģ":4992,"à½ĸà½Ģà½łà½ĺ":4993,"à½ĸà½ŀà½Ĥp":4994,"à½ĵà½ĺà½¦à½Ģ":4995,"118":4996,"à½ºà½²":4997,"à½ıà½¨":4998,"à½łà½ĳà½¦à½ĳ":4999,"à½ĵà½ĺà½ŀ":5000,"à¾Ĵà¾²à½ºà¼į":5001,"Ġà¼¡à¼¡à¼¤":5002,"à½Ķà½¦à½¢à½Ħ":5003,"à¼§à¼¤à¼©":5004,"à½Ĥà½£à½ĵ":5005,"à½Ĵà½ĵà½Ł":5006,"à½µà½¾à¼ĭ":5007,"à½ĺà½Ĳà½łà½Ħ":5008,"à½¦à½ĸà½Ĥ":5009,"à¾²à¾Ĺà½º":5010,"à¾²à¼ĭà½²":5011,"à½Ĥà½¦à½£à½ĸà½¢":5012,"à¾Ĳà½´à½´à¼ĭ":5013,"à½Ĥà½ıà½ĵà½Ĥ":5014,"à½£à½ĵà½ħ":5015,"à¼¨à¼¢à¼¡":5016,"119":5017,"à¼ĭï¼Ī":5018,"à¼¦à¼§à¼¤":5019,"à½ĳà½ĸà½Ģ":5020,"à¼§à¼¤à¼¤":5021,"à¼§à¼¨à¼©":5022,"à¼ĭà¾¡à½¼":5023,"à½£à½ĸà½Ģ":5024,"à½¢à½Ħà½¢à½Ħ":5025,"à½ĵà½Ħà½ł":5026,"à½Łà½ĳà½Ķà½¢":5027,"à¼¡à¼©à¼£à¼¡":5028,"à½ĭà½ł":5029,"à½±à½´à½¾à½¾à¼ĭ":5030,"à½ĺà½ĺà½ļà½ĵ":5031,"à½ĸà½¢à½Ĥà½¤":5032,"à¼§à¼¤à¼£":5033,"à½Ĵà½ı":5034,"à¾Łà¾²à½±à¼ĭ":5035,"à½ĺà½ĳà½£":5036,"à½Ħà½ĵà½Ĥ":5037,"à¼¡à¼©à¼¢à¼¡":5038,"à¼¡à¼¦à¼¡à¼¨":5039,"à½¦à½ħà½ĳ":5040,"à½Ĥà½Ĥà½Ļ":5041,"à½Ĳà½Ĳà½ĺà½¦":5042,"à½ĳà½ĺà½Ľà½ĳ":5043,"à¼§à¼¥à¼¢":5044,"122":5045,"à½¦à½ĳà½Ķ":5046,"à½īà½Ķ":5047,"à½ĳà½Ĥà½łà½ŀ":5048,"à½Ĳà½ĸà½¦à½ĺà½ģà½¦":5049,"à¼§à¼£à¼¤":5050,"124":5051,"à½£à½İ":5052,"à¼§à¼¤à¼¨":5053,"à½Ĥà½ŀà½Ĥà½Ķ":5054,"à¼¡à¼§à¼¢à¼§":5055,"à¾łà½±":5056,"à¼ĭà¾Ĺ":5057,"à½Ĥà½łà½ķ":5058,"à½Ħà½łà½ĩ":5059,"à½ĺà½ĺà½ļ":5060,"à½Ģà½ĭ":5061,"à½ĺà½¦à½Ĥ":5062,"à½Ĩà½Ĥà½ĸ":5063,"à½©à½¦":5064,"à½£à½Ĥà½¦à½Ħ":5065,"à½ĳà½Ķà½ĺ":5066,"à¼©à¼©à¼§":5067,"130":5068,"Ġà½ĺà½ī":5069,"à¼ĭà¾²à½²à¼ĭ":5070,"à½ĺà½¦à½ļ":5071,"à½ķà½Ĭà½Ģ":5072,"à½¦à½łà½Ľ":5073,"à½¢à½łà½ģ":5074,"à¾±à¾¤à½º":5075,"à½ıà½Ļ":5076,"à½ĳà½ĳà½Ķà½¢":5077,"à½Ĥà½łà½ĵ":5078,"à¼¡à¼£à¼¡à¼£":5079,"128":5080,"129":5081,"à½ĳà½ĸà½¤à½ĳ":5082,"à¾·à¾²à½´":5083,"à½Ĥà½Ħà½ĺ":5084,"à½ĸà½ĺà½¢":5085,"à½¢à½Ĥà½ŀ":5086,"à½Ħà½¨":5087,"à½ıà½ī":5088,"à½§à½ı":5089,"à½§à½ħà½Ħ":5090,"à½ĳà½ĳà½¢":5091,"Ġà½¦à½¦":5092,"Ġà¼¡à¼¡à¼¥":5093,"à¾·à¾²à½±à½´à¼ĭ":5094,"Ġà½Ħà½ł":5095,"à½Ķà½īà½ĺà½¦":5096,"à½£à½Ĳà½ĺà½¦":5097,"à¾Łà¾Ńà½±à¼ĭ":5098,"à½ĸà½¦à½Ķà½ł":5099,"à½łà½«":5100,"à¼ĭà¾²":5101,"à½¦à½ĺà½ł":5102,"à½Ķà½¦à½ī":5103,"à¼ĭà¾¢à½±à¼ĭ":5104,"à½ĳà½Ħà½Ĳ":5105,"à¾±à½²à¼ĭà½º":5106,"à½ĺà½īà½ĺà½ĺ":5107,"Ġà¼©à¼¦":5108,"à½ĵà½Ĥà½ı":5109,"à½Ħà½ĺà½¢":5110,"à½ıà½ģ":5111,"à½Ĩà½Ĥà½¦à½ĳà½Ħ":5112,"à¼§à¼¥à¼¨":5113,"à¼¡à¼¢à¼¥à¼£":5114,"Ġà½ĸà½¦à½ĳ":5115,"à½ĸà½īà½ĺà½¦":5116,"à½ĵà½ĸà½Łà½Ħ":5117,"à½Ķà½Ĥà½ŀ":5118,"à½ĸà½ħà½¦à½¦":5119,"à¼§à¼¦à¼©":5120,"à½İà½Ķ":5121,"à½ĵà½ĳà½¦":5122,"à¼§à¼©à¼©":5123,"125":5124,"à½¦à½ĸà½Ģ":5125,"à½ĺà½ļà½ĵà½ĵ":5126,"à½Ĥà½łà½ķà½Ĥà½¦":5127,"à½ĸà½ĺà½ļ":5128,"à½£à½Ľ":5129,"à½łà½ĸà½ĳà½Ĥ":5130,"à¾Ļà¼į":5131,"à¼¡à¼£à¼¤à¼©":5132,"à¾Ńà½±à½¾à¼į":5133,"à½¡à½ĳà½ĳà½Ĥ":5134,"à¼¡à¼¡à¼¢à¼£":5135,"126":5136,"à½ĸà½ĵà½ĵ":5137,"à½´à½²à¼ĭ":5138,"à½ĺà½£à½ĺ":5139,"à½ļà½ĸà½ł":5140,"à½Įà½ĳ":5141,"à½Ĥà½¤à½£":5142,"à¼¨à¼¡à¼¡":5143,"à½±à½´à¾ĥà¼ĭà¼į":5144,"à¼§à¼¨à¼¢":5145,"à¼¡à¼¡à¼¢à¼¡":5146,"à½£à½Ĥà½¡":5147,"à½Ķà½¢à½ļ":5148,"à¼§à¼¦à¼¤":5149,"à¼¡à¼©à¼¡à¼§":5150,"à¾ŀà¾ŀ":5151,"Ġà½łà½ĳà½ĸ":5152,"à½¢à½¢à½ĺ":5153,"à½łà½łà½ģ":5154,"à½¡à½Ħà½ŀ":5155,"à¼§à¼¥à¼¤":5156,"à¼¡à¼¤à¼¡à¼¦":5157,"à¼¡à¼¤à¼¤à¼§":5158,"à½Ĺà½Ĳ":5159,"131":5160,"à¾±à½²à¼ĭà½¼":5161,"à½łà½ģà½ĸ":5162,"à¾µà½±à½²à¼ĭ":5163,"Ġà½ļà½Ħ":5164,"à½Ĥà½Ħà½¢":5165,"à¾µà½±":5166,"Ġà½łà½ĸà½ł":5167,"à½Ħà½¦à½ĳà½Ħ":5168,"à¾Ļà¾±à½²":5169,"à¼¨à¼¢à¼£":5170,"à½¦à½ĵà½ĳ":5171,"à½Ħà½¦à½Ĩ":5172,"à½Ĥà½Łà½Ħà½¦":5173,"à¼§à¼¢à¼£":5174,"à½ıà½ĵà½¢":5175,"Ġà¼ģà¾ĥ":5176,"à½ĵà½¦à½łà½ĸ":5177,"à½łà½Ĥà½ĺà½¦":5178,"à½ķà½ĵà½Ķ":5179,"à¼¡à¼¦à¼¨à¼¢":5180,"à½Ĵà½ĸ":5181,"à½łà½Ķà½¢":5182,"à½ĳà½ĳà½£":5183,"Ġà½ĵà½ĺà½¦":5184,"à½ĵà½ĺà½ļà½ĺà½¦":5185,"à½Ķà½İà½Į":5186,"à¾·à½²à¼ĭà¼´":5187,"à¼¡à¼¢à¼¡à¼£":5188,"à½ĺà½ĺà½ĺ":5189,"132":5190,"à½Ĥà½ŀà½ŀ":5191,"à½ĳà½ĺà½Ľ":5192,"à½ĸà½ŀà½Ĥà½£":5193,"à¼¡à¼©à¼¢à¼¥":5194,"à¼¡à¼¤à¼¡à¼¢":5195,"à¾Ĺà½ºà¼įà¼ĭ":5196,"à¼§à¼§à¼£":5197,"Ġà¼Ļ":5198,"à½ĸà½£à½ĺ":5199,"à½¢à½Ĥà½¦à½£":5200,"à½łà½ĺà½ĳ":5201,"à½ĸà½¦à½ĺà½¦à½ĵà½¦":5202,"127":5203,"à½Ķà½¦à½Ķà½¦":5204,"à½±à½¼à¼į":5205,"à½Ĥà½ŀà½ĵà½ŀ":5206,"à½ĵà½Ĥà½¢":5207,"135":5208,"à¾±à¼µ":5209,"à½ķà½Ģ":5210,"à½Ĥà½ŀà½ĸà½¦":5211,"à¼¨à¼¤à¼¢":5212,"à½Ķà½Ĥà½¡":5213,"à½Ķà½ĳà½ĺà½ł":5214,"à½Ģà½ģ":5215,"à½ĳà½Ĥà½ļ":5216,"à½ĺà½Ľà½¦":5217,"à¼§à¼¥à¼©":5218,"à½Ĥà½¦à½Ħà½ĸà½ł":5219,"à½Ĺà½¦":5220,"à¼©à¼©à¼¦":5221,"à¼§à¼¨à¼¥":5222,"à¼¡à¼¡à¼§à¼¥":5223,"à½ĳà½ĳà½Ģ":5224,"à½ĺà½ļà½Ĥ":5225,"à¼¡à¼£à¼¦à¼¤":5226,"à½£à½ĸà½Ģà½ł":5227,"à½ºà¼ĭà½Ī":5228,"à½Ĩà½ŀ":5229,"à½ļà½ĳà½ĳ":5230,"à¾ªà½º":5231,"à¼ĭà½±":5232,"à½ĵà½Ļà½ĺ":5233,"à¾©à½²à¼ĭà¼į":5234,"à¼¦à¼¨à¼£":5235,"Ġà½ĺà½£":5236,"à½ĸà½Ĥà½¡":5237,"à½ıà½ĺà½¦":5238,"à½¤à½¤":5239,"à½Ĥà½ŀà½ĺ":5240,"à½¨à½ª":5241,"à¼¡à¼¡à¼¤à¼¢":5242,"à½±à½´à½¾à¼ĭà¼į":5243,"137":5244,"à¾¼à¾»":5245,"à½¢à½ĳà½Ķ":5246,"à½Ħà½łà½ģ":5247,"à½ħà½ĳà½¡":5248,"à½ĺà½īà½£":5249,"à¼§à¼£à¼¢":5250,"à¼¨à¼¨à¼©":5251,"133":5252,"134":5253,"à½ĳà½ĵà½ĳ":5254,"à½ĸà½¤à½ĳà½ĺ":5255,"à¼§à¼¥à¼¡":5256,"à¼ĭà¼Ĳà¼į":5257,"à½Ĥà½ļà½ĳ":5258,"à½ĵà½Ĥà½¡":5259,"à½ģà½ĵà½¦":5260,"à¼§à¼©à¼¤":5261,"141":5262,"à½¦à½ª":5263,"à¾Łà¼įà¼ĭ":5264,"à¾¤à½±":5265,"à½łà½Ĳà½Ħ":5266,"à¼¡à¼¡à¼¡à¼¤":5267,"à½ĭà½¢":5268,"à¼©à¼¨à¼¦":5269,"à½īà½ĸà½¢":5270,"à½Ħà½¦à½Ĥ":5271,"à½£à½ĺà½ł":5272,"à¼§à¼©à¼¦":5273,"à½£à½¦à½¢à½Ħ":5274,"à¾·à¾Ńà½¾à¼ĭ":5275,"à¾¦à¾·à½¼":5276,"à¾ļà½²à¼į":5277,"à¼©à¼§à¼¢":5278,"Ġà½¨à½¢":5279,"à½ĺà½łà½Ľ":5280,"à½ºà¼ĭà½Īà¾±à½²":5281,"à½ıà½ĵà½ĺ":5282,"à¾¦à¾²à½¼à¼ĭ":5283,"à½ģà½ĺà½¦à½£":5284,"à¼§à¼£à¼¨":5285,"à½ĸà½¦à½ĺà½¦à½£":5286,"à¼§à¼¨à¼¡":5287,"136":5288,"Ġà½¨à½Ħ":5289,"à½łà½Ĥà½£à½ĸ":5290,"140":5291,"à¾¼à¼ĭ":5292,"à½ĵà½łà½ķà½Ĥà½¦":5293,"à½ĳà½Ķà½łà½Ħ":5294,"à½¦à½¦à½¦à½¦":5295,"Ġà½Ľà½ĺ":5296,"à½ĵà½Ľ":5297,"à½ĵà½Ļà½ĵ":5298,"à½¡à½ĳà½Ĥ":5299,"à¾¡à¾²à½²":5300,"à½Ļà½ĺà½¦":5301,"à½±à½²à¼ĭà¼į":5302,"à¼ĭà½Īà¾±à½²à¼ĭ":5303,"Ġà½ĳà½ĺà½ĵ":5304,"à½ĵà½£à½Ĥ":5305,"à¾¡à½²à¼į":5306,"à½Ĥà½Ħà½¤":5307,"à½Ĳà½ĺà½¦à½ħà½ĳà½ĺ":5308,"à¾·à¾±à½¾à¼ĭ":5309,"à½ĳà½Ħà½Ģ":5310,"à½ĳà½Ħà½ļ":5311,"à½ĸà½¤à½ĳà½¦":5312,"à½ĺà½Ľà½ĳà½¦":5313,"à¼¡à¼¢à¼¡à¼¡":5314,"à¼Ģà½ĳà½Ģà½¢":5315,"à¼©à¼§à¼¥":5316,"à½Ĥà½ĳà½Ģà½¢":5317,"à½£à½ĳà½Ķ":5318,"à½£à½ĸà½¦à½ĺ":5319,"à½łà½ĩà½ĵ":5320,"à½ĳà½łà½ĩ":5321,"à½łà½łà½ķ":5322,"à½ŀà½ŀ":5323,"à½£à½¦à½ĸà½¢":5324,"à¾©à½¾":5325,"à¼©à¼§à¼¨":5326,"à½Ķà½ĵà½Ħ":5327,"à½Ĥà½ŀà½Ĥà½ĳ":5328,"à¼§à¼¦à¼§":5329,"Ġà¼¢à¼¡à¼¡":5330,"à½¼à¼ĭà½¼à¼ĭ":5331,"à½Ħà½ĵà½Ķ":5332,"à½¤à½¢à½ĳ":5333,"à½©à½¡":5334,"à½ĳà½ĸà½ħà½¦":5335,"à½Ĳà½ĸà½¦à½¦":5336,"à½Ĩà½Ĥà½ĳ":5337,"à½ĳà½Ĥà½Ķà½¦":5338,"à½ĸà½ŀà½ĸà½¦":5339,"à¾Ķà¾·à½²à¼ĭ":5340,"à½ĺà½ļà½ĺà½¦à½ĺ":5341,"Ġà½¦à½ĳ":5342,"à¾ļà½¼à¼ĭ":5343,"à½«à½Ĥ":5344,"à½Ĥà½ĳà½Ģ":5345,"à½Ħà½Ļ":5346,"à½ºà½¾à¼į":5347,"à½ĳà½ĸà½Ħà½ĸ":5348,"Ġà¼¡à¼¢à¼¨":5349,"à¼¡à¼§à¼©à¼¢":5350,"143":5351,"144":5352,"à½Ħà½ĸà½ĳà½Ĥ":5353,"à½£à½ĸà½Ł":5354,"à½Ķà½¢à½ģ":5355,"à¾³à¾¡à½¼":5356,"à½ĸà½Ĥà½ĸ":5357,"à½ĳà½Ĥà½łà½£":5358,"à¼©à¼¡à¼¢":5359,"à½Ļà½ĺà½ŀ":5360,"à¼¨à¼¨à¼¨":5361,"Ġà½Ĥà½¡à½Ħ":5362,"à½Ħà½¢à½ĸ":5363,"à½Ģà½ĳà½Ħ":5364,"à½Ķà½¢à½Ķ":5365,"à½ĸà½¢à½ŀ":5366,"à¼¨à¼¢à¼¥":5367,"à¼©à¼©à¼£":5368,"à½ĵà½ĸà½Ģ":5369,"à½ĸà½¦à½ı":5370,"à½ĸà½Łà½Ĥ":5371,"à¼§à¼©à¼£":5372,"138":5373,"à½Ĥà½ĺà½Ľ":5374,"à½Ĥà½Ĥà½¡à½¦":5375,"à½Ħà½ĵà½Ħ":5376,"à½Ĩà½Ĳ":5377,"à½¥à½ı":5378,"à¼¡à¼©à¼¡à¼¦":5379,"à¼¡à¼¡à¼¤à¼§":5380,"à½£à½¦à½ī":5381,"Ġà¼¡à¼¢à¼©":5382,"à½Ĺà½ĺ":5383,"à½ºà¼´":5384,"à½Ķà½ĺà½Ľ":5385,"à½ĳà½Ħà½Ĥà½Ł":5386,"à½Ĥà½īà½ĺà½¦":5387,"à¾¤à¾±à¾Ģà¼ĭ":5388,"à¼©à¼©à¼¢":5389,"à½Ĥà½Ĥà½¦à½£":5390,"à½Ķà½¢à½ĸà½ŀà½Ĥ":5391,"à½¡à½Ħà½łà½ĳ":5392,"à½ħà½ĵà½ģ":5393,"à½¢à½ĸà½ĸ":5394,"à¾¤à¾²à¾Ģà¼ĭ":5395,"à½«à½Ĳ":5396,"à½£à½ĺà½Ľà½ĳ":5397,"à½ħà½ĳà½ĸà½¦":5398,"à½Ħà½Ĥà½¡":5399,"à½¨à½ĺà½¦":5400,"à½Ĳà½ĸà½¦à½£":5401,"à½ĺà½ĵà½Ĥà½¦":5402,"à¾²à½ºà¼ĭà½Īà½²":5403,"à½Ĥà½Ĥà½¤":5404,"à½ĸà½ĺà½ĵ":5405,"à½´à½²":5406,"à½ĸà½łà½Ĳ":5407,"à¼¡à¼¢à¼©à¼¢":5408,"à½Ĥà½ĺà½ĵ":5409,"à½Ħà½ĸà½Ł":5410,"à½ļà½ĳà½Ĥ":5411,"à½Ĥà½ĳà½ĵà½£":5412,"à¼¡à¼§à¼¥à¼§":5413,"à¼§à¼¨à¼¤":5414,"à½ĵà½Ĩà½Ĥà½¦":5415,"à½ĸà½ĳà½Ĥà½Ķ":5416,"Ġà¼¡à¼¢à¼£":5417,"à½Ĺà½Ĥà½ł":5418,"152":5419,"à½Ĥà½ĺà½Ĳà½ł":5420,"à½ĸà½ĸà½ħà½¦":5421,"à½¡à½İà½ł":5422,"à¾Ĵà½¾à¼ĭ":5423,"à¼§à¼©à¼¥":5424,"à½¢à½ĳà½ĸà½Ħ":5425,"à½¡à½Ķà½¦":5426,"à½Ħà½Ħà½ĺ":5427,"à¼¡à¼¡à¼¡à¼¥":5428,"à¾Ľà½ºà¼ĭ":5429,"à¼§à¼§à¼¦":5430,"147":5431,"à½ĳà½łà½ģ":5432,"à½ĺà½ĺà½Ĳà½ł":5433,"à½ĺà½ĺà½īà½ĺ":5434,"à½ĸà½¢à½¡à½Ħ":5435,"à½±à¾Ģà¼į":5436,"à½Ĥà½Ħà½ĸ":5437,"à½Ĳà½£à½ĸ":5438,"à¾»à½¾à¼ĭ":5439,"à¼§à¼¨à¼¦":5440,"à¾±à¾Ĺà½º":5441,"à½ĳà½Ħà½ĸà½¢":5442,"à½Ĵà½ĵà½¡":5443,"139":5444,"142":5445,"à½Ķà½Ģà½ł":5446,"à½Ģà½ĺà½£":5447,"à½ĺà½īà½¦":5448,"à½Ĥà½¢à½¦":5449,"Ġà¼¡à¼¢à¼¦":5450,"à½Ĺà½ļà½Ĳ":5451,"à¼¡à¼¡à¼¢à¼§":5452,"145":5453,"148":5454,"à½ĸà½ĸà½Ģà½ł":5455,"à½Ķà½ĸà½ł":5456,"à½Ķà½ĺà½ļà½ĵ":5457,"à½Ķà½¢à½¢à½ĸ":5458,"à¼§à¼¤à¼¦":5459,"à½ĸà½ĺà½Ĥ":5460,"à½ĸà½Ĳà½ĺà½¦à½ħà½ĳ":5461,"à½Ħà½Ĥà½Ł":5462,"à½¼à¼ĭà½¼à¼į":5463,"à½¡à½ĸà½¢":5464,"à½ļà½¡":5465,"à½¡à½Ħà½ł":5466,"à½Ĥà½ĳà½ĵà½¦":5467,"à¾·à½´à½¾à¼ĭ":5468,"à½ĺà½ĩà½ĺ":5469,"Ġà½¡à½£":5470,"à½Ĥà½łà½ĩà½ĺ":5471,"à½ĵà½ĸà½¤à½ĳ":5472,"à¾Łà¾Łà½²à¼ĭ":5473,"à½ĺà½¦à½ģ":5474,"à½ĳà½Ĥà½ĸà½¦":5475,"à½ĳà½Ĥà½Ĥà½ĳ":5476,"à½ĳà½Ķà½£à½¢":5477,"à¼¨à¼¢à¼¨":5478,"à¼¡à¼¢à¼¦à¼§":5479,"à¼¡à¼¡à¼¥à¼£":5480,"à½¢à½ĳà½ĺ":5481,"à½Ķà½£à½ĺ":5482,"à½ŀà½ĸà½¢":5483,"à½Ķà½¢à½Ĳà½¢":5484,"à¼¨à¼¡à¼¨":5485,"à¼¨à¼¢à¼§":5486,"à¼¡à¼©à¼¡à¼¥":5487,"à¼¡à¼¢à¼§à¼§":5488,"à½ĸà½¦à½ĳà½ĵà½ĺà½¦":5489,"à¼¡à¼¦à¼¡à¼¦":5490,"Ġà¼¢à¼¡à¼¢":5491,"146":5492,"à½ĺà½ĳà½ĸà½Ħ":5493,"à½ıà½ĵà½¦":5494,"à½łà½ĳà½łà½ĸà½¢":5495,"à¾¤à¾±à½º":5496,"à¼§à¼¨à¼£":5497,"à½ĺà½łà½ĩ":5498,"à½ĺà½ĺà½¢":5499,"à½ĸà½ŀà½Ħ":5500,"à¾Ķà½¼à¼ĭà¼į":5501,"à¼¨à¼¡à¼¤":5502,"à¼¨à¼¢à¼¦":5503,"à¼ļ":5504,"à½Ĥà½Ĥà½ĵ":5505,"à½Ĩà½ĳà½Ĥ":5506,"à½ĸà½¢à½ĸà½¢":5507,"à¾«à½¼à¼į":5508,"à¼¡à¼¡à¼©à¼¨":5509,"à¼¡à¼¤à¼¡à¼¡":5510,"à½¦à½Ĥà½ĳ":5511,"à½ĵà½Ĥà½¦à½Ħ":5512,"à½ĵà½Ŀ":5513,"à½ļà½ĳà½ĵ":5514,"à½ĺà½¢à½¦":5515,"à½ĳà½ĳà½ĵ":5516,"Ġà¼¡à¼£à¼¥":5517,"à¼¡à¼¢à¼¢à¼§":5518,"à¼¡à¼¢à¼£à¼¤":5519,"à¼¡à¼£à¼¦à¼¡":5520,"à½¦à½ĺà½¦à½ħà½ĵ":5521,"150":5522,"à¼¡à¼§à¼¢à¼¨":5523,"à¼¡à¼¢à¼¡à¼§":5524,"à¼¡à¼£à¼©à¼¡":5525,"à¼ĭà½Īà¾¦à¾·à½±à½²":5526,"151":5527,"à½ĸà½Ĥà½¤":5528,"à½łà½Ķà½ł":5529,"à½Ĩà½Ĥà½¦à½£":5530,"à½§à½Ģ":5531,"à½ĸà½¦à½ĺà½£":5532,"à½ĺà½īà½ĺà½ī":5533,"à¼¨à¼¦à¼¦":5534,"à¾±à½²à¼įà¼ĭà¼į":5535,"à¼¡à¼¡à¼¡à¼¨":5536,"à¼©à¼¨à¼©":5537,"Ġà½ĸà½ıà½ĸ":5538,"à¼ĭà¾Ł":5539,"à½ĺà½Ĥà½ĵà½¦":5540,"à½Ķà½¢à½ķ":5541,"à¼¡à¼§à¼¡à¼¨":5542,"à¼¡à¼£à¼¡à¼¡":5543,"à¼Ģà½ŀ":5544,"à¼¡à¼¡à¼¢à¼¨":5545,"à½ĸà½£à½Ĥ":5546,"à½ĵà½ļà½ĳ":5547,"à½Ħà½¤à½ĳ":5548,"à½Ģà½Ľ":5549,"à½ĺà½¦à½Ķà½¦":5550,"à¾±à½´à¼µ":5551,"à½Ĥà½ĵà½¦à½ŀ":5552,"à½Ħà½ĵà½ĳ":5553,"à¼©à¼¢à¼£":5554,"à¼¨à¼¡à¼©":5555,"Ġà¼¡à¼¡à¼§":5556,"Ġà¼¡à¼¢à¼¤":5557,"à¼¡à¼¢à¼¡à¼¦":5558,"à½²à¼ĭà½Īà½²à¼ĭ":5559,"Ġà½ķà½Ĭ":5560,"à¼ĭà¿":5561,"à½ĸà½ĳà½ĸà½Ħ":5562,"à½ĺà½Ĥà½ŀà½ĵ":5563,"à½łà½Ĥà½ħ":5564,"à½łà½Ĭ":5565,"à¼¡à¼¡à¼¨à¼©":5566,"à½Ĵà½İ":5567,"à¼©à¼§à¼£":5568,"149":5569,"à½¢à½Ĥà½Ł":5570,"à½ĺà½¥":5571,"à½Ķà½£à½Ĥà½¦":5572,"à½¡à½łà½ĺ":5573,"à½ļà½ĳà½ĺà½ł":5574,"à¾£à½¾à¼į":5575,"à¾³à½ºà¼į":5576,"à½Łà½Ĥà½Ķ":5577,"à¼¡à¼¡à¼¡à¼§":5578,"à¼Ģà½Ļà½İ":5579,"à½ĳà½ĳà½Ķà½£":5580,"à½ĸà½ļà½ĳ":5581,"à½¢à½Ħà½ĸ":5582,"à¼¡à¼¡à¼¦à¼¡":5583,"à¾µà¾±à¼ĭ":5584,"164":5585,"à½Ħà½Ħà½Ĥ":5586,"à½Ķà½¢à½ĳà½Ģà½ł":5587,"à½ĳà½ĺà½ĺ":5588,"à½ħà½ĵà½ĸ":5589,"à½ĳà½Ķà½łà½ŀ":5590,"155":5591,"156":5592,"158":5593,"à½ĵà½ĳà½Ķà½£":5594,"à½ĺà½ĺà½Ľ":5595,"à½ĺà½¦à½ħ":5596,"à½ıà½Ĩ":5597,"à½ĳà½Ĥà½ĸà½ł":5598,"à¼¡à¼¦à¼©à¼§":5599,"à¾ĳà½¾à¼ĭ":5600,"à½ĸà½ĸà½Łà½Ħ":5601,"à½²à¼ĭà¼ŀ":5602,"à½Ĥà½¦à½ĳà½ĺ":5603,"à½¼à¼ĭà½Ī":5604,"à½£à½¦à½Ķ":5605,"160":5606,"à½ĳà½ĸà½¦à½ĺ":5607,"à½¼à¾ĥà¼į":5608,"à½¢à½Ĥà½£":5609,"à½Ķà½ĸà½¦à½ĺ":5610,"à½Ĩà½ĵà½¦":5611,"à¼ĭà¼įà¼ĭà¼įà¼ĭ":5612,"à½Ľà½¤":5613,"à½ĳà½ĳà½Ķà½¦":5614,"à¼©à¼¡à¼§":5615,"à¼¡à¼¢à¼§à¼¦":5616,"à½ĳà½ħà½¦":5617,"à¼¡à¼¡à¼¢à¼¤":5618,"157":5619,"à½Ķà½¢à½łà½ļà½Ħ":5620,"à¾²à¼ĭà½³":5621,"à¼¡à¼¡à¼¥à¼¨":5622,"à¼¨à¼©à¼¡":5623,"Ġà½Ĩà½Ĥ":5624,"à½ĳà½Ĥà½Ĥà½¢":5625,"à¾·à¾ĥà¼ĭ":5626,"à¼¡à¼¡à¼¦à¼§":5627,"161":5628,"à½ĳà½ĵà½Ĥ":5629,"à½ĳà½ħà½Ĥ":5630,"à½Ĩà½Ĥà½ī":5631,"à½ĸà½¦à½ł":5632,"à½Ķà½¢à½ĸà½ŀ":5633,"à½łà½ĳà½Ģ":5634,"à½Ŀà½ĸ":5635,"à½Ĳà½ĺà½¦à½ħà½ĳà½ĵ":5636,"à½ĸà½Ħà½ĵ":5637,"à½£à½£à½ĵ":5638,"à½Ĩà½ĳà½Ķ":5639,"à½ıà½ĵà½Ĥ":5640,"à½łà½ĩà½ĸà½¦":5641,"à½ĸà½Łà½łà½ĸ":5642,"à½§à½¨":5643,"à½Ĥà½Ļà½ĸ":5644,"à¼¨à¼¢à¼¤":5645,"à½¤à½¦à½Ĩ":5646,"à¼¡à¼¡à¼¤à¼¡":5647,"à½ĸà½ĸà½ĸà½¦":5648,"à½łà½ĺà½Ĩ":5649,"à½łà½¥":5650,"à¼©à¼¡à¼£":5651,"à½łà½ļà½£à½ĵà½¦":5652,"à¼¡à¼¡à¼£à¼£":5653,"à½Ĵà½§":5654,"154":5655,"163":5656,"âĢļ":5657,"à½Ĥà½ĺà½ģà½ĵ":5658,"à½Ħà½ĸà½Ħ":5659,"à½Ķà½Ĥà½¦à½£":5660,"à½ĸà½¢à½ĸà½Ĥ":5661,"à½łà½Ħà½ĺ":5662,"à¼©à¼¢à¼©":5663,"à¼¡à¼¡à¼¥à¼©":5664,"à¾²à½±à½²à½¾":5665,"153":5666,"Ġà½Ĥà½īà½ł":5667,"à½Łà½ķ":5668,"à½Ķà½¦à½ĸà½¢":5669,"à¼¡à¼¡à¼©à¼£":5670,"à½²à¼ĭà½²à¼ĭà½²à¼ĭà½²à¼ĭ":5671,"à½ĵà½ĺà½ģà½¢":5672,"à¾±à¼µà½²":5673,"à½Ķà½Ĥà½ı":5674,"à½ĺà½¦à½ĺà½Ħ":5675,"à½£à½¦à½ĺà½Ħ":5676,"à½Ĥà½ħà½ł":5677,"à½Ļà½ĺà½£":5678,"à¼¨à¼¡à¼¦":5679,"à¼¨à¼¦à¼©":5680,"Ġà¼¡à¼¡à¼¨":5681,"à¼¡à¼¢à¼£à¼¥":5682,"à¼¡à¼¤à¼§à¼¤":5683,"à¼©à¼©à¼¤":5684,"166":5685,"à½Ĥà½łà½ł":5686,"à½Ĩà½Ĥà½Ĥ":5687,"à¾Ńà½±à½¾":5688,"à½¦à½Ķà½£":5689,"à½ĸà½Ĥà½¦à½£":5690,"à½ĸà½Ĥà½ĵ":5691,"à½ĺà½łà½ķ":5692,"à¼©à¼¥à¼©":5693,"à¼¡à¼¢à¼¢à¼¡":5694,"à½ĳà½ĸà½łà½Ĩ":5695,"à½ĳà½ĵà½ĵ":5696,"à½¡à½Ķà½ł":5697,"à½ĺà½Ľà½ĳà½ĸ":5698,"à¼©à¼¢à¼¢":5699,"à¼¨à¼¡à¼§":5700,"162":5701,"165":5702,"à½ĺà½Ĥà½Ł":5703,"à½£à½Ĳà½¢":5704,"à½¼à¼ĭà½²à¼ĭ":5705,"à½Ĩà½ļà½ĳ":5706,"à½ħà½Ĩ":5707,"à½ıà½§":5708,"à½ĳà½Ĥà½Ļ":5709,"à½Łà½ĳà½Ģ":5710,"à½ĸà½¦à½ĺà½ĸ":5711,"à½£à½Ĥà½ĺ":5712,"à¼¨à¼£à¼¦":5713,"Ġà¼¡à¼¥à¼¥":5714,"à¼¡à¼£à¼¡à¼¤":5715,"à¼£à¼¨à¼§à¼¡":5716,"à¼¡à¼¡à¼¢à¼¦":5717,"à½ĸà½Ĥà½Ļ":5718,"à½¡à½Ħà½¡à½Ħ":5719,"à¾·à½±à½¾à¼ĭ":5720,"à½ĵà½ĺà½£":5721,"à½Ĥà½ıà½ĵà½ĳà½Ħ":5722,"à½ıà½ĵà½£":5723,"à¼¡à¼¡à¼¤à¼¤":5724,"à¼©à¼©à¼¡":5725,"à½¦à½ĺà½ļà½ĺà½¦":5726,"à½ĳà½Ľ":5727,"à½ĸà½¥":5728,"à½ĺà½¤à½¢":5729,"à½£à½Ĥà½¤":5730,"à½ħà½Ħà½¦":5731,"à½Ĳà½Ĥà½ı":5732,"à½Ľà½£à½¦":5733,"à½¢à½ĸà½Ĩ":5734,"Ġà¼¡à¼£à¼¢":5735,"à¼¡à¼§à¼¥à¼¡":5736,"à¼¡à¼¡à¼§à¼©":5737,"159":5738,"à¾²à½±à½¾":5739,"Ġà½łà½ĩà½ł":5740,"à½Ħà½Ĥà½ı":5741,"à½¤à½ŀ":5742,"à¾³à¾±à½¼":5743,"Ġà¼¡à¼¢à¼§":5744,"à¼¡à¼£à¼¢à¼¢":5745,"à¼¡à¼£à¼¨à¼¥":5746,"à¾ªà½´":5747,"à¼©à¼§à¼¡":5748,"à¼¡à¼¡à¼§à¼¡":5749,"à½¼à¼ĭà½Īà¾±à½²":5750,"à½łà½Ĳà½ĵ":5751,"Ġà¼¡à¼£à¼£":5752,"à¼¡à¼¢à¼¦à¼¥":5753,"à¼¡à¼¢à¼¨à¼¨":5754,"Ġà½ļà½£":5755,"à½¦à½Ĥà½ĵ":5756,"à½ĵà½Į":5757,"à½Ħà½ĺà½ĩ":5758,"à½£à½łà½Ľ":5759,"à½£à½łà½ķà½Ĥà½¦":5760,"à½¼à¼ĭà¾İ":5761,"à½Ģà½ĳà½Ĥ":5762,"à¾Łà¾²à½º":5763,"à½Łà½Ĩ":5764,"à½ĸà½Ģà½łà½Ĥ":5765,"à¼§à¼¦à¼¦":5766,"Ġà½ģà½¢":5767,"Ġà½ĺà½Ħà½£":5768,"à½ĵà½ĺà½Ĳà½¢":5769,"à½Ħà½§":5770,"à½Ķà½Ĥà½ĳ":5771,"à½Ģà½Ŀ":5772,"à½Ĥà½ĵà½¦à½ĳ":5773,"à½£à½Ĥà½Ĥ":5774,"à½łà½Ĩà½ĳà½Ķà½¢":5775,"à¼¡à¼¡à¼¦à¼©":5776,"à¼¡à¼£à¼¥à¼¤":5777,"à½Ĳà½ĺà½ĺ":5778,"à½²à¼ĭà½¾":5779,"à½´à¼ĭà½²à¼ĭ":5780,"à½¡à½¥":5781,"à½ĸà½ŀà½Ĥà½Ķ":5782,"à¼¨à¼¡à¼£":5783,"Ġà¼¢à¼¡à¼¦":5784,"à¾·à¾²à½±à½´à¾ĥà¼į":5785,"à½£à½ĺà½Ľ":5786,"à½ºà¼ĭà½´":5787,"à½ĸà½¢à½ĳà½Ĥ":5788,"à½ĺà½ģà½Ĥ":5789,"à½ĸà½Ļà½¢":5790,"à½¥à½Ģ":5791,"172":5792,"à½ĸà½£à½ł":5793,"à½¡à½¦à½¦":5794,"à½¦à½ĺà½ĺ":5795,"Ġà½¦à½Ħ":5796,"à¼©à¼©à¼¥":5797,"à½Ĥà½Ķà½ĳ":5798,"à½ĸà½ĺà½ļà½ĵ":5799,"à½Ĥà½¦à½Ĥà½ī":5800,"à½Ķà½¢à½ħà½ĵ":5801,"à½Ŀà½Ķ":5802,"Ġà¼¡à¼¢à¼¥":5803,"Ġà¼¡à¼¥à¼¦":5804,"à¼¡à¼£à¼©à¼¢":5805,"Ġà½¡à½Ħà½¦":5806,"à¾±à½²à¼µ":5807,"à½ķà½Ĭà½ĳ":5808,"à¼¡à¼¢à¼¦à¼¨":5809,"Ġà½Ĥà½ĸ":5810,"à½Ķà½ĳà½ĸà½Ħ":5811,"à¾Ĵà½´à¼į":5812,"à½ĸà½ħà½Ŀ":5813,"à½Ļà½Ļ":5814,"à¼¨à¼¦à¼¡":5815,"à¼¡à¼£à¼¥à¼¦":5816,"à¼¡à¼£à¼¦à¼¨":5817,"à½Ĺà½«":5818,"à½¼à½¾à¼ĭà¼į":5819,"Ġà½ĸà½¦à½ĺà½¦":5820,"à½¢à½£à½Ĥ":5821,"à½¢à½£à½Ĥà½¦":5822,"à½ĵà½łà½ķ":5823,"à½Ĥà½¦à½ĺà½Ħ":5824,"à½ħà½ĵà½Ģ":5825,"à½£à½ĺà½ĳà½Ħ":5826,"à¼©à¼¦à¼¥":5827,"à¼¨à¼¦à¼§":5828,"169":5829,"à½±à¾Ģà½¾à¼ĭ":5830,"à½¦à½Ĥà½¦à½£":5831,"à½¢à½Ŀ":5832,"à½Ħà½ĺà½ĳ":5833,"à½ĳà½ĺà½Ķà½¢":5834,"à½ĺà½ĵà½Ħà½¦":5835,"à¾ľà¾»":5836,"à¼¡à¼§à¼¦à¼¢":5837,"à¼¡à¼¤à¼£à¼©":5838,"à¼Ģà½ĳà½Ħ":5839,"168":5840,"Ġà¼¢à¼¢à¼¢":5841,"à½Ĥà½Ĩà½ĳ":5842,"à½Ħà½ĵà½łà½ĳà½¦":5843,"à¼¡à¼§à¼¢à¼¡":5844,"à¼¡à¼¡à¼¢à¼¢":5845,"à½Ķà½ĺà½ģ":5846,"à¾²à¾±à½º":5847,"à½īà½ĵà½¦":5848,"à½Łà½ŀ":5849,"à½Ķà½¦à½ĳà½Ĥ":5850,"à½ĸà½ĳà½Ĥp":5851,"à¼©à¼¡à¼¨":5852,"à½Ĳà½£à½ģ":5853,"à¼¨à¼£à¼£":5854,"à¼¡à¼¢à¼¤à¼¤":5855,"à½¦à½Ķà½ĳ":5856,"à½²à½º":5857,"à½£à½łà½ķ":5858,"à½ķà½Ķ":5859,"à¼©à¼¢à¼§":5860,"à¾¨à¾²à¼ĭà¼į":5861,"à½ĵà½ĺà½¦à½ĺ":5862,"à¼¡à¼¢à¼¢à¼¥":5863,"à¼¡à¼¢à¼¦à¼¤":5864,"à¼ĭà½Īà¾·à½²":5865,"à¼¨à¼¨à¼¡":5866,"170":5867,"à½¦à½ĳà½ĳ":5868,"à½ŀà½ĺà½¦":5869,"à½ħà½ħà½ĳ":5870,"à½ķà½Ľ":5871,"à½ĸà½ĳà½Ĥà½ĳà½Ħ":5872,"à½ĺà½Ľà½ĳà½¢":5873,"à¼¡à¼¤à¼¡à¼£":5874,"à½ĳà½ĺà½Ĳà½ł":5875,"à¾Łà¼µ":5876,"à½Ĳà½Ķà½¦":5877,"à½ĸà½ŀà½ŀ":5878,"à½ĸà½ŀà½Ĥà½Ĥ":5879,"à¼©à¼¦à¼¡":5880,"à¼¨à¼¢à¼©":5881,"à¾Ļà½´à½±à¼ĭ":5882,"à¼©à¼©à¼¨":5883,"à½¦à½łà½ķ":5884,"à½¦à½Ħà½ĵ":5885,"à½Ķà½ĺà½¦":5886,"à¼¨à¼¨à¼¢":5887,"à½²à½¼":5888,"à½Ĳà½ı":5889,"à¾¨à¾¼à¾»":5890,"à½Ľà½ģ":5891,"à½ĺà½Ĳà½łà½ĳà½Ħ":5892,"à¼¨à¼£à¼¡":5893,"à¼¡à¼£à¼¦à¼£":5894,"à¼¡à¼£à¼§à¼£":5895,"à¼¡à¼¤à¼¡à¼¨":5896,"à¾ªà½±à¼į":5897,"à½ĳà½ĵà½Ħ":5898,"à½Ķà½ħà½¦":5899,"à½ģà½Ħà½Ĥ":5900,"à¼¡à¼¡à¼£à¼¡":5901,"à¼¡à¼¡à¼¥à¼¡":5902,"à½¦à½ĵà½ĵ":5903,"à½¦à½Ģà½ł":5904,"à½¢à½ĸà½Ł":5905,"à½Ĩà½¤à½¦":5906,"à½łà½ĸà½ħ":5907,"à½ħà½ĵà½Ĥà½Ħ":5908,"Ġà¼¡à¼¥à¼¨":5909,"à¼¡à¼¢à¼¤à¼§":5910,"à¼¡à¼¡à¼¦à¼¢":5911,"à¼¡à¼£à¼¡à¼¢":5912,"167":5913,"Ġà½Ķà½łà½ĺ":5914,"à½²à¼ĭà½¼à¼ĭà½ºà¼ĭ":5915,"à½Ķà½ĸà½¤à½ĳ":5916,"à½ºà¼ĭà½²à¼ĭ":5917,"à½ļà½łà½ĳ":5918,"à½Ķà½¦à½ĳà½Ħ":5919,"à½Ĥà½ŀà½ĵà½£à½¦":5920,"à¼¡à¼§à¼¢à¼©":5921,"à½±à½´à½¾à¼įà¼ĭ":5922,"à¼¡à¼¡à¼©à¼¢":5923,"Ġà½łà½Ĥà½Ĥ":5924,"à¾®":5925,"à½¦à½Ĥà½ı":5926,"à½Ĥà½¦à½Ģà½ł":5927,"à½¤à½łà½Ħ":5928,"à½Ħà½¦à½¡":5929,"à½łà½Ŀ":5930,"à½ĸà½Łà½Ħà½ĺ":5931,"à½Ķà½ĳà½¦":5932,"à¼¡à¼¡à¼¢à¼©":5933,"à½Ĥà½¦à½Ł":5934,"à½ĳà½Ħà½ĳà½Ĥ":5935,"à½¤à½¡":5936,"à½ĸà½ŀà½Ĥà½ĵ":5937,"à½ĩà½ĳ":5938,"à½ĸà½ħà½¦à½£":5939,"à½łà½ļà½ł":5940,"à¼§à¼¥à¼£":5941,"à¼¨à¼¥à¼©":5942,"à¼¨à¼¤à¼©":5943,"à¼¨à¼¦à¼¥":5944,"à¾µà½´à¼į":5945,"à¼¡à¼¤à¼¤à¼¦":5946,"à½ĸà½¦à½ī":5947,"à½Ĥà½Ħà½Ĥà½¦":5948,"à¾Ĳà½´à¼įà¼ĭ":5949,"à¼©à¼¢à¼¥":5950,"à¼©à¼¥à¼¨":5951,"à¼¡à¼¢à¼¥à¼¢":5952,"à½©à½İ":5953,"à½Ķà½ĺà½īà½ĺ":5954,"à½ŀà½ī":5955,"à½ĸà½¦à½ķ":5956,"à½ĳà½Ħà½Ĥà½ī":5957,"à½¤à½Ĩ":5958,"à½ĸà½łà½¢":5959,"à½ĸà½ħà½ĳà½ĳ":5960,"à¼¨à¼£à¼§":5961,"à¾²à½ºà¼ĭà¼į":5962,"à¼¡à¼¢à¼£à¼©":5963,"à½¢à½ĺà½Ľà½ĳ":5964,"à¾Ļà¾Ģ":5965,"à½ĸà½ĳà½Ĥà½ĳ":5966,"à½ĸà½Ĥà½ł":5967,"à¼©à¼¢à¼¡":5968,"à¼¡à¼§à¼¡à¼¤":5969,"Ġà½Ĥà½ŀà½Ĥ":5970,"à½łà½łà½Ľ":5971,"à½Ķà½¢à½Ĳ":5972,"à½Ħà½¦à½ħà½ĵ":5973,"à½ĺà½Ĳà½ĵ":5974,"à½ĺà½¢à½Ĥ":5975,"à¾Ľà¼ĭà¼į":5976,"à½ĳà½ĳà½Ķà½Ĥ":5977,"à½Ĥà½ĺà½ģà½¦":5978,"à½£à½¦à½¨":5979,"à¼©à¼¦à¼¢":5980,"à¾Ľà½¾à¼ĭ":5981,"182":5982,"Ġà½ĸà½¦à½Ĥà½¦":5983,"à½¢à½ĸà½ħà½¦":5984,"à½ĳà½Ĥà½łà½ģ":5985,"à½Ĥà½īà½ĺ":5986,"à¼©à¼¡à¼¥":5987,"à¼¡à¼¡à¼¤à¼¦":5988,"à½ħà½ĳà½ĺà½īà½ĺ":5989,"à¾µà¾¨à½±à½²à¼ĭ":5990,"à½¦à½Ķà½ĵ":5991,"à½²à½ºà¼ĭ":5992,"à½ĳà½ĳà½Ģà½ł":5993,"à½Ħà½£à½ĺ":5994,"à½£à½Ļà½ĵ":5995,"à½ĳà½Ķà½£à½Ĥ":5996,"à¼¡à¼¡à¼¤à¼£":5997,"à¼¡à¼¡à¼¨à¼§":5998,"Ġà½łà½Ĩà½Ħ":5999,"à½¦à½ļà½ĳ":6000,"à½Ĩà½ķ":6001,"à½Łà½ĳà½Ħ":6002,"à½ĸà½ŀà½Ĥà½ħ":6003,"à¾¨à½¾à¼ĭ":6004,"à½¨à½ĵà½ĵ":6005,"à½ħà½ĳà½Ĩ":6006,"à½§à½¡":6007,"à½ĺà½Ĳà½łà½£à½¦":6008,"à½İà½Ģ":6009,"à½¡à½¦à½ĺ":6010,"Ġà¼¡à¼¤à¼¤":6011,"à¼¡à¼¡à¼¡à¼©":6012,"à¼¡à¼¤à¼¢à¼©":6013,"à¼ĭà½Īà¾²à½ºà¼ĭ":6014,"à¾Ľà½¾":6015,"à¼¡à¼¡à¼§à¼§":6016,"Ġà½ĸà½ĸà½¦":6017,"à½Ħà½ĳà½ĸ":6018,"à½Ļà½Ĥà½¦":6019,"à½Ķà½ĳà½¢":6020,"à¼©à¼¤à¼©":6021,"à¼¡à¼£à¼§à¼¥":6022,"à¼¡à¼¥à¼¡à¼¦":6023,"à¼¡à¼¨à¼©à¼©":6024,"189":6025,"à½ĺà½Ļà½ĺ":6026,"à½ŀà½ĵà½¦":6027,"à¾²à½ºà½ºà¼ĭ":6028,"à½§à½ŀ":6029,"à½ĺà½Ľà½ĳà½ħ":6030,"à½łà½ĸà½¢à½ĸà½ł":6031,"à¼¡à¼¢à¼¡à¼¥":6032,"à¼¡à¼¢à¼¨à¼¤":6033,"à¾¦à¾²à½¾à¼ĭ":6034,"à¼¡à¼¤à¼§à¼¨":6035,"à¼¡à¼¨à¼©à¼¥":6036,"198":6037,"½¬":6038,"à½¬":6039,"à½ĸà½ĺà½Ľ":6040,"à½ĺà½ĳà½Ķà½£":6041,"à½£à½ĳà½Ĥà½ł":6042,"à½ĳà½Ģà½łà½Ĳ":6043,"à½¡à½ĵà½Ĩà½ĳ":6044,"Ġà½ĸà½Ħ":6045,"à¼¡à¼¢à¼¡à¼¤":6046,"à¼¡à¼¡à¼¡à¼¦":6047,"à¼¡à¼¤à¼§à¼¦":6048,"171":6049,"à½ģà½Łà½¦":6050,"à¼©à¼¦à¼¨":6051,"à½łà½ĳà½ĸà½Ħ":6052,"Ġà¼¡à¼£à¼©":6053,"à¼¡à¼¢à¼¤à¼¡":6054,"à¼¡à¼¢à¼§à¼¥":6055,"178":6056,"Ġà½£à½łà½Ħ":6057,"à½ĵà½Ĥà½ĵ":6058,"à½£à½¢à½Ĥ":6059,"à½Ŀà½ŀ":6060,"à½¦à½ĺà½ĸ":6061,"Ġà¼¡à¼¥à¼§":6062,"Ġà¼¡à¼§à¼§":6063,"à½ªà½ĺ":6064,"173":6065,"176":6066,"185":6067,"à½Ħà½Ĥà½¦à½£":6068,"à½£à½Ķà½ĳ":6069,"à¾²à¾¡à½¼":6070,"à¾±à½²à¼ĭà½Īà½¼":6071,"à¼¨à¼¤à¼¤":6072,"Ġà¼¡à¼£à¼¤":6073,"à¼¡à¼¢à¼¢à¼©":6074,"à¼¡à¼¤à¼¡à¼§":6075,"175":6076,"179":6077,"à¾±à¾¡à½¼":6078,"à½ħà½ĸà½¦":6079,"à½¡à½Ħà½Ĩ":6080,"à½Ĳà½£à½¢":6081,"à¼¡à¼§à¼¢à¼£":6082,"à¼¡à¼¢à¼¢à¼£":6083,"à¼¡à¼¡à¼¤à¼¨":6084,"à½ĵà½¦à½¡à½Ħ":6085,"à¾±à½ºà¼įà¼ĭ":6086,"à½łà½§":6087,"à¼¡à¼¢à¼¨à¼¡":6088,"à¼¡à¼£à¼¢à¼¦":6089,"à¼¡à¼¤à¼£à¼¤":6090,"197":6091,"à½ĸà½£à½ĵ":6092,"à½Ĩà½ĳà½ĳ":6093,"à½ĺà½ļà½ĵà½ĳ":6094,"à¼¨à¼¤à¼¦":6095,"à¼¨à¼¤à¼£":6096,"à¼¨à¼¥à¼¡":6097,"à½Įà½ĸ":6098,"à¼¡à¼¢à¼©à¼¤":6099,"à½Ĳà½ĵà½Ł":6100,"à¼¡à¼¡à¼©à¼§":6101,"à½¦à½īà½ĺà½¦":6102,"à½¢à½łà½Ħ":6103,"à½ĺà½Ĥà½ĵ":6104,"à½ĸà½¢à½¡":6105,"à½Ķà½¦à½łà½Ĥ":6106,"à¾¨à½±à½²à¼ĭ":6107,"à¾¦à¾±à½º":6108,"à½ĳà½Ģà½£":6109,"à¼©à¼§à¼§":6110,"Ġà¼¡à¼£à¼¦":6111,"188":6112,"à¼ĭà¾Ĺà½¼":6113,"à½¦à½ĳà½Ģ":6114,"à½¦à½ıà½ĵ":6115,"à½ķà½ŀ":6116,"à½ĵà½¦à½ĳà½Ħ":6117,"à½¢à½Ħà½Ħ":6118,"à½ĳà½Ķà½łà½ļ":6119,"à½ĳà½ĳà½ĳà½ĳ":6120,"à½łà½ķà½Ĥà½¦à½ĺ":6121,"à¼¨à¼£à¼¢":6122,"à¼¨à¼¦à¼£":6123,"à¼¡à¼§à¼£à¼§":6124,"à¼¡à¼£à¼£à¼©":6125,"à¼¡à¼¤à¼§à¼¥":6126,"180":6127,"200":6128,"à½ĳà½Ĥà½Ĳ":6129,"à½ĸà½¤à½ĳà½¢":6130,"à½ĸà½ıà½Ķ":6131,"à½İà½ĳ":6132,"à½ĸà½ŀà½Ĥà½Ĥà½Ħ":6133,"à¼¡à¼¢à¼©à¼¥":6134,"à¼¡à¼£à¼¤à¼¡":6135,"à¼¡à¼¦à¼§à¼©":6136,"à¼©à¼§à¼¦":6137,"à¼¡à¼¡à¼¢à¼¥":6138,"186":6139,"à½¦à½£à½ĵ":6140,"à¾±à½²à¼µà¼ĭ":6141,"à½ĺà½Ľà½ĳà½£":6142,"à½Ĥà½¦à½£à½ĸà½ł":6143,"à½ĺà½īà½ĺà½Ķà½ł":6144,"à¼¡à¼¤à¼£à¼£":6145,"à½Ĳà½ĺà½¦à½ħà½ĳà½ĳ":6146,"à½²à¼ĭà½´à¼ĭ":6147,"à½£à½ĸà½Ĥ":6148,"à½ĳà½Ĥà½ķ":6149,"à½£à½¦à½ĩ":6150,"à¾·à¾£à¼ĭ":6151,"à½ĳà½ĺà½īà½ĺ":6152,"à½Ľp":6153,"à¼¡à¼¡à¼¤à¼¥":6154,"195":6155,"à½¦à½ĳà½Ķà½£":6156,"à½Ĥà½ĸà½Ĥ":6157,"à½²à¼ĭà¼Ŀà¼į":6158,"à½Ķà½ĺà½Ĥ":6159,"à½¡à½ĺà½ļà½ĵ":6160,"à¾¤à¾²à½²à¼į":6161,"à¼¡à¼¢à¼¡à¼©":6162,"à¼¡à¼¤à¼¤à¼¤":6163,"à¼¡à¼¦à¼¤à¼¥":6164,"à¼¡à¼¡à¼§à¼¢":6165,"à¼¡à¼¡à¼©à¼¤":6166,"177":6167,"193":6168,"à¼ĭà¾ĵà½¾à¼ĭ":6169,"à½Ħà½ħà½ĵ":6170,"à½ĸà½¦à½ĺà½Ħ":6171,"à½Ĥà½ŀà½Ĥà½¢":6172,"Ġà¼¡à¼¥à¼¤":6173,"à¼¡à¼¢à¼§à¼©":6174,"à¼¡à¼¡à¼£à¼¦":6175,"à¼¡à¼¦à¼¦à¼¢":6176,"à¼Ģà½Ļ":6177,"à½ĭà½ī":6178,"à¼©à¼¨à¼¢":6179,"à½ĳà½łà½ķ":6180,"à½Ĩà½Ĥà½ħ":6181,"à½ĵà½¦à½¦à½Ħà½¦":6182,"à¾Ĵà¾±à½´à½´à¼ĭ":6183,"à½ĺà½Ľà½ĳà½ĺ":6184,"à½ĺà½ļà½ĵà½ĺà½¢":6185,"à¼©à¼¥à¼¥":6186,"à¼¡à¼¢à¼§à¼¢":6187,"à¼¡à¼¤à¼¤à¼¥":6188,"à½Ĺà½ł":6189,"à¼¨à¼©à¼¢":6190,"174":6191,"à½¦à½Ģà½¢":6192,"à½ĵà½ĸà½Ł":6193,"à½ĺà½ĸà½¤à½ĳ":6194,"à¾¦à¾²à¼į":6195,"à¼¨à¼§à¼§":6196,"à½¦à½ĺà½£":6197,"à¼¡à¼¦à¼¥à¼¢":6198,"à¾ªà½´à¼ĭ":6199,"187":6200,"190":6201,"à½¢à½ĵà½Ħ":6202,"à½ĵà½Ĥà½Ļ":6203,"à½łà½ĵà½¦":6204,"à½Ĥà½¦à½¦à½ĺ":6205,"à½¨à½ĵà½ł":6206,"à½Ŀà½£à½¦":6207,"à¼¡à¼£à¼¦à¼§":6208,"Ġà½īà½£":6209,"à½¦à½Ĥà½¡":6210,"à½ĳà½Ļà½ĵ":6211,"à½Ĥà½ĸà½Ł":6212,"à½ĸà½Ĳà½Ħ":6213,"à½¢à½Ĳà½ĺà½¦":6214,"à½¢à½Ģà½ł":6215,"à½£à½ĸà½¤à½ĳ":6216,"à½ĵà½ĳà½¢":6217,"Ġà¼¡à¼§à¼¡":6218,"à¼¡à¼§à¼©à¼£":6219,"à¼¡à¼¡à¼¨à¼¨":6220,"à½ĸà½Į":6221,"à½Ħà½ĳà½ĺ":6222,"à½Ĥà½¦à½ĺà½Ĳ":6223,"à½Ĥà½¦à½Ĥà½Ħ":6224,"à¾Łà½±à½²":6225,"à½Ĩà½łà½ĳ":6226,"à½Ĩà½ĳà½Ģ":6227,"à½ĳà½Ħà½ĳà½Ħ":6228,"à½ģà½¨":6229,"à½Ķà½¢à½ĺà½Ħ":6230,"à¼¨à¼¥à¼¥":6231,"Ġà¼¡à¼©à¼¢":6232,"à¼¡à¼¡à¼£à¼¤":6233,"à½©à½§":6234,"à½ĸà½ĸà½ĸà½ĸà½ĸà½ĸ":6235,"Ġà½Ģà½ł":6236,"Ġà½ĸà½¦à½£":6237,"Ġà½ĺà½ģà½£":6238,"à½²à¼´à¼į":6239,"à½¢à½ĺà½Ĥ":6240,"à½ħà½ĳà½Ķ":6241,"à½ĳà½ĸà½Ģà½ł":6242,"à¾±à½ºà¼ĭà½Īà½²":6243,"à½łà½ļà½Ĥà½¦":6244,"à½ĺà½Ĳà½¢à½Ĳ":6245,"à½Ĵà½Ģ":6246,"184":6247,"à½Ĥà½¦à½Ĳà½ĺà½¦":6248,"à½ıà½ļ":6249,"à½Ħà½¦à½ģ":6250,"à½Ļà½Ĭ":6251,"à½ĺà½Ĩà½ĺà½¦":6252,"à¼¡à¼§à¼©à¼¡":6253,"à¼¡à¼¢à¼¢à¼¢":6254,"à¼¡à¼£à¼¤à¼¢":6255,"à¼ĭà½ºà¼ĭà½ºà¼ĭ":6256,"à½ĸà½ĸà½£":6257,"à½Ķà½ĸà½Ł":6258,"à½¡à½ĳà½¦":6259,"à½¤à½ĳà½Ħ":6260,"à½łà½ĳà½łà½ĸ":6261,"à¾²à½´à½¾à¼į":6262,"à½łà½Ĥà½ŀ":6263,"à¼¡à¼§à¼¨à¼¥":6264,"à¼¡à¼¢à¼¨à¼¥":6265,"à¼¡à¼¡à¼¤à¼©":6266,"à¼¡à¼¤à¼£à¼¥":6267,"à¼¡à¼¤à¼£à¼¨":6268,"à¼¡à¼¦à¼©à¼¦":6269,"à¼ĭà¾¢à¼ĭ":6270,"181":6271,"191":6272,"à½Ĥà½Ĥà½ĺ":6273,"à½ĸà½ĵà½Ĥ":6274,"à½ĵà½£à½ĵ":6275,"à½ĵà½ĸà½£":6276,"à½ĺà½ĺà½ł":6277,"à½Ķà½ĳà½Ģ":6278,"à½Ĥà½¦à½ĺà½Ĩ":6279,"à½īà½ŀ":6280,"à½Łà½ĳà½Ķà½ł":6281,"à½¨à½ħ":6282,"à¼©à¼¥à¼¢":6283,"à½£à½Ĥà½¦à½¢":6284,"à¼¡à¼¢à¼¥à¼¥":6285,"à¼¡à¼¢à¼¦à¼£":6286,"à½Ĵà½Ĥà½£":6287,"194":6288,"à½ĺà½ĳà½Ģ":6289,"à½Ķà½ĵà½ĳ":6290,"à½ĳà½Ħà½¢à½Ħ":6291,"à½ħà½Ģ":6292,"à½£à½¦à½ĳà½Ĥ":6293,"à½ĺà½ļà½¦":6294,"à½Ĥà½ŀà½ĵà½Ķ":6295,"à½£à½ĺà½ĵà½¦":6296,"à½ĸà½ıà½ĺ":6297,"à¼©à¼£à¼§":6298,"Ġà¼¡à¼¦à¼¤":6299,"à¼¡à¼¡à¼£à¼¢":6300,"à¼ĭà¼¹à½¼à¼į":6301,"à½¦à½ĵà½ł":6302,"à½£à½Ļà½ĺ":6303,"à½£à½Ĥà½Ļ":6304,"à½Ķà½¢à½Ĩ":6305,"à½ħà½ĳà½ŀ":6306,"à¼¨à¼£à¼¥":6307,"à¼¨à¼¦à¼¨":6308,"à¼¡à¼¢à¼§à¼¡":6309,"à¼¡à¼£à¼¥à¼¡":6310,"à¼¡à¼¨à¼¥à¼¥":6311,"à½Ĵà½Ĳ":6312,"183":6313,"205":6314,"à½ĸà½¦à½Ĳ":6315,"à½ĸà½¦à½Ķà½¦":6316,"à½ĸà½¦à½ĺà½Ĳ":6317,"à½ļà½¤":6318,"à½ıà½Ĭ":6319,"à½Ĥà½ĵà½Ĥà½¦":6320,"à¼©à¼£à¼£":6321,"à¼©à¼¥à¼§":6322,"à¼¡à¼¡à¼£à¼©":6323,"à¼¡à¼¤à¼¤à¼©":6324,"à¾²à¾Ģà½¾à¼ĭ":6325,"à½ĵà½ĺà½ĺà½ģà½łà½£":6326,"à¼¡à¼¡à¼§à¼¤":6327,"216":6328,"Ġà½łà½ĺ":6329,"à½ĳà½ĺà½ģ":6330,"à½ĺà½Ľà½ĳà½ĵ":6331,"à¼¨à¼¦à¼¤":6332,"à½Ĭà½Ĭ":6333,"à½ĳà½Ģà½łà½ĸà½ł":6334,"à¼¡à¼¥à¼¢à¼§":6335,"à¾·à¾±à½±à½¾à¼ĭ":6336,"à¼©à¼¨à¼¥":6337,"à½Ķà½Ĥà½¡à½¦":6338,"à¾Łà¾²à¾Ģà¼ĭ":6339,"à½ģà½ĳà½Ħ":6340,"à½ĸà½¢à½ļ":6341,"à½ĵà½¦à½łà½Ĥ":6342,"à½¢à½Ħà½ĵ":6343,"à½ĺà½ģà½łà½ģ":6344,"à½ĺà½Ĳà½łà½ĵ":6345,"à½ĺà½¢à½ĳ":6346,"à½ĺà½ģà½ĵà½Ķ":6347,"à½¡à½ĸà½ĵ":6348,"à½ĵà½łà½¦":6349,"à¼¡à¼¡à¼¨à¼¡":6350,"à¼¡à¼¨à¼©à¼£":6351,"à½¢à½Ĥà½ĳ":6352,"à½£à½īà½ĺà½¦":6353,"à½Ĩà½ĸà½ł":6354,"à½ĺà½¦à½łà½ĳ":6355,"à½īà½ī":6356,"à½ĺà½Ľà½£":6357,"à¼¡à¼¡à¼©à¼©":6358,"à¼©à¼¡à¼¤":6359,"à¼¡à¼¤à¼¦à¼©":6360,"à¼¡à¼¤à¼§à¼£":6361,"à¼¡à¼¥à¼¡à¼¥":6362,"à¼¨à¼¨à¼¥":6363,"à½¼à½²":6364,"à½Ķà½Łà½Ħ":6365,"à½Ĥà½¦à½ħ":6366,"à½ĸà½¦à½ĸà½¦à½ĺ":6367,"à½ĳà½Ħà½¡à½Ħ":6368,"à½ģà½Ľ":6369,"à½ıà½łà½Ħ":6370,"à¾Ĳà¾¡à½¼":6371,"à½ĺà½Ĩà½Ħ":6372,"à½łà½ĳà½¦à½ĵà½¦":6373,"à¼©à¼¤à¼§":6374,"à¾µà½²à¼į":6375,"à¼¡à¼£à¼£à¼£":6376,"à¼¡à¼£à¼©à¼¦":6377,"à¼¡à¼¨à¼¨à¼¨":6378,"à¼¡à¼¦à¼¥à¼£":6379,"à½ĵà½ĸà½Ģà½ł":6380,"à½Ķà½łà½ĺà½¦":6381,"à½ģà½ĵà½ĺ":6382,"à½ıà½ķ":6383,"à½Ĳà½ĺà½¦à½ĳ":6384,"à¼©à¼¡à¼©":6385,"à¼¡à¼§à¼¡à¼¡":6386,"à¼¡à¼¢à¼¤à¼¢":6387,"à¼¡à¼¢à¼©à¼©":6388,"à¼¡à¼¢à¼¨à¼¦":6389,"à¼¡à¼¤à¼¢à¼§":6390,"192":6391,"à½¦à½Ĥà½Ļ":6392,"à½ĺà½ĳà½Ģà½¢":6393,"à½Ķà½ĺà½ĵ":6394,"à¾²à½±à½´à¾ĥà¼ĭ":6395,"à½ģà½Ĳ":6396,"à½Ķà½¢à½ĸà½£":6397,"à½ĵà½¦à½łà½ĩ":6398,"à½¡à½Ħà½ĸà½¦":6399,"à½ĺà½ļà½ĸ":6400,"à½Ľà½ī":6401,"à½Ĩà½Ĥà½¦à½Ģ":6402,"à½Ħà½Ĥà½ĸ":6403,"à¾ľà½¾à¼ĭ":6404,"à¼¡à¼¢à¼©à¼¡":6405,"à¼¡à¼£à¼¨à¼¨":6406,"à¼¡à¼£à¼§à¼¤":6407,"à½¦à½Ĥà½¥":6408,"à½²à¼ĭà½Īà¾±à½º":6409,"à½¦à½ĺà½Ĳà½¢":6410,"à½Ĥà½ģà½ĺà½¦":6411,"à½ıà½Ľ":6412,"à¾³à½¼à½¼":6413,"à½Ħà½ĵà½£":6414,"à¼¨à¼¥à¼¦":6415,"Ġà¼¡à¼¤à¼¢":6416,"196":6417,"à½łà½ĺà½Ħ":6418,"à½Ĥà½¦à½ĸà½ŀ":6419,"à½ĵà½¦à½ı":6420,"à¾©à¾Ńà½¼à¼ĭ":6421,"à¾¦à¾±à¾Ģ":6422,"à½ĺà½ļà½ĺà½¦à½¦":6423,"à½¥à½Į":6424,"Ġà½Ķà½ĵ":6425,"à¼¡à¼¥à¼¦à¼¦":6426,"à¼¡à¼¥à¼§à¼¥":6427,"à½ĺà½īà½ĵà½ĵà½¦":6428,"Ġà½¤à½Ħà½¦":6429,"à¼©à¼¨à¼¨":6430,"à¼¨à¼¨à¼¦":6431,"199":6432,"201":6433,"203":6434,"207":6435,"Ġà½Ĳà½ĸ":6436,"à½¡à½¦à½¢":6437,"à½ģà½ĸà½¢":6438,"à½Łà½ĸà½ł":6439,"à½Ķà½¦à½łà½ģ":6440,"à½ĸà½ħà½łà½ĸ":6441,"à¾Ķà¾·":6442,"à½Łà½ĳà½¦":6443,"à½ĵà½Ĥà½Ķ":6444,"Ġà¼¡à¼¥à¼©":6445,"à¼¡à¼¢à¼¤à¼¦":6446,"à¼¡à¼£à¼¨à¼¦":6447,"à¼¡à¼¤à¼¤à¼¡":6448,"à¼¡à¼¦à¼¨à¼£":6449,"à¾®à½²":6450,"à½¦à½īà½ĵ":6451,"à½ĵà½ģà½ĺà½¦":6452,"à½£à½ĸà½ĸ":6453,"à½Ķà½łà½ķà½Ĥà½¦":6454,"à¾±à½´à½´":6455,"à¾¦à¾¡à½¼":6456,"à½Ľà½¦à½¢":6457,"à½Ħà½ĵà½ĵ":6458,"à¼©à¼¦à¼£":6459,"à¼¡à¼¢à¼¦à¼¡":6460,"à¼¡à¼£à¼§à¼¡":6461,"à¼¡à¼£à¼¨à¼©":6462,"Ġà½ĺà½§":6463,"à½Ħà½ĺà½Ĥ":6464,"à½ħà½ŀ":6465,"à½ĸà½Ģà½ĺ":6466,"à½Ĥà½¦à½£à½Ĥ":6467,"à¼¨à¼¤à¼§":6468,"à¼¡à¼§à¼¢à¼¤":6469,"à¼¡à¼¢à¼¨à¼©":6470,"à¼¡à¼¡à¼¥à¼¤":6471,"à¼¡à¼£à¼¤à¼§":6472,"à¼¡à¼¤à¼¢à¼¡":6473,"à¼¡à¼¤à¼¢à¼¨":6474,"à¼©à¼¨à¼¡":6475,"Ġà½Ħà½¢":6476,"à½¡à½Ķà½¢":6477,"à½Ķà½¢à½Ĥà½Ł":6478,"à½Ķà½ĳà½ł":6479,"à½Ĥà½¢à½Ĥ":6480,"Ġà¼¡à¼¦à¼¨":6481,"Ġà¼¡à¼§à¼¦":6482,"Ġà¼¡à¼©à¼¤":6483,"à¼¡à¼¢à¼¤à¼£":6484,"à¾¦à¾²à½´à¼į":6485,"à¼¡à¼£à¼£à¼¤":6486,"à¼¡à¼¤à¼£à¼¡":6487,"à¾ªà½¼à¼ĭ":6488,"Ġà¼¢à¼¡à¼¤":6489,"à¼¡à¼¡à¼§à¼¦":6490,"Ġà½ģà½ĸ":6491,"Ġà½Ĥà½ıà½ĳ":6492,"à½Ħà½Ĥà½ĵ":6493,"à¾±à¾·à½²":6494,"à½§à½ª":6495,"à½Ĩà½ĳà½¦":6496,"à¼¡à¼¢à¼£à¼¡":6497,"à¼¡à¼¢à¼§à¼£":6498,"à¼¡à¼¡à¼£à¼¨":6499,"à¼¡à¼¡à¼¦à¼£":6500,"à¼¡à¼¡à¼¦à¼¤":6501,"à¾µà¾Ģà¼ĭ":6502,"à¼¡à¼£à¼¥à¼¨":6503,"à½Ĵà½ĺ":6504,"à½Ĵà½Ĳà½Ħ":6505,"à½Ĺà½Ħ":6506,"à½Ĺà½Ł":6507,"209":6508,"à¾Łà½±à½¾":6509,"à½¢à½łà½ķ":6510,"à½ķà½İ":6511,"à½ĸà½ŀà½ĺ":6512,"à½ħà½ĵà½ĳà½Ĥ":6513,"à¾·à¼ĭà½²":6514,"à¼©à¼¡à¼¦":6515,"à¼©à¼¥à¼£":6516,"à¼¨à¼£à¼¨":6517,"à½ħà½Ĥà½Ĥ":6518,"Ġà¼¡à¼¤à¼©":6519,"à½ĸà½ĺà½£":6520,"à¼¡à¼¡à¼£à¼§":6521,"à¼¡à¼£à¼¢à¼¥":6522,"à¼¡à¼¦à¼§à¼¥":6523,"à¾¶à½²à¼ĭ":6524,"208":6525,"à½Ĥà½ĳà½Ĥà½ł":6526,"à½ĵà½ĳà½Ģà½¢":6527,"à½£à½ĺà½ī":6528,"à½łà½Ĩà½Ħà½¦":6529,"à¼¡à¼¢à¼£à¼§":6530,"à¼¡à¼¢à¼¥à¼¦":6531,"à¼¡à¼¢à¼©à¼§":6532,"à¼¡à¼£à¼¢à¼¤":6533,"à½ĺà½İà½Įà½£":6534,"à¼ĭà½Īà¾±à½ºà¼ĭ":6535,"202":6536,"à¼ĭà¾©à½¼":6537,"à½ĺà½ĺà½ģà½¦":6538,"à½ĵà½¦à½ĸà½ĳà½Ĥ":6539,"à½¡à½Ħà½ĳà½Ħ":6540,"à½Ľà½ĸà½Ľ":6541,"à½¨à½ĵà½¦":6542,"à½ģà½¦à½£":6543,"à½¥à½Ľ":6544,"Ġà¼¡à¼£à¼¨":6545,"Ġà¼¡à¼§à¼¢":6546,"à½Ĥà½ĺà½ĺ":6547,"à¼¡à¼¢à¼¢à¼¤":6548,"à¼¡à¼¡à¼¦à¼¥":6549,"à¼¡à¼£à¼¡à¼¥":6550,"à¼¡à¼£à¼£à¼¡":6551,"à¼¨à¼¨à¼§":6552,"à¼¨à¼©à¼¥":6553,"à¼¨à¼©à¼¦":6554,"à½łà½Ļà½£à½ĳ":6555,"ïĢ":6556,"à½Ĥà½Ķà½£":6557,"à½Ģà½«":6558,"à¾·à¼įà¼ĭ":6559,"à½ĳà½ĺà½ŀ":6560,"à½ĸà½ĳà½Ĩ":6561,"à½ĺà½Ľà½¢":6562,"à½¢à½ĸà½ĳà½Ħ":6563,"à¾Ĳà¾±à¾±à½º":6564,"à¼©à¼£à¼©":6565,"à¼¨à¼£à¼©":6566,"Ġà½¢à½Ģ":6567,"à¼¡à¼¢à¼£à¼£":6568,"à¼¡à¼¢à¼©à¼¦":6569,"à¼¡à¼¡à¼¥à¼¢":6570,"à¼¡à¼£à¼¥à¼©":6571,"à¼¡à¼£à¼§à¼©":6572,"à½Ĵà½Ħ":6573,"ïĢ¸":6574,"à½¢à½£à½ĺ":6575,"à½¢à½Į":6576,"à½Ĥà½¦à½¦à½Ħà½¦":6577,"à½Łà½ĸà½ħ":6578,"à½ĺà½īà½ł":6579,"à½Ħà½Ĥà½ĺ":6580,"à½İà½ĸ":6581,"à¾·à½¼à¼ĭà¼į":6582,"à¼¡à¼£à¼§à¼¢":6583,"210":6584,"à½ŀà½Ħà½¦":6585,"à¾¡à¼ĭà¼į":6586,"à½Ķà½¦à½ĸà½ĳà½Ĥ":6587,"à¼¨à¼¦à¼¢":6588,"à¼¡à¼¢à¼¢à¼¨":6589,"à¼¡à¼¢à¼©à¼£":6590,"à¼¡à¼¡à¼¥à¼¥":6591,"à¼¡à¼¦à¼¤à¼¡":6592,"204":6593,"Ġà½£à½ł":6594,"à½ĸà½ļà½ĵ":6595,"à½´à¼ĭà½¾":6596,"à½Ģà½ĸà½¦":6597,"à½Ķà½łà½ĵ":6598,"à½ģà½§":6599,"à½Ķà½¢à½łà½ķ":6600,"à½ĵà½¦à½ĺà½Ĩ":6601,"à½ĺà½Ĳà½ĸà½¦":6602,"à½ĺà½Ħà½Ħ":6603,"à¼©à¼¢à¼¦":6604,"à¼©à¼¤à¼¥":6605,"à¼¡à¼¢à¼¢à¼¦":6606,"à¼¡à¼¢à¼£à¼¨":6607,"à¼¡à¼¢à¼¤à¼©":6608,"à¼¡à¼£à¼£à¼§":6609,"à¼¡à¼£à¼¨à¼¡":6610,"à¼¡à¼¨à¼¦à¼¢":6611,"Ġà¼¢à¼¡à¼¥":6612,"215":6613,"Ġà½ĸà½ŀà½ĳ":6614,"à½ĳà½Ĥà½¦à½Ħ":6615,"à½ĵà½łà½Ĩ":6616,"à½ĺà½ĸà½Ł":6617,"à½ĺà½Ĥà½ĳ":6618,"à½ĸà½¦à½¨":6619,"à½ĳà½Ĥà½ĸà½¢":6620,"à¾·à¾²à½±à½²à¼ĭ":6621,"à½¨à½ĸà½¦":6622,"à½Ĥà½ŀà½ĵà½¡":6623,"à½Ĩà½Ĥà½¦à½¢":6624,"à¼©à¼¥à¼¦":6625,"à¼¨à¼§à¼©":6626,"à½ĺà½ļà½ĺà½¦à½Ģ":6627,"Ġà¼¡à¼©à¼¦":6628,"à¼¡à¼£à¼¦à¼©":6629,"à¼¡à¼¥à¼¦à¼¥":6630,"à¼©à¼§à¼¤":6631,"à¼¡à¼¡à¼§à¼£":6632,"à½¦à½ĺà½ģà½ł":6633,"à½Ħà½ĺà½ļ":6634,"à½ķà½Ĥà½ĺ":6635,"à½ıà½¥":6636,"à½ĵà½Ħà½Ħ":6637,"à½Ĩà½Ĥà½¦à½ĺ":6638,"à¼©à¼§à¼©":6639,"à¼¨à¼£à¼¤":6640,"à½Łà½¦à½¦":6641,"à¼¡à¼¡à¼¦à¼¦":6642,"à¼¡à¼£à¼¡à¼©":6643,"à¼¡à¼¥à¼¡à¼§":6644,"à¼¨à¼¨à¼£":6645,"à½¢à½ħà½ĵ":6646,"à½Ķà½ĸà½Ģ":6647,"à½ĺà½¦à½Ļà½ĺ":6648,"à¾³à½±à½²":6649,"à½Ļà½ŀ":6650,"à½ħà½ĳà½ī":6651,"à¾«à½±":6652,"à½ĸà½ħà½¦à½¢":6653,"à½£à½Ĥà½ĸà½¢":6654,"Ġà¼¡à¼¤à¼¡":6655,"Ġà¼¡à¼¦à¼¢":6656,"à¼¡à¼¢à¼¡à¼¨":6657,"à¼¡à¼¢à¼¦à¼©":6658,"à¾ŀà½¾à¼ĭà¼į":6659,"à¼ĭà½ºà¼ĭà½º":6660,"211":6661,"à½Ħà½Ĳà½ĺà½¦":6662,"à½¡à½Ħà½Ĥà½ŀà½ĵ":6663,"à½Ĥà½ĵà½¦à½ĳà½Ħ":6664,"à½£à½Ĥà½ģà½Ħ":6665,"à¼¨à¼©à¼©":6666,"à½ŀà½ĸà½¦à½£":6667,"Ġà¼¡à¼¦à¼§":6668,"Ġà¼¡à¼§à¼¥":6669,"à¼¡à¼¢à¼¥à¼¨":6670,"à¼¡à¼¢à¼¦à¼¦":6671,"à¼¡à¼¨à¼©à¼¢":6672,"à¾¥à½´à¼į":6673,"à¾ŀà½¾à¼į":6674,"à¾»à½´à¼ĭ":6675,"206":6676,"à½¦à½ĺà½ģ":6677,"à½ĸà½ĺà½ģ":6678,"à½Ĳà½ĳà½Ħ":6679,"à½ĺà½¦à½ĺà½Ĳ":6680,"à½Ĥà½ĵà½¦à½¤":6681,"Ġà¼¡à¼¤à¼¥":6682,"à¼¡à¼¡à¼¦à¼¨":6683,"à¾łà½¼à¼ĭ":6684,"à¼¡à¼¡à¼§à¼¨":6685,"214":6686,"à½Ķà½Ĥà½¦à½Ħ":6687,"à½Ľà½Ľà½ŀ":6688,"à½¨à½ĳà½Ħ":6689,"à½ĸà½ĳà½Ĥà½¤":6690,"à½ĸà½¤à½ĳà½£":6691,"à½łà½Ĳà½ĳà½Ķ":6692,"à¼©à¼£à¼¥":6693,"à¼¡à¼¡à¼¥à¼§":6694,"213":6695,"Ġà½ĺà½Ĥà½¢":6696,"à½¦à½ĺà½ī":6697,"à½¢à½łà½Ľ":6698,"à½ĵà½īà½ĺà½¦":6699,"à½ºà½¼":6700,"à½łà½ĺà½Ĥ":6701,"à¾²à¾±à¼ĭ":6702,"à½Ħà½¦à½¨":6703,"à½Ķà½¦à½łà½ĩ":6704,"à½Ĥà½ĵà½¦à½ĸ":6705,"à½¨à½ĸà½Ľ":6706,"à½ĵà½Ħà½ĵà½¦":6707,"à½łà½Ĳà½ĳà½ĳ":6708,"à¼©à¼£à¼¤":6709,"à¼©à¼¦à¼§":6710,"à¼¨à¼¥à¼§":6711,"à¾Łà½²à¼ĭà¼į":6712,"à¼ĭà¼´à¼´":6713,"Ġà½ģà½ĺ":6714,"à½¦à½ĺà½īà½ĵ":6715,"à½ĳà½Ļà½Ħ":6716,"à½ĸà½ĵà½¢":6717,"à½ħà½ħ":6718,"à½ĳà½ĸà½ĺ":6719,"à½ħà½ĳà½¢à½Ħ":6720,"à½Ĥà½¦à½£à½£":6721,"à¼¡à¼£à¼¤à¼£":6722,"à¼¨à¼©à¼£":6723,"à¼¡à¼¡à¼©à¼¡":6724,"à½ķà½Ŀà½«":6725,"à¼ĭà¾³":6726,"à¼ĭà¾Łà¼ĭ":6727,"à½¦à½łà½ķà½Ĥà½¦":6728,"à½¢à½ĺà½¢":6729,"à½ĺà½ĺà½ĵ":6730,"à½Ĥà½¦à½¢à½Ħ":6731,"à¾³à½¾à¼ĭ":6732,"à½ĳà½ĸà½Ł":6733,"à½ħà½ĵà½Ħ":6734,"à½ĺà½ģà½łà½ĺ":6735,"à¼¨à¼¥à¼¨":6736,"Ġà¼¡à¼¨à¼¢":6737,"à¼¡à¼¢à¼§à¼¤":6738,"à¼¡à¼£à¼©à¼£":6739,"à¼¡à¼¨à¼©à¼§":6740,"à¼¡à¼¦à¼¢à¼¡":6741,"à¾Łà¾Ńà¾ĥà¼ĭ":6742,"Ġà½Ħà½£":6743,"à½Ķà½ļà½ĵ":6744,"à½´à¼ĭà½´":6745,"à½Ķà½¦à½ĺà½Ĩ":6746,"à½Ĥà½ĵà½¦à½ĸà½¢":6747,"à½Ľà½ĳà½Ħ":6748,"à½£à½Ĥà½ĳà½Ħ":6749,"à¼¨à¼¥à¼¢":6750,"Ġà¼¡à¼¥à¼¢":6751,"à¼¡à¼¢à¼©à¼¨":6752,"à¼¡à¼¡à¼£à¼¥":6753,"à¼¡à¼£à¼¡à¼§":6754,"à¼Ģà½ģ":6755,"à¾»à½ºà¼ĭ":6756,"à½±à½¼à¾ĥà¼į":6757,"à½¦à½Ħà½ł":6758,"à½£à½£à½Ĥ":6759,"à½ŀà½¡":6760,"à½ĸà½¦à½ĺà½ļ":6761,"à½¡à½Ħà½ī":6762,"à½ıà½ĵà½ĳà½Ħ":6763,"à¼¨à¼©à¼¨":6764,"à½Ģà½¢à½¤":6765,"Ġà¼¡à¼¦à¼¦":6766,"Ġà¼¡à¼¦à¼¡":6767,"à¼¡à¼¢à¼¥à¼©":6768,"à¼¡à¼¢à¼£à¼¢":6769,"à¼¡à¼¨à¼¦à¼¥":6770,"à¾ļà½¼à½¾à¼į":6771,"à¼¨à¼©à¼¤":6772,"à½Ĥà½¦à½ĩ":6773,"à½Ĥà½¦à½ĺà½ĳ":6774,"à¼¨à¼¤à¼¨":6775,"Ġà¼¡à¼¤à¼¦":6776,"à¼¡à¼¡à¼¨à¼¤":6777,"à½ĭà½ŀ":6778,"à½Łà½Ĳà½¥":6779,"212":6780,"Ġà½Ħà½ĺ":6781,"à½Ĥà½¦à½Ĥà½ŀà½ĵ":6782,"à½Ĥà½¦à½¢à½ĸ":6783,"à½łà½ĸà½Ģ":6784,"à½¨à½ĺà½ł":6785,"à½ĸà½ĳà½Ĥà½Ģ":6786,"à½Ĥà½ĵà½£":6787,"à¼©à¼¤à¼£":6788,"à¼©à¼¥à¼¡":6789,"à¼¨à¼§à¼¢":6790,"Ġà½£à½¢":6791,"à¼¡à¼£à¼¤à¼¦":6792,"à¼¡à¼¤à¼¢à¼¦":6793,"à¼¡à¼¡à¼©à¼¥":6794,"Ġà½Ĳà½ĳ":6795,"Ġà½ĺà½ĵà½ĵ":6796,"à½¼à½º":6797,"à½ĺà½Ĥà½ŀ":6798,"à¾Łà¾¡à½ºà¼į":6799,"à½ģà½łà½ĳ":6800,"à½£à½¦à½ı":6801,"à½ĺà½Ĳà½ĸ":6802,"à¼©à¼¥à¼¤":6803,"à¼¡à¼¤à¼£à¼¢":6804,"à¼¡à¼¨à¼©à¼¨":6805,"à¼¨à¼¨à¼¤":6806,"à¼ĭâĢļ":6807,"à½Ĥà½ĺà½Ľà½ĳ":6808,"à½ĸà½¤à½ĳà½ħ":6809,"à½Ĳà½¢à½ĳ":6810,"Ġà¼¡à¼¤à¼§":6811,"à½ĸà½ĺà½ĺà½Ĩ":6812,"à¼¡à¼¢à¼¦à¼¢":6813,"à¼¡à¼£à¼¢à¼¡":6814,"à¼¡à¼¨à¼¥à¼¦":6815,"à½ĵà½Ķà½ĺ":6816,"à½Ĥà½ĸà½¤à½ĳ":6817,"à½Ķà½łà½£":6818,"à½Ķà½łà½ĺà½ĳ":6819,"à½Ķà½¢à½łà½Ľ":6820,"à½ĸà½ħà½¦à½Ģ":6821,"à¼©à¼¦à¼©":6822,"à½Ĭà½ĳ":6823,"Ġà¼¡à¼§à¼©":6824,"à¼¡à¼£à¼§à¼¦":6825,"à¼¡à¼¨à¼¥à¼£":6826,"à½Ķà½ĺà½ĺà½Ĩ":6827,"à½ħà½ĳà½ĺà½Ħ":6828,"à½¦à½Ļà½ĺ":6829,"à½łà½¦à½ĺ":6830,"à½´à¼ĭÂ¶":6831,"à½Ļà½¤":6832,"à¾Ļà½¾à¼į":6833,"à½ĺà½ļà½ĵà½ĳà½Ħ":6834,"à½ĸà½ŀà½Ĥà½ĺ":6835,"à½Łà½Ĥà½Ĥ":6836,"à¼¡à¼¢à¼§à¼¨":6837,"à¼¡à¼¨à¼§à¼¦":6838,"à¼Ģà½Ĥà½¦":6839,"à½Ķà½¢à½ī":6840,"à½Ħà½¦à½ł":6841,"à¾Łà¼ĭà½º":6842,"à½ĺà½ļà½ĵà½ĺà½ĺ":6843,"à½ĵà½ĺà½ī":6844,"à½ĸà½ŀà½Ĥà½ĸ":6845,"Ġà¼¡à¼¤à¼¨":6846,"à¼¡à¼¦à¼¡à¼¢":6847,"à¼Ģà½Ģà½¢":6848,"Ġà¼īà¼į":6849,"à½ĺà½łà½Ĥà½Ĥà½¦":6850,"à½Ķà½¦à½¨":6851,"à¾±à½´à¼ĭà¼į":6852,"à¼ĭà¼Ĺ":6853,"à¼¡à¼¦à¼§à¼¨":6854,"à¼¡à¼¡à¼©à¼¦":6855,"235":6856,"à½´à½¼":6857,"à½Ķà½Ŀ":6858,"à½£à½ĺà½Ĳà½¢":6859,"à½ĺà½ļà½ĵà½¢":6860,"à¾Ĳà¾±à¼ĭà¼į":6861,"à¼©à¼¦à¼¦":6862,"Ġà¼¡à¼£à¼§":6863,"à¼¡à¼£à¼¢à¼£":6864,"à¼¡à¼£à¼¢à¼¨":6865,"à¼¡à¼£à¼£à¼¦":6866,"à½«à½Ħ":6867,"218":6868,"à¼ĭà½±à½²à¼ĭ":6869,"à½¦à½Ĳà½ĺà½¦à½ħà½ĳ":6870,"à½²à½¼à¼ĭ":6871,"à½Ķà½ĺà½Ĳà½¢":6872,"à½£à½łà½Ĩ":6873,"à½£à½ļà½ĸ":6874,"à½ĳà½Ħà½ĸà½ĳ":6875,"à½ħà½łà½ĳ":6876,"à½ļà½ī":6877,"à½¤à½¢à½ĸ":6878,"à½ĵà½¦à½ĺà½¦":6879,"à½¢à½Ħà½ł":6880,"à½ĳà½Ķà½ĸ":6881,"à½Ĥà½Ħà½ĳà½Ħ":6882,"à½ĸà½ĳà½Ĥà½ı":6883,"à¼©à¼£à¼¨":6884,"à½Įà½Ĥ":6885,"à¼¡à¼§à¼¤à¼§":6886,"à¼¡à¼§à¼§à¼¢":6887,"à½Ĩà½Ĥà½ĺ":6888,"à¼¡à¼£à¼¤à¼¤":6889,"à¼¡à¼£à¼¤à¼¨":6890,"à¼¡à¼£à¼£à¼¢":6891,"à¼¡à¼£à¼¦à¼¥":6892,"à¼¡à¼¤à¼¦à¼¦":6893,"à¾¡à¾·à½´à¼į":6894,"à¾°à½´à½¾":6895,"à¾¼à½±à¼ĭ":6896,"à½ĸà½ĺà½Ĳà½¢":6897,"à½ĸà½ĸà½ıà½ĸ":6898,"à½£à½īà½ĵ":6899,"à¾²à½±à¼į":6900,"à½ŀà½Ķà½¦":6901,"à½Ĳà½ŀ":6902,"à½Ķà½¦à½ħ":6903,"à½ĸà½Ģà½ĸà½¦":6904,"à½Ĥà½ŀà½ĵà½ĳà½Ħ":6905,"à½ĳà½Ķà½łà½Ĳà½ĺà½¦":6906,"à½łà½Ħà½ł":6907,"à¼¨à¼¥à¼£":6908,"à½¥à½Ħà½¥":6909,"à½łà½Ľà½ĺà½ĸ":6910,"à¼©à¼¨à¼§":6911,"219":6912,"224":6913,"Ġà½¢à½ĸà½¦":6914,"Ġà½Ĥà½ĳà½ĸ":6915,"Ġà½łà½ĳà½ł":6916,"à½ĸà½ļà½£":6917,"à½¢à½ĺà½ļà½ĵ":6918,"à½ĺà½ĺà½ī":6919,"à¾±à¾Ńà¼į":6920,"à½ĸà½¢à½ģ":6921,"à½Ħà½¦à½ļ":6922,"à½ĳà½Ķà½Ĩ":6923,"à½Ĥà½ŀà½ĵà½Ķà½ł":6924,"à¼©à¼£à¼¡":6925,"à¼©à¼¤à¼¡":6926,"à¼¨à¼§à¼¡":6927,"à½īà½ĵà½Ķ":6928,"Ġà¼¡à¼£à¼¡":6929,"à¼¡à¼¢à¼¤à¼¨":6930,"à¾Ľà½±à½²à¼ĭ":6931,"à¾·à¾²à½µà¾ĥà¼ĭ":6932,"à¾²à½±à¾Ģà½¾à¼ĭ":6933,"Ġà½ĺà½Ľà½ł":6934,"Ġà½ĸà½Ģà½£":6935,"Ġà¼¡à¼§à¼¨":6936,"à¼¡à¼§à¼§à¼©":6937,"à¼¡à¼¤à¼¢à¼¤":6938,"à¼¡à¼¤à¼§à¼¢":6939,"à¼¡à¼¨à¼§à¼¥":6940,"à¼ĭà¼ŀà¼ŀ":6941,"217":6942,"à½ĳà½£à½Ĥ":6943,"à½¼à¼µà¼į":6944,"à½Ħà½ĺà½ĵ":6945,"à½´à¼ĭà½´à¼ĭ":6946,"à½´à¼ĭà¼´à¼į":6947,"à½Ģà½ŀà½ĵ":6948,"à½ĸà½¦à½Ĭ":6949,"à½Ĳà½¡":6950,"à½Ķà½¢à½Ķà½¢":6951,"à½Łà½ĸà½Ł":6952,"à½İà½Ĭ":6953,"à¼©à¼¤à¼¦":6954,"à½ģà½ĸà½ĵ":6955,"à½¦à½Ħà½¢":6956,"à¼¡à¼¡à¼¨à¼¦":6957,"à¼¡à¼£à¼¢à¼§":6958,"à¼¡à¼£à¼£à¼¥":6959,"à¼¡à¼£à¼¥à¼£":6960,"à¼¡à¼£à¼©à¼¥":6961,"à¼¡à¼£à¼¨à¼£":6962,"à¼¡à¼¦à¼¤à¼¨":6963,"à¾²à½±à¾ĥà¼į":6964,"221":6965,"à½ĸà½¦à½£à½¦":6966,"à½ĸà½¤à½ĳà½Ħ":6967,"à½±à¼ĭà¼Ĳ":6968,"à½ĺà½ĳà½Ķà½¢":6969,"à½ĸà½Ļà½ĸà½¦":6970,"à¼¨à¼§à¼¤":6971,"Ġà¼¡à¼¦à¼£":6972,"à¼¡à¼£à¼¡à¼¦":6973,"à¼¡à¼¥à¼¦à¼¤":6974,"Ġà½ĺà½īà½ĵ":6975,"à½¦à½ĳà½Ķà½ł":6976,"à½ĳà½¥":6977,"à½ĳà½¦à½¦":6978,"à½ĳà½ŀà½¦":6979,"à½¢à½ĵà½ĵ":6980,"à¾±à½²à¼ĭà¼´à¼į":6981,"à½ĳà½Ĥà½ĺà½Ĳ":6982,"à¾²à½¼à½¼":6983,"à½Ĥà½ıà½ĵà½ĺ":6984,"à¾Ńà¾ĥà¼ĭ":6985,"à½łà½Ĩà½ĳà½Ķ":6986,"à¼¨à¼¥à¼¤":6987,"à¾¤à¾±à½²à½²à¼ĭ":6988,"à¼ĭà¼Ļ":6989,"à¼¡à¼£à¼£à¼¨":6990,"à¼¡à¼£à¼¦à¼¢":6991,"à¾ŀà½±":6992,"228":6993,"à½ĳà½¦à½ĵ":6994,"à½ĵà½Ĳà½ĸà½¦":6995,"à½£à½ĳà½Ķà½£":6996,"à½¡à½ĳà½Ħ":6997,"à½ķà½ĵà½¦":6998,"à½Ķà½¦à½¦à½Ħà½¦":6999,"à¼¡à¼§à¼©à¼§":7000,"à¼¡à¼£à¼¤à¼¥":7001,"à¼¡à¼¤à¼©à¼¨":7002,"à¼¡à¼¦à¼©à¼¤":7003,"à¼Ģà½¨à½Ĥ":7004,"Ġà½Ĥà½ĺ":7005,"à½ĸà½Ĩà½¦":7006,"à½¢à½ĸà½Ģà½ł":7007,"à½Ħà½ĸà½¦à½ĺ":7008,"à½£à½Ħà½Ĥ":7009,"à½ıà½ŀ":7010,"à½¡à½Ħà½łà½Ĥ":7011,"à¾²à½²à½¾":7012,"à½ĺà½ģà½ª":7013,"à¼¨à¼©à¼§":7014,"à½łà½ļà½£à½ĳ":7015,"Ġà¼¡à¼¦à¼¥":7016,"à¼¡à¼£à¼©à¼§":7017,"à¼¡à¼£à¼¨à¼¢":7018,"à¼¡à¼¦à¼¡à¼¥":7019,"229":7020,"à½łà½¤à½ĳ":7021,"à½ĸà½¦à½ĺà½Ĩ":7022,"à½ķà½ī":7023,"à½łà½Ľà½£":7024,"à½ĵà½Ĥà½ĺ":7025,"à¼©à¼¤à¼¤":7026,"à¼¨à¼§à¼¥":7027,"à¾³à½´à¼ĭà½²":7028,"à½Ŀà½¤":7029,"à¼¡à¼£à¼§à¼¨":7030,"à¼¡à¼¤à¼£à¼¦":7031,"à¼¡à¼¤à¼¤à¼£":7032,"à¼¡à¼¨à¼¡à¼£":7033,"à¼¡à¼¨à¼¡à¼¨":7034,"à¼¡à¼¨à¼¥à¼©":7035,"à¼¡à¼¦à¼£à¼©":7036,"à¾ļà½´à¼ĭ":7037,"à¾ŀà¾ŀà½±à¼ĭ":7038,"225":7039,"à½£à½ĳà½ĳ":7040,"à½Ĩà½ī":7041,"à¾Ĺà½´à¼ĭ":7042,"à¾Ĵà¾±à¼ĭà½²":7043,"à½Ĳà½ĸà½¦à½ĵ":7044,"à¼¡à¼§à¼§à¼§":7045,"à¼¡à¼§à¼§à¼¤":7046,"à½Ĩà½Ĥà½Ķ":7047,"à¼¡à¼¢à¼¤à¼¥":7048,"à¼¡à¼¦à¼¡à¼£":7049,"à¼©à¼¨à¼¤":7050,"222":7051,"à¼Ĺ":7052,"à½Ĥà½Ĥà½Ħà½¦":7053,"à½¢à½¦à½¢":7054,"à½Ħà½Ļà½ĺ":7055,"à½Ĩà½ĳà½ĸ":7056,"à½ķà½ķ":7057,"à¾Ķà½²":7058,"à½Ĥà½¦à½£à½¢":7059,"à½łà½Ĳà½£":7060,"à½ĵà½ĺà½¦à½Ĩ":7061,"à½ĳà½ĺà½ĵà½Ķ":7062,"à¾µà½ºà¼į":7063,"à¼¡à¼£à¼¢à¼©":7064,"à¼¡à¼¤à¼¦à¼¢":7065,"à½ĭà½ĳ":7066,"à¼ĭà¾¤":7067,"à½Ĥà½Ĳà½ĸà½¦":7068,"à½Ĥà½Ĥà½¦à½¢":7069,"à½Ħà½ĳà½Ķ":7070,"à½ĺà½ĺà½ģà½ĵ":7071,"à½£à½ĳà½Ģ":7072,"à½Ĩà½ı":7073,"à½ĸà½¦à½Ł":7074,"à½¤à½ĸà½¦":7075,"à½ĸà½łà½ĵ":7076,"à½ĺà½ļà½ĵà½£":7077,"à½ĸà½Ĥà½ĳà½ĸ":7078,"à½ĸà½ĸà½ĺ":7079,"à¼¡à¼¤à¼§à¼§":7080,"à¼¡à¼¥à¼¤à¼£":7081,"à½Ĵà½¨":7082,"à¾¶à¼į":7083,"230":7084,"Ãĥà½¦":7085,"Ġà½¼à¼ĭ":7086,"à½ĵà½ŀà½Ĥ":7087,"à½Ķà½£à½ĵ":7088,"à½ĺà½¦à½ĺà½īà½ĺ":7089,"à¾Ĺà½²à¼į":7090,"à½ķà½ĵà½¡":7091,"à½ķà½ĵà½Ķà½ł":7092,"à¼¨à¼§à¼¨":7093,"à¼¡à¼¢à¼¨à¼¢":7094,"à¼¡à¼¡à¼¨à¼¥":7095,"à¼¡à¼¤à¼¤à¼¨":7096,"à¼¡à¼¤à¼¥à¼¢":7097,"à¾·à¾£à½±à¼ĭ":7098,"223":7099,"Ġà½īà½Ĥ":7100,"à½ĳà½ĵà½ł":7101,"à½Ĥà½ĺà½Ĳà½¢":7102,"à½¡à½Ħà½Ĥà½Ħ":7103,"à½Ĥà½ŀà½£à½ĺ":7104,"à½ĳà½ĸà½Ħà½ĵ":7105,"à½Ĳà½ĺà½¦à½¢":7106,"à½Ĥà½ĵà½ĺà½¦":7107,"à½İà½ģ":7108,"à¼¡à¼§à¼¡à¼£":7109,"à¼¡à¼§à¼¨à¼¨":7110,"à¾ķà½ºà¼ĭà¼į":7111,"à¼¡à¼¤à¼¥à¼£":7112,"239":7113,"227":7114,"Ġà¼¢à¼¢à¼¡":7115,"à½£à½ĺà½Ħà½ł":7116,"à½ŀà½ģ":7117,"à½ĸà½¦à½Ķà½¢":7118,"à½ĵà½¦à½ĵà½¦":7119,"à½Łà½¨":7120,"à½ĳà½ĸà½Ħà½ĺ":7121,"à¼¨à¼§à¼£":7122,"à½£à½Ĥà½¦à½¦à½ĺ":7123,"à½¢à½¦à½Ĥà½Ł":7124,"à¼¡à¼¥à¼¡à¼¡":7125,"à½ķà½ħà½¥":7126,"à½ĵà½ĸà½Łà½ł":7127,"à½ĵà½Łà½Ħ":7128,"à½Ķà½¢à½Ģ":7129,"à½Łà½ĳà½ĸ":7130,"à½¡à½Ħà½ķ":7131,"à½Ķà½¦à½łà½ĸ":7132,"à½¨à½ĸà½¢":7133,"à½ĸà½¤à½ĳà½Ł":7134,"à½ĺà½Ĥà½ł":7135,"à½ĺà½ģà½łà½ĳà½Ħ":7136,"à½ķà½ĵà½łà½ĳ":7137,"à¼¡à¼£à¼¥à¼¥":7138,"à¼ĭà¼¹à½¼":7139,"à½Ĥà½łà½ļ":7140,"à½Ĥà½Ĩà½¢":7141,"à½´à¼ĭà¾İ":7142,"à½ĸà½łà½ļ":7143,"à½ĺà½Ľà½ĵ":7144,"à½ģà½ĺà½¦à½ŀ":7145,"à½İà½¡":7146,"Ġà½¢à½Ĥ":7147,"à½ķà½Ĭà½ĸ":7148,"à¼¡à¼¤à¼©à¼¢":7149,"à¼¡à¼¤à¼¨à¼¡":7150,"à¼¡à¼¤à¼©à¼£":7151,"à½ĥà½İ":7152,"Ġà½īà½ĺ":7153,"à½ĳà½łà½Ľ":7154,"à½ĸà½ħà½ĳà½Ķà½ł":7155,"à½ĳà½Ĥà½łà½ĺà½Ĥ":7156,"à½ģà½ĺà½¦à½ĳà½Ħ":7157,"à½Ħà½Ĥà½ĳà½Ħ":7158,"à½Ŀà½ģ":7159,"à½ħà½Ħà½ĺ":7160,"à¼¡à¼§à¼¨à¼©":7161,"à¼¡à¼£à¼¥à¼¢":7162,"à½Ĵà½Ĩ":7163,"à¼ĭà¼¹à¼į":7164,"à½²à¾ĥà¼ĭ":7165,"à½Ħà½Ĥà½¤":7166,"à½Ķà½ĵà½ĵ":7167,"à½ĸà½¦à½ĸà½¢":7168,"à½ĵà½¦à½Ł":7169,"à½¨à½Ģà½ł":7170,"à½ĳà½Ģà½Ħ":7171,"à½Ķà½ĳà½ĵ":7172,"à½ĸà½ŀà½Ĥà½ģ":7173,"à½Ĳà½¢à½¦":7174,"à½ĸà½ıà½Ĥà½¦à½Ķ":7175,"Ġà¼¡à¼©à¼§":7176,"à¼¡à¼§à¼¡à¼¢":7177,"à¼¡à¼¦à¼¤à¼¤":7178,"à¼¡à¼¦à¼¦à¼¨":7179,"à¼©à¼¨à¼£":7180,"231":7181,"220":7182,"Ã¬":7183,"à½¦à½Łà½¦":7184,"à½ĸà½ĳà½Ķà½£":7185,"à½ĵà½ĸà½Ĥ":7186,"à½Ħà½ĳà½ĸà½Ħ":7187,"à½ŀà½Ĩ":7188,"à½ĸà½¦à½ĳà½Ĥ":7189,"à½Ķà½¢à½ĳà½Ħ":7190,"à¾£à¾²à½²à¼ĭ":7191,"à½ĵà½¦à½łà½ģ":7192,"à½ħà½ĳà½ĺà½Ĳ":7193,"à½ĸà½ĳà½Ĥà½ŀ":7194,"à¾³à¼ĭà½²":7195,"à¼¡à¼¤à¼¦à¼¥":7196,"à¾¥à½±à¼ĭ":7197,"238":7198,"241":7199,"226":7200,"à½¢à½ĺà½Ľ":7201,"à½£à½ĸà½Łà½Ħ":7202,"à½Ĩà½Ĥà½Ħ":7203,"à½ĺà½¦à½Ĳà½ĺà½¦":7204,"à¾Ĳà¾²à½º":7205,"à½Ķà½¢à½ĸà½¦à½ĺà½¦":7206,"à½Ĥà½¡à½¦à½ĵ":7207,"à½¡à½Ħà½¦à½Ħà½¦":7208,"à¼¡à¼¤à¼¦à¼¡":7209,"à¼ĭà¾ĥà¼ĭ":7210,"à½ĺà½łà½ĳà½¦":7211,"à¾±à¾¦à¾·à½±à½²":7212,"à½¤à½Ĳ":7213,"à½ĵà½¦à½ĸà½ĳ":7214,"à½Ķà½¦à½ĩ":7215,"à¾¦à½ºà¼į":7216,"à½ħà½ĵà½ī":7217,"à½łà½ķà½¦":7218,"à½¨à½Ĥà½¦":7219,"à¾«à½±à½²à¼ĭ":7220,"à¼¨à¼§à¼¦":7221,"Ġà¼¡à¼¥à¼¡":7222,"Ġà¼¡à¼©à¼¥":7223,"à¼¡à¼§à¼£à¼£":7224,"Ġà½ĳà½ĵ":7225,"à¼¡à¼¢à¼¥à¼¤":7226,"à¼¡à¼¡à¼¥à¼¦":7227,"à¼¡à¼£à¼§à¼§":7228,"à¼¡à¼£à¼¨à¼§":7229,"à¼¡à¼¤à¼¢à¼¥":7230,"à¼¡à¼¦à¼£à¼¨":7231,"à¼¡à¼¦à¼¨à¼¡":7232,"à¼µà½¼à¼į":7233,"237":7234,"à½ĳà½ĳà½Ģà½¢":7235,"à½Ĥà½ĳà½ĺà½¢":7236,"à½Ĳà½ĸà½¢":7237,"à¾³à¾Ģ":7238,"à½Ľà½ķ":7239,"à½ħà½ĳà½¤":7240,"à¼¡à¼¤à¼¥à¼¤":7241,"233":7242,"à½ķà½Łà½«":7243,"Ġà½Ĥà½¦à½ĵ":7244,"à¼ĭà¾ĥ":7245,"à½Ĥà½ĸà½£":7246,"à½¡à½Ħà½Ĥà½¦":7247,"à½¢à½Ħà½ĺ":7248,"à½Ľà½Ļ":7249,"à½ĺà½Ħà½ĸ":7250,"à½ĸà½¤à½ĳà½Ģ":7251,"à½ĸà½ħà½ĳà½¦":7252,"Ġà¼¡à¼¨à¼©":7253,"234":7254,"à½²à¼ĭà½Īà½ºà¼ĭ":7255,"Ġà½¤à½ĺ":7256,"à½Ĥà½Ĭ":7257,"à½ĸà½ĸà½ı":7258,"à½łà½Ģà½ł":7259,"à½Ķà½Ķà½ĳ":7260,"à¾Łà¼ĭà¼Ĳ":7261,"à½ĳà½ĸà½Ħà½£":7262,"à½ħà½ĳà½¢à½ĸ":7263,"à½Ĥà½Ļà½Ħà½ĺ":7264,"à½ĸà½¦à½£à½ĸ":7265,"à¼¡à¼£à¼¦à¼¦":7266,"à¼¡à¼¤à¼¥à¼¡":7267,"à¼¡à¼¥à¼¡à¼¨":7268,"à¼¡à¼¥à¼¢à¼¦":7269,"à¼¡à¼¦à¼¢à¼¢":7270,"à¼¡à¼¦à¼¥à¼¤":7271,"à¾ĳà½´à¼ĭ":7272,"à½£à½¤à½¢":7273,"à½£à½ĳà½¦":7274,"à¾·à½±à½´à¾ĥà¼ĭ":7275,"à½ĸà½Łà½ĺà½¦":7276,"à½ĸà½Ģà½łà½ĸ":7277,"à¼©à¼¢à¼¨":7278,"à½¡à½¦à½Ķ":7279,"à¼¡à¼§à¼¨à¼¢":7280,"à¼¡à¼¥à¼¥à¼¦":7281,"à¼¡à¼¥à¼¤à¼¢":7282,"Ġà¼¢à¼¢à¼¥":7283,"à½Ĥà½łà½¥":7284,"à½Ķà½īà½ĵ":7285,"à½¼à¼ĭà½ºà¼į":7286,"à½ĳà½Ħà½ĺà½ļà½ĵ":7287,"à½ĵà½¦à½ĩ":7288,"à½£à½¦à½ħ":7289,"à½¡à½Ħà½Ĳ":7290,"à½łà½ķà½ĸ":7291,"à½ĺà½Ľà½ĺ":7292,"à½±à¼ĭà¼´":7293,"à½ĺà½Ĳà½łà½¦":7294,"à¼©à¼¤à¼¨":7295,"à½łà½Ĥà½łà½ĵ":7296,"à½Ĥà½ŀà½Ĥà½Ĥ":7297,"à¼¡à¼§à¼¤à¼¤":7298,"à¼¡à¼¢à¼£à¼¦":7299,"à¼¡à¼¦à¼¢à¼§":7300,"à½ĸà½Łà½ĳà½¦":7301,"Ãĥà½ĳ":7302,"Ãĥà½¢":7303,"Ġà½ĸà½¤à½Ħ":7304,"à¼ĭà¾¡":7305,"à½ĸà½ĵà½ł":7306,"à¾±à½²à¼ĭà½²à¼ĭ":7307,"à½ĵà½¦à½ħ":7308,"à½łà½Ĥà½Ł":7309,"à½£à½¦à½Ł":7310,"à¾²à½ºà½º":7311,"à½Ĥà½¦à½£à½ĳ":7312,"à½ĳà½Ķà½£à½ĵ":7313,"à½ĺà½ĵà½Ĩà½ĳ":7314,"à½Łà½ĸà½ĸ":7315,"à½ĸà½ıà½ĸà½ĵà½¦":7316,"Ġà¼¡à¼¨à¼§":7317,"à¼¡à¼§à¼¡à¼©":7318,"à¼¡à¼¥à¼¥à¼§":7319,"à¼¡à¼¦à¼©à¼©":7320,"à¾¶à½¾":7321,"à½§à½§à½§":7322,"Ġà½º":7323,"à½Ķà½ĸà½Ĥ":7324,"à¾Ĵà½¼à¼įà¼ĭ":7325,"à¾£à½±à½²à¼ĭ":7326,"à½Ħà½¦à½łà½ĳ":7327,"à½łà½Ĥà½ŀà½ĵ":7328,"à½Ķà½¦à½ĺà½Ħ":7329,"à¼©à¼£à¼¦":7330,"à¼¡à¼§à¼¦à¼¦":7331,"à¼¡à¼£à¼¡à¼¨":7332,"à¾ªà½¾à¼ĭ":7333,"à½ĳà½Ķà½¢à½ĵ":7334,"à¾·à½²à½¾à¼ĭ":7335,"à¾¶à½±":7336,"Ġà½Ĩà½¦":7337,"à½ĳà½łà½ĺ":7338,"à½Ĥà½Ĳà½Ħ":7339,"à½¢à½ĺà½ļ":7340,"à½ĺà½Ĥà½¦à½£":7341,"à½Ĥà½¦à½ĸà½ħ":7342,"à½īà½¤":7343,"à½ĳà½ĸà½ı":7344,"à½Ļà½Ĩ":7345,"à¾¦à½´à¼į":7346,"à½ĳà½Ķà½ŀ":7347,"à½ĸà½ıà½ł":7348,"à½Ĥà½¤à½¦":7349,"à½Ĳà½ĸà½¦à½¢":7350,"à¼©à¼¦à¼¤":7351,"à½¥à½ĸ":7352,"à½ĵà½ĵà½¢":7353,"Ġà¼¡à¼§à¼¤":7354,"à½ªà½£":7355,"à½Ĳà½Ģà½¡":7356,"à½Ķà½Ĩà½Ĥà½¦":7357,"à½ļà½£à½ĵ":7358,"à½ĺà½¦à½ĸà½¦":7359,"à½īà½ĺà½Ĩ":7360,"à½Ķà½¦à½ĵà½ĺ":7361,"à½¦à½¢à½Ķ":7362,"à½ĸà½ıà½ĸà½ĵ":7363,"à½Ķà½łà½ĺà½ĺ":7364,"à½ķà½Ĭà½§":7365,"Ġà¼¡à¼¥à¼£":7366,"à¾łà½²à¼į":7367,"à½©à½ĵ":7368,"248":7369,"à½£à½ļà½ĵ":7370,"à½ºà¼ĭà½±à¼ĭ":7371,"à½Ĩà½ª":7372,"à½ĸà½łà½ĸà½ł":7373,"à½Ĥà½ŀà½Ĥà½£":7374,"à¾¦à¾±à¾±à½²":7375,"à¾ľà¾·à¾±à¼ĭ":7376,"Ġà¼¡à¼¤à¼£":7377,"à¼¡à¼¥à¼¢à¼¤":7378,"Ġà½Ĥà½ħà½ĵ":7379,"à½ĺà½£à½ĵ":7380,"à½łà½¡à½Ħ":7381,"à½Ķà½Łà½ĳ":7382,"à½£à½īà½£":7383,"à½Ģà½ĸà½¢":7384,"à¾±à½²à¼ĭà¾İ":7385,"à½¤à½ģ":7386,"à½£à½¦à½ĸà½Ł":7387,"à½ħà½ĵà½Ĳà½ĺà½¦à½ħà½ĳ":7388,"à½ĸà½łà½ĺà½ĺ":7389,"à¼¡à¼¥à¼¤à¼¦":7390,"Ġà½ıà½ĳ":7391,"à¾±à½±à½´à¼ĭ":7392,"à½Ĳà½¢à½ĸ":7393,"à½Ķà½¦à½Ĥà½ŀà½ĵ":7394,"à¾·à¾Ģà¼ĭ":7395,"à½±à½¼à½¾à¼į":7396,"à¾¡à½¼à¼µà¼ĭ":7397,"à½ĳà½Ģà½łà½¦":7398,"à¼¡à¼§à¼¤à¼¡":7399,"à¾¤à¾²à¾Ģ":7400,"à¼¡à¼¤à¼¨à¼©":7401,"232":7402,"242":7403,"à½ĳà½ĵà½¢":7404,"à½Ĥà½ĸà½Ļ":7405,"à½¢à½Ĥà½¡":7406,"à½¢à½Ĥà½¤":7407,"à½¢à½Ĥà½¦à½Ħ":7408,"à½Ķà½łà½ĩà½ĺ":7409,"à½Ĳà½ĸà½ĸ":7410,"à½ļà½ĵà½ĺ":7411,"à½ĵà½¦à½ĸà½Ł":7412,"à¾¡à¾±à½²à¼ĭ":7413,"à½£à½¦à½łà½Ĥ":7414,"à¾²à¼ĭà¼Ĳ":7415,"à½ĺà½Ľà½ĸ":7416,"à½¥à½ĺ":7417,"à½¥à½¡":7418,"à¼¡à¼§à¼¥à¼©":7419,"à¼¡à¼§à¼¥à¼¤":7420,"à½Ĥà½ĺà½£":7421,"à¼¡à¼¤à¼¢à¼¢":7422,"à¼¡à¼¥à¼§à¼§":7423,"à¼¡à¼¨à¼¦à¼£":7424,"à¼¡à¼¨à¼¨à¼¦":7425,"à½ĳà½£à½ĵ":7426,"à½ĵà½Ķà½łà½ĺ":7427,"à½Ķà½ĳà½Ķà½£":7428,"à½ļà½£à½¦":7429,"à½ĵà½¦à½Ĥà½ŀà½ĵ":7430,"à½£à½¦à½¢à½ĸ":7431,"à½ħà½ĵà½ı":7432,"à½ĩà½Ĥà½¦":7433,"à½ĺà½¢à½£":7434,"à½Ħà½ĵà½łà½Ĥ":7435,"à½ıà½ĵà½ĳ":7436,"Ġà¼¡à¼¦à¼©":7437,"à¼¡à¼§à¼¢à¼¥":7438,"Ġà½Ķà½Ĥà½¦":7439,"à¼¡à¼¤à¼©à¼©":7440,"à¼¡à¼¨à¼¦à¼¦":7441,"à¼¡à¼¦à¼¦à¼£":7442,"Ġà½ĵà½Ķ":7443,"Ġà½Ĥà½¡à½Ĥ":7444,"à¼ĭà½¾à¼į":7445,"à½ĸà½Ĩà½Ĥà½¦":7446,"à½ºà¼ĭà½¾":7447,"à½ºà¼ĭà¼ŀ":7448,"à½¡à½ģà½¦":7449,"à½ĳà½Ħà½ĺà½Ĩ":7450,"à½¤à½Ķà½ł":7451,"à½ĸà½¢à½ıà½£":7452,"à¾³à½´à¼įà¼ĭ":7453,"à½±à½´à½´à½¾à¼ĭ":7454,"à½£à½ĵà½Ĥà½ī":7455,"à¼¡à¼§à¼£à¼¢":7456,"à¼¡à¼§à¼©à¼¨":7457,"à¾µà¾¨à¼ĭ":7458,"à¼¡à¼¥à¼¨à¼©":7459,"à¼¡à¼¨à¼¦à¼§":7460,"253":7461,"à½Ĥà½łà½Ĩ":7462,"à½¢à½ĵà½ĳ":7463,"à½Ģà½Ĥà½¦":7464,"à½Ķà½¢à½Ĩà½Ĥà½¦":7465,"à½ĸà½¢à½łà½ĸ":7466,"à½łà½Ĥà½ı":7467,"à½ĸà½ŀà½ĸ":7468,"à½łà½ĸà½ı":7469,"à½£à½¦à½ĺà½Ľ":7470,"à½Ĥà½ıà½£":7471,"à½±à¼ĭà½º":7472,"à½Ŀà½Ľ":7473,"à¾¡à½´à¼ĭà¼į":7474,"Ġà½¢à½Ĥà½¦":7475,"à¼¡à¼§à¼§à¼¡":7476,"à¼¡à¼¤à¼¦à¼£":7477,"à¼¡à¼¥à¼¥à¼¤":7478,"245":7479,"254":7480,"258":7481,"à½¦à½ĺà½ģà½¦":7482,"à½¼à¼´à¼į":7483,"à½Ħà½ĸà½¤à½ĳ":7484,"à½²à¼ĭà¼įà¼ĭ":7485,"à½ļà½ĸà½ħ":7486,"à¾Ĳà¾Ĺà½º":7487,"à½ĳà½Ĥà½Ĥà½Ħ":7488,"à½Ķà½¦à½Ł":7489,"à½Ĥà½Ħà½£à½¦":7490,"à½ĸà½¦à½ĺà½¢":7491,"à½ĵà½ĺà½ĺà½ģ":7492,"à¼¡à¼§à¼¥à¼¢":7493,"à¼¡à¼£à¼©à¼©":7494,"à¼¡à¼¤à¼©à¼¤":7495,"à¼¡à¼¥à¼¦à¼§":7496,"à¼Ģà½¢à½ı":7497,"252":7498,"à½¦à½ĳà½Ģà½¢":7499,"à½ĳà½ĳà½Ĥà½ł":7500,"à½ĺà½Ĥà½¡à½¦":7501,"à½łà½Łà½Ħ":7502,"à½Ĩà½ħ":7503,"à½Ķà½łà½¦à½Ħà½¦":7504,"à½īà½£à½¦":7505,"à½ĳà½ĸà½Ĥà½¦":7506,"à½łà½ķà½Į":7507,"à½Ĥà½Ļà½¦":7508,"à½¥à½£":7509,"à¼¡à¼§à¼©à¼¦":7510,"à¾µà½±à½¾à¼ĭ":7511,"à¼¡à¼¤à¼¢à¼£":7512,"à¼¡à¼¤à¼£à¼§":7513,"à¼¡à¼¤à¼©à¼¡":7514,"à¼¡à¼¦à¼£à¼¦":7515,"à½ĵà½Ķà½ĳà½Ħ":7516,"à¼´à¼ĭ":7517,"244":7518,"à½¦à½Ĥà½ĵà½Ħ":7519,"à½ĸà½Ĥà½ıà½ĵ":7520,"à½ĸà½ĺà½ģà½¦":7521,"à¾±à¾Ĳà¾±à½º":7522,"à½łà½£à½ĺ":7523,"à½Ĳà½ĺà½Ĳà½ĺà½¦":7524,"à½Ķà½¦à½ĸà½ĳ":7525,"à½łà½ģà½Ħà½¦":7526,"à½Ĥà½Ħà½ĵà½¦":7527,"à½Ĥà½ĵà½¦à½Ĥ":7528,"à½ĳà½ĸà½Ħà½¢":7529,"à½ĺà½łà½Ĩ":7530,"à½Ĳà½ĸà½¦à½ĳà½Ħ":7531,"à½ŀà½£à½Ĥà½ħ":7532,"à¼¡à¼§à¼¢à¼¢":7533,"à¼¡à¼¨à¼§à¼©":7534,"à½ªà½Ĥ":7535,"à¾¡à½ºà¼įà¼ĭ":7536,"à½ĥà½¢":7537,"243":7538,"à½Ĥà½ĺà½īà½ĺ":7539,"à½ĸà½łà½ĳà½¦":7540,"à½ĸà½Ĥà½¦à½Ħ":7541,"à½Ķà½Ĥà½£":7542,"à½ºà¼ĭà½¼à¼ĭ":7543,"à½ĸà½¦à½¢à½Ħ":7544,"à½ĸà½ħà½łà½ĺ":7545,"à½¨à½Ķà½ł":7546,"à½§à½ķ":7547,"à½¦à½Ħà½¦à½¦":7548,"à½ĸà½Łà½Ħà½Ĥ":7549,"à¼©à¼£à¼¢":7550,"à¼¡à¼§à¼£à¼¨":7551,"à¼¡à¼§à¼¤à¼¢":7552,"à¼¡à¼¡à¼¨à¼£":7553,"à¼¡à¼£à¼©à¼¨":7554,"à½ĭà½ĭ":7555,"236":7556,"à½Ĥà½¦à½ĺà½¦":7557,"à½Ĥà½¦à½ĺà½ł":7558,"à½¡à½£à½Ĥ":7559,"à½ĸà½ĳà½Ĥà½¡":7560,"à¾Łà½ºà¼ĭà½²":7561,"à½īà½ĺà½¦à½Ķ":7562,"à½Ŀà½Ħà½¦":7563,"à¼¡à¼§à¼£à¼¤":7564,"à½ĺà½ĵà½ĵà½ĵà½¦":7565,"à¼¡à¼¤à¼¥à¼¥":7566,"à¼¡à¼¤à¼©à¼¦":7567,"à¼¡à¼¥à¼¡à¼¢":7568,"à¼¡à¼¨à¼§à¼¡":7569,"à¼¡à¼¦à¼¤à¼£":7570,"Ġà¼¢à¼¡à¼¨":7571,"à¾Ľà½²à¼į":7572,"à¾¦à¾·à¾°à¼ĭ":7573,"à½Ĵà½ĵà½¥":7574,"à½¢à½Ģà½¢":7575,"à½Ģà½ĵà½ł":7576,"à½Ķà½łà½ĸà½ł":7577,"à¾Ĵà¾±à¼µà¼ĭ":7578,"à½ĵà½¦à½Ĥà½ĵà½¦":7579,"à½Łà½Ĥà½¢":7580,"à¾±à½¼à½¼":7581,"à½£à½ĺà½łà½ĳ":7582,"à½¦à½ĺà½ŀ":7583,"à¼¡à¼§à¼¡à¼¦":7584,"à¼¡à¼¤à¼¦à¼¨":7585,"à¼¡à¼¥à¼¢à¼¥":7586,"240":7587,"267":7588,"Ġà½Ĥà½ł":7589,"Ġà½ĸà½Ģà½Ĥ":7590,"Ġà½¤à½ĵ":7591,"à¼ĭà¾£à¼ĭ":7592,"à½ĺà½Ķà½£":7593,"à½Ķà½ĺà½¢":7594,"à½Ķà½Ļà½ĵ":7595,"à½ĳà½Ħà½łà½ĩ":7596,"à½ķà½¤":7597,"à¾Ĵà¾±à¼įà¼ĭ":7598,"à½ĸà½łà½ķà½Ĥà½¦":7599,"à½ĳà½ĸà½Ļ":7600,"à½Ĭà½Ļ":7601,"à¼¡à¼¦à¼¤à¼§":7602,"à¾Ľà½¼à¼ĭ":7603,"à¾¡à¾·à½¼à¼į":7604,"251":7605,"à½¢à½Ĳà½¢":7606,"à½ĵà½īà½ĵ":7607,"à½ĺà½¦à½ķ":7608,"à½¤à½Ł":7609,"à½ĳà½Ĥà½£à½ĺ":7610,"à¾¡à¾±à¼ĭ":7611,"à½łà½Ĥà½łà½Ħ":7612,"à¾©à¾¡à½¼":7613,"à½ħà½ĵà½łà½ĳ":7614,"à¾Ĳà½´à½´":7615,"à½ĺà½Ĳà½łà½£":7616,"à½ĵà½ĳà½£":7617,"à½ķà½Ĭà½¢":7618,"à¼¡à¼§à¼¥à¼¨":7619,"à¼¡à¼¤à¼¥à¼¦":7620,"à¼¡à¼¤à¼§à¼©":7621,"à¼¡à¼¨à¼¦à¼¤":7622,"à¼¡à¼¦à¼¦à¼§":7623,"247":7624,"âĪ":7625,"Ġà½ģà½ł":7626,"à¼ĭà¾Ĵ":7627,"à½¢à½ĳà½¦":7628,"à½Ģà½ķ":7629,"à½Ĳà½ħ":7630,"à½ĺà½¦à½Ĳ":7631,"à½Ķà½¢à½Ĥà½¡":7632,"à½Łà½ĳà½Ĥ":7633,"à½Ļà½¥":7634,"à½Ļà½ĺà½¢":7635,"à½ĺà½Ĥà½Ĥ":7636,"à½£à½ĵà½¢":7637,"à½ĳà½Ĥà½Ĥà½ĸ":7638,"à½¥à½Ħ":7639,"à¼¡à¼¦à¼£à¼¥":7640,"à¼¡à¼¦à¼¨à¼§":7641,"à¾ªà½²à½¾à¼ĭ":7642,"âĪ¶":7643,"Ġà½Ķà½łà½Ħ":7644,"à½¦à½ĸà½£":7645,"à½Ħà½ĸà½£":7646,"à½ĺà½ĸà½¦à½ĺ":7647,"à½Ķà½Łà½ĸ":7648,"à½Ĥà½¦à½ĵà½ĳ":7649,"à¾²à½¼à½¼à¼ĭ":7650,"à½Ĥà½ıà½¦":7651,"à½±à½´à¼ĭà¼į":7652,"à¾²à½±à½²à¼ĭà¼į":7653,"à¼¡à¼¤à¼¦à¼§":7654,"à¼¡à¼¤à¼¨à¼¥":7655,"à¼¡à¼¨à¼¤à¼¦":7656,"256":7657,"à¼ŀà¼ŀà¼ŀ":7658,"Ġà½ķà½ĺ":7659,"à¾¸":7660,"à½¦à½ĸà½Łà½Ħ":7661,"à½Ĥà½ĺà½ģà½ł":7662,"à¾±à¼µà¼ĭ":7663,"à½ħà½ĳà½Ĥà½ħ":7664,"à½łà½ĳà½ŀ":7665,"à½ĸà½¢à½ĺà½Ľ":7666,"à½ĸà½Łà½ĳà½Ķ":7667,"à½ĵà½ĺà½Ħà½¦":7668,"à½ĳà½Ģà½łà½ĺ":7669,"à½ĳà½Ģà½łà½ŀ":7670,"à¼¡à¼¤à¼¤à¼¢":7671,"à¼¡à¼¥à¼£à¼£":7672,"à¼¡à¼¦à¼¤à¼¦":7673,"Ġà½ģà½Ĥ":7674,"Ġà½Łà½Ħ":7675,"à½ĳà½ļà½ĳ":7676,"à½¢à½ĸà½ŀà½Ĥ":7677,"à½Ħà½ĸà½ħà½¦":7678,"à½ĺà½¡à½ĵ":7679,"à½¼à¼ĭà½¾à¼į":7680,"à½ĺà½¦à½¢à½Ħ":7681,"à½īà½Ĥà½¦":7682,"à½Łà½«":7683,"à½ĳà½ĸà½Łà½Ħ":7684,"à½ħà½ĳà½ł":7685,"à½Ĥà½ĳà½Ķà½ł":7686,"à½ĺà½ģà½¦à½Ķà½ł":7687,"à½łà½ĺà½£":7688,"à½ĸà½ĸà½Ħ":7689,"à¼¡à¼§à¼¤à¼¦":7690,"à¼¡à¼§à¼¤à¼©":7691,"à¼¡à¼¤à¼¦à¼¤":7692,"à½¦à½ģà½ĺà½¦":7693,"à½Ħà½Ŀ":7694,"à½ĺà½£à½Ĥ":7695,"à½Ķà½Ĥà½ĵ":7696,"à½ĳà½Ħà½Ĥà½Ħ":7697,"à½Ĥà½Ħà½Ħ":7698,"à½ĸà½ĳà½Ĥà½ł":7699,"à½Ĥà½Ļà½ĸà½¦":7700,"à½Ĩà½ĳà½Ķà½¢":7701,"à½£à½ĵà½ĺà½Ħ":7702,"à½Ĳà½£à½ĸà½¢":7703,"à¾Łà½´à½¾à¼ĭ":7704,"à½Łà½¦à½Ģ":7705,"Ġà¼¡à¼¨à¼¡":7706,"à¼¡à¼§à¼¤à¼¨":7707,"à¼¡à¼¦à¼£à¼¡":7708,"à¾¡à¾·à½¾":7709,"à½ĳà½Łà½¦":7710,"à½¢à½ļà½ĳ":7711,"à¾Łà¾±à½±à¼ĭ":7712,"à¾±à½²à½º":7713,"à¾Ĳà¾Ĳà¼ĭ":7714,"à½Ħà½¦à½ĺà½¦":7715,"à½Ľà½¡à½ĵ":7716,"à½Ĥà½Ļà½£":7717,"à½ķà½£à½Ĳ":7718,"à¼¡à¼¨à¼¢à¼£":7719,"à¼¡à¼¨à¼©à¼¤":7720,"à¾ļà½¼":7721,"Ġà½łà½ĸà½ĸ":7722,"à½¦à½ĺà½ĵà½ĵ":7723,"à½ĸà½īà½ĵ":7724,"à½£à½Ħà½ĵ":7725,"à½ĺà½¦à½¦à½ĺ":7726,"à½ĵà½¦à½ĳà½ĸ":7727,"à¾¡à¾²à½ºà¼ĭ":7728,"à½£à½¦à½¡à½Ħ":7729,"à½ĺà½Ĳà½łà½¢":7730,"à¾ķà½´à¼ĭ":7731,"à¼¡à¼¤à¼©à¼¥":7732,"à¼¡à¼¨à¼©à¼¦":7733,"à¼¡à¼¦à¼§à¼¦":7734,"Ġà¼¢à¼¡à¼§":7735,"à½Ķà½£à½Ĥ":7736,"à½Ĩà½ĺà½Ĳ":7737,"à½ļà½Ļ":7738,"à½£à½ĺà½ŀ":7739,"à¾ľà½±à½´à¼ĭ":7740,"à¼¡à¼¤à¼¨à¼¦":7741,"à¼¡à¼¥à¼¢à¼©":7742,"à¼¡à¼¥à¼¦à¼¨":7743,"à¼¡à¼¨à¼¨à¼¢":7744,"Ġà¼¢à¼¤à¼¢":7745,"Ġà¼´à¼´":7746,"Ġà½łà½Ĳà½ĳ":7747,"à½¦à½ŀà½ĵ":7748,"à½¼à½±à½¾à¼ĭ":7749,"à½ģà½£à½¦":7750,"à¾Ĵà¾±à¼µ":7751,"à½Ķà½¦à½ĺà½Ĳ":7752,"à½ĳà½ĺà½ĸ":7753,"à½ĸà½ĳà½Ģà½¢":7754,"à½ĳà½Ķà½£à½Ĩ":7755,"à½Ĳà½£à½łà½ĳ":7756,"Ġà¼¡à¼¨à¼¤":7757,"à¼¡à¼§à¼¨à¼¦":7758,"à½¡à½Ħà½¦à½¦":7759,"à¾·à¾²à½±à½´à½¾à¼į":7760,"246":7761,"263":7762,"à¼ĭà¾Ķ":7763,"à½Ĥà½ĺà½ģ":7764,"à½Ĥà½ļà½ĵ":7765,"à½Ķà½Į":7766,"à½ħà½¡":7767,"à¾Ļà½¼à¼ĭà¼į":7768,"à½ĸà½ĳà½Ĥà½ĸ":7769,"à½łà½Ĩà½ĳà½ĳ":7770,"à½£à½Ĥà½¦à½ĳ":7771,"à½ĳà½¢à½ĺ":7772,"à½ĸà½Ľà½Ģ":7773,"à½Įà½ļ":7774,"à¼¡à¼§à¼£à¼¥":7775,"à¼¡à¼¤à¼¥à¼§":7776,"à¼¡à¼¤à¼©à¼§":7777,"à¼¡à¼¥à¼¢à¼¡":7778,"à¼¡à¼¨à¼¢à¼§":7779,"259":7780,"à¼Ŀà¼Ŀà¼Ŀ":7781,"Ġà½ħà½Ħ":7782,"à½¦à½Ĩà½Ĥà½¦":7783,"à½ĸà½¡à½ĵ":7784,"à½¼à½²à¼ĭ":7785,"à½Ĥà½¦à½¡à½Ħ":7786,"à½Ĥà½¦à½ª":7787,"à½¡à½£à½¦":7788,"à½Ĩà½ĺà½īà½ĺ":7789,"à½¤à½ī":7790,"à½ĵà½¦à½£à½¦":7791,"à½¡à½Ħà½ĺà½Ħ":7792,"à½Ķà½¦à½ı":7793,"à½ħà½ĳà½łà½ĳ":7794,"à½Ĥà½ıà½ĵà½ĵ":7795,"Ġà½Ķà½ī":7796,"à¼¡à¼¥à¼£à¼¦":7797,"à¼¡à¼¥à¼£à¼§":7798,"à¼£à¼¨à¼¦à¼¢":7799,"à½©à½ĺ":7800,"250":7801,"281":7802,"à½Ħà½¤à½¦":7803,"à½£à½Ĳà½ĸà½¦":7804,"à½Ķà½¢à½ı":7805,"à½Ķà½¢à½ĳà½Ĥà½ł":7806,"à½ĵà½¦à½ĺà½Ħ":7807,"à¾¡à½±à½²à¼ĭ":7808,"à½Ļà½ħ":7809,"à½Ĥà½ĵà½¦à½ı":7810,"à½ĺà½ģà½ĺà½¦":7811,"à½ĸà½Ĥà½Ħà½¦":7812,"à½ĳà½Ģà½¢à½ĺ":7813,"à½Ķà½łà½Ħà½ĺ":7814,"Ġà¼¡à¼©à¼¡":7815,"à¼¡à¼§à¼¨à¼¡":7816,"à¾¤à¾²à½¼à¼ĭà¼į":7817,"à¼¡à¼¨à¼¨à¼£":7818,"à½ĭà½ĺ":7819,"à¾ºà½±":7820,"270":7821,"à½¦à½ĵà½Ĥ":7822,"à½¦à½ŀà½£":7823,"à½¦à½Łà½ĸ":7824,"à½ĵà½ĸà½Ļ":7825,"à½ĵà½ĵà½ĺà½¦":7826,"à½Ħà½łà½ķ":7827,"à½Ķà½ħà½ĳ":7828,"à½Ķà½Ħà½Ĥ":7829,"à¾²à¾¡à½¼à¼ĭ":7830,"à½Łà½¡":7831,"à¾±à½ºà¼ĭà½²":7832,"à½İà½¥":7833,"à¼©à¼¤à¼¢":7834,"à½¤à½¢à½ĵ":7835,"à½ĸà½ĵà½ĸà½¦":7836,"à¼¡à¼¤à¼¥à¼©":7837,"à¼¡à¼¥à¼©à¼¦":7838,"Ġà¼¢à¼¡à¼£":7839,"249":7840,"Ġà½łà½Ĥà½Ĥà½¦":7841,"à½¦à½¥":7842,"à½ĵà½¢à½£":7843,"à½£à½£à½¢":7844,"à½ĳà½Ħà½łà½Ĥ":7845,"à½ħà½ı":7846,"à½Ķà½¢à½łà½ļà½£":7847,"à½ĺà½Ĳà½łà½Ĥà½ī":7848,"à½Ĭà½Ħ":7849,"à½£à½Ĥà½¦à½ŀ":7850,"à½ĳà½¢à½¦":7851,"Ġà¼¡à¼¨à¼¨":7852,"Ġà½£à½ĸ":7853,"à¼¡à¼¥à¼¡à¼©":7854,"à¼¡à¼¨à¼¥à¼¨":7855,"à¼¡à¼¦à¼§à¼¤":7856,"264":7857,"à½ºà¾ĥà¼ĭ":7858,"à¾²à¼´":7859,"à½¡à½ĳà½ĵ":7860,"à½Ķà½łà½ĺà½¢":7861,"à½ĸà½¢à½ĺà½Ĳ":7862,"à½¡à½Ħà½ħ":7863,"à½łà½ĩà½łà½ļ":7864,"à½Ĥà½ĵà½¦à½ĺà½£":7865,"à½īà½ĺà½¦à½ĺ":7866,"à½Ĥà½¡à½¦à½¦":7867,"à¾¦à¼ĭà¼´":7868,"à¾ľà¾·à¼ĭ":7869,"Ġà¼¡à¼§à¼£":7870,"à¼¡à¼§à¼¥à¼¥":7871,"à¼¡à¼§à¼©à¼¥":7872,"à¼¡à¼§à¼¨à¼§":7873,"à¼¡à¼¤à¼¨à¼¢":7874,"à¼¡à¼¥à¼©à¼¥":7875,"à¼¡à¼¨à¼£à¼¨":7876,"à¼¡à¼¨à¼§à¼£":7877,"à¼¡à¼¨à¼¨à¼§":7878,"à½Ħà½Ģà½ł":7879,"à½ĺà½ŀà½ĵ":7880,"à½ĳà½Ĥà½ĺà½Ħ":7881,"à½ĸà½¢à½łà½ĩ":7882,"à½Ħà½¦à½ī":7883,"à½Ļà½ĵà½ĳà½ĵ":7884,"à½ĳà½Ĥà½łà½ĸà½¦":7885,"à½ĺà½Ĳà½¢à½ĺ":7886,"à½Ŀà½Ŀ":7887,"à½Łà½¦à½ĺ":7888,"à¼¡à¼§à¼§à¼¦":7889,"à¼¡à¼¦à¼¡à¼¡":7890,"à¼¡à¼¦à¼§à¼§":7891,"à¼¡à¼¦à¼§à¼¢":7892,"à¼¡à¼¦à¼©à¼¥":7893,"Ġà¼¢à¼¦à¼¦":7894,"Ġà¼Ĳà¼Ĳ":7895,"260":7896,"266":7897,"268":7898,"à¼ĭà¾²à½²":7899,"à½Ĥà½ª":7900,"à½£à½ļà½Ħà½¦":7901,"à½£à½Ĭà½ł":7902,"à½Ģà½łà½Ĥ":7903,"à¾Ļà½¾":7904,"à½łà½Ľà½ĺà½¦":7905,"à½¨à½Ĭà½ł":7906,"à½ĸà½¤à½ĳà½Ķà½¦":7907,"à¾¤à¾±à¼į":7908,"à½ĺà½Ĳà½¢à½ķ":7909,"à½ĵà½ĵà½ıà½ĵ":7910,"à½ĸà½ĸà½¦à½£":7911,"à½Įà½¥":7912,"à¼¡à¼§à¼§à¼¥":7913,"à¼¡à¼£à¼¨à¼¤":7914,"à¼¡à¼¥à¼¤à¼¥":7915,"255":7916,"Ġà½¤à½¦":7917,"Ġà½ĵà½¢":7918,"à½Ĥà½ļà½Ħ":7919,"à¾±à¾¡à½º":7920,"à¾±à¼µà½²à¼ĭ":7921,"à½Ķà½Ĥà½Ļ":7922,"à½ºà¼ĭà¼ı":7923,"à½Ģà½ĺà½¦":7924,"à½ŀà½ĳà½Ħ":7925,"à½Ĳà½Ĥà½¢":7926,"à½ĸà½¢à½Ķ":7927,"à½£à½¦à½ĸà½ħ":7928,"à¾¦à¾¦":7929,"à½łà½ĳà½¦à½ŀ":7930,"Ġà¼¡à¼¨à¼¥":7931,"à¼¡à¼§à¼£à¼©":7932,"à¼¡à¼¤à¼¨à¼¨":7933,"à¼¡à¼¥à¼§à¼¢":7934,"à¼¡à¼¥à¼©à¼¤":7935,"à¼¡à¼¨à¼¡à¼¥":7936,"à¼¡à¼¨à¼¤à¼¢":7937,"à¼¡à¼¨à¼¨à¼¥":7938,"Ġà¼¢à¼¦à¼¢":7939,"à¾łà½´à¼ĭ":7940,"à¼ŀà¼ĭ":7941,"à¼ĭà½¼à¼ĭà½º":7942,"269":7943,"à½¦à½ŀà½ĸà½¦":7944,"à½ĵà½ĸà½ħà½¦":7945,"à½´à¾ĥà¼į":7946,"à½²à¼ĭà¼Ŀ":7947,"à½ħà½Ĥà½ĵ":7948,"à½īà½ı":7949,"à¾£à¼µ":7950,"à½¡à½Ħà½ģ":7951,"à½Ķà½¦à½ĺà½¦":7952,"à½Ķà½¦à½Ĥà½Ł":7953,"à¾Ĳà¾±à½ºà¼įà¼ĭ":7954,"à½ĺà½Ĩà½ĸ":7955,"à½§à½Ĥà½¦":7956,"à½łà½ĳà½¦à½ĸ":7957,"à½Ĩà½Ĥà½¦à½ĵ":7958,"à½Ĥà½¢à½£":7959,"à½ĳà½Ĥà½Ĥà½ĳà½Ħ":7960,"à½Įà½Ķ":7961,"à½¦à½¦à½ĵ":7962,"261":7963,"à¾Ĵà¾·à¾ĥà¼ĭ":7964,"Ġà½łà½Ĳà½ĸ":7965,"à½ĳà½ĵà½łà½Ħ":7966,"à½Ħà½Ģà½¢":7967,"à½£à½ĺà½ģà½ł":7968,"à¾²à¼µ":7969,"à¾Łà¾Ńà¼į":7970,"à½ļà½ķ":7971,"à½ĸà½¢à½Ĩ":7972,"à½ĸà½łà½Ĥà½ł":7973,"à½ĺà½Ħà½łà½ĺ":7974,"à½¢à½ĸà½Ļ":7975,"à½ĺà½ģà½łà½¦":7976,"à¼¡à¼¦à¼©à¼¢":7977,"½¶":7978,"à½¶":7979,"à½Ĥà½ĸà½ħà½¦":7980,"à½ĵà½ĳà½Ķà½ł":7981,"à½ĵà½łà½ĩà½ĺ":7982,"à½Ħà½¤à½¢":7983,"à½ĺà½ħà½ĳ":7984,"à¾³à¼įà¼ĭ":7985,"à½Ļà½ģ":7986,"à½Ĥà½Ħà½£à½Ĥà½¦":7987,"à½ĺà½ģà½Ħ":7988,"à½§à½¤":7989,"à½ĺà½Ľà½ĳà½Ħ":7990,"à½£à½ĺà½Ģ":7991,"à½Ĳà½£à½£":7992,"à½ĳà½Ĥà½Ĥà½¢à½Ħ":7993,"à¼¡à¼§à¼¢à¼¦":7994,"à¼¡à¼¥à¼¢à¼¢":7995,"à¼¡à¼¦à¼¥à¼¡":7996,"Â¨":7997,"à½Ĥà½ĳà½ĺà½Ĥ":7998,"à½¢à½ĳà½Ģà½¢":7999,"à½Ĥà½¦à½ĳà½ĸà½Ħ":8000,"à½¡à½łà½ĳ":8001,"à½¡à½ĸà½Ģ":8002,"à½ĺà½¦à½ĸà½ŀ":8003,"à½Ķà½¢à½łà½ģ":8004,"à½ĺà½¢à½¢":8005,"à½ĳà½¢à½ĳ":8006,"à½łà½ĩà½ĺà½ĺà½Ĥ":8007,"à¼¡à¼§à¼©à¼©":8008,"à¼¡à¼¥à¼£à¼¨":8009,"à¼¡à¼¥à¼¤à¼¨":8010,"à¼¡à¼¥à¼¥à¼¢":8011,"à¼¡à¼¥à¼©à¼¢":8012,"à¼¡à¼¨à¼¤à¼¥":8013,"Ġà¼¢à¼¢à¼¨":8014,"257":8015,"280":8016,"Ġà½ĭ":8017,"à½ĳà½¦à½¢":8018,"à½Ĥà½ķà½ĵ":8019,"à½ĵà½łà½Ĥà½£":8020,"à¾Łà¾¡à½º":8021,"à½Ĩà½ģ":8022,"à½Ĩà½Ĥà½¤":8023,"à½ļà½Ĩ":8024,"à½£à½¦à½łà½ģ":8025,"à½£à½¦à½łà½ĳà½ł":8026,"à½Ĥà½ĵà½¦à½¡":8027,"à½ĵà½ĺà½¡à½Ħ":8028,"à½ĵà½ĳà½ł":8029,"à½ĵà½ĵà½ł":8030,"Ġà¼¡à¼©à¼£":8031,"à½ĸà½ĵà½ĸ":8032,"à½ĵà½Ĥà½¦à½ļà½£":8033,"à¼¡à¼¦à¼£à¼£":8034,"271":8035,"287":8036,"Ġà½ĺà½ĳà½Ħà½¦":8037,"à½ĳà½Ħà½ĸà½ŀ":8038,"à½ļà½ŀ":8039,"à½ĳà½Ĥà½ĳà½Ĥ":8040,"à½ĳà½Ĥà½¢à½Ħ":8041,"à½Ħà½¦à½¡à½Ħ":8042,"à½¡à½Ħà½¢à½Ħ":8043,"à½¨à½Ł":8044,"à½ĵà½ĺà½ĸ":8045,"à¼¡à¼¥à¼¡à¼£":8046,"à¼¡à¼¥à¼¨à¼¨":8047,"à¼¡à¼¨à¼¤à¼¡":8048,"à¼¡à¼¦à¼£à¼§":8049,"à¼¡à¼¦à¼¥à¼¨":8050,"Ġà¼¢à¼£à¼¤":8051,"à¾ŀà¼ĭà¼į":8052,"262":8053,"à¾·à¾²à¼ĭà½µà¾ĥà¼ĭ":8054,"à½łà½Ļà½ĺ":8055,"Ġà½łà½ĳà½ĺ":8056,"à¼ĭà¾Ģ":8057,"à½ĳà½Ĭ":8058,"à½Ķà½ĺà½ģà½¦":8059,"à¾Ĵà¼ĭà¼į":8060,"à½ĵà½¦à½Ĥà½Ħ":8061,"à½ĳà½ĺà½ĸà½ħà½ł":8062,"à½¨à½ĳà½Ģà½¢":8063,"à½ħà½ĳà½ħ":8064,"à¾«à¾«à¼ĭ":8065,"à½Ĥà½Ļà½¢":8066,"à¼¡à¼¥à¼¤à¼¡":8067,"à¼¡à¼¨à¼¨à¼©":8068,"à¼¡à¼¦à¼¤à¼©":8069,"à¼£à¼¨à¼¦à¼¡":8070,"à½ĭà½£à½¦":8071,"Ãĵ":8072,"à½Ĥà½ģà½Ħ":8073,"à½ĸà½ĸà½Ļ":8074,"à½ĸà½Ķà½ĳ":8075,"à½Ħà½ĺà½ļà½ĵ":8076,"à½Ķà½łà½Ĩà½¢":8077,"à½¤à½ĵà½¦":8078,"à½łà½Ĥà½łà½ĺ":8079,"à½£à½¦à½ĸà½ĳ":8080,"à¾²à½²à½²":8081,"à½ĸà½¦à½ĺà½Ķà½ł":8082,"à½Ħà½ĵà½ĺà½¦":8083,"à½ĺà½ģà½¦à½Ķà½¦":8084,"à¼¡à¼§à¼¡à¼¥":8085,"à¼¡à¼§à¼¦à¼©":8086,"à½łà½Ĥà½Ĥà½Ķ":8087,"à¼¡à¼¨à¼¡à¼©":8088,"à¼¡à¼¦à¼¥à¼¥":8089,"à½Ĵà½ħ":8090,"Ġà½¨à½ĵ":8091,"à¼©à¼§à¼¦à¼¥":8092,"265":8093,"à¾¨à¾¼à¾»à½´à½¾à¼ĭ":8094,"à½¢à½Ĳà½£":8095,"à½£à½ĳà½Ģà½¢":8096,"à½ºà¼ĭà½ºà¼ĭà½º":8097,"à½Ĳà½łà½ĺ":8098,"à½Ĳà½ĸà½ĺ":8099,"à½īà½ĺà½Ħ":8100,"à¾¡à½¾à¼ĭ":8101,"à½īà½ĵà½¢à½Ħ":8102,"à¼¡à¼§à¼¥à¼¦":8103,"à¼¡à¼§à¼¦à¼¡":8104,"à¼¡à¼£à¼©à¼¤":8105,"à¼¡à¼¨à¼£à¼§":8106,"à¼¡à¼¦à¼¦à¼¡":8107,"à½Ĺà½ģà½Ł":8108,"à¾·à½±à½´à¼į":8109,"Ġà½ĸà½Ļà½£":8110,"à¼ĭà¾Ĳà¼ĭ":8111,"à½¦à½Ĥà½£":8112,"à½ĵà½ħà½ĳ":8113,"à½´à½ºà¼ĭ":8114,"à½ĺà½Ĥà½ŀà½Ĥ":8115,"à½Ķà½Ĥà½¤":8116,"à½Ķà½¤à½¢":8117,"à½£à½ģà½ĺà½¦":8118,"à½£à½Ĥà½ħà½ĵ":8119,"à½Ģà½£à½¦":8120,"à½Ķà½¦à½¢à½ĸ":8121,"à½Ļà½ī":8122,"à¼¡à¼§à¼£à¼¦":8123,"à¼¡à¼§à¼¥à¼£":8124,"à¼¡à¼¨à¼¥à¼¤":8125,"à¼¡à¼¦à¼¢à¼¦":8126,"à¼¡à¼¦à¼§à¼£":8127,"à¼ĭà½²à¼ĭà½¼":8128,"à½©à½Ģ":8129,"à½©à½ı":8130,"à¾°à½´à½¾à¼į":8131,"à½ģà½ģà½ģ":8132,"à½¦à½Ĥà½¤":8133,"à½Ĥà½«":8134,"à½Ķà½ļà½Ħà½¦":8135,"à½Ĥà½¦à½ĵà½ĺ":8136,"à¾Ĵà½±à¼į":8137,"à½Ķà½łà½ĺà½Ĩ":8138,"à½ĳà½Ħà½Ķà½ł":8139,"à½ĳà½Ħà½łà½Ĥà½£":8140,"à½Ĳà½ĵà½¦":8141,"à½ĺà½¦à½Ĥà½Ħ":8142,"à¾Łà½¼à½¼":8143,"à½Ļà½§":8144,"à½Ĥà½ĵà½¦à½ļ":8145,"à½ĸà½Łà½łà½ĸà½¢":8146,"à½Ĥà½ıà½ĵà½¦":8147,"à½£à½ĺà½¡":8148,"à¾²à½²à¼ĭà½²":8149,"à¾¤à¾±à¾Ģ":8150,"à½ŀà½ĸà½¦à½Ģ":8151,"à½łà½ĩà½ĺà½ĳà½ĸ":8152,"à½Įà½Ĩ":8153,"à¼¡à¼¦à¼¡à¼©":8154,"à¾¥à¼į":8155,"à¾ļà¾²à½±à¼ĭ":8156,"à¼ĭà¾¢à½´à¼ĭ":8157,"à½Ģà½¡à½Ħ":8158,"à½ĸà½¦à½Ĥà½ĵà½¦":8159,"à½ĸà½¦à½ĺà½Ĳà½ł":8160,"à½ħà½¤":8161,"à¾±à½´à½¾à¼ĭ":8162,"à½łà½ģà½ĺ":8163,"à¾Łà½ºà½º":8164,"à½Ľà½ĳà½Ĥ":8165,"à¾Ĺà½ºà¼´":8166,"à½£à½ĺà½¤":8167,"à½Ĩà½ĳà½ĵ":8168,"à¾¤à¾²à½ºà¼į":8169,"Ġà½Ķà½£":8170,"à¼ĭà¼»":8171,"à¼¡à¼¦à¼£à¼¤":8172,"273":8173,"à½¦à½ĸà½ħà½¦":8174,"à½Ĥà½ĺà½ĩ":8175,"à½¢à½ĺà½Ĳà½ł":8176,"à½¢à½¢à½¦":8177,"à½ĺà½ĸà½Ģ":8178,"à½łà½Ħà½Ĥ":8179,"à½ķà½¢à½£":8180,"à½Ķà½¢à½¢à½Ħ":8181,"à½Łà½¤":8182,"à¾¤à½±à½´à¼ĭ":8183,"à½¢à½Ħà½Ĥà½ŀà½ĵ":8184,"à½ĳà½Ķà½ī":8185,"à½¨à½ĵà½ĳ":8186,"à¾ľà¼ĭà¼į":8187,"à½ĵà½ĵà½łà½Ħ":8188,"à¼¡à¼§à¼§à¼£":8189,"à¼¡à¼¤à¼§à¼¡":8190,"à¼¡à¼¥à¼¦à¼©":8191,"à¼¡à¼¦à¼¨à¼¨":8192,"à¼¡à¼¦à¼¨à¼¥":8193,"à¾ļà½ºà¼į":8194,"à¾·à¾²à½µà½¾à¼ĭ":8195,"Ġà¼¢à¼¢à¼¦":8196,"à½Ĥà½łà½Ĳ":8197,"à½Ĥà½ĺà½ļà½ĺà½¦":8198,"à½¢à½ĳà½ĳ":8199,"à½ĵà½Ĥà½¦à½ĵ":8200,"à½Ķà½ĸà½Ģà½ł":8201,"à½¡à½ıà½ł":8202,"à½Ļà½¨":8203,"à½łà½ģà½ĳ":8204,"à½Ĥà½ŀà½ĵà½ĵà½¦":8205,"à½ĸà½ħà½¦à½ĺ":8206,"à¾ķà½²à¼ĭà¼į":8207,"à½Ĭà½Ĥ":8208,"à½Ŀà½Ĭ":8209,"à½łà½ĺà½ħ":8210,"à¼¡à¼¥à¼§à¼¨":8211,"à¼¡à¼¥à¼¦à¼¡":8212,"Ġà¼£à¼¤à¼¥":8213,"à½Ĺà½Ŀ":8214,"à½Ĺà½Ĳà½Ħ":8215,"à¾łà½±à½²à¼ĭ":8216,"à½ĳà½ĺà½Ĳà½¢":8217,"à½ĸà½īà½ĺ":8218,"à½ĵà½ĺà½ģà½ĵ":8219,"à½Ħà½ĸà½Łà½Ħ":8220,"à½ŀà½£à½Ĥ":8221,"à½Łà½Ĥà½£":8222,"à½Ķà½¦à½Ĥà½Ħ":8223,"à¾²à½²à½¾à¼į":8224,"à½¢à½Ħà½ĺà½ļà½ĵ":8225,"à¾Ĺà½ºà¼ĭà¼´":8226,"à¾Ĺà½ºà½ºà¼ĭ":8227,"à½łà½ļà½£à½¦":8228,"à½ļà½ĳà½£":8229,"à½Ĥà½ĵà½Ħà½ĸ":8230,"à¼¡à¼§à¼©à¼¤":8231,"à¼¡à¼¤à¼¥à¼¨":8232,"à¼¡à¼¨à¼¥à¼§":8233,"à¼¡à¼¦à¼¢à¼¤":8234,"à¾łà½±à¼į":8235,"à¾±à½±à½ºà¼ĭ":8236,"à¾·à¾£à½¾à¼ĭ":8237,"274":8238,"à½¦à½ĺà½ģà½ĵ":8239,"à½Ĥà½łà½ĳà½¦":8240,"à½łà½ĺà½ĵ":8241,"à¾Łà¾±à½¼":8242,"à½ĳà½Ħà½łà½ģ":8243,"à½ĺà½¦à½Ĥà½¦":8244,"à½ıà½ħ":8245,"à½ĸà½¢à½Ģ":8246,"à¾¤à¾¡à½¼":8247,"à¾Ĺà¼į":8248,"à½ħà½ĳà½ļ":8249,"à½ĳà½Ģà½¢à½ĸ":8250,"à½ĺà½Ľà½ĳà½Ģ":8251,"à½İà½ŀ":8252,"à½Ĭà½ĸ":8253,"à½Ĥà½¡à½¦à½Ķ":8254,"à½Ĥà½ŀà½Ĥà½Ķà½¢":8255,"à½Ĥà½Ħà½¦à½¢":8256,"Ġà¼¡à¼¨à¼£":8257,"à¼¡à¼¦à¼¦à¼¤":8258,"275":8259,"276":8260,"Ġà½Ĥà½ıà½¢":8261,"à½Ĥà½ĸà½Łà½Ħ":8262,"à½¢à½ĺà½ĵ":8263,"à½Ħà½ĸà½Ģ":8264,"à½²à¼ĭà¼ı":8265,"à½£à½Ĥà½ĳà½ĺà½¦":8266,"à½ģà½łà½ĸ":8267,"à½ļà½¨":8268,"à½ĳà½Ĥà½łà½Ĥ":8269,"à½Łà½ħ":8270,"à½ĸà½ŀà½Ķ":8271,"à½ħà½ĳà½¦à½Ħà½¦":8272,"à¾Ĵà¾²à¼įà¼ĭ":8273,"à½ĵà½ĺà½¦à½ĺà½Ħ":8274,"à½ļà½ĵà½ĵ":8275,"à½Ĥà½ŀà½Ĥà½ĸ":8276,"à½ĸà½¦à½ĺà½¦à½ĺ":8277,"à¼¡à¼§à¼¤à¼¥":8278,"à¼¡à¼¥à¼§à¼£":8279,"à¼¡à¼¨à¼¤à¼©":8280,"à¼¡à¼¦à¼¢à¼¥":8281,"à½Ĺà½ĵà½Ł":8282,"à½Ķà½ĺà½¡":8283,"à½¦à½£à½Ĥ":8284,"à½Ķà½ĵà½Ĥ":8285,"à½Ķà½¡à½ĵ":8286,"à½Ķà½łà½Ĥà½ł":8287,"à½īà½¡":8288,"à½Łà½Ļà½¢":8289,"à¾±à¼ĭà½º":8290,"à¾Łà½ºà½ºà¼ĭ":8291,"à½Ľà½łà½ĺ":8292,"à½Ĳà½ĺà½¦à½¦":8293,"à½£à½ĺà½ĺà½Ĳ":8294,"à½ķà½ĵà½Ķà½¢":8295,"à½Ĭà½ı":8296,"à½ĸà½¦à½ĺà½¦à½Ķ":8297,"à¼¡à¼¨à¼¡à¼¡":8298,"279":8299,"à½¢à½łà½ĳà½¦":8300,"à½¡à½Ł":8301,"à½Ķà½łà½¤":8302,"à½ļà½Ķà½ł":8303,"à½ĺà½¦à½Ł":8304,"à½ĸà½ıà½¦":8305,"à½ĺà½Ĥà½Ļ":8306,"à½Ĩà½Ĥà½¦à½ŀ":8307,"à½Ĩà½Ĥà½¦à½Ķà½ł":8308,"à½Ĥà½¢à½ĺ":8309,"à¼¡à¼¤à¼¨à¼¤":8310,"277":8311,"286":8312,"Ãĥà½ĸ":8313,"à¿Ĭ":8314,"à¼ĭà¾Ĳ":8315,"à½ĳà½ŀà½ĵ":8316,"à½ĸà½ĸà½¤":8317,"à½ĸà½Ħà½Ħ":8318,"à½Ĥà½¦à½ŀà½¦":8319,"à½¡à½ļà½ĵ":8320,"à½ŀà½ļ":8321,"à½Ķà½¢à½ĳà½ĸ":8322,"à½Łà½¦à½¢":8323,"à½¡à½Ħà½ĸà½¢":8324,"à½±à½¼à½¾":8325,"à½ĺà½Ĳà½łà½ĳ":8326,"à½ħà½ĵà½Ĥà½ŀà½ĵ":8327,"à½¨à½łà½ĺ":8328,"à½ĸà½¤à½ĳà½Ĥ":8329,"à¾²à½²à¼ĭà¼´":8330,"à½ĸà½¦à½ĺà½ĵ":8331,"à½ĸà½Łà½Ħà½ĸ":8332,"à½Ĥà½ıà½ĵà½¢":8333,"à½łà½Ĳà½ĳà½Ķà½¢":8334,"à¼¡à¼§à¼¦à¼§":8335,"à½ĳà½£à½ĸ":8336,"à¼¡à¼¥à¼¡à¼¤":8337,"à¼¡à¼¥à¼©à¼©":8338,"à¼¡à¼¥à¼©à¼¡":8339,"à¼¡à¼¦à¼¦à¼¥":8340,"à½Ĵà½Ĺ":8341,"283":8342,"Ġà½Ĥà½¦à½¦":8343,"à½Ĥà½Ĥà½ĵà½ĺ":8344,"à½ĵà½ģà½Ħ":8345,"à½Ħà½ĸà½ĵ":8346,"à½łà½Ķà½¦":8347,"à½Ķà½ŀà½Ĥ":8348,"à¾Łà¾²à½²à¼į":8349,"à½ĳà½Ħà½ĳà½ĸ":8350,"à½Ĳà½ħà½ĳ":8351,"à½ļà½ª":8352,"à½¤à½Ļ":8353,"à½ĳà½Ĥà½¢à½ĸ":8354,"à½łà½Ħà½ĵ":8355,"à½łà½ļà½£à½ı":8356,"à½ĸà½ĸà½Ķ":8357,"à½Ĩà½Ĥà½Ģ":8358,"à¼¡à¼¨à¼¢à¼¢":8359,"à¼¡à¼¦à¼¡à¼¤":8360,"à½Ĵà½Łà½Ĳà½¥":8361,"à½Ĥà½¥à½¢":8362,"282":8363,"Ġà¼Ģà½¦":8364,"à½¦à½¨à½¢":8365,"à½¼à½´à¼ĭ":8366,"à½ĺà½ĸà½Ĥ":8367,"à½Ĩà½¤":8368,"à½¤à½İ":8369,"à½¡à½Ħà½ĩ":8370,"à½Ĥà½¦à½£à½ĵ":8371,"à½ĸà½¦à½ĺà½ŀ":8372,"à½ĺà½īà½ĺà½Ĥà½ŀà½Ĥ":8373,"à½łà½Ĥà½£à½ŀ":8374,"à¼¡à¼§à¼¦à¼¤":8375,"à¼¡à¼§à¼¨à¼¤":8376,"à¼¡à¼¥à¼£à¼¢":8377,"à¼¡à¼¨à¼¥à¼¡":8378,"à¼¡à¼¦à¼¥à¼¦":8379,"à¾ŀà½¼à¼ĭ":8380,"à½ĭà½Ĥ":8381,"à¾·à¾±à½±à½¾à¼į":8382,"à¾Łà¾Ńà¾ĥà¼į":8383,"à½Ĥà½¥à½Ħ":8384,"<à¼ĭ":8385,"à½¦à½ĳà½Ĥà½ł":8386,"à½²à½±à¼ĭ":8387,"à½ĳà½Ĥà½¦à½¢":8388,"à½ĵà½Ĥà½ıà½ĵ":8389,"à½ĺà½Ķà½ĳ":8390,"à¾±à½±à½²à¼ĭ":8391,"à½Ĩà½Ł":8392,"à½ĸà½¦à½Ĥà½Ħ":8393,"à½Ĳà½Ł":8394,"à½Ĳà½ĺà½ĳ":8395,"à½Ķà½¢à½ĳà½ĺ":8396,"à½Ĥà½ŀà½ĵà½Ħ":8397,"à½ĳà½ĺà½ģà½ł":8398,"à½ĸà½ĳà½ŀ":8399,"à½ĺà½Ħà½ĺ":8400,"à½Ĥà½ŀà½ĵà½ī":8401,"à½ĺà½łà½¦":8402,"à½īà½ĺà½¦à½£":8403,"à½Ħà½Ħà½£":8404,"à½ĸà½Ľà½ĺ":8405,"à½ĸà½¦à½ĺà½¦à½ĵ":8406,"à½£à½Ħà½¦à½ĵà½¦":8407,"à¼¡à¼¥à¼£à¼©":8408,"à¼¡à¼¨à¼¥à¼¢":8409,"à¼¡à¼¦à¼£à¼¢":8410,"à¼ĭà½Īà¾¡à½º":8411,"à½±à½´à½¾à½¼à¼ĭ":8412,"Ġà¼¢à¼¢à¼£":8413,"à¾µà¾¨à½±à½²":8414,"à¼ĭà¾©":8415,"à¼ĭà¾Ĺà½º":8416,"à½¦à½łà½Ĩ":8417,"à½Ĥà½¦à½ĳà½ĸ":8418,"à½Ĥà½¦à½Ķà½£":8419,"à½´à¼ĭà½ºà¼ĭ":8420,"à½¼à¼ĭà¼ŀ":8421,"à½Ģà½¢à½Ħ":8422,"à¾±à½²à¼ĭà¼ŀ":8423,"à¾£à½±à½¾à¼ĭ":8424,"à½£à½¦à½ĺà½¦":8425,"à¾¦à¾¦à½±à¼ĭ":8426,"à½¨à½Ģà½¢":8427,"à½ĺà½Ľà½Ĥ":8428,"à½Ķà½łà½ĺà½¡à½Ħ":8429,"à¼¡à¼¤à¼¨à¼£":8430,"à¼¡à¼¥à¼£à¼¥":8431,"à¼¡à¼¨à¼§à¼¢":8432,"Ġà¼¢à¼¡à¼©":8433,"Ġà¼¢à¼¦à¼©":8434,"à½¦à½Ĳà½ĸà½¦":8435,"à½Ħà½ĺà½Ĳà½ł":8436,"à½Ģà½ĳà½Ķà½£":8437,"à½ļà½ĳà½ĸ":8438,"à½łà½Ĥà½¡":8439,"à½ŀà½£à½Ĥà½¦":8440,"à½ĸà½£à½ĸ":8441,"à½¤à½¢à½ķ":8442,"à½łà½ļà½£à½ł":8443,"à½¢à½¦à½¦":8444,"Ġà½£à½Ħà½¦":8445,"à¼¡à¼¥à¼¥à¼¥":8446,"à¼¡à¼¥à¼§à¼¡":8447,"Ġà½Ĥà½¡à½ł":8448,"à¼ĭà½²à¼ĭà½²":8449,"à½¦à½ĵà½¢":8450,"à½²à¼ĭà½±à¼ĭ":8451,"à½¡à½ĸà½ŀ":8452,"à½ģà½¥":8453,"à½Ĳà½Ļ":8454,"à½ĵà½¦à½ĺà½ĳ":8455,"à½ĸà½ŀà½Ĥà½¡":8456,"à½£à½¦à½ĸà½ĳà½Ĥ":8457,"à½Ļà½ĵà½ĳ":8458,"à½ĳà½Ķà½łà½¤":8459,"à½Ĥà½ĳà½ĺà½¦à½Ķ":8460,"à½ķà½Ĭà½ķà½Ĭ":8461,"à¾²à¼įà¼ĭà¼į":8462,"à¼¡à¼¥à¼§à¼©":8463,"à¼¡à¼¨à¼¢à¼¥":8464,"à¼¡à¼¨à¼¤à¼¨":8465,"à¼¡à¼¨à¼¦à¼¨":8466,"à½±à½´à¾ĥà¼įà¼ĭ":8467,"à¼¢à¼¢à¼¢à¼¢":8468,"à¼¡à¼¦à¼§à¼¡":8469,"Ġà½Ģà½Ģ":8470,"à½ĳà½¦à½£":8471,"Ġà¼¢à¼¢à¼§":8472,"Ġà¼¢à¼¢à¼¤":8473,"à½ħà½ĳà½ĸà½ĳà½Ĥ":8474,"à½¦à½ļà½£":8475,"à½ĳà½łà½ļ":8476,"à½ĳà½īà½ĺà½¦":8477,"à½¢à½ıà½ĵ":8478,"à½ĵà½ķà½ĵ":8479,"à½Ĥà½¦à½łà½ĸ":8480,"à½´à¼ĭà½±à¼ĭ":8481,"à½¼à¼ĭà½´à¼ĭ":8482,"à½ĸà½¦à½Ģà½£":8483,"à¾±à½²à¼ĭÂ¶":8484,"à¾£à½²à¼į":8485,"à¾³à½¼à¼įà¼ĭ":8486,"à¾Ńà½ºà¼į":8487,"à½ĳà½Ķà½łà½ķ":8488,"à½ĸà½ŀà½Ĥà½¨":8489,"à½łà½Ĥà½łà½¡à½Ħ":8490,"à½Ĩà½¢à½¦":8491,"à¼¡à¼¥à¼¨à¼£":8492,"à¼¡à¼¦à¼¢à¼£":8493,"à¾²à½¼à¼įà¼ĭà¼į":8494,"à½©à½ŀ":8495,"à½ĳà½£à½Ĥà½¦":8496,"à½Ĥà½Ķà½İ":8497,"à½¢à½Ķà½ĳ":8498,"à½¢à½ĵà½ł":8499,"à½Ħà½ģà½ĺà½¦":8500,"à½£à½ĺà½ģà½ĵ":8501,"à½¡à½ĵà½ĺ":8502,"à½ĳà½Ħà½Ħà½Ĥ":8503,"à½ħà½Ĥà½£":8504,"à½ģà½Ģà½ł":8505,"à½ĺà½¦à½ĳà½Ĥ":8506,"à½ĸà½¢à½ĳà½Ħ":8507,"à¾±à½ºà¼µ":8508,"à½¡à½Ħà½ĺà½Ĳ":8509,"à½Ļà½Ĳ":8510,"à½ĳà½ĺà½ī":8511,"à½ĳà½Ķà½ĳà½Ħ":8512,"à½Ĥà½ĵà½¦à½Ķà½¦":8513,"à½ĺà½Ľà½ĳà½ĸà½¦":8514,"à½£à½Ĥà½ĸ":8515,"à½ģà½Ħà½ĵ":8516,"à½İà½§":8517,"à½Ĥà½£à½ĸ":8518,"à¾¤à¾±à½²à½²":8519,"à¼¡à¼§à¼£à¼¡":8520,"à¼¡à¼¥à¼¢à¼£":8521,"à¼¡à¼¥à¼§à¼¦":8522,"à¼¡à¼¨à¼£à¼¤":8523,"à¼¡à¼¨à¼©à¼¡":8524,"à¼¡à¼¦à¼©à¼£":8525,"à¼µà¼µà¼ĭ":8526,"Ġà¼¢à¼¢à¼©":8527,"272":8528,"296":8529,"à½Ĥà½¦à½ĵà½Ħ":8530,"à¾Łà¾²à½±à½²à¼į":8531,"à½ĳà½Ħà½Ĥà½ĵà½¦":8532,"à¾±à½²à¼ĭà½Īà¾±à½²":8533,"à½Ĳà½¦à½ĺ":8534,"à½Ķà½¦à½£à½¦":8535,"à½Ľà½Ĥà½¦":8536,"à½īà½ĺà½¦à½Ķà½¢":8537,"à½Łà½ĳà½¢":8538,"à½Ĥà½£à½Ĩ":8539,"à½ĸà½ħà½ĳà½ĵà½¦":8540,"à½ĵà½ĺà½¦à½¦":8541,"à½ģà½Ĥà½Ĥ":8542,"à¼¡à¼¥à¼¨à¼§":8543,"à¼¡à¼¦à¼¢à¼©":8544,"à¼¡à¼¦à¼¨à¼¦":8545,"285":8546,"288":8547,"à¾ĳà½±à¼ĭ":8548,"Ġà½ģà½£":8549,"à½¦à½¦à½Ħ":8550,"à½ĳà½¦à½ł":8551,"à½¢à½ĺà½īà½ĺ":8552,"à½Ħà½Ħà½ĵ":8553,"à½£à½Ħà½ł":8554,"à½´à¼ĭà½Īà½²":8555,"à½Ģà½Ķà½ł":8556,"à½ħà½Ķà½ł":8557,"à½£à½¦à½ĸà½ŀ":8558,"à½¡à½Ħà½łà½ĩ":8559,"à½Ķà½¦à½Ĥà½ĵà½¦":8560,"à½ĸà½ħà½ª":8561,"à½¢à½ĸà½Ľ":8562,"à½łà½ĳà½¦à½Ĩ":8563,"à½Ĥà½ıà½ĵà½ĸà½ŀ":8564,"à½ĸà½ıà½Ħà½ĸ":8565,"à¾ľà½¼":8566,"à¼¡à¼¥à¼¤à¼¤":8567,"à¼¡à¼¥à¼¨à¼¡":8568,"Ġà¼¢à¼¤à¼¤":8569,"Ġà¼¢à¼¤à¼¦":8570,"à¾ªà½±à¼ĭà¼į":8571,"293":8572,"Ġà½ħà½Ĥ":8573,"Ġà¼Ģ":8574,"à½ĺà½ĳà½ĺà½¢":8575,"à½£à½łà½ĳà½¦":8576,"à½Ĥà½¦à½ĺà½Ĳà½ł":8577,"à½ŀà½Ĳ":8578,"à½Ħà½¦à½ĳà½Ĥ":8579,"à½ĺà½Ĳà½Ħà½¦":8580,"à½ĸà½Łà½Ħà½£":8581,"à½Ĭà½§":8582,"à½£à½Ĥà½¦à½Ķ":8583,"à¼¡à¼¥à¼£à¼¡":8584,"à¼¡à¼¥à¼¥à¼£":8585,"à¼¡à¼¦à¼¥à¼©":8586,"Ġà¼¢à¼§à¼¢":8587,"à¼ĭà¼´à¼´à¼´":8588,"294":8589,"»¿":8590,"Â©":8591,"ï»¿":8592,"à½¦à½łà½ļ":8593,"à½¦à½łà½ĩà½ĺ":8594,"à½ĵà½Łà½ĸ":8595,"à½ĺà½ĺà½Ĳà½¢":8596,"à½¼à¼ĭÂ¶":8597,"à½Ķà½łà½ī":8598,"à½¤à½Ľ":8599,"à½Ķà½¦à½ĺà½Ľà½ĳ":8600,"à¾Ķà¾¡à½¼":8601,"à½Ļà½ĵà½ĵ":8602,"à½¨à½¦à½¦":8603,"à½ħà½ĳà½ĵà½¦":8604,"à½ĺà½Ľà½ĳà½Ĥ":8605,"à½ĺà½Ľà½ĳà½Ķà½¦":8606,"à½Ĩà½ĳà½£":8607,"à½łà½ļà½£à½ĸ":8608,"Ġà½¢à½¢":8609,"Ġà¼¡à¼¨à¼¦":8610,"à¼¡à¼¥à¼¦à¼£":8611,"Ġà¼¢à¼£à¼¦":8612,"à¼£à¼¨à¼¢à¼¤":8613,"297":8614,"à½Ħà½ĺà½Ľ":8615,"à½ºà¼ĭÂ¶":8616,"à½ĸà½¦à½ħà½ĵ":8617,"à¾±à½²à¼ĭà½´":8618,"à½ģà½Ĥà½ī":8619,"à¾±à½²à½¾à¼ĭ":8620,"à½ĵà½¦à½Ĥà½ī":8621,"à½£à½¦à½ħà½ĵ":8622,"à½£à½¦à½ĺà½Ĩ":8623,"à½ĳà½ĺà½ģà½ĵ":8624,"à½Ĥà½¦à½£à½ŀ":8625,"à¾¦à¾±à¼į":8626,"à¼¡à¼¤à¼¨à¼§":8627,"à¼¡à¼¥à¼§à¼¤":8628,"à¼¡à¼¨à¼¦à¼¡":8629,"à¼¢à¼¢à¼¢à¼¤":8630,"à¼¡à¼¦à¼¦à¼©":8631,"à¼¡à¼¦à¼¨à¼©":8632,"Ġà¼¢à¼¥à¼¥":8633,"à½Ĺà½Ģ":8634,"à¾´à½´à¼ĭ":8635,"Ġà½¼":8636,"à½¦à½¤à½¢":8637,"à½¢à½īà½ĺà½¦":8638,"à½ĵà½ļà½ĵ":8639,"à½´à½±à¼ĭ":8640,"à¾±à¾¤à¾±à½²":8641,"à½łà½ħà½¦":8642,"à½²à¼ĭà¼ī":8643,"à½Ĥà½¦à½Ĥà½ĵà½¦":8644,"à¾²à¾Ĺà½²":8645,"à½¼à¼ĭà½¾":8646,"à½Ĳà½ĳà½Ĥ":8647,"à½ĸà½¢à½ı":8648,"à½ĵà½¦à½¢à½ĸ":8649,"à½łà½ĸà½¤":8650,"à½Ĥà½ĵà½¦à½Ĥà½¦":8651,"à½¾à½¼":8652,"à½ĳà½Ķà½łà½ł":8653,"à½İà½¤":8654,"à½Ŀà½ī":8655,"à½ĸà½ĺà½ĺ":8656,"à¼¡à¼¨à¼¡à¼¤":8657,"Ġà¼¢à¼§à¼©":8658,"Ġà¼£à¼¢à¼¢":8659,"à¾¡à¾·à½±à½²à¼ĭ":8660,"à¼ĭà¾¢à½¼":8661,"278":8662,"284":8663,"Ãĥà½£":8664,"à½²à¼ĭà½²à¼ĭà½²à¼ĭ":8665,"à½¦à½Ĥà½ıà½ĵ":8666,"à½Ĥà½Ĳà½£":8667,"à½¢à½Ĥà½ĵ":8668,"à½ĵà½¡à½ĵ":8669,"à½ĵà½Ĳà½¢":8670,"à½ĺà½Ĥà½¤":8671,"à½łà½¢à½Ħ":8672,"à½¡à½ĳà½ĳ":8673,"à½ħà½ļ":8674,"à½ĺà½¦à½¨":8675,"à½Ķà½¢à½ĸà½Ł":8676,"à½ĵà½¦à½ĵà½ĺ":8677,"à½Ħà½¦à½ķ":8678,"à½Ħà½¦à½Ł":8679,"à½łà½ĸà½ĳà½Ķ":8680,"à¾Ļà¾±à½º":8681,"à½ĳà½Ķà½£à½ĺ":8682,"à¾Ĳà¾±à½ºà½º":8683,"à½łà½Ľà½ŀ":8684,"à½¨à½Ķà½¢":8685,"à½ĺà½ĳà½ħ":8686,"à¾¤à¾±à½¼à½¼":8687,"à½Ĩà½Ĥà½¦à½ĸ":8688,"à½ĺà½īà½ĺà½¢":8689,"à½Ŀà½Ĥà½¦":8690,"à½¦à½Ħà½¤":8691,"à¼¡à¼¨à¼¢à¼¨":8692,"à¼¡à¼¨à¼¤à¼¤":8693,"à¼¡à¼¨à¼£à¼¡":8694,"à¼¡à¼¨à¼§à¼¨":8695,"à½Ĳà½ĺà½¦à½ħà½ĳà½ĳà½Ħ":8696,"à¾²à½±à½²à½¾à¼į":8697,"289":8698,"à½Ģà½ĺà½£à½¤":8699,"à½¦à½ĳà½¢":8700,"à½¦à½łà½Ĩà½ĳ":8701,"à½Ĥà½Ĳà½¢":8702,"à½Ĥà½Ĥà½ıà½ĺ":8703,"à½Ĥà½¦à½ĺà½Ľà½ĳ":8704,"à¾²à¾Ĵà¾±":8705,"à½ļà½Ł":8706,"à½ĳà½Ĥà½Ĥà½£":8707,"à½£à½¦à½ĳà½ĸ":8708,"à¾©à½¾à¼į":8709,"à¾¦à½²à¼į":8710,"à½¨à½Ļà½¢":8711,"à¾Ķà¼ĭà½²":8712,"à½ĳà½Ģà½¢à½¦":8713,"à½ĳà½ĳà½ł":8714,"à½Ĭà½¡":8715,"à½ĸà½¦à½ĳà½¦":8716,"à¼¡à¼¥à¼¥à¼©":8717,"à¼¡à¼¨à¼¨à¼¤":8718,"à½¦à½¦à½ĺà½¦":8719,"à½Ĺà½Ĵ":8720,"à¾·à½ºà½ºà¼ĭ":8721,"à½©à½ł":8722,"Ġà½ĳà½Ķà½Ħ":8723,"Ġà½Ļà½Ģ":8724,"à½¢à½ĵà½Ĥ":8725,"à½´à½²à¼į":8726,"à½łà½łà½ĳà½¦":8727,"à½Ĥà½¦à½ĸà½ħà½ĳ":8728,"à½¡à½ĳà½ĸ":8729,"à½ŀà½¤":8730,"à¾Łà¾²à¾Ģ":8731,"à¾Łà¾²à½¾à¼ĭ":8732,"à½ķà½ĺà½ł":8733,"à½īà½Ķà½¢":8734,"à½¤à½ļ":8735,"à½£à½¦à½Ĳà½ĺà½¦":8736,"à½¡à½Ħà½ĺà½ĳ":8737,"à½Ķà½¦à½ĸà½ħ":8738,"à½¢à½Ħà½ĳà½Ħ":8739,"à½ĸà½ĳà½Ĥà½Ĩ":8740,"à½Ĥà½ŀà½ĵà½ĳà½ĸà½Ħ":8741,"à½ĳà½Ķà½łà½ī":8742,"à¾³à½²à½¾à¼ĭ":8743,"à½Ŀà½Ļ":8744,"à½Ĥà½ĳà½ĺà½¦à½Ħà½Ĥ":8745,"à¼¡à¼¥à¼£à¼¤":8746,"Ġà¼¢à¼£à¼©":8747,"Ġà¼¢à¼¤à¼¡":8748,"à½Ĺà½Ľ":8749,"à¼ĭà½ºà¼ĭà½ºà¼ĭà½º":8750,"à½¦à½łà½Ĥà½ł":8751,"à½ĳà½¦à½ĺ":8752,"à½Ĥà½ļà½Ħà½¦":8753,"à½¢à½£à½ĵ":8754,"à¾±à¾ĥà¼ĭ":8755,"à½łà½ĺà½Ĳ":8756,"à½£à½łà½ĩà½ĺ":8757,"à½Ĥà½¦à½ĸà½ĳ":8758,"à¾²à½±à½´à½¾à¼į":8759,"à½ŀà½Ķà½ł":8760,"à½Ĳà½ª":8761,"à½ĺà½¦à½ĸà½¢":8762,"à½Łà½łà½ĳ":8763,"à½¡à½Ħà½łà½ĸ":8764,"à½Ĳà½ĺà½¦à½ħà½ĵ":8765,"à¾Ĺà½ºà¼µà¼ĭ":8766,"à½ĸà½ħà½¦à½ĸ":8767,"à½łà½ĳà½¦à½Ĥ":8768,"à¾Ķà½¼à½¼":8769,"à½¡à½ĵà½ł":8770,"à½¦à½¢à½£":8771,"à½Ĭà½ĭ":8772,"à½ĳà½¢à½Ĥ":8773,"à½Ģà½¢à½İ":8774,"Ġà¼¢à¼¥à¼¢":8775,"Ġà¼¢à¼¨à¼¢":8776,"Ġà¼£à¼¡à¼¢":8777,"Ġà¼£à¼¡à¼¡":8778,"à½Ĵà½Ķ":8779,"à¼ĭà¾§à½²à¼ĭ":8780,"Ġà½Ĥà½¤à½ĺ":8781,"à½¦à½ĸà½Ļ":8782,"à½¦à½ģà½¦":8783,"à½¼à½²à¼į":8784,"à½Ķà½Ĩà½ĳ":8785,"à½ħà½Ķà½¢":8786,"à½ĳà½Ĥà½ĳà½ĸà½Ħ":8787,"à½ĵà½¦à½ĺà½Ĳ":8788,"à½£à½¦à½ĺà½Ľà½ĳ":8789,"à½¢à½Ħà½ĳ":8790,"à½ĸà½Ģà½Ģ":8791,"à½¦à½Ħà½¦à½Ħà½¦":8792,"à½Ĥà½ıà½ĵà½ĳ":8793,"à½Ĥà½¦à½¢à½Ķ":8794,"à½łà½Ĥà½£à½ĸà½ł":8795,"à½ĳà½Ĥà½Ĥà½Ķ":8796,"à½¢à½¦à½ĺà½¦":8797,"à½łà½Ĥà½Ĥà½ĺ":8798,"à¼¡à¼¥à¼¤à¼©":8799,"à¼¡à¼¥à¼¦à¼¢":8800,"Ġà¼¢à¼©à¼©":8801,"305":8802,"à¿ļ":8803,"Ġà½ĺà½ļà½¢":8804,"à½¢à½¦à½ĺ":8805,"à½ĺà½ĸà½ŀà½Ĥ":8806,"à½ĸà½¦à½ħ":8807,"à½¤à½¥":8808,"à½ĸà½¢à½Ĳà½£":8809,"à½ĵà½¦à½Ĥà½ħ":8810,"à½¡à½Ħà½ļ":8811,"à½Ĥà½ŀà½ĸ":8812,"à½ĺà½Ĳà½łà½Ĥà½ħ":8813,"à¾Ļà¾°":8814,"à¾Łà½ºà¼ĭà¼Ĳ":8815,"à½Ħà½Ĥà½ģ":8816,"à½¡à½ĵà½Ķ":8817,"à½Ĭà½ķ":8818,"à½¡à½¦à½ĵ":8819,"Ġà½¦à½ĵ":8820,"à½ĸà½ĺà½¡":8821,"à¾¦à¾²à¼ĭà¼į":8822,"à¼¡à¼¥à¼¥à¼¨":8823,"à¼¡à¼¨à¼¡à¼¢":8824,"Ġà¼¢à¼©à¼¥":8825,"à½ĵà½ĺà½ļà½ĵà½ĺ":8826,"à¾±à½±à½¾à¼į":8827,"à¾Łà¾ĥà¼ĭ":8828,"à½ĳà½Ħà½ĺà½Ħ":8829,"à½Ĳà½Ĥà½Ł":8830,"à½ĳà½Ĥà½Ĥà½ī":8831,"à¾¡à½±à½´à¼ĭ":8832,"à½£à½¦à½Ĥà½ī":8833,"à¾¨à¾±à½ºà¼į":8834,"à¾³à½´à½¾à¼ĭ":8835,"à½¡à½ĵà½£":8836,"à½ĸà½ıà½Ĥà½¦à½¦":8837,"à½ĳà½Ĥà½Ĥà½ĺ":8838,"à¾·à½²à¼ĭà¼į":8839,"à¼¡à¼¨à¼¡à¼¦":8840,"à¼¡à¼¨à¼¤à¼§":8841,"à¼¡à¼¨à¼§à¼§":8842,"à¼ĭà½²à¼ĭà½²à¼ĭ":8843,"à½ĵà½Ĥà½¦à½¢":8844,"à½£à½łà½ļ":8845,"à½£à½¢à½¦":8846,"à½ħà½ģ":8847,"à½Ĳà½ī":8848,"à½ĺà½¦à½ĩ":8849,"à½ıà½Ŀ":8850,"à½ĸà½¢à½Ĳ":8851,"à½ĵà½¦à½§":8852,"à½Ħà½¦à½¢à½Ħ":8853,"à½Ľà½Ĭ":8854,"à½ĺà½ģà½ĺ":8855,"à½§à½ī":8856,"à½ĸà½ŀà½Ĥà½¡à½Ħ":8857,"à½ķà½Ĭà½ĺ":8858,"à¼¡à¼§à¼¦à¼£":8859,"à¼¡à¼§à¼¨à¼£":8860,"Ġà¼¢à¼¥à¼¤":8861,"Ġà¼¢à¼©à¼¢":8862,"290":8863,"à½ĳà½Ĩà½ĳ":8864,"à½ĵà½£à½Ĥà½¦":8865,"à½ĵà½ĸà½Ľ":8866,"à½¡à½ĩ":8867,"à½Ģà½Ĥà½ī":8868,"à½ĸà½¦à½£à½ĺ":8869,"à½ĸà½¢à½ĺà½Ħ":8870,"à½Ķà½¦à½ĳà½ĺ":8871,"à½Ĥà½ĳà½łà½ĺ":8872,"à¾Łà½ºà¼ĭà¼ı":8873,"à½±à½´à¼µà¼ĭ":8874,"à½Ħà½ĵà½ĸ":8875,"à½ĸà½ŀà½Ĥà½Ĥà½¡":8876,"à½¦à½¢à½ĺ":8877,"à½Ĳà½Ĥà½Ķ":8878,"à½Ĩà½Ĥà½Ĩ":8879,"à¼¡à¼¨à¼¦à¼©":8880,"Ġà¼¢à¼£à¼¥":8881,"Ġà¼¢à¼¥à¼¦":8882,"Ġà¼¢à¼§à¼§":8883,"Ġà¼£à¼¢à¼©":8884,"à¼µà½ºà¼į":8885,"à¾ŀà½´":8886,"à½ĸà½ĸà½ĸà½ĸà½ĸà½ĸà½ĸ":8887,"Ġà½ŀà½Ĥà½¦":8888,"à½²à½±":8889,"à½Ĥà½łà½Ľà½ĺ":8890,"à½ĵà½łà½ļ":8891,"à½Ħà½Į":8892,"à½¼à¼ĭà½´":8893,"à¾Łà¾Ĺà½¼":8894,"à¾£à¾²":8895,"à½ĳà½ĺà½ģà½¦":8896,"à½łà½ĩà½Ħà½¦":8897,"à½ħà½ĳà½ĳà½Ĥ":8898,"à½ĸà½Ģà½łà½¦à½£":8899,"à½Łà½ĳà½ħ":8900,"à½Ĥà½£à½¢":8901,"à½ĳà½¢à½£":8902,"à½Ģà½¢à½¦":8903,"à¼¡à¼§à¼§à¼¨":8904,"à¼¡à¼¨à¼¢à¼¡":8905,"Ġà¼¢à¼¦à¼¤":8906,"292":8907,"à½ĳà½łà½ķà½Ĥà½¦":8908,"à½Ħà½£à½Ĥ":8909,"à½ĺà½Ĥà½ıà½ĵ":8910,"à½Ķà½ĺà½ģà½ł":8911,"à½Ķà½ŀà½ĸà½¦":8912,"à½¡à½ĸà½ł":8913,"à½Ģà½łà½ĸ":8914,"à½Ķà½¢à½ħ":8915,"à½ĵà½¦à½ĳà½Ģ":8916,"à½Ħà½¦à½£à½¦":8917,"à¾¦à¾·à¾±à¼ĭ":8918,"à½ħà½ĵà½Ĩ":8919,"à½¨à½łà½ĳ":8920,"à½¾à¼´":8921,"à½İà½ļ":8922,"à½Ĥà½ıà½ĵà½ĵà½¦":8923,"à½¤à½¦à½¢à½ĸ":8924,"à½£à½łà½Ħà½¦":8925,"à¼¡à¼¥à¼¨à¼¢":8926,"à¾Ńà½±à¼ĭà¼į":8927,"à¾ŀà½±à½²":8928,"à½Ĵà½ķ":8929,"à¾¡à¾·à½²à½¾à¼ĭ":8930,"Ġà½łà½ķà½¢":8931,"à½¦à½ĳà½ĵ":8932,"à½Ķà½¦à½Ĥà½ī":8933,"à½Ļà½ĺà½ļ":8934,"à½ĺà½Ĳà½łà½ĸ":8935,"à½Ľà½Ľà½¦":8936,"à¾·à¼ĭà¼´":8937,"à¾¡à½¼à½¼":8938,"à½İà½¨":8939,"à½ĵà½ĺà½¦à½£":8940,"Ġà½¢à½ĺ":8941,"à½ĺà½ĳà½łà½¦":8942,"à½Įà½ģ":8943,"à½Įà½¤":8944,"à¼¡à¼¨à¼¤à¼£":8945,"à¼¡à¼¦à¼¥à¼§":8946,"Ġà¼£à¼¢à¼¨":8947,"à¼ĭà¾¢à½¼à¼ĭ":8948,"à¼ĭà¾²à¼ĭ":8949,"à½łà½ĺà½ļ":8950,"à½Ģp":8951,"à½Ķà½łà½ĳà½¦":8952,"à½ĸà½¦à½ĸà½ħ":8953,"à½ıà½ĳà½Ħ":8954,"à¾Ĳà¾±à½²à¼į":8955,"à½ĵà½¦à½ĳà½ĺ":8956,"à½ĸà½¤à½Ĥà½¦à½ĵ":8957,"à½ĸà½¦à½ĺà½¡à½¦":8958,"à½ģà½Ħà½ĳ":8959,"à½¤à½¢à½Ĥ":8960,"à¼¡à¼¥à¼¥à¼¡":8961,"à¼¡à¼¥à¼©à¼¨":8962,"à¼¡à¼¥à¼¨à¼¥":8963,"Ġà¼¢à¼£à¼§":8964,"Ġà¼¢à¼£à¼¨":8965,"Ġà¼¢à¼¦à¼¡":8966,"à¼µà½²à¼į":8967,"Ġà½ĵà½ł":8968,"à½¦à½łà½ĳà½¦":8969,"à½¦à½Ĥà½Ļà½Ħ":8970,"à½¦à½Ķà½łà½Ħ":8971,"à½¦à½ĸà½ĸ":8972,"à½ĳà½ĺà½ļà½ĺà½¦":8973,"à½Ĥà½Ĥà½¢":8974,"à½´à½º":8975,"à½Ħà½£à½Ĥà½¦":8976,"à½Ķà½ĸà½ħà½¦":8977,"à½Ĥà½¦à½Ļà½ĺ":8978,"à½Ĩà½İ":8979,"à½ĳà½Ħà½ĸà½¦à½ĺ":8980,"à½ģà½Ĥà½£":8981,"à½ķà½łà½Ħ":8982,"à¾¨à¾¨à½¼":8983,"à½ĳà½ĺà½ĸà½¦":8984,"à½ĵà½Ħà½¢":8985,"à½łà½ĳà½¦à½¤":8986,"à½ĸà½ŀà½Ĥà½ķ":8987,"à½ĳà½ĺà½¢à½¦":8988,"à¾¨à¾²à¾Ģ":8989,"à¼¡à¼§à¼¦à¼¨":8990,"Ġà¼¢à¼§à¼¦":8991,"à½¦à½£à½ł":8992,"à½¢à½ĳà½Ķà½£":8993,"à½Ħà½İ":8994,"à½Ħà½ĺà½£":8995,"à½ĺà½¡à½¦":8996,"à½£à½¡à½ĵ":8997,"à½Ĩà½ĳà½Ķà½ł":8998,"à¾Ĵà¾·à½±à¼ĭ":8999,"à¾Ĵà¾·à½¾":9000,"à½Ķà½łà½ł":9001,"à½Ķà½¢à½Ĥà½ı":9002,"à½£à½¦à½¦à½Ħà½¦":9003,"à½ĸà½ħà½ĳà½ĸ":9004,"à½Ļà½ĺà½Ĩ":9005,"à½Ħà½ĵà½¢":9006,"à½¤à½¢à½£":9007,"à½ĸà½ĸà½¦à½¦":9008,"301":9009,"Ġà½łà½ķà½ĵ":9010,"à½¦à½Ļà½ĵ":9011,"à½¢à½ĺà½ģà½¦":9012,"à½Ħà½ĸà½ĺ":9013,"à¾±à½¼à¼įà¼ĭ":9014,"à½ĸà½¦à½Ĥà½ŀà½ĵ":9015,"à½ĳà½Ĥà½¡à½Ħ":9016,"à½ĳà½Ĥà½ĵà½ĺ":9017,"à½Ħà½¦à½Ĳ":9018,"à½£à½¦à½ĺà½Ĳ":9019,"à½£à½¦à½łà½ĩ":9020,"à½Ĥà½ĵà½¦à½Ĩ":9021,"à½¢à½ĸà½ĸà½¦":9022,"à½Ĥà½ĵà½Ķ":9023,"à½ĸà½Ĥà½ĵà½Ħ":9024,"à¾¦à¾±à¾³à½¼":9025,"à½ķà½ĵà½ĵ":9026,"à½ĳà½¢à½¢":9027,"à½Ŀà½łà½ĺ":9028,"à½Ĥà½ŀà½Ĥà½Ķà½ł":9029,"à½Ĩà½Ĥà½ĸà½¦":9030,"à¾µà½´à¾ĥà¼ĭ":9031,"à¼¡à¼¨à¼£à¼¥":9032,"à¼¡à¼¦à¼©à¼¡":9033,"Ġà¼¢à¼¦à¼§":9034,"Ġà¼¢à¼¦à¼¥":9035,"Ġà¼¢à¼§à¼¤":9036,"Ġà¼£à¼¡à¼¨":9037,"à½ĳà½Ĥà½¦à½¦":9038,"à½¢à½Ħà½¦à½¦":9039,"à¼Ģà½Į":9040,"à¼¤à¼¤à¼¤à¼¤":9041,"291":9042,"à¾ĳà½´à½¾à¼ĭ":9043,"à½Ĥà½Ĥà½ıà½ĵ":9044,"à½¢à½Ķà½£":9045,"à½ĵà½łà½Ĳ":9046,"à½ĺà½£à½ł":9047,"à½£à½Łà½¦":9048,"à¾²à¾ĥà¼į":9049,"à½´à¼ĭà¼įà¼ĭ":9050,"à½ģà½ĺà½ĳ":9051,"à½ģà½ĺà½Ĥ":9052,"à½īà½Ķà½ł":9053,"à½īà½Ļ":9054,"à¾±à½´à¼įà¼ĭ":9055,"à½ħà½ĳà½łà½ĸ":9056,"à½ĸà½ħà½¦à½ĵ":9057,"à½ĸà½Ģà½łà½¢":9058,"à½ģà½ĺà½¦à½ĵà½¦":9059,"à¾¨à¼ĭà½²":9060,"à½¡à½¦à½£":9061,"à½£à½Ħà½ĺ":9062,"Ġà¼¢à¼¤à¼§":9063,"Ġà¼¢à¼£à¼¢":9064,"Ġà½Ĥà½Ĥ":9065,"à½ĭà½¨":9066,"à¼ĭà¼µà¼ĭ":9067,"à¾ĸ":9068,"à½Ķà½Ħà½ĵ":9069,"à¾²à¼µà¼ĭ":9070,"à½Ĩà½¨":9071,"à½ĺà½¦à½ĺà½Ĩ":9072,"à¾Ĵà¾±à½ºà¼į":9073,"à½ĵà½¦à½Ĥà½ŀ":9074,"à¾²à½´à¼µ":9075,"à½Ķà½¦à½¡à½Ħ":9076,"à½ħà½ĵà½ĺà½Ħ":9077,"à½ĵà½ĺà½¡":9078,"à¼¡à¼§à¼¦à¼¥":9079,"à¼¡à¼¥à¼¢à¼¨":9080,"à¼¡à¼¥à¼©à¼§":9081,"à¼¡à¼¨à¼¢à¼©":9082,"à½¢à½łà½ķà½Ĥà½¦":9083,"à½ĵà½Ĥà½¤à½Ĥà½¦":9084,"à½£à½łà½ĸà½ĳ":9085,"à½Ĥà½¦à½ĸà½¤à½ĳ":9086,"à½Ģà½ĳà½ĺ":9087,"à½ĵà½¦à½Ĥà½Ł":9088,"à½Łà½Ķà½ł":9089,"à½Ķà½¦à½ĳà½Ķ":9090,"à¾·à¾²à½²à½¾à¼ĭ":9091,"à½¢à½Ħà½¤":9092,"à½ĳà½ĸà½Ħà½Ĩ":9093,"à½ĵà½Ħà½ĺ":9094,"à½ĸà½¤à½ĳà½ĵà½¦":9095,"à½Ĥà½Ļà½ł":9096,"à¾Ĵà¾²à½²à¼į":9097,"à¾©à½ºà¼ĭà½²":9098,"à½£à½ĵà½£":9099,"à¼¡à¼¨à¼¨à¼¡":9100,"Ġà¼¢à¼¤à¼¥":9101,"à½¼à½¾à½¾à¼ĭ":9102,"302":9103,"Ġà¼ŀ":9104,"à½¦à½ŀà½Ĥ":9105,"à½Ĥà½«à½¥":9106,"à½Ħà½Ķà½£":9107,"à½£à½¥":9108,"à½Ĥà½¦à½§":9109,"à¾Łà½¼à¼ĭà¼į":9110,"à½Ĩà½£à½¦":9111,"à½ģà½ĸà½ĳ":9112,"à½łà½ĳà½Ķà½£":9113,"à¾³à¼µà¼ĭ":9114,"à½±à½ºà¼į":9115,"à½§à½ĵà½ł":9116,"à½ĩà½Ķ":9117,"à½łà½ĳà½¦à½ĺà½īà½ĵ":9118,"à½ĺà½ģà½łà½ĺà½Ĳà½ł":9119,"à½ĸà½ħà½ĳà½ĵ":9120,"à½Ħà½Ħà½ł":9121,"à½¤à½¦à½¦":9122,"à½¢à½¦à½Ĥ":9123,"à¾ľà½º":9124,"à¼¡à¼¥à¼¤à¼§":9125,"à¼¡à¼¦à¼¨à¼¤":9126,"Ġà¼¢à¼¤à¼©":9127,"300":9128,"310":9129,"311":9130,"Ġà½Ĥà½ĳà½Ĥà½¦":9131,"à¼ĭà¾³à½¼à¼ĭ":9132,"à½ĳà½Ĩà½¦":9133,"à½¢à½ĸà½ħà½ĵ":9134,"à½ºà½¼à¼ĭ":9135,"à½ĺà½Ĥà½¦à½Ħ":9136,"à½¡à½łà½ĸ":9137,"à½ŀà½ķ":9138,"à½ĳà½Ħà½ı":9139,"à½ģà½ĺà½Ĩ":9140,"à½ģà½ª":9141,"à½ıà½ķà½¥":9142,"à½Ħà½¦à½ĸà½¦":9143,"à½Ľà½ħ":9144,"à½Ľà½ļ":9145,"à½īà½ĺà½¦à½ĵ":9146,"à½Ķà½ĳà½£":9147,"à½łà½Ĥà½£à½ļà½ĸà½¦":9148,"à½ĸà½ıà½Ĥà½¦à½Ķà½ł":9149,"à½ļà½ĵà½¢":9150,"Ġà½¦à½ĸ":9151,"à½Įà½Ħ":9152,"à¼¡à¼¥à¼¨à¼¦":9153,"à½ĵà½Ķà½Ħ":9154,"à¾ļà½¾à¼į":9155,"à½Ĺà½ļ":9156,"à½Ĺà½Ĥà½¢":9157,"à¼ĭà¿ļ":9158,"319":9159,"à½Ķà½ģà½¦":9160,"à¾Łà¾¨à¼ĭ":9161,"à½ħà½ĳà½ĸà½ĳ":9162,"à½ļà½ĳà½Ģ":9163,"à½ļà½ĵà½ĳ":9164,"à¾Ĳà¾©à½¼":9165,"à¾Ĳà½±à½²à¼ĭ":9166,"à½ĸà½¢à½łà½ģ":9167,"à½łà½İ":9168,"à½Ķà½¦à½ĺà½ļ":9169,"à½ĸà½Ģà½Ĥà½ĵà½¦":9170,"à½ĺà½łà½Ĳ":9171,"à¾Ńà¾°à¼į":9172,"à½Ĥà½ĵà½ĸ":9173,"à¾Ĳà¾±à¾±à½²":9174,"à½ĵà½Ĥà½Ĥ":9175,"à½ĳà½Ģà½łà½ĵ":9176,"à½ĸà½ĸà½¦à½ĺà½¦":9177,"à½ķà½Ĭà½ĸà½¦":9178,"à¼¡à¼¥à¼©à¼£":9179,"à¼¡à¼¨à¼£à¼¦":9180,"Ġà¼¢à¼£à¼¡":9181,"Ġà¼¢à¼©à¼¨":9182,"à½¦à½¦à½ĸ":9183,"Ġà¼£à¼£à¼£":9184,"à¼ĭà½²à¼ĭà½º":9185,"326":9186,"à½Ħà½ĳà½Ģà½¢":9187,"à½Ķà½ļà½¢":9188,"à½Ĥà½¦à½ĺà½Ĳà½¢":9189,"à½ģà½Ŀ":9190,"à½ĵà½¦à½ĵà½Ħ":9191,"à½Łà½Ĥà½ĳ":9192,"à½£à½¦à½īà½ĺà½¦":9193,"à½Ķà½¦à½ĳà½ĸ":9194,"à½Ľà½Ĳ":9195,"à½ĳà½ĸà½Ħà½Ħ":9196,"à½ŀà½ĸà½¦à½¦":9197,"à¾µà½±à½´à¼ĭ":9198,"à¼¡à¼¥à¼¨à¼¤":9199,"à¼ĭà½²à½²à½²":9200,"à¼¡à¼¦à¼¦à¼¦":9201,"à¼Ģà½łà½ĳ":9202,"à¾·à¾±à½¼à¼ĭà¼į":9203,"à¾¡à¾²à¼ĭà¼į":9204,"à½ĥà½Ĭ":9205,"295":9206,"303":9207,"à½¦à½ĸà½¦à½ĺà½¦":9208,"à½ĳà½ŀà½£":9209,"à½Ħà½ĺà½īà½ĺ":9210,"à½Ķà½ĳà½Ĥà½ł":9211,"à½Ķà½ĳà½Ĥà½Ĥ":9212,"à½Ĥà½¦à½Ĥà½¦à½£":9213,"à½Ķà½¢à½ģà½¦":9214,"à¾¡à¾±à½±à¼ĭ":9215,"à½£à½¦à½Ĥà½ħ":9216,"à½Ĥà½Ļà½Ħà½¦":9217,"à½ĺà½Ĳà½¢à½Ĥ":9218,"à½łà½ĺà½ŀ":9219,"à½Ĥà½¡à½¦à½Ĥà½¡":9220,"Ġà¼¢à¼¥à¼§":9221,"Ġà¼£à¼¤à¼©":9222,"à½ĵà½Ķà½ī":9223,"à½¦à½Ķà½ĳà½Ħ":9224,"299":9225,"309":9226,"à½ĸà½ĳà½ĸà½ĳà½Ĥ":9227,"à½ĳà½ĳà½ĸà½ħà½¦":9228,"Ġà½ĸà½łà½ĺ":9229,"à½ĳà½Į":9230,"à½Ĥà½Ĥà½Ļà½Ħ":9231,"à½Ĥà½ĸà½Ļà½ĵ":9232,"à½ĵà½ĳà½ĺà½¢":9233,"à½ĵà½Ļà½Ħ":9234,"à½Ħà½Ķà½ĳ":9235,"à½ĺà½ĸà½ħà½¦":9236,"à½łà½ĺà½ļà½ĵ":9237,"à½Ķà½ĵà½ł":9238,"à½Ķà½ıà½Ħ":9239,"à½Ĥà½¦à½ĸà½ĳà½Ĥ":9240,"à½Ĥà½¦à½ĺà½ļà½ĵ":9241,"à½Ģà½İà½ł":9242,"à½Ĩà½ĸà½ħ":9243,"à½ĳà½Ħà½Ł":9244,"à½ħà½Ĥà½¢":9245,"à½ķà½ª":9246,"à½ļà½łà½Ħ":9247,"à½īà½ĸà½¦":9248,"à½Ķà½¢à½ĸà½Ģ":9249,"à¾¡à¼µ":9250,"à½łà½Ĥà½Ĥà½ħ":9251,"à½£à½¦à½£à½Ħà½¦":9252,"à½Ķà½¦à½ĺà½ļà½ĵ":9253,"à¾©à½´à¼į":9254,"à½ĳà½Ķà½İ":9255,"à½ħà½ĳà½Ķà½ł":9256,"à½ĸà½ħà½¦à½ĵà½¦":9257,"à½Ļà½ĺà½ī":9258,"à½ĸà½¦à½ĺà½ĵà½¦":9259,"à½ĸà½¦à½ĺà½Ķà½¦":9260,"à½ĳà½Ķà½łà½¡":9261,"à½ĵà½ĺà½īà½ĵ":9262,"à½Ĳà½¢à½¢":9263,"à½īà½ĵà½ĵ":9264,"à½ĺà½ĩà½£à½ĳ":9265,"Ġà¼¢à¼¦à¼¨":9266,"Ġà¼£à¼¡à¼¤":9267,"Ġà¼£à¼¦à¼¡":9268,"328":9269,"à¼ĭïĢ¸":9270,"à½¦à½ĸà½ĵ":9271,"à½Ķà½ģà½ĺà½¦":9272,"à½ķà½£à½¦":9273,"à½Ķà½¢à½ĸà½ĳ":9274,"à½Ĥà½Ħà½łà½ĳ":9275,"à¾Łà½ºà½ºà¼į":9276,"à¾Ĺà½ºà½º":9277,"à½Ĥà½¡à½ĳ":9278,"à½łà½Ħà½¢":9279,"à¾¦à¾²à¾Ģà¼ĭ":9280,"à¼¡à¼¨à¼£à¼©":9281,"à½ħà½ĳà½ĺà½Ĩ":9282,"327":9283,"à½¼à½ºà¼ĭ":9284,"à½Ħà½ĸà½Ĥ":9285,"à½²à¼ĭà½¾à¼ĭ":9286,"à½Ķà½Ĥà½ıà½ĵ":9287,"à½Ĩà½Ĥà½ĵ":9288,"à½ĸà½¦à½ĳà½Ķ":9289,"à½ĳà½Ħà½ĸà½ħ":9290,"à½¤à½Ķà½ĳà½ł":9291,"à¾Ĳà¾²à½ºà¼ĭ":9292,"à½Ķà½¢à½Ĥà½¦à½£":9293,"à½łà½ĳà½Ķà½ł":9294,"à½Łà½ĸà½ĳ":9295,"à¾²à½´à½´":9296,"à½Ĥà½ŀà½ĵà½Ĥà½Ħ":9297,"à½ĸà½ħà½¦à½Ķà½¢":9298,"à½ĳà½Ķà½łà½Ĥà½Ħ":9299,"à½ĸà½Ļà½ĸ":9300,"à½ĳà½Ķà½£à½ĳ":9301,"à½ĸà½ŀà½Ĥà½łà½ĳ":9302,"à½ĵà½Ĥà½ĸ":9303,"à½ıà½ĵà½Ĳà½ĺà½¦":9304,"à½£à½Ĥà½¦à½Ģ":9305,"à½Łà½¦à½£":9306,"à½¥à½Ļ":9307,"à¾²à½ºà¼ĭà½Īà¾±à½²":9308,"à½Įà½ı":9309,"à½¦à½Ħà½£":9310,"à½ķà½ĸà½ĵà½¦":9311,"à½¦à½ĺà½¦à½ĺ":9312,"à¼ĭà¼ŀà¼ŀà¼ŀ":9313,"323":9314,"Ġà½łà½ķà½Ħ":9315,"Ġà½ĺà½ĵà½¢":9316,"à½¦à½ĳà½Ķà½Ĥ":9317,"à½¢à½ĸà½¤":9318,"à½ĵà½ĸà½¤":9319,"à½ĵà½Ķà½łà½Ħ":9320,"à½łà½¦à½ĳ":9321,"à½ĳà½Ħà½¨":9322,"à½ħà½ĸà½¢":9323,"à½Ĳà½¨":9324,"à½Ĳà½łà½Ħ":9325,"à½ĳà½Ĥà½ĸà½ħ":9326,"à½ĵà½¦à½Ķà½ł":9327,"à¾²à½²à½±à¼ĭ":9328,"à½ĳà½ĺà½ĸà½ħà½¦":9329,"à½Ľà½£à½ĵ":9330,"à½ħà½ĳà½łà½ĩ":9331,"à½£à½ĺà½ĸ":9332,"à½Ĳà½ĸà½¦à½¤":9333,"à¾¦à¾±à½²à½²":9334,"à½Ĥà½£à½Ĥà½¦":9335,"à½ĸà½ıà½Ĥà½¦à½ĵ":9336,"à½¡à½ĸà½¡":9337,"Ġà¼¢à¼¥à¼©":9338,"Ġà¼¢à¼¨à¼¨":9339,"Ġà¼¢à¼¨à¼©":9340,"Ġà¼¢à¼©à¼¤":9341,"Ġà¼£à¼¡à¼¦":9342,"Ġà¼£à¼£à¼¢":9343,"313":9344,"Ġà½ĺà½ĩà½£":9345,"Ġà½łà½ķà½Ĥ":9346,"à½¦à½Ķà½łà½ĺ":9347,"à½²à½´à¼ĭ":9348,"à½ĳà½łà½ĳà½¦":9349,"à½ĳà½ģà½ĺà½¦":9350,"à½ĸà½Ĳà½ĸ":9351,"à½´à¼ĭà½¼à¼ĭ":9352,"à¾Łà½´à¼ĭà¼į":9353,"à½Ĩà½ĸà½ĳ":9354,"à½Ķà½łà½Ĩà½ĳ":9355,"à½ĳà½Ħà½¦à½Ħà½¦":9356,"à½ħà½ħà½ĵ":9357,"à½Ĳà½ĺà½ĵ":9358,"à½Ķà½¢à½łà½ķà½Ĥà½¦":9359,"à½Ļà½ĵà½¦":9360,"à½ĸà½ĳà½Ķà½ł":9361,"à½ħà½ĵà½ł":9362,"à½ĺà½Ħà½łà½ĸ":9363,"à½ĸà½¦à½£à½ĵà½¦":9364,"à½Įà½¡":9365,"à½Ĩà½¦à½¦":9366,"à½Ĩà½Ĥà½Ĳ":9367,"Ġà¼£à¼¢à¼¤":9368,"à¼µà¼µ":9369,"à½Ĵà½ĳà½Ħ":9370,"à½ĭà½£":9371,"Ġà½ħà½¦":9372,"304":9373,"306":9374,"à¾ĳà½±à½²à¼ĭ":9375,"à½¦à½ķà½ĵ":9376,"à½Ĥà½ģà½¦":9377,"à½Ķà½ŀà½£":9378,"à½£à½ĸà½Ļ":9379,"à½´à¼ĭà¼ŀ":9380,"à½¡à½¢à½Ħ":9381,"à½Ģà½Ĥà½¡":9382,"à¾Łà½±à½²à¼į":9383,"à½ĸà½¦à½Ĥà½ī":9384,"à½ĸà½¦à½ĩ":9385,"à½ļà½ĳà½ĺà½¢":9386,"à½ļà½£à½ĺà½Ĥ":9387,"à½Ķà½¢à½ĸà½ĳà½Ĥ":9388,"à½ĸà½¢à½ķ":9389,"à½ĵà½¦à½ĸà½ŀ":9390,"à½Ķà½¦à½Ĥà½ŀ":9391,"à¾Ķà½¼à¼įà¼ĭ":9392,"à½ħà½ĵà½ĵà½ĺ":9393,"à½ħà½ĳà½Ĳ":9394,"à¾«à¼ĭà¼į":9395,"à½ĩà½ĺà½¦":9396,"à¾Ĵà¾±à½´à¼ĭà½²":9397,"à½łà½Ħà½£":9398,"à½ĳà½ĳà½ĸà½ŀ":9399,"à½Łà½¦à½ĵ":9400,"à¾¨à½²à¼ĭà¼į":9401,"à½ķà½Ĭà½£":9402,"à½ĳà½ĵà½£à½¦":9403,"Ġà½ĸà½¦à½Ħà½¦":9404,"à¾°à½²à¼ĭ":9405,"à½Ģà½Ģà½Ģà½Ģà½Ģ":9406,"298":9407,"332":9408,"316":9409,"318":9410,"339":9411,"à½Ĥà½ĸà½Ľ":9412,"à½Ĥà½Ĩà½ĸ":9413,"à½ĸà½ĺà½ģà½ł":9414,"à½¢à½īà½ĵ":9415,"à½ĵà½Ĳà½£":9416,"à½Ħà½īà½ĺà½¦":9417,"à½Ħà½ĳà½¦":9418,"à½ĺà½ĺà½Ħà½ł":9419,"à¾Łà¾¤à½º":9420,"à½Ĩà½Ĥà½¡":9421,"à½ĸà½¦à½ĳà½ĸ":9422,"à½ģà½Ĥà½ı":9423,"à½Ĳà½ĺà½Ĳ":9424,"à½ļà½ģ":9425,"à½ıà½łà½ĳ":9426,"à½Ķà½¢à½ĺà½Ĩ":9427,"à½ĸà½ĳà½Ģà½ł":9428,"à½ĸà½¤à½Ĭ":9429,"à½¢à½ĸà½ĺà½Ĩ":9430,"à½Ĥà½ĳà½ĵà½ĳ":9431,"à½ĸà½ıà½Ħà½ĵ":9432,"à½ĺà½¢à½ĸà½¦":9433,"à½ķà½ĵà½ĸà½ĳ":9434,"à½ĸà½Ľà½§":9435,"Ġà¼¢à¼©à¼§":9436,"à¾ļà½¼à½¾à¼ĭ":9437,"307":9438,"314":9439,"à½ĳà½ģà½Ħ":9440,"à½ĺà½ĺà½£":9441,"à½ĺà½Ļà½İ":9442,"à½Ķà½ĵà½¢":9443,"à½ĸà½¦à½ĸà½ĳà½Ĥ":9444,"à½ĸà½¦à½ĺà½ł":9445,"à½ĳà½Ħà½ĸà½ĳà½Ĥ":9446,"à½ıà½ĸà½¦":9447,"à½īà½Ĳ":9448,"à½Ķà½¢à½Ĥà½Ħ":9449,"à½łà½ĳà½ĸà½¢":9450,"à¾£à¼įà¼ĭ":9451,"à½ĺà½ļà½ĵà½Ķ":9452,"à½ĸà½ıà½£":9453,"à½łà½Ĩà½łà½ĺ":9454,"à¾¡à½¼à½¾":9455,"à½Ĥà½¦à½ĵà½ĵà½¦":9456,"à¼¡à¼¨à¼£à¼¢":9457,"Ġà¼£à¼¢à¼¦":9458,"Ġà½Ģà½¦":9459,"à½¦à½Ķà½ĺ":9460,"à¼¢à¼¡à¼¢à¼¢":9461,"308":9462,"337":9463,"Ġà½Łà½ĵ":9464,"Ġà½Ĥà½ŀà½Ħ":9465,"à½ĳà½ħà½ĳ":9466,"à½ĸà½ĸà½ŀà½Ĥ":9467,"à½¢à½Ĥà½Ļ":9468,"à½ĺà½ĸà½Ľ":9469,"à½Ķà½Ĳà½ĸà½¦":9470,"à½Ķà½ĸà½£":9471,"à½Ķà½£à½łà½Ħ":9472,"à½£à½ķà½ĸ":9473,"à½£à½ĸà½ĵ":9474,"à½ĸà½¦à½ĳà½ĵ":9475,"à½ļà½¡à½Ħ":9476,"à½ļà½Ľ":9477,"à½īà½ĺà½ł":9478,"à½ĸà½¢à½ĸà½¦à½ĺ":9479,"à½ĵà½¦à½ĸà½¤à½ĳ":9480,"à½Łà½Ĥà½ĵ":9481,"à½£à½¦à½§":9482,"à½£à½¦à½Ĥà½Ł":9483,"à¾Ķà¾·à½ºà¼ĭ":9484,"à½Ĥà½Ħà½ļ":9485,"à½Ĥà½ıà½Ķ":9486,"à¾«à½¾à¼ĭ":9487,"à½Łà½ĳà½Ķà½¦":9488,"à¼¤à¼¡à¼¥à¼¨":9489,"à½ĸà½ŀà½Ĥà½Ĩ":9490,"à½Ĥà½£à½ł":9491,"à½¢à½¦à½Ħ":9492,"à½Ĩà½Ĥà½ĳà½Ķà½£":9493,"à¼¡à¼¨à¼§à¼¤":9494,"à¼¡à¼¦à¼¢à¼¨":9495,"Ġà½ķà½¦":9496,"à½Ĵà½¢à½¥":9497,"à¾·à¾²à¼ĭà½µà½¾à¼ĭ":9498,"à¾µà½²à½¾":9499,"à½±à½¼à¾ĥ":9500,"à½Łà½Ĳà½«":9501,"317":9502,"324":9503,"à¼ĭâĢ¦":9504,"à½Ĥà½Ķà½ĵ":9505,"à½ĵà½ĳà½Ģà½ł":9506,"à½ĵà½Łà½¦":9507,"à½łà½¢à½ĸ":9508,"à½Ķà½ĺà½ł":9509,"à½Ģà½«à½¥":9510,"à½Ĳà½ģ":9511,"à½Ĳà½Ĳà½ĸà½¦":9512,"à½ıà½Ķà½£":9513,"à½ĵà½¦à½ĺà½Ĥ":9514,"à½łà½ĸà½Ł":9515,"à¾·à¾Ńà½²à¼ĭ":9516,"à½Ĥà½ĵà½¦à½łà½ĳ":9517,"à½Ľà½ĵà½¦":9518,"à½²à¼įà¼ĭà¼įà¼ĭ":9519,"à¾©à¼ĭà½²":9520,"à½ĺà½Ĥà½ĺ":9521,"à½ĳà½ĳà½Ĩ":9522,"à½ĺà½ģà½ĵà½Ĩ":9523,"à½Ĳà½£à½łà½Ĥ":9524,"à½ĸà½¦à½Ĥà½¦à½Ķ":9525,"à½ĺà½īà½ĵà½¡":9526,"Ġà¼¢à¼¦à¼£":9527,"Ġà¼¢à¼¥à¼£":9528,"Ġà¼¢à¼©à¼¡":9529,"Ġà¼£à¼¡à¼£":9530,"à¾²à½±à¾ĥ":9531,"320":9532,"325":9533,"336":9534,"à½¦à½Ĥà½¦à½¢":9535,"à½Ĥà½Ĥà½ĳà½ĵ":9536,"à½¢à½ĳà½¢":9537,"à½ĵà½ĺà½ĳà½ł":9538,"à½Ħà½ĳà½ĳ":9539,"à½ĺà½Ģà½¢":9540,"à½Ķà½ĭ":9541,"à½¡à½¤à½¦":9542,"à½ķà½ĸà½ĸà½¦":9543,"à½łà½Ĥà½Ĭ":9544,"à½£à½¦à½Ĳà½¢":9545,"à½ħà½ĵà½Ĳ":9546,"à¾²à½¼à¼ĭà½²":9547,"à¾²à½¼à¼ĭà¼´":9548,"à¾Ĵà¾±à¼ĭà¼Ĳ":9549,"à½ĵà½ĺà½ĳà½Ķ":9550,"à½ĵà½ĺà½ĵà½ĵ":9551,"à½ļà½Ħà½ĺ":9552,"à½¢à½ĸà½¦à½ĺà½¦":9553,"à½¥à½Ķ":9554,"Ġà¼¢à¼¥à¼¡":9555,"à¼Ģà½ķ":9556,"329":9557,"321":9558,"Ġà½ĵà½łà½Ħ":9559,"à½¢à½ĺà½ģ":9560,"à½Ħà½ĺà½ī":9561,"à¾±à¾Ļà½º":9562,"à½²à¼ĭà¾±":9563,"à½Ĥà½¦à½Ķà½ĳ":9564,"à½ĳà½Ħà½ħ":9565,"à½ģà½ĺà½ģ":9566,"à½Ĳà½ĵà½¢":9567,"à½ĺà½¦à½¡à½Ħ":9568,"à½ĳà½Ĥà½Ĥà½ŀà½ĵ":9569,"à½Łà½łà½Ħ":9570,"à¾Ĵà¾±à½´à½´":9571,"à½£à½Ĥà½Ĩ":9572,"à½ĳà½Ĥà½łà½ĵà½¦":9573,"à½ĺà½ģà½łà½¢":9574,"à½Ħà½Ĥà½Ģ":9575,"à½¤à½¢à½¢":9576,"à½Ĳà½Ĥà½Ĩ":9577,"à½łà½ļà½£à½ĸà½¦":9578,"à½Ĥà½ŀà½£à½¡à½¦":9579,"Ġà¼¢à¼§à¼¥":9580,"à½Ĵà½Ĥà½¦":9581,"à½ħà½ĳà½Ĥà½Ł":9582,"à½¦à½£à½Ĥà½¦":9583,"à½Ĥà½ĺà½ĳà½ł":9584,"à½Ħà½Ĥà½Ļ":9585,"à½¡à½Ŀ":9586,"à½ĸà½¦à½¢à½ĸ":9587,"à½ĸà½¦à½ĵà½ĺ":9588,"à½ĸà½¢à½ĸà½¤à½ĳ":9589,"à½£à½¦à½ĵà½ĺ":9590,"à½¨à½ĩ":9591,"à½Ĳà½ĺà½¦à½Ĳà½ĺà½¦":9592,"à¾Ĵà½¼à½¼":9593,"à½ĸà½ħà½¦à½ı":9594,"à¾Ĳà½´à¼ĭà¼´":9595,"à½ĸà½ŀà½Ĥà½Ģ":9596,"à½¢à½¦à½£":9597,"à½ķà½Ĭà½ŀ":9598,"Ġà¼¢à¼§à¼£":9599,"Ġà¼¢à¼©à¼¦":9600,"Ġà¼£à¼¢à¼¥":9601,"330":9602,"Ġà½ĺà½ļà½£":9603,"à½¦à½ĸà½ıà½ĸ":9604,"à½Ĥà½Ĳà½ĳ":9605,"à½Ķà½ĸà½Łà½Ħ":9606,"à½Ĥà½¦à½ĵà½ĵ":9607,"à½Ĥà½¦à½Ķà½ĵ":9608,"à½¡à½Ĥà½ī":9609,"à½ĳà½Ħà½Ĥà½¡":9610,"à½ģà½Ĥà½Ħ":9611,"à½ģà½ĸà½Ģ":9612,"à½Ĳà½£à½Ĥ":9613,"à½ıà½ĺà½ł":9614,"à½Ķà½¢à½ĳà½Ķ":9615,"à½Ħà½¦à½Ĥà½ŀà½ĵ":9616,"à¾³à¾Ĵà¾²à½¼":9617,"à½łà½ĸà½Ģà½ł":9618,"à½ĺà½ļà½ĺà½ļà½ĺà½¦":9619,"à½łà½Ľà½ĺà½Ĥ":9620,"à½ĸà½¦à½ĺà½Ķà½¢":9621,"à½ĺà½¢à½¡":9622,"à½ĺà½ģà½łà½ĺà½īà½ĺ":9623,"à½łà½Ĳà½ĳà½Ķà½ł":9624,"à½ĸà½£à½¢":9625,"à¾¤à¾²à½´à¼į":9626,"à½Ĳà½Ĥà½ĺ":9627,"à½łà½Ĥà½£à½£":9628,"à½Ĥà½Ħà½¦à½ħà½ĵ":9629,"à¼¡à¼¨à¼£à¼£":9630,"Ġà¼£à¼¡à¼§":9631,"à¾²à¾Ńà¼ĭà¼į":9632,"Ġà½ĺà½ĺ":9633,"à¼Ģà½Ŀ":9634,"340":9635,"331":9636,"à¾±à½²à¼ĭà½Īà¾±à½²à¼ĭ":9637,"334":9638,"Ġà½Ĥà½ĳà½Ħà½¦":9639,"à½¦à½łà½Ĳ":9640,"à½ĸà½Ĥà½¡à½¦":9641,"à½ĸà½ļà½Ħà½¦":9642,"à½¢à½ĺà½ģà½ł":9643,"à½ĵà½ŀà½£":9644,"à¾±à½¼à¼ĭà¼į":9645,"à½łà½ĺà½ģ":9646,"à¾²à¾±":9647,"à½Ĩà½Ķà½ł":9648,"à¾£à¾²à¾Ģà¼ĭ":9649,"à½ĸà½łà½ł":9650,"à½ĸà½łà½ĺà½¦":9651,"à½ĸà½łà½Ĥà½£":9652,"à½Ļà½£à½¦":9653,"à½ĸà½Ģà½łà½ģ":9654,"à½£à½ĺà½ĸà½¦":9655,"à¾Ĵà¾±à½´à¼ĭà½Īà½²":9656,"à½£à½Ĥà½Ĥà½ī":9657,"à½Ĥà½£à½ĳ":9658,"à½Ĭà½Į":9659,"à½Ŀà½ª":9660,"à¾¤à½¼à½¼":9661,"à½¥à½¤":9662,"à½¥à½¨":9663,"à½ļà½Ħà½¦à½Ķà½ł":9664,"à½ķà½Ĭà½¢à½Ħ":9665,"à½ģà½łà½¢":9666,"à¼ĭà½²à½²":9667,"à½Ĵà½ŀ":9668,"à½Ķà½īà½ĳ":9669,"à½²à¼ĭà½Īà¾²à½º":9670,"312":9671,"315":9672,"338":9673,"à½¦à½Ĥà½¢":9674,"à½ĳà½Ĳà½ĸà½¦":9675,"à½ĸà½Ĩà½¢":9676,"à½Ħà½ĸà½Ģà½ł":9677,"à½łà½¦à½ĺà½¦":9678,"à½£à½ĸà½Ħ":9679,"à¾Łà½±à½´à¼ĭ":9680,"à½ĸà½¦à½ĺà½ļà½ĵ":9681,"à½Ĳà½ĸà½ł":9682,"à½ıà½ĸà½¢":9683,"à½ĸà½¢à½ĺà½ļ":9684,"à¾£à½±à½ºà¼ĭ":9685,"à½Ķà½¦à½ĵà½¦":9686,"à½Ķà½¦à½ĺà½ĳ":9687,"à¾±à¼ĭà¼´":9688,"à½ħà½ĵà½¤":9689,"à¾Ĵà¾±à¼ĭà¼´":9690,"à½łà½Ĩà½ĳà½Ķà½ł":9691,"à½£à½Ĥà½ł":9692,"à½£à½Ĥà½ĺà½Ĳ":9693,"à½ĵà½ĺà½ĩ":9694,"à½ĺà½īà½ĵà½ĳ":9695,"à½ģà½Ħà½Ķ":9696,"à½Įà½§":9697,"à½ĸà½ĵà½¡":9698,"à½£à½¢à½ĵ":9699,"Ġà¼¢à¼§à¼¡":9700,"Ġà¼¢à¼©à¼£":9701,"Ġà¼£à¼¥à¼¥":9702,"Ġà¼£à¼§à¼§":9703,"Ġà¼£à¼¦à¼¢":9704,"346":9705,"à½¦à½¦à½ł":9706,"à½Ĥà½Ĥà½ĵà½ł":9707,"à½¢à½Ĥà½ĺ":9708,"à½ºà¾ĥ":9709,"à½£à½ģà½¦":9710,"à½£à½ļà½¢":9711,"à½Ķà½łà½ĺà½Ĳ":9712,"à½ķà½ĸà½¢":9713,"à½ļà½Ķà½¢":9714,"à½ļà½ĳà½Ķ":9715,"à½Ķà½¢à½Ħà½¦":9716,"à½Ķà½¢à½ĺà½ģ":9717,"à½ĵà½¦à½ĺà½ļà½ĵ":9718,"à½Ķà½¦à½ĺà½Ľ":9719,"à¾¨à¾¨":9720,"à¾¦à¾¦à½¾à¼ĭ":9721,"à½ĸà½Ģà½¤":9722,"à½Ĥà½ĳà½łà½ĳ":9723,"à½ĺà½łà½ļà½£":9724,"à½Ĩà½Ĥà½¦à½Ķà½¢":9725,"à½£à½łà½¢":9726,"Ġà¼¢à¼¤à¼¨":9727,"Ġà¼£à¼¡à¼©":9728,"Ġà¼£à¼£à¼¤":9729,"Ġà¼£à¼¥à¼§":9730,"à¼ĭà½Īà¾²à½²":9731,"à¾ļà½º":9732,"Ġà½Łà½ĺ":9733,"à¾°à¼ĭà¼į":9734,"Ġà¼¤à¼¤à¼¤":9735,"à½¼à½¾à½¾à½¾à¼ĭ":9736,"à¼ĭà¾¢à¾±à¼ĭ":9737,"ģà¾ĥà¼ĭ":9738,"à½ĳà½łà½Ĩ":9739,"à½Ĥà½ĺà½Ħà½ł":9740,"à½Ĥà½ĸà½ĺ":9741,"à½ĵà½ŀà½ĸà½¦":9742,"à½ĵà½Ĥà½ŀà½£":9743,"à½ĺà½ĳà½Ĥà½ł":9744,"à½ĺà½łà½ķà½Ĥà½¦":9745,"à½Ĩà½ĸà½ŀ":9746,"à½ģà½ĵà½Ħ":9747,"à¾¡à½¼à¼įà¼ĭ":9748,"à½¡à½Ħà½ĸà½ħ":9749,"à½ĸà½Ģà½łà½£":9750,"à½Łà½ĳà½Ļà½ĺ":9751,"à½ĺà½ļà½ĺà½¦à½ĵà½¦":9752,"à½Ŀà½ļ":9753,"Ġà½ĳà½¦":9754,"à½Ĥà½ĺà½ŀ":9755,"Ġà¼¢à¼¨à¼¤":9756,"à½¦à½¦à½£":9757,"à¼ĭà½Īà¾Ļà½²":9758,"à½ĭà½ı":9759,"à¾¶à¾±à¼ĭ":9760,"à¾¦à¾·à½²à¼į":9761,"348":9762,"322":9763,"Ġà½ķà½ĸ":9764,"à½¦à½¦à½ĳ":9765,"à½ĳà½¡à½ĵ":9766,"à½Ĥà½ĳà½Ĥà½Ĥ":9767,"à½ĵà½Ĳà½Ħ":9768,"à½ĵà½ĺà½Ħà½ł":9769,"à½Ħà½Ĥà½¦à½Ħ":9770,"à½ºà½´à¼ĭ":9771,"à½ĺà½Ķà½ĵ":9772,"à½łà½ĺà½ł":9773,"à½£à½ŀà½£":9774,"à½ŀà½Ĥà½ī":9775,"à½Ĩà½Ĥà½ĵà½¦":9776,"à¾Ĵà¾Ń":9777,"à½ĳà½Ħà½Ĥà½ħ":9778,"à½ļà½İ":9779,"à½¡à½Ħà½ĺà½Ĩ":9780,"à¾©à¼įà¼ĭ":9781,"à¾¦à½±à½´à¼ĭ":9782,"à½Ľà½Ĩ":9783,"à½¢à½ĸà½ī":9784,"à½łà½ĳà½¦à½Ĥà½£":9785,"à½ĳà½Ĥà½łà½ĵ":9786,"à¾¨à¾²à¾±à½´à½¾à¼ĭ":9787,"Ġà½¦à½Ķ":9788,"à½ļà½Ħà½¦à½Ķ":9789,"à½ĸà½¦à½£à½ĸà½ł":9790,"à½Įà½Ĭ":9791,"à½Ĩà½Ĥà½ķ":9792,"à½ĸà½ĵà½Ķ":9793,"à½ĳà½Ķà½¦à½ĵ":9794,"350":9795,"352":9796,"à½¦à½ĵà½ĺà½¦":9797,"à½ĳà½ŀà½Ĥ":9798,"à½Ĥà½Ĳà½Ĥ":9799,"à½£à½ĳà½¢":9800,"à½¡à½ĳà½¢":9801,"à½ŀà½¨":9802,"à½ĸà½¦à½ĸà½ŀ":9803,"à½ĳà½Ħà½£à½¦":9804,"à½Ķà½¢à½ĩ":9805,"à½Ħà½¦à½ĸà½¢":9806,"à½Łà½Łà½ĸ":9807,"à½ħà½ĵà½Ķ":9808,"à½Ĥà½ŀà½ĵà½ĸ":9809,"à½±à¼ĭà½¾":9810,"à½±à¼ĭà½±à½´à¾ĥà¼ĭ":9811,"à½Ĥà½ĳà½Łà½Ĥ":9812,"à½ĺà½łà½¢":9813,"à½Ĥà½ĵà½Ĥà½ĵà½¦":9814,"à½ĳà½Ģà½¢à½£":9815,"à½īà½ĺà½¦à½Ķà½ł":9816,"à½Ħà½ĵà½ł":9817,"à½£à½ĵà½Ķ":9818,"à½±à½²à¼ĭà½²":9819,"Ġà¼£à¼¡à¼¥":9820,"Ġà¼£à¼¤à¼¢":9821,"Ġà¼£à¼§à¼¢":9822,"à¼Ģà½Ķà½ī":9823,"à½Ĳà½ĺà½¦à½ħà½ĳà½¢":9824,"à¾¡à¾·à½±à¼į":9825,"342":9826,"358":9827,"Ġï»¿":9828,"à¼ĭï¼ī":9829,"à½ĸà½ļà½Ħ":9830,"à½¢à½łà½Ĩ":9831,"à½ĵà½¤à½¢":9832,"à¾²à½ºà¼įà¼ĭ":9833,"à½¡à½ĸà½ħ":9834,"à½ĸà½¦à½ĸà½ĳ":9835,"à½ĸà½¦à½ĳà½ĳ":9836,"à½ģà½Ĥà½ĵà½¦":9837,"à½ķà½ĵà½ĺ":9838,"à½¤à½Ĭ":9839,"à½ĳà½Ĥà½ĸà½ĳà½Ĥ":9840,"à½ĳà½Ĥà½Ĥà½Ł":9841,"à½ĳà½Ķà½ļ":9842,"à½Ĥà½ıà½ĺà½Ĥ":9843,"à½ĳà½ĸà½Ħà½¤":9844,"à½Ĳà½ĺà½¦à½ħà½¢":9845,"à½£à½ĺà½ĺà½Ĩ":9846,"à½ĺà½ļà½ĵà½ĺà½¦":9847,"à½ĸà½ħà½¦à½Ķà½¦":9848,"à½ĸà½Ģà½łà½ĵ":9849,"à¾Ĳà¾±à¾±à½ºà¼ĭ":9850,"à½£à½ĵà½ĸ":9851,"à½Ĳà½¢à½ĸà½¢":9852,"à½ĸà½ıà½Ħà½ĵà½¦":9853,"à½£à½Ĥà½¦à½ı":9854,"à½Ĩà½Ĥà½Ĥà½¦":9855,"à¾Łà½²à½¾":9856,"Ġà¼¢à¼¤à¼£":9857,"Ġà¼£à¼¢à¼§":9858,"Ġà¼£à¼¦à¼¥":9859,"Ġà¼£à¼¥à¼¢":9860,"à½¢à½ĳà½ĸà½ŀ":9861,"à½¦à½Ģà½£":9862,"à¾łà½¾à¼į":9863,"343":9864,"344":9865,"353":9866,"333":9867,"Ġà½ĳà½ĺà½ł":9868,"à½ĳà½ĳà½ĺà½¢":9869,"à½ĳà½ĳà½Ĥà½Ĥ":9870,"à½ĸà½ĸà½Ľ":9871,"à½ĸà½Ĳà½ł":9872,"à½¢à½ĳà½Ģ":9873,"à½¢à½ļà½ĵ":9874,"à½´à¾ĥ":9875,"à½Ķà½ĳà½Ģà½¢":9876,"à½Ĩà½ĵà½Ķ":9877,"à½Ķà½łà½Ĥà½£":9878,"à½¤à½¦à½ĺ":9879,"à¾Ĳà½²à¼į":9880,"à½¡à½Ħà½Ģ":9881,"à½Ķà½¦à½Ĥà½ĳ":9882,"à¾±à¼ĭà¼º":9883,"à½Ĥà½ıà½ĺà½¢":9884,"à½§à½Ķ":9885,"à½Ħà½Ĥà½£à½¦":9886,"à½ĺà½ļà½ĺà½¦à½¢":9887,"à½¢à½ĸà½¦à½Ģ":9888,"à½Ĥà½ŀà½Ĥà½ĺ":9889,"Ġà¼¢à¼¨à¼¥":9890,"Ġà¼£à¼¢à¼£":9891,"Ġà¼£à¼¢à¼¡":9892,"à½Ĵà½Ŀ":9893,"à½ĭà½ģ":9894,"362":9895,"à½ľà½£":9896,"Ġà½ıà½Ħ":9897,"Ġà½ŀà½ĵ":9898,"à½¦à½Łà½ĳ":9899,"à½ĳà½ŀà½ĸà½¦":9900,"à½¢à½Ĥà½ıà½ĵ":9901,"à½¢à½ª":9902,"à½ĵà½Ĩà½¢":9903,"à½´à½¼à¼ĭ":9904,"à½ĺà½Ģà½¦":9905,"à½£à½ŀà½Ĥ":9906,"à½´à¼ĭà½Īà½ºà¼ĭ":9907,"à½ŀà½Ķà½¢":9908,"à½ģà½ĸà½ł":9909,"à½ģà½ĺà½ł":9910,"à½ļà½ħ":9911,"à½īà½ĳà½Ħ":9912,"à½¤à½ķ":9913,"à½ĳà½Ĥà½Ĥà½ħ":9914,"à½Ħà½¦à½ĺà½Ħ":9915,"à½£à½¦à½ĸà½¤à½ĳ":9916,"à½Ķà½¦à½ĳà½ĸà½Ħ":9917,"à½ĸà½ħà½ĺà½¦":9918,"à½Ļà½ķ":9919,"à½Ĥà½Ħà½ĸà½¢":9920,"à½Ľà½ĸà½¢":9921,"à½ĺà½Ĩà½ĵà½ĺ":9922,"à½ĳà½ĸà½Ħà½ĳà½Ħ":9923,"à½ħà½ĳà½łà½Ĥ":9924,"à¾Ĺà½ºà¼ĭà¼Ĳ":9925,"à½ĸà½¤à½ĳà½ĸà½ł":9926,"à½łà½ĳà½¦à½ħ":9927,"à½ĳà½Ķà½łà½ĳà½Ħ":9928,"à¾¦à¾±à½¼à½¼":9929,"à½Ĥà½¢à½ĵ":9930,"à½ĸà½¦à½ĺà½¦à½ĺà½¦":9931,"à½Ĥà½ŀà½£à½ĸ":9932,"à¼¡à¼§à¼¤à¼£":9933,"Ġà¼¢à¼¥à¼¨":9934,"Ġà¼£à¼¤à¼¤":9935,"à½Ĺà½§":9936,"Ġà½¨à½Ĥ":9937,"à½ĭà½Į":9938,"à¾·à½±à½ºà¼ĭ":9939,"341":9940,"à¼ĭà¾·":9941,"à½¦à½Ħà½Ħ":9942,"à½ĵà½ļà½Ħà½¦":9943,"à½ĵà½Ĳà½ĺ":9944,"à¾±à¾²à½²":9945,"à½łà½ħà½ĳ":9946,"à½ĸà½¦à½ĺà½Ľà½ĳ":9947,"à½ĺà½¦à½Ļà½ĵ":9948,"à½Łà½ı":9949,"à¾Ĺà¼ĭà¼į":9950,"à½ĳà½ĸà½¤":9951,"à½Ĥà½ŀà½Ĥà½ħ":9952,"à¾²à½²à½²à¼ĭ":9953,"à½ĸà½ĳà½ĸà½ł":9954,"à½ħà½ĵà½ķ":9955,"à½ĩà½¡":9956,"à½ĺà½łà½ļ":9957,"à¾Ĳà½´à¼µà¼ĭ":9958,"à½ĺà½īà½ĺà½ĳ":9959,"à½Ŀà½¦à½ı":9960,"à½ĸà½ıà½ĸà½Ķ":9961,"à½ļà½ĵà½Ķ":9962,"à½ĳà½Ĥà½Ĥà½Ķà½ł":9963,"à½ĵà½ĵà½Ĥà½¦":9964,"à½Įà½¨":9965,"à¾«à½´à¼ĭà¼į":9966,"à½ĳà½ĵà½£":9967,"à¾łà½¼":9968,"Ãĥà½Ķ":9969,"354":9970,"Ġà½ĳà½ĸà½ĸ":9971,"Ġà½¤à½Ħ":9972,"à½¦à½Ĩà½¢":9973,"à½Ĥà½Ĩà½Ĥ":9974,"à½Ĥà½Ĩà½Ħ":9975,"à½ĸà½ĸà½ıà½Ĥà½¦":9976,"à½ĸà½ĵà½ĺà½¦":9977,"à½ĵà½ĸà½ı":9978,"à½ĵà½ĸà½ĵ":9979,"à½Ķà½ļà½Ħ":9980,"à½£à½ļà½Ħ":9981,"à½ºà¼ĭà¼įà¼ĭ":9982,"à½Ķà½łà½ļà½£":9983,"à½¤à½¦à½¢":9984,"à½Ķà½¢à½ĺà½ļ":9985,"à½ĸà½łà½ĩà½ĺ":9986,"à½§à½łà½ĺ":9987,"à½ĺà½Ĳà½łà½ł":9988,"à½Łà½ĳà½ĵ":9989,"à½İà½Ĥ":9990,"à½ıà½ĵà½ĸ":9991,"à½ĵà½ĺà½¦à½ļ":9992,"à½¦à½ĺà½¡à½¦":9993,"à½¥à½Ĥ":9994,"à½¢à½¦à½ĵ":9995,"à½ķà½Ĭà½ĵ":9996,"Ġà¼¢à¼¨à¼¦":9997,"Ġà¼§à¼§à¼§":9998,"à½ĵà½ĺà½ģà½łà½£":9999,"à¼¢à¼¡à¼¤à¼¢":10000,"Ġà½ĺà½ĵà½ł":10001,"à½ĳà½£à½ł":10002,"à½ĸà½Ķà½£":10003,"à½¢à½Ĩà½Ĥà½¦":10004,"à½ĵà½ĳà½Ķà½Ĥ":10005,"à½Ħà½ĳà½Ģ":10006,"à½Ħà½ĺà½ļà½ĺà½¦":10007,"à½²à¼ĭà½±à½´à¾ĥà¼ĭ":10008,"à½Ķà½£à½¢":10009,"à½£à½Ĥà½¡à½¦":10010,"à½£à½Ĥà½ıà½ĳ":10011,"à¾²à¾¤à¾±à½²":10012,"à½¡à½łà½Ħ":10013,"à¾Łà½´à¼įà¼ĭ":10014,"à½Ķà½łà½Ħà½¦":10015,"à½ĸà½¦à½łà½ģ":10016,"à½ĺà½¦à½¢à½ĸ":10017,"à½ĳà½Ĥà½łà½Ĩ":10018,"à½Ħà½¦à½ŀà½¦":10019,"à½£à½¦à½ĳà½ĸà½Ħ":10020,"à½Ķà½¦à½Ĥà½ħ":10021,"à½Ľà½Ķà½ĳ":10022,"à½Ĥà½¦à½£à½ł":10023,"à½ĸà½Ĥà½ĺà½¦":10024,"à½ĺà½Ĳà½łà½ī":10025,"à½ĳà½Ķà½£à½Ĥà½ŀ":10026,"à½Ĳà½ĸà½¦à½ĸ":10027,"à½ļà½Ħà½ĸ":10028,"à½Ŀà½ĵà½¦":10029,"à½Ĥà½ĳà½ĵà½ĵ":10030,"à½ĸà½ĸà½¦à½Ĥà½¦":10031,"à¾µà¾¼à¼ĭ":10032,"à½ĳà½ĵà½Ķ":10033,"à¼¡à¼¨à¼¢à¼¤":10034,"Ġà¼£à¼£à¼¥":10035,"Ġà¼£à¼§à¼©":10036,"à½¢à½ıà½ł":10037,"à¾ļà¾²à¼ĭ":10038,"Ġà½Ĩà½ĺ":10039,"à½Ĳà½ĺà½¦à½ħà½ĳà½¦":10040,"à½ĳà½¦à½Ķ":10041,"à½Ĺà½ī":10042,"à¾»à½±":10043,"349":10044,"364":10045,"371":10046,"385":10047,"à½¦à½ĸà½ıà½Ĥà½¦":10048,"à½ĸà½ģà½ĺà½¦":10049,"à½´à¾Ģà¼ĭ":10050,"à½Ħà½ħà½¦":10051,"à½ĺà½ŀà½£":10052,"à½£à½£à½Ĥà½¦":10053,"à½£à½ĳà½Ģà½ł":10054,"à½ģà½Ĥà½¢":10055,"à½Ĳà½ķ":10056,"à¾Ĳà¾Ĺà½¼":10057,"à½Ķà½¢à½Ĥà½ŀ":10058,"à½Ķà½¢à½¨":10059,"à½ĵà½¦à½ĺà½ļ":10060,"à¾Ķà½²à¼ĭ":10061,"à¾©à¾¨à¼ĭ":10062,"à¾²à½¼à½¾":10063,"à½ĳà½ĺà½ĺà½ģà½ł":10064,"à½ĺà½Ĩà½ł":10065,"à½ħà½ĳà½ħà½ĳ":10066,"à½£à½ĺà½İ":10067,"à½±à¼ĭà½±":10068,"à½ĺà½ĳà½Ĥà½¦":10069,"à½ĸà½ıà½Į":10070,"à½Łà½ĳà½£":10071,"à½Ĥà½ĵà½Ħà½ĵ":10072,"à½Łà½ĸà½Ķ":10073,"à½Ģà½¢à½£":10074,"à¼¡à¼¨à¼¢à¼¦":10075,"Ġà¼£à¼£à¼§":10076,"à½²à¼ĭà¼įà¼ĭà¼į":10077,"à½ĭà½ĸ":10078,"à½Ħà½ĸà½ĳà½Ħ":10079,"à¾İà¼į":10080,"335":10081,"à¼ĭà¾¨à¾²":10082,"à½ĵà½£à½ł":10083,"à½ĵà½Ĳà½ĺà½¦à½ħà½ĳ":10084,"à½£à½ŀà½ĸà½¦":10085,"à½£à½Łà½ĸ":10086,"à½Ĥà½¦à½Ĥà½ŀ":10087,"à½¡à½ĸà½ĳ":10088,"à½ķà½ĺà½¢":10089,"à½ĺà½¦à½īà½ĺà½¦":10090,"à½Łà½ĸà½£":10091,"à½Łà½Łà½¦":10092,"à½£à½¦à½ĵà½¦":10093,"à½Ķà½¦à½ĵà½ĳ":10094,"à¾²à½¼à¼µ":10095,"à½ĳà½Ķà½¡":10096,"à½Ĥà½Ħà½ĺà½¦":10097,"à½Ĥà½Ħà½ĺà½Ħ":10098,"à½ħà½ĵà½¢à½Ħ":10099,"à½ĸà½Łà½ĺ":10100,"à½ħà½ĳà½ģ":10101,"à½§à½İ":10102,"à½ĩà½łà½ĺ":10103,"à½ģà½ĺà½¦à½Ĥ":10104,"à½Ħà½Ĥà½ĳà½ĸà½Ħ":10105,"à½Ĥà½£à½ļ":10106,"à½ĳà½Ģà½łà½ĸà½¦":10107,"à¾¡à½ºà½ºà¼ĭ":10108,"à¾¦à¼ĭà½²":10109,"à½łà½Ĩà½¢à½Ģ":10110,"à½Īà¾²à½º":10111,"Ġà¼¢à¼£à¼£":10112,"Ġà¼¢à¼§à¼¨":10113,"Ġà¼¢à¼¨à¼¡":10114,"Ġà¼£à¼¨à¼¢":10115,"à½Ľà½ĺà½ĸ":10116,"à¼ĭà¾ľ":10117,"à½¦à½Ĳà½¢":10118,"à½Ĥà½ĳà½Ģà½ł":10119,"à½łà½łà½ļ":10120,"à½Ķà½ĸà½Ļ":10121,"à½Ĥà½¦à½Ĥà½ħ":10122,"à½¼à¼ĭà½²à¼į":10123,"à¾Ĵà¾Ĵà¼ĭ":10124,"à½ĳà½Ħà½ĳà½Ķ":10125,"à½ģà½¢à½¦":10126,"à½¤à½¨":10127,"à½ĸà½¢à½ĺà½ł":10128,"à½ĵà½¦à½£à½ĺ":10129,"à½ĵà½¦à½ĸà½¦à½ĺ":10130,"à½Ħà½¦à½Ĥà½¦":10131,"à½ĸà½ŀà½Ģ":10132,"à½£à½¦à½Ĥà½ŀ":10133,"à½¡à½Ħà½Ĥà½ĵà½¦":10134,"à¾·à¾°":10135,"à½Ļà½Ħà½¦":10136,"à½ĳà½ĺà½¢à½ĸ":10137,"à¾¦à¾·à½±à½´à¼ĭ":10138,"à½Ĥà½Ħà½ħ":10139,"à½Ĥà½ĵà½¦à½Ĳ":10140,"à½łà½ķà½ª":10141,"à½łà½Ľà½¦":10142,"à¾Ńà½±à½²":10143,"à½łà½Ĩà½¢à½ĸ":10144,"à½Ĥà½ĵà½łà½Ħ":10145,"à½£à½Ĥà½ĸà½ĳ":10146,"à½ĺà½ģà½łà½ĺà½Ľ":10147,"à½Ĥà½ıà½ĵà½Ĥà½¦":10148,"à½¤à½¢à½ĵà½¦":10149,"à½ĸà½ħà½ĳà½Ķà½¦":10150,"à½Ħà½Ħà½Ħ":10151,"à½Ĥà½ŀà½Ĥà½ĳà½Ħ":10152,"à½¦à½Ħà½ĺ":10153,"à¾Ĳà¾±à½´à¼į":10154,"Ġà¼£à¼¤à¼¦":10155,"à¼¢à¼¡à¼¢à¼¡":10156,"373":10157,"Ġà½łà½ĩà½£":10158,"Ġà½łà½ĩà½Ħ":10159,"à½¦à½Ķà½İ":10160,"à½Ĥà½ķà½¢":10161,"à½ĸà½ĺà½ī":10162,"à½ĵà½Łà½Ĥ":10163,"à½ĵà½łà½Ĥà½ł":10164,"à½ĺà½ĸà½ıà½Ħ":10165,"à½£à½Ĥà½ıà½ĵ":10166,"à½£à½ģà½¢":10167,"à½Ĥà½¦à½ĸà½Ł":10168,"à½Ģà½ĩ":10169,"à½ĸà½¦à½ĳà½ĺ":10170,"à¾±à½²à¼ĭà½¾":10171,"à½Ķà½¢à½łà½ļ":10172,"à½ĵà½¦à½ĳà½ĸà½Ħ":10173,"à½Ħà½¦à½ĸà½ł":10174,"à½ĳà½ĸà½Ħà½Ĳ":10175,"à½¨à½ģà½¦":10176,"à½ĸà½ĳà½Ĥà½Ĥà½¦":10177,"à½ĺà½łà½ĵ":10178,"à½Ļà½ĺà½¡":10179,"à½ĺà½Ľà½ĳà½Ķà½¢":10180,"à½Ĥà½¦à½£à½Ķ":10181,"à¾Ĳà¾±à½ºà¼ĭà½²":10182,"à½£à½Ĥà½Ĥà½¦":10183,"à½łà½ļà½£à½Ĥ":10184,"à½ĳà½Ĥà½łà½Ħ":10185,"à½Ĥà½ıà½ĵà½Ĥà½ī":10186,"à½Ĭà½¤":10187,"à½ĸà½ĸà½ĸà½ĸà½¦":10188,"à¾Ĳà¾²à¼ĭà¼į":10189,"à¾µà¾¨à½ºà¼ĭ":10190,"Ġà¼£à¼¤à¼§":10191,"à¾ļà¾²à½²à¼ĭ":10192,"à½Ĺà½ŀ":10193,"à½©à½£":10194,"à½ĥà½ĸ":10195,"à¼¢à¼¡à¼£à¼¨":10196,"347":10197,"351":10198,"365":10199,"376":10200,"à¾µà¾¨à½±à½¾à¼ĭ":10201,"Ġà½²":10202,"à¼ĭà½¶":10203,"à½¦à½¡à½¦":10204,"à½²à¼ŀà¼į":10205,"à½Ĥà½ĸà½ĵ":10206,"à½ĸà½ģà½¦":10207,"à½ĸà½ļà½¢":10208,"à½¢à½ĵà½¢":10209,"à½ĵà½Ĥà½¡à½¦":10210,"à½łà½łà½Ħ":10211,"à½£à½ĸà½ħà½¦":10212,"à½ºà¼ĭà¼´à¼į":10213,"à½¡à½Ķà½£":10214,"à½Ĩà½ĸà½Ĥ":10215,"à½ĸà½¦à½łà½ĸ":10216,"à½ĳà½Ħà½ĺà½ĳ":10217,"à½īà½£à½ĵ":10218,"à¾³à¾²":10219,"à½łà½Ĥà½¤":10220,"à½£à½¦à½ĺà½ĳ":10221,"à¾²à½¼à½¾à¼į":10222,"à½Ĥà½Ħà½ķ":10223,"à½ĺà½Ĩà½ĵà½¦":10224,"à½ĳà½Ģà½łà½ĳ":10225,"à½£à½ĺà½ĩà½£":10226,"à¾Ĵà½¼à¼ĭà½²":10227,"à½īà½ĺà½¦à½¢":10228,"à½ĳà½ĳà½ĸà½¦":10229,"à½İà½Ħ":10230,"à½ĸà½ŀà½Ĥà½Ĳ":10231,"à½Ĳà½£à½ĳà½Ħ":10232,"à½ĳà½Ģà½łà½ł":10233,"à½łà½ĩà½ĺà½Ķà½ł":10234,"à½¢à½¦à½ĳ":10235,"à½ķà½ĺà½Ķà½¢":10236,"Ġà¼£à¼¤à¼¡":10237,"Ġà¼£à¼©à¼¢":10238,"Ġà¼§à¼¡à¼¡":10239,"à¼£à¼£à¼£à¼£":10240,"à¾»à½´":10241,"à½©à½Ķ":10242,"à½ĵà½Ķà½¦à½ĵ":10243,"à½Ĥà½Ĳà½ķ":10244,"357":10245,"372":10246,"à½Łà½Łà½Ł":10247,"à¼ĭà¾¡à½¼à¼ĭ":10248,"à¼ĭâĪ¶":10249,"à½ĳà½¦à½Ħ":10250,"à½Ĥà½ĺà½ģà½¢":10251,"à½ĸà½ĳà½ĺà½¢":10252,"à½ĸà½Ĳà½¢":10253,"à½¢à½Ĥà½ŀà½Ĥ":10254,"à½Ħà½Ķà½ī":10255,"à½ĺà½Łà½ĸ":10256,"à½ĺà½Ģà½ł":10257,"à½£à½ĳà½Ķà½ł":10258,"à½¡à½«":10259,"à½Ģà½Ĥà½ŀà½ĵ":10260,"à½Ĩà½łà½ĸ":10261,"à½ħà½ķ":10262,"à½ħà½ī":10263,"à¾±à½²à¼ĭà½Īà½º":10264,"à½ļà½Ħà½ĵ":10265,"à½īà½Ł":10266,"à½Ķà½¢à½£à½¦":10267,"à½ĸà½¢à½¢à½ĸ":10268,"à½ĵà½¦à½Ĥà½ĳ":10269,"à½Ħà½¦à½ĩ":10270,"à½¡à½Ħà½łà½ģ":10271,"à½ĳà½ĸà½Ķ":10272,"à¾©à½±à½²à¼ĭ":10273,"à½ĳà½ĺà½ħà½ĵ":10274,"à½Ĥà½Ħà½Ķ":10275,"à½ĺà½ģà½ĵà½ĺ":10276,"à½ĸà½ĳà½Ĥà½Ĥà½¡":10277,"à½¢à½ĸà½¡":10278,"à½ĸà½¦à½ĺà½ī":10279,"à½Ĥà½ĵà½ĳà½ĳ":10280,"à½ĺà½Ĳà½łà½ħà½ĵ":10281,"à½ĺà½ģà½łà½ĵ":10282,"à½ĺà½Ĳà½¢à½Ģ":10283,"à½ĳà½ĺà½¢à½£":10284,"à½¦à½¢à½ĸà½¦":10285,"à½łà½ļà½£à½ŀ":10286,"à½ĸà½Ľà½¦":10287,"à½Ĩà½Ĥp":10288,"à½Ĥà½ĳà½Ĥà½¦à½¦":10289,"à½¦à½¦à½Ķ":10290,"Ġà½ĵà½ĸ":10291,"à¾Łà¾Ńà¾ĥ":10292,"à½ĥà½ı":10293,"355":10294,"398":10295,"à¼ĭà¾Ĳà¾±à½º":10296,"à½¦à½Ĥà½¡à½¦":10297,"à½ĳà½§à½¢":10298,"à½Ĥà½ĺà½ī":10299,"à½¢à½Ĥà½ł":10300,"à½ĵà½ĸà½ĸ":10301,"à½Ħà½ĺà½ģà½¦":10302,"à½ĺà½ĸà½Łà½Ħ":10303,"à½łà½ĺà½ī":10304,"à½Ķà½Ĥà½¢":10305,"à½¡à½ĳà½ĸà½Ħ":10306,"à½Ģà½ĸà½ħ":10307,"à½ŀà½łà½ĳ":10308,"à½ģà½¢à½Ħ":10309,"à¾¡à¾¡à½¼":10310,"à½ĸà½łà½ĺà½¢":10311,"à½ĸà½łà½Ĩà½ĳ":10312,"à½łà½ĸà½ĺà½¦":10313,"à½¨à½Į":10314,"à½Ĥà½ŀà½ĵà½Ĥà½ī":10315,"à¾Ĺà½ºà¼ĭà½²":10316,"à½ĺà½ļà½ĵà½ĸ":10317,"à½ŀà½£à½ĵ":10318,"à½ĺà½Ĳà½¢à½ĳ":10319,"à½Ĳà½¢à½£":10320,"à½Ĳà½¢à½Ķà½¢":10321,"à½£à½Ĥà½¦à½ĺ":10322,"à½ļà½ĵà½£":10323,"à½łà½ĸà½ĳà½ĵ":10324,"à¾µà½ºà½¾à¼ĭ":10325,"Ġà¼£à¼§à¼¤":10326,"à¾ļà½±à¾Ģà¼ĭ":10327,"Ġà½¨à½ĺ":10328,"à½£à½£à½£":10329,"à¼ĭà¾¢à¼į":10330,"359":10331,"375":10332,"à½Ĺà½ıà½Ł":10333,"Ġà½łà½ĸà½Ħà½¦":10334,"à¼ĭ[":10335,"à½¦à½ĵà½łà½Ħ":10336,"à½¦à½ļà½Ħà½¦":10337,"à½Ħà½Ĩà½Ĥà½¦":10338,"à½Ķà½Łà½Ĥ":10339,"à½£à½Łà½ĳ":10340,"à½¼à¼ĭà¼ŀà¼į":10341,"à½Ģà½¦à½¢":10342,"à½Ķà½łà½ĸà½¢":10343,"à½ģà½¢à½ĸ":10344,"à½ģà½ĺà½ĺ":10345,"à½Ĳà½ĺà½Ħ":10346,"à½¤à½£à½¦":10347,"à½¤à½Ķà½ĳ":10348,"à½¤à½ĺà½Ĳà½ĸà½¦":10349,"à¾Ĳà¾Ń":10350,"à½ĳà½Ĥà½łà½ĩ":10351,"à½ĵà½¦à½Ķà½¢":10352,"à¾²à½´à½¾":10353,"à¾©à¾±à½²à¼ĭ":10354,"à¾·à¾±à½º":10355,"à½¢à½Ħà½ĳà½ĸà½Ħ":10356,"à½ĺà½Ĳà½łà½ģ":10357,"à½ĳà½ĺà½¡":10358,"à½¾à½²":10359,"à½ĺà½Ľà½ĳà½Ĩ":10360,"à½łà½ĳà½¦à½ĩ":10361,"à½ĵà½ĺà½Ķ":10362,"à¼¤à¼¡à¼¨à¼¢":10363,"à½İà½Ĩ":10364,"à½ıà½ĵà½ĺà½Ĳà½ł":10365,"à½Ĥà½¢à½¢":10366,"à½¤à½¢à½ĸà½ł":10367,"à½ĸà½ıà½Ĥà½¦à½ĵà½¦":10368,"Ġà½¢à½ĳ":10369,"Ġà¼£à¼¥à¼©":10370,"Ġà¼£à¼¤à¼¨":10371,"à½ĳà½Ĥà½¦à½Ħà½¦":10372,"à¼Ģà½Ĩ":10373,"366":10374,"367":10375,"Ġà½Ĥà½ĵà½Ĥ":10376,"Ġà½ĩà½Ĥ":10377,"à¼ĭà½³":10378,"à½Ĥà½ĸà½ħà½ĳ":10379,"à½ĸà½ĸà½Ģà½Ĥ":10380,"à½¢à½ĳà½Ĥà½ł":10381,"à½Ħà½£à½ĵ":10382,"à½¼à¼ĭà½Īà½²à¼ĭ":10383,"à½ĳà½Ħà½¢à½ĸ":10384,"à½ĳà½Ħà½Ĳà½ĸà½¦":10385,"à½ģà½łà½Ĥ":10386,"à½ļà½Ĥà½ħ":10387,"à½ĺà½¦à½ĳà½Ķ":10388,"à½īà½łà½Ħ":10389,"à½ĸà½¢à½Ħà½¦":10390,"à¾£à¾²à¼ĭ":10391,"à½ĵà½¦à½ĳà½Ķ":10392,"à½Ħà½¦à½Ģà½¢":10393,"à¾³à¾Ĺà½¼à¼ĭ":10394,"à¾¡à¾Ńà¼ĭ":10395,"à½łà½Ĥà½ĸà½¦":10396,"à½£à½¦à½łà½ķ":10397,"à½Ķà½¦à½Ķà½ł":10398,"à¾·à¾°à¼ĭ":10399,"à½Ļà½ĳà½Ħ":10400,"à½Ļà½Ŀ":10401,"à½Ļà½łà½ĺ":10402,"à½ħà½ĳà½Ĥà½¦":10403,"à½¢à½ĸà½ıà½Ħ":10404,"à½£à½ĺà½£à½¦":10405,"à¾¡à½´à¼įà¼ĭ":10406,"à½ĵà½ĺà½¤":10407,"à¾£à¼ĭà¼´":10408,"à½ĺà½¢à½ĵ":10409,"à½ģà½ĺà½¦à½ħà½ĳ":10410,"à½ĺà½ļà½ĺà½¦à½ĵ":10411,"à½ĺà½ĩà½Ĥ":10412,"à½¥à½§":10413,"à½¢à½¦à½ł":10414,"à½Įà½ĸà½¦":10415,"à½ĳà½£à½¢":10416,"à½¢à½Ĥà½£à½¦":10417,"Ġà¼£à¼¦à¼¦":10418,"Ġà¼£à¼©à¼¤":10419,"à½Ĺà½ĺà½¦":10420,"Ġà½¨à½Ģ":10421,"à¾·à¾±à¾ĥà¼ĭ":10422,"à½ĸà½īà½ĳ":10423,"382":10424,"à¼ĭà¾Ģà¼ĭ":10425,"à½ĳà½¦à½ĳ":10426,"à½Ĥà½ĸà½¤":10427,"à½Ĥà½Ķà½łà½ĺ":10428,"à½Ĥà½ķà½£":10429,"à½ĸà½Ħà½ł":10430,"à½ĵà½£à½łà½Ħ":10431,"à½Ħà½łà½ĳà½¦":10432,"à½Ĥà½¦à½ĳà½Ķ":10433,"à½Ģà½ĵà½ĳ":10434,"à¾Łà¾Ĳà½¼":10435,"à½Ķà½łà½ŀ":10436,"à½ĺà½¦à½ĺà½Ľà½ĳ":10437,"à½ĳà½Ĥà½ĩ":10438,"à½łà½ĳà½łà½ĸà½ł":10439,"à½Łà½ĸà½ŀ":10440,"à½Łà½ķà½¡":10441,"à½ĸà½ŀà½Ħà½¦":10442,"à½£à½¦à½ĳà½ĺ":10443,"à½¡à½Ħà½Ĥà½ī":10444,"à½Ķà½¦à½ĵà½Ħ":10445,"à½ĺà½Ĳà½łà½Ĥ":10446,"à¾¨à½´à¼į":10447,"à½ħà½ĵà½£à½¦":10448,"à½ĸà½Łà½ĸà½Łà½Ħ":10449,"à½¨à½ĳà½Ĥ":10450,"à½ĩà½łà½Ħ":10451,"à½İà½Ļ":10452,"à½ĺà½Ĳà½¢à½¦":10453,"à½Ĳà½£à½¢à½Ħ":10454,"à½¤à½¢à½¦":10455,"à½Ĭà½łà½ĺ":10456,"à¾³à½´à¼ĭà½´":10457,"à½łà½ĸà½¢à½ĸà½¦":10458,"à½ķà½Ĭà½ı":10459,"à½ĳà½ĺà½ĵà½Ķà½ł":10460,"à½Ĩà½Ĥà½ĺà½ĳ":10461,"à½Ĩà½Ĥà½¥":10462,"à¼¡à¼¨à¼¡à¼§":10463,"à½Ģà½¦à½£":10464,"à½´à¼ĭà¼įà¼ĭà¼į":10465,"à¾łà½±à½´à¼ĭ":10466,"345":10467,"380":10468,"384":10469,"à½Ľà½Ľà½¨":10470,"à½Ĥà½Ŀà½Ĥ":10471,"à½¦à½ĸà½¤":10472,"à½ĺà½Łà½ł":10473,"à½łà½ĵà½Ħ":10474,"à½ļà½ĵà½Ĥ":10475,"à½łà½ĳà½ĸà½ŀ":10476,"à¾£à½±à¼į":10477,"à¾£à¼´":10478,"à½ĵà½¦à½Ĥà½¦à½Ħ":10479,"à½Łà½ĵà½¦":10480,"à½łà½ĸà½ª":10481,"à½ĺà½Ĳà½ª":10482,"à½ħà½ĵà½ĸà½¦":10483,"à½ħà½ĵà½ļ":10484,"à½ĳà½ĸà½Ħà½Ĥà½¦":10485,"à½ĩà½Ģ":10486,"à½Ĥà½ĳà½ĳà½Ĥ":10487,"à½ĺà½Ľà½ĳà½ĳà½Ĥ":10488,"à½Ĩà½Ĥà½¦à½Ĩ":10489,"à½ĸà½Ģà½łà½ĸà½ŀ":10490,"à½ģà½ĺà½¦à½ĳ":10491,"à¾Ńà¼ĭà½²":10492,"à½Ħà½ĵà½Ķà½ł":10493,"à½ĵà½ĳà½ĳà½Ħ":10494,"à½ĳà½ĺà½¢à½ĺ":10495,"à½Ĭà½¨":10496,"à½ŀà½ĸà½¦à½Ĥà½ī":10497,"à½ĵà½ĺà½¦à½ĺà½ĵ":10498,"à½łà½ĸà½¢à½¦":10499,"Ġà½ĳà½ĸà½¢":10500,"à¾Łà½²à¼ĭà½²":10501,"Ġà¼£à¼¥à¼¤":10502,"Ġà¼£à¼¦à¼£":10503,"à¾Ľà½¾à¼į":10504,"à¾´à½±à¼ĭ":10505,"à¾¶à½²":10506,"à½ĥà½ī":10507,"à¾·à½±à½´à½±à¼ĭ":10508,"356":10509,"Ġà½ĺà½Ľà½Ħà½¦":10510,"à¼ĭà¾´":10511,"à½¦à½¡à½ĵ":10512,"à½¦à½Ģà½¦":10513,"à½Ħà½ĳà½Ķà½£":10514,"à½£à½ĸà½Ľ":10515,"à½Ĩà½Ķà½¦":10516,"à½Ķà½¢à½Ł":10517,"à½ĸà½¢à½ĳà½Ģà½ł":10518,"à½ĸà½łà½Ĥà½Ĥ":10519,"à½Ļà½ĺà½Ĳ":10520,"à½ĸà½ĳà½ĸà½¢":10521,"à½Ĥà½ĵà½¦à½ĺà½Ĩ":10522,"à½Ľà½ĳà½ĺ":10523,"à¾²à½¼à¼ĭà¼Ĳ":10524,"à½ĺà½ļà½ĵà½¡":10525,"à½¾à½¾à¼į":10526,"à½ĸà½¦à½ĺà½īà½ĺ":10527,"à½łà½Ĥà½£à½ĸà½¢":10528,"à¾Ģà¼ĭà¼į":10529,"à½ķà½Ĭà½Ĥ":10530,"à¾µà½±à½²à½¾à¼ĭ":10531,"Ġà¼£à¼¦à¼©":10532,"Ġà¼£à¼§à¼£":10533,"à¾ļà¾Ģà¼ĭ":10534,"à¾ļà¾Ńà½±à¼ĭ":10535,"à¾ľà¼ĭà½±à½²à¼ĭ":10536,"à½Ĺà½ĳà½Ħ":10537,"à½±à½²à¼įà¼ĭ":10538,"à½£à½ķà½Ĥà½¦":10539,"369":10540,"379":10541,"à½Ľà½Ľà½Ľà½§":10542,"à½¢à½¤à½¢":10543,"à½ĵà½īà½ł":10544,"à½Ħà½ĺà½ģà½ĵ":10545,"à½ĺà½Į":10546,"à¾±à¾¤à¾²à½²":10547,"à½łà½łà½ĺ":10548,"à½²à¼ĭà¼ŀà¼į":10549,"à½ĸà½¦à½ĺà½Ĳà½¢":10550,"à½ģà½ĳà½ĸ":10551,"à½ģà½Ĥà½ħ":10552,"à½łà½ĸà½ĳà½ĺ":10553,"à½ĳà½ĸà½łà½ĳ":10554,"à¾Ļà¼ĭà¼į":10555,"à¾Ļà½±à½²à¼ĭ":10556,"à½ħà½ĳà½ĸà½¢":10557,"à½ħà½ĳà½ĺà½ļà½ĵ":10558,"à¾«à¾²à¼ĭ":10559,"à½ĩà½ī":10560,"à½£à½ĺà½ĺà½Ħ":10561,"à½ĳà½Ķà½łà½ĺà½Ĩ":10562,"à½ĸà½Ĥà½Ķ":10563,"à½ĸà½Ģà½łà½¤":10564,"à½Ħà½Ĥà½ĺà½Ħ":10565,"à¾¤à¾±à¾¡à½¼":10566,"à½ĸà½ŀà½Ĥà½ļ":10567,"à½ĸà½ŀà½Ĥà½¢à½Ħ":10568,"à½Ĭà½Ķ":10569,"à½£à½Ħà½ļ":10570,"à½ĸà½ĵà½£":10571,"à¾©à¾Ńà¼ĭà½²":10572,"Ġà¼£à¼¦à¼¨":10573,"Ġà¼£à¼©à¼¡":10574,"à½ĭà½§":10575,"à¼¢à¼¡à¼¤à¼£":10576,"361":10577,"à¼ĭà¿Ģ":10578,"Ġà½ĸà½¤à½ĺà½¦":10579,"à½¦à½ļà½ĵ":10580,"à½¦à½£à½¢":10581,"à½ĳà½Łà½ĳ":10582,"à½ĳà½¤à½¢":10583,"à½ĳà½ķà½£":10584,"à½ĳà½Ļà½¦":10585,"à½Ĥà½Ĥà½ĵà½ĳ":10586,"à½Ĥà½Ģà½¢":10587,"à½Ĥà½Ĥà½Łà½ł":10588,"à½ĸà½ĸà½ħà½ĳ":10589,"à½ĸà½ĳà½Ķà½Ĥ":10590,"à½ĵà½¢à½ĺ":10591,"à½Ķà½ĳà½Ķà½ł":10592,"à½Ĩà½¢à½Ħ":10593,"à½ĳà½Ħà½§":10594,"à½ĳà½Ĥà½Ĥà½ĵà½¦":10595,"à½ĳà½Ĥà½¡à½¦":10596,"à½Ķà½¢à½Ĥà½ŀà½ĵ":10597,"à¾²à½´à¾ĥà¼į":10598,"à¾·à¾±à½²à¼ĭ":10599,"à¾²à½¼à¼µà¼ĭ":10600,"à½ħà½ĳà½ĳà½ĳ":10601,"à½£à½ĺà½ĩ":10602,"à½Ĥà½ĵà½ĵà½¦":10603,"à½ĳà½Ķà½łà½ĸà½¢":10604,"à¾Ĳà½¼à½¼":10605,"à½ĳà½Ĥà½łà½ł":10606,"à½Ħà½Ĥà½Ķ":10607,"à½Ħà½Ĥà½Ĩ":10608,"à½İà½łà½ĺ":10609,"à½Ĥà½£à½Ħ":10610,"à½¤à½¦à½£":10611,"Ġà¼£à¼¥à¼¦":10612,"Ġà½Ĥà½¦à½ĳ":10613,"à¾łà¾Ģ":10614,"à½«à½¡":10615,"à¼ĭà¼ŀà¼ĭ":10616,"377":10617,"393":10618,"à½ĸà½ĸà½ıà½Ħ":10619,"à½ĸà½Ĩà½Ĥ":10620,"à½Ķà½Ħà½Ħ":10621,"à½ŀà½Ĥà½ĵà½¦":10622,"à½ŀà½Ĥà½ħ":10623,"à½ĸà½¦à½łà½Ĥ":10624,"à½ĳà½Ĥà½Ļà½Ħ":10625,"à½Łà½ī":10626,"à½¡à½Ħà½Ĥà½Ł":10627,"à½¡à½Ħà½¢à½ĸ":10628,"à½¨à½ĳà½ĸ":10629,"à½ĸà½ĳà½Ĥà½Ĥà½ŀà½ĵ":10630,"à½Ĥà½ĳà½¡":10631,"à¾«à½¼à½¼":10632,"à½Ļà½ĺà½¡à½Ħ":10633,"à½ĸà½Ģà½łà½ĺà½Ĩ":10634,"à½ĺà½ĵà½ĵà½ĵ":10635,"à½£à½ĵà½Ĥà½ħ":10636,"à½£à½ĵà½Į":10637,"à½Ĥà½¢à½ĺà½ģà½ĵ":10638,"à½Ŀà½ĳà½Ħ":10639,"à½ĸà½ħà½ĳà½£":10640,"à½¦à½Ħà½ĸ":10641,"à½Ĥà½ĺà½İ":10642,"à½ĸà½¦à½Ĥà½¦à½Ķà½ł":10643,"à¼¡à¼¡à¼¡à¼¡à¼¡":10644,"à½łà½Ĥà½Ĥà½¦à½Ķ":10645,"à¾ŀà¾ŀà¼į":10646,"439":10647,"Ġà½ļà½ĸ":10648,"à½¦à½ĸà½ı":10649,"à½Ĥà½ĳà½ĺà½Ħà½¦":10650,"à½ĵà½ĸà½ıà½Ĥà½¦":10651,"à½ĵà½ĸà½Ħ":10652,"à½Ħà½ĸà½łà½ĺ":10653,"à½Ķà½£à½Ħ":10654,"à½Ģà½ĺà½Ħ":10655,"à½ŀà½ĸà½ĳ":10656,"à½Ĩà½Ĥà½Ł":10657,"à½Ķà½łà½ļà½Ħ":10658,"à½ģà½¡à½Ħ":10659,"à½Ĳà½Ĭ":10660,"à½ĸà½łà½Ĥà½¦":10661,"à¾·à½¾à¼ĭà¼į":10662,"à½ĺà½Ĩà½ĺ":10663,"à½ĺà½Ħà½£à½ĵ":10664,"à½£à½Ĥà½ĸà½¦":10665,"à½£à½Ĥà½ĸà½ŀ":10666,"à½Ħà½Ĥà½ĸà½¦":10667,"à¾ķà¼į":10668,"à½ĺà½ģà½¦à½Ĥ":10669,"à½£à½ĵà½ĸà½ĳ":10670,"à½łà½ĺà½ĸ":10671,"à½ĳà½Ķà½Ĥà½Ķ":10672,"à½łà½Ĥà½£à½¢":10673,"à½ĵà½ĺà½¦à½ĸ":10674,"à½¡à½¦à½ģà½Ħ":10675,"à½¦à½ĳà½¦à½¢":10676,"Ġà¼£à¼£à¼¦":10677,"Ġà¼£à¼¥à¼¨":10678,"Ġà¼£à¼¥à¼£":10679,"Ġà¼¤à¼¡à¼¡":10680,"à½ĭà½ĸà½Ľ":10681,"à¼¢à¼¡à¼£à¼¢":10682,"360":10683,"368":10684,"387":10685,"406":10686,"414":10687,"à¼ĭà½²à¼ĭà¼į":10688,"à¾¢":10689,"à½¦à½Ĥà½Ħà½¦":10690,"à½¢à½ģà½¦":10691,"à½Ħà½ĺà½ģ":10692,"à½£à½ĸà½ŀà½Ĥ":10693,"à½£à½ĺà½ļà½ĺà½¦":10694,"à½Ģà½¢à½ĸ":10695,"à½ķà½Ĩ":10696,"à½ķà½ŀà½Ħ":10697,"à½ļà½£à½ĺ":10698,"à¾Ĳà½ºà¼įà¼ĭ":10699,"à½ĸà½¢à½ĳà½ĺ":10700,"à¾£à¾¡à½¼":10701,"à½ĸà½ŀà½Ĥà½ī":10702,"à½¡à½Ħà½¤à½¦":10703,"à½Ķà½¦à½£à½ĺ":10704,"à¾·à¾²à¼į":10705,"à½Ļà½ĺà½ģ":10706,"à¾²à¼ĭà½¼":10707,"à¾³à½¼à¼µà¼ĭ":10708,"à½ĺà½ģà½ĸ":10709,"à½¨à½Ŀà½ł":10710,"à½ĵà½Ħà½£":10711,"à¾·à¼ĭà¼Ĳ":10712,"à½ĺà½Ĥà½ĵà½Ħ":10713,"à½ĳà½Ķà½łà½Ĳ":10714,"à½ĺà½Ĳà½łà½ĵà½¦":10715,"à¾£à¼ĭà½²":10716,"à½ĸà½Ģà½łà½ĸà½¦":10717,"à½ģà½ĺà½¦à½Ĳà½ĺà½¦":10718,"à½Ħà½Ĥà½Ĥà½¦":10719,"à½£à½ĵà½ļ":10720,"à½¢à½ĸà½¦à½¦":10721,"à½ĸà½Ľà½¢":10722,"à½£à½łà½Ħà½ĺ":10723,"à½ļà½Ħà½¦à½Ķà½¢":10724,"Ġà¼¡à¼¡à¼¡à¼¢":10725,"à½ĸà½¤à½Ĥà½¦à½¦":10726,"à½Īà¾±à½º":10727,"à¾ªà½±à½²à¼ĭ":10728,"Ġà¼£à¼©à¼©":10729,"Ġà¼£à¼§à¼¥":10730,"à¼Ģà½Ļà½Ģ":10731,"à¾¶à½º":10732,"à¼ĭà¼Ŀà¼Ŀà¼į":10733,"378":10734,"383":10735,"389":10736,"Ġà¼Ĵ":10737,"à¾ľà¾»à½²à¼ĭ":10738,"413":10739,"422":10740,"Ġà½ĺà½Ħà½¢":10741,"à½¢à½ĸà½Łà½Ħ":10742,"à½¢à½Ĥà½¢":10743,"à½ĵà½łà½Ĩà½ĳ":10744,"à½ĵà½ĳà½Ĥà½Ĥ":10745,"à½ĵà½Ģà½ł":10746,"à½ĺà½ĺà½ļà½ĺà½¦":10747,"à½ĺà½ĺà½ĩ":10748,"à½łà½Łà½ĳ":10749,"à½Ķà½Ĩà½ĵ":10750,"à½£à½Łà½Ĥ":10751,"à½£à½¤à½¦":10752,"à½Ĥà½¦à½Ļ":10753,"à½Ĥà½¦à½ĸà½ĺ":10754,"à½ºà¼ĭà½¾à¼ĭ":10755,"à½¡à½ĸà½£":10756,"à½Ĩà½Ĥà½ŀ":10757,"à½Ĩà½¢à½ĸ":10758,"à½ĳà½Ħà½ĳà½ĸà½Ħ":10759,"à½ħà½Ĥà½ī":10760,"à½ħà½Ĥà½ħ":10761,"à½ĳà½Ĥà½ĸà½ĳ":10762,"à½Ħà½¦à½ĺà½ĳ":10763,"à½Łà½Ĥà½ħ":10764,"à½ĳà½Ķà½Ķ":10765,"à½Ľà½Ŀ":10766,"à½ĺà½Ĩà½£":10767,"à½ĳà½Ģà½ĸ":10768,"à½ĺà½Ľà½łà½ĸ":10769,"à½¾à½²à¼ĭ":10770,"à½Ĳà½ĸà½¦à½ĳ":10771,"à½ĺà½īà½ĺà½ŀ":10772,"à½ĵà½Ĥà½Ħà½¦":10773,"à½ıà½ĵà½ĺà½Ħ":10774,"à½¥à½ļ":10775,"à½¢à½¦à½Ĩ":10776,"à¾Ĳà¾²à½´à¼į":10777,"à¾ªà¼ĭà¼į":10778,"Ġà¼£à¼©à¼§":10779,"Ġà¼£à¼©à¼£":10780,"Ġà¼¤à¼¢à¼¢":10781,"386":10782,"388":10783,"390":10784,"Ġà½łà½ļà½Ħ":10785,"à½¦à½Ĳà½£":10786,"à½¢à½Ļà½ĺ":10787,"à½¢à½Ĳà½ĸà½¦":10788,"à½¢à½ĳà½ĺà½¢":10789,"à½¢à½ĭ":10790,"à½Ħà½ĳà½Ĥà½ł":10791,"à½ºà½²à¼į":10792,"à½łà½Ķà½Ħ":10793,"à½Ķà½ķà½ĵ":10794,"à½£à½ħà½ĳ":10795,"à½Ģà½ĸà½ĳ":10796,"à½ŀà½ĸà½ŀ":10797,"à½Ĩà½¡à½Ħ":10798,"à½ĸà½¦à½ĸà½ł":10799,"à½ĳà½Ħà½Ĥà½ŀ":10800,"à½ģà½¤à½¦":10801,"à½Ĳà½ĸà½Ģ":10802,"à½Ķà½¢à½Ĥà½ħ":10803,"à½ĸà½¢à½ĺà½ģ":10804,"à¾£à½´à¼į":10805,"à½ĵà½¦à½łà½ķ":10806,"à½ĵà½¦à½ĺà½Ĳà½¢":10807,"à½ĸà½ħà½ĸà½ħà½¦":10808,"à½Ļà½Ķà½ł":10809,"à½ĵà½ĺà½Ģ":10810,"à¾Ĳà¾±à½¼à¼ĭà¼į":10811,"à½ĺà½ģà½łà½£à½¦":10812,"à½ģà½Ħà½£":10813,"à½Ģà½łà½¦":10814,"à½ĵà½¢à½¢":10815,"Ġà¼¢à¼¨à¼§":10816,"Ġà¼£à¼©à¼¦":10817,"Ġà½¡à½ĳ":10818,"à¼§à¼§à¼§à¼§":10819,"à¾·à¾²à½±à½´":10820,"à¼¢à¼¡à¼£à¼§":10821,"399":10822,"400":10823,"410":10824,"421":10825,"Ãł":10826,"à½¦à½Ĩà½ĵ":10827,"à½Ħà½ļà½ĳ":10828,"à½£à½łà½Ĩà½ĳ":10829,"à½£à½ģà½ł":10830,"à½Ĥà½¦à½łà½ģ":10831,"à½¡à½¢à½ĸà½¦":10832,"à½Ģà½ĺà½Ĳ":10833,"à½Ģà½Ĥà½ħ":10834,"à½Ģà½£à½ĵ":10835,"à½Ķà½łà½ĺà½Ħ":10836,"à½ĸà½¦à½£à½ĵ":10837,"à½ģà½ĸà½£":10838,"à½Ĳà½Ĥà½ħ":10839,"à½ķà½ģ":10840,"à½ĺà½¦à½ĺà½ĳ":10841,"à½Ħà½¦à½ħ":10842,"à¾³à½±à½´à¼ĭ":10843,"à½Łà½Ķà½¢":10844,"à½ĸà½łà½£":10845,"à½łà½Į":10846,"à½¡à½Ħà½Ħà½Ĥ":10847,"à½Ķà½¦à½Ĳà½ĺà½¦":10848,"à¾©à¾ªà¼ĭ":10849,"à¾©à½²à¼įà¼ĭ":10850,"à½¢à½ĸà½ķ":10851,"à½ĺà½īà½Ĥ":10852,"à½ĳà½ĳà½ħ":10853,"à½ĵà½Ĥà½ģ":10854,"à½Ĭà½ģ":10855,"à½¡à½¦à½Ģ":10856,"à½ĳà½ĺà½Ĥà½ļ":10857,"à½Įà½ĭ":10858,"à½łà½ĸà½ĳà½Ķà½¦":10859,"à½Ĩà½Ĥà½Ĩà½Ĥ":10860,"à½ĸà½Ħà½¢":10861,"à½ªà½Ĥà½¦":10862,"Ġà¼£à¼§à¼¦":10863,"Ġà¼£à¼¨à¼©":10864,"à¼ĭà½Īà¾¤à¾²à½²":10865,"à½ĵà½ıà½ĵà½ĵ":10866,"à½łà½łà½ł":10867,"à½ķà½Łà½¥":10868,"à¼Ŀà¼Ŀà¼į":10869,"Ãī":10870,"Ġà½ıà½ł":10871,"à½ĳà½łà½Ĳ":10872,"à½ĸà½§à½ł":10873,"à½Ħà½ĺà½Ĳà½¢":10874,"à½Ĥà½¦à½Ĥà½¦à½Ħ":10875,"à¾²à¾¤à½º":10876,"à½¡à½ĸà½ĳà½Ĥ":10877,"à½¡à½Ĥà½¡":10878,"à½ŀà½łà½ĺ":10879,"à½Ĩà½Ļ":10880,"à½ģà½łà½ģ":10881,"à½ĺà½¦à½ĺà½ł":10882,"à½ĺà½¦à½ĳà½Ķà½¦":10883,"à½Ķà½¢à½īà½ĵ":10884,"à½ĸà½¢à½ī":10885,"à½Ħà½¦à½Ĥà½Ħ":10886,"à¾²à½´à¼įà¼ĭ":10887,"à½£à½¦à½£à½ĺ":10888,"à½Ķà½¦à½¦à½¦":10889,"à¾²à½¼à¾ĥà¼ĭ":10890,"à½Ļà½ĸà½¢":10891,"à½ħà½ĳà½ķ":10892,"à½ħà½ĳà½ĵà½ĺ":10893,"à¾Ĺà½ºà¼ĭà¾İ":10894,"à½£à½ĺà½ĳà½ł":10895,"à½Ĥà½¡à½¦à½¢":10896,"à½ģà½ĺà½¦à½ĺà½Ĳà½ł":10897,"à½ĳà½ĳà½ĺà½ļ":10898,"à½ĸà½£à½ĳ":10899,"à½ĳà½¢à½ĵ":10900,"à½ĸà½¦à½ĺà½¦à½ı":10901,"à½Ĩà½Ĥà½łà½ĳ":10902,"à½ģà½¢à½ĺ":10903,"à½ĵà½¢à½Ĥ":10904,"à¾¤à½´à¼ĭà¼į":10905,"à½Īà¾²à½ºà¼ĭ":10906,"à½ĺà½īà½ĵà½Ķ":10907,"à½ŀà½Ĥà½¦à½Ķ":10908,"Ġà¼£à¼¤à¼£":10909,"Ġà¼£à¼¨à¼¨":10910,"Ġà¼£à¼§à¼¡":10911,"Ġà¼£à¼¨à¼¦":10912,"à½Ĵà½łà½Ħ":10913,"Ġà½Ĳà½ł":10914,"à¼ĭà½µà¾ĥ":10915,"à½ħà½ĳà½ĺà½ĳ":10916,"363":10917,"370":10918,"374":10919,"396":10920,"402":10921,"409":10922,"Ġà¿ļ":10923,"à½¦à½Į":10924,"à½ĸà½Ķà½ĵ":10925,"à½¢à½¢à½£":10926,"à½ĵà½Ķà½İ":10927,"à½´à¼ĭà½Īà½¼":10928,"à½ŀà½ĳà½Ĥ":10929,"à¾Łà¾±":10930,"à¾Łà¾©à½¼":10931,"à½Ķà½łà½ĺà½Ĥ":10932,"à½ĸà½¦à½Ĥà½¦à½ĵ":10933,"à½ļà½Ĭ":10934,"à½Ķà½¢à½īà½ĺà½¦":10935,"à½ĸà½łà½ĺà½ĳ":10936,"à½£à½¦à½Ķà½ł":10937,"à½£à½¦à½Ĥà½ĵà½¦":10938,"à½ĳà½ĺà½ĵà½¦":10939,"à¾¦à½¾à¼į":10940,"à½ĸà½Łà½£":10941,"à½ĺà½ĳà½łà½ĺ":10942,"à½ĸà½¦à½ĺà½¡":10943,"à½ĳà½Ķà½łà½Ĥ":10944,"à½£à½Ĥà½ĵà½Ħ":10945,"à½ĸà½ŀà½Ĥà½Ķà½ł":10946,"à½ĸà½ĸà½¦à½ĵ":10947,"à½łà½ĸà½ĳà½Ķà½¢":10948,"Ġà¼£à¼¦à¼§":10949,"Ġà¼£à¼¦à¼¤":10950,"à½ĳà½Ķà½¢à½ĸ":10951,"à¾Ľà½±à¼į":10952,"à¾·à¾²à¾ĥà¼ĭ":10953,"à¼ĭà¼ıà¼ĭ":10954,"à½¦à½ĺà½Ħà½ł":10955,"à½Ĥà½ĸà½Łà½ł":10956,"à½Ĥà½ĳà½ĺà½ĵ":10957,"à½ĸà½Ĩà½Ħ":10958,"à½¢à½ĺà½ģà½ĵ":10959,"à½ĵà½ģà½¦":10960,"à½ĵà½ıà½ĺ":10961,"à¾±à¾±à½ºà¼ĭ":10962,"à½£à½Ĥà½ĳà½ĵ":10963,"à½Ģà½łà½ĩ":10964,"à½Ĩà½ĺà½Ĩ":10965,"à½Ķà½łà½Ĥà½Ĥ":10966,"à½ģà½ĸà½ŀ":10967,"à½Ĳà½ĺà½Ĥ":10968,"à½ĺà½¦à½ĺà½Ĥ":10969,"à½īà½Ħà½¦":10970,"à½Ķà½¢à½ĸà½ħ":10971,"à¾·à¾Ńà¼į":10972,"à½Ĥà½ŀà½Ĥà½ĵ":10973,"à½ĺà½ģà½¡":10974,"à½£à½ĺà½Ķ":10975,"à½¾à½¼à¼ĭ":10976,"à½Ļà½ĺà½£à½¦":10977,"à½ļà½ĳà½¢":10978,"à½ĳà½Ģà½¢à½Ĥ":10979,"à½ŀà½£à½£":10980,"à½Ĥà½¦à½¢à½¦":10981,"à½Ŀà½Į":10982,"à½ĵà½ĺà½¦à½ĵ":10983,"à½Ķà½łà½ĺà½£":10984,"à½ĸà½ĸà½ĵà½¦":10985,"Ġà¼£à¼£à¼¨":10986,"à½ĳà½Ķà½¢à½ĺ":10987,"à¼Ģà½ģà½İ":10988,"à½Ĳà½ĺà½¦à½ħà½ĳà½£à½¦":10989,"à½ĭà½İ":10990,"à½ĭà½Ģà½ł":10991,"Ġà¼Ĳà¼į":10992,"à½ĳà½ĸà½łà½¦à½ĺà½¦":10993,"à½©à½¨":10994,"à½ĥà½Ķ":10995,"à¾¦à¾·à¾±à½±à¼ĭ":10996,"à½±à½¾à¼ĭà¼į":10997,"Ãĥà½ĺ":10998,"395":10999,"441":11000,"416":11001,"417":11002,"418":11003,"431":11004,"à½¢à½ĺà½Ĳà½¢":11005,"à½Ħà½łà½Ĳ":11006,"à½łà½ĺà½Ĳà½ł":11007,"à½²à¼ĭà¾²":11008,"à½£à½ĸà½ıà½Ħ":11009,"à½£à½ĸà½ĺ":11010,"à½Ĥà½¦à½ĸà½¦à½ĺ":11011,"à¾²à¾¡à½º":11012,"à½ŀà½ı":11013,"à½ĸà½¦à½ĵà½ĳ":11014,"à½ĳà½Ħà½łà½Ľ":11015,"à½ģà½Ĥà½ŀà½ĵ":11016,"à½Ĳà½Ķà½ł":11017,"à½Ĳà½Ŀ":11018,"à½ĺà½¦à½£à½ł":11019,"à½ıà½£à½ł":11020,"à½¡à½Ħà½ĸà½ĳà½Ĥ":11021,"à½ĺà½ļà½Ĥà½¦":11022,"à½Ĥà½ĵà½¦à½ģ":11023,"à½ĺà½ģà½łà½ĳ":11024,"à½ĺà½Ħà½¤":11025,"à½ĸà½ıà½Ĥà½¦à½£":11026,"à½ĸà½Ļà½ĵà½¦":11027,"à½ĸà½Łà½Ħà½¢":11028,"à½ĺà½Ĳà½łà½ĺà½Ħ":11029,"à½ĵà½ĺà½Ķà½¢":11030,"à½łà½Ħà½ĳ":11031,"à½Ĥà½¢à½ĳ":11032,"à½ĸà½Ļà½ĵà½Ķ":11033,"à½ļà½£à½ĳ":11034,"à¼įà¼ĭà¼įà¼ĭà¼į":11035,"à½¦à½ĵà½¦à½ĵ":11036,"à½ĸà½ĸà½ĸà½ĸà½ĸà½ĸà½ĸà½ĸ":11037,"à¾·à¾²à½´à½¾à¼į":11038,"425":11039,"Ġà½Ĳà½ĺà½¦à½ħà½ĳ":11040,"à½¦à½Ĥà½ĳà½ĵ":11041,"à½Ĥà½Ķà½ĺ":11042,"à½ĸà½Ĳà½£":11043,"à½¢à½ĳà½ĵ":11044,"à½Ķà½Ĥà½¦à½¢":11045,"à½Ķà½Ģà½¢":11046,"à½£à½łà½Ĥà½£":11047,"à½Ģà½ĸà½ŀ":11048,"à½Ģà½ĵà½Ĥ":11049,"à½ŀà½Ł":11050,"à¾Łà¾Ĺà½º":11051,"à¾Łà¾Ńà½±":11052,"à½ĳà½Ħà½ĺà½¢":11053,"à½ļà½Ķà½¦":11054,"à¾Ĳà¾²à½¼à¼ĭ":11055,"à½ĳà½Ĥà½ĳà½ĸ":11056,"à½Ķà½¢à½Ĥà½ĵ":11057,"à½Łà½Ĥà½¡":11058,"à½ĳà½ĸà½ĳà½¦":11059,"à½ĸà½ħà½ĳà½Ħ":11060,"à½Ľà½ĺà½¦":11061,"à½¨à½ĸà½ĳ":11062,"à½Ĳà½ĺà½¦à½ĺ":11063,"à½ħà½ĳà½łà½ģ":11064,"à½±à¼ĭà½±à¼ĭ":11065,"à½Ĥà½ĳà½ŀ":11066,"à¾Ļà½²à½²":11067,"à½łà½ĳà½¦à½ĺà½Ħ":11068,"à½łà½Ĩà½ĸà½¦":11069,"à½ķà½ĵà½Ĥà½ĳà½Ĥà½¦":11070,"à½Ĥà½¢à½ĸà½¦":11071,"à½£à½Ĥà½¦à½ĸ":11072,"à½ĳà½Ģà½łà½ĺà½Ĩà½ĵ":11073,"à½Ĥà½ĵà½ĳà½¦":11074,"à½Ĥà½ŀà½Ĥà½Ĥà½¡":11075,"Ġà½¢à½ĵ":11076,"à¾·à½²à¼ĭà¾İ":11077,"à½Ĩà½Ĥà½ģ":11078,"à½£à½Ħà½¢":11079,"à¾µà¾¨à½²à¼ĭ":11080,"à½ĺà½ĵà½ĵà½Ķ":11081,"à¾«à½²à½¾à¼ĭ":11082,"à¾²à½±à½²à¾ĥà¼ĭ":11083,"à½Ķà½ıà½ĸ":11084,"à¾Łà½±à¼ĭà¼į":11085,"à¼ĭà¾§à½´à¼ĭ":11086,"426":11087,"Ġà½Ĥà½ıà½Ħ":11088,"Ġà½ĸà½Ļà½¦":11089,"à¼ĭà¾Ĺà½ºà¼ĭ":11090,"à½ĳà½ĸà½łà½ĺ":11091,"à½ĵà½Ĩà½¦":11092,"à½ĵà½łà½Ľà½ĺ":11093,"à½ĵà½Ļà½Ĥ":11094,"à¾±à¾Ĺà½¼":11095,"à¾±à¼µà½º":11096,"à½ŀà½ħ":11097,"à¾Ĵà½±à½²":11098,"à½ĸà½¦à½ĳà½Ķà½ł":11099,"à½ĳà½Ħà½Ĥà½ı":11100,"à½ĳà½Ħà½ĺà½ĩà½£":11101,"à½ģà½ĺà½Ħ":11102,"à½ļà½ı":11103,"à½ļà½ĸà½ŀ":11104,"à½ļà½ĸà½ĳ":11105,"à½ıà½Į":11106,"à½¤à½¢à½Ħ":11107,"à½¤à½Ĥà½¡":11108,"à½ĳà½Ĥà½ĵà½ĳ":11109,"à½ĵà½¦à½Ĳà½ĺà½¦":11110,"à½ĸà½ŀà½Ĥà½ŀ":11111,"à½łà½ĸà½ħà½¦":11112,"à½Ļà½ĺà½Ħ":11113,"à½Ľà½ĸà½ŀ":11114,"à½Ľà½ĳà½ĺà½¢":11115,"à½ħà½ĳà½¡à½Ħ":11116,"à½ĳà½Ģà½ĳ":11117,"à½ĺà½ļà½ĵà½Ĥà½ŀ":11118,"à½ĳà½ĳà½ŀ":11119,"à½Ĳà½£à½ĸà½ł":11120,"à½Ĳà½¢à½Ĥ":11121,"à¾¨à½²à½¾":11122,"à½īà½ĵà½Ķà½¢":11123,"à½Ĥà½Ļà½Ħà½ĺà½ł":11124,"à¾¤à¾²à¼į":11125,"Ġà¼£à¼£à¼¡":11126,"à½ĵà½Ķà½ŀ":11127,"à¼¢à¼¡à¼¡à¼¢":11128,"à½ĳà½¦à½ĺà½¦":11129,"Ġà½ģà½Ģ":11130,"Ġà¼¤à¼¥à¼¥":11131,"à¾·à½±à½´à¼ĭà¼į":11132,"à¾´à½²à¼į":11133,"à½ĥà½ł":11134,"à¼ĭà¼ıà¼į":11135,"448":11136,"à¾¨à¾¼à¾»à½´à¾ĥà¼ĭ":11137,"428":11138,"Ġà½ĸà½ĸà½ĸ":11139,"à¼ĭà½´à¼ĭà¼į":11140,"à¼ĭà¾Ĺà½¼à¼ĭ":11141,"à½¢à½ļà½Ħà½¦":11142,"à½Ħà½ŀà½¦":11143,"à½Ķà½¤à½¦":11144,"à½£à½Ĩà½ĳ":11145,"à½Ĥà½¦à½łà½Ĥ":11146,"à½Ĥà½¦à½Ĥà½ı":11147,"à½ºà¼ĭà¾İ":11148,"à½Ĩà½Ĥà½ŀà½ĵ":11149,"à½ĸà½¦à½łà½ĩ":11150,"à½ĳà½Ħà½ĳà½ĺ":11151,"à½ĳà½Ħà½ĩ":11152,"à½ħà½Ł":11153,"à½Ĳà½łà½ĳ":11154,"à½īà½łà½ĳ":11155,"à¾¡à¾Ģ":11156,"à½£à½¦à½ĺà½ļà½ĵ":11157,"à½Ķà½¦à½ĺà½Ĥ":11158,"à¾©à¾²à½ºà¼ĭ":11159,"à½Ĥà½īà½Ħ":11160,"à½ĺà½Ĳà½Ķ":11161,"à¾²à¼ĭà¾İ":11162,"à¾¨à½±à½²":11163,"à½Ĥà½Ħà½ĩ":11164,"à½Ĥà½ĵà½¦à½Ħ":11165,"à½ĸà½Łà½Ķ":11166,"à½§à½ĸà½¦":11167,"à½§à½ĳà½Ħ":11168,"à½Ĳà½ĸà½¦à½Ĩ":11169,"à½ģà½ĺà½¦à½łà½ĳ":11170,"à½¦à½¢à½Ĥ":11171,"à½¦à½¢à½¢":11172,"à½Ĥà½ŀà½Ĥà½Ĥà½ī":11173,"à¾¦à¾²à½ºà¼į":11174,"à½ĸà½ĵà½Ĥà½¦":11175,"à¾²à¾Ģà¼ĭà¼į":11176,"Ġà¼¥à¼¢à¼¢":11177,"Ġà¼¤à¼¡à¼¢":11178,"Ġà¼¤à¼¢à¼§":11179,"Ġà½Ĳà½¦":11180,"Ġà½¨à½¦":11181,"à¾·à½ºà½¾":11182,"Ġà½łà½¦":11183,"à¼¢à¼¡à¼¡à¼¡":11184,"à¾ĳà½´":11185,"391":11186,"405":11187,"452":11188,"454":11189,"à½¬à½ĺ":11190,"415":11191,"Ġà½ª":11192,"Ġà½łà½ģà½¢":11193,"à½¦à½ģà½Ħ":11194,"à½Ĥà½Ĥà½ĳà½ĺà½¦":11195,"à½¢à½ĳà½£":11196,"à½Ħà½Ĳà½ĸà½¦":11197,"à½£à½ĳà½Ķà½Ĥ":11198,"à½£à½ĸà½ĸà½¦":11199,"à½Ĥà½¦à½ĺà½ļ":11200,"à½Ĥà½¦à½łà½Ľ":11201,"à½¡à½ĵà½ĳ":11202,"à½¡à½¡à½¦":11203,"à½Ģà½ĵà½Ħ":11204,"à¾Łà¾Ģà¼ĭ":11205,"à¾Łà¾²à½±à½²":11206,"à¾Łà¼µà¼ĭ":11207,"à½Ķà½łà½¡":11208,"à½ĳà½Ħà½ĸà½Ģ":11209,"à½Ĳà½¤":11210,"à½īà½ĵà½ĺ":11211,"à½ĳà½Ĥà½ĺà½Ĩ":11212,"à½ĳà½Ĥà½ĵà½Ħ":11213,"à½ĸà½¢à½ļà½ĳ":11214,"à½łà½Ĥà½£à½¦":11215,"à½¡à½Ħà½ĵà½¦":11216,"à½Ķà½¦à½Ķà½¢":11217,"à½ĳà½ĸà½ħà½ĳ":11218,"à½ĳà½ĸà½ıà½Ħ":11219,"à¾Ķà¾·à½±à¼ĭ":11220,"à¾·à¾¨à½±à¼ĭ":11221,"à½Ļà½łà½ĳ":11222,"à½Ļà½ĺà½ł":11223,"à½ĳà½ĺà½Ħà½ł":11224,"à½ħà½ĵà½Ĥà½¦":11225,"à½łà½ķà½ĸà½¦":11226,"à½Ĥà½ıà½ĳà½ĳ":11227,"à½łà½ĳà½¦à½Ķà½¢":11228,"à½ĳà½ĳà½ĸà½¢":11229,"à½ķà½ĵà½Ĩà½ĳ":11230,"à½łà½ķà½Ĥà½¦à½¦":11231,"à¾¨à¾²à¼ĭà½²":11232,"à½Ħà½Ħà½ĵà½¦":11233,"à½ĸà½ıà½ĸà½ĸ":11234,"à½Ķà½İà½ł":11235,"à½Ĥà½Ħà½¦à½Ħà½¦":11236,"à½Įà½ķ":11237,"à½ĸà½¦à½ĺà½¦à½¦":11238,"à½Ķà½ĵà½Ķ":11239,"Ġà¼£à¼£à¼©":11240,"à½ĵà½Ķà½£à½¦":11241,"à¼Ģà½ļ":11242,"à½¢à½ĳà½ĩ":11243,"à¾¶à½ºà¼ĭ":11244,"à½ĵà½ĵà½¦à½ī":11245,"Ġà¼¡à¼©à¼¥à¼©":11246,"à¼¢à¼¡à¼£à¼©":11247,"397":11248,"à½£à½ĺà½Ĳà½ĺà½¦":11249,"423":11250,"429":11251,"432":11252,"à¼ĭà½¼à¼ĭà¼į":11253,"à½ĳà½Ĳà½£":11254,"à½ĸà½Ĳà½Ĥ":11255,"à½ĸà½ĺà½ļà½ĺà½¦":11256,"à½¢à½ĺà½£":11257,"à½Ħà½łà½Ĩ":11258,"à½ĺà½ĸà½¦à½ĺà½¦":11259,"à¾±à¾Ļà½²":11260,"à½Ķà½ĳà½Ģà½ł":11261,"à½Ĥà½¦à½ĸà½Ģà½ł":11262,"à½¡à½ĵà½Ĥ":11263,"à½Ĩà½Ķà½¢":11264,"à½ĳà½Ħà½ĵà½ĺ":11265,"à½ģà½Ĥà½¡":11266,"à½ķà½Ļ":11267,"à½ĺà½¦à½£à½ĺ":11268,"à½ĳà½Ĥà½ıà½ĵ":11269,"à½łà½Ĥà½£à½ĺ":11270,"à½¡à½Ħà½Ĥà½ħ":11271,"à½Ĥà½ĵà½¦à½Ħà½ĵ":11272,"à½Ľà½ĸà½¦":11273,"à½¨à½ĸà½ŀ":11274,"à½¢à½ĸà½Ĥà½ĵà½¦":11275,"à¾Ńà½´":11276,"à½ĺà½īà½ĺà½ĸ":11277,"à½ıà½ĵà½Ĩ":11278,"à½£à½ĵà½ł":11279,"à½Ĭà½ŀ":11280,"à½Ĥà½¦à½¢à½ĺ":11281,"à½£à½Ħà½£":11282,"à¾µà¾¨à½±à¼ĭ":11283,"Ġà¼£à¼©à¼¨":11284,"à½Ĥà½ĳà½łà½¦":11285,"à½Ĵà½ģ":11286,"à¾°à½´à¼ĭ":11287,"Ġà¼¤à¼¡à¼§":11288,"à½Ĥà½Ķà½ŀ":11289,"404":11290,"à½Ĳà½ĺà½¦à½ħà½ĳà½Ħ":11291,"à½ºà¼ĭà½Īà½±à½²":11292,"412":11293,"à½¦à½ĸà½ħà½ĳ":11294,"à½¦à½¡à½ĸ":11295,"à½Ĥà½ĸà½ĸ":11296,"à½Ĥà½Ĥà½¡à½Ħ":11297,"à½ĵà½łà½ļà½£":11298,"à½łà½¦à½Ħà½¦":11299,"à½Ķà½ĳà½Ķà½Ĥ":11300,"à½£à½¡à½ĸ":11301,"à½Ĥà½¦à½ĳà½Ķà½£":11302,"à½ŀà½ĸà½ł":11303,"à½Ĩà½Ĥà½ı":11304,"à½ĸà½¦à½¦à½Ħà½¦":11305,"à½ģà½ĵà½¢":11306,"à½Ĳà½ĸà½ĳ":11307,"à½Ĳà½ĺà½Ĩ":11308,"à½ıà½Ķà½ł":11309,"à½¤à½ĩ":11310,"à½łà½ĸà½Ļ":11311,"à½Ļà½Ł":11312,"à½ĸà½ĳà½Ĥà½ģ":11313,"à½Ĥà½ĳà½ĸà½¢":11314,"à½ĸà½ħà½¦à½ĳ":11315,"à½ĸà½Ļà½£à½ĵ":11316,"à½ĳà½Ģà½¢à½Ĩà½Ĥ":11317,"à½ŀà½£à½ĳ":11318,"à½ĺà½ģà½¦à½£":11319,"à½Ĳà½£à½¡":11320,"à½Ĳà½£à½Ĩ":11321,"à½Ĭà½ļ":11322,"à½¡à½¦à½Ķà½ł":11323,"à½Ģà½¢à½ĺ":11324,"Ġà½¦à½ĺà½¦":11325,"à½ĵà½ĵà½ĸ":11326,"à½ĸà½Ģà½Ĥà½Ķ":11327,"à½¢à½Ĥà½Ĥ":11328,"à¾Ĵà¾²à½¼à¼ĭà¼į":11329,"Ġà¼£à¼§à¼¨":11330,"à½ĺà½ĺà½§":11331,"à¼Ĳà¼į":11332,"à½Ĺà½ģ":11333,"419":11334,"424":11335,"438":11336,"Âģ":11337,"Ġà½łà½ķà½Ħà½¦":11338,"Ġà½Ŀà½Ħ":11339,"à½¦à½Łà½Ĥ":11340,"à½¢à½ĸà½¤à½Ĥà½¦":11341,"à½ĵà½Ĳà½Ĥ":11342,"à½ĺà½ĸà½£":11343,"à½łà½ŀà½Ĥ":11344,"à½¼à¼ĭà¼ĭ":11345,"à½¡à½ķà½Ĭ":11346,"à½Ģà½ħà½ĵ":11347,"à½ĸà½¦à½Ĥà½Ł":11348,"à½ĳà½Ħà½ĵà½Ħ":11349,"à½ģà½ĸà½ħ":11350,"à½ģà½ĩ":11351,"à½ģà½Ĥà½ĳ":11352,"à½ĺà½¦à½łà½ĩ":11353,"à½īà½ĺà½Ĳ":11354,"à½ĸà½¢à½łà½ļà½£":11355,"à½ĵà½¦à½Ļ":11356,"à¾³à¾¡à½¼à¼ĭ":11357,"à½¡à½Ħà½ĳà½ĺ":11358,"à¾¦à½±à¼į":11359,"à½Ĥà½ĳà½ĵà½Ĥ":11360,"à½ĸà½ıà½ĸà½ĳ":11361,"à½ĸà½ıà½ĸà½£":11362,"à½łà½ĳà½¦à½ł":11363,"à½¾à¼ĭà½²":11364,"à½ĳà½Ķà½łà½Ģ":11365,"à½ĺà½īà½Ľ":11366,"à½ĳà½Ģà½¢à½¢":11367,"à½Ĳà½ĸà½¦à½Ĥ":11368,"à¾¦à¾±à½²à¼į":11369,"à½ĸà½ŀà½Ĥà½ĳà½Ĥ":11370,"à½£à½Ĥà½¦à½ĸà½ħ":11371,"à½Ŀà½ħ":11372,"à½łà½Ĥà½łà½¢":11373,"à½łà½ĸà½¢à½ĸà½¢":11374,"à½Ĳà½ĳà½¦":11375,"à½ĸà½ĺà½Ķ":11376,"à½Ĩà½Ĥà½ĺà½Ĩ":11377,"à½¢à½Ĥà½¦à½Ķ":11378,"Ġà¼£à¼¨à¼£":11379,"Ġà½ļà½¦":11380,"à¼¢à¼£à¼¢à¼£":11381,"à½Ĵà½ķà½¦":11382,"Ġà½ģà½ĳ":11383,"à¾·à½ºà½¾à¼į":11384,"à½¢à½ĸà½ıà½Ĥà½¦":11385,"à¼¡à¼¤à¼©à¼¢à¼©":11386,"392":11387,"401":11388,"408":11389,"à½Ķà½Łà½ĺà½¦":11390,"à¼´à¼´à¼´":11391,"à½¦à½Ĥà½ĳà½ĸ":11392,"à½²à½´":11393,"à½Ĥà½ĸà½ı":11394,"à½Ĥà½Ķà½ĳà½Ħ":11395,"à½ĸà½ĳà½ĺà½ł":11396,"à½¢à½ĸà½łà½ĺ":11397,"à½Ħà½ĺà½ģà½ł":11398,"à½Ħà½ŀà½Ĥ":11399,"à½²à¼ĭà¾£":11400,"à½£à½£à½ł":11401,"à½Ĥà½¦à½łà½ķ":11402,"à½¡à½łà½Ĥ":11403,"à½ĸà½¦à½ĵà½Ħ":11404,"à½ĸà½¦à½¦à½ĺ":11405,"à½ĳà½Ħà½ĸà½ł":11406,"à½ģà½ĺà½Ĳ":11407,"à½Ĳà½ĸà½ħ":11408,"à½Ĳà½Ĥà½ī":11409,"à½ļà½£à½Ĥ":11410,"à½ĺà½¦à½ĸà½ĳ":11411,"à½ĺà½¦à½ĵà½ĳ":11412,"à½ıà½ĳà½Ĥ":11413,"à½ĸà½¢à½ĵà½¦":11414,"à½Ħà½¦à½ĸà½ŀ":11415,"à¾³à½±à¼į":11416,"à¾¡à¼µà½¼à¼ĭ":11417,"à½ĸà½łà½ĸà½¢":11418,"à½£à½¦à½Ĥà½¦à½Ħ":11419,"à½ĸà½ħà½ĳà½Ĥà½ħ":11420,"à½Ĥà½īà½ĵà½¦":11421,"à¾¨à¾²à½´":11422,"à¾¨à¼įà¼ĭ":11423,"à½ĳà½ĺà½Ĥà½¦à½¦":11424,"à½ĳà½Ķà½Ĥà½Ħ":11425,"à½¨à½Ĥà½ī":11426,"à½¢à½ĸà½ļ":11427,"à½£à½ĺà½ĸà½¢":11428,"à½£à½ĺà½łà½ĸ":11429,"à¾Ĵà½¼à½¼à¼ĭ":11430,"à½Ļà½ĺà½ĸ":11431,"à½ĳà½Ķà½£à½ĸ":11432,"à½ĳà½Ķà½£à½łà½ĸ":11433,"à½ĺà½ģà½łà½Ħ":11434,"à½Ħà½Ĥà½ĳà½Ķà½£":11435,"à½ĸà½£à½łà½Ħ":11436,"à¾²à½´à¼ĭà½²":11437,"à½Ŀà½Ĩ":11438,"à½Ŀà½Ĳ":11439,"à½Ŀà½Ł":11440,"à½Ģà½¢à½Ĥ":11441,"à½Ĥà½ŀà½Ĥà½Ĥà½¦":11442,"Ġà¼£à¼¥à¼¡":11443,"à½ĸà½¤à½ĺà½¦à½ĵà½¦":11444,"à¼¢à¼¤à¼¢à¼¥":11445,"Ġà¼¥à¼¦à¼§":11446,"à¼¥à¼¦à¼¥à¼§":11447,"à¾·à¾²à½±à¾Ģà¼ĭ":11448,"à¼¢à¼¡à¼¢à¼§":11449,"à¼¢à¼¡à¼£à¼£":11450,"à¾²à¾°à½²à¼į":11451,"à¾·à¾²à¾Ģà½¾à¼ĭ":11452,"394":11453,"407":11454,"459":11455,"446":11456,"Ġà½¤à½Ĥ":11457,"à¼ĭà¾Ĺà¼ĭ":11458,"à½¦à½ĺà½ĩ":11459,"à½Ĥà½ķà½Ĥ":11460,"à½ĵà½Łà½ĳ":11461,"à½ĵà½Ĩà½Ħ":11462,"à½Ķà½ĺà½ļà½ĺà½¦":11463,"à½Ķà½ĺà½ĩ":11464,"à½Ķà½¡à½ĸ":11465,"à½£à½Ĳà½£":11466,"à½´à¼ĭà¼ĭ":11467,"à½¡à½ģà½ĺà½¦":11468,"à½¡à½ĸà½Ľ":11469,"à½¡à½¢à½¦":11470,"à½Ģà½ĵà½ĺ":11471,"à½Ĩà½łà½Ĥ":11472,"à½ĸà½¦à½¡à½Ħ":11473,"à½ĸà½¦à½Ĥà½ĳ":11474,"à½ħà½łà½ĺ":11475,"à¾±à½²à¼ĭà¼Ŀà¼į":11476,"à½ĺà½¦à½Ĥà½ī":11477,"à¾Ĳà¾Ńà¼ĭ":11478,"à½Łà½Ĥà½ī":11479,"à¾¡à¾±à½²":11480,"à¾¡à½±à¼į":11481,"à½£à½¦à½Ķà½¦":11482,"à½¡à½Ħà½ĺà½ļ":11483,"à½Ķà½¦à½§":11484,"à¾©à½ºà¼įà¼ĭ":11485,"à¾·à¾Ģ":11486,"à½ĸà½ĳà½ı":11487,"à½Ĥà½Ħà½ĸà½ł":11488,"à½¨à½Ħà½ł":11489,"à½ĸà½ĳà½Ĥà½ĺà½Ĥ":11490,"à½Ĥà½ŀà½ĵà½ĵà½ĺ":11491,"à½¢à½ĸà½ĺà½Ľ":11492,"à½ĸà½¤à½ĳà½Ĩ":11493,"à½ĺà½łà½Ĩà½ĳ":11494,"à¾³à½´à½±à¼ĭ":11495,"à½ĵà½ĺà½¨":11496,"à½ĳà½ĳà½ĺà½Ĳ":11497,"à½Ĩà½ĳà½¢":11498,"à½¦à½ĺà½Ĥà½¦":11499,"à¾¦à¼ĭà¼Ĳ":11500,"à½ķà½£à½ļ":11501,"à½ĳà½£à½łà½ĸ":11502,"à½īà½£à½ĸ":11503,"Ġà½Ģà½ĺ":11504,"à¾ļà½¾":11505,"à½ĭà½¡":11506,"Ġà½ıà½ı":11507,"à½ºà½ºà½º":11508,"Ġà¼»":11509,"à½ļà½ļà½ļ":11510,"435":11511,"Ġà½łà½Ľà½Ĥ":11512,"à¼ĭà¾ľà¼į":11513,"à½¦à½ĺà½ĩà½£":11514,"à½ĳà½ĸà½ŀà½Ĥ":11515,"à½ĳà½Ļà½Ĥ":11516,"à½ĸà½Ĥà½Ļà½Ħ":11517,"à½łà½łà½Ĳ":11518,"à½Ķà½ĵà½ĺà½ĺà½ģà½ł":11519,"à½£à½łà½Ĳ":11520,"à½£à½ķà½¢":11521,"à½£à½Ģà½¦":11522,"à½Ĥà½¦à½łà½ĩ":11523,"à½Ĥà½¦à½ĸà½Łà½Ħ":11524,"à½Ĥà½¦à½ĳà½Ģà½¢":11525,"à½ĳà½Ħà½ĺà½Ĥ":11526,"à¾±à½²à¼ĭà½¼à¼ĭ":11527,"à½īà½İ":11528,"à½ĳà½Ĥà½łà½ķ":11529,"à½Ķà½¢à½ĺà½¦":11530,"à½Ķà½¢à½ĺà½ĳ":11531,"à½łà½ĳà½ª":11532,"à½ĸà½¢à½¦à½Ħà½¦":11533,"à½ĸà½łà½ī":11534,"à½łà½ĸà½ĸà½ĸ":11535,"à¾Ķà¾¡à½¼à¼ĭ":11536,"à½Ļà½Ļà½ĺ":11537,"à¾¦à¾¦à½²à¼ĭ":11538,"à½¨à½Ħà½£":11539,"à½ĳà½Ģà½łà½Ĥ":11540,"à½ĵà½Ħà½ĸ":11541,"à¾Ĺà½ºà¼µ":11542,"à½ĸà½¤à½ĳà½ĸà½¦":11543,"à½ĺà½¢à½ĳà½Ħ":11544,"à½Ĩà½ĳà½ĵà½¦":11545,"à½ĸà½ŀà½Ĥà½£à½¦":11546,"à½ĸà½ŀà½Ĥà½Ĥà½ŀà½ĵ":11547,"à½Ĳà½¢à½ĺ":11548,"à½ĳà½Ķà½Ĥà½ĸà½¦à½ĺ":11549,"à½ĸà½Ľà½Ĥ":11550,"à¾¡à¼ĭà½²":11551,"à½ķà½Ĭà½ģ":11552,"à½ķà½Ĭà½ĸà½¢":11553,"à½Ĥà½łà½¦":11554,"Ġà½ĳà½ĸà½ł":11555,"à½Ħà½ĺà½ĺ":11556,"à¾·à½±à¼ĭà½²":11557,"à¾ªà½¼":11558,"Ġà½Ĥà½İ":11559,"Ġà¼§à¼¡à¼§":11560,"à½Ĵà½ķà½¢":11561,"à¼¢à¼¡à¼¢à¼£":11562,"à¼¢à¼¡à¼£à¼¦":11563,"381":11564,"453":11565,"460":11566,"411":11567,"420":11568,"Ġà½ħà½¢":11569,"à½¦à½Ĩà½ĳ":11570,"à½¦à½ĸà½ŀà½Ĥ":11571,"à½¦à½ĳà½ĺà½¢":11572,"à½Ĥà½łà½ĸà½¢":11573,"à½Ĥà½Ĳà½ł":11574,"à½ĸà½Ŀà½Ħ":11575,"à½¢à½ģà½ĺà½¦":11576,"à½ĵà½¡à½ĸ":11577,"à½Ħà½Ĭ":11578,"à½Ħà½ĸà½ĳà½¦":11579,"à¾±à¾³à½¼":11580,"à½łà½łà½Ĩ":11581,"à½Ķà½ĸà½¦à½£":11582,"à½Ĥà½¦à½ĺà½īà½ĺ":11583,"à½ŀà½Ĥà½ĵ":11584,"à¾Łà¾³à½¼":11585,"à½Ĩà½¦à½ĺ":11586,"à½ģà½Ķà½ł":11587,"à½Ĳà½Ħà½Ĥ":11588,"à½ļà½ĸà½ĳà½Ĥ":11589,"à½ĺà½¦à½Ĥà½ĵà½¦":11590,"à½Ħà½¦à½¢à½ĸ":11591,"à¾³à¾Ģà½¾à¼ĭ":11592,"à¾©à¾©à¼ĭ":11593,"à½Ĥà½Ħà½ĸà½¦":11594,"à½Ĥà½ĵà½¦à½ĸà½¦":11595,"à½¨à½łà½ĸ":11596,"à½¨à½¢à½Ħ":11597,"à½ĺà½ĳà½ĺà½¦":11598,"à½ĸà½ħà½¦à½ŀ":11599,"à½ĸà½ıà½ĸà½ħ":11600,"à¾²à½²à¼ĭà¼Ĳ":11601,"à½Ļà½ĺà½ĳà½Ħ":11602,"à½ĺà½Ĳà½łà½ĸà½ŀ":11603,"à½Ĩà½Ĥà½¦à½ĳ":11604,"à½Ĳà½ĸà½¦à½ŀ":11605,"à½Ħà½ĵà½ĳà½Ħ":11606,"à½ıà½ĵà½ļ":11607,"à½ĺà½ģà½¦à½Ķà½¢":11608,"à½ĺà½ĵà½ĵà½¦":11609,"à½ĳà½¢à½ł":11610,"à½ŀà½ĸà½¦à½¢":11611,"à½ĺà½ĩà½¢":11612,"à½Ĥà½¡à½¦à½Ģ":11613,"à½¢à½ĸà½¦à½¢":11614,"à½Ħà½Ħà½£à½¦":11615,"à½ĵà½ĺà½¦à½ĳà½Ħ":11616,"à½ģà½¦à½¦":11617,"à½ĸà½¦à½£à½ĳ":11618,"à½Įà½ŀ":11619,"à¾Łà½²à½¾à¼į":11620,"à¼¢à¼¢à¼¢à¼¡":11621,"Ġà¼¢à¼¨à¼£":11622,"à½¢à½ıà½£":11623,"à½ĳà½Ķà½¦à½¦":11624,"à½¦à½Ķà½ĵà½¦":11625,"à¾łà½¾":11626,"à¾²à½±à½ºà¼ĭ":11627,"403":11628,"443":11629,"464":11630,"Ġà½łà½ĳà½¢":11631,"à¼ĭà¾¤à¼ĭ":11632,"à¾¯":11633,
[...]
