#version: 0.2
à ½
à ¾
à½ ¦
à½ ²
à½ ĳ
à½ Ĥ
à½ ĸ
à½ ¼
à½ ¢
à½ ĵ
à½ º
¼ į
à ¼į
à½ Ħ
à½ ´
à½ ĺ
à½ Ķ
à¾ ±
à½ ł
à½² à
à½²à ¼
à½²à¼ ĭ
à½ £
à½º à
à½ºà ¼
à½ºà¼ ĭ
à½Ĥ à½¦
à¾ ²
à½´ à
à½´à ¼
à½´à¼ ĭ
à½ ¡
à½¼ à
à½¼à ¼
à½¼à¼ ĭ
à¼į à¼į
à½ ŀ
à½ Ģ
à¾ Ł
à½ĳ à½Ħ
à½Ķ à½ł
à½ Ĩ
à½ ħ
à¾ Ĵ
à½ĸ à½¦
à½ ķ
à¾± à½²à¼ĭ
à½ Ĳ
à½ ģ
à½ ı
à½ĺ à½¦
à¾± à½²
à½ ī
à½ ļ
à½Ķ à½¢
à¾ £
à½ ¤
à½ĳ à½Ĥ
à½ł à½ĳ
à¾Ĵ à¾±
à½ĸ à½¢
à¾ Ĳ
à½¼ à¼įà¼į
à½Ħ à½¦
à½ĵ à½¦
ĭ à¼į
¼ ĭà¼į
à ¼ĭà¼į
à¾ ³
à¾ ¡
à½ Ł
à¾± à½º
à¾± à½´
Ġ Ċ
à½ł à½Ĥ
à½ĸ à½ł
à½ĸ à½ŀ
à¾² à½´
à¾± à½¼
à ¼
à½£ à½¦
à½ł à½ĸ
à¾± à¼
à¾±à¼ ĭ
à½¡ à½Ħ
à¾ Ĺ
à½ł à½
à½º à¼į
à¾ ¤
à¾Ł à½¼
à½Ķ à½¦
à½ĳ à½ĸ
à½ĸ à½ħ
à¾ Ķ
à½ ±
à¾ ·
à½Ĥ à½ŀ
à¾ ©
à½Ĥ à½ī
à¾² à½²
à½ĺ à½Ĳ
à¾ ¨
à½ Ļ
à¾² à½¼
à¾ Ļ
à½¢ à½Ħ
à½ĺ à½ļ
à¾² à¼
à¾ ¦
à¾²à¼ ĭ
à½Ĥ à½Ħ
à½ĳ à½ĺ
à½łà½ ĩ
à½ł à½ģ
à½ĳ à½Ķ
à½Ĥ à½ĵà½¦
à½ĸ à½ĳ
à¾Ł à½º
à½ħ à½ĵ
à¾Ł à¼
à¾Łà¼ ĭ
à¾Ĵà¾± à½´
à½ĺ à½Ĩ
à½ Ľ
à¾Ĳ à¾±à½º
à½ ¨
à½ħ à½ĳ
à½Ĳ à½ĺà½¦
à½² à¼į
à¾² à½º
à½ĺ à½ģ
à½Ĥ à½ħ
à¾³ à½¼
à¾± à½ºà¼ĭ
à½ §
à½ĺ à½Ħ
à½ĸ à½Ł
à½ĸ à½ĳà½Ĥ
ĭ à¼
à½¢ à½ĸ
à½ĳà½ĸ à½Ħ
à½ł à½ķ
ĭ à¼įà¼į
à½łà½ Ľ
à½Ĥ à½ı
à¼ ĭà¼įà¼į
à½Ĥà½ŀ à½ĵ
à½Ĥ à½Ł
à½ĳ à½Ģ
à¾² à½¼à¼ĭ
à¾Ĺ à½ºà¼ĭ
à¾ «
à½ĸ à½¤
à¾³ à¼
à¾³à¼ ĭ
à½± à¼
à½±à¼ ĭ
à½ĸ à½Ģ
à¾Ĵà¾± à¼
à½ ĩ
à¾Ĵà¾±à¼ ĭ
à½ĺ à½Ľ
à¾Ł à½ºà¼į
à¾Ĺ à½º
à½Ĥ à½¡
à¾· à¼
à½ĺà½ļ à½ĵ
à¾·à¼ ĭ
à¾¡ à½¼à¼ĭ
à½ ¾
à½£ à½ĺ
à½ĵ à½Ħ
à¾¡ à½´
à¾Ķ à¼
à¾Ĵà¾± à½´à¼ĭ
à¾Ķà¼ ĭ
à¾Ĵ à¾²à½´
à½ĸà½¤ à½ĳ
à½ĺ à½ĳ
à½¦ à½Ħà½¦
à½Ĥ à½ĳ
à½łà½ĳ à½¦
à¾Ĺ à½¼
à¾Ĵ à½¼
à½¾ à¼
à½² à¼įà¼į
à½Ĥ à½¤
à½¼ à¼į
à¾Ĳ à¾±à½ºà¼ĭ
à½¾à¼ ĭ
à¾¤ à¾±à½¼
à¾« à½¼
à¾² à½²à¼ĭ
à¼ ¡
à½ĳ à½Ķà½ł
à¼ ĭà¼
à½ĸà½ħ à½¦
à½ĺ à½ł
à¾Ĳ à½´à¼ĭ
à½ĸ à½ı
à¼ Ķ
à¾Ļ à½²
à¾Ł à½ºà¼ĭ
à¾ Ń
à¾© à¼
à¾©à¼ ĭ
à½ł à½Ĩ
à½ĺà½Ľ à½ĳ
à½ĸà½¦ à½ĺ
à½Ĥà½¦ à½£
à½Ļ à½ĺ
à¾¦ à¾±à½¼
à½ĸ à½Ĥ
ĭà¼ ĭà¼
à¾¡ à½¼
à½Ĥ à½ĵ
à½ĺ à½Ĥ
à¾Ĳ à½´
à½ł à½ļ
à½Ĥ à½Ļ
à½£ à½Ĥ
à¾³ à½¼à¼ĭ
à½ĵ à½ĺ
à½ĺà½Ĳ à½ł
à½± à½´
à¾© à½¼
à½ĳà½Ĥ à½ł
à¾£ à¼
à¾£à¼ ĭ
à¾Ĳ à½¼
à½Ĩ à½Ĥà½¦
à¾³ à½´
à¼ ¢
à½ĸà½Ł à½Ħ
à¾¦ à¾±
à½ĸ à½Ļ
à¾Ĳ à¾±à½¼
à½ĺ à½ī
à½ģ à½ĺà½¦
à½ĳà½Ķ à½£
à½´ à¼į
à½ļ à½ĳ
à¾Ļ à½º
à¾Ķ à½¼
à½ĺ à½¢
à½ĺà½ģ à½ł
à¾Ĵ à½¼à¼ĭ
à½ĸà½Ģ à½ł
à½Ĳ à½ĸà½¦
à¾¨ à½¼
à½ĳà½Ģ à½¢
Ġ à¼
à½ĳ à½ĳ
à¾Ĳ à¾±
à½ī à½ĺà½¦
à¾¦ à¾±à½²
à½Ħ à½Ĥ
à½Ħ à½ĵ
à¾Ĵ à¾²à¼ĭ
à½ł à½Ĳ
à¼¡ à¼
à½º à¼įà¼į
à½ĺà½ī à½ĺ
à½Ĥà½¦ à½Ħ
à¾¡ à½ºà¼ĭ
à½ł à½Ħ
à¾Ń à¼
à¾Ńà¼ ĭ
à½ İ
à½Ķ à½ĳ
à½Ł à½ĳ
à½Ĥà½ı à½ĵ
à½ ¿
à½ķ à½ĵ
à¾¤ à¾±
à½ı à½ĵ
à¾¤ à¾±à½²à¼ĭ
à¾ ķ
à½ģ à½Ħ
à½Ĩ à½ĳ
à½Ĳ à½£
à½łà½ķ à½Ĥà½¦
à½Ĥ à½£
à¾¨ à¼
à¾¨à¼ ĭ
à¾© à½ºà¼ĭ
à½£ à½ĵ
à¾Ĵ à¾²à½²
à¾ ĥ
à½ Ĭ
à½ŀ à½£
à½¡ à½ĵ
à½ĺà½ģ à½¦
à½¼ à½¾à¼ĭ
à½ĵ à½ĳ
à½ĸà½ŀ à½Ĥ
à¼ §
à½ĺà½Ĳ à½¢
à½ĵ à½Ĥ
à½ĺ à½ĵ
à¾¨ à¾²
ĭà¼ĭà¼ ĭà¼ĭà¼
à½¿ à¼
à½¿à¼ ĭ
à¾Ł à½´
à½ĸ à½£
à¼ ¤
à½±à½´ à¾ĥ
à½Ł à½Ĥ
à¾¤ à¾²à½´
à¼ £
à½Ĳ à½¢
à½ĳà½ĺ à½¢
à½Ĥ à½ĵà½Ħ
à½£ à½Ĥà½¦
Ħ à¼
à½Ĥ à½¢
à½łà½ļ à½£
à¾² à½´à¼ĭ
à½¤ à½¢
à¼ ł
Ħà¼ ħ
à¾± à¼įà¼į
à½¦ à½¢
à¾¤ à½¼
à¾Ĵ à¾²à½¼
à¼ ¥
à½ Ŀ
à½´ à¼įà¼į
à¾³ à½´à¼ĭ
à½ĺà½ģ à½ĵ
à¾¨ à½²
à½ł à½ĺ
à¾³ à½²
à¾· à½´
à¾¡ à½²
Ġ à¼į
à½ļ à½Ħ
à½ĸà½ħ à½ĳ
à¾¨ à¾²à¼ĭ
à¾Ļ à½¼
à¼ ¦
à¼ĭà¼ ĳ
à½ĳà½Ķ à½Ĥ
à½ī à½ĵ
à½± à½²à¼ĭ
à½ĺà½ļ à½ĺà½¦
à½ĸà½ı à½Ħ
à¾±à½² à¼į
à½ĸ à½Ľ
à¾© à½²
à½łà½ĩ à½ĺ
à½ ¥
à½ĳà½Ģ à½ł
Ħà¼ħ à¼įà¼į
à½łà½Ĥ à½£
à½Ĳ à½Ĥ
à½ŀ à½ĸà½¦
à½ĳ à½¢
à½Ł à½ĸ
à½Ĥà½¡ à½¦
à½Ĳ à½Ħ
à¾£ à½¼
à¾¡ à½º
à½ĵ à½ĺà½¦
à¼ ©
à¾³ à½º
à¾Łà½º à¼įà¼į
à½±à½´à¾ĥ à¼
à½±à½´à¾ĥà¼ ĭ
à¾Ĵ à¾²
à½ĸà½ı à½Ĥà½¦
à¾¤ à¾²à½¼
à½¡ à½¦
à½ł à½ĸà½¢
à¼ ĳ
à¼ ¨
à¾© à½²à¼ĭ
à½Ł à½¦
à½łà½Ĥ à½ł
à½¦ à½ĺ
à½Ħ à½Ħ
à½Ķà½ł à½ĺ
à½Ĥà½ŀ à½Ĥ
à½¾ à¼į
à½± à¼į
à½łà½Ĩ à½ĳ
à¾¤ à¾±à½²
à½£ à½ł
à½ĺ à½ĩ
à½Ĥà½¦ à½¢
à¾ Ģ
à½ĸà½ı à½ĸ
à½Ĥà½ĳ à½ĵ
à½ģ à½¦
à½±à½´ à½¾à¼ĭ
à½ĳà½Ĥ à½Ĥ
à½Ĥà½Ļ à½Ħ
à½¡ à½ĸ
à¾© à½º
à½Ģ à½¢
à¾¦ à¼
à¾¦à¼ ĭ
à½¢ à½ĸà½¦
à½ļ à½ĵ
à¾± à¼į
ĭà¼ĭà¼ĭà¼ĭà¼ ĭà¼ĭà¼ĭà¼ĭà¼
à¾ ľ
à½Ĩ à½¢
à½£ à½łà½Ħ
à½Ĥà½ĵ à½ĳ
à½Ĥà½ĳ à½ĺà½¦
à¾±à½² à¼įà¼į
Ġà¼ ĭ
à½¢ à½¦
à¾¡ à½´à¼ĭ
à½ļ à½Ħà½¦
à½ĺà½Ħ à½ł
à½ķ à½Ĭ
à½łà½Ĩ à½Ħ
à¾· à½¼à¼ĭ
à½ħ à½Ĥ
à¼ĭà¼ Ķ
à¼ ½
à½ĸà½Ļ à½ĵ
à½ĳà½ĺ à½Ĥ
à¾¤ à¾²à½²
à½ŀ à½Ĥ
à¾² à½ºà¼ĭ
à½± à½²
à½Ķ à½İ
à¾² à¾Ńà¼ĭ
à½¤ à½¦
à¾¤ à½º
à½łà½Ĳ à½ĳ
à¾Ķ à½¼à¼ĭ
à¾± à½´à¼ĭ
à¾Ĳ à¾±à½²
à½łà½Ĩ à½¢
à½Ĥà½ı à½ĺ
à½Ģ à½ł
à½ĵ à½ĵ
à¾¡ à¼
à¾¡à¼ ĭ
à¾Ģ à¼
à¾Ģà¼ ĭ
à½ĸà½¦ à½£
à¾Ĳ à¾±à¼ĭ
à¼ĭà¼ Ħà¼ħà¼įà¼į
à½ĸà½Ł à½ł
à½ĸà½¦ à½ĺà½¦
à½ Į
à½¦ à½ł
à¾· à½²à¼ĭ
à¾Ń à½±à¼ĭ
à½Ķà½ł à½Ħ
à½¢ à½£
à½ķ à½£
à½ĵ à½ł
à½łà½ĳ à½ĸ
à¾¨ à½²à¼ĭ
à½²à¼ Ķ
à½Ĥà½ŀ à½£
à½¼à¼ Ķ
à½ĸà½ł à½ĺ
à½łà½Ĥ à½Ĥ
à½¡ à½¢
à½ĸ à½ĸ
à½ĵ à½łà½Ħ
à¾Ĳ à¾²
à½ĸ à½ĸà½¦
à½ĸ à½ĺ
à½Ĥ à½ł
à½ĺà½ļ à½¢
à¾¤ à½´
à½ĺà½ĳ à½ł
à½ļ à½£
à½£ à½Ħ
à½¼à¼įà¼į à¼įà¼į
à½ħ à½Ħ
à¼ ·
à½¼à¼ĭ à¼ĳ
à½Ĥ à½ĳà½ĸ
à½ĳà½Ħ à½¦
à¼ Ħà¼ħà¼įà¼į
à½łà½ĸ à½ĳ
à½ĳà½ĺ à½ĵ
à½ĸà½ħ à½ł
à¾ µ
à½Ĥ à½ĺ
à¾¤ à¾²à½¼à¼ĭ
à½Ĥ à½Ħà½¦
à½¢ à½ĺ
à½ģ à½Ĥ
à¾« à½´à¼ĭ
à½ĸà½¦ à½Ĥà½¦
à½ĺ à½£
à½ĺà½ģ à½¢
à½ĸà½Ģ à½Ĥ
à½ļ à½¢
à½Ĥà½¦ à½ĵ
à¾Ĳ à¾²à½´
à½Ĥà½ı à½ĳ
à¼¡à¼ ł
Ġ à½Ķ
à¼ĭà¼ ½
à¾Ĵ à¼
à¾Ĵà¼ ĭ
à½± à½´à¼ĭ
Ġà¼ Ī
à½łà½ĳ à½ł
à½ĺà½ĩ à½£
à½± à½¿à¼ĭ
à¾« à½´
à½Ĩ à½Ħ
à½Ħ à½ł
à½¡ à½Ħà½¦
à½ķ à½¢
à½ĵ à½¢
à½łà½ĸ à½ĸ
à½Ĩ à½Ĥ
à½Ħ à½ĺ
à¼¡à¼ §
à¾¤ à¾²
à¼¡ à¼¢
à½£ à½Ħà½¦
à½ģ à½ĸ
à½ł à½ĸà½ł
à½Ĩ à½¦
à¾ķ à½ºà¼ĭ
à½Ĳ à½ĳ
à½ģ à½¢
à¾¦ à¾²
à½ »
à½ĸà½¤ à½Ĥà½¦
Ġà¼ ¼
à½¦ à½Ħ
à½ķ à½ĺ
à¾² à¼į
à½ķ à½Ĥ
à½Ĥà½ĵ à½ĺ
à½łà½Ľ à½ĺ
à½ĳ à½£
à¼¡à¼ ©
à½ĸ à½ĵ
à½ĳ à½ĵ
à¾¦ à¾²à½´
à½łà½Ĥ à½Ĥà½¦
à½¢ à½Ĥ
à½ī à½£
à½¢ à½Ĥà½¦
à¾· à½±à¼ĭ
à¾· à½¼
Ġ à½¦
à½łà½ķ à½Ħ
à½Ħ à½£
à½ķ à½ĸ
à¾¤ à½´à¼ĭ
à¾² à¾Ģà¼ĭ
à¼ł à¼ł
Ġà¼ ĳ
à½ĸà½¦ à½ĳ
à¾Ĺ à½²
à½±à½´ à½¾à¼į
à½ĳà½ĺ à½Ħà½¦
ĭà¼ĭà¼ĭà¼ĭà¼ĭà¼ĭà¼ĭà¼ĭà¼ ĭà¼ĭà¼ĭà¼ĭà¼ĭà¼ĭà¼ĭà¼ĭà¼
à¾£ à½´
à¾Ł à½²à¼ĭ
à½Ĩ à½ĸ
à½ĵ à½Ĥà½¦
à¼į à¼
à½Ļ à½ĵ
à¾Ĵ à½º
à½¦ à½ĳ
à¾Ĳ à¾±à½´
à¾Ĵ à¾²à½¼à¼ĭ
à¾Ĳ à¾²à¼ĭ
à¾Ł à½²
à½¿ à¼į
à¾Ĳà¾± à½¼à¼ĭ
à¾ ª
à½ĸà½Ļ à½£
à¼ĭà¼ ¼
à½ ½
à½Ģ à½ĵ
à¾Ĵ à½´
à½ĺà½ĵ à½ĵ
à½ļ à½ĸ
à½» à¼
à½»à¼ ĭ
à¼¡à¼ £
Ġ à½¢
à½ĺ à½İ
à½ĺà½ī à½ĵ
à¾¦ à½¼
à½ºà¼ Ķ
à½ĺ à½ĳà½Ħà½¦
à½¡ à½£
à½Ķ à½ĵ
à½Ĥà½ĳ à½Ĥà½¦
à¼ĭà¼ ´
à½ Ī
à¾² à½±à½²à¼ĭ
à½¢ à½Ģ
à¼· à¼
à¼·à¼ ĭ
à½łà½Ĳ à½ĸ
à½Ĥà½Ł à½ł
à¼¡à¼ ¤
à¾« à¼
à¾«à¼ ĭ
à½Ĥà½ī à½ĵ
à½ĸ à½Ħ
à¾¡ à¾·
à½±à½´à¾ĥ à¼į
à¾¡ à¾·à¼ĭ
à¼¡à¼ ¥
à¾Ķ à¼į
à¾ĥ à¼
à¾ĥà¼ ĭ
à¾Ł à½¼à¼ĭ
à½ŀ à½Ħ
à½ŀ à½Ĥà½¦
à¾ľ à½²à¼ĭ
Ġ à½£
à½ĺà½Ĩ à½ĵ
Ġ à½ĸ
à¾² à¼įà¼į
à¼¡à¼ ¨
à¾µ à¼
à¾µà¼ ĭ
à½ Ĵ
à½ Ĺ
à¾± à½¼à¼ĭ
à¾Ń à½±
à¼¡ à¼¡
à¾Ĺ à½ºà¼į
à¾· à½´à¼ĭ
à¼¡à¼ ¦
à½łà½ļ à½Ħ
à½´à¼ Ķ
à¾© à½´
à½Ĥ à½¡à½Ħ
à½łà½Ĥ à½ĵ
à¾¨ à½´
à½Ł à½Ħà½¦
à½±à½´à¾ĥ à¼Ķ
à½£ à½¢
à½ĳà½ĸ à½ĸ
à½Ħ à½¢
à½ģ à½ł
Ġ à¼ĭà¼
à¾Ĳ à¼
à¾Ĳà¼ ĭ
ĭ à½Ī
à¼ ĭà½Ī
à¼įà¼ ĭ
à¾¦ à½´
à½½ à¼
à½½à¼ ĭ
à½ĺà½Ħ à½£
à¾ķ à½²à¼ĭ
à¾² à¾Ģ
à¾Ĳ à½º
à¼¢ à¼ł
Ġ à¼¡
à½Ĩ à½ł
à½ĸà½ł à½Ħ
à½¢ à½ı
à½¦ à½¦
à½¢ à½ł
à¾ķ à½º
ĭ à½²
à½ĳ à½Ķà½¢
à¼ ĭà½²
à¾© à¾Ńà¼ĭ
à¾ ļ
à½ħ à½¢
à½ĸà½ŀ à½ĳ
à½ī à½ĺ
à½¡ à½Ĥ
à½łà½ĩ à½ł
à½Ĳ à½ĸ
à¾ Ľ
à¾² à½±à½²
à¼ ¼
ĭà¼ ĭ
à¾· à½²
à¾Ļ à½±à¼ĭ
à¼¢ à¼¢
à½ĳ à½Ĥà½¦
à½ĸà½¦ à½Ħ
à½¢ à½ĵ
à¾ ŀ
à½łà½ĸ à½Ħà½¦
à½ĵ à½Ķ
à½ĺ à½ĺ
à½Ķ à½Ĥà½¦
à½Ĥà½ı à½Ħ
à½¤ à½ĺ
à½¨ à½¢
à¾ľ à¼
à¾ľà¼ ĭ
à½Ł à½Ħ
à½¤ à½ĵ
à¼ Į
à½ĺà½Ħ à½¢
à½ī à½Ĥ
à¾Ł à¼į
à¾ª à¼
à¾ªà¼ ĭ
à½ĸà½Ģ à½Ħ
à¾²à½¼ à¼į
à½ŀ à½ĵ
à¾« à½²
à¾¤ à¼
à¾¤à¼ ĭ
à½ĸà½¤ à½ĺà½¦
à¾Ĵ à¾²à½º
à¾¡ à½ºà¼į
à½Ĥ à½ĳà½Ħà½¦
à¾Ķ à½´
à½Ĥ à½ħà½ĵ
à½ ª
à¾¤ à¾²à½º
à½± à½¾à¼ĭ
à½ĺà½Ľ à½ł
à¾²à½² à¼į
à½Ł à½ĵ
à½łà½ĳ à½ĺ
à½Ĥà½ĳ à½ł
à½łà½ķ à½Ħà½¦
à¾Ĳà½´ à¼įà¼į
à¾Ĳ à½¼à¼ĭ
à½łà½Ľ à½Ĥ
à½Ĥà½ĵ à½ł
à½¢ à½Ħà½¦
à¾² à½¼à¼įà¼į
à¾ ¥
à½łà½ķ à½¢
à½¨ à½Ħ
à½± à½²à¼į
à½ı à½Ħ
à½ı à½ł
à½łà½ĩ à½£
à½¦ à½ı
à¼ Ģ
à½¦ à½ĵ
à½Ĳ à½ĺ
à½¤ à½Ĥ
Ġ à¼įà¼į
à½ĳ à½Ķà½¦
à¼Į à¼Į
à½¤ à½£
à½ºà¼ĭ à¼ĳ
à¾£ à½ºà¼ĭ
à¾£ à½¼à¼ĭ
à¾²à½±à½² à½¿à¼ĭ
Ġà¼ £
à½Ģ à½¦
Ħà¼ħ à¼į
à¾¡ à¾²à¼ĭ
à¾ ĭ
à½Ĥ à½ħà½ĳ
à½ĸà½Ł à½ĳ
à¾² à¾Ń
à½ĺà½ĵ à½¢
à¾¦ à¾²à½º
à½Ĥ à½ĸ
Ġ à½ĳ
à½ĳà½ĺ à½ł
à¾¨ à½ºà¼ĭ
à¾· à¼į
à½Ŀ à½Ħ
à¾± à½±à¼ĭ
à¼ĭà¼ĳ à¼
à¼ĭà¼ĳà¼ ĭ
Ġà¼ Ħà¼ħà¼įà¼į
à½²à¼ĭ à¼ĳ
à½±à¼ Ķ
à¼¢ à¼¥
à½¼à¼įà¼į à¼į
à½łà½ļ à½ĺà½¦
à¾Ĵà¾±à½´ à¼į
à¼¢ à¼¤
à¾¤ à½¼à¼ĭ
à½¼ à½¿à¼ĭ
à½ģ à½ĺ
Ġà¼ §
à½Ĥà½¦ à½¦
à½£ à½ĸ
à¼¢ à¼¦
à½¾ à¼įà¼į
à¾« à½²à¼ĭ
à½ĳà½Ķ à½Ħ
à½łà½Ĩ à½£
à½Ĥà½¤ à½ĺ
à½Ķ à½ī
à½ļ à½Ĥà½¦
à½ŀ à½¢
à½´ à½¾à¼ĭ
à¼ĭà¼ İ
à½ĳà½ĸ à½£
à½Ĳà½ĺà½¦ à½ħà½ĳ
à¾ ł
à½ĺ à½§
à¼ İ
à½¤ à½ł
à¾· à½±à½´à¼ĭ
à½¤ à½ĳ
à½Ł à½ł
à¼ µ
à½Ĥà½Ł à½ĵ
à½¤ à½Ħ
à¼ĭà½Ī à½²
à¾Ĳà½´ à¼į
ĭà¼ĭà¼ĭà¼ĭà¼ĭà¼ĭà¼ĭà¼ĭà¼ĭà¼ĭà¼ĭà¼ĭà¼ĭà¼ĭà¼ĭà¼ĭà¼ ĭà¼ĭà¼ĭà¼ĭà¼ĭà¼ĭà¼ĭà¼ĭà¼ĭà¼ĭà¼ĭà¼ĭà¼ĭà¼ĭà¼ĭà¼ĭà¼
à¼¢ à¼£
à½ĸà½¤ à½Ħ
à½¢ à½¢
à¼įà¼į à¼į
à½¨ à½ĵ
à¼¢ à¼§
Ġ Ġ
à½łà½ĳ à½¢
à¾ķ à½¼
à¾² à½±à½´
à¾¨ à½¼à¼ĭ
à½Ļ à½Ģ
à½ĳà½Ĥ à½¢
Ġ à½ļ
à¾¨ à½º
à¾±à½º à¼į
à¾¨ à¾±à½´
à¾Ľ à¼
à¾Ľà¼ ĭ
à¼ ´
à½± à½¾à¼į
à¾Ĵà¾± à¼į
· à¼
·à¼ ĭ
à¾¨ à¾±à½¼
à¾¡ à¾·à½²à¼ĭ
ĭ à¾
à¼ ĭà¾
à¾· à½ºà¼ĭ
à½ĳ à½¦
à¾Ļ à½´
à½Ĥà½ĵ à½Ĥ
à½ķ à½¦
à¼į à¼ĭà¼
à½ļ à½ĸà½¦
à¼¢ à¼©
à¼ Ī
à¾¦ à¾·à¼ĭ
à¾ °
à½ĸà½¦ à½Ħà½¦
ĭà¼ĭà¼ ĭà¼ĭ
à¼¢ à¼¨
Ġ à½ĸà½¦
à½ĸà½Ļ à½¦
à½ģ à½£
Ġ à½ĵ
à¾· à¾±
à¾²à½² à¼įà¼į
à½¼ à¾ĥà¼ĭ
à¾Ķ à¼įà¼į
à½Ķ à½£
à½ı à½ĺ
à½Ĥà½¦ à½ĳ
à½Ĥà½¡ à½Ĥ
à½¢ à½ĳ
à½Ĥà½ī à½ł
à¾³ à¼į
à¾· à½±
à¾¦ à½´à¼ĭ
à½¾à¼ Ķ
à½łà½ļ à½ĺ
à½¦ à½Ķ
Ġ à½Ĥà½¡
à½ĸà½Ł à½Ħà½¦
à½Ĥà½¡ à½ł
à¼ĭà¼ ¸
à¼£ à¼ł
à½ĸà½ħ à½¢
à½Ĥà½Ł à½¢
à½ĺà½Ħ à½Ĥà½¦
à¾Ļ à½ºà¼ĭ
à½Ģ à½Ħ
à½Ĥà½ı à½¢
à¼¢ à¼¡
à¾Ĵà¾±à½´ à¼įà¼į
à¼ĭà¼ Ī
à½ ĭ
à½Ł à½ĺ
à¾¦ à¾²à¼ĭ
à½łà½ĩ à½Ĥà½¦
à¾Ĳ à½ºà¼ĭ
à½ĺà½ł à½ĺ
Ġ à½ī
Ġ à½Ĥ
à½ĸà½ħ à½Ħ
Ġà¼ĭà¼ ĭ
à½Ķ à½Ħ
à¾² à½±à¼ĭ
à¾· à¼įà¼į
à½² à½¾à¼ĭ
à½¨ à½Ĥ
à½¦ à½ĸ
à½¡ à½ł
à¾· à½¾à¼ĭ
à½¼à¼į à¼
à½ĳ à½ĸà½¢
à¾Łà½ºà¼ĭ à¼ĳ
à¾Ĳà¾±à½º à¼įà¼į
à½ĳà½Ĥ à½Ħ
à¾ »
à½Ĥà½Ł à½ĸ
Ġ à½Ģ
à¾Ĳà¾±à½º à¼į
à¾Ł à¼įà¼į
à½¼à¼įà¼ ĭ
à½£ à½ĳ
à½ĸà½ħ à½Ħà½¦
à½Ĥà½ŀ à½¦
à¼ĭà¼ Ħà¼ħà¼į
à¾ŀ à¼
à¾ŀà¼ ĭ
Ġ à½ķ
Ġ à½ĺ
à½ĺà½ģ à½£
à½ģ à½ĳ
à¼£ à¼£
à½ĺà½Ĥ à½¢
à¼į à¼Ħà¼ħà¼įà¼į
à½²à¼ĭ à¼Ħà¼ħà¼įà¼į
à¾Ł à½²à¼į
à¾Ĵà¾±à¼ Ķ
à½¼à¼ĭà¼ĳ à¼ĳ
à½ĺà½ĵ à½ł
à½łà½Ĩ à½Ĥà½¦
à½§ à½ĵ
à¼ĭà¼ »
à¼įà¼į à¼įà¼į
à¾³ à½ºà¼ĭ
à¾¤ à½ºà¼ĭ
à½Ķ à½ĺ
à½Ħ à½ĳ
à½ı à½¦
à½łà½Ĥ à½¢
à¼£ à¼¥
à¾² à½ºà¼į
à¼£ à¼¤
à½¨ à½ĺ
à¼ĭà¼ Ĳ
à½Ĳ à½ł
à½Ľ à½ĺ
Ġà¼ ł
à¼£ à¼§
à½Ĥ à½Ĥ
à¾© à¼į
à¼£ à¼¦
à½¿ à¼Ķ
à½¦ à½£
à¾ ¶
à½¿ à¼įà¼į
à½ı à½ĳ
à¼µ à¼
à¼µà¼ ĭ
Ġà¼ ¥
à½ł à½ĳà½Ĥ
à¾±à½º à¼įà¼į
à¾±à¼ Ķ
à¾Ĺà½º à¼įà¼į
à¾¨ à½±à¼ĭ
Ġ à½¤
à½ĸà½ĳ à½£
à¾ ħ
à½ī à½¢
à½ĸà½¤ à½£
Ġ à¼¢
à½¤ à½Ħà½¦
à½¦ à½Ģ
à½¡ à½ĺ
à½´ à½¿à¼ĭ
à½ĸà½¤ à½ĺ
à¾ Ħ
à¾· à¾±à½¼
à¼¤ à¼¥
à¾± à½±à½´
à½ĳ à½ł
à¾Ķ à½´à¼ĭ
à½Ĭ à½ł
à¼Įà¼Į à¼Įà¼Į
à¼£ à¼¨
à¼¤ à¼ł
à¾¦ à½º
à¼£ à¼©
à½Ĩ à½ĵ
à½¡ à½ĳ
à¾Ĵ à½±
à¼į à¼½
à½ī à½ł
à½ĸà½ħ à½Ĥ
à¾Ĵ à½´à¼ĭ
à½łà½Ĩ à½ł
à¾¨ à¾±à½¼à¼ĭ
Ġà¼ ¤
à½¼à¼ĭ à¼İ
à¼¥ à¼ł
à½¢ à½ĺà½¦
à½ĺà½ļ à½£
à½Ĥà½¡ à½¢
à¼¢ à¼łà¼ł
à¾ļ à¼
à¾ļà¼ ĭ
à¼ ¸
à½łà½ķ à½ĵ
à¾² à½±
à½ĸà½Ģ à½ĸ
à¼¦ à¼ł
à¾ ´
à¾± à½²à¼Ķ
à½ł à½Ĥà½¦
à½Ĳ à½ĵ
à½ļ à½ł
à½± à¼įà¼į
à¼¥ à¼©
à½ĵ à½£
à¾Ł à½ºà¼Ķ
à¾Ł à½±à¼ĭ
à¼ ħ
à¼ĭà¼ ĭ
à¾Ĵ à½ºà¼ĭ
Ġ à½¡
Ġ à½ĳà½Ħ
à½Ŀ à½¢
à½Ļ à½İ
ĭà¼ĭà¼ ĭ
à½¡ à½Ģ
à½ī à½Ħ
à¾Ń à¼į
à½łà½Ĩ à½ĺ
Ġ à½Ĩ
à¼¥ à¼§
à¼¤ à¼§
à¾Ĵ à¾±à½²
à¾¡à¾· à½ºà¼ĭ
à½¦ à½ĺà½¦
à½ĵ à½Ķà½ł
à½Ĥà½ı à½ĺà½¦
à¾¨ à¾²à½¼
à½ĵ à½ı
à¼ Ħà¼ħ
à¾¥ à¼
à¾¥à¼ ĭ
ĭ à½º
à¼ ĭà½º
à¼ĭà¼ Ħà¼ħ
à¾¨ à¾²à½²
à¾Ĳà¾± à½´à¼ĭ
à¼¥ à¼¦
à½ĸà½Ļ à½ł
à¼¤ à¼¦
à½Ķ à½ĳà½Ħ
à½łà½ĳ à½ĸà½¦
à¾¦ à¾·
à½§ à½ł
Ħà¼ ĭ
à½ĳà½Ķ à½Ħà½¦
à¾µ à½²à¼ĭ
à½ĸà½ĳ à½¢
à¼ĭà¼į à¼
à½º à½º
à¼¤ à¼©
à½Ĥ à½ĳà½ĺ
à¾¨ à¼į
à½łà½Ĳ à½Ĥ
Ġ à½ĸà½¢
à½łà½ģ à½¢
à½ĸà½Ģ à½¦
à¼¡à¼© à¼©
à½¦ à½Ĥ
à½ĺà½ļ à½Ħ
à¼ĭà¼ ¹
à¼¤ à¼¨
Ġ à½Ł
à½İ à½ł
à¼¥ à¼¨
à¼ĭà¼įà¼ ĭ
à½łà½Ĩ à½Ĥ
à½ĩ à½Ĥ
à½ĺ à½Ħà½¦
à¾Ń à½¼à¼ĭ
à¼łà¼ł à¼ł
à¼§ à¼§
Ġ à½¨
à½ĸà½Ģ à½£
Ġ à½ŀ
à¼¡à¼© à¼¨
Ġà¼ Ħà¼ħ
à½ĳ à½ħ
à½¨ à½ł
à½Ŀ à½¦
à¾¨à¾² à½ºà¼ĭ
ĭ à½¼
à¼ ĭà½¼
à½łà½Ľ à½ĳ
à½ĵ à½ĸ
à½¼ à½¾
à½ĵ à½Ħà½¦
à½ µ
à¾£ à¼į
à½ķ à½ł
à½Ŀ à½ĵ
à½ ©
à¾Ļ à½²à¼ĭ
à½łà½Ĩ à½ĸ
à¼¥ à¼¥
à¾ Ħà¼ĭ
Ġ à½ģ
à½ĸà½¦ à½ĵ
à¼¤ à¼¤
à½Ĥà½¡ à½ĸ
à¼ Ħà¼ħà¼į
à½Ĩ à½ĺ
Ġ à½Ĳ
à½Ħ à½ĸ
à½¼ à½¾à¼į
à¾Ł à½´à¼ĭ
Ġà¼ ¦
à¼¦ à¼§
à¾» à¼
à¾»à¼ ĭ
Ġ à½Ķà½ł
à½ģ à½İ
à½ĸà½Ģ à½¢
à½¨ à½ı
à½ĳ à½ĸà½ł
à¼£ à¼¡
à¾² à½¾à¼ĭ
à½Ĩ à½ĸà½¦
ĭ à½µ
à¼ ĭà½µ
à½ĺà½ĵ à½£
à½Ļ à½Ħ
à¾Ĳ à¾±à½²à¼ĭ
à¾¡ à½²à¼ĭ
Ġà¼ ¨
à½±à½´ à½¾
à½§ à½¢
à¼ĭà¼ º
à½Ĥ à½¥
à¾± à¾Ģà¼ĭ
à½ł à½ĳà½Ħ
à½²à¼ĭ à¼´
à¼įà¼ ¼
à½ĺà½ł à½Ħ
à½ı à½Ĥ
à¼¦ à¼¨
à½¼ à¾ħ
à¼ħ à¼įà¼į
à½Ļ à½¢
à¾Ļ à¼
à¾Ļà¼ ĭ
à¼¦ à¼©
à¾Ł à½¾à¼ĭ
à¾£ à½º
à½ĵ à½Ķà½¢
à¼§ à¼ł
à¼£ à¼¢
à¾³à½´ à¼į
à¾Ĵà¾² à¼į
à½ĸà½¦ à½Ĥ
à½Ĥ à½İ
à½ķ à½Ħà½¦
à½Ĥà½¦ à½Ķ
à¼§ à¼©
à½ĸ à½ĳà½Ħ
à¼ĭà½Ī à¾±à½²
à½Ĥ à½Ķ
à½ı à½¢
à½ «
à½¡ à½ĺà½¦
à½¨ à½¦
ĭ à½²à¼ĭ
à¼ ĭà½²à¼ĭ
à½´à¼ĭ à¼Ħà¼ħà¼įà¼į
à½Ĳ à½Ĥà½¦
à½Ĥà½ŀ à½Ħ
à¾© à½ºà¼į
à¾Ķ à½¼à¼įà¼į
à¾± à½»à¼ĭ
à¾Ĵà½¼ à¼į
à¾³ à½²à¼ĭ
à¾²à½´ à¼į
à¾ľ à½²
à¾ļ à½²à¼ĭ
à½¤ à½Ķ
à½º à½ºà¼ĭ
à¾© à½²à¼į
à¾ł à¼
à¾łà¼ ĭ
à¾¨à¾² à¼įà¼į
à¼§ à¼¨
à½´à¼ĭ à¼ĳ
à¾Ĵà¾± à¼įà¼į
Ġ à½ĳà½Ĥ
à¾ ¾
à¾± à¾Ńà¼ĭ
à½ĺà½Ĳ à½¦
à¼ĭà¾ ¢
à½§ à½¦
à½Ł à½¢
à¼¦ à¼¦
à½ĺà½Ľ à½Ħà½¦
à¾Ĵà¾² à¼įà¼į
à¼© à¼©
à½łà½ĸ à½Ĥ
à¾´ à¼
à¾´à¼ ĭ
Ġà¼ ©
à½¤ à½ĸ
Ġ à½ĳà½Ķà½£
à¾Ĳ à½²à¼ĭ
à¼¥ à¼¤
à¾Ĵà¾± à½¼
à½ĵ à½¡
à¾ķ à½´
à¾Ł à¾Ń
à½Ķà½¢ à½ĸ
ĠĠ ĠĠ
à½Ĥà½¤ à½Ĥà½¦
à½Ĥ à½ĳà½Ħ
à½łà½ĩ à½Ħ
Ġ à½ħ
à¾¦ à½²à¼ĭ
à¼įà¼ Ī
Ġ à½Ķà½¢
à½ĺ à½Ķ
à½Ħà½¦ à½¦
à¾·à¾±à½¼ à½¿à¼ĭ
Ġ à¼Ķ
Ġ à½ĵà½¦
à½ĳà½Ħ à½Ħà½¦
à¾³ à¼įà¼į
Ġ à½łà½ĳ
à½ļ à½Ĥ
à¾· à½º
à¼ĭà¾ ¾
à½ĺ à½ĳà½Ħ
à½ ĥ
à¼© à¼ł
ĭà¼ Ħà¼ħà¼įà¼į
à¾· à¾±à½¼à¼ĭ
à½Ķ à½Ģ
à¼¦ à¼¥
à¾Ńà½± à½¾à¼ĭ
à½ĵ à½Ł
à¾¤ à¾²à¼ĭ
à½Ķ à½Ĥ
à¾· à¾±à¼ĭ
à¾² à¾Ĺà½¼
à¾Ĳ à½´à¼Ķ
à½Ķ à½ŀ
à½¨ à½Ģ
à½¨ à½ĳ
à½ĸà½ħ à½ĸà½¦
à½Ģ à½łà½Ħ
à¼ Ĳ
à½ĺà½Ħ à½Ĥ
à½Ļ à½ł
à¼¨ à¼ł
à¾· à¾²
à½ĳà½Ħ à½¢
à½ºà¼ĭ à¼Ħà¼ħà¼įà¼į
à¼¤ à¼¢
à¾° à¼
à¾°à¼ ĭ
à½¦à½Ħà½¦ à½¢
à½Ĥà½ĳ à½£
à¼¤ à¼¡
à¼ĭà¼ĳ à¼ĳ
à¾ĭ à½¦
à½ĸà½ĳ à½ĺà½¦
à¾·à¾± à½¿à¼ĭ
à½¼à¼ĭ à¼Ħà¼ħà¼įà¼į
à½Ĥ à½Ĥà½¦
à¾ķ à½²
à¾±à½´ à¼į
à¾µ à½ºà¼ĭ
à½Ĺ à½¥
à¾ Ĥ
à½²à¼ĭ à¼¼
ĭà¼ĭà¼ĭà¼ĭà¼ĭà¼ĭà¼ĭà¼ĭà¼ ĭà¼ĭà¼ĭà¼ĭà¼
à¾¡ à¾·à½±à¼ĭ
à½ĵ à½ĵà½¦
à¾ĥ à¼į
à½²à¼ ·à¼ĭ
à¾Ķ à½¼à¼į
à¾¡à½´ à¼į
à½łà½ĳ à½ĵ
à½² à½¿à¼ĭ
à¾³ à½¼à¼įà¼į
à¾· à½±à½²
à¼łà¼ł à¼łà¼ł
à¾· à½±à½²à¼ĭ
à½£ à½£
à¾± à½±
Ġà¼ĭà¼ ĭà¼ĭ
à¼¥ à¼¡
à½ĺà½¦ à½ħà½ĵ
à¾· à½²à¼į
à½Ľ à½¦
à¾Ħ à¼į
à½±à½´ à½¾à¼Ķ
à¾Ĳ à¾²à½¼
à¾Ĵà¾± à½º
à¼¥ à¼¢
à½ĺà½¦ à½Ģ
à¾ĭ à½Ĥ
Ġ à½Ĥà½¦
à¼© à¼§
à¼¤ à¼£
à¾Ł à¾²à¼ĭ
à¼Įà¼Įà¼Įà¼Į à¼Įà¼Įà¼Įà¼Į
à¼¡à¼ł à¼ł
à½Ĥà½¦ à½ĸ
à¾¥ à½´à¼ĭ
à½¦ à½łà½ĺ
à½ł à½¦
à¾·à¼ Ķ
à½Ħ à½Ķ
à½Ĥà½Ł à½¦
Ġ à½ĸà½Ģà½ł
à¼§ à¼¦
à½¦ à½ĵà½¦
Ġà¼ Ĳ
à½ĵ à½łà½ĳà½¦
à½ĺ à½Ķà½¢
à¼© à¼¨
à½łà½Ľ à½ĸ
à½ĵà½ĺ à½ĺà½ģà½ł
à¾« à½º
à½¨ à½ĸ
à½¼à¼ĭ à¼¼
à½¦ à½Ĥà½¦
à¾Ĵ à¾·à½¾à¼ĭ
à¾µ à¼į
à¾¡ à¾²
à¾· à½¼à¼į
à½Ķ à½Ĩ
à½Ĥà½¦ à½Ģ
à¾± à¾Ģ
à¾± à¾±à½²
à¼ĭà¼ĳ à¼į
à¾¡à¾· à¼į
Ġà¼ĭà¼ ĭà¼ĭà¼ĭà¼ĭ
à¾¡ à½ºà¼įà¼į
à½ķ à½Ħ
à½łà½ĩ à½Ĥ
à½ħ à½ĳà½ĺ
ĭà¼ĭà¼ĭà¼ĭà¼ĭà¼ĭà¼ĭà¼ĭà¼ĭà¼ĭà¼ĭà¼ĭà¼ĭà¼ĭà¼ĭà¼ĭà¼ĭà¼ĭà¼ĭà¼ĭà¼ĭà¼ĭà¼ĭà¼ĭà¼ĭà¼ĭà¼ĭà¼ĭà¼ĭà¼ĭà¼ĭà¼ĭà¼ ĭà¼ĭà¼ĭà¼ĭà¼ĭà¼ĭà¼ĭà¼ĭà¼ĭà¼ĭà¼ĭà¼ĭà¼ĭà¼ĭà¼ĭà¼ĭà¼ĭà¼ĭà¼ĭà¼ĭà¼ĭà¼ĭà¼ĭà¼ĭà¼ĭà¼ĭà¼ĭà¼ĭà¼ĭà¼ĭà¼ĭà¼ĭà¼
à½ķ à½ĸà½¦
à½Ķ à½ĸ
à½´ à½¿à¼į
à½Ľ à½§
à¼¦ à¼¢
à¼¨ à¼¨
à½Ģ à½£
à½ĸ à½ī
Ġà¼ ½
à½ĸà½¤ à½ł
à½ĸà½ŀ à½ĵ
à¾Ł à½´à¼į
à¼§ à¼¥
à¼¦ à¼¡
à¾Ń à½ºà¼ĭ
à¾²à¼ Ķ
à½ģ à½ĵ
à½§ à½ĺ
à½ĳ à½ı
à½ĳà½Ķ à½Ĥà½¦
à½ĸà½ħ à½Ĥà½¦
à¼· à½²à¼ĭ
à¼ĭà¼ ĭà¼ĭà¼ĭà¼ĭ
à½¦ à½Ķà½ł
à¾± à½¾à¼ĭ
à½²à¼ĭ à¼½
à½´à¼ ·à¼ĭ
à¾¦ à¾¦à¼ĭ
à½¾à¼ ĭà¼
à¾¡ à¼į
µ à¼
µà¼ ĭ
à¾¦ à¾²à½²
à½Ģ à½ĺ
à½ħ à½¦
à¾Ł à½¾à¼į
à½£ à½Ķ
à¾£ à½²à¼ĭ
à½ĳ à½İ
à¼¦ à¼£
à¾³à½¼ à¼į
à¼¦ à¼¤
à½ºà¼į à¼
à½¢ à½ĸà½ł
à¼¥ à¼£
à½Ģ à½İ
à½¨ à½ī
à½ºà¼įà¼ ĭ
à½ĸà½ĳ à½ł
à½½ à¼į
à¾¤à¾² à½¼à¼įà¼į
à¼ĭà¼ ħ
à½¢ à½Ķ
à½Ģ à½Ģ
à¼§ à¼¡
Ġ à¼¡à¼¢
à½ĸà½ħ à½£
Ġ à½£à½¦
à¾« à½¼à¼ĭ
à½ĸà½ĳ à½¦
à½± à½¼à¾ĥà¼ĭ
à¼ĭà¼ Ħ
à¾¨à¾² à¼į
à½ĸà½Ł à½¦
à½Ł à½Ĥà½¦
à½ĺ à½ĸ
à½²à¼ĭ à½²
à½¤ à½Ĥà½¦
à½§ à½Ħ
à¼§ à¼£
à¾² à½±à½²à¼į
à½ĺ à½¡
à¾Ĵ à½±à¼ĭ
à½ĸ à½Ĩ
à½ĳà½Ħ à½Ĥà½¦
à¾¨ à½±
à½ĳà½Ĥ à½ĸ
à½ŀ à½ł
Ġ à¼¡à¼ł
à¾Ĵ à½¼à¼įà¼į
à½ł à½¢
à½Ŀ à½ł
à¾Łà½² à½¾à¼ĭ
à¾ Ī
à¼§ à¼¢
à¾±à¼ĭ à¼ĳ
à½Ĥà½¦ à½Ķà½ł
à¾Ń à½²à¼ĭ
à½¼à¼ ·
à¾¦ à½¼à¼ĭ
à¼¨ à¼©
à½¼à¼ĭà¼ĳ à¼į
à¾ª à½²
Ġ à½ı
à¼§ à¼¤
à½ĸ à½Ķ
à½¦ à½¢à½ĸ
à½£ à½Ģ
à½ĺà½Ĥ à½£
à½łà½Ĳ à½¦
à¾¡à¾· à½²
à¼ Ħ
à½ĳ à½Ĩ
à¾³à½´ à¼įà¼į
à½¼à¼ĭà¼ĳà¼ĳ à¼
à½¼à¼ĭà¼ĳà¼ĳà¼ ĭ
à½Ĥà½ī à½£
à½Ĵ à½¢
à½Ķ à½¡
à¼· à½²
à½łà½Ĥ à½Ħà½¦
Ġà¼ĭà¼ ĭà¼ĭà¼ĭà¼ĭà¼
à¾ĭ à½¢
à½¦ à½ĸà½¦
à¾¡à¾· à½ºà¼į
à¾Ĺ à½¼à¼ĭ
à¼Ģ à½ĸà½Ľ
à½Ĥà½ħ à½£
à½ĵ à½ŀ
à½Ĵ à½ĵ
à¾Ĳ à½ºà¼į
à¾ŀ à½¾
à½» à¼į
à¾¤à¾± à½¼à¼ĭ
à¾· à½±à½´
à½± à¾Ģà¼ĭ
à¾ª à¼į
Ġ à½łà½ĸ
à¾° à½´
à½łà½ĩ à½¢
à¼¡ à¼¡à¼¢
à½Ĩ à½£
à¾© à½ºà¼įà¼į
à½ĸà½¤ à½ĵ
à½ī à½§
à¾²à½´ à¼įà¼į
à¾ł à½±à¼ĭ
à½Ĳ à½¦
à½Ľ à½ł
à½Ĥà½¤ à½ł
à½ĳà½Ķà½ł à½¦
à½Ķ à½ı
Ġ à½ĸà½ĳ
à¾Ł à½±
à¾Ĥ à¼
à¾Ĥà¼ ĭ
Ġ à½Ħ
à½ĸà½Ļ à½Ĥà½¦
à¼ĭà¼ ĭà¼ĭ
à½ĳà½Ķà½ł à½Ĩ
à¾© à¾Ń
à¾© à½¼à¼ĭ
à½¦ à½ŀ
à½ĵ à½Ĥà½¤
à½± à½²à¼įà¼į
à½ĵ à½Ķà½¦
à¼įà¼ĭà¼ ĭ
à½Ĥà½ŀ à½ł
à½łà½ĸ à½ĸà½¦
à¼· à½¼
à¼© à¼¥
à¾µ à½´à¼ĭ
à½Ĵ à½¥
à¾¡à¾· à½´à¼ĭ
Ġ à½łà½ķà½Ĥà½¦
à½¾à¼įà¼į à¼įà¼į
à¾² à½¼à¼Ķ
à¼įà¼ĭà¼ ĭà¼ĭà¼ĭà¼ĭ
Ġ à½ĺà½ļà½ĵ
à¾· à½ºà¼į
à¾¨ à¾±
à¾Ļ à½±
à½ĸà½¦ à½ĸ
à½¡ à½ı
à½ļ à½ĺ
à½²à¼ ·
à¾¡ à¾·à½¼
à½łà½ĩ à½ĸ
Ġ à½ĳà½ĸ
à½łà½ļ à½ĸ
à½Ļ à½Ĥ
à¾¶ à¼
à¾¶à¼ ĭ
à½Ħ à½Ĩ
à½łà½ļ à½¢
à¼¡à¼¢ à¼ł
à¾¦ à½²
à½Ĥà½¦ à½Ĥ
à½Ķà½¢ à½ĺ
à½ļ à½¦
à½±à¼ ĭà¼
à½§ à½§
à¼Ģ à½¨
Ġ à¼¡à¼¥
à¾Ģ à¼į
à¾±à½²à¼ĭ à¼ĳ
à¼© à¼¢
à½ĳ à½ĳà½Ħ
à½ĵ à½Ģ
à¾Łà¾Ń à½¾à¼ĭ
à½łà½ĸ à½Ĥà½¦
à½¡ à½Ļ
à¼¡ à¼¡à¼ł
à¾Ĳà¾± à¼į
à½´à¼ ·
à¼¡ à¼¡à¼¤
à½ĵ à½ħ
à¼¡ à¼¡à¼£
à½§ à½£
à½Ĥà½¦ à½ĺ
à½¢ à½ī
à½ĸà½Ļ à½Ĥ
à¾¨ à¾±à½²
à¼ ŀ
à½ĳ à½ĸà½ŀ
à½ĸà½Ģ à½ĵ
à½ĵ à½Ĩ
à½¼ à½¿à¼į
à½²à¼į à¼
à¼ĭà¼ Į
à¼¡ à¼¡à¼¦
à½ĸ à½Ĥà½¦
à½²à¼įà¼ ĭ
à¼¡ à¼¡à¼¥
à½łà½Ĩ à½ĺà½¦
à½¨ à½Ļ
à¼© à¼¦
à½ĸà½Ģà½ł à½¦
à¾¨ à½´à¼ĭ
à½ºà¼ ·à¼ĭ
Ġ à½Ĥà½ī
à½± à¾ĥà¼ĭ
à¾ľ à¼į
à½´à¼ĭ à¼½
à¾© à¼įà¼į
Ġ à¼¡à¼£
à¼ĭà½µ à¾ĥà¼ĭ
à½Ĥ à½Ĩ
à¾ĥ à¼Ķ
à½ŀ à½¦
à¾Ľ à¼į
à½ı à½ı
à½¨ à½İ
à¾¤ à¾±à½²à¼į
à¼¡ à¼¡à¼§
à½Ĥà½¤ à½Ħ
à½ĵ à½ĳà½Ħ
à½ī à½¦
à¼¡ à¼¡à¼¨
à¼¨ à¼§
Ġ à½ĸà½ŀ
à½± à½¿à¼į
à¾ļ à¼į
à¼ĭà¼ ŀ
à½ĳà½Ħ à½Ħ
à½ħà½ĳà½ĺ à½ģ
Ġ à½łà½Ĥ
à¾· à½¾à¼į
Ġà¼ĭà¼ ĭà¼ĭà¼ĭà¼ĭà¼ĭà¼ĭà¼ĭà¼ĭà¼ĭà¼ĭà¼ĭà¼ĭà¼ĭà¼ĭà¼ĭà¼ĭà¼
à¼© à¼£
à¾± à½¾à¼į
à¼¨ à¼¢
à½ĵ à½ĺà½ģà½ł
à½Ī à½²
à¼¨ à¼¥
à½¨ à½¨
Ġ à½ĵà½Ħ
à½ĳà½Ĥ à½£
à¼¡à¼¤ à¼ł
Ġ à½ĸà½ħ
Ġ à½łà½ģ
à½ĳ à½ĺà½¦
à½¼ à½¾à¼Ķ
Ġ à½¢à½Ħ
à¾¨ à¾±à½´à¼ĭ
à¼© à¼¤
à¼© à¼¡
à½łà½ĸ à½ĺ
Ġ à½¡à½Ħ
à¾Ĳ à¼į
Ġà¼ º
à¼¡à¼© à¼ł
à¼¡à¼£ à¼ł
à½ĺà½¦ à½£
à¼¨ à¼¦
Ġ à½ł
à½´ à¾ĥà¼ĭ
à¾²à½± à½²à¼Ķ
à½¨ à½Ĭ
à½ºà¼ĭ à¼½
à½Ķà½ł à½ĳ
à½Ĭ à½¢
à¾¦ à½ºà¼ĭ
à½ķ à½Ł
à¾ª à½±
à½ĳ à½ĸà½¦
à¼¨ à¼¡
à½ĩ à½ł
à½ĳ à½ĺà½ļ
à½Ĥà½¡ à½ĵ
à½ĺ à½ĺà½Ĩ
à½ĺ à½ĵà½ĺ
à½Ł à½£
à½±à½´ à½¾à¼įà¼į
Ġ à¼¡à¼§
à¾Ĵà¾² à½ºà¼ĭ
à¼¨ à¼¤
à½¥ à½ł
à½ŀ à½ĺ
Ġ à¼¡à¼¦
à½ĸà½ŀ à½¢
à¾² à½²à¼Ķ
à½ĺ à½ĳà½Ĥ
à½Ħ à½ĸà½ł
à½Ĥ à½ĸà½¦
à½Ĥ à½Ķà½ł
à½ĸ à½Ĥà½ĳ
à½Ĭ à½ĺ
à¼· à½ºà¼ĭ
à½§ à½ĸ
à¼ĭà¼ ĭà¼ĭà¼ĭà¼ĭà¼
à¼įà¼ĭà¼ ĭà¼ĭà¼ĭà¼ĭà¼ĭà¼ĭà¼ĭà¼ĭà¼ĭà¼ĭà¼ĭà¼ĭà¼ĭà¼ĭà¼ĭà¼ĭà¼
à½ĺà½Ĳ à½Ħ
Ġ à¼¡à¼¤
à¼¨ à¼£
à½¡à½Ħ à½ĺ
à¾· à¾Ńà¼ĭ
à¾·à¾± à½¿à¼į
à½ĳ à½ĵà½¦
à½ĺà½ĵ à½ĸà½¦
à¾¦ à¼į
à½ĵ à½ĸà½¦
à½± à½²à¼Ķ
à¾¤ à¾²à½²à¼ĭ
à½¢ à½İ
à¾ º
à¾ł à½²à¼ĭ
à¾²à½² à½¾à¼ĭ
à½Ķà½¢ à½¢
à½² à½¿à¼į
à½¨ à½£
à½§ à½ĳ
à¾±à½²à¼ĭ à¼Ħà¼ħà¼įà¼į
à¼¡ à¼¡à¼©
à½ĸà½ı à½Ĥ
à¼ĭà¾ İ
à½Ĥà½ī à½Ĥà½¦
à½¼à¼į à¼ĭà¼į
à½ħ à½£
à½ł à½ĸà½¦
à¼įà¼ĭà¼ ĭà¼ĭà¼ĭà¼ĭà¼ĭà¼ĭà¼ĭà¼ĭà¼ĭà¼ĭà¼ĭà¼ĭà¼ĭà¼ĭà¼ĭà¼ĭà¼ĭà¼ĭà¼ĭà¼ĭà¼ĭà¼ĭà¼ĭà¼ĭà¼ĭà¼ĭà¼ĭà¼ĭà¼ĭà¼ĭà¼ĭà¼ĭà¼
à½Ķà½¢ à½¦
à½ĺà½¦ à½ĳà½Ķà½ł
à½¦ à½ĳà½Ħ
à½¢ à½ŀ
à½¤ à½Ģ
à¾¡à½´ à¼įà¼į
à½ĵ à½ī
à½ĺà½ļà½ĵ à½ĺ
à½¢à½ĸ à½ı
à¾±à¼ ·
à½¦ à½Ĩ
à¾¡à¾· à½¾à¼į
à½ħà½ĳ à½Ģ
à¾Łà½ºà¼į à¼
à½±à½´ à¼į
à¾Łà½ºà¼įà¼ ĭ
à¾¡ à½¼à¼į
à½Ķà½¦ à½ĵ
à½Ĥà½ĵ à½ĵ
à¼¡à¼¥ à¼ł
à½£ à½ŀ
à½ĸà½ŀ à½ĺà½¦
à½Ĥà½ı à½ł
à¾²à½º à¼įà¼į
à½£ à½ķ
Ġ à½¢à½ĸ
à½¦ à½ĸà½¢
à½ĸà½ĸ à½ĸà½ĸ
à¾·à½±à½² à½¿à¼ĭ
à½ĺà½¦ à½¦
à½£ à½ı
à½Ĭ à½Ģ
à¾±à½º à½ºà¼ĭ
à¾ ĳ
à½Ķ à½£à½¦
à½ĸà½¢ à½ĸ
à½ĺà½¦ à½¢
à¾Ł à½±à¼į
Ġ à¼¡à¼¡
à¼Ħà¼ħ à¼ħà¼įà¼į
à½²à¼ĭ à¼İ
à¾Ń à½²
à¾Ľ à½²à¼ĭ
à½¼à¼ĭ à¼´
à½Ķà½¢ à½łà½Ĥ
Ġ à¼¡à¼©
à¾· à¾²à¼ĭ
à½ĳà½Ĥ à½ĵ
à¾± à¾²à½º
à¾·à½± à½²à¼Ķ
à½¦ à½Ķà½¢
à¼ º
à½ºà¼ ·
à½łà½ĸ à½£
à¾Ł à½¾
Ġ à½Ļà½ĺ
à¾¤ à¾²à½´à¼ĭ
à¾· à½±à¼į
à½Ķ à½Ķ
Ġ à¼¡à¼¨
à¾Ī à¾Ī
à½¢à½ĸ à½Ģ
à¼ĭà¼įà¼į à¼į
à½¦ à½ī
à½ĳ à½ĵà½ĺà½¦
à¾Ń à½¾à¼ĭ
à½Ŀ à½£
à½£ à½łà½ģ
Ġ à½ĳà½ĺ
à½£ à½ļ
à½ĸ à½§
à½Ħ à½¥
à½ķ à½Ŀ
à½Ķà½¦ à½¦
ĭ à½¼à¼ĭ
à¼ ĭà½¼à¼ĭ
à¾·à¾² à½±à½´à¾ĥà¼ĭ
à½Ķ à½¤
à¾·à¾± à½¼à¼Ķ
à½Ľ à½ĵ
à¾¨ à¾¨à¼ĭ
à½ĸà½Ļ à½ĳ
à½łà½Ĥ à½ĸ
à½£ à½ĸà½¢
à½£ à½ī
Ġà¼ Ħ
à½ĵ à½ıà½ĵ
à½ĺà½ĳ à½¦
à½ºà¼ĭ à¾¾
à½ĸ à½¡
à¾¥ à½ºà¼ĭ
à½ķ à½ĳ
à¾Ń à½¾à¼į
Ġ à½ĺà½ĳ
à¾Ķ à½º
à½£ à½Ĩ
à¾² à½¾à¼į
à½ĸà½¦ à½¦
ĭ à½´
à¼ ĭà½´
Ġà¼ĭà¼ ĭà¼ĭà¼ĭà¼ĭà¼ĭà¼ĭà¼ĭà¼ĭà¼ĭà¼ĭà¼ĭà¼ĭà¼ĭà¼ĭà¼ĭà¼ĭà¼ĭà¼ĭà¼ĭà¼ĭà¼ĭà¼ĭà¼ĭà¼ĭà¼ĭà¼ĭà¼ĭà¼ĭà¼ĭà¼ĭà¼ĭà¼ĭà¼
à½¦ à½ļ
à¼Ģ à½ĺ
à½¡à½Ħ à½ĳà½Ĥ
à½¢à½ĸà½ł à½ĸ
à½ĸà½Ł à½¢
à½¼à¼ĭ à¼½
à¾¦à¾· à½±à½²à¼ĭ
à½ĸà½¦ à½¢
Ġ à½Ĥà½Ħ
à½± à½¼à½¾à¼ĭ
à½¢ à½¥
à¾« à¼į
Ġà¼ĭà¼ ĭà¼ĭà¼ĭ
à¾·à¾±à½¼ à½¿à¼į
à½ºà¼ĭà¼ĳ à¼
ĠĠĠĠ ĠĠĠĠ
à½ºà¼ĭà¼ĳà¼ ĭ
à½ĳà½ĸ à½ĳ
à¾· à½´à¼į
à¾· à½±à½²à¼į
à¾¦ à½±à¼ĭ
à½ķ à½¥
à½Ķ à½ĳà½Ĥ
Ġ à¼¢à¼ł
à¼· à½º
Ġ à½ĺà½Ĩ
à¾Ĳà¾² à¾Ģà¼ĭ
Ġ à½łà½ĩ
Ġ à½§
à¾£ à½±
à¾¡ à½¼à¼įà¼į
à¾¡ à¾·à½¼à¼ĭ
à¾Ĵ à½ºà¼į
à½¨ à½¥
à½´à¼ĭ à¼¼
à½Ĥ à½ģ
à½ĺà½ĳ à½¢
Ġ à½¿
à½ĸà½¢ à½ĺ
à½Ł à½Ĳ
à¼Įà¼Įà¼Įà¼Įà¼Įà¼Įà¼Įà¼Į à¼Įà¼Įà¼Įà¼Įà¼Įà¼Įà¼Įà¼Į
à½º à½¾à¼ĭ
à¼ĭà¾ §
à½£ à½ĸà½¦
ĭ à¼ĭà¼į
à¾± à½¼à¼įà¼į
à¾Ń à½±à¼į
à¼¡à¼¦ à¼ł
à¾ª à½±à¼ĭ
à¾¥ à½¼à¼ĭ
à½ĸà½ı à½ĸà½¦
à¾· à½»à¼ĭ
à½Ķ à½ļ
à½ł à½ĵ
à½£ à½ģ
à½Ħ à½ĵà½¦
à¾Ķà¼ Ķ
à¾¡ à½±à¼ĭ
à¾© à½²à¼įà¼į
à¼· à¼į
à¾¥ à½´
à½Ħà½¦ à½Ķ
à½¼à¼ ·à¼ĭ
à¼¡à¼§ à¼ł
à½ĵà½¦ à½¦
à¾²à¾Ń à¼į
à¾ķ à½ºà¼į
à¾²à¾Ģ à¼į
à¼ĭà¼ ĭà¼ĭà¼
à½ĳ à½¡
à½£ à½Ĭ
à¼ ĭà¼ĭà¼į
à½ĸ à½ĵà½¦
à¾ŀ à½²à¼ĭ
à½Ĥà½¦ à½ĵà½¦
à¾³ à½½à¼ĭ
à½Ķà½¢ à½Ĥ
à¼ĭà¼ ĭà¼
à½ĳ à½ŀ
à½Ĥ à½ĳà½Ĥ
à¾²à½´ à½¾à¼ĭ
à¾ļ à½±à¼ĭ
à½ı à½Ĳ
à½¦ à½Ķà½¦
à½ĸ à½Ļà½ĺ
Ġ à½ĳà½ĸà½Ħ
à½£ à½łà½ĺ
à¼¡à¼© à¼¥à¼©
à½Ħ à½ĸà½¢
à½ł à½£
à¾£ à½±à¼ĭ
à½£ à½łà½ĸ
Ġà¼ ħ
à¼ĭà¼ Ŀ
à½ĳ à½ĳà½Ĥ
Ġ à½ĸà½ħà½¦
à½£ à½¡
à¾Ĳ à½²
Ġ à¼ĭà¼į
à½£à½¦ à½¦
à¼ĭà¼Į à¼į
à½ĺà½¦ à½ĵ
à¾² à¾°
à½Ĥà½¤ à½Ĥ
à½Ł à½ĸà½¦
à¼į à¼ĭà¼į
ĭ à½ºà¼ĭ
à¼ ĭà½ºà¼ĭ
à½Ĥ à½Ķà½¢
à½ĳ à½§
à¼Ģ à½§
à½¼à¼įà¼į à¼Ħà¼ħà¼įà¼į
à¾µ à½±à¼ĭ
à½ģ à½ħ
à¾· à¾²à¾Ģ
à½¼à¼įà¼į à¼Ī
à½ĸ à½łà½ĳ
Ġ à½¦à½Ħà½¦
à¾¡à¾· à½¾à¼ĭ
à½ºà¼ĭ à¼¼
ĉ ĉ
Ġà¼ Ħà¼ħà¼į
à½ĸà½¤ à½¦
à¼¡à¼¡ à¼¡
à¾· à¾±à½±à¼ĭ
à¾Ĵ à¼į
à¾ľ à½±à½²à¼ĭ
à½£à½¦ à½¢
à½ĵ à½łà½ĳ
Ġà¼Ħà¼ħ à¼ħà¼įà¼į
à½łà½ķ à½Ĥ
à¼¡à¼¨ à¼ł
Ġ à½Ĥà½ĵà½¦
à¼ĭà¼į à¼Ħà¼ħà¼įà¼į
à½ĺ à½ŀ
à½łà½Ľ à½ł
Ġ à½ĸà½ĳà½Ĥ
à½Ĥà½ĵ à½Ħà½¦
à¾Łà¾Ń à½¾à¼į
à½ķ à½¡
à½Ĥà½¡ à½ĺ
à½²à¼ĭ à¼¸
à½¨ à½§
à½ħ à½ł
à½¦ à½¡
à½´ à½¾à¼į
à¾ŀ à½±à¼ĭ
à½Ĺ à½Ĥ
à½ł à½Ĳà½ĺà½¦
à¾²à½± à¾Ģà¼ĭ
à½ĺ à½ı
à¼ĭà¼ĳà¼ĳ à¼
à¾¡ à¼įà¼į
à¼ĭà¼ĳà¼ĳà¼ ĭ
à½¼ à½¼à¼ĭ
à¾Ļ à½¾à¼ĭ
à½ĺà½¦ à½ĺ
à¾¶ à½¾à¼ĭ
à¾¤ à¾±à½´
Ġ à¼¢à¼¢
à½ĺ à½¤
à½¦ à½¤
à¾² à½¿à¼ĭ
à¼ĭà¼ ĭà¼ĭà¼ĭ
à¾Ń à½¼
à¼¡à¼ł à¼¤
à½Ĥà½ħ à½Ĥà½¦
à¾Ĳ à½ºà¼įà¼į
à½ĸ à½£à½¦
à½ĸ à½Ħà½¦
à¼ĭà½µ à½¾à¼ĭ
à¾¤ à¾²à½ºà¼ĭ
à¾¦à¾· à½±à½²
à½ĺ à½Ģ
à¾µ à½²
à¼ Ŀ
à¾±à½²à¼ĭ à¼´
à½Ģ à½ª
à½ĳà½Ħ à½Ķ
Ġ à½ĸà½ł
à¾· à½¼à¼Ķ
ĭà¼ĭà¼ĭà¼ĭà¼ĭà¼ĭà¼ĭà¼ĭà¼ ĭà¼ĭ
à½Ł à½ģ
à ¿
à½ĳ à½ª
à½¨ à½Ķ
à¾Ĺ à½ºà¼Ķ
à½ĺ à½ĳà½ĸ
à½Ĥà½Ł à½ĸà½¦
à½£ à½łà½ĳ
à½ĺ à½ĵà½¦
à½¢ à½ĸà½¢
à¼¡à¼ł à¼©
à½Ħ à½ŀ
à¼įà¼ Į
à½Ĩ à½Ħà½¦
à¾° à½¿à¼ĭ
à½¼à¾ħ à¼
à½¼à¾ħà¼ ĭ
à½ĵ à½ĵà½ĺ
à¾Ĳ à½±à¼ĭ
à½´à¼ĭ à¼´
à½ī à½ĳ
à½Ĥà½Ļ à½Ĥà½¦
à½Ĥ à½Ĳ
à¼½ à¼¼
Ġ à½Ĥà½¦à½Ħ
Ġ à½łà½ĩà½ĺ
à½łà½ļ à½Ħà½¦
à½łà½Ľ à½ĵ
à½Ľ à½Ķ
ĠĠ Ġ
à½ĵ à½ļ
à½ĵ à½£à½¦
à¼¡à¼ł à¼£
Ġ à½ĺà½Ħ
à¼ĭà½Ī à½º
à½Ĥà½¦ à½Ķà½¢
à¼¡à¼¢ à¼¨
à½± à½¾à¼įà¼į
à¼¡à¼ł à¼¡
à½ĸà½¢ à½łà½Ĥ
à¼¡à¼¢ à¼¢
à½¦ à½ģ
à½ŀ à½ĳ
à½łà½ģ à½Ħ
à½Ķ à½ĸà½¦
à¼¡à¼¢ à¼©
à¼¡à¼ł à¼¢
à¼¡à¼ł à¼¨
Ġà¼ĭà¼ĭà¼ĭà¼ĭà¼ĭà¼ ĭ
à½Ģ à½Ĥ
Ġ à½ĩ
ĭà¼ĭà¼ĭà¼ĭà¼ĭà¼ĭà¼ĭà¼ĭà¼ ĭ
à½ĸà½¤ à½¢
à½ĸ à½Ķà½ł
Ġ à½Ĥà½ŀà½ĵ
à½±à½´à¾ĥ à¼įà¼į
à¼¡à¼ł à¼§
à¼¡à¼¢ à¼§
à½ı à½ĸ
Ġ à½Ĥà½ŀ
à¾¡à¾· à½²à¼į
Ġ à½£à½ĺ
à½ į
Ġà¼£ à¼ł
à¼¡à¼ł à¼¦
à¾·à¾±à½¼ à¼į
à½Ĥà½ŀ à½¢
à½ĸà½¦ à½ĸà½¦
Ġ à¼¢à¼¦
à½¦ à½Ł
à½Ĥ à½ļ
à¾·à¾² à½±à½´à½¾à¼ĭ
à¾ķ à½²à¼įà¼į
à¾· à¾²à¾Ģà¼ĭ
à½ĵ à½ĸà½¢
à½± à½¾
à½łà½ĳà½¦ à½Ģ
à¾Łà½ºà¼ĭà¼ĳ à¼
à¾Łà½ºà¼ĭà¼ĳà¼ ĭ
ĭà¼ĭà¼ĭà¼ĭà¼ĭà¼ĭà¼ĭà¼ĭà¼ĭà¼ĭà¼ĭà¼ĭà¼ ĭ
Ġ à½ĳà½Ķ
à½¾à¼ĭà¼ ĳ
à½Ĵ à½Ĥ
Ġ à¼¢à¼¤
à½Ĳ à½Ģ
à¼¡à¼¢ à¼£
Ġ à½Ĥà½Ł
à½ĺà½Ħ à½ĵ
à½ĵ à½¥
à½Ĥ à½łà½ĺ
à½Ľ à½ĳ
à½¢à½Ħ à½ĸà½ŀ
à½Ģ à½łà½ĺ
à½ł à½Ĳà½ĸà½¦
à¼¡à¼ł à¼¥
Ġ à½Ķà½¦
à½ĳà½Ħ à½£
à¾¡ à¾²à¼į
à½ĵà½¦ à½¢
à½ĳà½ĺ à½Ĥà½¦
à½¥ à½Ĭ
à¾¤à¾²à½¼ à¼į
à½ĺ à½Ķà½ł
ĭà¼ĭà¼ĭà¼ĭà¼ ĭà¼ĭ
à½Ĥ à½Ģ
à½ħà½ĳ à½£
à¾± à½»
à½Ħ à½ģ
à¼Ķ à¼
à¼¡à¼¢ à¼¦
à½±à½´ à¾Ĥà¼ĭ
à¼įà¼ĭà¼ ĭà¼ĭ
Ġà¼ Į
à¼¡à¼£ à¼¥
à½Ħ à½ĸà½¦
à½¢à½Ħ à½Ĥ
à¾²à½±à½² à½¾à¼ĭ
à¾¦ à¾·à½ºà¼ĭ
à¾Ĵ à¾·à¼ĭ
à¾· à¾±à¼į
à½Ľ à½ĸ
à½ļ à½ĳà½Ħ
à½´à¼į à¼
à¼¡à¼¢ à¼¤
à½£ à½ĸà½ł
à¾ ¼
à½ĳà½Ħ à½ĺ
à½´à¼įà¼ ĭ
ĭà¼ĭà¼ĭà¼ĭà¼ĭà¼ĭà¼ĭà¼ĭà¼ĭà¼ĭà¼ĭà¼ĭà¼ ĭà¼ĭà¼ĭà¼ĭ
à½ĵ à½¤
à¼¡à¼¢ à¼¥
à½Ģ à½ı
à½ĸà½¤ à½ĳà½Ķ
à¾±à½´ à¼įà¼į
à½²à¼ĭ à½Ī
à¼įà¼ĭà¼ ĭà¼ĭà¼ĭà¼ĭà¼ĭà¼ĭà¼ĭà¼ĭà¼ĭà¼ĭà¼ĭà¼ĭà¼ĭà¼ĭà¼ĭà¼ĭà¼ĭà¼ĭà¼ĭà¼ĭà¼ĭà¼ĭà¼ĭà¼ĭà¼ĭà¼ĭà¼ĭà¼ĭà¼ĭà¼ĭà¼ĭà¼ĭà¼ĭà¼ĭà¼ĭà¼ĭà¼ĭà¼ĭà¼ĭà¼ĭà¼ĭà¼ĭà¼ĭà¼ĭà¼ĭà¼ĭà¼ĭà¼ĭà¼ĭà¼ĭà¼ĭà¼ĭà¼ĭà¼ĭà¼ĭà¼ĭà¼ĭà¼ĭà¼ĭà¼ĭà¼ĭà¼ĭà¼ĭà¼ĭà¼
à¾ŀ à¼į
à¾ŀ à¾ŀà¼ĭ
Ġ à½Ĥà½¤
à¾² à½±à½¾à¼ĭ
à½ĸà½¢ à½ĵ
Ġ à¼¢à¼¥
à½Į à½ł
à½ĵ à½łà½ĺ
à½¢ à½¡
à½£à½¦ à½Ģ
à½Ĺ à½ĸ
à½²à¼ĭ à¼Ĳ
à½Ħ à½Ģ
à¼Ķà¼ ĭ
à¾º à¼
à¾ºà¼ ĭ
à¾Ķ à½¼à¼Ķ
à¾· à¾Ń
à¼įà¼ Ħà¼ħ
à¾¤ à¼į
à½ĵ à½ĺà½Ĩ
à½Ķ à½ª
à¼· à½¼à¼ĭ
à½İ à½¦
à½Ļ à½£
à½ĸ à½Ķà½¢
à½ĸà½ĳà½Ĥ à½ī
à¼¡à¼£ à¼©
à½Ķ à½ĵà½¦
à¼ĭà¼½ à¼¼
à½ĸà½Ĥ à½ĺ
Ġ à½Ĥà½ı
à¼¡à¼¢ à¼¡
à¼¡à¼¤ à¼¥
Ġ à¼¢à¼£
à½ĳà½ĺ à½ĳ
à½Ģ à½ĳ
à¾³ à½±à¼ĭ
à½ĳà½Ĥ à½łà½ĸ
à½ķ à½ħ
à¾¨ à¾±à½º
ĭà¼ĭà¼ĭà¼ĭà¼ ĭà¼ĭà¼ĭ
à½²à¼ĭ à¼Ī
à½ĳà½Ĥ à½ī
à½±à¼ĭà¼ ĳ
Ġ à¼¢à¼©
à½Ħ à½¤
à½²à¼ĭ à¼Ħà¼ħà¼į
à½Ľ à½¢
à¾ª à½²à¼ĭ
à¾ľ à½ºà¼ĭ
à½ĺ à½Ł
à¾© à½±à¼ĭ
à¾ķ à¼
à¾ķà¼ ĭ
à¾£ à½´à¼ĭ
à½łà½ļ à½Ĥ
à¾·à¾± à½±à½¾à¼į
Ġà¼Ħ à¼įà¼į
à¼¡à¼¤ à¼¤
à½¼à¼ĭ à¼Ī
à½º à½¿à¼ĭ
à¼¡à¼¤ à¼¢
Ġ à½Ļ
à½¼à¼į à¼ĭà¼ĭà¼ĭà¼ĭà¼ĭ
à¾¦à¾· à½º
à¾·à¼ ĭà¼
à½ł à½ł
à¾Ĵà¾±à½´à¼ĭ à¼Ħà¼ħà¼įà¼į
à½ºà¼ĭ à¼´
ĭà¼ĭà¼ĭà¼ĭà¼ĭà¼ĭà¼ĭà¼ĭà¼ ĭà¼ĭà¼ĭ
à¾± à½¿à¼ĭ
à¾± à½¿à¼į
à¾¦ à¾·à½²à¼ĭ
à½¡à½ĵ à½£à½Ĥ
à½ĳ à½Ĩà½Ĥà½¦
à¾¡à¾·à½¼ à¾ħ
à¾Ń à¼įà¼į
à½¼à¼į à¼Ħà¼ħà¼įà¼į
Ġ à½ĳà½Ģ
à½£ à½ĺà½Ħ
à¾£ à¾²à½¼
à½ĵ à½ģ
Ġà¼¼ à¼½
à½ĺ à½ĺà½Ĳ
à½Ķ à½Ĳà½ĺà½¦
à¼ĭà¾¾ à¼įà¼į
à½ĸ à½Ĳ
à¼¡à¼¥ à¼¨
à¼¡à¼¥ à¼¤
à½ĺà½ī à½ĺà½¦
à¾Łà½¼ à¼į
à¼¡à¼£ à¼¤
Ġ à½Ĥà½ħ
à¾Ħ à½¿à¼ĭ
à½ĸà½ħ à½ĵ
à½²à¼įà¼į à¼į
à¼¡à¼¦ à¼¨
Ġ à¼¢à¼§
à¼¡à¼¤ à¼©
à¾ª à½ºà¼ĭ
à¾Łà¼ Ķ
à¼¡à¼¥ à¼¥
à¼¡à¼¤ à¼£
à¼¡à¼£ à¼£
à½¼à¼ µ
à¼¡à¼£ à¼¨
à½ĸ à½ĳà½Ķ
à¾Ł à½±à½¾à¼į
à¾Ł à¾²à½²à¼ĭ
à½Ļ à½ĸ
à½Ĭ à½¦
à½Ĥà½Ļ à½Ĥ
à½² à½²
ĭà¼ĭà¼ĭà¼ĭà¼ĭà¼ĭà¼ĭà¼ĭà¼ ĭà¼ĭà¼ĭà¼ĭ
à½ħà½ĳ à½ĵ
à½ı à½£
à¼¡à¼£ à¼¦
à¼¡à¼£ à¼§
à¼¡à¼£ à¼¢
à¼¡à¼¤ à¼¨
à¼¡à¼¥ à¼¦
à½ĸà½ı à½ĳ
à½Ĥà½¦ à½Ħà½¦
Ġà¼ İ
à¾±à½¼ à¼į
à½ĸà½ĳ à½ĳ
à½ºà¼įà¼į à¼į
à½ºà¼ĭ à¼İ
à¾³à¼ Ķ
à¾¨ à½±à½¿à¼ĭ
à¼¢à¼ł à¼¡à¼¡
à½¡ à½İ
à½Ķà½¢ à½¤
Ġ à½Ĳà½ĺà½¦
à½ħ à½Ĳ
à½Ĥà½Ħ à½Ĥ
Ġà¼į à¼
à½Ĥà½ħ à½¢
à½Ķ à½ķ
à¾Ĺ à½²à¼ĭ
à½Ģ à½ī
à½¢ à½ĳà½Ħ
Ġà¼įà¼ ĭ
à¾±à½²à¼ĭ à¼¼
à¼¡à¼¤ à¼¦
à½Ĥ à½Ĥà½¡
à½Ĥ à½ķ
à¼¢à¼¢ à¼¢
à½± à½ºà¼ĭ
à½Ģ à½¤
à¾³ à¾Ģà¼ĭ
à¾© à½´à¼ĭ
à¾¦ à¾±à½²à¼ĭ
à½¦ à½Ĳ
à¼¡à¼¥ à¼©
à½Ħà½¦ à½ĺ
à½Ķ à½ģ
Ġà¼ĭà¼ ĭà¼ĭà¼ĭà¼ĭà¼ĭà¼ĭà¼ĭà¼ĭà¼ĭà¼ĭà¼ĭà¼ĭà¼ĭà¼ĭà¼ĭà¼ĭà¼ĭà¼ĭà¼ĭà¼ĭà¼ĭà¼ĭà¼ĭà¼ĭà¼ĭà¼ĭà¼ĭà¼ĭà¼ĭà¼ĭà¼ĭà¼ĭà¼ĭà¼ĭà¼ĭà¼ĭà¼ĭà¼ĭà¼ĭà¼ĭà¼ĭà¼ĭà¼ĭà¼ĭà¼ĭà¼ĭà¼ĭà¼ĭà¼ĭà¼ĭà¼ĭà¼ĭà¼ĭà¼ĭà¼ĭà¼ĭà¼ĭà¼ĭà¼ĭà¼ĭà¼ĭà¼ĭà¼ĭà¼ĭà¼
à½ĵ à½ķ
à½ĳ à½£à½¦
à¾¤ à½±à¼ĭ
ĭà¼ĭà¼ĭà¼ĭà¼ĭà¼ĭà¼ĭà¼ĭà¼ĭà¼ĭà¼ĭà¼ĭà¼ ĭà¼ĭ
à¼¡à¼¤ à¼§
à¼¡à¼§ à¼¨
à¼¡à¼¥ à¼§
à½ĸà½¢ à½Ĥ
à½Ĩ à½łà½ĺ
à¼ĭà¼ ·
à½²à¼ µà¼ĭ
à½ĵ à½ĳà½Ĥ
à¾± à½ºà¼Ķ
à¼¡à¼§ à¼§
à¼¡à¼¦ à¼§
à½¦ à½Ļ
à¼£ à¼łà¼ł
à¾±à¼ĭ à¼İ
à½łà½Ľ à½Ħà½¦
à¾²à¼ ·
à½± à¾Ģà¼į
à¼łà¼łà¼ł à¼¡
à¼¡à¼© à¼¥
à¼¡à¼¨ à¼©
à½Ķà½¦ à½¢
à¼łà¼łà¼łà¼ł à¼łà¼łà¼łà¼ł
à½Ĥ à½łà½Ħ
à½Ĺ à½Ĩ
à½ĸ à½ĳà½ĺ
à½Ĺ à½ĵ
à½ĸ à½ļ
à¾· à½²à¼Ķ
à½Ĥà½ĳ à½¢
à¾Ł à½¿à¼ĭ
à½£à½¦ à½ĺ
à¾¦à¾± à½¼à¼ĭ
à¾Ľ à½±à¼ĭ
à¾± à½±à¼į
à½¦ à½łà½ĳ
à½¢ à½ļ
Ġ à¼¢à¼¨
à½ĸà½¦à½ĺ à½Ĥà½ıà½ĵ
Ġ à½Łà½ĸ
à¼¢ à¼¢à¼ł
à¾¡à¾· à½º
à½ĸà½Ģ à½ĳ
à½Ķà½¦ à½ĳ
à¼½ à¼į
à¾¤ à½ºà¼į
à¾² à½»à¼ĭ
à½ĸ à½ª
à½ĸ à½ĸà½¢
à½£ à½¤
à½Ħ à½Ĥà½¦
à½ĸà½ħ à½ĸ
à¼¡à¼© à¼¢
à½ĸ à½ĸà½ŀ
à¼¡à¼¤ à¼¡
à½ĸà½ĳà½Ĥ à½Ĥ
à½£ à½ĵà½¦
à½ĺ à½ħ
à¼¡à¼¦ à¼¢
à½ĳ à½ĳà½Ķ
à½£ à½ĳà½Ħ
à¾° à¼į
à¼ĭà¼¹ à¾Ģà¼ĭ
à¼Ħ à¼įà¼į
à¼ħ à¼į
à¼¡à¼© à¼§
à¼¡à¼©à¼© à¼©
à¼¡à¼§ à¼¢
à¾Ł à½¿à¼į
à½ĸà½ŀ à½Ĥà½¦
à¾Ĳà¾± à½¼à¼įà¼į
à½łà½ķ à½ĺ
à¼¡à¼§ à¼©
à¾Ĺ à¼
à¾Ĺà¼ ĭ
à¼¡à¼¦ à¼¤
à½£ à½ĺà½Ĩ
à½ķ à½Ĥà½¦
à½łà½Ľ à½¢
à½ĳà½Ħ à½ĸà½ħà½¦
à½£ à½£à½¦
à¾±à½²à¼ĭ à½²
à½ı à½Ģ
à¼¡à¼¦ à¼¥
à¾Ľ à½²
à¾¡à¾· à½±
à½ł à½Ħà½¦
à½£ à½ĺà½ģà½¦
à¼¡à¼© à¼£
à¼Įà¼Į à¼Į
à½ĺ à½ĸà½¢
à½ĳà½Ķ à½ĳ
à¼¡à¼£ à¼¡
à½ĸ à½ģ
à¾² à¾±à½²
à¼¡à¼© à¼¦
à¼¡à¼¦ à¼©
à½ĺà½ļà½ĵ à½ī
à¼¡à¼¦ à¼£
à¼¡à¼§ à¼¥
à½ĸà½¤ à½Ĥ
à¾·à¾±à½¼ à½¿à¼Ķ
Ġ à½ĺà½Ĳ
à½ĳà½ĸ à½Ĥ
à½Ķ à½Ĳ
à½Ħà½¦ à½Ķà½ł
à½Ħ à½ĳà½Ħ
à½Ķ à½ĸà½ŀ
à¾ł à¼į
à½¼à¼ĭ à¼Ĳ
Ġà¼ħ à¼įà¼į
à½ĸ à½ķ
à½Ķ à½ĸà½¢
à½ĳà½ĺ à½Ħ
à¼¡à¼§ à¼¡
à½łà½Ľ à½Ĥà½¦
à¼¢à¼łà¼ł à¼©
à½ĺà½Ĩ à½ĳ
à¼¢ à¼¡à¼¨
à½Ħà½¦ à½¢
à½ĸ à½ĺà½¦
à¾Ĵà¾± à½ºà¼ĭ
à¼¢à¼ł à¼¡à¼ł
à½ĸ à½łà½Ĥ
à¼¡à¼¦ à¼¦
à¼įà¼ Ħà¼ħà¼į
à¼¢à¼łà¼ł à¼ł
à½Ĥà½¦ à½ł
à½¢ à½łà½ĳ
Ġà¼ł à¼łà¼ł
à¼¡à¼© à¼¤
à½² à½²à¼ĭ
à½¢ à½ħ
à¼ĭà¼ĳ à¼ĭà¼ĳà¼ĭ
à½Ĵ à½ĳ
à¾© à¾±à½²
à¾¥ à½º
à½Ĺ à½¢
à½ĳà½Ħ à½ĵ
à¾·à¾± à½±
à¾¨ à¾±à½²à¼ĭ
à½¼à¼į à¼Ī
à½Ķà½¢ à½ĸà½¦
à½ĵ à½Ĳ
à¾¾ à¾¾
à½ı à½Ķ
à½£à½ĺ à½Ĥ
à½± à½¼
à½ĸ à½Ĥà½Ħ
à¼ĭà¼ŀ à¼į
à¼¡à¼¦ à¼¡
à½Ļ à½¦
à½ħà½ĵ à½¢
à¾¡à¾· à½¿à¼ĭ
à½£ à½Ĥà½ĵà½¦
à½Ĩ à½łà½Ħ
Ġ à½ĺà½Ĥ
à½ĸà½ĳ à½ĵ
à¼¡à¼¥ à¼£
à½ºà¼ĭ à½Īà½²
à½łà½ĳ à½£
à½¦ à½ķ
à½Ķ à½¡à½Ħ
à¾Łà½´ à¼įà¼į
à½łà½Ĳ à½ĺ
à½Ĥ à½łà½ĳ
à½Ķ à½Ĥà½Ħ
à½± à½¿à¼įà¼į
à½½ à¼įà¼į
à½¢ à½ĵà½¦
à½Ķà½¦ à½ĺ
à¼¢ à¼¡à¼¡
à¼¡à¼§ à¼¦
à½¡ à½ŀ
à½ĵ à½ĳà½ĺ
à½¢ à½Ķà½ł
à½İ à½¢
à½ĳà½Ĥ à½ħ
à½¢ à½¤
à½Ħ à½ī
à½ĳ à½¤
à¾°à½´ à¾ĥà¼Ķ
à¼ĭà¼ĳ à¼ĭà¼ĳ
à¾¤ à½²à¼ĭ
à½¦ à½ħà½ĵ
à½Ĺ à½Ļ
à¾Ĳ à¼įà¼į
à½Ĥà½¤ à½¢
à¼¢ à¼¡à¼ł
à½łà½ģ à½£
à¾· à¾£à½±
à¼ĭà¼¹ à¼
à¾Ł à¾Ńà¼ĭ
à¼ĭà¼¹à¼ ĭ
à½¾ à½¿à¼ĭ
à½Ī à¾±à½²
à¼¢ à¼¡à¼¤
à¾Ł à½±à½²à¼ĭ
à½ł à½ī
à½ºà¼ĭ à½²
à¾´ à½²à¼ĭ
à½ĵà½¦ à½ĳ
à½ĸà½¢ à½¦
à½ĸà½Ļ à½ĺà½¦
à½´à¼ĭ à¼Ĳ
à¾Ļ à½¼à¼ĭ
à½£à½¦ à½ĸ
à½Ħà½¦ à½ĵà½¦
à¼¡à¼© à¼¡
à½ĳ à½Ļ
à½Ĥà½ĵà½¦ à½¦
à½Ĥà½¡ à½£
à¾° à½´à½¾à¼ĭ
à½Ĥà½ŀà½ĵ à½¡à½Ħ
à½ĵ à½łà½Ĥ
à½±à½² à½¿à¼ĭ
à½ļ à½ĳà½ĺ
à½ł à½Ķ
à¾¨ à½²à¼į
à¾ķ à½²à¼į
à½± à½¼à¼ĭ
à½ĳà½Ĥ à½Ķà½¢
Ġ à½Ĥà½Ħà½¦
à¼¡à¼§ à¼¤
à¼ĭà½Ī à½¼
Ġ à½łà½ķ
à¾· à¾±à¼Ķ
à½ł à½Ģ
à½Ķ à½ħ
à½Į à½¢
à¾ļ à½±
à¾²à¾° à½²à¼ĭ
à¼ĭà¾¾ à¼į
à¾¡ à¾²à½²à¼ĭ
à½Ŀ à½Ģ
à¼¡à¼¨ à¼¢
ĭà¼ĭà¼ĭà¼ĭà¼ĭà¼ĭà¼ĭà¼ĭà¼ĭà¼ĭà¼ĭà¼ĭà¼ ĭà¼ĭà¼ĭ
à¼¢à¼ł à¼¦
à½ĸ à½İ
à½¤ à½ı
à½ĳà½Ĥ à½Ķ
à¼¢à¼¥ à¼ł
à½Ħ à½ħ
à¼¡à¼¥ à¼¢
à½Ĥà½ı à½Ĥà½¦
à¼¢à¼¢ à¼¥
à¼¡à¼§ à¼£
à¾ľ à½²à¼į
à½Ķ à½Ĥà½ī
à½ĸà½ĸ à½ĸ
à½¦à½ĳ à½¦
à½Ĥà½ħ à½ĺ
à¾« à½²à¼į
à¼¢à¼ł à¼¢
à¼Ģ à½Ĥ
à½§à½§ à½§à½§
à½ĸà½¦ à½Ģ
à¾Ķà¼ ĭà¼
à¼Ģ à½ĵ
à½Ķà½ł à½ĸ
à½łà½ĸ à½Ħ
à¾ŀ à½±à½²à¼ĭ
Ġ à½ļà½ĳ
à¼¢à¼ł à¼§
à¼¢à¼ł à¼©
à½¡ à½Ķ
à½¼à¼į à¼½
à¾µ à½¼à¼ĭ
à½´à¼ĭ à¼¸
à¾²à½² à½¿à¼ĭ
à½Ķ à½Ĭ
à¼ĭà¼ ĭà¼ĭà¼ĭà¼ĭà¼ĭà¼ĭà¼ĭà¼ĭà¼ĭà¼ĭà¼ĭà¼ĭà¼ĭà¼ĭà¼ĭà¼ĭà¼
à½¡ à½Ľ
à¼¢à¼ł à¼¡
à½ĳ à½ķ
à½Ķà½ł à½Ĥ
à¾Ĳ à½¼à¼į
à½Ĥà½¦ à½ĳà½Ħ
à¾·à½² à½¿à¼į
à½Ĥà½Ħ à½£
à¼¢à¼ł à¼¥
à¼ł à¼¤
à½Ķà½¢ à½ĳà½Ĥ
à¾¤ à½´à¼į
à¼¢à¼ł à¼¤
Ġ à½Ĥà½Ļà½Ħ
à¼¢à¼¢ à¼¡
à½ĵ à½¡à½Ħ
à½ĵ à½Ļ
à½ĺ à½łà½ĳ
à½²à¼ĭ à½¼
à¼¢à¼¢ à¼¤
à¾Ł à¾²
Ġ à½ħà½ĵ
à½ĳ à½Ł
à¼¢à¼łà¼ł à¼¨
à½Ĳ à½ĳà½ĳ
à½±à¼ ĭà¼Ħà¼ħà¼įà¼į
à½ĳ à½ģ
à¼ĭà¼į à¼½
à¼ĭà¼¹ à½²à¼ĭ
à½ĳà½Ħ à½ĸ
à½²à¼ µ
à½Ĥà½¦ à½Ķà½¦
à¾¨ à½»à¼ĭ
à½Ĥà½Ħ à½ŀ
à¼¢ à¼¡à¼¢
à¾£ à½ºà¼į
à¼Ģ à½¦à½¢
à¾ľ à½±à¼ĭ
à¼¢à¼¢ à¼¦
à¾¨ à½±à¼į
à½Ķ à½Ļ
à¼¡à¼¨ à¼¨
à¼¢à¼ł à¼¡à¼£
à¾Ł à¾¡à½¼
à¾¨à¾² à¾Ģà¼ĭ
à½£à½Ĥà½¦ à½¦
à½ħ à½ĺ
à¼įà¼į à¼Ħà¼ħà¼įà¼į
à¼¢à¼łà¼ł à¼¦
à¼¡à¼¨ à¼§
Ġ à½ĸà½¦à½ĺ
à½£à½¦ à½ĵ
à½Ħà½¦ à½ĵ
ĭ à½¾
à¼ ĭà½¾
à½ĺ à½ĸà½¦
à¼¢à¼¢ à¼§
à¾¦ à¾²à½¼
à¾Ĵà¾± à½´à¼Ķ
à½ĵà½¦ à½ĵ
à¼¢ à¼¡à¼¦
à¼¡à¼¨ à¼¥
ĭà¼ĭà¼ĭà¼ĭà¼ ĭ
à¼¢ à¼¡à¼§
à¾¨ à¾²à½º
à½Ķà½¢ à½Ħ
à¼¡à¼©à¼¨ à¼©
à½ĳ à½ĳà½ĺ
à¼Ģ à½ĸ
à¼ł à¼§
à¾¦ à¾·à½¼à¼ĭ
à¼¡à¼¨ à¼¤
à½ĸà½ĳà½Ĥ à½ĺ
Ġà¼ĭà¼ĭà¼ĭà¼ĭà¼ĭà¼ ĭà¼ĭ
Ġ à¼¢à¼¡
à¾Ĵ à½²à¼ĭ
à½ģ à½ģ
à½¦ à½¨
à¾·à½²à¼ĭ à¼´
à¾¨ à¾²à½²à¼ĭ
à¼ĭà¼ħ à¼įà¼į
à½¾à¼ĭà¼ ´
à¾Ĵà¾±à¼ ĭà¼Ħà¼ħà¼įà¼į
à¾± à½»à¼į
Ġ à½ĺà½ģà½ł
à¾¨ à¾±à¼ĭ
à½´à¼ĭ à½²
à½²à¼ĭ à½º
à½£ à½¡à½Ħ
à¼¡à¼¥ à¼¡
à½Ķ à½ħà½ĵ
Ġ à½ĺà½ļ
à½ĳà½Ģ à½ª
à½ĸà½Ł à½ĸà½¦
à½Ĥ à½Ŀ
à¾¦ à¾·à¼į
à¾Ł à½±à½¾à¼ĭ
à½Ĳà½ĺà½¦ à½ħ
à½Ĥ à½£à½¦
à¼ĭà¼ ĭà¼Ħà¼ħà¼įà¼į
à½² à½¿à¼įà¼į
à¾Ł à½²à¼įà¼į
à½´à¼ĭ à¼Ħà¼ħà¼į
à¾Ļ à½ºà¼į
à½ĵà½¦ à½Ħà½¦
à¼¢à¼ł à¼¡à¼¢
à¼¢à¼£ à¼ł
à½ĸ à½ĩ
à½Ĺ à½¡
à¼¢à¼ł à¼¨
à¼įà¼į à¼
à¾£ à½²
à¾Ĵ à¾·
à½£à½¦ à½£
à¾ŀ à¾ŀ
à½Ľ à½Ľ
à¾· à½¼à¼įà¼į
à¼¢à¼¢ à¼¨
à¼¢à¼ł à¼£
à½¢ à½ģ
à¼Ģ à½¦
à½ĵ à½ĸà½ł
à¼¡à¼¨ à¼¦
à¾£ à¼įà¼į
à¾» à½±à¼ĭ
à½£ à½¨
à½Ĥ à½ĸà½¢
à¾¨ à¼įà¼į
à¾ İ
à½Ĥà½£ à½ı
à¼¢ à¼¡à¼©
à½¡à½Ħ à½ĵ
à½²à¼ĭ à¼º
à½´à¼ µ
à¾ļ à½²
à½¨ à½Ľ
à½¥ à½¢
à½ĳ à½ļ
à½łà½ Ļ
à¼įà¼įà¼ ĭ
à¾· à¾£
à½±à½´ à¾Ĥ
à½Ī à½¼
à½» à½¾à¼ĭ
à½´à¼ µà¼ĭ
à¾Ń à¾°
à¼¢ à¼¡à¼¥
à½ģ à½¤
à½ĳà½ĺ à½Ĩ
à¼Ģ à½¤
à½¼à¼ĭ à¼
à½ģ à½łà½ĺ
à¼¡à¼¨ à¼£
à¼¢à¼¤ à¼ł
à¼¥ à¼łà¼ł
à¾Ł à¾²à½±à½²à¼ĭ
à¾ļ à½²à½¾à¼ĭ
à½±à½´à¾ĥ à½¿à¼ĭ
à¼¡à¼©à¼¨ à¼¥
à½ĳ à½ī
à½ĺà½¦ à½Ķ
à½Ħà½ĵ à½£à½¦
à½£ à½Ĳ
à¾°à½´ à¾ĥà¼į
à½ĸà½¢ à½ĳ
Ġ à½Ŀ
à¾±à¼ĭ à¼Ħà¼ħà¼įà¼į
à½¼à¼įà¼į à¼
à½ĺà½Ľ à½ĳà½Ķ
à½Į à½Ģ
à¾Ĳà¾± à½ºà¼Ķ
à¼¢à¼ł à¼¡à¼¥
à¼¢à¼¢ à¼©
ĭ à¾±
à¼ ĭà¾±
à½£ à½Ĥà½ī
à¼ĭà¼Ħ à¼įà¼į
à¼¡à¼¨ à¼¡
à½¨ à½¡
à½ĵà½¦ à½ĺ
à½Ĳ à½Ĳ
à¼ĭà¼ĭ à¼ĭà¼į
à¼¢ à¼¡à¼£
à½ĳà½ĸà½ł à½¦
à½¨ à½İà½ł
à½ĺ à½ĸà½Ģà½ł
à¼ł à¼¦
à½¼ à½¼
à¼ĭà¼Ŀ à¼į
à½£ à½ĺà½ļà½ĵ
à½Ĥà½¦ à½ŀ
à½ºà¼ µ
à½Ŀ à½ĺ
à½¡ à½§
à¼¡à¼©à¼© à¼ł
à½ĺà½¦ à½ĳà½Ħ
à½ħà½ĵ à½Ĥ
à¼įà¼Į à¼Įà¼Į
à½Ĺ à½ĵà½¡
à¼¡à¼©à¼¨ à¼§
à¾· à½¼à¼įà¼įà¼įà¼į
à½Ħ à½¡
à¼ĳ à¼
à¼ĳà¼ ĭ
à¼ĭà¼´ à¼į
à½Ĥà½ħ à½Ĥ
à½ĳ à½łà½ĳ
à½± à¾ĥà¼į
à½¢ à½łà½Ĥ
à¼¢à¼¢ à¼£
à¼¢à¼ł à¼¡à¼¤
à½ĸà½¢ à½Ħ
à½ĵ à½łà½ĸ
à½¡ à½Ĥà½¦
à¼įà¼ İ
à¾· à¾²à½²à¼ĭ
à½¥ à½¦
à½» à½¿à¼ĭ
à½łà½ĸ à½ĵ
à¼¡à¼© à¼¥à¼ł
à½² à½¾à¼į
à½Ĥà½ŀà½ĵ à½£
à¾Ļ à½±à¼į
à½Ĥ à½Ĥà½ī
à½Ģ à½ĸ
Ġ à½ĸà½Ł
à¾« à½ºà¼ĭ
à½ħà½ĳ à½¦
à¼¢à¼¦ à¼ł
à½ĳà½Ģ à½ĵ
à½£ à½Ķà½ł
à½¼à¼įà¼įà¼ ĭ
à½¼à¼ĭ à¼ħà¼įà¼į
à½ĺà½¦ à½ŀ
à½łà½ļà½£ à½£
à½¦ à½ĺà½Ĳ
à¾ħ à¼
à¾ħà¼ ĭ
à¾« à½±à¼ĭ
à½ĳà½Ĥà½ł à½¦
Ġ à½ĸà½Ģ
à¾£ à½¼à¼įà¼į
à½¦ à½łà½ĸ
à¼¡à¼© à¼¥à¼¨
à½¢ à½Ĩ
à½¢ à½¡à½Ħ
Ġà¼£ à¼©
à¼ĭà¼į à¼ĳ
à½ĸ à½Ĥà½ī
à½ĸ à½ĺà½Ħ
à¾Ł à¾²à¼į
à¾Ĺ à½¼à¼įà¼į
à¾Īà¾Ī à¾Īà¾Ī
à½Ħ à½ĳà½Ĥ
à½Ĵ à½«
à½ĸ à½Ĳà½ĺà½¦
à½¦ à½ĺà½Ħ
à½± à¾Ģ
à¼¢à¼łà¼ł à¼£
à½ĵ à½Ĥà½ĵà½¦
à¼£à¼ł à¼¡
Ġ à½Ĥà½ĳ
à¼¢à¼łà¼ł à¼§
à½² à½¾
à½¦ à½§
à½ĳà½ĳ à½ĳ
à½ķ à½Ĳà½Ĥ
Ġà¼Ī à¼į
à½ĳà½ĸ à½ĵ
à½ħà½ĳ à½ĳ
à¾¶ à½±à¼ĭ
à¼ł à¼¡
à½Ŀ à½ı
Ġà¼£ à¼¥
à½łà½Ĥ à½ĺ
à½Ĩ à½Ĩ
à½ĺ à½£à½¦
à¼ Ļ
à¾Łà¼ ·
à½Ļ à½ĳ
à½¼à¼į à¼¼
à½ĺ à½Ĥà½¦
à¾¦à¾· à½ºà¼į
à½Ļ à½ı
à¼¤ à¼łà¼ł
à¾³à¼ ĭà¼
à½Ĵ à½¦
à¼¢à¼¦ à¼¢
à½ĵà½Ł à½«
à¼¢à¼łà¼ł à¼¢
à½Ħ à½ķ
à½¼à¼ µà¼ĭ
Ġ à½²à¼ĭ
à¾µ à½¿à¼ĭ
à¼¢à¼£ à¼¥
à¼¡à¼©à¼¨ à¼ł
à½Ĥ à½¢à½ĸ
à½īà½ĵ à½Ĳ
à¼¢à¼£ à¼¤
à½Ħ à½Ĳ
à½Ĥà½ī à½Ĥ
à½²à¼ĭ à¼Ħà¼ħ
à½ºà¼ĭ à¼Ħà¼ħà¼į
à¾Ĳà¾² à¼į
à¼¢à¼§ à¼§
à½¢ à½łà½ĺ
à¼¢à¼łà¼ł à¼¥
à½ĵà½¦ à½£
à¾Ĵà¾±à¼ ĭà¼
à¼¢à¼¦ à¼©
à¼¢à¼¦ à¼§
à¼¢à¼¤ à¼¥
à½¦ à½Ĳà½ĺà½¦
à½¦ à½ĳà½Ĥ
Ġ à½Ķà½ĳ
Ġà¼¥ à¼ł
à½¼à¼ĭ à½ºà¼ĭ
à½ĸà½Ĥ à½Ĥà½¦
à¾Ľ à½¿à¼ĭ
à¼¢à¼¥ à¼¤
à½İ à½ĺ
à¼ĭà½µ à¾ĥà¼į
à¼¢à¼£ à¼§
à¼¢à¼¦ à¼¦
à½łà½ĳ à½ĺà½¦
à½ĳà½Ĥ à½ĺ
à½ĵ à½¨
à¼¢à¼¦ à¼¥
Ġ à½ĳà½Ĥà½ł
à¼¡à¼©à¼© à¼¢
à½ĩ à½ĺ
à¼¢à¼£ à¼¨
à½ĸà½¢ à½Ĥà½¦
à¾ļ à½²à¼į
à½ĩ à½¢
Ġà¼£ à¼¦
à¼¢à¼£ à¼¦
ĭ à½´à¼ĭ
à¼ ĭà½´à¼ĭ
à½Ĥà½ŀà½ĵ à½ĺ
à¼¢à¼¥ à¼¦
à¼¢à¼§ à¼¥
à¾ķ à½ºà¼įà¼į
Ġ à½ĵà½ĺ
à½ļ à½ĺà½¦
à¾· à½¿à¼ĭ
à¾± à½±à½¾à¼į
à¾Ķà¼ ĭà¼Ħà¼ħà¼įà¼į
à¼¢à¼¤ à¼¦
à¾¨ à½ºà¼į
à¼¢à¼¥ à¼§
à½Ģ à½Ļ
à¼¢à¼¤ à¼§
Ġ à½ĺà½ģà½¦
à¼¢à¼¦ à¼¤
à¾µ à¼Ķ
à½ ľ
à½Ĥà½ŀà½ĵ à½Ĥ
Ġ à½łà½Ľ
à½Ĳ à½ļ
à¼¡à¼©à¼¨ à¼¨
à½Ħà½¦ à½Ģ
à¼¢à¼¤ à¼¢
à½ģ à½Ĭ
à¼ĭà¼ĭà¼ĭà¼ĭà¼ĭà¼ ĭ
à¼¢à¼§ à¼©
à½£ à½ĺà½¦
à¾¤à¾±à½² à¼įà¼į
à¼¢à¼¤ à¼¨
à½ħà½ĵ à½ĵ
à½Ĥà½ŀà½ĵ à½ĵ
à½ĵ à½ĺà½Ħ
à½¤ à½ĺà½¦
à¼¢à¼¤ à¼¤
à½Ł à½ĩ
ĭà¼ĭà¼ĭà¼ĭà¼ ĭà¼ĭà¼ĭà¼ĭ
à¼¢à¼§ à¼¢
Ġ à½ģà½ĺà½¦
Ġ à½ĳà½Ģà½¢
à½ĺ à½Ĥà½ı
Ġà¼£ à¼§
à½ĺà½ļ à½ĺ
à¼¢à¼§ à¼ł
à¼¢à¼¥ à¼¥
à¾Ĳà¾±à½¼ à¼į
à¼¢à¼£ à¼©
à¼¡à¼ł à¼łà¼ł
à½ĵ à½Ĥà½ī
à½Ķ à½Ł
à½Ĥà½¦ à½Ĩ
à¼¢à¼¥ à¼¢
à¼¡à¼©à¼© à¼¡
à½ĸà½ł à½ĸ
à½Ķ à½ĺà½Ħ
à½Ĺ à½ı
à¼¢à¼łà¼ł à¼¤
à¾¦ à¼įà¼į
à½²à¼ĭ à½²à¼ĭ
à¼¢à¼© à¼ł
à½ħà½ĵ à½ĺ
à¼¢à¼¦ à¼¡
à½¾à¼ĭà¼ ½
à½£ à½ĳà½Ĥ
à¼ĭà¼ Ħà¼ĭ
à½¦ à½ĺà½Ĩ
à¼įà¼ĭà¼ĭà¼ĭà¼ĭà¼ĭà¼ĭà¼ĭà¼ĭà¼ĭà¼ĭà¼ĭà¼ĭà¼ĭà¼ĭà¼ĭà¼ĭà¼ĭà¼ĭà¼ĭà¼ĭà¼ĭà¼ĭà¼ĭà¼ĭà¼ĭà¼ĭà¼ĭà¼ĭà¼ĭà¼ĭà¼ĭà¼ĭà¼ĭà¼ ĭà¼ĭà¼ĭà¼ĭà¼ĭà¼ĭà¼ĭà¼ĭà¼ĭà¼ĭà¼ĭà¼ĭà¼ĭà¼ĭà¼ĭà¼ĭà¼
à½´ à½¾
à½Ħà½¦ à½ı
à½Ĥà½ı à½ĸ
Ġ à½ĸà½¤à½ĳ
à¼¢à¼¤ à¼©
à½ĵ à½ĺà½ģ
à¼¢à¼¨ à¼ł
à¼ĭà¼Ħà¼ħ à¼ħà¼įà¼į
à½Ĳ à½ķà½Ħ
à½Ĥ à½łà½ļà½£
à½ĵ à½ĸà½ŀ
à½Ĥà½¡ à½ĸà½¦
à¾Ł à½¼à¼įà¼į
à½²à¼ĭ à¾¾
à¾±à¼· à½²à¼ĭ
à¼¢à¼§ à¼¨
à½Ĥà½Ł à½Ĥà½¦
à½ĵ à½ĺà½ĳ
à¼¡à¼©à¼© à¼¦
Ġà¼£ à¼¨
à¼¢à¼§ à¼¦
à¾¨ à½»
à¼ĭà¼ ı
à½´à¼įà¼į à¼į
à¼¡à¼©à¼¨ à¼¦
à¼¡à¼© à¼¦à¼ł
à¾ļ à½¾à¼ĭ
à¾¡ à¾·à½´
à¼ĭà½Ī à½±à½²
ĠĠĠĠĠĠĠĠ ĠĠĠĠĠĠĠĠ
à½Ĺ à½ļ
à½Ķ à½ĳà½ĺ
à½ĵ à½Ĥà½Ħ
à¼¢à¼¥ à¼¨
à¾Ľ à½±
à½£ à½Ĥà½ĵ
à½Ħ à½łà½ĺ
Ġ à½ĸà½Ĥ
à½ĺ à½ķ
ĭ à¿
à¼ ĭà¿
à½Ħ à½Ķà½ł
Ġà¼¤ à¼ł
à½łà½Ĥ à½Ħ
à½¦ à½ĸà½ħ
à½Ħà½¦ à½£
à½ĺà½ĵ à½ĸ
à½ħ à½ĵà½¦
à½¦ à½Ľ
à½łà½ļ à½ĳ
à¼¢à¼§ à¼¤
à¼¢à¼¥ à¼©
à½ļ à½ļ
à¾² à½¿à¼į
à½Ĥà½ŀ à½ĳ
à¼¡à¼©à¼© à¼§
à½¦ à½łà½Ħ
à½¼à¼ĭ à½²
à½¢ à½ķ
à¾Ń à½±à½²à¼ĭ
à½ĩ à½£
à¼¡à¼©à¼© à¼¥
à¾²à½±à½² à½¿à¼į
à½ĳ à½Ĳ
à¼¢à¼¦ à¼£
à¼¢à¼© à¼©
à½Ĺ à½£
Ġ à½Ľ
à½ĳà½Ķ à½ĵ
à¼¢à¼£ à¼£
à½Ķà½¦ à½£
à¼¢à¼© à¼§
à½Ĥà½¦ à½ı
à½¢ à½ĸà½ŀ
à½ĺ à½ª
à½ĸ à½ĳà½ĸ
à½¾à¼ ĭà¼Ħà¼ħà¼įà¼į
à½¡ à½ķ
à¼łà¼ł à¼łà¼łà¼ł
à¼Įà¼Įà¼Įà¼Įà¼Įà¼Įà¼Įà¼Įà¼Įà¼Įà¼Įà¼Įà¼Įà¼Įà¼Įà¼Į à¼Įà¼Įà¼Įà¼Įà¼Įà¼Įà¼Įà¼Įà¼Įà¼Įà¼Įà¼Įà¼Įà¼Įà¼Įà¼Į
à½Ħ à½ı
à½ĺ à½Ļ
à¼¢à¼¨ à¼¢
à¼¢à¼łà¼ł à¼¡
à½ĵ à½ĺà½Ĳ
à¼¢à¼¦ à¼¨
à¼¢à¼£ à¼¢
Ġ à½ħà½ĳ
à½Ķà½¢ à½£
à¾°à½´ à¾ĥà¼ĭ
à½Ĳà½ĺà½¦à½ħà½ĳ à½Ģ
à¾¥ à½²à¼ĭ
à¼¡à¼©à¼© à¼£
à¾²à¼ĭ à¼ĳ
à½ĳà½Ĥ à½ŀ
Ħà¼ Ħà¼ħà¼įà¼į
à¼ĭà¼Ħà¼ħà¼įà¼į à¼į
à¼ĭà¾¢ à½²à¼ĭ
Ġ à½ĳà½Ķà½ł
à½Ĥà½¦ à½¤
à¾µ à½²à¼į
Ġà¼£ à¼¤
à¼ł à¼¥
à½Ķ à½Ļà½ĺ
à½£à½ĵ à½Ĥà½¦
à¾ŀ à½´à¼ĭ
à½Ľ à½Ģ
à½ĳ à½Ĥà½¦à½£
à¾³ à½±à½²à¼ĭ
à½ºà¼ µà¼ĭ
à½£à½ĺ à½ĳ
à¼ĭà¼ħ à¼į
à½ĸ à½ĺà½Ĩ
à¼¢à¼¤ à¼£
à½¦ à½Ĥà½ī
à¼¢à¼© à¼¥
à¼¢à¼© à¼¦
à½ŀ à½ĸ
à¼¢à¼¤ à¼¡
à¼¢à¼¨ à¼§
à½Ĺ à½ĳ
à¾Ńà½± à¾ĥà¼ĭ
Ġà¼įà¼į à¼į
à½Ħ à½ĩ
à¼¢à¼© à¼¤
à¼¢à¼£ à¼¡
à¼¢à¼§ à¼¡
à¾· à¾²à½²
à¼¢à¼© à¼¢
à½´ à½´à¼ĭ
à¼Ģ à½¢
à¾² à½±à½´à¼ĭ
à½£ à½łà½ĩ
à½ĵà½¦ à½ĸ
à½ĸà½¢ à½¢
à¼Ģ à½ĳ
Ġà¼£ à¼¡
à½ºà¼ĭ à¼Ī
à¼¢à¼© à¼¨
à¼ĭà¼½ à¼į
à¼¢à¼¨ à¼¥
à¼įà¼į à¼Ī
à¾± à½²à¼·à¼ĭ
à½£à½ĺ à½ĵ
à¼¢à¼¥ à¼£
ĭ à½ºà¼į
à½ĳà½Ĥ à½ĳ
à¼ ĭà½ºà¼į
Ġà¼ĭà¼ĭà¼ĭà¼ĭà¼ĭà¼ ĭà¼ĭà¼ĭà¼ĭ
à¾· à½¾
à¼ł à¼©
à½ħà½ĵ à½Ĳà½ĺà½¦
à¼¢à¼ł à¼¡à¼¦
à½¡à½Ħ à½¢
à¾± à½±à½¾à¼ĭ
à½ĵ à½¢à½Ħ
à¾Łà½´ à¼įà¼įà¼įà¼į
à¼¢à¼§ à¼£
à½Ķ à½ĩ
à¼įà¼ Ħ
à½ł à½ŀ
à½Ł à½łà½ĺ
à¼Ŀ à¼Ŀ
à¼¡à¼© à¼§à¼©
à½Ĥ à½łà½ĸ
à½Ģ à½¥
à¾±à¼ ·à¼ĭ
à¼¡à¼© à¼¥à¼¡
à¾²à½´ à¾ĥà¼ĭ
à½ĳ à½ĳà½ĸ
à¾Ĳ à½±
à½ĺ à½łà½Ĥ
à¾²à½º à½¾à¼ĭ
à¼ĭà½Ī à½²à¼ĭ
à¼¢à¼¨ à¼¤
à¾· à½¾à¼įà¼į
à½« à½¥
Ġà¼£ à¼£
à½Ĥ à½¨
à½ĸà½ĳà½Ĥ à½ħà½Ĥ
à¾³à¼ ĭà¼Ħà¼ħà¼įà¼į
à¼¢à¼¥ à¼¡
à½Į à½£
à¼¢à¼¨ à¼©
à½Ħ à½ĺà½¦
Ġ à½Ĥà½¦à½£
ģ à¾ĥà¼Ķ
à¼¢à¼¨ à¼¨
à¾µ à¾¨
à¼¢à¼¨ à¼¦
à½¦ à½£à½¦
à½¼à¼ĭ à½Īà½²
à½Ł à½ļ
à¼ĭà¼ ĭà¼ĭà¼ĭà¼ĭà¼ĭà¼ĭà¼ĭà¼ĭà¼ĭà¼ĭà¼ĭà¼ĭà¼ĭà¼ĭà¼ĭà¼ĭà¼ĭà¼ĭà¼ĭà¼ĭà¼ĭà¼ĭà¼ĭà¼ĭà¼ĭà¼ĭà¼ĭà¼ĭà¼ĭà¼ĭà¼ĭà¼ĭà¼
à¾²à½± à¾ĥà¼ĭ
à¾² à¾±à½²à¼ĭ
à¼¡à¼©à¼© à¼¨
à¾¡ à¼Ķ
à½£ à½Ļ
à¼ĭà½Ī à½ºà¼ĭ
Ġ à½¡à½ĵ
à¼µ à¼į
à½´à¼ĭ à¼Ī
à½Ĥà½ŀà½ĵ à½ĳ
Ġ à½Ĥà½ĵ
à½ĳà½Ĥ à½Ģ
à¼ĭà¼įà¼į à¼įà¼į
à¼¡à¼©à¼© à¼¤
à¼¡à¼©à¼¨ à¼¢
à½¢ à½Ĳ
à¼ł à¼£
à¾± à½¾
à½±à½² à½¾à¼ĭ
Ġ à½Ĥà½Ļ
à¼¢à¼¨ à¼¡
à½Ŀ à½ĳ
à¾² à¾³
à½łà½Ĥà½ł à½ŀ
à½¦ à½ĺà½ĵ
à¼£à¼ł à¼§
à½ĸà½¤à½ĳ à½ĳ
à¾²à½¼ à½¾à¼ĭ
à½£à½¦ à½ĳà½Ħ
à¾± à¾Ń
à¼¡à¼©à¼¨ à¼¤
à½º à½ºà¼į
à½Ĵ à½ĵà½Ł
à¼ł à¼¨
à¼ĭà¾ ĵ
à½¢à½Ħà½¦ à½Ħà½¦
à¼Ģ à½Ķ
à½Ķà½¢ à½łà½ĩ
à¾ļ à½ºà¼ĭ
Ġà¼£ à¼¢
à¼į à¼ĳ
Ġà¼įà¼į à¼įà¼į
à½Ģ à½Ĭ
à½± à½¿à¼Ķ
à¾Ł à¾±à½ºà¼į
à½ĳà½ĸ à½ħ
à½Ĳà½ĺà½¦ à½ħà½ĳà½ĺà½ģ
à½´à¼įà¼į à¼įà¼į
à¾²à½±à½² à½¿à¼Ķ
à½¼à¼ĭ à¼Ħà¼ħà¼į
à½£à½¦ à½ĳ
à½Ĥ à½Ķà½¦
ĭ à¾±à½²à¼ĭ
à¼ ĭà¾±à½²à¼ĭ
à¼¢à¼© à¼¡
à¼¡à¼©à¼¨ à¼£
à¾µ à½´
à½²à¼ĭ à¼
Ġà¼ ´
à¼£à¼ł à¼£
à¾Ĵ à¾²à½´à¼ĭ
à¾Ĵ à¾²à¼Ķ
à¾Ĵ à½²
à¾±à½ºà¼ĭ à¼ĳ
à½ĺà½ĳ à½ĳ
à¾Ģ à¼įà¼į
à¼Ģ à½Ľ
à¾ŀ à½¾à¼ĭ
Ġ à½ĺà½ģ
à¼ĭà¼Ħ à¼į
à½ĺà½ļ à½ĳ
à½¦à½¢à½ĸ à½Ģ
Ġ à½łà½Ĩ
à¾Ļ à½²à¼į
à½£ à½ĺà½Ĳ
à½ĳ à½¨
à½Ĺ à½Ĳ
à½¥ à½ı
à¼łà¼łà¼ł à¼¢
à½¦ à½ħ
à¼ĭà¼į à¼ĭà¼ĭ
à¼ĭà¼į à¼¼
à½Ķà½ĳà½Ħ à½Ķ
à½¦ à½İ
à½¥ à½ĵ
à½´à¼ĭ à¼İ
à½ĵà½Ħ à½Ĥ
à½ĳà½Ķà½ł à½¢
à½ĸà½ĳ à½Ĥà½¦
à¼£à¼ł à¼¤
à½łà½ ¨
à¾¦ à¾²à½´à¼ĭ
à¾Ĺ à½´
ĭà¼ Į
à½ĵ à½ĳà½ĸ
Ġ à½ĺà½ĵ
à¾² à½±à½´à½¾à¼ĭ
Ġà¼ĭà¼ ĭà¼ĭà¼ĭà¼ĭà¼ĭà¼ĭà¼ĭà¼ĭà¼ĭà¼ĭà¼ĭ
à½±à½´ à½¾à¼ĭà¼ĳ
à¼£à¼¦ à¼ł
à¾Ł à¾²à½ºà¼į
à½ĸà½ħà½¦ à½Ķ
à¾µ à½²à½¾à¼ĭ
à½ģ à½Ģ
à½Ķà½ł à½ķ
à½ºà¼ĭ à¼¸
à½ł à½Ł
à¾Ĳà¾² à¾Ģ
à¾²à½± à¾Ģ
à½¢ à½ĳà½Ĥ
à¼ĭà½Ī à¾¤à¾±à½²
à½ł à½ħ
Ġà¼ĭà¼ĭà¼ĭà¼ĭà¼ĭà¼ĭà¼ĭà¼ĭà¼ĭà¼ĭà¼ĭà¼ĭà¼ĭà¼ĭà¼ĭà¼ĭà¼ĭà¼ĭà¼ĭà¼ĭà¼ĭà¼ĭà¼ĭà¼ĭà¼ĭà¼ĭà¼ĭà¼ĭà¼ĭà¼ĭà¼ĭà¼ĭà¼ĭà¼ ĭà¼ĭà¼ĭà¼ĭà¼ĭà¼ĭà¼ĭà¼ĭà¼ĭà¼ĭà¼ĭà¼ĭà¼ĭà¼ĭà¼ĭà¼ĭà¼
à¾±à¼įà¼į à¼į
Ġ à½īà½ĺà½¦
à¼£à¼ł à¼©
à½ģ à½ĸà½¦
à½Ķà½¢ à½ĵ
à¾°à½´ à¾ĥ
à½ħà½ĵ à½ĳ
à½ģ à½Ħà½¦
à½Ħ à½łà½ĳ
à¾Ĳà¾± à¼įà¼į
à¼¡à¼© à¼¥à¼¦
à¾ł à½²
à¼£à¼ł à¼¨
à¾·à½² à½¿à¼ĭ
à½¤ à½łà½ĺ
à½Ĥà½ĵà½¦ à½Ķ
à¾« à¾Ļà½±à¼ĭ
à½£à½¦ à½łà½ĳà½¦
à¾¡ à½´à¼Ķ
à½¦ à½Ĥà½ŀ
Ġ à½łà½ĳà½¦
à¾¤ à¾±à¼ĭ
Ġ à½Ĳà½ĸà½¦
à¼ĭà½Ī à¾²à½º
à½łà½ «
à½Ķ à½ĺà½Ĳ
à½ĵ à½ĸà½ħ
à½Ĵ à½İ
à¼£ à¼¢à¼ł
à½ĳà½Ķà½ł à½ĺ
à¾Ń à½º
à½¨ à½Ŀ
à¼£à¼¥ à¼ł
à¼£à¼ł à¼¦
à½£à½ĺ à½¢
à½ĸ à½Ĭ
Ġà¼ĳ à¼
Ġà¼ĳà¼ ĭ
à¾· à½²à¼įà¼į
à¼¢à¼© à¼£
à¾£ à½¾à¼į
à½Ķ à½¨
à½Ķà½¦ à½ĸ
à¼£à¼¤ à¼¥
à½§ à½ı
à½Ķà½ł à½ĩ
à¾Ĺà½¼ à¼į
à¾ļ à½ºà¼į
à½ĵà½Ķ à½£
à¾±à½º à½º
à½£ à½¢à½Ħ
à½Ķà½ł à½ļ
à¼ĭà¼Ħà¼ħ à¼Ķ
à¾£ à½¾à¼ĭ
à¾¦ à¾±à¼ĭ
à¼£ à¼¡à¼¡
à½Ĵ à½ı
à½Ĥ à½ĺà½ł
à½ĸ à½¨
à¼£ à¼¡à¼ł
à½£ à½łà½Ĥ
à¼£ à¼¡à¼£
à½²à¼į à¼ĭà¼ĭà¼ĭà¼ĭà¼ĭ
à¼£ à¼¢à¼¢
Ġà¼ł à¼ł
à½¥ à½İ
à¾µ à½´à¼į
à½Ķ à½Ķà½ł
à½£ à½ħ
à½Ħà½¦ à½ĳ
à¾© à¾Ńà¼į
à½Ľ à½ŀ
à½ķ à½ı
à¾Łà½ºà¼ĭ à¼İ
à¼ĭà¼į à¼Į
Ġà¼ĭà¼ Į
à¼Ħ à¼į
à½ĥ à½¦
à½ĺ à½ĺà½¦
à¼¦ à¼łà¼ł
à½± à¼įà¼įà¼įà¼į
à¾³ à½ºà¼į
à½¡ à½ī
à½Ķà½¢ à½ĳ
à½ĸà½¤à½ĳ à½Ķà½ł
à¼įà¼ĭà¼ ĭà¼ĭà¼ĭ
à¾£à¼ ·
à½Ģ à½Į
à¾±à½²à¼į à¼
à½ģ à½Ł
Ġ à½Ħà½Ĥ
à½Ľ à½£
à¼ĭà¼½ à¼
à½łà½ĳ à½ĳ
à½¡ à½ģ
à¾¦ à¾¦
à¾±à¼į à¼
à¾±à½²à¼įà¼ ĭ
à½ĳà½Ħ à½ĳ
à¼£ à¼¡à¼¢
à½ĺ à½ĸà½ŀ
à½¨ à½¤
à¾±à¼įà¼ ĭ
à½Ħ à½ļ
à¾Ĳ à½¼à¼įà¼į
à¾ł à½±
à¼¡à¼© à¼¤à¼©
à¼ĭà¼¼ à¼½
à½ĳà½Ĥ à½¡
à½Ķ à½Ľ
à¾Ńà½± à½¾à¼į
à½¢ à½Ķà½¦
à½ĺà½ļ à½Ħà½¦
à¾Ĵ à¾±à½²à¼ĭ
à½ĸ à½¡à½Ħ
à¼ł à¼¢
à½Ķà½¢ à½łà½ĳ
à½Ģ à½Ĩ
à½ķ à½Ĳ
à½¢ à½ĸà½ĳ
à¾¨ à¾±à½ºà¼ĭ
à½£ à½Ł
à½ĸà½ı à½Ħà½¦
à½ĸà½Ĥ à½Ĥ
à½ħà½ĳ à½ĳà½Ħ
à¼ĭà¼½à¼ ĭ
à½Ĵ à½ĵà½¡
à½£ à½§
à½ĸà½¦ à½ĵà½¦
à¾Ł à¾Łà¼ĭ
à¼ĭà¼Ŀ à¼įà¼į
à½ĺ à½Ĥà½ī
à¾² à½¾
à¼ĭà¼½ à¼įà¼į
à½Ĵ à½¡
à½¼ à¾ĥ
à½Łà½ĸ à½ĺ
à½ĵ à½Ĳà½ĺà½¦
à½ł à½łà½ĳ
à½ĵà½¦ à½ŀ
à½Ĥà½¦ à½Ĥà½¦
à¼£ à¼¡à¼¤
à½¡ à½¤
à½ĸà½¦à½ĺ à½Ĥ
à¾Łà¼ĭ à¼Ħà¼ħà¼įà¼į
à½Ĥà½Ħ à½¡
à¼£à¼¥ à¼§
à½¼à¼ĭ à¼¸
à¾±à¼· à½º
à½« à½Ĳ
à¼ĭà½¼à¼ĭ à½ºà¼ĭ
à¾²à¼ ·à¼ĭ
Ġ à½ĺà½Ľ
à½ĵ à½ĺà½Ĥ
à¾¨ à½¿à¼ĭ
à½Ķ à½Ķà½¢
à½Ĥà½¦ à½ĸà½¢
à½ĭ à½Ģ
à¼£à¼¦ à¼¥
à½Ĳ à½ĺà½£
à¼Ķ à¼į
Ġà¼į à¼Ī
à½ĺà½Ĳà½ł à½ĺ
à½¦ à½ĩ
à¼£ à¼¡à¼§
à¼Ģ à½Ģ
à¼ĭà½µ à½¾à¼į
à½Ķ à½§
à¾º à½±à¼ĭ
à½ģà½ĺà½¦ à½Ĥà½¦
à½Ĥà½ī à½¦
à½¼ à½¿à¼Ķ
à¾¡ à¾·à¼Ķ
à½ĵ à½ĸà½ĳ
à¼¢à¼¨ à¼£
à½Ĥ à½ĺà½¢
à¼įà¼Ħà¼ħ à¼ħà¼įà¼į
Ġ à½ŀà½£
Ġà¼§ à¼ł
à½ķ à½Ľ
à½ĵ à½ĺà½ł
à¼łà¼łà¼ł à¼¤
à½ĳà½ĸà½Ħ à½Ķ
à¾© à½¾à¼ĭ
à¼£à¼ł à¼¥
à¾· à¾²à½´à½¾à¼ĭ
à½²à¼ĭà¼ĳ à¼į
à½ĵ à½Ķà½ĳ
à¾¤ à½¼à¼į
à¾±à¼ µ
à½Ĳ à½Ħà½¦
à½ĵ à½ĸà½ĳà½Ĥ
à½¦ à½¢à½Ħ
à½Ĵ à½ł
Ġ à½ºà¼ĭ
à½ħ à½ĳà½ĸ
à¼łà¼łà¼ł à¼£
à½¼à¼ĭà¼ ı
à¼Ķ à¼Ķ
à¼ŀ à¼ŀ
à½½ à½¾à¼ĭ
à¼£à¼£ à¼¡
à½ĳà½Ħ à½Ĥ
ĭ à¾±à½²
à¼ ĭà¾±à½²
à½ĺ à½¨
à½Ĭ à½£
à¼ĭà¼Į à¼İ
à¼ĭà¼½ à¼Ħà¼ħà¼įà¼į
à½ĳà½Ģà½¢ à½Ķ
à¾ĳ à¼
à¾ĳà¼ ĭ
à½Ģ à½Ķ
à½Ĺà½ļ à½Ĳ
à¼£ à¼¡à¼¥
à½¥ à½ī
à½Ĥà½¦ à½ļ
à½ĵ à½£à½ĺ
à½¡à½Ħ à½ĳ
Ġ à½ĺà½Ĳà½ł
à½ĵà½¦ à½Ģ
à¾Ľ à½¿à¼į
à¾Ń à½ºà¼į
à¼ł à¼¡à¼ł
à½Ģ à½Ĳ
à¼£ à¼¡à¼©
à¾¤à¾² à¾Ģà¼ĭ
à¼£à¼£ à¼¥
à¼£à¼¥ à¼¥
à½ı à½İ
à½ĵà½¦ à½ļ
à¼£à¼¥ à¼¦
Ġ à½¦à½¢
à¾¡ à½²à¼į
Ġ à½Ķà½İ
à¾Łà¼ĭ à½²
à½£à½ĺ à½£
Ġà¼ĭà¼ ĭà¼ĭà¼ĭà¼ĭà¼ĭà¼ĭà¼ĭà¼ĭà¼ĭà¼ĭà¼ĭà¼ĭà¼ĭà¼ĭ
à¼£à¼¤ à¼§
à½łà½ķ à½£
à¼£ à¼¡à¼¦
à½¢ à½§
à¾£ à¾²à½º
à¼£ à¼¢à¼£
à½Ĩ à½ĳà½Ħ
à¼£à¼¦ à¼§
à½£à½¦ à½Ĥ
à½ĺà½Ĳ à½Ĥ
à¼£à¼£ à¼¤
à½ĸà½Ļ à½Ħ
à½Ķ à½ĸà½ħ
à½Ķ à½Ķà½¦
à½ĺà½ģà½ł à½£
à¼£ à¼¢à¼§
à¾£ à¾²à½´
à½ĵ à½ĳà½Ĥà½ł
à½¦ à½Ĥà½Ħ
à¾² à½ºà¼Ķ
à¾³ à½±à¾Ģà¼ĭ
à¼£à¼¤ à¼¤
à¾ľ à½±
Ġ à½ĺà½ģà½ĵ
à¾µ à¾±à¼ĭ
à¼ĭà¼ĭà¼ĭ à¼ĭà¼į
à½Ĥà½ĳ à½ĸà½¦
à¼£à¼£ à¼£
à¼£à¼¤ à¼ł
à½¡ à½¡
à¼¡à¼©à¼¨ à¼¡
à½ħ à½ĳà½Ĥ
à½¦ à½ĸà½ŀ
à¾²à¼ĭ à¼´
Ġ à½ĺà½Ľà½ĳ
à½Ĥà½¦ à½ħà½ĵ
à¼£ à¼¢à¼¥
à½¦ à½łà½Ĥ
à¾± à¾²à½ºà¼ĭ
à¾Ķ à½ºà¼ĭ
à¼£à¼ł à¼¢
à½ĳà½ĸ à½Ħà½¦
à½¨ à½ŀ
à¼£à¼¦ à¼¡
à¾² à¾«à½´
à¼£à¼¦ à¼©
à¼ĭà¼ĭà¼ĭà¼ Ħà¼ħà¼įà¼į
à½²à¼įà¼į à¼įà¼į
à½¦à½ĺ à½¡
à½Ĥà½ĵà½¦ à½ĵ
à¼£à¼§ à¼§
à¾ľ à½´à¼ĭ
à½ºà¼ĭ à½º
Ġ à½ĸà½Ľ
à½£à½ĵ à½ĵ
ĭ à½±à¼ĭ
à¼ ĭà½±à¼ĭ
à½ĺà½Ľà½ĳ à½ĳ
à½¼à¼ĭ à¾¾
à¼£ à¼¡à¼¨
à¼£ à¼¢à¼¦
à¾© à½±
à½¦ à½¦à½ĺ
à¾±à½²à¼ĭ à½Ī
à½ĸà½ł à½ģ
à¾±à½» à¼Ķ
à½ĺ à½Ķà½¦
à½¼à¼ĭ à¼įà¼į
à½ħà½ĵ à½£
à½Ķà½¢ à½ŀ
à½±à¼ĭ à½²
à¼ĭà¼į à¼Ī
à¼£à¼¤ à¼©
à½Ĥà½Ħ à½ĵ
à½¢ à½Ľ
à½ĺ à½Ĭ
à½« à½Ĥ
à½ĸà½ŀ à½ł
à½Ķà½ł à½Ľ
à½ĸà½ı à½ĵ
à½ĸà½Ĥ à½Ĩà½Ĥà½¦
à½ĺà½¦ à½ĵà½¦
Ġà¼¤ à¼¥
à½ĺ à½ĳà½ĺ
à¼£à¼£ à¼¦
à¼¤à¼¥ à¼¥
à½ĸà½¦ à½Ķ
à¾²à¼ĭ à¼½
à½ĸ à½ĸà½ł
à½¦ à½ĺà½ļ
à¾¨ à¾¨à½±à¼ĭ
à½¥ à½¥
à¼£à¼£ à¼©
à½ĸ à½ĸà½ĳ
à¾Ĳ à¾²à½´à¼ĭ
à¾· à¾²à½¾à¼ĭ
à½ĺà½¦ à½ĸà½¦
à¾¦ à½±
à½ķ à½Ģ
à¾¤à¾± à½¼à¼įà¼į
à¼įà¼ĭà¼ĭà¼ĭà¼ĭà¼ĭà¼ĭà¼ĭà¼ĭà¼ĭà¼ĭà¼ĭà¼ĭà¼ĭà¼ĭà¼ĭà¼ĭà¼ĭà¼ĭà¼ĭà¼ĭà¼ĭà¼ĭà¼ĭà¼ĭà¼ĭà¼ĭà¼ĭà¼ĭà¼ĭà¼ĭà¼ĭà¼ĭà¼ĭà¼ĭà¼ĭà¼ĭà¼ĭà¼ĭà¼ĭà¼ĭà¼ĭà¼ĭà¼ĭà¼ĭà¼ĭà¼ĭà¼ĭà¼ĭà¼ĭà¼ĭà¼ĭà¼ĭà¼ĭà¼ĭà¼ĭà¼ĭà¼ĭà¼ĭà¼ĭà¼ĭà¼ĭà¼ĭà¼ĭà¼ĭà¼ĭà¼ ĭà¼ĭà¼ĭà¼ĭà¼ĭà¼ĭà¼ĭà¼ĭà¼ĭà¼ĭà¼ĭà¼ĭà¼ĭà¼ĭà¼ĭà¼ĭà¼ĭà¼ĭà¼ĭà¼ĭà¼ĭà¼ĭà¼ĭà¼ĭà¼ĭà¼ĭà¼ĭà¼ĭà¼ĭà¼ĭà¼ĭà¼ĭà¼
à½¼à¼· à¼įà¼į
à¼£ à¼¢à¼¤
Ġ à½ĺà½īà½ĺ
à½Ľ à½¡
à½±à½´à¾Ĥ à¼į
à½Ĥà½¡ à½Ħà½¦
à½łà½ģ à½ĵ
à¼£à¼£ à¼§
à¼£à¼¦ à¼¤
à½¦ à½ĸà½Ģà½ł
à¾Ĵ à¾²à½²à¼ĭ
à½łà½ĩ à½ĺà½¦
à½¼ à½¾à¼įà¼į
à¼£à¼¥ à¼©
à½Ĩ à½ĺà½¦
à¾µ à½¾à¼ĭ
à¾Ļ à½´à¼ĭ
à¼£à¼¥ à¼¤
Ġ à½£à½Ĥ
à¼ĭà¼ ·à¼ĭ
à½ĸ à½ĺà½Ĳ
à½ĳ à½łà½Ĥ
Ġà¼ĭà¼ĭà¼ĭà¼ĭà¼ĭà¼ĭà¼ĭà¼ĭà¼ĭà¼ĭà¼ĭà¼ĭà¼ĭà¼ĭà¼ĭà¼ĭà¼ĭà¼ĭà¼ĭà¼ĭà¼ĭà¼ĭà¼ĭà¼ĭà¼ĭà¼ĭà¼ĭà¼ĭà¼ĭà¼ĭà¼ĭà¼ĭà¼ĭà¼ĭà¼ĭà¼ĭà¼ĭà¼ĭà¼ĭà¼ĭà¼ĭà¼ĭà¼ĭà¼ĭà¼ĭà¼ĭà¼ĭà¼ĭà¼ĭà¼ĭà¼ĭà¼ĭà¼ĭà¼ĭà¼ĭà¼ĭà¼ĭà¼ĭà¼ĭà¼ĭà¼ĭà¼ĭà¼ĭà¼ĭà¼ĭà¼ ĭà¼ĭà¼ĭà¼ĭà¼ĭà¼ĭà¼ĭà¼ĭà¼ĭà¼ĭà¼ĭà¼ĭà¼ĭà¼ĭà¼ĭà¼ĭà¼ĭà¼ĭà¼ĭà¼ĭà¼ĭà¼ĭà¼ĭà¼ĭà¼ĭà¼ĭà¼ĭà¼ĭà¼ĭà¼ĭà¼ĭà¼ĭà¼
à½´à¼ĭ à¼Ħà¼ħ
à½Ĥà½ĵà½¦ à½Ķà½ł
à½ĵ à½Ĥà½ŀà½ĵ
à½ĵ à½¢à½¦
à½ĸ à½ĸà½ħ
Ġà¼ĭà¼ĭà¼ĭà¼ĭà¼ĭà¼ĭà¼ĭà¼ĭà¼ĭà¼ĭà¼ĭà¼ĭà¼ĭà¼ĭà¼ĭà¼ĭà¼ĭà¼ ĭ
à½ķ à½łà½ĺ
à¼ł à¼¥à¼ł
à¼£à¼¤ à¼¦
à½Ĥ à½ĸà½ŀ
à½Ĥà½ı à½Ĥ
à½ĳà½Ĥ à½ı
à¾» à¼į
à½ĳ à½¢à½Ħ
à½ºà¼į à¼Ħà¼ħà¼įà¼į
à½ĵ à½łà½ģ
à½£à½Ĥà½¦ à½ĵ
à¼£ à¼¢à¼©
à½Ģ à½ļ
à½İ à½ı
à½Ĥà½¦ à½ĸà½¦
à¾ŀ à½ºà¼ĭ
à¼£à¼§ à¼ł
à½ĳà½Ķà½ł à½¦à½ĺà½¦
à¼£ à¼£à¼ł
à¼£à¼§ à¼¥
à½¦ à½Ķà½ĵ
à½´à¼ĭ à¼º
à¾¡ à½ºà¼Ķ
à¾²à½¼à¼ĭ à¼ĳ
à¼£à¼¤ à¼¨
à½łà½ĳà½¦ à½£
à¾²à¾Ģ à½¿à¼ĭ
à½ĺà½¦ à½ĸ
à½ĳà½Ĥ à½Ĥà½¦
à¼£à¼© à¼ł
à½Ĳà½ĵ à½Ł
à¼£à¼¦ à¼¦
à½Ĥ à½Ĥà½ħ
à½Ŀ à½İ
à¾Ł à¾±à½ºà¼ĭ
à¼£ à¼¢à¼¡
à½Ķà½¦ à½ŀ
à½Ł à½Ł
à¾· à½¿à¼į
à½ĸà½¦ à½Ĩ
à¾¡ à½±
à½¼à¼ĭ à¼Ħà¼ħ
à¼¢à¼ł à¼¡à¼§
à½Ľ à½Ĥ
à¼£à¼§ à¼¦
à¾Ń à½¿à¼ĭ
à½¼ à½¿à¼įà¼į
à½£ à½¢à½ĸ
à¼£à¼¤ à¼£
à¼ĭà¼į à¼ĭà¼ĭà¼ĭà¼ĭà¼ĭ
à¾Ł à¾±à¼ĭ
à¼£à¼¥ à¼¨
à½´à¼į à¼ĭà¼ĭà¼ĭà¼ĭà¼ĭà¼ĭà¼ĭà¼ĭà¼ĭà¼ĭà¼ĭà¼ĭà¼ĭà¼ĭà¼ĭà¼ĭà¼ĭà¼
à¾± à½±à½²
à¾·à½¼ à¾ħ
à½¨ à½ļ
à½ĳà½Ĥ à½Ķà½ł
à¾¦ à½±à½²à¼ĭ
à¼£à¼¦ à¼¢
à¾ĭ à½£
à½ĸà½¢ à½£
à½Ĵ à½Ĥà½£
à½ĸà½¦à½ĺ à½ĺ
à¼£à¼£ à¼¨
à¼¤ à¼¡à¼¢
à¼ĭà¼ĭà¼ĭà¼ĭà¼ĭà¼ ĭà¼ĭ
à¾· à¾²à½±à¼ĭ
à½ĸà½Łà½Ħ à½Ķ
Ġ à½ĵà½ĳ
Ġà¼ĭà¼ĭà¼ĭà¼ĭà¼ĭà¼ĭà¼ĭà¼ĭà¼ĭà¼ĭà¼ĭà¼ĭà¼ĭà¼ĭà¼ĭà¼ĭà¼ĭà¼ ĭà¼ĭà¼ĭà¼ĭ
à½ħ à½ĳà½Ħ
à¾¡à¼ ·
Ġ à½ĸà½Ļ
à¼£ à¼¢à¼¨
à½Ķà½¢ à½ĺà½Ľà½ĳ
à½Ĥà½¦ à½¡
à½ĵ à½§
à¼ĭà¾¢ à½±à¼ĭ
à½£ à½ĳà½ĺ
à½ĺà½¦ à½ĳ
à½¥ à½ĳ
à½¨ à½ıà½ł
à¼¤ à¼¡à¼§
Ġ à½¡à½¦
à¼§ à¼łà¼ł
à¾ļ à½¾à¼į
à¾Ń à½¿à¼į
Ġ à½ĸà½£
à¾± à¾¤à½º
à½¢ à½¢à½Ħ
à½¿ à¼įà¼Įà¼Įà¼Į
à¼łà¼łà¼ł à¼§
à½ħà½ĵ à½ĳà½Ħ
à¾ł à½ºà¼ĭ
à¾·à¼ĭà¼ ĳ
Ġà¼ĭà¼ĭà¼ĭà¼ĭà¼ĭà¼ ĭà¼ĭà¼ĭ
à½ĺà½ĵ à½ĺà½¦
Ġ à½ĸà½Łà½Ħ
à½ĳà½ĺ à½£
Ġ à½¡à½¢
à¾ľ à½¼à¼ĭ
à½Į à½Į
Ġà¼¥ à¼©
à¼ĭà½Ī à¾·à½²
à½Ķ à½Ĥà½ŀà½ĵ
Ġ à½ŀà½Ħ
à½ĸà½Ł à½ĵ
à¼£à¼£ à¼¢
à½Ĥ à½ĺà½ĳ
à½ī à½ĸ
à¼Ģ à½£
à¼¤à¼¤ à¼¤
à¾Ķà¼ĭà¼ ĳ
à½Ħà½¦ à½¤
à¼£à¼§ à¼©
à½£ à½ĸà½ŀ
à¼£à¼¤ à¼¡
Ġà¼ĭà¼ĭà¼ĭà¼ĭà¼ĭà¼ĭà¼ĭà¼ĭà¼ĭà¼ĭà¼ĭà¼ĭà¼ĭà¼ĭà¼ĭà¼ĭà¼ĭà¼ ĭà¼ĭà¼ĭà¼ĭà¼ĭà¼ĭà¼ĭ
à¼£à¼© à¼§
à¾© à¼Ķ
à½¢ à½łà½ĸ
à½ĺ à½ĳà½Ķ
à½£à½¦ à½Ĥà½¦
à¾± à¾Ĺà½º
à½ĵ à½ĺà½ļà½ĵ
à½Ķ à½ĺà½Ĩ
à¼£à¼§ à¼¤
Ġà¼¤ à¼¤
à¼łà¼łà¼ł à¼¦
à¾Ļ à¼į
à½Ħ à½Ĥà½ī
à¼£à¼§ à¼£
Ġ à½¤à½¢
à½ĺà½¦ à½ı
à¾³ à¾³à½¼à¼ĭ
à¼£à¼¦ à¼£
à½ĳà½Ģ à½¦
à¾µ à½ºà¼į
à¾±à½²à¼ĭ à¼¸
Ġà¼¤ à¼¦
à¼¤à¼¦ à¼¥
Ġ à½Ĩà½ĸ
à¾· à½¾à¼įà¼įà¼įà¼į
à½łà½ģ à½ĺà½¦
à½Ķà½¦ à½Ĩ
à¾£ à½¼à¼į
à¼£à¼¤ à¼¢
à½¢ à½£à½¦
à½İ à½ĵ
à¼£à¼§ à¼¨
à½¦à½¦ à½¦à½¦
à¼¤ à¼¤à¼¥
à½ĳ à½ĺà½Ĳ
à½Ħ à½ĸà½ŀ
à¾³ à½²à¼į
à¾ļ à½±à½¾à¼į
à½¦ à½ª
à¼£à¼¨ à¼©
à¼łà¼łà¼ł à¼¥
à¾² à½±à½¾à¼į
à½ĸà½Ł à½ĸ
à½Ĺ à½Ł
à½Ĥà½ıà½ĵ à½ļ
à¼¤à¼ł à¼¤
à½Ĺ à½¦
à¾±à½² à½²à¼ĭ
à¾¥ à½²
à¼£à¼© à¼¦
à½ĸ à½Ķà½¦
Ġà¼¦ à¼ł
à½ĵ à½łà½ĩ
à½£ à½ĸà½ĳ
à½Ĥ à½¢à½Ħ
à½¦ à½ĺà½ĳ
à½Ĥ à½ĺà½Ĩ
à½¡à½ĵ à½ĵ
à¾« à½´à¼į
à½º à½¾à¼į
à½¦ à½Ĭ
à½ĵ à½¢à½ĸ
à¾Ł à¾±à½º
à¼ĭà¼ĭà¼ ħ
à½Ĺ à½«
à½ĺà½¦ à½Ķà½¢
à¾¤ à½¾à¼ĭ
à¾Ļ à¾°à¼ĭ
à¼· à½¼à¼įà¼į
à¼£à¼¨ à¼ł
à½ħà½ĳ à½¢
à¼¤ à¼¡à¼¥
à¼¤à¼ł à¼¥
à¼¤à¼§ à¼¥
à½Ĥ à½Ļà½ĺ
à½±à½´à¾ĥ à¼ĭà¼ĳ
à½Ģ à½§
à½ĵà½¦ à½Ħ
à¼£à¼© à¼¥
à¾¦ à¾·à½²
à¼Ģ à½ı
à½łà½ĸà½ł à½ŀ
à½ĺ à½£à½Ĥà½¦
à½¼à¼į à¼ĭà¼ĭ
à½Ģ à½ŀ
à¾Ń à¾°à¼ĭ
à¼£à¼¥ à¼¢
à½Ķ à½Ĥà½ħ
à½ĳà½Ĥ à½ĵà½¦
à½Ķà½ł à½¦
à¾ł à½±à¼į
à¼£à¼¦ à¼¨
Ġ ĉĉ
à¼£à¼§ à¼¡
à½ĳà½Ĥ à½Ł
à½¨ à½£à½¦
à¾·à¼ ĭà¼Ħà¼ħà¼įà¼į
à½ĺà½¦ à½ħà½ĳ
à½ĸà½ħ à½ĳà½Ķ
Ġ à½ĺà½ĩ
à¼£à¼© à¼¡
à¾² à½±à¼į
à½Ģ à½ħ
à½£à½¦ à½Ħà½¦
à¾ļ à½±à¼į
Ġà¼ĭà¼ĭà¼ĭà¼ĭà¼ĭà¼ĭà¼ĭà¼ĭà¼ĭà¼ĭà¼ĭà¼ĭà¼ĭà¼ĭà¼ĭà¼ĭà¼ĭà¼ ĭà¼ĭà¼ĭà¼ĭà¼ĭà¼ĭà¼ĭà¼ĭà¼ĭà¼ĭà¼ĭà¼ĭà¼ĭ
à¾¦ à½¾à¼ĭ
à¾ŀ à½²
Ġ à½Ĥà½£
à½Į à½ĵ
à½²à¼į à¼Ħà¼ħà¼įà¼į
à½§ à½¢à½ı
à¼¥à¼¦ à¼§
à¼¡à¼¡ à¼¡à¼¡
à½ķà½Ĭ à½¦
Ġ à½ķà½ĵ
à¾±à¼ĭ à½²
à¼£à¼© à¼©
à¾Ĵà¾²à½¼ à¼į
à¼£à¼¨ à¼¥
à½´ à½¿à¼įà¼į
à¼£à¼¥ à¼¡
à½ĵ à½Ĭ
à½¼à¼įà¼į à¼¼
à¼¤à¼¥ à¼ł
à½Ļà½ĺ à½ĵ
à½Ĥ à½łà½Ĥ
à¾Ĺà½ºà¼ĭ à¼Ħà¼ħà¼įà¼į
à¾¶ à½´à¼ĭ
Ġà¼ĭà¼ĭà¼ĭà¼ĭà¼ĭà¼ĭà¼ĭà¼ĭà¼ĭà¼ĭà¼ĭà¼ĭà¼ĭà¼ĭà¼ĭà¼ĭà¼ĭà¼ ĭà¼ĭà¼ĭà¼ĭà¼ĭà¼ĭà¼ĭà¼ĭà¼ĭà¼ĭà¼ĭà¼ĭà¼ĭà¼ĭà¼ĭà¼ĭ
à½¢ à½Ļ
à¼£à¼¨ à¼§
à¾ª à½±à¼į
à½Ķà½¢ à½łà½ĸ
à½Ķ à½ĳà½ĳ
à¾ľ à¼įà¼į
à½łà½ ¥
à¼¤ à¼¢à¼¢
à¼£à¼§ à¼¢
Ġ à½Ģà½¢
à½¨ à½Ļà½ł
Ġà¼ħ à¼į
à½Ķà½ł à½ģ
à¾Ń à¼Ķ
à½» à½¿à¼įà¼į
à½±à¼ĭà¼ ´
à½ĵ à½Ĥà½Ł
à½ĺà½¦ à½ĺà½¦
à¾·à½±à½´ à¼į
à½Ħà½¦ à½ĸ
à½£à½¦ à½Ĥà½ŀà½ĵ
à¾´ à½ºà¼ĭ
à½£ à½Ĥà½Ħ
à½ĸà½¦ à½ŀ
à¾¨ à½²à¼įà¼į
Ġ à½ĺà½¢
à½Ķ à½ĸà½ĳ
à¼ĭà¼ĭà¼ĭà¼ ĭà¼
à½ĸ à½ĺà½Ĳà½ł
à½Ĥà½¤ à½ĵ
à½Ŀ à½§
Ġà¼ĭà¼ĭà¼ĭà¼ĭà¼ĭà¼ĭà¼ĭà¼ĭà¼ĭà¼ĭà¼ĭà¼ĭà¼ĭà¼ĭà¼ĭà¼ĭà¼ĭà¼ ĭà¼ĭà¼ĭà¼ĭà¼ĭà¼ĭà¼ĭà¼ĭà¼ĭà¼ĭ
à½±à¼į à¼
ĭ à¾¨à¼ĭ
à¼ ĭà¾¨à¼ĭ
à½Ķà½¦ à½ģ
à¾¤ à½²
à½ģ à½Ĩ
à¼¤ à¼¡à¼¡
Ġ à½ĵà½Ĥ
à¾ Ħà¼
à½±à¼įà¼ ĭ
à½ºà¼ĭ à½Ī
à¼¤à¼¥ à¼§
à¼ĭà¾¢ à½ºà¼ĭ
à½Ĥ à½ĺà½Ħ
à½łà½ĩ à½¦
Ġ à½Ĩà½Ĥà½¦
à¾²à¼ĭ à¼Ħà¼ħà¼įà¼į
à½Ĳ à½£à½ĺ
à½¼à¼ĭà¼ĳ à¼
à¼£à¼© à¼¢
à½£ à½Ķà½¢
à½¨ à½ĵà½ł
à¼ĭà¼ ĭà¼įà¼į
à½¼à¼ĭà¼ĳà¼ ĭ
à½Ĵ à½Ĳà½Ħ
à¼¡à¼§ à¼¡à¼§
à¼£à¼¥ à¼£
à½ĵ à½Ĥà½ŀ
à½ĳà½ĸà½Ħ à½Ĥ
à½¨ à½Ĭà½ł
à½£ à½Ĩà½Ĥà½¦
à½Ĵ à½ĸ
à½Ģ à½¡
à½© à½İ
à¼¤à¼¥ à¼¦
à½Ĥ à½Ĩà½Ĥà½¦
à¾µ à½±
à¼¡à¼© à¼¥à¼¤
à½ĳà½Ĥà½ł à½ĸà½¢
à½¢ à½Ķà½¢
à½ģ à½ļ
à¼¡à¼ł à¼¡à¼¡
à½¢à½ĸ à½£
à¾µ à½º
à½´ à½´
à½¼à¼į à¼ĳ
à¼įà¼ĭà¼ĭà¼ĭà¼ĭà¼ĭà¼ĭà¼ĭà¼ĭà¼ĭà¼ĭà¼ĭà¼ĭà¼ĭà¼ĭà¼ĭà¼ĭà¼ĭà¼ĭà¼ĭà¼ĭà¼ĭà¼ĭà¼ĭà¼ĭà¼ĭà¼ĭà¼ĭà¼ĭà¼ĭà¼ĭà¼ĭà¼ĭà¼ĭà¼ ĭà¼ĭà¼ĭ
à½Ĥ à½ĺà½Ĳ
à½ī à½Ģ
à¼¤ à¼¡à¼¤
à½¼à¼ĭà¼Ĳ à¼įà¼į
à½łà½ĳà½¦ à½¢
à¾¨ à½¼à¼į
à½ı à½Ļ
à½Ķà½¢ à½Ĥà½¦
à½ºà¼ĭ à¼Ħà¼ħ
à¼£à¼¨ à¼¦
à½ĺ à½łà½ĸ
à½Ħà½¦ à½Ķà½¢
à¼ĭà¼ Ĩ
à½łà½Ĳ à½Ĥà½¦
à½¿ à¼ĭà¼ĳ
à¾¥ à½¼
à¾ļ à½±à½¾à¼ĭ
à¼µ à½¼
à½ģ à½Į
à¾© à¼ĭà¼Ħà¼ħà¼įà¼į
ĭ à¾²à½²à¼ĭ
à¼ ĭà¾²à½²à¼ĭ
à½ı à½Ĥà½¦
à½ĵà½Ħ à½ĵ
à¼¤à¼¦ à¼¢
à½Ħà½¦ à½Ķà½¦
à¼§à¼ł à¼§
à½Ķ à½ĳà½ĸ
à½ĸà½ł à½ĩ
à¼£à¼© à¼¨
à¼įà¼ĭà¼ĭà¼ĭà¼ĭà¼ĭà¼ĭà¼ĭà¼ĭà¼ĭà¼ĭà¼ĭà¼ĭà¼ĭà¼ĭà¼ĭà¼ĭà¼ĭà¼ ĭà¼ĭà¼ĭà¼ĭà¼ĭà¼ĭà¼ĭà¼ĭà¼ĭà¼ĭà¼ĭà¼ĭà¼ĭà¼ĭà¼ĭà¼ĭ
à½łà½ķà½Ĥà½¦ à½Ķ
à½ĸà½ĸà½ĸà½ĸ à½ĸà½ĸà½ĸà½ĸ
à¾Ĵ à¾·à½¾à¼į
à½ĺà½¦ à½Ķà½ł
à½ĸà½ĳà½Ĥ à½ĵ
Ġà¼§ à¼§
à¼ĭà½Ī à¾±à½º
à¾ŀ à½¾à¼į
à½£à½¦ à½ŀ
à¼¥ à¼¢à¼¢
à½Ħ à½Ķà½¢
à½¦ à½ĸà½ł
à¾ļ à½¿à¼ĭ
à¼£à¼¨ à¼¢
à¼¤ à¼¡à¼ł
à¼¤ à¼¡à¼©
à¼¤à¼§ à¼§
à½§ à½Ĥ
à½ķà½Ŀ à½«
à¼¡à¼© à¼§à¼¨
à½¢ à½¨
à½±à½² à½¿à¼į
à½Ģ à½«
à½ħ à½ĸ
à½Ĵ à½Ĳ
à½ĵ à½ĩ
à¼¤à¼¦ à¼©
à½¦ à½Ĥà½ĵà½¦
à½¥ à½Ħà½¥
à½Łà½Ĳ à½¥
à¾·à¾² à½±à½´à¾ĥà¼Ķ
à¼¤ à¼¡à¼¦
à½ĸ à½ĺà½ł
à¼µ à½²
à½ĵ à½Ĥà½ħ
à½¦ à½ĳà½ĸ
à½ĳà½Ĥà½ł à½ĺ
à¾Ĳà½´à¼ĭ à¼ĳ
à¼¡à¼© à¼¥à¼§
à½ĳ à½Ļà½ĺ
à½Ĭ à½ĵ
à¼¥à¼¥ à¼¥
à¾Ł à¾Ńà½±à¼ĭ
à¼¥ à¼¡à¼¢
à½Ħ à½£à½¦
à½ļ à½łà½ĺ
Ġà¼¤ à¼§
à½ģ à½ī
à½ĸà½¦à½ĺ à½Ķ
à¾ĭ à½ĺ
à½ĸ à½Ĥà½ŀà½ĵ
à¼£à¼¨ à¼¤
à½ĸ à½ĵà½ĺ
à¼¡à¼© à¼¦à¼¢
Ġà¼§ à¼¥
à½łà½Ĥ à½ĳ
à½ģ à½Ļ
à½Ĥà½¦ à½£à½¦
à¾¡ à¾²à½²
à½Ķà½¢ à½ĸà½¢
à½´à¼ĭ à½Ī
à½¡ à½İà½ł
ĭ à½¿à¼į
à¼Ķ à¼Ħà¼ħà¼įà¼į
à¼£à¼© à¼£
à¾± à¾±à½²à¼ĭ
à¼¤à¼ł à¼¦
à½¦ à½łà½ģ
à½Ĥà½Ħ à½Łà½Ĥ
à¼¤à¼¦ à¼¨
à½±à¼ĭà¼ ½
à¾³à¼ ·à¼ĭ
à¾´ à½²
à¾² à¾Ĥà¼ĭ
à½¡ à½Ĭ
Ġ à½£à½ĵ
à½łà½ĩ à½ĳ
à½© à½ı
à¼įà¼ĭà¼ĭà¼ĭà¼ĭà¼ĭà¼ĭà¼ĭà¼ĭà¼ĭà¼ĭà¼ĭà¼ĭà¼ĭà¼ĭà¼ĭà¼ĭà¼ĭà¼ ĭà¼ĭà¼ĭà¼ĭà¼ĭà¼ĭà¼ĭà¼ĭà¼ĭà¼ĭà¼ĭà¼ĭà¼ĭ
à¼¤ à¼¢à¼¥
à¼ ĭà½¿à¼į
à½¦à½Ĥ à½¥
Ġ à½Ĳà½ĺ
à½ĳ à½łà½ĸ
à¼£à¼¨ à¼¡
à¼¤à¼¤ à¼¢
à½§à½§à½§à½§ à½§à½§à½§à½§
à½īà½ĺà½¦ à½¦
à¾ª à½º
à¾Ĥ à¼į
Ġà¼ĭà¼ ĭà¼ĭà¼ĭà¼ĭà¼ĭà¼ĭà¼ĭà¼ĭà¼ĭ
à¼§à¼§ à¼§
Ġ à¼ĭà¼¼
à½ĸà½ı à½ĺà½¦
à½Ģ à½Ł
à½ĵà½ĺ à½¢
à½Ĳà½ĺà½¦à½ħà½ĳ à½£
à¼ĭà¼ĭà¼ĭà¼ ĭà¼Ħà¼ħà¼įà¼į
à½ĺà½ļ à½ł
à½Ĥà½¦à½£ à½ĸ
Ġà¼ĭà¼ĭà¼ĭà¼ĭà¼ĭà¼ĭà¼ĭà¼ĭà¼ĭà¼ĭà¼ĭà¼ĭà¼ĭà¼ĭà¼ĭà¼ĭà¼ĭà¼ĭà¼ĭà¼ĭà¼ĭà¼ĭà¼ĭà¼ĭà¼ĭà¼ĭà¼ĭà¼ĭà¼ĭà¼ĭà¼ĭà¼ĭà¼ĭà¼ĭà¼ĭà¼ĭà¼ĭà¼ĭà¼ĭà¼ĭà¼ĭà¼ĭà¼ĭà¼ĭà¼ĭà¼ĭà¼ĭà¼ĭà¼ĭà¼ĭà¼ĭà¼ĭà¼ĭà¼ĭà¼ĭà¼ĭà¼ĭà¼ĭà¼ĭà¼ĭà¼ĭà¼ĭà¼ĭà¼ĭà¼ĭà¼ ĭà¼ĭà¼ĭà¼ĭà¼ĭà¼ĭà¼ĭà¼ĭà¼ĭà¼ĭà¼ĭà¼ĭà¼ĭà¼ĭà¼ĭà¼ĭà¼
à½Ĥ à½ĺà½¦
à½£ à½ĸà½ĳà½Ĥ
à½¢ à½ĸà½ĳà½Ĥ
à½ĵà½¦ à½Ĩ
à¾² à¾ĥà¼ĭ
à½ĳà½ĸ à½ĳà½Ĥ
à½£à½ĺ à½ĺ
à½ĳà½Ķà½ł à½ĸ
à¼¦ à¼¥à¼ł
à¼¤ à¼¢à¼¦
à¼£à¼¨ à¼¨
à½¢ à½Ĳà½£
à¼łà¼łà¼łà¼ł à¼łà¼ł
à½ĵà½ł à½Ħà½¦
à½Ķà½ł à½Ĩ
à¼¤ à¼¡à¼¨
à¼ĭà½º à½²
à½łà½ĳ à½Ĥà½¦
à½¢ à½Ĭ
à¼¤à¼¥ à¼©
à½Ľ à½Ħ
à½łà½ĳà½ĸ à½ĺ
à¼£à¼¨ à¼£
à¼¤à¼¦ à¼§
à¾¼ à¾Ģà¼ĭ
à¼£à¼© à¼¤
à¼łà¼łà¼ł à¼¨
Ġà¼ĭà¼ĭà¼ĭà¼ĭà¼ĭà¼ĭà¼ĭà¼ĭà¼ĭà¼ĭà¼ĭà¼ĭà¼ĭà¼ĭà¼ĭà¼ĭà¼ĭà¼ĭà¼ĭà¼ĭà¼ĭà¼ĭà¼ĭà¼ĭà¼ĭà¼ĭà¼ĭà¼ĭà¼ĭà¼ĭà¼ĭà¼ĭà¼ĭà¼ ĭà¼ĭà¼ĭ
à½¦ à½Ĥà½ŀà½ĵ
à¾¤ à½´à¼įà¼į
à¼¦ à¼¡à¼§
à½Ĺ à½Ħ
Ġà¼¤ à¼¨
à¾± à½±à½¿à¼ĭ
à¾Ĳà¾± à¾²à½º
à½ĵ à½ĵà½ĳ
à½ĳà½Ħ à½ł
à½¢ à½ĸà½ħ
à¼¥à¼¦ à¼¥
à¾± à¾·à½²
à½²à¼ĭ à½Īà½²
à½¦ à½ĺà½ļà½ĵ
à¼¤ à¼¢à¼ł
à¾µ à½±à½²à¼ĭ
à½ĵà½¦ à½Ĥ
à½Ģà½Ģ à½Ģ
à½Ĥ à½ĸà½ĳ
à¼łà¼łà¼ł à¼©
à½ł à½ĳà½Ħà½¦
à¾¡à¾· à½´à¼į
à½Ķà½¢ à½ĸà½Ĥ
à¾Łà¼ĭ à¼ĳ
à½²à¼ĭ à¼ŀ
à½ģ à½¡
à½Ĥà½ŀ à½ĵà½¦
à¼¤à¼¦ à¼¤
à¼¤ à¼¢à¼¡
à½¢ à½¦à½Ħà½¦
à½¦ à½¦à½Ħà½¦
à¼¡à¼© à¼§à¼ł
à¼¤à¼§ à¼¢
à½£ à½Ĥà½Ł
à¼¤à¼ł à¼§
à¼¤ à¼¡à¼£
à½Ĵ à½Ĩ
à½£ à½Ĥà½ŀà½ĵ
à½ĸà½¢ à½ĸà½¦
à¾ĭ à½Ķà½İ
Ħà¼ Ħ
à½ĵà½ĺà½¦ à½¢
à½Ĥà½ŀà½ĵ à½ĳà½Ĥ
à½¦ à½Ĥà½¦à½Ħ
à½ĵ à½Ķà½ĵ
à¾© à½¾à¼į
à¼įà¼ĭà¼ĭà¼ĭà¼ĭà¼ĭà¼ĭà¼ĭà¼ĭà¼ĭà¼ĭà¼ĭà¼ĭà¼ĭà¼ĭà¼ĭà¼ĭà¼ĭà¼ĭà¼ĭà¼ĭà¼ĭà¼ĭà¼ĭà¼ĭà¼ĭà¼ĭà¼ĭà¼ĭà¼ĭà¼ĭà¼ĭà¼ĭà¼ĭà¼ĭà¼ĭà¼ĭà¼ĭà¼ĭà¼ĭà¼ĭà¼ĭà¼ĭà¼ĭà¼ĭà¼ĭà¼ĭà¼ĭà¼ĭà¼ĭà¼ĭà¼ĭà¼ĭà¼ĭà¼ĭà¼ĭà¼ĭà¼ĭà¼ĭà¼ĭà¼ĭà¼ĭà¼ĭà¼ĭà¼ĭà¼ĭà¼ ĭà¼ĭà¼ĭà¼ĭà¼ĭà¼ĭà¼ĭà¼ĭà¼ĭà¼ĭà¼ĭà¼ĭà¼ĭà¼ĭà¼ĭà¼ĭà¼
à½ĺà½Ĳ à½ĳ
à½ĸ à½Ŀ
à¼¤ à¼¢à¼¤
à½Ĥà½¦ à½łà½ĳ
à½ĺà½Ĩ à½Ĥà½¦
à½²à¼ĭà½Ī à½º
Ġ à½ĳà½ĳ
à½ĺà½ļ à½£à½¦
à½£à½¦ à½ł
Ġà¼§ à¼¦
à½¦ à½ĵà½ł
à¼¥ à¼¢à¼¥
Ġà¼¤ à¼¢
Ġ à½ĺà½Ĳà½¢
à½ĺà½īà½ĺ à½Ķ
à¼¤ à¼¤à¼§
à¾´ à¼į
à½¦ à½Ķà½£
Ġà¼¥ à¼¨
à¾Ĺà½ºà¼ĭ à¼ĳ
à½¦ à½ĸà½ĳà½Ĥ
à¿ ī
à¼¥à¼ł à¼¥
à¾¨ à½¿à¼į
à¾¦ à¾·à½´à¼ĭ
à½ĳà½ĺ à½Ķà½ł
à½łà½Ĳ à½¢
à¼¡à¼© à¼¦à¼£
à½Ł à½Ķ
à¾Ń à½¼à¼į
à¼¦ à¼¢à¼¢
à¾Ĵà¾² à¾±à½²
à¾Ķ à¾·à¼ĭ
à¼¤ à¼¢à¼§
Ġà¼¤ à¼¡
ĭ à¾¡à½¼
à¼ ĭà¾¡à½¼
à½ł à½¤
à¼¤à¼¥ à¼¨
à¼¤à¼ł à¼¨
à½ı à½¤
à¼įà¼ĭà¼ ĭà¼ĭà¼ĭà¼ĭà¼ĭ
à¼¤à¼¦ à¼¡
à½¡ à½Ĳ
à½Ķà½¦ à½ĸà½¦
à¼įà¼ĭà¼ĭà¼ĭà¼ĭà¼ĭà¼ĭà¼ĭà¼ĭà¼ĭà¼ĭà¼ĭà¼ĭà¼ĭà¼ĭà¼ĭà¼ĭà¼ĭà¼ĭà¼ĭà¼ĭà¼ĭà¼ĭà¼ĭà¼ĭà¼ĭà¼ĭà¼ĭà¼ĭà¼ĭà¼ĭà¼ĭà¼ĭà¼ĭà¼ ĭà¼ĭà¼ĭà¼ĭà¼ĭà¼ĭ
à½Ķà½¦ à½Ģ
Ġà¼¤ à¼£
à¾Ĳ à¾²à½²à¼ĭ
à¾· à¾²à½´à¼ĭ
à½± à½¿
Ġà¼§ à¼¢
à½ºà¼ĭ à¼Ĳ
à½ĸ à½ĺà½ĳ
à¼¦ à¼¢à¼©
à¼¤à¼ł à¼©
à¼¡à¼© à¼¥à¼¥
à¾²à¾° à½²
à¾± à¾±à½º
à¾Ĵ à½±à¼į
à½± à¾ĥà¼Ķ
à½İ à½£
à½¦ à½Ŀ
à¼¦ à¼¡à¼¢
à½¢ à½Ĥà½ŀà½ĵ
à½ĸà½ħ à½ĺ
à¼¥ à¼¡à¼¥
à¼§ à¼¡à¼¢
à½Ĳà½ĺà½¦ à½ħà½Ħ
à½¦ à½ĵà½ĺ
à½Ĥ à½§
à¼¤ à¼¦à¼ł
à¾Ļ à¾±à½²
à¼¡à¼© à¼¦à¼¡
à½¡ à½ĸà½¦
à¼¤à¼¨ à¼¦
à½ºà¼įà¼į à¼įà¼į
à¼¡à¼© à¼§à¼¦
à¼Ŀ à¼į
à¾ł à½¾à¼ĭ
Ġ à½Łà½¦
à½¦ à½ĸà½¤à½ĳ
à¾£ à½²à¼į
à½ģà½ĺà½¦ à½ĵ
à¼¡à¼© à¼¦à¼¦
à¾±à¼ĭà¼ĳ à¼
à¾±à¼ĭà¼ĳà¼ ĭ
à½ģà½ĺà½¦ à½Ģ
à¼¤à¼§ à¼¦
à¾¦ à¾²à½ºà¼ĭ
à½Ĥà½¤ à½ĳ
à½¦ à½Ĥà½ħ
à¾¡ à¾²à½±à¼ĭ
à½ĺà½Ĳ à½£
à½¨ à½ģ
à½ĵ à½ħà½ĵ
à½¡ à½¥
à½ĸà½ĳà½Ĥ à½£
à½£ à½ħà½ĵ
à¾Ł à½±à½²
à¼¡à¼© à¼¦à¼©
à½¼à¼ĭ à½º
à½ı à½¡
à¼łà¼ł à¼¡à¼ł
à½ĺà½Ĳà½ł à½¡à½¦
à¾Łà½ºà¼įà¼į à¼į
à¼¦à¼ł à¼¦
à½Ĥ à½Ĥà½ŀà½ĵ
à½ĵà½¦ à½ģ
à½ĳà½Ķ à½Ģ
à½£ à½Ĥà½ŀ
à½ĳà½ĺ à½Ķ
à½¦ à½ĸà½ĳ
à½£ à½Ľ
à½¦ à½łà½ĩ
à½ĳà½Ħ à½łà½ĳ
à½ĳà½Ħ à½ĺà½Ĳ
à½£à½ĺ à½īà½ĺ
à½£ à½Ĥà½ħ
à¼¥à¼§ à¼¥
à½ĵ à½ĳà½Ķ
à½Ħ à½Ĥà½ŀ
à½¢ à½Ĥà½ĵà½¦
à½¢ à½ĺà½Ħ
à½¼à¼ĭ à½Ī
à½Ĳà½¢ à½Ķ
à¼¤à¼¨ à¼¥
à¾± à½´à¼·
à½łà½Ļ à½£
à½Ĳ à½Ķ
à¼¤ à¼¤à¼¦
à½±à½´à½¾ à½¿à¼ĭ
Ġà¼§ à¼¨
à¾Ł à¾Łà½²à¼ĭ
à¾±à½²à¼ĭ à¼½
à½Ķà½¢ à½Ĳà½£
à½ĳà½Ĥ à½¤
à½ĳà½Ķ à½£à½¦
à¾²à½²à¼ĭ à¼ĳ
à½ĳà½Ħ à½¤
à½£à½¦ à½Ĩ
à½Ħà½Ĥ à½ł
à¾¨à½² à½¾à¼ĭ
à¼¤à¼¥ à¼¢
à½¼à¼ĭà¼İ à¼įà¼į
à¼¤à¼¨ à¼ł
à½²à¼į à¼½
à¾Ĳà¾± à¾²à½ºà¼ĭ
à¼¤à¼¤ à¼¡
à¼§ à¼£à¼§
Ġ à½Ħà½ĵ
à¼¦ à¼¡à¼ł
à½± à½¾à¼Ķ
à½Ĥ à½Ĥà½Ħ
à¾Ĵ à½´à¼į
Ġà¼¥ à¼¤
à½ł à½Ķà½Ĥà½¦
à¼§ à¼¡à¼ł
à½ĺ à½ĺà½ģ
à¾¡à¾· à¾±à¼ĭ
à¼¥à¼¦ à¼©
à¼įà¼ĭà¼ĭà¼ĭà¼ĭà¼ĭà¼ĭà¼ĭà¼ĭà¼ĭà¼ĭà¼ĭà¼ĭà¼ĭà¼ĭà¼ĭà¼ĭà¼ĭà¼ ĭà¼ĭà¼ĭà¼ĭà¼ĭà¼ĭà¼ĭà¼ĭà¼ĭà¼ĭ
à½Ŀ à½¡
à¼¦ à¼¥à¼§
à½ĭ à½ī
à¼¦à¼§ à¼¨
à½Ķà½¢ à½¦à½Ħà½¦
à½łà½ĳà½¦ à½ĺ
à¾ĭ à½ĸ
à¼¤à¼¥ à¼¡
à¼¥à¼© à¼¥
à½İ à½Ķ
à¼© à¼¡à¼ł
à¾¦ à¾·à¾±à½±à½¾à¼į
à½ĸà½¢ à½łà½ĳ
à½Ħ à½ĵà½ĺ
à½Ĥà½¦ à½ģ
à¾³ à¾³à¼ĭ
à¼¥à¼¦ à¼¡
à½ķà½ħ à½¥
à¾³ à½±
à½¨ à½Ĳ
à½¼à¼į à¼İ
à½© à½¡
à½Ĥà½Ħ à½ĳà½Ĥ
à½ĳà½Ķ à½Ĥà½ı
Ġà¼¥ à¼¥
à½´ à½¿à¼Ķ
à½ºà¼· à¼į
à½ļà½ĳ à½¦
Ġà¼¥ à¼§
à½ł à½łà½Ĥ
à¾ļ à½´à¼ĭ
à½ĥ à½ĵ
à½¢ à½ĺà½ĳ
à¼¤à¼¥ à¼¤
à¼¥ à¼¡à¼§
à½ĳ à½¡à½Ħ
à½ĳ à½ĳà½Ķà½ł
à¼¤à¼ł à¼¢
à½Ĥ à½ĸà½ħ
à½ĸ à½Ĩà½ĳ
Ġà¼¼ à¼¼
à½ĺà½¦ à½£à½¦
à¼¥à¼¤ à¼¡
à¼¤à¼© à¼¥
à¼¥à¼¥ à¼¢
à¼¡à¼© à¼¤à¼§
à¼ĭà¼´ à¼
à½© à½¦
à½£ à½ĳà½ĸ
Ġà¼į à¼Ħà¼ħà¼įà¼į
à¼¤à¼§ à¼©
à½Ķ à½ĺà½ĳ
à¾³ à½´à¼Ķ
à½²à¼ĭà¼ĳ à¼ĳ
à½ĺ à½Ŀ
à½Ķà½¦ à½Ħà½¦
à¼¥ à¼¥à¼§
à¼¦ à¼¡à¼¨
à¼¤à¼ł à¼¡
à¼¤à¼§ à¼ł
à¼¥à¼¤ à¼¢
à¾²à½± à½²à¼įà¼į
à¼ĭà¼´à¼ ĭ
Ġ à½ŀà½ĸà½¦
Ġ à½Ĥà½Łà½ł
à½ĺà½Ħ à½Ķ
à¾¾ à¼į
à½Ħ à½Ķà½¦
à½¤ à½§
Ġà¼Ħ à¼į
à¼ĭà½Ī à¾¦à¾·à½±à½²
à½¦ à½ĺà½Ľà½ĳ
à¼¥à¼© à¼¦
à¾µ à¾ŀà¼ĭ
à¾Ħ à¼Ķ
à¼¤à¼¦ à¼¦
à¼¦à¼ł à¼¥
à¼ĭà¼ ľ
à¼¤ à¼¢à¼¨
à½Ł à½ķ
à¼¤à¼¨ à¼¢
à¼¥à¼ł à¼©
à½ĳà½Ħ à½ĺà½ļ
à½ĸà½Ģ à½Ħà½¦
à¼įà¼ĭà¼ĭà¼ĭà¼ĭà¼ĭà¼ĭà¼ĭà¼ĭà¼ĭà¼ĭà¼ĭà¼ĭà¼ĭà¼ĭà¼ĭà¼ĭà¼ĭà¼ ĭà¼ĭà¼ĭà¼ĭ
à¼¥ à¼¡à¼¡
à¼¦ à¼¢à¼¤
à¼¡à¼© à¼§à¼¤
Ġà¼ĭà¼ ĭà¼ĭà¼ĭà¼ĭà¼ĭà¼ĭà¼ĭà¼ĭà¼ĭà¼ĭ
à½Ħ à½¡à½Ħ
à¼ĭà¼ ī
à¼įà¼ĭà¼ĭà¼ĭà¼ĭà¼ĭà¼ĭà¼ĭà¼ĭà¼ĭà¼ĭà¼ĭà¼ĭà¼ĭà¼ĭà¼ĭà¼ĭà¼ĭà¼ ĭà¼ĭà¼ĭà¼ĭà¼ĭà¼ĭà¼ĭ
à½¼à¼įà¼į à¼Į
à¼¤à¼© à¼§
à½Ĥ à½ĳà½Ķ
à½ĺ à½ĸà½ħ
à½Ĩ à½ĳà½ĺ
à½Ł à½«
à¼¤à¼§ à¼¨
à½²à¼ĭ à¼ħ
à¼ł à¼¢à¼ł
à½Ĵ à½Ħ
à½Ĵ à½£
à¼įà¼ĭà¼ ĭà¼ĭà¼ĭà¼ĭà¼ĭà¼ĭ
à¼¥à¼¦ à¼¢
à¾¼ à¾»
à¼¥ à¼¢à¼¡
à½¢ à½Ĥà½ī
à½Ħ à½łà½ĸ
à½Ĳ à½ĺà½¢
à½¾à¼ĭà¼ İ
à¼¤ à¼£à¼¥
à¼¤ à¼¢à¼©
à¼¤à¼ł à¼£
à¼¤à¼§ à¼¡
à½ĳà½Ĥà½ł à½¢
à½Ĥà½ĳ à½¦
à½Ĺ à½Ĳà½Ħ
à¾·à¾±à½¼ à½¿à¼įà¼į
à¼¤à¼¨ à¼©
à¼¦à¼§ à¼¢
à¼ĭà¼Ħà¼ħ à¼İ
à½ı à½§
Ġà¼ĭà¼ĭà¼ĭà¼ĭà¼ĭà¼ĭà¼ĭà¼ĭà¼ĭà¼ĭà¼ĭà¼ĭà¼ĭà¼ĭà¼ĭà¼ĭà¼ĭà¼ĭà¼ĭà¼ĭà¼ĭà¼ĭà¼ĭà¼ĭà¼ĭà¼ĭà¼ĭà¼ĭà¼ĭà¼ĭà¼ĭà¼ĭà¼ĭà¼ ĭà¼ĭà¼ĭà¼ĭà¼ĭà¼ĭ
à½£ à½£à½ĺ
à½Ĥà½Ł à½Ħ
à¾³à¼ ·
à¼¼ à¼¼
à¼¥à¼¨ à¼¥
à¼¦à¼¦ à¼¢
à½« à½Ħ
à½Ļà½ĺ à½Ĥ
Ġà¼§ à¼¤
à½¾à¼įà¼į à¼į
à½ĺà½¦ à½Ĩ
à¾Ķ à½´à¼į
à½ĳ à½¦à½Ħà½¦
à¼ĭà¼į à¼İ
à½ĸ à½Ĥà½ĵà½¦
à½¢ à½¢à½ĸ
à½Ĥà½ħ à½Ħ
à¼¥ à¼¡à¼ł
à½Ĺ à½ł
à¾±à½²à¼ĭ à¼Ī
à¼¥à¼§ à¼©
à¼įà¼ĭà¼ĭà¼ĭà¼ĭà¼ĭà¼ĭà¼ĭà¼ĭà¼ĭà¼ĭà¼ĭà¼ĭà¼ĭà¼ĭà¼ĭà¼ĭà¼ĭà¼ ĭ
à½´à¼į à¼Ħà¼ħà¼įà¼į
à¼¥ à¼¥à¼¦
à¼¥à¼§ à¼§
à½Ľ à½ı
à½Ŀ à½¨
à½Ħ à½Ħà½¦
à¾Ĵ à½±à½²à¼ĭ
à½Ķà½¢ à½Ĥà½ĵà½¦
à½ĸà½ł à½ķ
Ġà¼¥ à¼¡
à¾·à½±à½²à¼ĭ à¼Ħà¼ħà¼įà¼į
à½Ħ à½ĸà½ĳ
à¼¦à¼¨ à¼§
à½Ĥ à½ĩ
à½ĸ à½ĺà½Ľà½ĳ
à¼½ à¼
à½© à½¢
à½ĸà½ŀ à½£
à½Ħ à½ĺà½ł
à¾± à½¼à¼Ķ
à½ĵà½¦ à½ĸà½¦
à½ĺà½ģà½ł à½łà½Ĥ
à½Ĥ à½Ĥà½ĵà½¦
à¾ª à¼Ķ
ĭ à½¾à¼ĭ
à¼ ĭà½¾à¼ĭ
à¼¡à¼© à¼¡à¼£
à¾¡à¾·à½¼à¾ħ à¼
à¾¡à¾·à½¼à¾ħà¼ ĭ
à¼¦ à¼¡à¼¡
à¼¥à¼© à¼§
Ġ à½Ĥà½ıà½ĵ
à½ĳà½Ĥ à½łà½ĳ
à½¡à½Ħ à½¤
à¾¶ à½²à¼ĭ
Ġ à½ĺà½ļà½ĺà½¦
à½łà½Ĥ à½ĵà½¦
à¼¦ à¼¢à¼¦
à¼µ à½²à¼ĭ
à½£ à½ĳà½ĸà½Ħ
à½Ĥà½Ł à½Ĥ
à¼¦à¼§ à¼©
à½ºà¼ĭà¼½ à¼¼
à½Ĥà½¦ à½ĸà½ł
à¼¡à¼© à¼¡à¼¢
à¼¥à¼¨ à¼§
à¼¡à¼¢ à¼¨à¼§
à¼¥à¼ł à¼§
à¾¾à¾¾ à¾¾à¾¾
à¼½à¼ ĭ
à½¦ à½¡à½Ħ
Ġà¼ĭà¼ Ī
à¼¦ à¼¤à¼¡
à¼łà¼ł à¼¡à¼¡
à¼©à¼© à¼©
à½Ĥ à½ĸà½ł
à¼¤ à¼£à¼§
à¼¡à¼© à¼§à¼£
à¼¤à¼¨ à¼§
à½ĳ à½ħà½ĵ
à¼¦ à¼¢à¼¥
à¼¥ à¼¢à¼¦
à¼¡à¼¤ à¼¡à¼¥
à¼ĭà¾İ à¼į
à½Ķ à½Ħà½¦
Ġà¼¤ à¼©
à½Ħà½¦ à½ŀ
à½¡à½Ħ à½ĸ
à½Ħ à½łà½Ħ
à¼¨ à¼łà¼ł
à¼ĭà¼ĭà¼ĭà¼ĭ à¼ĭà¼į
à½ģ à½ŀ
à½¢à½ĸ à½ĵ
à¾· à½´à¼Ķ
à½łà½ĩà½ĺ à½ĳà½Ķà½£
Ġ à½Ĳà½£
à¼¦à¼¦ à¼¥
à½£ à½ĵà½ĺ
à½Ĥà½ĵà½¦ à½£
à¼¥à¼§ à¼¨
à½ĸà½¤ à½Ħà½¦
à¼¤ à¼¤à¼©
à¼¥à¼© à¼¢
à½ĳà½ĳ à½¦
à¼¤ à¼£à¼¤
à½Ĳà½Ģ à½¡
à¾Łà½ºà¼ĭ à¼Ħà¼ħà¼įà¼į
à¼¡à¼© à¼¥à¼¢
à¼łà¼ł à¼¡à¼¢
à½¦ à½ĳà½ĺ
à¼¥ à¼¤à¼¥
à½² à½¼à¼įà¼į
à½ĵ à½ĸà½Ģ
à½ĸ à½Ĥà½ħ
à½²à¼ĭ à¼Ħ
à½ĳà½Ĥ à½£à½¦
à¾· à½»
à¾ľ à½±à½²
Ġ à½īà½ĵ
à½Į à½¦
à¼¥à¼¨ à¼¦
à½ĵ à½ĳà½ĸà½Ħ
à¼¥à¼¦ à¼¦
à½ĳà½Ĥà½ł à½ĸà½ł
à¼Ģ à½¡
à½¢à½ĸ à½¤à½ĳ
à½ķ à½ŀ
à½ĵà½ĺ à½ĺ
à¼§ à¼¢à¼¢
à¼¤ à¼£à¼£
à¼¥à¼© à¼ł
à¼¤ à¼£à¼¦
à½Ķ à½ĸà½ł
à¼¥ à¼¢à¼¤
à¼¡à¼© à¼§à¼§
à½ĭ à½ĵ
à¼¥à¼§ à¼¦
à½ģà½ĺà½¦ à½¦
à¼ĭà¼Ķ à¼
à¾¨à¾± à½¼à¼įà¼į
à½¢ à½ĺà½Ĩ
à½ĳà½Ħ à½ŀ
à½ĺà½Ĳ à½ĺà½¦
à¾²à½¼à¼ĭ à¼Ħà¼ħà¼įà¼į
à¼§ à¼¥à¼¦
à½ĺ à½ĺà½Ħ
à½Ĥ à½łà½ģ
à½¦ à½ĺà½Ľ
à½Ĩ à½Ĭ
à¼¦à¼§ à¼¥
à½Ĥà½Ł à½ĳ
à½´à¼į à¼½
à½ĵà½ĵ à½ĵ
à¼¥à¼© à¼©
à½ĳà½Ķ à½ĺ
à½ĩ à½¦
à¼¦à¼¥ à¼¢
à¼įà¼ĭà¼ĭà¼ĭà¼ĭà¼ĭà¼ĭà¼ĭà¼ĭà¼ĭà¼ĭà¼ĭà¼ĭà¼ĭà¼ĭà¼ĭà¼ĭà¼ĭà¼ĭà¼ĭà¼ĭà¼ĭà¼ĭà¼ĭà¼ĭà¼ĭà¼ĭà¼ĭà¼ĭà¼ĭà¼ĭà¼ĭà¼ĭà¼ĭà¼ ĭà¼ĭà¼ĭà¼ĭà¼ĭà¼ĭà¼ĭà¼ĭà¼ĭ
à¼¥ à¼¢à¼©
à¾¥ à½´à¼į
à¾Ł à½±à½²à¼į
à½ĳà½Ĥ à½ŀà½ĵ
à½Ħ à½łà½Ĥ
à½ķà½ĵ à½ļ
à½ĺà½¢ à½ĺ
à¼¥ à¼¢à¼§
à¾Ĵ à¼įà¼į
à¾±à½² à½²
à¼įà¼į à¼¼
à¼¥à¼§ à¼¢
à½ĸà½ħà½¦ à½Ķà½ł
à¼¦ à¼¦à¼¨
à½¦ à½Ĥà½Ł
à¾±à¼ĭ à¼¼
à¼§ à¼¡à¼¡
à½Ĥ à½Ĥà½Ł
à½łà½ģ à½ł
à½ģà½ĺà½¦ à½ĺ
à¼¤à¼§ à¼¤
à¼¦ à¼¡à¼¦
à¼¡à¼© à¼¦à¼¥
à½ĺà½Ľ à½Ħ
à¼¥à¼¦ à¼¨
à½Ħà½Ĥ à½¢
Ġà¼ĭà¼ĭà¼ĭà¼ĭà¼ĭà¼ĭà¼ĭà¼ĭà¼ĭà¼ĭà¼ĭà¼ĭà¼ĭà¼ĭà¼ĭà¼ĭà¼ĭà¼ĭà¼ĭà¼ĭà¼ĭà¼ĭà¼ĭà¼ĭà¼ĭà¼ĭà¼ĭà¼ĭà¼ĭà¼ĭà¼ĭà¼ĭà¼ĭà¼ ĭà¼ĭà¼ĭà¼ĭà¼ĭà¼ĭà¼ĭà¼ĭà¼ĭ
à¼ĭà¼Ķà¼ ĭ
à½ĸ à½¥
à½¿à¼ĭ à½¿à¼ĭ
à½ĵà½¦ à½ī
à¾Ĵà¾± à½´à¼·à¼ĭ
à¼¥à¼ł à¼¡
à¼¡à¼© à¼¤à¼ł
à¾Łà¼ ·à¼ĭ
à¼¦ à¼¡à¼¥
à½ĺ à½ĺà½ģà½ł
à½ºà¼ĭ à½´à¼ĭ
à½ģ à½łà½Ħ
à¼įà¼ĭà¼ ĭà¼ĭà¼ĭà¼ĭà¼ĭà¼ĭà¼ĭà¼ĭà¼ĭà¼ĭà¼ĭà¼ĭà¼ĭà¼ĭ
à¾Ĵà¾± à½¼à¼ĭ
à¼¤à¼¨ à¼¡
à¼¤à¼¨ à¼¨
à½Ĥà½¦ à½Ģà½¢
à½± à½º
à¾±à¼· à½²
à½Ħ à½Ĥà½ŀà½ĵ
à¾Ĺà½ºà¼ĭ à¼´
à½´ à¾Ĥà¼ĭ
à¼¡à¼¡ à¼¡à¼¢
à¼¡à¼© à¼¡à¼¤
à¼¤à¼¦ à¼£
à¼¥ à¼¡à¼©
à½ĳà½Ķà½Ĥ à½ĺ
à¼¢à¼ł à¼¡à¼¨
à¼ĭà½Ī à¾±à½²à¼ĭ
à¼¤à¼§ à¼£
à¼¥à¼¥ à¼¤
à½łà½ĳà½¦ à½Ķ
à¾« à¾«à¼ĭ
à½¦à½Ķ à½Ģ
à¼¦à¼ł à¼¨
à¼¤à¼¤ à¼£
à½ĵ à½İ
à¼¦ à¼¦à¼©
à½Ĥ à½Ĥà½ŀ
à½ĺ à½ĵà½Ĥ
à½Ĥà½ĵà½¦ à½ĺ
à½ĳ à½ĵà½ĺ
à½ł à½ĺà½¦
à¼½ à¼Ħà¼ħà¼įà¼į
à¼įà¼ĭà¼ ĭà¼ĭà¼ĭà¼ĭà¼ĭà¼ĭà¼ĭà¼ĭ
à½¼ à¾ĥà¼į
à½Ł à½ĳà½Ķ
à¼¦ à¼¢à¼¡
à¼§à¼¦ à¼¢
à¼¤ à¼£à¼©
à¼¥ à¼¡à¼¦
à½ĵà½Ķ à½Ĥ
à¼¦à¼¦ à¼¡
à¼¥à¼ł à¼¨
à½łà½ĺ à½ĺ
à½ĳ à½ĩ
à½Ĥ à½Ľ
à¼¤ à¼¢à¼£
à¼¦ à¼¢à¼§
à¼§à¼© à¼§
à½Ĥ à½łà½¥
à¼¦à¼¨ à¼¢
à¼¡à¼ł à¼¡à¼ł
à½Ĵà½ĵ à½¥
à¼§ à¼¢à¼§
à½Į à½İ
ĭ à¾£
à¼ ĭà¾£
à½¨ à½Ĩ
à½ĳ à½Ĳà½ĺà½¦
à¼¥à¼ł à¼¦
à¼¤à¼© à¼¦
à½¼ à½´
à½Ķà½¦ à½ļ
à½£à½ĵ à½ĳ
à½ķà½£ à½Ĳ
à¼¥à¼§ à¼ł
à¾¦ à½ºà¼į
à¼¦ à¼¤à¼¥
à½ĺ à½ħà½ĵ
à½£ à½Ĭà½ł
à¼¦ à¼¥à¼¥
à¼¦à¼© à¼©
à½¢ à½Ĥà½Ħ
à½Ĥà½ŀ à½Ĥà½¦
à½Ĳ à½ĺà½ł
à¼¤à¼© à¼ł
à½£ à½Ĥà½ı
à½Ĥà½ıà½ĵ à½£
à¾ł à½±à½¿à¼ĭ
à¼¥à¼© à¼¨
à¾±à½²à¼ĭ à¼Ħà¼ħà¼į
à¼¦ à¼¤à¼¢
Ġ à½ĳà½ĺà½¢
à¼§ à¼¡à¼§
à¼¥ à¼¡à¼£
à¼¦ à¼¦à¼ł
à¼¦ à¼¡à¼¤
à½¦ à½ĺà½Ĳà½ł
à¼¥à¼¨ à¼ł
à¾¤ à½±
à¼¦ à¼¢à¼ł
à¼¥à¼¨ à¼¢
à½ļ à½Ķ
à¾± à¾Ĳà¾±à½º
à¾Ł à¾²à¾Ģà¼ĭ
à½łà½Ĳ à½ł
à¾³ à¾¡à½¼
à¼įà¼ĭà¼ ĭà¼ĭà¼ĭà¼ĭà¼ĭà¼ĭà¼ĭà¼ĭà¼ĭà¼ĭà¼ĭ
à¾²à¾° à½¾à¼ĭ
à¼¥à¼¥ à¼¡
à¾±à½²à¼ĭ à¼º
à¾Ļ à½¼à¼įà¼į
à½łà½ķà½Ĥà½¦ à½Ķà½ł
à¼§ à¼¥à¼ł
à½ĺà½ĩ à½ł
à½Ħ à½ĺà½Ĩ
à¼¤ à¼£à¼¢
à¼¥ à¼¡à¼¨
Ġà¼ĭà¼ĭà¼ĭà¼ĭà¼ĭà¼ĭà¼ĭà¼ĭà¼ĭà¼ĭà¼ĭà¼ĭà¼ĭà¼ĭà¼ĭà¼ĭà¼ĭà¼ĭà¼ĭà¼ĭà¼ĭà¼ĭà¼ĭà¼ĭà¼ĭà¼ĭà¼ĭà¼ĭà¼ĭà¼ĭà¼ĭà¼ĭà¼ĭà¼ ĭà¼ĭà¼ĭà¼ĭà¼ĭà¼ĭà¼ĭà¼ĭà¼ĭà¼ĭà¼ĭà¼ĭ
Ġ à½Ĳà½¢
à½ĺà½ĳ à½Ķà½ł
à½¢ à½Ł
à½Ģ à½Ľ
à½£à½¦ à½łà½ĳ
Ġà¼§ à¼©
à¾£ à½¾
à¼¦à¼ł à¼¢
à½£ à½ĩ
à¾³à½¼ à½¼à¼ĭ
à½¢à½ĸ à½Ĥ
à¼¡à¼© à¼¦à¼¤
à¾¡à¾· à½ºà¼Ķ
à½ĸ à½ĵà½ĳ
à½ł à½¡
à½¡à½Ħ à½¡
à½Ķà½¦ à½Ĥ
à½ĸà½ĳà½Ĥ à½ħ
Ġ à½Ĥà½ĳà½ĺà½¦
à¾¦ à¾·à½±à¼ĭ
à¼łà¼ł à¼¡à¼¥
à¼¦à¼§ à¼¡
à½ĵ à½ĺà½Ľà½ĳ
à¾ļ à¾²à¾Ģà½¿à¼ĭ
à¼¤à¼© à¼©
à½£à½Ĥ à½¢
à¾¶ à¼į
à¾Ń à¼ĭà¼Ħà¼ħà¼įà¼į
à¾¦à¾±à½¼ à¼į
à½Ĳà½ĺà½¦ à½ħà½ĳà½ĺ
à½ĩ à½ĵ
à½¿ à¼įà¼įà¼įà¼į
à½ĺà½ĳ à½ĵ
à½ķà½Ł à½«
à½ĸà½¦ à½ĳà½Ħ
à½¨ à½ª
à¼¥ à¼¢à¼¨
à¼¦ à¼¡à¼£
à½ĵà½Ķ à½ĺ
à¼¦à¼© à¼¨
Ġà¼¦ à¼¢
à½¢ à½Ĥà½Ł
à½ĺà½ļà½ĵ à½ĺà½ł
à¼¦à¼ł à¼©
à¼¤à¼¨ à¼¤
à½¦ à½¦à½¢
à½ĸà½¤à½ĳ à½Ķà½¢
à¼¦à¼¨ à¼ł
à¾·à¾Ń à½ºà¼į
à½ ³
à½Ĩ à½Ķ
à¾Ĵ à¾Ńà¼ĭ
à¼¥ à¼¢à¼£
à½ĭ à½ł
à½Ķ à½£à½ł
à½¦à½Ģ à½ĸà½¦
à¼¦à¼© à¼§
à¼¡à¼©à¼ł à¼¤
à½ĵà½¦ à½¡
à½Ķà½¦ à½łà½ĳ
à½ĳà½Ķà½ł à½ĵ
à¼¦à¼ł à¼¡
ĭ à¾¨
à½ĵà½¦ à½ł
à¼ ĭà¾¨
à½Ħà½Ĥ à½Ĥ
à½Ĥ à½ĸà½ĳà½Ĥ
à½łà½ĳ à½Ķ
à½łà½ģ à½¦
à¾¡à¾· à½±à¼į
à¼¥à¼§ à¼¡
à¼¦à¼¨ à¼©
à½ºà¼ĭ à½Īà¾±à½²
à¼¥ à¼¤à¼¤
à¼· à¼įà¼į
à¼¦ à¼¡à¼©
à½¼à¼ĭ à½¼
à¼Ģ à½Ķà½ĳ
à½ĵà½Ķ à½ī
à¼¤à¼© à¼¢
à½ı à½Ľ
à¾¨ à½±à¼Ķ
à¼¥à¼¦ à¼£
à½ĸ à½ĸà½¦à½ĺ
à½ģà½ĺà½¦ à½¢
Ġ à½ĺà½ł
à¼¥à¼© à¼¡
à½ĵà½¦ à½łà½ĳ
à¼¥ à¼¡à¼¤
à½Ķà½¢ à½ĸà½¤à½ĳ
à¼¤ à¼£à¼¨
à¼¥ à¼¥à¼ł
à½ĺ à½ĺà½ĳ
à½ĵ à½ĺà½Ĳà½ł
à½ĵ à½Ĩà½ĳ
à½Ļ à½¡
à½Ĥà½Ħ à½ĳ
à¾· à¾Ńà½¾à¼į
à¼¦à¼ł à¼§
à¼¦à¼¥ à¼¡
à½Ĥà½ŀà½ĵ à½¢
à¼Ħà¼ħ à¼İ
à¼¦à¼© à¼¥
à½ĺ à½Ĥà½ħ
à½ºà¼ĭ à¼
à½´à¼ĭ à¼
à½Ŀ à½Ĥ
à¼¡à¼© à¼¦à¼¨
à¼¦à¼¦ à¼¦
à½¼ à¾ĥà¼Ķ
à½¢à½ĸ à½ĺ
à½łà½ļ à½£à½ĵ
à½ł à½ĺà½¢
à½Ľ à½¨
à½Ĥà½¦ à½ķ
à¼¦ à¼£à¼¥
Ġ à½łà½ļ
à¾¶ à¾±à¼ĭ
à½¤ à½¡
à¼¤ à¼£à¼¡
à¼¦ à¼¢à¼¨
à¼¥à¼¨ à¼¨
à¼¤ à¼¤à¼¨
à½Ĥà½ĵà½¦ à½ĵà½¦
à¾· à¾²à½´
à¼¤ à¼¤à¼ł
à½ķ à½İ
à¼¦à¼ł à¼¤
à¼¦à¼§ à¼ł
à¼¦à¼© à¼ł
à½¼à¼ĭ à½Īà¾±à½²
à¼¥à¼¨ à¼©
à½Ĥ à½ĺà½ļà½ĵ
à½Ħ à½Ĥà½Ħ
à¾© à½ºà¼Ķ
à¼¦à¼© à¼¢
à¾·à¼ ·à¼ĭ
Ġ à½ĸà½Ļà½ĵ
à¾·à¼ĭ à½µ
à¼¥ à¼¢à¼ł
à½Ī à½º
à½Į à½ĺ
à¼¤ à¼£à¼ł
à¾µ à¼įà¼į
à¾¦ à½´à¼į
à¼¡à¼¢ à¼¡à¼¢
à½ı à½Ĭ
à½łà½ĳà½ł à½¦
à½ª à½¦
à½¾à¼ĭà¼ ¼
à¼¦ à¼¥à¼¤
à½Ļ à½ļ
à¼§ à¼¤à¼¢
à¼¥ à¼£à¼¥
à¼¦ à¼¥à¼©
à¼¨ à¼¤à¼¥
à½łà½ķ à½ĳ
à¼§ à¼¢à¼¥
à½ĺ à½Ĥà½Ħ
à½ĺ à½łà½ģ
à½Ķà½ł à½¢
à½Ĥà½¦ à½£à½ĺ
à½ĳà½Ħ à½łà½ĸ
à½ħ à½Ķ
à½ĸà½¢ à½ł
à½ī à½łà½ĺ
à¾ļ à½¿à¼į
à½¼à¼Ķ à¼
à¼¤à¼© à¼¡
à½Ķà½¦ à½¡
à¼¢à¼ł à¼¡à¼©
à¼įà¼ĭà¼ĭà¼ĭà¼ĭà¼ĭà¼ĭà¼ĭà¼ĭà¼ĭà¼ĭà¼ĭà¼ĭà¼ĭà¼ĭà¼ĭà¼ĭà¼ĭà¼ĭà¼ĭà¼ĭà¼ĭà¼ĭà¼ĭà¼ĭà¼ĭà¼ĭà¼ĭà¼ĭà¼ĭà¼ĭà¼ĭà¼ĭà¼ĭà¼ ĭà¼ĭà¼ĭà¼ĭà¼ĭà¼ĭà¼ĭà¼ĭà¼ĭà¼ĭà¼ĭà¼ĭ
à½ĵà½¦ à½ķ
à½²à¼ĭ à½ºà¼ĭ
à¼¦ à¼£à¼©
à¼§ à¼¡à¼¥
à¼¡à¼© à¼¥à¼£
à¼įà¼ Ĳ
à¼¦à¼¨ à¼¥
à¾¼ à½±à¾Ģà¼ĭ
à¼¥à¼¦ à¼¤
à¾ĭ à½ŀà½ĸà½¦
à½łà½ĳà½¦ à½Ķà½ł
à½ĺ à½ĸà½ł
à½¡ à½¡à½Ħ
à¾Ĳà½´à¼ĭ à¼Ħà¼ħà¼įà¼į
à¾¤à¾± à½²à¼Ķ
Ġ à½Ĥà½¡à½¦
à¾²à½²à¼ĭ à¼Ħà¼ħà¼įà¼į
à¼¦ à¼£à¼£
à½ºà¼ĭà¼ĳ à¼ĳ
à½Ķ à½¥
à¼¥à¼§ à¼¤
à½Ĵ à½Łà½Ĳà½¥
à½²à¼ĭà¼ĳ à¼ĭà¼ĳà¼ĭ
à½ĳ à½£à½ĺ
à½Ħ à½Ĥà½ĵà½¦
à½ĸà½¦ à½łà½ĳ
Ġ à½ĸà½ĸ
à½£ à½Ķà½¦
à½Ģ à½ĵà½¦
à¼§ à¼¢à¼¦
à¾¦à¾² à¼į
à¾¨ à½±à½²à¼ĭ
Ġ à½Ĥà½ĵà½ĺ
à¼łà¼ł à¼¡à¼£
à½²à¼ĭà¼ĳ à¼ĳà¼ĭ
à½Ħ à½ĺà½Ĳ
à½£ à½ķà½ĵ
à½Ħ à½ĺà½Ħ
à½²à¼į à¼ĭà¼į
à¾Ĺà½ºà¼ĭ à¼½
Ġ à½Ĥà½ĵà½ł
à½ĵ à½ĺà½ļ
à½Ļ à½Ķ
à¼Ģ à½Ļà½İ
à¼¦à¼§ à¼¦
à½£ à½Ĥà½ĳ
à¼¡à¼© à¼¤à¼¥
à¾ł à½¿à¼į
à½ĵ à½ĵà½Ħ
à½Ķ à½Ĳà½ĺà½¦à½ħà½ĳ
à¼§ à¼¢à¼©
à¼¦ à¼¤à¼¨
à½ĸà½ŀ à½¦
à¾Ĵà¾±à¼ ·
à¼¦ à¼£à¼¤
à¾µ à½´à½¾à¼ĭ
à¼¡à¼¥ à¼łà¼ł
à½£ à½ĸà½ħ
à¾Ł à¾²à½²
à½ĵ à½ĳà½Ģ
à½ĳà½Ĥ à½ĳà½Ħ
à½£à½¦ à½¡
à¼¦ à¼¤à¼©
à¼ĭà¼Į à¼įà¼į
à½¢ à½ĳà½ĸ
Ġ à½İ
à½Ĥ à½«
à¼¥ à¼¤à¼¨
à¼¦ à¼¢à¼£
à½ĺà½¦ à½¡
à¾Ĵà¾² à½¼à¼įà¼į
à¼¦à¼¨ à¼¨
à½łà½Ĩ à½ĵ
à½´à¼į à¼ĭà¼
à½¼à¼Ķ à¼Ķ
à¼¤à¼¥ à¼£
à¼¥à¼ł à¼¢
à¼¤à¼© à¼¨
à½ĸ à½Ħà½Ĥ
à¼¥ à¼£à¼§
à¼Ī à¼Ī
à½łà½ķ à½Ĭ
à½ĸà½£ à½Ĥà½¦
à¼¥ à¼¥à¼¨
Ġà¼¦ à¼¨
à½¿ à¼įà¼ĭ
à¾Ļà½º à¼įà¼į
à½Ĺ à½ģà½Ł
à½¦à½¦ à½¦
à¼§à¼§ à¼¨
à¾² à¾²à½º
à½ĺ à½ĵà½Ħà½Ĥ
à½¡à½Ħ à½Ĥ
à½£ à½Ŀ
à½Ļ à½ĸà½¦
à¼¥ à¼¤à¼§
à½¦ à½£à½ĺ
à¼§ à¼¡à¼¤
à¼¡à¼© à¼¡à¼©
à½ĸà½Ļ à½Ħà½¦
à¾Ł à¾²à½±à¼ĭ
à½ĸ à½Ķà½ĳ
à½²à¼ĭ à½´
à¾Ģ à½¾à¼ĭ
à¼¥à¼© à¼¤
à¾±à¼· à½ºà¼ĭ
Ġ à½łà½Ľà½ĺ
à½Ĥà½ī à½¢
à½Ħ à½Ł
à¼¦ à¼¤à¼¤
à½Ĥ à½łà½ĩ
à½£à½ĵ à½Ĥ
à¾Ĵà¾± à½¿à¼ĭ
à¼¦ à¼£à¼¦
à½ĸà½ł à½¦
à½ĳà½ĺà½¢ à½Ķ
à¼¥ à¼£à¼¡
à¼¥ à¼£à¼©
à½Ŀ à½¤
à¾¤à¾² à½¼à¼Ķ
à¼§à¼§ à¼¢
à½Ķà½¢ à½ł
à¼¥à¼ł à¼£
à½ĺà½ļ à½ĵà½¦
à½ı à½łà½ĺ
à¼¦à¼© à¼¡
à½ĸà½Ģ à½łà½ĳ
à½£ à½İ
à½ĵà½¦ à½ĸà½ħ
à½¾ à½¾à¼ĭ
Ġà¼ĳ à¼ĳ
Ġ à½Ĳà½Ħ
à½ŀà½£ à½ĵà½¦
Ġà¼¦ à¼¥
Ġà¼¨ à¼ł
à¼¥à¼¤ à¼£
à¾³ à¾³
à¼łà¼ł à¼¢à¼¤
Ġà¼¦ à¼¦
à¾¥ à½±à¼ĭ
à½ĳà½Ĥ à½Ķà½¦
à¼§à¼§ à¼¥
à½Ķ à½ĵà½ĺ
à¼¥à¼¨ à¼¡
Ġà¼¦ à¼©
à¼¦à¼¦ à¼¤
à½Ĥà½Ļ à½ĳ
à¾· à¾±à½ºà¼ĭ
à¼¡à¼© à¼§à¼¥
à¼¦à¼¦ à¼£
à½Ģà½Ģ à½Ģà½Ģ
à½± à½¼à¼įà¼į
à¾² à½´à¼Ķ
à½ĸà½ł à½Ľ
à¼¦à¼¨ à¼¡
à½ĺ à½¢à½Ħ
à½ı à½¨
à¼¦ à¼¥à¼¦
à½Ĥà½¦ à½ĳà½Ĥ
à¾² à¾Ĺà½º
à¼§ à¼¡à¼¦
à¼łà¼ł à¼¡à¼¤
à¾ļ à½¼à¼ĭ
à¾± à¾¡à½¼
à¼¥ à¼¦à¼ł
à¾²à¼ĭ à¼İ
à½ĺà½Ĩ à½¦
à½» à¼įà¼į
à¼¥ à¼£à¼¦
à¼¦ à¼¤à¼¦
à¼¡à¼© à¼¦à¼§
à½Ł à½Ļà½¢
à¼¡à¼© à¼£à¼£
à¾ļ à½²à½¿à¼ĭ
à½ĺ à½ĸà½ĳà½Ĥ
à½ĵà½ĺ à½ĺà½ģà½¢
à¾±à½²à¼ĭ à¼İ
à¼§à¼¦ à¼¡
à¾¤ à½¼à¼įà¼į
à¾¤à¾±à½¼ à¼į
à¼¡à¼¢ à¼¡à¼£
à¼¥ à¼¤à¼©
à¼§à¼§ à¼©
à½Ļ à½ª
à¼§ à¼¢à¼¨
à¼§à¼§ à¼ł
à½¥ à½Į
à¼Ģ à½ĺà½§
à½ĺ à½ĵà½Ħ
à¼¥ à¼¥à¼©
à¼¡à¼¢ à¼łà¼ł
à¼¥à¼¨ à¼¤
à½ģ à½¦à½ĺ
à½ĺà½īà½ĺ à½Ķà½¢
à¼¡à¼¡ à¼¡à¼£
à½ĵ à½Ľ
à½¡ à½¨
à¾Łà¼ĭ à¼¼
à¼ĭà¼ ģà¾ĥà¼Ķ
à½¼à¼ĭà¼½ à¼¼
Ġ à½Į
à¼¡à¼© à¼¡à¼ł
à¼¦ à¼£à¼¨
à¾¦ à½±à½²
à¾ĥ à¼įà¼į
à¾·à½¼à¼ĭ à¼½à¼¼
à½¢ à½Ķà½ĸ
à½ģ à½ı
à¼¥à¼ł à¼¤
à¼¦ à¼¤à¼§
à½ĳà½Ħ à½Ĩ
à½£ à½Ĥà½¦à½£
à¾Ĵà¾±à¼ ·à¼ĭ
à½¼à¼ĭà¼ ĭ
à¾µ à½¿à¼į
à¾³ à¾±à½¼
à¼§ à¼¥à¼¥
à½¤ à½¤
à¼¡à¼© à¼£à¼¥
à½ĺà½Ľ à½ĳà½Ķà½ł
à¼§ à¼¦à¼¥
à¼¡à¼ł à¼¡à¼¢
à½Ĥ à½£à½Ĥ
à¾± à¾°à¼ĭ
à¾« à½±
à¼¦ à¼£à¼ł
à½Ĥ à½ĺà½Ĥ
à½¢à½Ħ à½ī
ĭ à¾²
à¼ ĭà¾²
à½Ī à½²à¼ĭ
à¾² à¾±à½º
à½ĸà½¢ à½Ĥà½ŀà½Ĥ
à¼¤à¼© à¼£
à¾« à¼įà¼į
à¼© à¼łà¼ł
à¼¦à¼§ à¼£
à¾£ à½±à½²à¼ĭ
à½łà½Ĥ à½ī
à½ĳà½ĺ à½ª
à½£à½ĵ à½ħ
à½¢ à½ĩ
à¼¥ à¼£à¼¢
Ġ à½Ĥà½¢
à½ĳà½Ķà½ł à½ĳ
à¾·à¾± à½±à½¾à¼ĭ
à¾±à¼ĭ à¼½
à¼¦ à¼¥à¼¨
à½²à¼ĭ à¼į
à½Ĥà½ŀ à½ĺà½¦
à½ħà½ĳ à½£à½¦
à½Ĥà½ĵ à½¢
à½Ł à½ĺà½¦
Ġà¼ĭà¼ ĭà¼ĭà¼ĭà¼ĭà¼ĭà¼ĭà¼ĭà¼ĭà¼ĭà¼ĭà¼ĭà¼ĭ
à¾ĭ à½ĳ
à¾±à½²à¼ĭ à½Īà½¼
à½Ħà½¦ à½Ħà½¦
à¼¡à¼¦ à¼¡à¼§
à¾Ł à½±à½¿à¼ĭ
à½£à½Ĥ à½£
à¼łà¼ł à¼¡à¼§
à¾¶ à½¾
Ġà¼¥ à¼¢
à¾· à¾²à½´à¾ĥà¼ĭ
à½łà½Ĩ à½¦
à½łà½ļ à½ĵ
à¼¦ à¼£à¼¢
à¼§à¼© à¼ł
à½¢ à½łà½ĩ
à½ļ à½Ģ
à¼¨ à¼¡à¼¢
à¼¦à¼© à¼¤
à¾ĥ à½¿à¼ĭ
à½ī à½Ķ
à½ĸà½¢ à½ĺà½¦
à½ĵà½ĺ à½ĵ
Ġà¼§ à¼£
à¼¦à¼¨ à¼¤
à¼¦à¼¨ à¼¦
à½ºà¼ĭ à¼ħà¼į
à½ĳà½ĸà½Ħ à½ĸà½¦
ĭ à¾©à½¼
à¼ ĭà¾©à½¼
à¾Ń à½»à¼ĭ
à¾²à¾Ģ à½¾à¼ĭ
à¼ĭà¼ĭà¼ Į
à¼§ à¼¡à¼£
à½²à¼ĭ à¼ħà¼įà¼į
à¾¶ à½´à¼į
à¼įà¼ĭà¼ĭà¼ĭà¼ĭà¼ĭà¼ĭà¼ĭà¼ĭà¼ĭà¼ĭà¼ĭà¼ĭà¼ĭà¼ĭà¼ĭà¼ĭà¼ĭà¼ĭà¼ĭà¼ĭà¼ĭà¼ĭà¼ĭà¼ĭà¼ĭà¼ĭà¼ĭà¼ĭà¼ĭà¼ĭà¼ĭà¼ĭà¼ĭà¼ĭà¼ĭà¼ĭà¼ĭà¼ĭà¼ĭà¼ĭà¼ĭà¼ĭà¼ĭà¼ĭà¼ĭà¼ĭà¼ĭà¼ĭà¼ĭà¼ĭà¼ĭà¼ĭà¼ĭà¼ĭà¼ĭà¼ĭà¼ĭà¼ĭà¼ĭà¼ĭà¼ĭà¼ĭà¼ĭà¼ĭà¼ĭà¼ ĭà¼ĭà¼ĭà¼ĭà¼ĭà¼ĭà¼ĭà¼ĭà¼ĭà¼ĭà¼ĭà¼ĭà¼ĭà¼ĭà¼ĭà¼ĭà¼ĭà¼ĭà¼ĭà¼ĭà¼ĭà¼ĭà¼ĭà¼ĭà¼ĭà¼ĭà¼ĭà¼ĭà¼ĭà¼ĭà¼ĭà¼ĭà¼ĭà¼ĭà¼ĭà¼ĭà¼ĭà¼ĭà¼ĭà¼ĭà¼ĭà¼ĭà¼ĭà¼ĭà¼ĭà¼ĭà¼ĭà¼ĭà¼ĭà¼ĭà¼ĭà¼ĭà¼ĭà¼ĭà¼ĭà¼ĭà¼ĭà¼ĭà¼ĭà¼ĭà¼ĭà¼ĭà¼ĭà¼ĭà¼
à¾· à¾Ńà½¾à¼ĭ
à½ĸà½Ĥ à½¢
à¼¦ à¼¤à¼ł
à¼¤à¼© à¼¤
à¼¡à¼¢ à¼¥à¼§
à½Ļà½ĺ à½ĺ
à¼¦ à¼§à¼§
à¾Ĵ à½¼à¼Ķ
à½¢ à½ĺà½Ĳ
à½Ĥà½¦ à½ī
à½ĺà½¦ à½Ħà½¦
à½Ĵ à½ĺ
à½²à¼ĭà¼ĳ à¼
à¼§à¼ł à¼¨
à½²à¼ĭà¼ĳà¼ ĭ
à¼¡à¼© à¼§à¼¢
à¾± à½²à¼·
à¼¦ à¼£à¼¡
à¼§à¼¨ à¼ł
à½ĸ à½ĸà½ĳà½Ĥ
à½ĺà½ģà½¦ à½Ķ
à½ĸà½ĸ à½ĵ
à¾¡à¾· à½±à½´à¼ĭ
à¾Ń à½¾à¼Ķ
à¾Ĳ à½¾à¼ĭ
à½²à¼ĭà½Ī à½¼
à½Ĩà½Ĥà½¦ à½Ķ
à½ĸà½ŀ à½Ĥà½ĵà½¦
à¼§à¼¦ à¼£
à½Ĥà½¦ à½ĸà½ħ
à½ıà½ĵ à½ĵ
à¼¥ à¼£à¼¤
à½Ĵ à½Ģ
à½ºà¼ĭ à¼º
à¼§ à¼¥à¼§
à½¦ à½Ķà½ĳ
à¾Ł à¾¡à½ºà¼į
à¾© à½¾
à¼¤à¼¨ à¼£
à½Ķ à½Ĥà½Ł
à¾© à½¼à¼į
à¼§ à¼£à¼ł
à½Ĵ à½ħ
à¼ĭà¼ĭà¼ĭà¼ĭà¼ĭà¼ Ħà¼ħà¼įà¼į
à½¼à¼Ķà¼ ĭ
à½ĵà½ĺà½¦ à½Ģ
à¼§à¼© à¼¨
à½ĺà½¦ à½ī
à½Ĥà½ĵà½¦ à½Ģ
à½ĸà½£ à½Ħ
à¾¡à¾· à½¾
à½¦ à½ĸà½Ĥ
à½Ķ à½ĺà½Ľà½ĳ
à½Ĥà½¦ à½Ĥà½ħ
à½¡ à½ĵà½¦
à½£à½¦ à½ģ
à½Ĺ à½Ľ
à½ĳà½ĸà½Ħ à½ĳ
à¾Ł à¾±
à½§ à½ª
à¼§ à¼¢à¼¡
à½¨ à½Ģà½ł
à¼¥ à¼¤à¼¦
à¾Łà¾Ń à½¾à¼Ķ
à½ĸ à½Ĥà½ŀ
à¾²à¼ĭ à¼½à¼¼
à¾Łà½² à½¿à¼į
à½Ĵ à½Ĺ
à¾£ à¼ĭà¼´
à½Ŀ à½ĸ
à½²à¼ĭà¼ ĭ
à½ĳà½Ĥ à½Ħà½¦
à½¨ à½ķ
à¼¥à¼§ à¼£
à½ĳà½Ħ à½¡
à½Ĳ à½ĸà½¦à½ĺ
à¼§ à¼¢à¼¤
à½Ł à½ĸà½¢
à¼ĭà¼ Ħà¼Ħà¼ħà¼įà¼į
à¼łà¼łà¼łà¼łà¼łà¼łà¼łà¼ł à¼łà¼łà¼łà¼łà¼łà¼łà¼łà¼ł
à¾± à¾¤à¾±à½²
à¾¨ à¼Ķ
à½ĳà½Ħ à½ķ
à½ª à½ĸ
à½ºà¼ĭ à½¼
à½ĳà½Ĥ à½Ĩ
à½ĺà½ļà½ĺà½¦ à½¦
à¼įà¼Ħ à¼į
à½º à½¿à¼įà¼į
Ġà¼¥ à¼¦
à½¦ à½Ĳà½ĺà½¦à½ħà½ĳ
à½¡ à½Ĩ
à¾Ł à¾²à¾Ģ
Ġà¼¥ à¼£
à¾²à½² à½¾à¼į
à¾· à½±à½´à½¾à¼ĭ
à¾¦ à½²à¼į
à¼¦ à¼£à¼§
à¼¡à¼¤ à¼¡à¼©
à¾ļ à¾²à½±à½²à½¿à¼ĭ
à¼¥à¼¥ à¼£
à¼§à¼¨ à¼©
à½ĸà½ĸà½ĸà½ĸ à½ĸ
à½ł à½łà½ĸ
à½ĸà½¢ à½Ĥà½¤
à½ĳà½Ģ à½łà½ĸ
à½ĺà½Ĳà½ł à½ĳà½Ĥ
à½Ŀ à½Ķ
à½ĳà½Ķà½Ĥ à½ļà½ĳ
à½¢ à½łà½ģ
à½Ĥà½Ħ à½¡à½Ħ
à½Ĥà½ĵà½¦ à½¢
à½ı à½ī
à½ĳà½ĳ à½ĳà½ĳ
à¼§ à¼¤à¼¥
Ġ à½ĸà½ŀà½Ĥ
à½ĺà½¦ à½¤
Ġ à½Ĥà½ĳà½ĵ
à¾£ à½¿à¼į
à¼§ à¼¦à¼¨
à½¦ à½ĺà½īà½ĺ
à½² à½¾à¼įà¼į
à¾Ł à¾²à½º
à¾« à¾Ļà¾°à¼ĭ
à½¢ à½ĺà½ł
à½Ħ à½Ľ
à½Ķà½ł à½Ĳ
à½Ķà½¢ à½¡
à¾·à½´ à½¾à¼ĭ
à¼¦à¼¥ à¼£
à½Ķ à½ĸà½ĳà½Ĥ
à¾· à½½à¼ĭ
à½Ķ à½ļà½ĳ
à½Ĥà½¦ à½ĺà½Ĳ
à½Ģ à½¨
à½Ķà½¦ à½ķ
à½Ļ à½ĺà½ĳ
à¼§à¼¨ à¼§
à½ĩ à½Ħ
à¼¡à¼¦ à¼¤à¼¢
à¾·à¾± à½¾à¼ĭ
à½¦ à½ĺà½Ĥ
à¾±à½²à¼ĭ à¼Ĳ
Ġ à½ķà½Ĥ
à½£ à½ĺà½ļ
à½¡à½Ħ à½Ħ
Ġ à½ģà½Ħ
à¾² à½½à¼ĭ
Ġ à½Łà½Ĥ
à¾·à¾± à½¼à¼įà¼į
à¼¦à¼© à¼¦
ĭ à½²à¼įà¼į
à½ĳ à½łà½Ħ
à½Ħ à½ĸà½ħ
à¼ ĭà½²à¼įà¼į
à½Ĺ à½ĵà½Ł
à¼¡à¼¡ à¼¡à¼ł
à¿ Ĳ
à½Ł à½Ĩ
à½ħà½ĵ à½ĳà½ĺ
à¾¦ à¼ĭà¼´
à¼¡à¼© à¼£à¼¦
à¼§à¼§ à¼¤
à¾Ł à¾¡à½º
à¼¥ à¼£à¼£
à½Ĩ à½Ĥà½¢
à¼¡à¼¢ à¼£à¼¤
à¼§à¼ł à¼©
à½ĺ à½¢à½ĸ
à¼§ à¼¢à¼ł
à¼¥à¼© à¼£
à½Ķ à½Ĥà½ĵà½¦
à¼¨ à¼¡à¼¥
à½± à½´à¼·à¼ĭ
à¼¥ à¼¤à¼ł
à¼¡à¼¢ à¼¨à¼£
à½Ĥà½¦ à½¨
à½¡ à½ļ
à¼¡à¼£ à¼¡à¼£
Ġà¼© à¼©
ĭ à½²à¼į
à¼ ĭà½²à¼į
à½ĸà½¦ à½¤
à½Ļ à½¥
à¾ª à½²à¼į
à½Ģ à½Ŀ
à½ĸà½ĳ à½Ģ
à¼©à¼ł à¼©
à¼¨ à¼¢à¼¢
à¼¡à¼© à¼§à¼¡
à¾Ķà¼ ·à¼ĭ
à¼§ à¼¡à¼¨
Ġà¼ĭ à¼ĭà¼į
à½ºà¼ĭà¼ĳ à¼į
ĭ à¾±à¼ĭ
à¼ ĭà¾±à¼ĭ
à½Ķà½¦ à½Ħ
à¾²à½²à¼ĭ à¼½
à¾ľ à¾ľ
à½Ħ à½Ĥà½ħ
à¾± à½´à¼Ķ
à½Ķ à½ĺà½Ĳà½ł
à½£à½¦ à½łà½ĸ
à½¢ à½Ĥà½ı
à½Ĩ à½Ĥà½£
à½Ĥà½¤ à½ĺà½¦
à½Ķ à½ĺà½ļ
à½ĸà½¢ à½ĺà½Ľà½ĳ
Ġ à¼¡à¼łà¼ł
à¼©à¼© à¼ł
Ġ à½Ĥà½īà½ĵ
à½ĳ à½łà½ģ
à¾ķ à½¼à¼ĭ
à¼§ à¼¤à¼¡
à¼¦à¼§ à¼¤
Ġà¼© à¼ł
à½ħà½ĵ à½¡
à¼łà¼ł à¼¡à¼¦
à¼ĭà¼ĭà¼ĭà¼ĭà¼ĭà¼ ĭà¼ĭà¼ĭ
à¼ĭà¼¹ à½¼
à½ĸ à½Ĳà½ĺà½¦à½ħà½ĳ
à½±à¼Ķ à¼į
à½ĵ à½ĵà½Ĥ
à½¢à½Ħ à½£
à¿ Ħ
Ġ à½ĳà½¢
à½ĵ à½Ĥà½¦à½£
à½ģ à½ķ
à½ĳà½Ĥ à½Ĳà½ĺà½¦
à½ĵ à½ĳà½ĳ
à¾²à¼ĭ à¼¼
à¼§ à¼£à¼£
à½ĸ à½Ĥà½Ł
à¾£ à½±à¼į
à½Ĥà½ĵà½¦ à½Ķà½¢
Ġà¼¦ à¼¡
à½ĺ à½¥
à½łà½ļ à½ĸà½¦
à½ĸ à½Ĥà½ı
à½ĳà½ĺ à½Ľ
à½£à½Ĥ à½Ķ
à¼¥ à¼£à¼ł
à¼§à¼ł à¼¢
à¾Ł à¾²à½²à¼į
à¼§ à¼£à¼¡
à¼¡à¼ł à¼¢à¼§
à¼¡à¼© à¼£à¼©
à½± à½´à¼Ķ
à½¦ à½ĳà½ĸà½Ħ
à½ļ à½ĵà½¦
à½²à¼į à¼ĭà¼ĭ
à¼ĭà¼ ĭà¼ĭà¼ĭà¼ĭà¼ĭà¼ĭà¼ĭà¼ĭà¼ĭà¼ĭà¼ĭà¼ĭà¼ĭà¼ĭà¼ĭà¼ĭà¼ĭà¼ĭà¼ĭà¼ĭà¼ĭà¼ĭà¼ĭà¼ĭà¼ĭà¼ĭà¼ĭà¼ĭà¼ĭà¼ĭà¼ĭà¼ĭà¼ĭà¼ĭà¼ĭà¼ĭà¼ĭà¼ĭà¼ĭà¼ĭà¼ĭà¼ĭà¼ĭà¼ĭà¼ĭà¼ĭà¼ĭà¼ĭà¼ĭà¼ĭà¼ĭà¼ĭà¼ĭà¼ĭà¼ĭà¼ĭà¼ĭà¼ĭà¼ĭà¼ĭà¼ĭà¼ĭà¼ĭà¼ĭà¼
à¼ĭà¼ħ à¼ħà¼įà¼į
à½Ħ à½łà½Ľ
à¾ĭ à½ĵ
à¾²à¼· à½¼à¼ĭ
à½Ĳ à½£à½¦
à¼łà¼łà¼łà¼ł à¼łà¼łà¼ł
à½¿ à¼ĭà¼Ī
à½ºà¼ĭ à½ºà¼ĭ
à½ĳà½Ĥ à½Ĥà½¡
à¼§ à¼¤à¼©
à½²à¼ĭ à¾İ
à¾±à¼ĭ à¼´
à¼§ à¼¡à¼©
à¼ĭà¼½ à¼½
à½¼à¼ĭà¼ı à¼
à¼¥ à¼£à¼¨
à¼ĭà¾¢ à¼į
à½¢ à½ĵà½ĺ
à¼½ à¼įà¼į
à¼§ à¼£à¼¥
à½Ķà½¢ à½Ĥà½ŀà½Ĥ
à¾Ģ à¼Ķ
à¼ĭà¿ Ĳ
à¼§ à¼£à¼¦
à½± à½»à¼ĭ
à½ĵà½¦ à½ĸà½¢
à¼§à¼ł à¼¤
à½¼à¼ĭà¼ıà¼ ĭ
à¼¡à¼© à¼£à¼ł
à½łà½ĳà½¦ à½ĳ
à¼¡à¼© à¼¢à¼ł
à¼§à¼© à¼¡
à½£ à½ĵà½Ħ
à¼§ à¼£à¼©
à¼įà¼ĭà¼ĭà¼ĭà¼ĭà¼ĭà¼ĭà¼ĭà¼ĭà¼ĭà¼ĭà¼ĭà¼ĭà¼ĭà¼ĭà¼ĭà¼ĭà¼ĭà¼ĭà¼ĭà¼ĭà¼ĭà¼ĭà¼ĭà¼ĭà¼ĭà¼ĭà¼ĭà¼ĭà¼ĭà¼ĭà¼ĭà¼ĭà¼ĭà¼ ĭà¼ĭà¼ĭà¼ĭà¼ĭà¼ĭà¼ĭà¼ĭà¼ĭà¼ĭà¼ĭà¼ĭà¼ĭà¼ĭà¼ĭ
à½ĺ à½ĵà½ĳ
à¼§à¼ł à¼¥
à½ĺà½ģ à½łà½Ĥ
à¼§ à¼¥à¼¤
à¼§à¼¨ à¼¨
à¼§ à¼¥à¼©
à¼§ à¼¦à¼©
à½¦ à½ĵà½Ħ
à¾Ľ à½ºà¼ĭ
à¼¦à¼© à¼£
à¼ĭà¼ĭà¼ĭà¼ĭà¼ĭà¼ ĭà¼ĭà¼
à¾·à¼ĭà¼ ´
à¾Ĵà¾±à½´à¼ĭ à¼ĳ
à½ĺà½Ĩ à½¢
à¼§ à¼¦à¼ł
à½ĳà½ĸà½Ħ à½ķ
à¾·à¾£ à½±à½¾à¼ĭ
à½Ĥà½¦ à½ĸà½ŀ
à½Ĥà½¥ à½¢
Ġà¼ĭà¼ĭà¼ĭà¼ĭà¼ĭà¼ĭà¼ĭà¼ĭà¼ĭà¼ĭà¼ĭà¼ĭà¼ĭà¼ĭà¼ĭà¼ĭà¼ĭà¼ĭà¼ĭà¼ĭà¼ĭà¼ĭà¼ĭà¼ĭà¼ĭà¼ĭà¼ĭà¼ĭà¼ĭà¼ĭà¼ĭà¼ĭà¼ĭà¼ ĭà¼ĭà¼ĭà¼ĭà¼ĭà¼ĭà¼ĭà¼ĭà¼ĭà¼ĭà¼ĭà¼ĭà¼ĭà¼ĭà¼ĭ
à½º à¾ħ
à½ĸà½¢ à½¤
à¼¦ à¼¤à¼£
à½ķà½£ à½Ĩ
à¼łà¼ł à¼¡à¼¨
à¼Ŀ à¼įà¼į
à½ŀ à½Ķ
à½Ĥà½ıà½ĵ à½ĳà½Ħ
à¼¡à¼© à¼£à¼§
Ġ à½ĸà½¤
à½º à½¾
à¼§ à¼£à¼¤
à½łà½ĸà½¢ à½ĸ
à¼¡à¼¡ à¼¡à¼¥
à¼§à¼§ à¼¡
à½ĳà½ĸ à½Ģ
à½ģ à½Ĥà½¦
à½¼à¼įà¼į à¼½
à¾Ļ à½²à¼įà¼į
à¼§à¼¨ à¼¢
à¼§ à¼¤à¼§
à¾« à½¿à¼ĭ
à¼¡à¼© à¼¤à¼¨
à¾ł à½±à½²à¼ĭ
Ġà¼¦ à¼§
à½ĺà½¦ à½ł
à½¤à½¢ à½ĳ
à½ķà½Ĭ à½ķà½Ĭ
à½ĳà½Ķà½ł à½Ħ
à½Ĥà½ıà½ĵ à½Ĥ
à¾ŀ à½±
à½ĭ à½¢
Ġà¼¦ à¼£
à¾Ł à¾²à½ºà¼ĭ
à½Ĥà½¥ à½Ħ
ĠĠĠĠ ĠĠ
à½±à½¾ à½¿à¼ĭ
à¼ĭà¼Ī à¼į
à¼§ à¼¢à¼£
à¼§ à¼¥à¼¢
à¼¦ à¼¦à¼§
Ġ à½Ĭ
à½łà½ĳà½¦ à½ĵ
à½Ĳà½¢ à½Ķà½ł
à½ķ à½Į
à½Ħà½¦ à½Ĥ
à¾¶ à½±
à½¥ à½Ģ
à¼¦à¼ł à¼£
à¾Ĳà¾±à½ºà¼ĭ à¼ĳ
à¼§à¼© à¼©
à¾¨ à½¾à¼ĭ
à½ĸà½¤ à½ĳà½ĸ
à½ĳà½Ķà½ł à½Ĩà½ĵ
à¾¦ à¼Ķ
à½Łà½Ĥ à½ĺ
à¾±à¼įà¼į à¼įà¼į
à¼¡à¼© à¼£à¼¤
à¼¨ à¼¡à¼¡
Ġà¼¢ à¼łà¼ł
à¼ĭà¿ Ħ
à½ĸà½Ĥ à½£
à¼¨ à¼¤à¼¡
à½¢ à½ĸà½¦à½ĺ
à½ĳà½Ķà½£ à½£
à½Ĥà½¦ à½łà½ĸ
à¾±à½º à½¿à¼ĭ
à¾Ĳà¾² à¼įà¼į
à¼įà¼ĭà¼ ĭà¼ĭà¼ĭà¼ĭà¼ĭà¼ĭà¼ĭ
à½ĺ à½Ĥà½¡
à¾£ à½¿à¼ĭ
à½ĸà½¢ à½Ĥà½ĵà½¦
à¾¡à¾· à½²à¼Ķ
à¼µ à½º
à½±à½´à¾Ĥ à¼ĭà¼Įà¼į
à½ł à½£à½¦
ĭ à½ºà¼įà¼į
à½ĳà½Ħ à½ĸà½¦
à¼ ĭà½ºà¼įà¼į
à½Ķà½¦ à½¤
à½ħà½ĵ à½ŀ
à¼ĭà¼ħ à¼
à½ĳ à½ĳà½Ģ
à½Ķà½İ à½Ĩ
à¼¡à¼¢ à¼©à¼ł
à½¡ à½ıà½ł
à¼ĭà¼ħà¼ ĭ
à¼¡à¼¤ à¼¡à¼¤
à½¢ à½¢à½ĺ
à½ĭ à½¦
à½¦ à½ĺà½¢
à¼ĭà¾ ħ
à¼ĭà¼įà¼ Ħà¼ħà¼į
à½ĵà½ĺà½ĺà½ģà½ł à½£
à½¼à¼ĭ à¼º
à½¡à½Ħ à½£
à¾±à½²à¼įà¼į à¼į
à¾¡à¾· à½¼à¼į
à½Ĳ à½Ĩ
à¾²à¼ĭ à½³
à½º à½¿à¼į
à½ĸà½¦ à½¡
à½ı à½ģ
à½ĸà½ł à½Ĩ
à¾Łà½² à½¿à¼ĭ
Ġ à½ĺà½İ
à¾« à½²à¼įà¼į
à¾¡à½¼à¼ĭ à¼Ħà¼ħà¼įà¼į
à½Ĭ à½Ĭ
à½Ĺ à½Ŀ
à¾² à¾¡à½¼
à½ĺà½¦ à½Ħ
à½łà½ §
à½Ķà½İ à½Į
à½ĳ à½łà½ĩ
à½ĳ à½Ŀ
à¾± à½²à¼µà¼ĭ
à½§ à½Ģ
à½Ĳà½ĸà½¦ à½Ģ
à¼¥à¼¨ à¼£
à½¦ à½ĸà½Ł
à½Ĩ à½Ģ
à½ĵà½Ħ à½ł
à½¦ à½ĺà½ł
à½Ĥà½¦ à½Ĳ
à¾²à¼į à¼Ī
à½£à½¦ à½Ħ
à¾¤ à½¾à¼į
à¾³à½¼à¼ĭ à¼Ħà¼ħà¼įà¼į
à¼¡à¼ł à¼¤à¼ł
à½ĺà½ĺ à½ĺ
à¾Ļ à½¼à¼į
à¼Ģ à½£à½¦
à¾ª à½´
à¼ŀ à¼į
à¾ĭ à½ģ
Ġà¼¦ à¼¤
à½ĸà½¦ à½Ķà½ł
à¾ł à½²à¼į
à¾Ł à¾²à½»à¼ĭ
à¾Ĳ à¾²à½²
à½ĺà½Ħ à½ĳ
à¾Ł à¾±à½±à¼ĭ
à½ĳà½Ħ à½ĺà½īà½ĺ
à¼įà¼Ī à¼į
ĭ à¾Ĺà½¼
à¼ ĭà¾Ĺà½¼
à½Ĥà½Ļ à½ĵ
à½Ĳà½ĸà½¦ à½ĺà½ģà½¦
Ġà¼ĭà¼ ĭà¼ĭà¼ĭà¼ĭà¼ĭà¼ĭà¼ĭà¼ĭà¼ĭà¼ĭà¼ĭà¼ĭà¼ĭ
à¼©à¼© à¼§
à¾³ à¾³à½¼
à½Ĳà½ĺà½¦à½ħà½ĳ à½¦
à¾ ī
à½ĵà½Ħ à½ĳ
à½ĺà½ĵ à½Ĥà½¦
à½ĥ à½Ĭ
à½ł à½ı
à½ĳà½ĸ à½ĸà½¦
à¼§ à¼¤à¼¨
à½Ĳà½ĺà½¦à½ħà½ĳ à½ĵ
Ġ à¼ĭà¼Ħà¼ħà¼įà¼į
à¼ĭà¼įà¼į à¼
à½ĸà½Ĥ à½ĸ
à½ĸà½Ģ à½Ĥà½¦
à½ĵà½¦ à½Ķ
à¼§à¼© à¼¢
à¾² à½¼à¼·à¼ĭ
à½ĺà½¦ à½Ķà½¦
à½Łà½ĳ à½Ķà½¢
à¼¨ à¼¢à¼§
à½Ĥ à½Ķà½£
à½£à½¦ à½ķ
à½ĺ à½¡à½Ħ
à¼§ à¼¥à¼¨
à½Ĳ à½Ĥà½Ł
à½Ķà½¢ à½ĸà½¦à½ĺ
à½ĸà½ĳà½Ĥ à½¢
à¼į à¼Ķ
à½± à½¼à½¾à¼į
à¼¡à¼ł à¼¥à¼§
à¼§à¼¦ à¼¤
Ġ à½ĳà½Ĥà½Ĥ
à½ĸà½£ à½ł
à¾µ à¾±
à¾±à½²à¼ĭà¼ĳ à¼
à¾±à½²à¼ĭà¼ĳà¼ ĭ
à¼įà¼ ħ
à½ĳà½Ķà½ł à½£
à¾ª à½´à¼ĭ
à¾¡à¾· à½¿à¼į
à¾²à½± à¾Ģà¼į
à½ħ à½Ĥà½¦
à½ĸà½¢ à½Ĩà½ĳ
à¼įà¼į à¼Į
à¾±à½± à½¿à¼į
à¼¡à¼ł à¼¡à¼§
Ġ à½ĳà½Ģà½ł
à½Ĳ à½ı
Ġà¼§ à¼¡
Ġ à½Ĥà½¦à½¢
à½İ à½Į
à¼§ à¼¤à¼£
à¾±à¼· à½¼
à½¢ à½Ĥà½ŀ
à½ĺ à½ĸà½ĳ
à½²à¼ĭ à½¼à¼ĭà½ºà¼ĭ
à½ĸà½¦à½ĺà½¦ à½£
à¼¡à¼¤ à¼¡à¼¢
ĭ à¾Ĵ
à¼ ĭà¾Ĵ
à¼¡à¼£ à¼¥à¼§
à¾ļ à½±à½²à¼ĭ
à¾¨à¾±à½¼ à¼į
à¼§à¼ł à¼¡
à½ĳ à½¢à½ĸ
à¾±à½² à½¿à¼ĭ
à¾» à½¼
à½ĵà½ĳ à½¦
à¼¡à¼£ à¼łà¼ł
à¼ĭà¼´ à¼įà¼į
à¼¨ à¼¢à¼¡
à¼ĭà¼įà¼įà¼ ĭ
à½» à¼Ķ
à¾© à½²à¼Ķ
à¼¡à¼ł à¼¤à¼¢
à¼§à¼¨ à¼¥
à¼¡ à¼¡à¼łà¼ł
à½£ à½ĸà½£
à½Ł à½ĳà½ĺ
à½Ĥà½¢ à½¦
à¾³à¼ĭà¼ ĳ
à¾ł à½´à¼ĭ
à½Ļ à½Ļ
ĭ à½¼à¼įà¼į
à¼ ĭà½¼à¼įà¼į
à¼§ à¼£à¼¢
Ġ à½ŀà½¢
à½ĵ à½ĺà½ģà½¦
à½£ à½ĺà½ģ
à¾¦ à¾·à½¼
à¼¨ à¼¡à¼£
Ġà¼ĳ à¼į
à¼¡à¼¡ à¼¡à¼§
à½© à½ĺ
à½Ħà½ĵ à½Ķ
à¼§ à¼¥à¼¡
à½ĸ à½ĺà½¢
à½Ħ à½ĺà½Ľà½ĳ
à½Ľ à½¤
à½±à¼ ·
à½łà½ĳà½¦ à½¦
à½ĵà½ĺ à½īà½ĺ
à¼¡à¼ł à¼§à¼¡
à¾ł à½¿à¼ĭ
ĠĠĠĠ Ġ
Ġ à½ĺà½Ħà½ł
à½´à¼ĭ à¾¾
à½Ł à½Ģ
à½Ķà½¦ à½Ķ
à¼įà¼ĭà¼ĭà¼ĭà¼ĭà¼ĭà¼ĭà¼ĭà¼ĭà¼ĭà¼ĭà¼ĭà¼ĭà¼ĭà¼ĭà¼ĭà¼ĭà¼ĭà¼ĭà¼ĭà¼ĭà¼ĭà¼ĭà¼ĭà¼ĭà¼ĭà¼ĭà¼ĭà¼ĭà¼ĭà¼ĭà¼ĭà¼ĭà¼ĭà¼ĭà¼ĭà¼ĭà¼ĭà¼ĭà¼ĭà¼ĭà¼ĭà¼ĭà¼ĭà¼ĭà¼ĭà¼ĭà¼ĭà¼ĭà¼ĭà¼ ĭà¼ĭ
Ġ à½ļà½Ħà½¦
à½Ħ à½łà½ģ
à½ºà¼į à¼ĭà¼ĭ
à¾²à½º à½ºà¼ĭ
à½ĸ à½Ĳà½ĸà½¦
à½¦à½¢ à½¦
à¾± à¾¦à¾·à½±à½²
à½Ķà½¦ à½Ĥà½¦
à¼© à¼¡à¼§
à½Ĥà½¦ à½ĺà½Ĩ
à¾± à½±à½´à¼ĭ
à½£ à½Į
à¾² à½´à¼·
à½ĺà½īà½ĺ à½ĺ
à¼¡à¼© à¼£à¼¨
à¼¦à¼¨ à¼£
Ġ à½łà½Ĥà½£
à½¦ à½Ħà½Ĥ
à½ĵ à½Ĥà½ı
à½ĺ à½ĺà½Ľà½ĳ
à½ĺà½ļà½ĵ à½ĵ
à½ģà½ĺà½¦ à½£
à¾²à¼· à½²
à½ĵà½¦ à½¤
à½ĺà½ļà½ĺà½¦ à½ĺ
à½Ķà½¢ à½Ĳà½¢
à¼¡à¼¡ à¼¡à¼¨
à¼¡à¼¡ à¼¡à¼¤
à¾²à½±à½² à½¾à½¿à¼ĭ
à¼łà¼ł à¼¢à¼ł
à¼©à¼ł à¼¦
à½ĸà½¦ à½ļ
à½ĺà½Ľà½ĳ à½ĵà½¦
à¼§ à¼¤à¼¤
à¾·à¾± à½¾à¼į
Ġ à½ĺà½¦
à½Ķ à½Ĥà½ı
Ġà¼ĭà¼ ĭà¼Į
à¼§à¼¨ à¼¡
à¼ĭà¼ĭà¼ Ī
à¾Ķà¼ ·
à¼¨ à¼¢à¼£
à½ĵà½Ķ à½£à½¦
à½Ĥà½ĳ à½ĳ
à¼łà¼ł à¼¡à¼©
à½¦à½Ģ à½ĳ
à½ı à½łà½Ħ
à½Ĥà½¦à½£ à½Ĥ
à¼Ħà¼ħ à¼Ķ
à½Ķ à½Ĥà½ŀ
à½Ķà½¢ à½ĺà½Ľ
à¼§ à¼£à¼¨
à½» à½¿à¼į
à¼¨à¼ł à¼¨
à½ĺ à½Łà½ĳ
à½£à½¦ à½ĸà½¦
à½¢à½Ħ à½¢
à¾ľ à½±à½´à¼ĭ
à½» à½»
à½Ħà½¦ à½Ĩ
à¼¡à¼© à¼¢à¼§
à½Ķ à½ĺà½Ľ
à½¼à¼ĭ à¼į
à½ĳà½Ħ à½ī
à¼© à¼¡à¼¢
à¼ĭà½Ī à¾¡à½º
à½£ à½ĺà½Ĳà½ł
à½¼à¼įà¼į à¼Ħà¼ħà¼į
à¼§à¼© à¼¥
à½¦ à½ĸà½Ģ
à½Ĥ à½ĺà½ļ
à½Ħ à½ĸà½Ł
à½ĸà½¦ à½Ķà½¦
à¾ĭ à½Ģ
à¼§à¼© à¼¤
à½ĺà½¦ à½Ĥ
à¾³ à¾Ģ
à¼¡à¼© à¼¤à¼¦
à¼¡à¼© à¼¤à¼¡
à½¢ à½Ĥà½ħ
à½£à½¦ à½Ĳ
à½Ĥà½¦à½Ħ à½ĸ
à¼§ à¼¦à¼§
à¼¨ à¼¡à¼¤
à½Ĳà½ĺà½¦à½ħà½ĳ à½ĳ
à¾±à¾Ģ à¼į
à½Ķ à½ĳà½Ķ
à½İ à½ĳ
à¾µ à½±à½²
à¼§à¼¨ à¼¦
à½ĵà½¦ à½¨
à½£à½¦ à½ļ
à¾¦à¾± à¾±à½²
à½ĸà½ĸà½ĸà½ĸ à½ĸà½ĸ
à½£ à½Ķà½ĳ
à¼¨ à¼¤à¼¢
à½Ħ à½ĺà½¢
à½Ĳà½£ à½ĳ
à¼¨ à¼¢à¼¥
à½ģà½¦ à½ĸ
à½¨ à½ĵà½ĵ
à½ĵ à½ĺà½Ľ
à½Ħà½ĵ à½Ĥ
à¼´ à¼´
à½´à¼ĭà¼½ à¼¼
à½ºà¼į à¼½
à¼· à½ºà¼į
Ġ à½¡à½ĸ
Ġ à½ĸà½ħà½ł
à½£ à½ĸà½Ģ
à¾¨ à¼ĭà¼Ħà¼ħà¼įà¼į
à¾» à½¼à¼ĭ
à½§à½§ à½§
ĭ à¾Ĺ
à¼ ĭà¾Ĺ
à¾· à½±à½¾à¼ĭ
à½ĺà½ļà½ĵ à½Ĥ
à¾· à½¾à¼Ķ
à¾¦ à¾±à½´
à½Ĥà½¦à½£ à½ĸà½¢
à½ģ à½Ķ
à¾Ĳ à¾¡à½¼
à¼¡à¼© à¼¡à¼¡
à½²à¼ĭ à½¼à¼ĭ
à¾²à½ºà¼ĭ à½Īà½²
à¾Ł à½²à¼Ķ
à¾Ł à½¾à¼įà¼į
à½ĺà½¦ à½ĺà½Ħ
à½Ķà½¢ à½ļ
à½ºà¼į à¼Ī
à½Ĺ à½Ģ
à¼ĭà¼İ à¼į
à¼ĭà¼ĭà¼ĭà¼ĭà¼ĭà¼ ĭà¼ĭà¼ĭà¼ĭ
à½ĺà½¦ à½ļ
à¾ŀ à¾ŀà½±à¼ĭ
Ġà¼© à¼¡
à¼¡à¼¡à¼£ à¼£
à½ĵ à½łà½Ľ
à½ĸà½ı à½¢
à¼§ à¼¤à¼¦
à¼© à¼¦à¼ł
à¼ĭà¼į à¼ĭà¼ĭà¼ĭ
à½±à¼ ·à¼ĭ
à½Ķà½¢ à½¡à½Ħ
à½ģà½ĺà½¦ à½ĳà½Ħ
à½ĵ à½Ĥà½ĳ
à½¼à¼ĭ à¼ħ
à½Ĥà½ħ à½¦
à¼¡à¼ł à¼¡à¼¤
à½Ħà½¦ à½Ħ
à¼£ à¼łà¼łà¼ł
à½ĸà½¦ à½ı
à½ĵà½¦ à½Ĥà½¦
à½ºà¼į à¼ĭà¼ĭà¼ĭà¼ĭà¼ĭ
à½Ĩà½Ĥà½¦ à½ĳà½Ħ
à¼¨à¼ł à¼¢
Ġ à½Ĩà½ĳ
à½łà½Ľ à½Ħ
à½Ĥà½¦à½Ħ à½ĸà½ł
à½İ à½Ģ
à¼¡à¼¤à¼ł à¼©
Ġ à½ķà½¢
à¾¥ à¼į
Ġà¼Į à¼Įà¼Įà¼Įà¼Įà¼Įà¼Įà¼Įà¼Įà¼Įà¼Įà¼Įà¼Įà¼Įà¼Įà¼Įà¼Įà¼Įà¼Įà¼Įà¼Įà¼Įà¼Įà¼Įà¼Įà¼Įà¼Įà¼Įà¼Įà¼Įà¼Įà¼Įà¼Į
à¾Ĳà¾± à¾±à½º
à½Ĳà½¢ à½ĳ
à½Ħà½Ħ à½ĺ
à¾µ à½´à½¿à¼ĭ
à¼¡à¼¢ à¼¥à¼¡
à¾ļ à½±à½²à½¿à¼ĭ
à½Ĩ à½ĸà½¢
à¾Ĳ à¾Ĺà½º
à½Ĩà½Ĥà½¦ à½¦
à¾· à½±à½¿à¼ĭ
à½Ī à½ºà¼ĭ
ĭ à½¼à¼į
à½ĳà½Ħ à½ģ
à¼ ĭà½¼à¼į
à½ĺà½ĩ à½ĳ
à¼¡à¼ł à¼§à¼£
à½´à¼ĭ à½º
à½ĺà½¦ à½ĳà½Ķà½łà½Ĩ
à½Ĥà½Ł à½Ħà½¦
Ġ à½ĳà½ĺà½Ĥ
à½Ķ à½¤à½ĳ
à¼ĭà¼Ī à¼
à¾» à½¾à¼ĭ
à½ĳà½ĸà½ł à½Ĩ
à½Ĥ à½Į
à½ĳà½Ħ à½Ĳ
à¾¦ à¾²à½²à¼ĭ
à¼¨ à¼¢à¼¨
à½Ķà½¢ à½ĺà½Ĳ
à½ĵà½ĳ à½ĵ
à¼¡à¼ł à¼§à¼©
à¼įà¼Ħ à¼įà¼į
à½ĸ à½ĸà½Ģ
ĠĠĠĠĠĠĠĠĠĠĠĠĠĠĠĠ ĠĠĠĠĠĠĠĠĠĠĠĠĠĠĠĠ
à½¼à¼ĭà¼Ĳ à¼įà¼įà¼įà¼į
à¼¡à¼¡à¼¨ à¼¢
à¾Īà¾Īà¾Īà¾Ī à¾Īà¾Īà¾Īà¾Ī
à¼įà¼ĭà¼ĭà¼ĭà¼ĭà¼ĭà¼ĭà¼ĭà¼ĭà¼ĭà¼ĭà¼ĭà¼ĭà¼ĭà¼ĭà¼ĭà¼ĭà¼ĭà¼ĭà¼ĭà¼ĭà¼ĭà¼ĭà¼ĭà¼ĭà¼ĭà¼ĭà¼ĭà¼ĭà¼ĭà¼ĭà¼ĭà¼ĭà¼ĭà¼ĭà¼ĭà¼ĭà¼ĭà¼ĭà¼ĭà¼ĭà¼ĭà¼ĭà¼ĭà¼ĭà¼ĭà¼ĭà¼ĭà¼ĭà¼ĭà¼ĭà¼ĭà¼ĭà¼ĭà¼ĭà¼ĭà¼ĭà¼ĭà¼ĭà¼ĭà¼ĭà¼ĭà¼ĭà¼ĭà¼ĭà¼ĭà¼ĭà¼ĭà¼ĭà¼ĭà¼ĭà¼ĭà¼ĭà¼ĭà¼ĭà¼ĭà¼ĭà¼ĭà¼ĭà¼ĭà¼ĭà¼ĭà¼ĭà¼ĭà¼ĭà¼ĭà¼ĭà¼ĭà¼ĭà¼ĭà¼ĭà¼ĭà¼ĭà¼ĭà¼ĭà¼ĭà¼ĭà¼ĭà¼ ĭà¼ĭà¼ĭà¼ĭà¼ĭà¼ĭà¼ĭà¼ĭà¼ĭà¼ĭà¼ĭà¼ĭà¼ĭà¼ĭà¼ĭà¼ĭà¼
à½ĸà½¦à½ĺ à½ĸ
à½Ħ à½¢à½Ħ
à¼¡à¼¤ à¼¡à¼¦
à¼¨à¼ł à¼©
à¼¡à¼¡à¼ł à¼©
à¼ĭà¼Īà¼ ĭ
à¾Ĵà¾² à½ºà¼į
à¼¡à¼ł à¼¡à¼£
à½´à¼· à¼į
à½ĺ à½ĺà½Ĥ
à½İ à½İ
à¾¡à¾· à½±à½¿à¼ĭ
à¾± à½²à¼µ
à½ĸà½ŀ à½Ĥà½ĳ
à¼§à¼§ à¼£
à¼ĭà¼ĭà¼ Ħ
à½Ĥà½¦ à½Ķà½£
à¾° à¼įà¼į
à½ĳ à½ĺà½ļà½ĵ
à¼¨ à¼¡à¼¨
à¼łà¼ł à¼¥
à¼ĭà¾ĵ à½¾à¼ĭ
Ġ à½łà½Ĳ
à½ĸ à½ĺà½īà½ĺ
à¼© à¼¡à¼¡
à¼ĭà½Ī à¾²à½ºà¼ĭ
à¼§à¼§ à¼¦
à¾ĳ à¼į
à½ķà½ĵ à½Ķ
à½ı à½ķà½¥
à¾·à½¼à¼ĭ à¼½
Ġ à½Ĥà½ĵà½Ħ
à¾¤à¾² à¾Ģ
à½ĸà½ı à½Ĭ
à½ĵà½ĺà½¦ à½ĺ
à¾±à½²à¼ĭ à¼Ħà¼ħ
à½ĵà½¦ à½Ĳ
à¼ Ħà¼Ħà¼ħà¼įà¼į
à¾· à¾£à¼ĭ
à¼¡à¼¢à¼ł à¼¤
à½Ħ à½Łà½ĳ
à½Ĥà½¦ à½Ĥà½ī
à¼¡à¼¢ à¼¥à¼£
Ġà¼ ģà¾ĥà¼Ķ
à¼¨ à¼¢à¼¦
à¾ŀ à½¼à¼ĭ
à½Ķ à½ĺà½ļà½ĵ
à½¼à¼ĭà¼ĳà¼ĳ à¼¼
à¾· à¾ĥà¼ĭ
à¼¡à¼§ à¼¡à¼¨
à½ĵ à½ĺà½ļà½ĺà½¦
à½Ł à½ĳà½ĳ
Ġà¼ ī
à¼©à¼ł à¼¤
à¾£ à¼ĭà¼Ħà¼ħà¼įà¼į
à¼¨ à¼¡à¼ł
à¼¡à¼£ à¼¦à¼¤
à¼ĭà¼ĭà¼ ĭà¼įà¼į
à½§ à½ħà½Ħ
à¼§ à¼¤à¼ł
à¾¦ à¾¡à½¼
à½¢ à½ĳà½Ķ
à½ķ à½ĺà½¦
ĭ à¾²à½²
à½¡ à½ĳà½ĺ
à¼ ĭà¾²à½²
à¾¦ à½¼à¼įà¼į
à¾ª à½¼à¼ĭ
à¾²à½´ à½¾à¼į
à¼įà¼¼ à¼½
à¾Ĳà¾±à½ºà¼ĭ à¼Ħà¼ħà¼įà¼į
à½ĵà½ĺ à½ŀ
à¼¨ à¼¡à¼©
à½ĸà½ĺ à½ĺà½Ĩ
Ġà¼¨ à¼©
à½¦ à½ĸà½¦à½ĺ
à½Ħ à½łà½ĩ
à½Ģ à½łà½ĳ
à½ĳà½Ħ à½Ĥà½ŀà½ĵ
à¾Ĵ à½¾à¼ĭ
à¾³ à¾Ģà¼į
à½ĳà½ĳ à½Ķà½¢
à¼įà¼į à¼Ħà¼ħà¼į
à½½ à½¿à¼į
à¼¡à¼łà¼ł à¼¡
à½ĸ à½ĸà½Ĥ
à½Ķ à½īà½ĺà½¦
à½ł à½ĸà½ŀ
à½ħà½ĳ à½¡
à½Ķà½¦ à½Ĳ
à¼¡à¼© à¼¤à¼¢
à½ĺ à½Ķà½ĵ
à½£à½¦ à½¤
à½Ľ à½Ľà½§
à½Ĺ à½ģ
à½ĵà½Ķ à½ĳà½Ħ
à½ĺà½ļ à½Ĥ
à¼¨ à¼¢à¼©
à¾Łà¼ĭ à¼´
à½Ķ à½ĵà½Ħ
à½ĸà½ŀ à½ĸà½¦
à¼¨ à¼¡à¼§
à¾Ľ à½±à¼į
à¼¨à¼ł à¼¤
à¼©à¼¨ à¼¦
à½ĳà½Ķà½ł à½ļ
à½ĸà½¦à½ĺà½¦ à½ĵà½¦
à½Ĥ à½£à½ĺ
à½ĺà½¦ à½ĳà½Ķà½łà½¦
à½¢ à½Ŀ
à½ĸà½ħà½¦ à½¦
à½¦ à½ĵà½ĳ
à¼¡à¼¢ à¼©à¼¢
à¼Ģ à½ģ
à½Ķ à½£à½Ĥà½¦
à¼¡à¼¢ à¼¨à¼¨
à¼§à¼¨ à¼¤
à½ķ à½ķ
à¼ĭà¼¹ à½²
à½İ à½ĸ
à¼¡à¼łà¼ł à¼¤
à¼¡à¼©à¼ł à¼©
à¼¡à¼ł à¼¡à¼¥
à½ģ à½Ĳ
à½¡à½Ħ à½łà½ĳ
à½ĳà½ĸà½Ħ à½ĸ
à½²à¼ĭà¾¾ à¼į
à¾Ń à½±à¼Ķ
à¾¦ à½¼à¼į
Ġà¼ł à¼¨
Ġ à½ļà½¢
à½ĸà½¦ à½ģ
à½¡à½Ħ à½ŀ
à½¢à½ĸ à½Ħ
à½¦à½Ķ à½ĺà½Ľà½ĳà½Ķ
à¼¡à¼ł à¼¤à¼¦
à½Ķ à½ĳà½ĸà½Ħ
à½ĺà½¢ à½Ĥ
à¼§à¼ł à¼£
à½Ķ à½£à½ĺ
à¾²à¼ĭ à½²
à¾¡à½ºà¼ĭ à¼Ħà¼ħà¼įà¼į
à¼¡à¼¢ à¼¢à¼¢
à¾³à½¼à¼ĭ à¼½
à¼¡à¼¤ à¼¡à¼ł
à¼§à¼© à¼¦
à½¦à½ŀ à½¦
Ġà¼į à¼ĭà¼ĭ
à¼§à¼ł à¼¦
à½ĳ à½ĵà½ĳ
à¾¦ à½¾à¼į
à¾±à½ºà¼ĭ à½Īà½²
à¼¨ à¼¦à¼©
à½¦ à½łà½Ľ
à¾¦ à¾¦à½±à¼ĭ
à¾ľ à½ºà¼į
à½ĸ à½ĵà½ĵ
à¼įà¼į à¼ĭà¼ĭ
à½¥ à½¡
à¼¨ à¼¢à¼¤
à¼¨à¼ł à¼¦
à½ĵ à½Į
à½Ħ à½Ĥà½Ł
à½ĳà½ĺ à½ģ
à¼¡à¼© à¼¢à¼¢
à¼ł à¼£à¼ł
à¼¡à¼¢ à¼¦à¼ł
Ġà¼ł à¼¤
à¼©à¼ł à¼§
à½Ĩ à½¡
à½Ħà½¦ à½ĳà½Ħ
à½ĳà½ĺ à½Ľà½ĳ
à½ĳà½Ĥà½ł à½£
à½Ĺ à½Ĥà½ł
à¼¡à¼¦ à¼©à¼¨
à¾·à¾² à½±à½´à¾ĥà¼į
à¼¡à¼¡à¼¢ à¼£
à¾Ł à½½à¼ĭ
à½ĺà½Ĳà½ł à½Ħ
à½±à½²à¼ĭ à¼½
à¾²à¼į à¼
à½¦ à½ħà½ĳ
à¾£ à½ºà¼įà¼į
à¼· à½²à¼į
à¼¡à¼ł à¼£à¼¨
à½±à½¼ à¾ĥà¼į
à½ĸ à½ĵà½Ħ
à¾Ł à½¼à¼įà¼įà¼įà¼į
à¼¡à¼ł à¼¤à¼¤
à¾±à¼ĭ à¼Ĳ
à½ıà½ĵ à½¢
à¼¡à¼¢ à¼¢à¼§
à¼¡à¼£ à¼¤à¼©
à½© à½§
Ġà¼ĭà¼ĭà¼ĭà¼ĭà¼ĭà¼ĭà¼ĭà¼ĭà¼ĭà¼ĭà¼ĭà¼ĭà¼ĭà¼ĭà¼ĭà¼ĭà¼ĭà¼ĭà¼ĭà¼ĭà¼ĭà¼ĭà¼ĭà¼ĭà¼ĭà¼ĭà¼ĭà¼ĭà¼ĭà¼ĭà¼ĭà¼ĭà¼ĭà¼ĭà¼ĭà¼ĭà¼ĭà¼ĭà¼ĭà¼ĭà¼ĭà¼ĭà¼ĭà¼ĭà¼ĭà¼ĭà¼ĭà¼ĭà¼ĭà¼ ĭà¼ĭ
à½ĺà½ī à½£
à¼¡à¼£ à¼¡à¼¢
à¼¡à¼¡ à¼¡à¼¦
à¾²à¼įà¼ ĭ
ĭ à¾Ł
à½ĸà½¢ à½ĸà½Ĥ
à¼ ĭà¾Ł
à¼¨à¼ł à¼§
à½Ķ à½ĳà½ĺà½ł
à½Ĥà½ŀà½Ĥ à½Ķ
à½ĺà½ĩ à½ĺ
à¼©à¼§ à¼¥
à½ĳ à½ĳà½ĸà½Ħ
à½¢ à½Ĥà½¦à½£
à½ĵ à½Ĥà½¡
à½ģ à½Ľ
à¾²à¼ µ
Ġ à½Ļà½ĵ
à½Ĥ à½«à½¥
à½Ķ à½ĳà½Ģ
à½Ģ à½ĭ
à¼łà¼ł à¼¤
à½¢ à½ĸà½Ł
à½± à¼įà¼įà¼į
à¼¡à¼ł à¼¢à¼¦
à¾Ħà¼ ·à¼ĭ
à½¢ à½£à½Ĥà½¦
à½£ à½ļà½ĳ
à½ĸà½ĳ à½Ģà½ĵ
à½ħà½ĳ à½ĸà½¦
à½ĺà½ī à½ĺà½ī
à¼łà¼ł à¼¢à¼¥
Ġà½ĸà½Ģà½ł à½łà½Ĥ
à¼© à¼¡à¼£
à¼¡à¼¡à¼¢ à¼¨
à½ĺ à½Ļà½ĵ
à¾Ľ à½²à¼į
à½Ĵà½¢ à½¥
à¼¡à¼¢ à¼§à¼§
à¼§à¼¨ à¼£
à½ł à½ĺà½ĳ
à¾¨ à½¼à¼įà¼į
à½ª à½Ħ
à¼¨ à¼¡à¼¦
à½¼à¼ĭà¼ĳ à¼ĭà¼ĳ
à¼¡à¼£ à¼¥à¼¦
à½ĳà½ĸ à½¤à½ĳ
à½ĺà½Ĩ à½Ĥ
à½²à¼ĭà½Ī à½²à¼ĭ
à½Ĵ à½Ĥà½¦
à¼§à¼© à¼£
à¼©à¼© à¼¥
à½Ĥ à½Ĥà½ı
à½Ħà½¦ à½ĸà½¦
à½ĳà½Ĥà½ł à½ŀ
à½¥ à½Ľ
Ġà¼ĭà¼ĭà¼ĭà¼ĭà¼ĭà¼ĭà¼ĭà¼ĭà¼ĭà¼ĭà¼ĭà¼ĭà¼ĭà¼ĭà¼ĭà¼ĭà¼ĭà¼ĭà¼ĭà¼ĭà¼ĭà¼ĭà¼ĭà¼ĭà¼ĭà¼ĭà¼ĭà¼ĭà¼ĭà¼ĭà¼ĭà¼ĭà¼ĭà¼ĭà¼ĭà¼ĭà¼ĭà¼ĭà¼ĭà¼ĭà¼ĭà¼ĭà¼ĭà¼ĭà¼ĭà¼ĭà¼ĭà¼ĭà¼ĭà¼ĭà¼ĭà¼ĭà¼ĭà¼ĭà¼ĭà¼ĭà¼ĭà¼ĭà¼ĭà¼ĭà¼ĭà¼ĭà¼ĭà¼ĭà¼ĭà¼ĭà¼ĭà¼ĭà¼ĭà¼ĭà¼ĭà¼ĭà¼ĭà¼ĭà¼ĭà¼ĭà¼ĭà¼ĭà¼ĭà¼ĭà¼ĭà¼ĭà¼ĭà¼ĭà¼ĭà¼ĭà¼ĭà¼ĭà¼ĭà¼ĭà¼ĭà¼ĭà¼ĭà¼ĭà¼ĭà¼ĭà¼ĭà¼ ĭà¼ĭà¼ĭà¼ĭà¼ĭà¼ĭà¼ĭà¼ĭà¼ĭà¼ĭà¼ĭà¼ĭà¼ĭà¼ĭà¼ĭà¼ĭà¼
à½¦ à½ĳà½Ģ
à½ĵ à½ĸà½¦à½ĺ
à½Ĥà½¦à½Ķ à½Ģ
à½´à¼į à¼Ī
à¼¡à¼©à¼ł à¼¨
à½Ĥà½ŀà½ĵ à½ŀ
à¼¡à¼¡à¼§ à¼¥
à½Ĥ à½ĳà½Ķà½£
à½¢ à½ĳà½ĺ
à¾¦ à½±à¼į
à¼¡à¼¢ à¼¢à¼¥
à¾ĭ à½Ĩ
Ġ à½ĳà½Ķà½¢
à½ı à½¥
à½ĳà½ĳ à½£
Ġà¼Ķ à¼Ķ
Ġ à¼ĭà¼įà¼į
à½ĺ à½ĺà½ļ
à½łà½Ĥ à½ĺà½¦
à¾Łà¼ µ
à¾²à½¼à¼ĭ à¼´
à¼¡à¼¢ à¼¡à¼¦
à¾Īà¾Ī à¾Ī
à½Ķà½¢ à½łà½ļà½Ħ
à¼© à¼¢à¼£
à½ı à½ĵà½ĺ
à½Ĩà½Ĥ à½¥
à½ĵ à½Ļà½ĵ
à½ĸà½¦ à½ĺà½ĳ
à¼¡à¼ł à¼¢à¼¤
à¼¡à¼© à¼£à¼¢
à¼ĭà¼¼ à¼¼
à½Ĺ à½Ĵ
Ġ à½¢à½£
à½Ĥ à½łà½Ľ
à½£à½¦ à½£à½¦
à½Ħ à½Ķà½ĳ
à½Ĥà½Ħ à½ĺ
à¼¡à¼¦ à¼¡à¼¦
à¼©à¼© à¼¢
à¼©à¼¨ à¼©
à½ı à½ķ
à¼¡à¼łà¼ł à¼¢
à¾· à¾£à½±à¼ĭ
à½Ģà½¢ à½İ
à¾» à½´à¼ĭ
à½²à¼· à¼į
à½±à¼ĭà¼ ¼
à½Ħ à½¨
à¾² à¾Ĥà¼į
à½ļ à½ĸà½¢
à½¡à½ĵ à½ł
à½« à½¡
à¼©à¼© à¼£
à¼¡à¼©à¼ł à¼£
à½¦ à½ĺà½ģ
à½¦ à½Ĥà½ĳ
à½ĸà½Ĥ à½ł
à¼¨ à¼£à¼¦
à¼¡à¼£ à¼¡à¼¤
à½ĳà½Ħ à½ļ
à¼© à¼¢à¼¢
à¾·à½² à½¿à¼įà¼į
à½¡à½ĳ à½ĳà½Ĥ
à½ĺà½¦ à½ģ
à½Ĥà½ŀ à½ĺ
à½¼à¼įà¼įà¼įà¼į à¼Ī
à¼¡à¼¢ à¼¨à¼ł
à¾ ®
à½ĳ à½ĵà½ĵ
à½Ķ à½Ĥà½¡
à½ĵà½¦ à½¢à½Ħ
à½Ķà½¦ à½ī
à¼¡à¼© à¼¢à¼¤
à½¦à½Ķ à½ĸ
à¼¨à¼¨ à¼¨
à¼¡à¼¡à¼¢ à¼¡
à½Ħ à½§
à½Ĥà½ĳà½ĵ à½£
à¼¡à¼¡à¼¤ à¼¢
à¾ĳ à½¾à¼ĭ
à½ĵà½¦ à½ĳà½Ĥ
à½¨ à½ħ
à¾Ń à½²à¼į
à¼¨ à¼£à¼¡
à¼¡à¼ł à¼¢à¼¥
à¾ł à½¾à¼į
à½¾à¼ĭà¼ Ī
à¾°à½´ à½¾à¼į
à½łà½ģ à½ĸ
à½ĸà½¤à½ĳ à½ĵ
à¼©à¼ł à¼¡
à½¢ à½Ĥà½¤
à½ĳà½Ħ à½Ĥà½Ł
à½Ĥà½¤ à½£
à½¥ à½Ħ
à¼© à¼¡à¼¨
à¾·à½´ à½¿à¼ĭ
à¼¡à¼© à¼¢à¼¦
à¾¶ à½²à¼į
à¾³à¼· à½¼à¼ĭ
à½Ģ à½«à½¥
à½²à¼į à¼¼
à½Ĵ à½§
à¼¡à¼¡à¼¢ à¼©
à½ĸà½¢ à½ŀ
à½Ķà½¦ à½ł
à¾Łà½ºà¼ĭ à¼¼
à½£à½¦ à½Ĥà½Ħ
à¼¡à¼ł à¼¡à¼¦
à½ĺà½¦ à½ħ
à½ĸà½Ģà½ł à½ĺ
à½łà½Ĩà½ĳ à½Ķà½¢
à½Ķà½¦ à½¢à½Ħ
à¾Ń à½ºà½¿à¼ĭ
à¼¡à¼© à¼¤à¼£
à½ĸ à½īà½ĺà½¦
à¾¡ à½±à½²à¼ĭ
à½ĳà½Ģ à½Ĥ
à¼¡à¼¢ à¼¢à¼¡
à½Ĵ à½ķ
à¼©à¼§ à¼¢
à½ĸ à½ĺà½ļ
à¾Ĳ à¼ĭà¼Ħà¼ħà¼įà¼į
à½ĳà½ĳ à½¢
ĭ à¾Ĺà½º
à½Ģ à½ĵà½ł
à½ī à½ģ
à¼ ĭà¾Ĺà½º
Ġà¼ĭà¼ ĭà¼ĭà¼
à¼¨à¼ł à¼¥
à¼¡à¼¡à¼¨ à¼©
à¼©à¼© à¼¡
à½ľ à½£
à½´ à½¾à¼Ķ
à½ĳà½Ĥ à½ģ
à½²à¼ĭà½Ī à¾±à½º
à½ĺ à½£à½ĺ
à½£ à½ĸà½Ģà½ł
à½Ĥà½¦ à½ĺà½Ľ
à¼¡à¼ł à¼§à¼§
à¼¡à¼¢ à¼¡à¼§
à½¢à½ĸ à½ĸ
à½ĵà½ĺà½¦ à½ĺà½ĵ
à¼¨ à¼¦à¼§
à½Ĥà½Ħ à½ł
à¼¡à¼¦ à¼¡à¼¨
à¼¡à¼¦ à¼¨à¼¢
à½ĥ à½ī
à½Ĥ à½Ĥà½£
à½±à½´ à½¿à¼į
à¼¡à¼¢ à¼£à¼¥
à¼¡à¼¢ à¼¦à¼§
à¼¡à¼© à¼¤à¼¤
à¼¨à¼¨ à¼©
à½ºà¼ĭ à¼ŀ
à½łà½Ĥ à½ħ
à½łà½ĸ à½ĳà½Ĥ
à¾Łà½º à½¿à¼ĭ
à¼¨ à¼¦à¼¦
à¼¡à¼łà¼ł à¼£
à¼¨ à¼¥à¼©
à¼¡à¼¤ à¼¤à¼§
à½¢à½ĸ à½ĳà½Ħ
à½£à½ĺ à½ł
à½ĺà½Ĳà½ł à½£à½¦
à¼¡à¼¡à¼¢ à¼ł
à¼¡à¼¢à¼ł à¼¦
à½£ à½ĸà½¦à½ĺ
à½Ĩ à½ĳà½Ĥ
à¾· à¾²à½±à½´
à½§ à½¨
à¼© à¼¦à¼¥
à¼¡à¼ł à¼¢à¼ł
à¼¡à¼ł à¼¤à¼§
à¼ĭà¾ Ĥ
à¼ĭà¾¢ à¼
à¼ĭà¾¢à¼ ĭ
à½ĳà½Ķ à½£à½Ĥ
à½łà½Ĥà½£ à½ĸ
à¼¡à¼ł à¼¦à¼¡
à¼¡à¼© à¼¢à¼£
à¾Łà½´ à½¾à¼ĭ
à¼¨ à¼¨à¼ł
à¼© à¼¢à¼¡
à¼¡à¼ł à¼¤à¼¡
à¼¡à¼ł à¼¨à¼©
à¼µ à½ºà¼ĭ
à¼¡à¼¡à¼¢ à¼§
à½¢ à½Ķà½£
à½º à½ºà¼įà¼į
à¼© à¼¥à¼¥
Ġ à½ĸà½ĵ
à¼© à¼¢à¼©
à¼¡à¼ł à¼¡à¼¨
à½¦ à½ĳà½Ķ
à¾¦ à¾·à½²à½¿à¼į
à½Ĭ à½ı
à½ĺà½ļà½ĵ à½ĺà½ĺ
à¼· à¼·
à¼©à¼© à¼¦
à¼ĭà¼ĭà¼ Ħà¼ħà¼į
à¾¡ à½¿à¼ĭ
à½ļà½ĳ à½ĺà½¦
à½łà½ļà½£ à½ĵà½¦
à¼© à¼¥à¼§
Ġà¼ł à¼§
à¼©à¼§ à¼£
à¼¡à¼¢à¼ł à¼§
à½ĵ à½Ĥà½£
à½ĵ à½ĸà½£
à½Ĩ à½ļ
à½ĸà½¢ à½¡à½Ħ
à¼¡à¼ł à¼¢à¼¢
à¼¡à¼¡à¼¤ à¼§
à½² à½¾à¼Ķ
à½²à¼ĭ à¼Ŀà¼į
à½£ à½Ĥà½¡
à¾Ĵà¾±à½´à¼ĭ à¼Ħà¼ħ
à½ĳà½Ķà½ł à½ŀ
à¼Ģ à½ŀ
à½±à¾Ģ à½¾à¼ĭ
à½ĺ à½ĺà½Ľ
à½Ķ à½Ģà½ł
à½Ĳà½ĺ à½ħà½ĳ
à½ļ à½ĸà½ł
à¾· à¾²à¼į
Ġà¼¨ à¼¦
à¾µà¾¨ à½±à½²à¼ĭ
à½ĵ à½łà½ķà½Ĥà½¦
à½łà½ĩ à½ĸà½¦
à¼© à¼¥à¼©
à¼¡à¼ł à¼¦à¼¥
à¼¡à¼¡à¼¤ à¼£
à½Ĥà½¦ à½ĺà½Ħ
à½¼à¼ĭ à¼Ħ
à½ĳà½Ķà½£ à½¢
à¼§à¼¥ à¼£
à½Ĥà½Ħ à½¤
à¾« à½´à¼įà¼į
à½¦à½ĺ à½ĸ
à¾µ à¾¨à¼ĭ
à¼¡à¼¢ à¼¡à¼¡
à¼©à¼© à¼¨
à½£ à½Ĳà½ĺà½¦
à½Ħà½Ĥ à½£
à¼§ à¼¦à¼¦
à½£ à½Ķà½ĸ
à½ŀ à½£à½¦
à¼ł à¼¦à¼ł
à¼¨ à¼£à¼ł
à½» à½¾à¼į
à¾Ńà½± à½¾
Ġà¼ł à¼¥
à½ĵ à½ĸà½Łà½Ħ
à½ºà¼ĭ à¼į
à¼¡à¼¡à¼¦ à¼©
à½¼à¼ĭà¼ĳ à¼įà¼įà¼į
à¼¡à¼© à¼¡à¼¨
à¼łà¼ł à¼¢à¼¢
à¼¡à¼¦ à¼¢à¼ł
à¾Ľ à¼Ķ
à½¢ à½ĺà½Ĥ
à¾² à½½
à¼¡à¼© à¼¢à¼©
à½ĳ à½¥
à¼¡à¼¢ à¼¤à¼¤
à¼¡à¼¡ à¼¡à¼©
à¾²à¾Ń à¼įà¼į
à¼¡à¼¢ à¼¤à¼ł
à½Ħ à½ĸà½ĳà½Ĥ
à½ĺ à½łà½ķ
à½Ļà½ĺ à½ŀ
à¼© à¼§à¼¨
à¼łà¼ł à¼¢à¼¡
à½¤ à½Ĳ
à½ĳà½Ķ à½Ĩ
à¼¡à¼¢ à¼¡à¼ł
à¼¡à¼¢ à¼¤à¼¡
à¾·à¾² à½±à½´à¼ĭ
à½Ķà½¢ à½ģ
à¾· à½»à½¾à¼ĭ
à½¨ à½ĵà½ĳ
à½ĸà½Ľ à½ĳ
à¼ĭà¼Ĳ à¼Ĳ
à½ĸà½ĳà½Ĥ à½Ķ
à¾« à½±à½²à¼ĭ
à½ĺà½ĳ à½£
à½ĺà½īà½ĺ à½Ķà½ł
à¼© à¼¤à¼©
à¼¨ à¼¤à¼¦
à¾¤à¾±à½² à¼įà¼įà¼įà¼į
à¼Ħà¼ħà¼įà¼į à¼į
à¼¡à¼ł à¼¢à¼¨
à¼¡à¼¤ à¼łà¼ł
à¼Ģ à½Ļ
à½£ à½ĸà½Ł
à½Ĥà½Ħ à½ĸ
à¾°à½´ à½¾
Ġ ĉ
à½£à½¦ à½ĸà½¢
à½´à¼į à¼ĭà¼ĭà¼ĭà¼ĭà¼ĭ
à¼¨ à¼¦à¼¥
à½Į à½ĳ
à½¨ à½ĺà½ł
à½¿ à¼ĭà¼´
à¼¡à¼¢ à¼¢à¼£
à½Ķ à½Ĥà½ĳ
à¼© à¼¡à¼¥
à¼¨ à¼£à¼§
à¼¡à¼ł à¼¥à¼¤
à¼¡à¼ł à¼¦à¼¢
à¼¡à¼¢ à¼§à¼¦
à¼¡à¼£ à¼¢à¼¢
à¼¡à¼łà¼ł à¼¦
à½²à¼Ķ à¼
à¼¡à¼¡à¼© à¼£
à½ĺà½Ĳà½ł à½ĳà½Ħ
à¼¨ à¼¦à¼¡
à¼įà¼ĭà¼ ĭà¼ĭà¼ĭà¼ĭà¼ĭà¼ĭà¼ĭà¼ĭà¼ĭà¼ĭ
à½¦à½Ķ à½ĺ
Ġ à½Ĥà½ĵà½ĳ
à½ĸà½¢ à½ĳà½Ĥ
à¼¨ à¼¢à¼ł
à¼¨à¼ł à¼¡
à¾¡à¾· à¼įà¼į
à½¢ à½Ĥà½£
à½²à¼į à¼Ī
ĭà¼ ¼
à¼ĭà¼ µ
Ġà¼ł à¼¦
Ġ à½Ĥà½ıà½ĺ
à½Ĥà½¦ à½ĺà½ļà½ĺà½¦
à½Ĩà½Ĥ à½ĳà½Ģà½¢
à½ĸ à½Ĥà½¡
à½Ĳ à½ĵà½¢
à¾· à½ºà¼Ķ
à¾µ à¾Ģà¼ĭ
à¼©à¼© à¼¤
à½Ħ à½ĳà½ĸ
à½Ħ à½Ĥà½ĳ
à½ĳà½Ħ à½Ģ
à¼©à¼¨ à¼§
à¼¨ à¼¥à¼¥
à¼¡à¼£à¼ł à¼©
à¾Ĵà¾±à½´à¼ĭ à¼¼
à½Ĭ à½§
à¼łà¼ł à¼§
à½ºà¼ĭà¼ĳ à¼ĳà¼ĭ
à¾ĭ à½ŀ
à½¡ à½łà½ĺ
à¼© à¼¦à¼¡
à¼¡à¼ł à¼¤à¼¥
à¼¡à¼¢ à¼¥à¼¥
à½ĵ à½Ŀ
à½º à½²
à½´à¼ĭ à¼Ħ
à½ģ à½ĵà½¦
à¾¨ à¾²à½¼à¼ĭ
à¼Ķ à¼Ī
à¼¡à¼¤à¼ł à¼¥
à¾± à½´à¼µ
à½ģ à½ĳà½Ĥ
à½ĸà½ł à½Ĳ
à½łà½ Ĭ
à½¡à½¦ à½¦
à¼¨ à¼£à¼¢
à¼¡à¼łà¼ł à¼©
à½ĺ à½ĺà½īà½ĺ
à¾¨ à¾¨
à½ĳà½Ķ à½ĸ
à¼© à¼¥à¼¨
à¼ĭà½Ī à¾±à½ºà¼ĭ
à½ł à½Ķà½¢
à½ļà½ĳ à½ĵ
à½Ĥà½Ķ à½Ĥ
à½¢ à½£à½Ĥ
à½ĳà½ĳ à½Ķà½¦
à¼¡à¼¡à¼ł à¼£
à¼¡à¼¡à¼§ à¼©
à½ĵ à½ĸà½Łà½ł
à¾Ł à½¾à¼Ķ
à½ĺà½¦ à½łà½ĳ
à½ĳà½ĺ à½Ķà½¢
à¼¡à¼ł à¼¥à¼¥
à½Ĥ à½łà½ķ
à½ģ à½§
à½ĵ à½Ļà½ĺ
à½£ à½łà½Ľ
à½£à½¦ à½ī
à¾¨ à¾¼à¾»
à½¾à¼į à¼
à½ļ à½¡
à¼łà¼ł à¼¢à¼£
à½½ à½¿à¼ĭ
à¼¡à¼£ à¼¦à¼¡
à½²à¼Ķà¼ ĭ
à½Ĥ à½ĳà½ĸà½Ħ
à¾£ à¼Ķ
à¾³à½´à¼ĭ à¼Ħà¼ħà¼įà¼į
à¼¡à¼£ à¼£à¼©
à½¼à¼µ à¼įà¼į
Ħà¼Ħ à¼įà¼į
à½Ĥà½¦ à½ĳà½ĺ
à½ĳà½ĸ à½ħà½¦
à¼¨ à¼¥à¼ł
à¼įà¼įà¼įà¼į à¼įà¼įà¼įà¼į
à¼¨à¼ł à¼£
à½ĳ à½Ľ
à¾² à¾±à¼ĭ
à½Łà½Ĥ à½Ķ
à¾¶ à½¾à¼į
à½łà½ĳ à½łà½ĸà½¢
à¾Ĳ à¼įà¼įà¼į
à½ļà½ĳ à½ĳ
à¼¡à¼¢ à¼¨à¼¤
à¾ļ à¾Ńà½±à¼ĭ
à¼¡à¼ł à¼£à¼¦
à¼¡à¼§ à¼¢à¼§
à¼¡à¼¢ à¼¦à¼¨
à¾» à½±
Ġ à½ĳà½Ķà½Ĥ
à½Ħ à½Ļ
à½Ķà½¢ à½ĸà½ŀà½Ĥ
à½Ĥà½ħ à½ł
à½¦à½ĺà½¦ à½ħà½ĵ
à½¦ à½¥
à½ĳà½Ĥ à½ĸà½ł
à¾Łà½´ à½¾à¼į
à¼¥ à¼łà¼łà¼ł
à¼¡à¼ł à¼¢à¼£
à¼¡à¼ł à¼§à¼¤
à½ĸ à½£à½ĺ
à½ĸà½¦ à½ĺà½Ĩ
à¼¡à¼¢ à¼£à¼ł
à¼¡à¼© à¼¢à¼¨
à½ĳà½ĸ à½Ł
à¼© à¼¡à¼¤
Ġà¼Ī à¼įà¼į
à¼¡à¼¢ à¼¨à¼©
à½¢ à½Ķà½ĳ
à½łà½Ĳ à½Ħ
à¼¡à¼£ à¼¨à¼¥
à½²à¼ĭà¼ŀ à¼į
à½¾à¼įà¼ ĭ
à¼ ľ
à½Ļ à½ĺà½¦
à¼© à¼£à¼§
à¼¡à¼¤à¼ł à¼¢
à½ĵ à½łà½ķ
à¼ł à¼¤à¼ł
à½¥ à½ĺ
à¼¡à¼ł à¼¢à¼©
à¼¡à¼ł à¼£à¼¥
à½Ĥ à½ĳà½Ģ
à½ģ à½¨
à½¥ à½ĸ
à¼¡à¼¢ à¼¦à¼¥
à½¼à¼įà¼ Ħà¼ħ
à½ĳà½ĳ à½ĵ
à¼¡à¼¡à¼¦ à¼¡
à¼¡à¼¡à¼© à¼¢
à¾Ĵà¾±à¼ĭà¼ ĳ
à½¦ à½łà½ķ
à½¢ à½łà½ķ
à½¤ à½Ķà½ł
à¾³ à½¼à¼Ķ
à½Ĥà½ĵà½¦ à½ŀ
à¾Łà½ºà¼į à¼Ħà¼ħà¼įà¼į
à½ĺà½ģà½ĵ à½Ķ
à¼¡à¼ł à¼¢à¼¡
à¼¡à¼© à¼łà¼ł
à½ĵà½Ķ à½Ĩ
à¼¡à¼¡à¼¤ à¼¤
à½ĸà½Ģ à½łà½Ĥ
à¼Ķ à¼ĭà¼ĭà¼ĭ
à¼¨ à¼¥à¼¡
à½© à½ĵ
à¼¡à¼¡à¼¢ à¼¢
à½£ à½ĺà½Ľ
à½£ à½Ĥà½¦à½Ħ
à½¨ à½Ħà½¦
à¼¨ à¼£à¼£
à¼¡à¼ł à¼¦à¼¤
à¾Ľ à½¾à¼ĭ
à¼¨à¼¨ à¼¢
à½Ĥà½¦ à½¦à½ĺ
à¼¡à¼£ à¼¥à¼¤
à½ĺ à½łà½Ľ
à¾Ĳ à¾±à¼·à½ºà¼ĭ
à½Ĳà½ĸà½¦ à½¦
à¾¦à¾· à½²à¼į
à½¡ à½Ķà½ł
à½§ à½¡
à¼¢à¼ł à¼¢à¼ł
à¾ħ à¾ħ
à¼©à¼ł à¼£
à¼¡à¼¡à¼¢ à¼¦
à½Ķ à½Ĥà½¦à½£
à½¤ à½łà½Ħ
à½ĵà½¦ à½łà½ĸ
à½Ĥà½Ħ à½¢
à½´à¼į à¼ĭà¼ĭà¼ĭà¼ĭà¼ĭà¼ĭà¼ĭà¼ĭà¼ĭà¼ĭà¼ĭà¼ĭà¼ĭà¼ĭà¼ĭà¼ĭà¼ĭà¼ĭà¼ĭà¼ĭà¼ĭà¼ĭà¼ĭà¼ĭà¼ĭà¼ĭà¼ĭà¼ĭà¼ĭà¼ĭà¼ĭà¼ĭà¼ĭà¼
à¼¨ à¼£à¼¨
à¼¡à¼¡à¼¥ à¼£
à¼¡ à¼¡à¼©à¼¨
à¼¡à¼¤ à¼¡à¼§
à½ĸ à½ĺà½ĵ
à½£ à½ĳà½Ķ
à½ĸà½Ļ à½¢
à¾ļ à¾²à¾Ģà¼ĭ
à½Ĥ à½ĺà½ĵ
à¾Ķ à½´à¼įà¼į
à½ĸà½Ł à½łà½ĸ
à½¡à½¦ à½ĺ
Ġà¼ĭà¼ İ
à½ħà½ĳà½ĺ à½īà½ĺ
à¾¨ à¼ĭà¼´
à½ĸà½¤ à½ĳà½ĺ
à½£à½ĺ à½ĳà½Ħ
à½ĺà½ĵ à½Ħà½¦
à¼¨ à¼¦à¼¤
à¼¡à¼£ à¼§à¼¦
à½Ħ à½Ĥà½¡
à¼¡à¼¤ à¼¡à¼¨
à¼¨à¼© à¼¡
à¾¦à¾² à½¾à¼ĭ
à¼¡à¼¡à¼ł à¼¢
à¾Ń à½¾
à½ĺà½¢ à½¦
à¼¨ à¼¤à¼©
à¼¨ à¼¤à¼£
à¾²à½±à½² à½¾à¼į
à½ĺà½¦à½ħà½ĵ à½¢
à¼įà¼ĭà¼ ĭà¼ĭà¼ĭà¼ĭà¼ĭà¼ĭà¼ĭà¼ĭà¼ĭà¼ĭà¼ĭà¼ĭà¼ĭà¼ĭà¼ĭà¼ĭ
à½ĥ à½İ
à¼©à¼§ à¼¡
ĭ à¾³
à½ĳà½Ħ à½ĸà½¢
à¼ ĭà¾³
à¼¨ à¼£à¼¥
Ġà¼¨ à¼¢
à½Ħ à½¢à½ĸ
à½Ĳ à½ŀ
à½ĳà½Ĥ à½Ļ
à¾Ļ à½¾à¼į
à¼© à¼¤à¼¥
à¼¡à¼ł à¼£à¼ł
à¼¡à¼£ à¼©à¼¢
à¼¡à¼¡à¼¢ à¼¤
à½ī à½ĸà½¢
à¼© à¼£à¼©
à¼¡à¼¡à¼¤ à¼¡
à½Ĭ à½Ļ
à¼¡à¼¢ à¼¢à¼©
à¼¡à¼¢ à¼§à¼ł
à¼©à¼¨ à¼¥
à¾² à½½à½¾à¼ĭ
à½Ķà½ĺ à½ĺà½Ĩ
à¼¨ à¼¥à¼§
à¼¨ à¼¥à¼¦
à¼¡à¼¢ à¼¡à¼¤
à¼¡à¼¢ à¼¤à¼§
à¼¡à¼¢ à¼©à¼©
à¼Ħà¼ħ à¼ħà¼į
à½Ĳ à½ĺà½ĺ
à½łà½ĸà½¢ à½ĸà½ł
à¼¡à¼§ à¼¢à¼¨
à¼¡à¼£ à¼¢à¼¦
à¾¡à¾·à½ºà¼ĭ à¼´
à½ĳ à½ĳà½Ķà½£
à¾±à½ºà¼ĭ à¼Ħà¼ħà¼įà¼į
à¼¡à¼© à¼¢à¼¥
à¼¡à¼¤ à¼£à¼©
à½ĳ à½ĵà½Ĥ
à½ĸà½¢ à½¡
à¼¡à¼ł à¼§à¼¦
à¾¤à¾² à½ºà¼į
à¼¡à¼¢ à¼¤à¼£
à¼¡à¼¦ à¼łà¼ł
à¼©à¼¨ à¼¢
à¾² à¾±
à½łà½Ĳ à½ĳà½ĳ
à½ĵ à½Ĩà½Ĥà½¦
à½Ķà½¢ à½Ķ
à¼¨ à¼¦à¼¨
à½ĸà½ĸ à½ĸà½¦
à¼¡à¼§ à¼łà¼ł
à¼¡à¼¢ à¼¢à¼¨
à½Ĳà½ĸà½¦ à½£
à¾Łà½² à½¾à¼į
à¼¡à¼£ à¼¦à¼£
à¼įà¼ĭà¼ ĭà¼ĭà¼ĭà¼ĭà¼ĭà¼ĭà¼ĭà¼ĭà¼ĭ
à¼¡à¼¡à¼¤ à¼©
à½ĸ à½ĸà½Ł
à¼¡à¼¢ à¼¦à¼¡
à¼¡à¼¡à¼¦ à¼¢
à¼¡à¼¤à¼ł à¼¨
à½¼ à½¼à¼įà¼į
à½ĵ à½£à½Ĥ
à½Ķà½¢ à½¢à½ĸ
à¾Ĺ à½ºà¼·à¼ĭ
à½Ļ à½Ĳ
à¼¡à¼¥ à¼¡à¼¥
à½¦ à½Ĥà½ĵ
à¼¡à¼ł à¼¦à¼ł
à¼¡à¼ł à¼¥à¼©
Ġà¼ĭà¼ ĭà¼ĭà¼ĭà¼ĭà¼ĭà¼ĭà¼ĭà¼ĭà¼ĭà¼ĭà¼ĭà¼ĭà¼ĭà¼ĭà¼ĭ
à¾Ľ à½±à½²à¼ĭ
à¾±à½´ à½¿à¼ĭ
à¼¡à¼£ à¼£à¼£
Ġ à½ĸà½¦à½Ħ
à½ł à½ĺà½Ĩ
à¼¡à¼ł à¼©à¼§
à¼¡à¼¢ à¼©à¼¥
à¼¡à¼© à¼£à¼¡
à¼¡à¼¢ à¼©à¼¤
Ġà¼¨ à¼¤
à½Łà½Ĳ à½«
Ġ à½łà½ļà½£
à½ĸà½ħà½¦ à½£
à½ĵà½ĺ à½ī
à¼© à¼¡à¼©
à¼¡à¼łà¼ł à¼§
à¾³ à½¾à¼ĭ
à¼łà¼ł à¼¦
à½ĺ à½ĺà½¢
à½ĸà½¤à½ĳ à½¦
à½ĵà½ĺ à½ĺà½ģ
Ġà¼Ī à¼
à¼¡à¼£ à¼¢à¼£
à½¦ à½Ĥà½ı
à½ĳ à½łà½ķ
à¼¡à¼¡à¼¤ à¼¥
à½Ŀ à½ŀ
à¾łà½² à¾Ģà¼Ķ
à½ł à½łà½ĩ
à½Ģ à½ĺà½£
à¾· à¾Ńà¼į
à¼© à¼¦à¼¨
à¼¡à¼¢ à¼¡à¼¥
à¼¡à¼¢ à¼£à¼©
à¼¡à¼łà¼ł à¼¥
à¼¡à¼¡à¼ł à¼¡
à¼¡à¼¡à¼¦ à¼§
à¼ĭà¼ĭà¼ ¼
à½ºà¼ĭ à¼Ħ
à½ĳà½Ĥ à½ĸà½¦
à½ĸà½Ĥ à½Ļ
à¼¡à¼¢ à¼©à¼§
à¾Łà½± à½¾
à¼¡à¼¡à¼¥ à¼©
Ġà¼Īà¼ ĭ
à½²à¼ĭ à¼ĭà¼į
à½Ĥà½¦ à½Ł
à¾Ł à½´à¼Ķ
à½¿ à¼ĭà¼Ħà¼ħà¼įà¼į
à½ıà½ĵ à½Ĥ
à¾ľ à½¾à¼ĭ
à¼¡à¼¢ à¼§à¼©
à¼¡à¼£ à¼¢à¼¤
à½Ĥà½¦ à½Ģà½ł
à½ı à½ĺà½¦
à½¢à½Ħ à½¢à½Ħ
à½¢à½ĸ à½Ĩ
Ġ à½łà½ĸà½¢
à¾Ĳ à¾Ĳà¼ĭ
à¼¡à¼ł à¼¤à¼£
à½¦ à½Ģà½ł
à½ĺ à½ĺà½ļà½ĵ
à¼¨ à¼¦à¼£
à¼įà¼ĭà¼ ĭà¼ĭà¼ĭà¼ĭà¼ĭà¼ĭà¼ĭà¼ĭà¼ĭà¼ĭà¼ĭà¼ĭà¼ĭ
Ġ à½Łà½Ħà½¦
à¾© à½´à¼į
à½ĸà½¦à½ĺ à½£
à¼¨ à¼¤à¼¤
à¼¡à¼ł à¼§à¼¥
à¼¡à¼¡à¼ł à¼¨
à½Ĥ à½Ĩà½ĳ
à½ĺ à½łà½ĩ
à½ħà½ĳ à½Ĩ
à½ĸà½¤ à½Ĳ
à¼¡à¼ł à¼¡à¼©
à¼¡à¼¢ à¼¥à¼ł
à¼¡à¼¡à¼ł à¼¦
à½¼à¼įà¼į à¼Ħà¼ħà¼ħà¼įà¼į
à½ĩ à½ĸ
à¼© à¼£à¼¥
à¼Įà¼Įà¼Įà¼Įà¼Įà¼Įà¼Įà¼Į à¼Įà¼Įà¼Įà¼Į
à¼¡à¼¢ à¼§à¼¢
à¾¦à¾² à¾Ģà¼ĭ
à¼¡à¼© à¼¢à¼¡
à¼Ģ à½¨à½Ĥ
à½ĸ à½ĺà½Ĥ
à½£ à½£à½ĵ
à½Ĩ à½Į
à½ļ à½ĳà½Ĥ
à½Ķà½¢ à½ĳà½Ģà½ł
à¾Ĳ à¼·
à¾¦ à¾²à½¼à¼ĭ
à¾ł à¼įà¼į
Ġ à½Łà½ĳ
à½Ķ à½ĸà½Ł
à¼¨ à¼£à¼©
à½¢ à½Ĥà½ĳ
à½¡ à½ĳà½Ĥ
à½ħ à½ı
à¾¡ à½±à¼į
à¼© à¼¢à¼§
à¼© à¼§à¼©
à¼¡à¼¡à¼§ à¼¡
à½ĸ à½ĸà½¤à½ĳ
à½Ħ à½ĺà½ĳ
à½Ĥà½ŀ à½ŀ
à¼© à¼£à¼£
à¼¡à¼ł à¼¤à¼©
à¼¡à¼ł à¼£à¼¡
à½ĵà½ĺ à½£
à¾¦ à¾·à¾±à½¿à¼į
à¼¡à¼ł à¼¦à¼§
à¼¡à¼£à¼ł à¼¨
à½£ à½Ļà½ĵ
à½łà½ĳ à½Ģ
à½ĳà½ĺ à½ĺ
à½ĺà½¦ à½¦à½ĺ
à½Ķà½¦ à½Ķà½¦
à¼© à¼¦à¼£
à¼ĳ à¼ĳ
à¼¡à¼§ à¼¢à¼ł
à¼¡à¼¢ à¼¢à¼¤
Ġà¼© à¼¨
à½ĸà½¦ à½ķ
à¼© à¼¥à¼¦
à½ĺ à½Ĥà½Ł
à½Ķà½¢ à½ĸà½ŀ
à½¼à¼įà¼į à¼ĭà¼ĭ
à½Ĩà½Ĥà½¦ à½¢
à¼¡à¼¢ à¼¡à¼©
à¼¡à¼¢ à¼¥à¼¢
à¼¡à¼£ à¼©à¼¡
à¾ŀ à¾ŀà¼į
à¼¢à¼¥ à¼łà¼ł
à¼¨à¼¨ à¼¦
Ġ à½£à½Ĥà½¦
à½¡ à½¦à½¢
à¾±à½²à¼ĭ à½¼
à½ı à½Ĩ
à½ĺà½ī à½¦
à¼¡à¼¢ à¼§à¼£
à¼¡à¼¡à¼§ à¼§
à½¡ à½ĸà½¢
à½¡ à½Ŀ
Ġ à½ĸà½ıà½Ħ
à½ĳ à½§à½ł
à½ĵ à½ĸà½Ł
à½ŀ à½Ģ
à½Ħà½¦ à½¡
à¼© à¼¥à¼ł
à¼© à¼¤à¼§
à¼¡à¼£ à¼¤à¼¢
à½¦ à½ĵà½ĵ
à¼¡à¼ł à¼¨à¼ł
à¼¡à¼¤ à¼¡à¼£
à½Ĵ à½Ŀ
à½Ĺ à½§
à¼©à¼ł à¼¨
à½±à¼ĭà¼ Ĳ
à¼¡à¼¡à¼ł à¼¤
à½Ģ à½ģ
à¾²à½² à½¿à¼į
à¼© à¼¥à¼¢
à¼¡à¼£ à¼§à¼¥
à¾Ĵ à¾²à¼·à¼ĭ
à½ĸà½ĳà½Ĥ à½ĳà½Ħ
à¾¦à¾± à½¼à¼įà¼į
à¼© à¼§à¼§
à¼¡à¼¢ à¼£à¼£
à¼¡à¼¢ à¼¦à¼¤
à¼¡à¼£ à¼¦à¼ł
à¾²à½± à¾ĥà¼į
à¾¾ à¼įà¼į
à¼¡à¼¡à¼§ à¼ł
ĭ à½±à½´à¾ĥà¼ĭ
à½Ĥ à½Ķà½ĳ
à½ĺ à½Ķà½£
à½Ķ à½ĸà½¦à½ĺ
à¾Ł à½½à¼į
à¼ ĭà½±à½´à¾ĥà¼ĭ
à½¢à½Ħ à½ĸ
à¼¡à¼¡à¼£ à¼ł
Ġ à½łà½Ĩà½ĳ
à¾±à¼ĭ à½²à¼ĭ
à¾©à¼ ·à¼ĭ
à¼¡à¼¢ à¼§à¼¡
Ġà¼© à¼¢
à¼¡à¼¡à¼¢ à¼¥
à¼¡à¼¡à¼¥ à¼ł
à½ĳ à½ĸà½¦à½ĺ
à½£ à½łà½ķ
à½£à½¦ à½¢à½Ħ
à¾¨ à¾²à¼Ķ
à½±à½´ à½¿à¼ĭ
à¼© à¼¦à¼¢
à¼¡à¼¢ à¼¤à¼¦
à¼¡à¼© à¼¡à¼§
à¼¡à¼£ à¼¦à¼¨
à¼©à¼ł à¼¢
à½¤ à½ĳà½Ħ
à½¡à½Ħ à½ł
à½ĳà½Ķ à½ī
à¾Ĳà½´à¼ĭ à¼İ
à¾¤à¾±à½²à¼ĭ à¼Ħà¼ħà¼įà¼į
à¼¨ à¼§à¼§
à¼¨ à¼¦à¼¢
à¾µ à¼ĭà¼Ħà¼ħà¼įà¼į
à¼¡à¼¤ à¼¤à¼¥
à¼Ģ à½ĳà½Ģà½¢
à¼¡à¼¡à¼¤ à¼¦
à½łà½Ļ à½£à½ĳ
à½£à½¦ à½Ķ
à¼© à¼¢à¼¤
à¼¡à¼§ à¼¥à¼§
à¾ļ à½²à¼įà¼į
à¼¡à¼¡à¼£ à¼¢
à¼¡à¼¡à¼¨ à¼ł
à¾Ħà¼ ·
à½¢ à½ĳà½ĸà½Ħ
à½Ķà½¢ à½ķ
à½Ľ à½¡à½ĵ
à½Ĵ à½ĳà½Ħ
à¼¡à¼¡à¼¤ à¼ł
à¼¡à¼¢ à¼©à¼¦
à¼¡à¼¢ à¼¨à¼¦
à¼¡à¼£ à¼¤à¼¥
à¼¡à¼©à¼ł à¼¦
à½Ļ à½Ĭ
à¼© à¼¥à¼¡
à¼¡à¼¢ à¼§à¼¥
à¼¡à¼© à¼¡à¼¥
à½¼ à½¼à¼į
à½¢ à½Ķà½Ĥ
à½Ĩ à½ŀ
à½ĸà½Ģ à½ĸà½¦
à¼© à¼¢à¼¥
à½¾à¼į à¼Ħà¼ħà¼įà¼į
à¼¡à¼¡à¼¥ à¼¨
à¼ĭà¾§ à¾±à½±à½¾à¼į
à½±à½¿ à¼ĭà¼½
à½¡à½Ħ à½Ĥà½ŀà½ĵ
à¾Łà½´ à½¿à¼ĭ
à¼¡à¼¡à¼§ à¼¢
à½ĳ à½ĵà½ł
à½ĺà½¢ à½ĳ
à¼¡à¼¢ à¼©à¼£
à¾± à½½à¼ĭ
à¾¤ à¼įà¼į
à¼¨ à¼¤à¼ł
à¼¡à¼ł à¼£à¼©
à¼¡à¼ł à¼§à¼¢
à¼¡à¼¢à¼ł à¼£
Ġ à½¦à½ĺ
à½² à½¿à¼Ķ
à½Ĥ à½ĸà½Ģ
à½º à½¾à¼Ķ
à½łà½Ħ à½ĺ
à¼¡à¼§ à¼©à¼¢
à¼¡à¼¢ à¼¡à¼¨
à½Ĩ à½ĳà½Ķ
à½Ķà½¢ à½ĸà½£
à¾Ľ à½¾à¼į
à½ĺà½Ľ à½¦
à½Ħà½ĵ à½ĳ
à½Ĳà½£ à½ĸ
à¼¡à¼¢ à¼¢à¼¦
à¼¡à¼£ à¼£à¼¤
à¼¡à¼¡à¼© à¼§
à½Ħà½¦ à½ħà½ĵ
à½ĸà½ŀ à½ŀ
à½ĺà½Ľà½ĳ à½¦
à½łà½ļà½£ à½ĳ
à¾ľ à½¾à¼į
à½Ĳ à½Ĥà½ı
à¾Ĺ à½´à¼ĭ
à¾Ĺ à¼·à½ºà¼ĭ
à¾© à½¼à¼įà¼į
à¼¡à¼£ à¼¨à¼©
à¼¨à¼¨ à¼¥
à¼¡à¼¡à¼£ à¼¡
à¼¡à¼©à¼ł à¼§
à½ģ à½Łà½¦
à½Ļ à½§
à¼¡à¼ł à¼¦à¼©
à¼¡à¼¢ à¼¦à¼©
à½Ĩ à½Ĥà½ī
à¼¡à¼¤ à¼¢à¼¨
à¼©à¼¨ à¼¨
à¾·à¼ĭà¼ ½
à½Ħ à½ĵà½Ħ
à½Ł à½ķà½¡
à¼łà¼ł à¼¢à¼¦
à¾» à¼įà¼į
à½łà½ĸ à½ħ
à½ĺà½ļà½ĵ à½ĳà½Ħ
à½İ à½¡
à½Ŀ à½Ĭ
à¼¡à¼¢ à¼¨à¼¥
à¼¡à¼¢à¼ł à¼¢
à¾Ł à¾Ĺà½¼
à¼¡à¼£ à¼§à¼£
à¾·à¼ĭà¼ ¼
à¾¡ à¾±à½²à¼ĭ
à½ĸà½Łà½Ħ à½ĺ
à½Ĩ à½Ĥà½¦à½£
à½Ħà½¦ à½łà½ĳ
à¼¡à¼ł à¼©à¼¢
à¼¡à¼¢ à¼¦à¼£
à½ĸà½ĵ à½ĸà½¦
à¼¡à¼£ à¼¢à¼ł
à¼¨à¼¨ à¼¤
à¾±à¼ĭà¼ĳ à¼į
à¼¡à¼¤à¼ł à¼¤
à½ĺà½¦ à½ĺà½Ĳ
à½ħà½ĵ à½ģ
à½İ à½§
à¼¡à¼£ à¼¢à¼§
à¼¡à¼¤ à¼§à¼¤
à½Ļà½İ à½ł
à¾Ķ à¾·à½²à¼ĭ
à½ĸà½ı à½ĺ
à½łà½ķà½Ĥà½¦ à½ĺ
à¼ĭà¾¢ à½´à¼ĭ
à¼¨à¼© à¼¦
à½Ħ à½Ķà½Ĥ
à½Ķ à½ĸà½Ģ
à½ķ à½ŀà½Ħ
à¼© à¼¥à¼£
à¼¡à¼¤ à¼¥à¼¡
à½´à¼ĭà¼ ĭ
à½¨ à½Ķà½¢
à¾·à¼ĭ à½²
à¾Łà½ºà¼ĭ à¼½
à¼© à¼¦à¼§
à½ĳà½ħ à½¦
à¼¡à¼¡à¼¨ à¼§
à½ĳ à½ĺà½Ĳà½ł
à½ĸà½¢ à½ĸà½¢
à½Ĥà½Ļ à½ĸ
à½ĵà½ł à½¦
à¼¡à¼¢ à¼¥à¼¦
à½ł à½Ķà½ł
à½Ĥà½¦ à½ħ
à¼© à¼¢à¼¦
à¼¡à¼¢ à¼£à¼¢
à¼¡à¼£ à¼¤à¼¡
à½Ģ à½ĳà½Ħ
à½Ł à½ĳà½Ģ
à¾· à½ºà¼įà¼į
à¼¡à¼¢ à¼¦à¼¦
à¼¡à¼¤ à¼¢à¼©
à½Ĥà½Ŀ à½Ĥ
à½ĸ à½ļà½ĳ
à½Ĩ à½Ĳ
à½ī à½ĵà½¦
à½Ļà½ĺ à½£
à¼¡à¼ł à¼§à¼ł
à½łà½Ľà½ĺ à½ĸ
à¼¡à¼łà¼ł à¼¨
à½Ķ à½ĺà½Ĥ
à½Ķà½¢ à½Ĥà½Ł
à½Ķà½ĳ à½¦
à¼¡à¼£ à¼¡à¼¥
à¼¡à¼¤ à¼¤à¼¤
Ġà¼© à¼¥
à½ħ à½ĳà½Ķ
à½Ĥà½ĳ à½ĵà½¦
à½ĸà½Ĥ à½ĵ
à¼¨ à¼£à¼¤
à¾ľ à¾·à¾±à¼ĭ
à¼¡à¼£ à¼¥à¼ł
à¼¡à¼¤ à¼¡à¼¡
à¾ł à½¼à¼ĭ
à¼¨à¼© à¼¢
à¼¡à¼¡à¼ł à¼¥
à¼¡à¼¡à¼¦ à¼ł
à½ĳà½Ķà½ł à½Ĳà½ĺà½¦
à½ĸà½ĺ à½Ķ
à¼¡à¼ł à¼¥à¼¦
à¼¡à¼¢ à¼£à¼§
à¼¡à¼¢ à¼£à¼¡
à¼¡à¼£ à¼¢à¼¡
à¼¡à¼£ à¼¦à¼©
à¼ĭà¼Ŀ à¼Ŀà¼Ŀ
à½¦ à½ĺà½ļà½ĺà½¦
à½ĸ à½ĺà½Ľ
à½º à½²à¼ĭ
à½ĺ à½Ĥà½ŀà½ĵ
à½Ĩà½Ĥà½¦ à½Ģ
à¼¡à¼¢ à¼©à¼¨
à¼¡à¼£ à¼¤à¼§
à¼¨à¼© à¼¥
Ġ à½ĸà½ı
à½ĺ à½ĳà½ĸà½Ħ
à¼¨à¼¨ à¼§
à¼¡à¼¡à¼£ à¼©
à½Ĥ à½Ĥà½ĺ
à½ı à½ĵà½¦
à½Ĩà½Ĥ à½ĸ
à¼łà¼łà¼łà¼ł à¼łà¼łà¼łà¼łà¼ł
Ġ à½ĺà½ĳà½ł
à½ĸ à½Ĥà½¤
à½¢ à½ĸà½ħà½¦
à¾Ł à¾¤à½º
à½ĳà½Ħ à½Ĥà½ī
à½Ĩà½Ĥà½¦ à½ĵ
à¼¡à¼¢ à¼¤à¼©
Ġ à½Ħà½Ħ
à½ĵ à½ĺà½ģà½¢
à½¤ à½¥
à¾³ à½¼à¼·à¼ĭ
à¾³à¼ĭ à½±à¼ĭ
à½ĳà½Ĥà½ł à½ĺà½Ĥ
à¼¨ à¼¥à¼¢
à½ĳ à½ĳà½Ģà½ł
à½Ħ à½Ĥà½ı
à½Ĳ à½ħà½ĳ
à½ĳà½Ĥ à½ļ
à½¾à¼įà¼į à¼Ħà¼ħà¼įà¼į
à¼¡à¼¡à¼¦ à¼¦
à½§à½§à½§à½§à½§à½§à½§à½§ à½§à½§à½§à½§à½§à½§à½§à½§
Ġ à½¢à½¦
à½Ķ à½ĺà½ģ
à½ļ à½ĳà½ĺà½ł
à¾²à½²à¼ĭ à¼´
à¼¨ à¼¥à¼¤
à¼¡à¼ł à¼¨à¼¤
à¼¡à¼¢ à¼¦à¼¢
à¼¨à¼¨ à¼¡
à½Ĩ à½Ĥà½ĳ
à½¤ à½ª
à½Ħà½¦ à½ģ
à¾Ķ à¾·
à¾Ģ à½¿à¼ĭ
à½ķà½Ĭ à½Ģ
à½ĸà½¦à½ĳ à½ĵà½ĺà½¦
à¼¡à¼¡à¼§ à¼£
à½Ĺà½ı à½Ł
à¾¡ à¾±à¼ĭ
à½¤à½¦ à½Ĩ
à½ĸ à½Į
à½Ħ à½ĳà½ĺ
à½£ à½ĺà½Ľà½ĳ
à½Ľ à½ī
à½Ŀ à½Ŀ
à½¦ à½£à½ĵ
à½¢ à½ĳà½Ģ
à½Ļ à½¤
à¼© à¼¡à¼¦
à¼Į à¼į
à¾® à½²
à½ĵ à½ĸà½Ĥ
à½ĵà½Ĥ à½¢
à¼¨ à¼§à¼©
à¼¡à¼¤ à¼¥à¼ł
à¼¡à¼¤ à¼¤à¼©
à½ĥ à½¢
à½¦ à½ĳà½ĳ
à½ĳ à½ħà½Ĥ
à¼¡à¼¤ à¼¤à¼ł
à¼¡à¼¡à¼¤ à¼¨
à¼¡à¼¡à¼¦ à¼¤
à¼¡à¼£à¼ł à¼¡
Ġ à½ĳà½ĸà½£
à¼¤ à¼łà¼łà¼ł
à¼¡à¼£ à¼£à¼§
à½Ĥ à½Ĳà½ĺà½¦
à¼¡à¼¥ à¼¢à¼§
à½ĺà½ĺ à½§
Ġ à½Ģà½ĵ
à½Ħ à½ĸà½Ħ
à½ĵà½Ĥ à½Ķ
à¼© à¼¢à¼¨
à¼¡à¼¢ à¼£à¼¦
à¼¡à¼£ à¼£à¼ł
à¼¡à¼¤ à¼¤à¼¦
Ġà¼© à¼§
à½Ħ à½¤à½ĳ
à½ħà½ĵ à½Ģ
à½Ĥà½ŀà½ĵ à½£à½¦
à½łà½Ĳ à½ĵ
à¼© à¼£à¼ł
à¼¨ à¼¤à¼§
à¼ĭà¼¼ à¼
à¾ĭ à½¡
à½ĵ à½Ĥà½¦à½Ħ
à½ĸà½¦ à½ĺà½Ħ
à½ºà¼į à¼ĭà¼į
à¼© à¼¦à¼©
à¼¡à¼£ à¼¡à¼¡
à¼¡à¼¤ à¼§à¼¥
à¼©à¼ł à¼¥
à¼¡à¼¡à¼£ à¼¦
à¼¡à¼ł à¼¦à¼¨
à½ħà½ĵ à½ĸ
à¼ĭà¼ ĭà¼ĭà¼ĭà¼ĭà¼ĭà¼ĭà¼ĭà¼ĭà¼
Ġà¼¨ à¼¥
à½±à¼ĭà¼ İ
à¼¡à¼£à¼ł à¼£
à½´ à¾ĥà¼į
à½²à¼ĭ à¼·
à½¡à½Ħ à½Ĥà½¦
à½ĺà½Ľ à½ĳà½ĸ
à½ĺà½ļà½ĵ à½ĺà½¢
à¼¡à¼¢ à¼¥à¼¨
à¼¡à¼¤ à¼¢à¼¢
à½ĵ à½ĳà½Ķà½£
à¾± à½±à½²à¼ĭ
à¾± à¾·à½²à¼ĭ
à½Ł à½ĳà½Ķà½ł
à¼ĭà¼įà¼į à¼Ħà¼ħà¼įà¼į
à¼¡à¼£ à¼¡à¼§
à¼¡à¼¤ à¼£à¼¥
à½ĳà½Ķà½¢ à½ĸ
à¾ŀ à½´
à¼¡à¼¡à¼¥ à¼¡
à¼¡à¼£à¼ł à¼¦
Ġà¼Į à¼Įà¼Įà¼Į
ĭ à½±
à¼ ĭà½±
à¼¡à¼ł à¼¤à¼¨
à¼¡à¼£ à¼¢à¼¥
à½Ĥà½Ħ à½Ĥà½¦
à¼¡ à¼¡à¼©à¼ł
à¼¡à¼£ à¼¥à¼¨
à¼ĭà¼ĭà¼ĭà¼ĭà¼ĭà¼ ĭà¼Ħà¼ħà¼įà¼į
à½¦ à½ĺà½ī
à¾±à½²à¼ĭ à½Īà¾±à½²
à¼¡à¼ł à¼¦à¼¦
à¼¡à¼£ à¼¦à¼§
à¼¨à¼¨ à¼£
à¾±à½» à½¿à¼ĭ
à½ĸà½¢ à½ļ
à¾Ĳ à½´à¼·à¼ĭ
à½¦à½ĺ à½ĺ
à¼¡à¼¢ à¼¥à¼©
à¼¡à¼£ à¼£à¼¡
à¼Ģ à½Ģà½¢
à¼ĭà¼¼à¼ ĭ
à½ĵ à½Ĳà½ĺà½¦à½ħà½ĳ
à½Ķ à½ĺà½īà½ĺ
à¾Ł à¾²à½¾à¼ĭ
à¾±à½²à¼ĭ à½º
à½łà½ĩ à½ĵ
à¼¡à¼£ à¼§à¼¤
à½£ à½ĳà½Ĥà½ł
à½ĸà½ħ à½ĳà½ĳ
à¼¨ à¼§à¼¢
à¼¡à¼ł à¼£à¼¤
à¼¡à¼£ à¼¡à¼¨
Ġ à½ĸà½ĺ
à¾µ à½±à¼į
à¼¡à¼£ à¼¥à¼©
à¼Ģ à½ĳà½Ħ
à¼¡à¼¡à¼§ à¼¤
à½ĳ à½Ļà½ĵ
à½Ĥ à½Ĥà½ĳ
à½ĵ à½ĸà½¤à½ĳ
à½Ĩ à½ĵà½¦
à½ĳà½Ĥ à½łà½ģ
à½¡à½Ħ à½Ĩ
à½ĳà½Ķ à½ĳà½Ħ
à¾¤à¾²à½² à¼į
à¼¡à¼ł à¼©à¼¦
à¼¡à¼¢ à¼¤à¼¢
à¼©à¼¨ à¼¡
à½Ķ à½ĺà½ĵ
à¼¨ à¼¥à¼¨
à¼¨ à¼©à¼©
à¼¡à¼¡à¼¦ à¼¥
à½Ħ à½Ķà½£
à½¡ à½«
à¼¡à¼ł à¼¥à¼ł
à¼¡à¼¢ à¼§à¼¤
à¼¡à¼¢ à¼¨à¼¢
à¼¡à¼¤ à¼§à¼¦
à¾Ļà½´ à½±à¼ĭ
à¼¡à¼¡à¼¥ à¼¢
à½Ĥ à½ļà½ĳ
à½ĸà½¦ à½ĺà½ļ
à¾Ĳà¾± à¾±à½²
à½ĸà½ŀà½Ĥ à½Ķ
à¼¡à¼¤ à¼£à¼£
à¼¡à¼¦ à¼©à¼§
à¾ŀ à½±à¼į
à½Ĥ à½Ĥà½ĵ
à¾± à¾Ļà½º
à¼ ļ
à¾±à¼ĭ à¼Ħà¼ħà¼į
à½¿ à½¿à¼ĭ
à¼¨ à¼¦à¼ł
à¾¤à¾±à½² à½²à¼ĭ
Ġ à½¦à½ł
à½¦ à½ĺà½īà½ĵ
à½´à¼ĭ à½¼
à½ĸà½ħ à½łà½ĸ
à½ħà½ĵ à½Ĥà½Ħ
à½ıà½ĵ à½£
à¼¨ à¼§à¼¥
à¼¡à¼£ à¼¡à¼ł
à½¼à¼įà¼ Ħà¼ħà¼į
à½ĵ à½ĺà½Ĳà½¢
à½ķ à½Ķ
à¾¨ à½´à¼į
à¼© à¼£à¼¦
à¼¡à¼© à¼¡à¼¦
à¼¡à¼¤ à¼¢à¼ł
à¼¡à¼¤ à¼§à¼¨
à¼¡à¼©à¼ł à¼¥
à¼ĭà¼ĭà¼ĭà¼ Į
ĭ à¾Ĳ
à½ĳ à½ĳà½Ķà½Ĥ
à½ĸà½ŀ à½Ħ
à¼ ĭà¾Ĳ
à¾·à¾²à¼ĭ à½µ
à¼¡à¼¦ à¼¤à¼¡
à¼¡à¼¡à¼§ à¼¨
à½łà½ļ à½ł
à¼¡à¼ł à¼¨à¼¦
à¼¡à¼¢ à¼£à¼¨
à¾ł à½±à½´à¼ĭ
à½¼à¼ĭ à¼įà¼ĭ
à½ĳà½Ķ à½ŀ
à¼© à¼¢à¼ł
à¼¡à¼ł à¼£à¼§
à¼¡à¼¤ à¼£à¼¤
à¾² à½»
à¼ł à¼¨à¼ł
à¼© à¼£à¼¨
à¼¡à¼ł à¼©à¼ł
à¼¡à¼£ à¼£à¼¢
à¼¡à¼¤ à¼£à¼¨
à¼¡à¼¡à¼© à¼¤
à½£ à½Ĥà½¤
à½£ à½Ĥà½Ļ
à½¤ à½ŀ
à¾µ à½¾à¼į
à¼¡à¼ł à¼©à¼©
à¼¡à¼¢ à¼¤à¼¨
à¼¡à¼¡à¼§ à¼¦
à½Ħ à½ĺà½Ĥ
à¾±à¼ĭ à¼Ī
à½ĸà½Ģ à½ĺ
à¼¡à¼¤ à¼¦à¼©
à¾» à½ºà¼ĭ
à½ħ à½Ĩ
à½ĸà½¦ à½ł
à¾±à½²à¼ĭ à¼
à½Ħà½¦ à½¨
à¾¦ à¾·à½±à½´à¼ĭ
à½ĺà½ī à½ł
Ġà¼į à¼¼
à¼© à¼§à¼ł
à¼© à¼¤à¼£
à¼¡à¼¢ à¼¤à¼¥
à¼¡à¼¥ à¼§à¼¥
à½ĸ à½£à½Ĥ
à½ŀ à½ŀ
à¾Ĵ à¾Ĵà¼ĭ
à¼ĭà¼ Ħà¼
à½ĸà½Ģà½ł à½¦à½£
à¼¨ à¼§à¼¡
à¼¡à¼ł à¼§à¼¨
à¾¤ à¾±à½º
à¼¡à¼£ à¼¨à¼¢
à¼ĭà¼įà¼ Ĳ
à¼¡à¼¡à¼£ à¼¤
à½Ĥà½Ĳ à½ķ
à¾Ł à¾Ńà¼į
à½Ķà½¢ à½Ĳ
à¾µ à½±à½¾à¼ĭ
à¾ļ à½º
à½±à¼ĭà¼ Ħà¼ħ
à¼¡à¼£à¼ł à¼¢
à½Ĥà½ŀ à½ĸà½¦
à½´à¼ĭà¼ĳ à¼į
à½ħ à½Ħà½¦
à½Ķà½¦ à½ĸà½¢
à½¢à½ĸ à½Ľ
à½£à½Ĥ à½Ĥ
à¼¡à¼ł à¼£à¼£
à¼¡à¼¢ à¼¨à¼¡
à¼¡à¼¤ à¼¤à¼¡
à¼¡à¼¢à¼ł à¼¡
à¾Ł à¾²à½±à½²à¼į
à¾£à¼ ·à¼ĭ
à¼¨ à¼©à¼§
à¼¨ à¼©à¼¨
à¼¨à¼© à¼£
à½Ĥà½¦ à½ĳà½ĸ
à¾· à½±à¼Ķ
à¼¡à¼§ à¼¢à¼¡
à¼¡à¼¢ à¼©à¼¡
à¼¡à¼¡à¼© à¼¦
à½Ĥ à½ĺà½Ľ
à½ĺ à½ĳà½Ģ
à½Ķà½¢ à½ĺà½Ħ
à¾¤ à¾¡à½¼
à¾¨ à½»à¼į
à½īà½ĵ à½Ķ
à¼¡à¼¡à¼¦ à¼£
à½Ĩà½Ĩ à½Ĩà½Ĩ
à¼ĭà¼ĭà¼ĭà¼ĭà¼ĭà¼ĭà¼ĭà¼ĭà¼ĭà¼ĭà¼ĭà¼ĭà¼ĭà¼ĭà¼ĭà¼ĭà¼ĭà¼ĭà¼ĭà¼ĭà¼ĭà¼ĭà¼ĭà¼ĭà¼ĭà¼ĭà¼ĭà¼ĭà¼ĭà¼ĭà¼ĭà¼ĭà¼ĭà¼ ĭà¼ĭà¼ĭà¼ĭà¼ĭà¼ĭà¼ĭà¼ĭà¼ĭà¼ĭà¼ĭà¼ĭà¼ĭà¼ĭà¼ĭà¼ĭà¼
à½¢ à½ĺà½Ľà½ĳ
à½¢ à½Ģà½ł
à½ħà½ĳ à½ŀ
à½£à½Ĥ à½ĺ
à½±à½²à¼ĭ à¼ĳ
à¼© à¼¤à¼¡
à½¼à¼įà¼Ī à¼į
à½ĸà½¦ à½ī
à½£à½¦ à½ĺà½Ħ
à¼¡à¼£ à¼£à¼¨
à¼¡à¼£ à¼¤à¼¤
à¼¡à¼£ à¼©à¼¦
à¼¡ à¼¡à¼©à¼©
à½¿ à¼ĭà¼¼
à¼© à¼¥à¼¤
à¼¨ à¼¤à¼¨
à½Ĥà½ł à½ĵ
à¼¡à¼£ à¼¤à¼£
à½ĺ à½Ĥà½ĵà½¦
à½¤ à½Ĩ
à½ĺà½Ĳà½¢ à½Ĳ
à½Ŀ à½£à½¦
à½Ĳà½ĺà½¦à½ħà½ĳ à½¢
à½´à¼ĭà¼ĳ à¼
Ġà¼ĭà¼Į à¼
à½´à¼ĭà¼ĳà¼ ĭ
Ġà¼ĭà¼Įà¼ ĭ
à½Ķ à½ĺà½¦
à¾± à½½à¼į
à½ĸà½¦ à½Ĳ
à½¡à½ĵ à½Ĩà½ĳ
à¼¡à¼£ à¼¢à¼¨
à¾·à¾² à½±à½´à½¾à¼į
à¼¡à¼¢à¼ł à¼¥
à½ł à½ĺà½Ĥ
à½£à½¦ à½¨
à½Ķà½ĳ à½¢
à¼¡à¼ł à¼©à¼¨
à½´ à½²
à½Ķà½¢ à½ħà½ĵ
à½ħà½ĳ à½ī
à¾« à½¼à¼įà¼į
à½¼à¼ĭà¼ĳ à¼įà¼į
Ġà¼Ķ à¼
à¼¡à¼¤à¼ł à¼¦
à¼įà¼ĭà¼ĭà¼ĭà¼ĭà¼ĭà¼ĭà¼ĭà¼ĭà¼ĭà¼ĭà¼ĭà¼ĭà¼ĭà¼ĭà¼ĭà¼ĭà¼ĭà¼ ĭà¼ĭà¼ĭ
à½Ĥ à½Ĥà½¤
à½Ħ à½£à½ĺ
à½ĳà½ĸ à½Ģà½ł
à½ĺà½Ħ à½łà½ĺ
à¾Ĵà½¼à¼ĭ à¼½à¼¼
à¼¡à¼£ à¼¨à¼¦
à¼¡à¼¡à¼£ à¼§
à½ĺ à½ĸà½Ł
à½½ à¼Ķ
à½¦à½Ķ à½ĳà½Ħ
à½ł à½łà½ģ
à¾² à¾¡à½¼à¼ĭ
à¼¡à¼ł à¼£à¼¢
à¼¡à¼ł à¼¥à¼¡
à¼¡à¼§ à¼£à¼§
à¼¡à¼£ à¼¡à¼¦
à¾·à½± à¼įà¼į
à¼¡à¼¢à¼ł à¼¨
à¼¡à¼¡à¼© à¼¥
à½¦ à½ıà½ĵ
à¾² à½±à½¿à¼ĭ
à½¡ à½Ķà½¦
à½Ĳ à½¡
à¾¨ à½¾à¼į
à½ĺà½Ľà½ĳ à½¢
à¼łà¼ł à¼¡
à¼¡à¼£ à¼©à¼£
à¾ŀ à½±à½²
à¼© à¼¨à¼ł
à¼¡à¼§ à¼¦à¼¢
à¼¡à¼¢ à¼¢à¼ł
à¼¡à¼¤à¼ł à¼§
à½ķà½Ł à½¥
à½£ à½ĳà½Ģ
à½ĸà½ŀ à½ĺ
à½Ħà½¦ à½ļ
à¼¡à¼§ à¼¢à¼£
à½£ à½ĸà½Ĥ
à½ŀ à½ĺà½¦
à½ī à½ı
à½łà½ĳ à½łà½ĸ
à¾Ĵà½¼à¼ĭ à¼½
à½Ĥà½£ à½ĵ
à¼¨ à¼¥à¼£
à½¢ à½łà½Ħ
à½Ĥà½ĵ à½Ĥà½¦
à¼© à¼¦à¼¤
à¼¡à¼ł à¼©à¼¤
à¼¡à¼¤ à¼£à¼¦
à¾ŀà¾ŀ à½´à¼ĭ
à½ĺ à½Ļà½ĺ
à½ĳà½ĺ à½īà½ĺ
à½¨ à½ĺà½¦
à¾¦à¾± à½¼à¼Ķ
à½Į à½ĸ
à¼¡à¼§ à¼¢à¼©
à½¦ à½Ħà½ĵ
à½´à¼į à¼ĭà¼ĭ
Ġà¼¡ à¼¡à¼¥
à¼©à¼¨ à¼¤
à½¢ à½ĵà½ĵ
à½Ķ à½ĵà½ĵ
à½Ĥà½¦ à½ĩ
à½ĺà½ģ à½Ĥ
à½Ħà½ĵ à½łà½ĳà½¦
à¼¡à¼¡à¼£ à¼¨
à¾² à½²à¼·à¼ĭ
à¾Ĳ à¾©à½¼
à½ĳà½Ģ à½łà½Ĳ
à¼¡à¼£ à¼§à¼©
à¼¡à¼£ à¼¨à¼¨
à¼¡à¼¤ à¼¢à¼¦
à½ĸ à½ĸà½Ģà½ł
à½¢ à½Ĳà½ĺà½¦
à½¤ à½İ
à¼¡à¼£ à¼¦à¼¥
à¾·à½² à½¾à¼ĭ
à¼ĭà¼Ī à¼Ī
à¼¡à¼¡à¼¦ à¼¨
à¼¡à¼¡à¼¥ à¼¤
à¼ĭà¾§ à½²à¼ĭ
à¾Ĵà¾±à¼ĭà¼ ¼
à½ĵà½¦ à½¦à½Ħà½¦
à½łà½ Ŀ
à½ĳà½Ģà½ł à½ĸà½ł
à½Ĩà½Ĥ à½Ĥ
à½Ĩà½Ĥ à½Ķ
à¾ª à¼įà¼į
à½Ĺ à½ī
à¼¡à¼¡à¼¨ à¼¨
Ġà¼¡à¼¡ à¼¡
à¼įà¼ĭà¼ĭà¼ĭà¼ĭà¼ĭà¼ĭà¼ĭà¼ĭà¼ĭà¼ĭà¼ĭà¼ĭà¼ĭà¼ĭà¼ĭà¼ĭà¼ĭà¼ĭà¼ĭà¼ĭà¼ĭà¼ĭà¼ĭà¼ĭà¼ĭà¼ĭà¼ĭà¼ĭà¼ĭà¼ĭà¼ĭà¼ĭà¼ĭà¼ĭà¼ĭà¼ĭà¼ĭà¼ĭà¼ĭà¼ĭà¼ĭà¼ĭà¼ĭà¼ĭà¼ĭà¼ĭà¼ĭà¼ĭà¼ĭà¼ ĭà¼ĭà¼ĭà¼ĭà¼ĭ
à½²à¼ĭà¾¾ à¼įà¼į
à½¢ à½łà½Ľ
à½Ĳà½ĺà½¦ à½ĳ
à¼©à¼¨ à¼£
à½±à¼ĭà¼ Ī
â Ģ
Ġ à½¨à½Ħ
à¾Ł à¾±à½¼
à½ģ à½Ħà½Ĥ
à½ĳà½Ķ à½¡
à½£à½ĺ à½ī
à¾µ à½¾
à¼¡à¼¤ à¼¢à¼§
Ġà¼Ķà¼ ĭ
à½Ķà½ł à½ĺà½¦
à½Ĩ à½ĳà½ĳ
à¾·à½´ à½¿à¼į
à¼¡à¼£ à¼¥à¼¡
à¼ĭà¾ Ħ
à½ĵ à½ļà½ĳ
à½ĵ à½ĸà½Ľ
à¾Ĳà½´à¼ĭ à¼¼
à¾ľ à½¼
à¼¡à¼£ à¼¡à¼©
Ġà¼© à¼¤
à¾Ł à½±à½´à¼ĭ
à½ĸà½¦ à½ĺà½Ĳ
à¾³à¼ĭà¼ ¼
à½ĸ à½Ħà½ĵ
à½¢ à½ĺà½¢
à½Ł à½ĳà½Ħ
à¼¡à¼£ à¼§à¼¢
à¼¡à¼¤ à¼¢à¼¡
à½Ħà½Ķ à½ĸ
à¾²à¼· à½²à¼ĭ
à¾Ĺ à¼·à½¼
à¼¨ à¼©à¼ł
à¼¡à¼¢ à¼¥à¼¤
à¼¡à¼£ à¼£à¼¥
à¼¡à¼¥ à¼¡à¼¦
à¾·à½±à½² à½¿à¼į
à¼¡à¼£à¼ł à¼¥
à¼¡à¼¡à¼© à¼¡
à½Ħ à½Ħà½Ĥ
à½ºà¼ĭ à½´
à½¡à½Ħ à½¡à½Ħ
à½ĺà½Ľà½ĳ à½ħ
à½ĺà½ļà½ĺà½¦ à½Ģ
à¼© à¼¤à¼¦
à¼¨ à¼§à¼£
à¼¡à¼¦ à¼¤à¼¥
à¾²à½±à¾Ģ à½¾à¼ĭ
à¾Ł à½¾à¼ĭà¼Ħà¼ħà¼įà¼į
à½Ĳà½£ à½ģ
à¼¡à¼£ à¼¥à¼¥
à¼£à¼¨ à¼§à¼¡
à¾±à¼µ à½²
à½Ĥ à½Ĥà½¦à½Ħ
à½Ĥà½¦à½£ à½ĸà½ł
à¼¡à¼§ à¼¥à¼ł
à¼¡à¼£ à¼¥à¼£
à½£ à½¢à½Ĥ
à½Ĩ à½ĳà½Ģ
à½Ĳ à½Ĳà½ĺà½¦
à¾±à½´ à½¿à¼į
à½łà½Ĥ à½ŀ
à½± à½¾à¼ĭà¼ĳ
à¾Ĵà½¼à¼ĭ à¼Ħà¼ħà¼įà¼į
à¼łà¼ł à¼¢à¼§
à¼¡à¼£ à¼©à¼ł
à¼¡à¼¡à¼¨ à¼¡
à¾µ à¾¼
à¼¡à¼ł à¼łà¼łà¼ł
à¼¡à¼§ à¼¥à¼¡
à¼¨à¼© à¼¤
à¼¡à¼£ à¼§à¼¡
à½£à½¦ à½ĩ
à¼¡à¼£ à¼¤à¼ł
à½¼à½¾ à½¿à¼ĭ
à½¢ à½¦à½¢
à¾Ĳà¾±à½ºà¼ĭ à½Ī
à¼¨ à¼§à¼¨
à¼¡à¼ł à¼©à¼¥
à¾Ķà¼ĭà¼ ¼
Ġ à½ĳà½£
à½Ĥà½¦ à½¦à½Ħà½¦
à½ĺà½¦ à½Ĥà½¦
à¾±à½´ à½¾à¼ĭ
à¾© à¾¡à½¼
à½¢à½ĸ à½¤
à¼ĭà¼» à¼
à½ĵà½Ķà½¢ à½ĸ
à¼¡à¼¡à¼¥ à¼¦
à¼įà¼ĭà¼ĭà¼ĭà¼ĭà¼ĭà¼ĭà¼ĭà¼ĭà¼ĭà¼ĭà¼ĭà¼ĭà¼ĭà¼ĭà¼ĭà¼ĭà¼ĭà¼ ĭà¼ĭà¼ĭà¼ĭà¼ĭà¼ĭ
à¼ĭà¼»à¼ ĭ
à¾² à½±à½´à¾ĥà¼ĭ
à½Ļ à½Ĥà½¦
à½Ļ à½ī
à½ĵà½ĸ à½ī
Ġà¼¡à¼¢ à¼¢
à½²à¼ĭ à½¾
à½¡à½Ħ à½ī
à½łà½ĳà½ĸ à½Ħ
à¼¡à¼¢ à¼§à¼¨
à¼¡à¼£ à¼£à¼¦
à½ı à½ļ
à¼¡à¼£ à¼§à¼ł
à¼¤à¼¤ à¼¤à¼¤
Ġ à½ĸà½ıà½Ĥà½¦
à½ĺà½¦ à½ĸà½¢
à½Ĥà½ŀà½ĵ à½¡
à¾Łà½ºà¼ĭ à¼¸
à¼¡à¼¤ à¼¢à¼¥
à½ħà½ĳà½ĺ à½Ħ
à¼¡à¼¡à¼¨ à¼¥
à¾¦à¾¦ à½¾à¼ĭ
à½ĳ à½łà½ĺ
à½Ĥà½¦ à½Ĳà½ĺà½¦
à¾Ł à½ºà¼·à¼ĭ
à¼©à¼§ à¼¤
à½£ à½¥
à½Ĳ à½Ķà½¦
à¾Ļ à½¿à¼ĭ
à½ĸà½Ł à½Ĥ
à½İ à½Ĭ
à¾ĭ à½ļ
à½Ĥ à½ĸà½¦à½ĺ
à½ĺ à½ĺà½Ĳà½ł
à½ĺ à½łà½Ĥà½Ĥà½¦
à½¡à½Ħ à½ĸà½¦
à½łà½ĳà½¦ à½ĵà½¦
à½Ħà½ĵ à½£
à¼© à¼£à¼¡
à½Ħ à½Ĥà½¦à½£
à½ĸà½ĺ à½£
à¼¡à¼£ à¼¢à¼©
à½ĺà½¦à½ħà½ĵ à½Ĳà½ĺà½¦à½ħà½ĳ
à½ºà¼į à¼¼
à¾µ à¾¨à½±à¼ĭ
à¼¡à¼¡à¼¨ à¼¤
à½ĸ à½ĳà½ĸà½Ħ
à½Ķ à½Ĥà½¦à½Ħ
à¼¡à¼¤ à¼£à¼¢
à¾±à¼ĭà¼ĳ à¼ĳ
ĭ à½¿à¼ĭ
à½£ à½ĸà½ĸ
à½¡ à½Ķà½¢
à¼ ĭà½¿à¼ĭ
à¾· à¾²à½±à½²à¼ĭ
à¼¡à¼£à¼ł à¼§
à½¦ à½Ĥà½¦à½£
à½Ĥà½ĵà½¦ à½ĸà½¢
à½¨ à½ĸà½Ľ
à¼© à¼¦à¼¦
Ġ à¾¾
à½ģ à½ĵà½ĺ
à¾ª à½¾à¼ĭ
à¼¡à¼¥à¼ł à¼§
Ġ à½ĵà½ĵ
à½´ à½²à¼ĭ
à½£ à½Ĳà½¢
à½Ĥà½ŀà½ĵ à½Ķ
à¼¡à¼ł à¼¨à¼¥
à¼¡à¼£ à¼©à¼¥
à¾¡à¾· à¾ħ
à½ĸ à½£à½ĵ
à¾¡ à¾²à½ºà¼ĭ
à¼¡à¼ł à¼¦à¼£
à¼¡à¼¢à¼ł à¼©
à½¦ à½ĺà½Ĳà½¢
à½Ĩ à½ĸà½ł
à½Ĳà½ĺà½¦ à½¢
à¼¡à¼¤ à¼£à¼¡
à½Ĵ à½łà½Ħ
à¼©à¼§ à¼¦
Ġà¼¡à¼ł à¼¡
Ġ à½Ĥà½ŀà½£
à½¦ à½Ĥà½Ļ
à½ĸ à½ĵà½Ĥ
à½Ĩà½Ĥà½¦ à½ĺ
à¼¨ à¼§à¼¤
à½ĺà½īà½ĵ à½ĵà½¦
à¾ļ à¾²à½±à¼ĭ
à¾Ĵ à½¿à¼į
à¼łà¼ł à¼¢à¼¨
à¼¡à¼¨ à¼łà¼ł
à¼¡à¼¨ à¼©à¼ł
à½ĳà½Ħ à½¡à½Ħ
à¼¡à¼¦ à¼¦à¼¢
à¼µ à½¼à¼ĭ
à½ĵà½łà½ĳà½¦ à½Ģ
Ġ à½ģà½¦
Ġ à½ıà½ĵ
à½¦ à½Ĥà½¡
à½ĵ à½Ĥà½Ļ
à½ĸà½¦ à½ĸà½¢
à½ĸà½ı à½ł
à½Ĥà½¢ à½Ĥ
à¼¡à¼£ à¼¤à¼¨
à¼¡à¼¤ à¼¢à¼¤
ĭ à¾¡
à½ĸ à½ĺà½ģ
à¼ ĭà¾¡
à½Ļ à½ŀ
à½ħà½ĵ à½ĳà½Ĥ
à¼¡à¼¤ à¼¥à¼¢
à¾Ńà½± à¼įà¼į
à½Ħ à½ĺà½ĩ
à½Łà½¦ à½¦
à½Ĩ à½ķ
à¼ĭà¼į à¼Ħà¼ħ
à½Ł à½¨
Ġ à½ļà½ĵ
à½Ĥ à½ĳà½Ģà½¢
à½ĵ à½Ķà½łà½ĺ
à½Ħ à½ĺà½ļ
à½ĳà½Ħ à½ĳà½Ĥ
à¾²à½´ à½¿à¼ĭ
à½Ķà½¦ à½ĳà½Ħ
à¾Ļ à½¾
à½© à½Ģ
Ġ à½ĸà½ħà½ĳ
à½¦ à½ĺà½ģà½ł
à¾Ł à½ºà¼·à¼į
à¾³ à½½
à½¨ à½ĵà½¦
à¼¡à¼¡à¼¥ à¼§
à½ĸà½ł à½¢
à½ĵà½ĳ à½¢
à¼© à¼£à¼¤
à½¦à½ĺ à½£
à½ĳ à½łà½Ľ
à¾© à¾ªà¼ĭ
à½§ à½ŀ
à½£à½ĺ à½ĵà½¦
à¼¡à¼¥ à¼¢à¼£
à¼¡à¼¡à¼¨ à¼¦
à¾²à¼· à½¼
Ġ à½Ħà½¦
à½łà½Ĥ à½łà½Ħ
à½± à¾ĥ
à½ĸà½ĳà½Ĥ à½ĳ
à¾²à½¼à¼ĭ à¼¼
à¼¨ à¼§à¼¦
ĭ à½¾à¼į
à¼ ĭà½¾à¼į
à½Ĥà½ī à½ĺ
à½ĸà½ĳ à½Ĩ
à½ĺà½Ľ à½¢
à½ĺà½Ľ à½ĳà½ĺ
à¼ĭà½¼à¼ĭ à½º
à½¼à¼ĭà¾¾ à¼įà¼į
à¾±à½²à¼ĭ à¼ŀ
à¾ľ à½¿à¼į
à¼¡à¼ł à¼¨à¼¢
à¼¡à¼¡à¼¥ à¼¥
à¾º à½±
à¾µà½² à½¾
à½ĺà½Ĩ à½Ħ
à¼¡à¼ł à¼¨à¼¡
Ġà¼¨ à¼¡
Ġà¼ĭà¼ĭà¼ĭà¼ĭà¼ĭà¼ĭà¼ĭà¼ĭà¼ĭà¼ĭà¼ĭà¼ĭà¼ĭà¼ĭà¼ĭà¼ĭà¼ĭà¼ĭà¼ĭà¼ĭà¼ĭà¼ĭà¼ĭà¼ĭà¼ĭà¼ĭà¼ĭà¼ĭà¼ĭà¼ĭà¼ĭà¼ĭà¼ĭà¼ĭà¼ĭà¼ĭà¼ĭà¼ĭà¼ĭà¼ĭà¼ĭà¼ĭà¼ĭà¼ĭà¼ĭà¼ĭà¼ĭà¼ĭà¼ĭà¼ ĭà¼ĭà¼ĭà¼ĭà¼ĭ
à½Ĥà½¦ à½ĺà½ĳ
à½ļ à½łà½ĳ
à½ĳà½ĸ à½ĺ
à½ĺà½Ľà½ĳ à½ĵ
à½ĺà½ģà½ł à½ĺ
à¼¡à¼£ à¼¦à¼¢
Ġà½¢ à½ı
à¼¡à¼£à¼ł à¼¤
à½¦ à½īà½ĺà½¦
à½± à½ºà¼į
à½ģà½ĺà½¦ à½ŀ
à½Ŀ à½Ľ
à½ĳ à½ĵà½Ħ
à¾Ĵà¾²à¼ĭ à¼Ħà¼ħà¼įà¼į
à½£à½Ĥà½¦ à½¦à½ĺ
à¼¡à¼£ à¼§à¼§
à¼¡à¼£ à¼¨à¼¡
à½ĥ à½ł
à¾¡à¼· à½¼à¼ĭ
à½£ à½łà½ķà½Ĥà½¦
à½Ķà½¢ à½łà½Ľ
à¾¦ à¾±à½º
à½¥ à½§
à¼© à¼¤à¼ł
à¼¨ à¼§à¼ł
à¼¡à¼ł à¼©à¼£
à¼¡à¼ł à¼¨à¼£
à¼¡à¼£ à¼©à¼§
à½Ķ à½Ŀ
à½¼à¼ĭ à½¼à¼ĭ
à¼¡à¼ł à¼¥à¼¨
à¼¡à¼¤ à¼¤à¼£
à½Ģ à½ĳà½Ĥ
à½Ĩ à½Ĥà½ħ
à¾Ń à½¾à¼įà¼į
à¼¡à¼£ à¼¥à¼¢
à¼¡à¼¤ à¼¤à¼¢
à½±à¼ĭà¼ ¸
à¼¡à¼¡à¼£ à¼¥
à¼¡à¼¤à¼ł à¼£
à½±à½¼ à¾Ĥà¼ĭ
à½Ķ à½ĵà½ĳ
à¾¡ à½¼à¼·à¼ĭ
à½ĸà½ŀ à½Ĥà½£
à½Ķà½¦ à½¨
à½Ĥà½ıà½ĵ à½¢
à¼© à¼¤à¼¢
à¼¡à¼£ à¼¨à¼£
à½ļà½ļ à½ļà½ļ
à½¦ à½łà½ķà½Ĥà½¦
à½ĸ à½ĺà½ļà½ĵ
à½Ĥà½¦ à½Ĥà½Ħ
à½£à½¦ à½ı
à½ıà½ĵ à½ĳà½Ħ
à½±à½´à½¾à¼į à¼
à½±à½´à½¾à¼įà¼ ĭ
à¾±à½²à¼ĭ à¼ħ
à½Ķà½¢ à½łà½ķ
à½Ĥà½ĵà½¦ à½ĳ
à¼© à¼£à¼¢
à¼¡à¼ł à¼¨à¼§
à½Ĥ à½ĸà½Ĥ
à½Ķà½ł à½ķà½Ĥà½¦
à½ŀà½ĸà½¦ à½£
à¼¡à¼£ à¼¤à¼¦
à½ĸà½¦ à½¨
à½łà½ļ à½Ĥà½¦
Ġà¼ĭà¼ ĭà¼ĭà¼ĭà¼ĭà¼ĭà¼ĭà¼ĭà¼ĭà¼ĭà¼ĭà¼ĭà¼ĭà¼ĭà¼ĭà¼ĭà¼ĭ
à¾¶ à½²
à½¦ à½ļà½ĳ
à½ĸ à½Ĩà½¦
à¾Ĵ à½»à¼ĭ
à½ģ à½ĳà½Ħ
à¾¡ à½¾à¼ĭ
à½ĸà½ł à½ĵ
Ġà½¦ à½¦
à¼¡à¼¤ à¼§à¼£
à½Ĵ à½¨
à½¢ à½Į
à½ºà¼ĭ à¼ħ
à½Ķà½¦ à½ĳà½Ĥ
à½ĸà½ħ à½ĳà½Ķà½ł
à¼¡à¼¥ à¼¦à¼§
à½ĸ à½ĸà½ıà½ĸ
à¾² à¾¤à¾±à½²
à½łà½ģ à½Ħà½¦
à½±à¼ĭà¼ Ħà¼ħà¼į
à¾Ķà¼ĭà¼ ½
à½ī à½ī
à¼łà¼ł à¼£à¼ł
à½² à¾ĥà¼ĭ
à½ĳà½Ħ à½¢à½Ħ
à½ĸà½¦ à½ĸà½ħ
à½Ĭ à½ĳ
à½ĭ à½Ģà½ł
à½ĸ à½ĸà½Łà½Ħ
à½¢ à½Ķà½ĵ
à½Ĭ à½Ħ
à½ĵ à½Ĥà½ĵ
à½ħà½ĵ à½Ĳà½ĺà½¦à½ħà½ĳ
à¼¡à¼¤ à¼¥à¼£
Ġà¼¨ à¼¨
à½ķ à½ī
à½ĺà½¦ à½Ļà½ĺ
à½ĵà½¦ à½ı
à½Ł à½ŀ
à½£à½Ĥ à½ĳà½Ħ
à½£à½Ĥ à½¥
à¼© à¼¤à¼¨
Ġà¼© à¼£
ĉĉ ĉ
à½´ à½¾à¼įà¼į
à¾¡ à½¼à¼µà¼ĭ
à½Ľ à½£à½¦
à¾Ń à½¼à¼įà¼į
à½Ħà½ĵ à½ĵ
à¼įà¼½ à¼¼
à½¢ à½ĵà½Ħ
à¾± à¾¡à½º
à¾Łà¼ĭ à¼½
à¼¡à¼ł à¼¨à¼¨
à½ĵà½¦ à½¡à½Ħ
à½Ĥà½ĺ à½ĺ
à¼¡à¼¦ à¼¤à¼¨
à¼¡à¼¦ à¼§à¼©
Ġà¼ł à¼¢
à½ķà½Ĭ à½ħ
à½ħà½Ĥ à½Ĥ
à¼· à¼ĭà¼·à¼ĭ
à¼¼ à¼½
à¼ĭà¼¹ à½¼à¼įà¼į
Ġ à½ĵà½ĺà½¦
Ġ à½ĺà½Ĩà½ĵ
à½ĵ à½£à½ĵ
à½ħ à½ŀ
à½Ķà½¦ à½łà½Ĥ
à½Ĥà½¦à½£ à½¢
à½ķà½Ŀ à½Ĥ
à½ĺ à½ĺà½ł
à½ķ à½Ĥà½ĺ
à¾©à¼ ·
à¾Ĳà½´ à½´à¼ĭ
à¼¡à¼¤ à¼¦à¼¢
à¼¡à¼¥ à¼¢à¼¥
à¾ŀ à½¾à¼Ķ
à½ĳ à½Ĭ
à½Ĥà½¦ à½łà½Ĥ
à½Ĩ à½ĳà½ĸ
à½Ķà½¢ à½Ĩ
à½ĩ à½ĳ
à½¼à¼į à¼ĭà¼ĭà¼ĭ
Ġà¼ł à¼©
à½ĳà½Ĥ à½ĸà½¢
à½¡à½Ħ à½Ĥà½Ħ
à½Ĳà½ĺà½¦à½ħà½ĳ à½ĳà½Ħ
à½¦ à½īà½ĵ
à½Ķ à½ĸà½¤à½ĳ
à¾© à¼ĭà¼´
à¾¦ à¾·à¾±
à¾« à½¼à¼į
à½£à½Ĥ à½ģà½Ħ
à½Ħà½Ĥ à½ĳà½Ħ
à¾ŀ à½´à½¿à¼į
à¼¡à¼¥à¼ł à¼©
à¾Łà¼· à½¼
Ġ à½ĸà½¤à½Ĥà½¦
à½¢ à½ĵà½ĳ
à½ĵ à½ĸà½Ļ
à½ĺà½¦ à½ĺà½īà½ĺ
à¾Ķ à¾¡à½¼
à¾²à½² à¼įà¼ĭ
à½Ĥà½ŀà½ĵ à½Ķà½ł
à¼¡à¼¤ à¼¥à¼¤
à¼¡à¼¥ à¼¤à¼¢
à¾Łà¼· à½ºà¼ĭ
à½ĸ à½Ĥà½¦à½£
à½£ à½Ķà½Ĥ
à¾³ à½±à½²
Ġà¼¼ à¼į
à¼¡à¼£ à¼¦à¼¦
à¼ĭà¾¢ à½¼à¼ĭ
à½Ĳà½ĺà½¦à½ħ à½ĳà½ĸ
Ġ à½ĸà½Łà½ł
à¾±à¼ µà¼ĭ
à½ĺà½Ĳ à½ĸà½¦
à½Ĵ à½ķà½¦
à½§ à½ĵà½ł
à¾¤à¾± à¼į
à¼¡à¼¤ à¼§à¼¢
à½© à½Ķ
à¼¡à¼¤à¼ł à¼¡
à½¦ à½Ģà½¢
à½ĺ à½ĳà½Ģà½¢
à½ł à½ĺà½Ħ
à½¡ à½ĳà½¦
à¾Ĵ à½¿à¼ĭ
à½¨ à½Ķà½ł
à½ģà½¦ à½£
à¾ľ à½²à¼įà¼į
à¼¡à¼£ à¼¨à¼§
à¼¡à¼¤ à¼§à¼ł
âĢ Ĥ
à¾² à½¼à¼·
Ġà¼¡ à¼¡à¼©
à¼ĭà¾ ¹
à¼¡à¼¡à¼¨ à¼£
à½£ à½ĸà½¤à½ĳ
à½ĺà½¦ à½łà½ĩ
à¾³ à½±à¼į
à½ĵà½Ħ à½Ħ
à¼¡à¼¨ à¼©à¼©
à¾ļ à½´
à½ĳ à½¦à½¦
à¾Ĳ à¾²à½º
à½±à½´à¾ĥ à¼ĭà¼Ħà¼ħà¼įà¼į
à¼¡à¼¥ à¼¤à¼£
à¼¡à¼¦ à¼¥à¼£
Ġ à½¥
Ġ à½Ĳà½Ĥ
à½Ĥ à½Ķà½ĺ
à½¢ à½ĺà½ļ
à½¤ à½¢à½ĸ
à½Ļ à½ĵà½ĳ
à½´à¼į à¼¼
à¼¡à¼¥ à¼¡à¼¨
à¾¶ à½±à½²
à¾·à½±à½²à¼į à¼Ķ
à½Ĩ à½Ĥà½Ħ
à½ī à½ŀ
à¾Ĺ à¼į
à½Ĳà½£ à½¢
à¼© à¼¤à¼¤
à½ģà½ĸ à½ĵ
à¼¡à¼¤ à¼¦à¼¦
à½ĸ à½ĸà½£
à½ĺ à½¤à½¢
à½Ĩ à½¤à½¦
à½ĺà½Ĳà½ł à½ĵ
à½ĺà½Ĳà½¢ à½ĺ
à¾²à½ºà¼ĭ à½Īà¾±à½²
à¾¥ à½ºà¼į
à¼Ģ à½¢à½ı
Ġà½ī à½Ħ
à¾ħ à¼į
à¼¡à¼¡à¼ł à¼§
à½ĳ à½Ļà½Ħ
à½ĳà½Ħ à½ĳà½Ħ
à½ĺà½¦ à½ĸà½ŀ
à½Łà½Ĥ à½Ĥ
à¼¡à¼£ à¼©à¼¨
à¾Ł à½»à¼ĭ
à½¨ à½īà½ł
à½ĸà½ħà½¦ à½¢
à½ĺà½ģà½ł à½ĳà½Ħ
à½ŀà½£ à½Ĥà½ħ
à¼¡à¼£ à¼§à¼¨
à¼¡à¼¦ à¼¥à¼¢
à½Ķ à½Ĥà½¡à½¦
à½Ĥà½¦ à½Ķà½ĵ
à½ĸà½ŀ à½Ĥà½ĵ
à¾²à½² à½¾
à¼¡à¼¤ à¼¦à¼¥
Ġà¼¨ à¼§
à¾¤ à½±à½´à¼ĭ
à½ĳà½ĺ à½ŀ
à½ĸà½ĳà½Ĥ à½Ģ
à¼¡à¼¤ à¼¥à¼¦
à½ĺà½¦à½ħà½ĵ à½Ĳà½ĺà½¦
à¼ĭà¼ĭà¼ Ħà¼ĭ
Ġ à½Ĩà½Ħ
à½ ¬
à½´à¼ĭ à¼į
à½Ĥà½ŀà½ĵ à½ĳà½Ħ
à½łà½ĺ à½ħ
à¼¡à¼¤ à¼©à¼¨
à½Ķà½£ à½Ķà½¦
à½¼à¼ĭà¼ĳà¼ĳ à¼ĭà¼ĳà¼ĳ
à½ĸ à½ĸà½ħà½¦
à½¢ à½Ķà½ĺ
à½Ķ à½ĸà½Ĥ
à¾Ĳ à½²à¼į
à½ĺà½Ľà½ĳ à½£
à¼£ à¼£à¼łà¼¡
à¾µ à½´à½¿à¼į
à½Ĵ à½ķà½¢
à¼Ģ à½ģà½İ
à½Ĥ à½Ĥà½Ļ
à½£à½Ĥà½¦ à½¢
à¼¡à¼¥ à¼¡à¼§
à¼¡à¼¨ à¼©à¼¥
à¾¦à¾· à¾°à¼ĭ
à½£ à½Ļà½ĺ
à½ĸà½¢ à½ģ
à½ĳà½ĸ à½ı
à½ĸà½ĳà½Ĥ à½ı
à½£à½ĺ à½łà½ĳ
à¼ĳ à¼į
à¼¡à¼£ à¼©à¼©
ĠĠĠĠ ĠĠĠ
à¼ĭà¾§ à½´à¼ĭ
à½ļ à½¤
à½łà½Ĥ à½Ł
à¾¦ à¼ĭà¼Ħà¼ħà¼įà¼į
à½ķà½ĵ à½Ķà½ł
à¼¡à¼ł à¼¥à¼£
à½¢ à½ĺà½Ľ
à½Ķ à½īà½ĵ
à½ĵà½¦ à½ĺà½Ĩ
à¼¡à¼§à¼ł à¼¥
à½Ķ à½Ĥà½Ļ
à½Ķ à½ļà½ĵ
à½Ĩ à½łà½ĳ
à½ĺà½¦ à½Ĳà½ĺà½¦
à½ĳà½Ĥ à½ĺà½Ĳ
à½Ľ à½Ļ
à¼¡à¼¤ à¼£à¼ł
à¼¡à¼¤ à¼¨à¼©
à¼¡à¼¨ à¼¡à¼¨
à½ĵ à½łà½Ĩ
à½ŀ à½ī
à½Ł à½ĸà½ł
à½Ķà½¦ à½łà½ģ
à½ĸà½ĳà½Ĥ à½¤
à½ĸà½ı à½Ķ
à¾Ĳà¾± à½ºà¼·à¼ĭ
à½Ķà½łà½ĺ à½ĺ
à¼¡à¼¦ à¼¢à¼¡
à½ĳ à½ĵà½¢
à½Ķà½¦ à½ĺà½Ĩ
à¾· à½»à½¿à¼ĭ
à½¢à½Ħ à½ĵ
à½ĺà½Ĩ à½ĺà½¦
à¼¡à¼¤ à¼¢à¼£
à¼¡à¼¥ à¼¢à¼¤
à¼įà¼Į à¼Įà¼Įà¼Į
à½ĵà½¦ à½łà½ĩ
à½Ķà½¦ à½łà½ĩ
à½ĺà½ļà½ĵ à½ĳ
à¼¡à¼¤ à¼¦à¼¤
à¼¡à¼¤ à¼©à¼¢
à½Ĥ à½Ĥà½¦à½£
à¾« à¼Ķ
à½ĸà½¤à½ĳ à½Ł
à½£à½ĵ à½Ĥà½ī
à¾ľ à¾·à¼ĭ
à¾ľ à¾»
à¼¡à¼§ à¼¨à¼¥
à¾ļ à¼įà¼į
à½ĭ à½ĳ
à½Ħ à½ĸà½£
à¾± à¾Ńà¼į
à½łà½Ĳ à½ĳà½Ķ
à¼¡à¼¤ à¼¦à¼¡
Ġà¼¨ à¼£
à½¢ à½ħà½ĵ
à½Ķ à½ĺà½Ĳà½¢
à½Ĥà½Ļ à½¦
à¾²à½±à½²à¼ĭ à¼½à¼¼
à¼¡à¼¤ à¼¦à¼£
à¾¡à¾· à½¾à¼įà¼į
à¼¡à¼¥ à¼¦à¼¥
à¼¡à¼©à¼ł à¼¡
à¾±à½» à¼įà¼į
à½Ĥ à½Ĥà½¡à½¦
à½Ķ à½£à½ĵ
à½ħ à½ħ
à½Ĥà½ĵà½¦ à½ĳà½Ħ
à½ĸà½¤à½ĳ à½¢
à¼Ķ à¼ĭà¼ĭ
à½łà½Ĩ à½ĳà½Ķ
à¼ł à¼§à¼ł
à¼łà¼ł à¼¢à¼©
à¾¶ à½´
ĭ à¾Łà¼ĭ
à½ĺ à½Ķà½ĳ
à¾Ł à¾Ĳà½¼
à½Ħà½¦ à½ł
à¼ ĭà¾Łà¼ĭ
à½§ à½¤
à½łà½Ĩ à½Ħà½¦
à½Ĥ à½ĺà½Ĳà½ł
à½ĸ à½ĵà½¢
à¾² à½±à½´à½¾à¼į
à¾Ĵ à½²à¼į
à½ı à½Ŀ
à½ĵà½ĺà½¦ à½Ĩ
à¼¡à¼¨ à¼¨à¼¨
à¼¡à¼¦ à¼§à¼¨
à½ĵà½Ķ à½ı
à½£ à½ĺà½Ĳà½¢
à½ĺà½¦ à½ķ
à½ĺà½ļà½ĵ à½¢
à¼¡à¼§ à¼¡à¼¤
à¼łà¼ł à¼£à¼£
à¼¡à¼¦ à¼©à¼¦
à¾©à¾Ń à¼įà¼į
à½ĵà½¦ à½łà½Ĥ
à½¨ à½Į
à½¼à¼įà¼įà¼įà¼į à¼į
à¼¡à¼ł à¼©à¼¡
à¼¡à¼¥ à¼¥à¼¤
à¼¡à¼¥ à¼§à¼¢
à½¼à¼ĭà¼İ à¼İ
à¼¡à¼¥à¼ł à¼¤
à¾© à½¿à¼į
à½ĺà½Ħ à½Ħ
à½ĸà½Ł à½ĺà½¦
à¼¡à¼§ à¼©à¼¡
à¼¡à¼¦ à¼£à¼¨
à¾» à½¿à¼į
à½ħà½ĵ à½Ħ
à½ħà½ĳ à½¢à½Ħ
à¼¡à¼¤ à¼¤à¼¨
à¼¡à¼¥ à¼§à¼ł
à¼Ŀà¼Ŀ à¼Ŀà¼Ŀ
Ġ à½ĺà½§
à½ł à½łà½ķ
à½Ĥà½¦ à½ĵà½ĳ
à¾Ł à¾Ńà½±
à¾· à¾Ńà½²à¼ĭ
Ġà¼ Ģ
à¼¡à¼¤ à¼©à¼£
Ġà¼© à¼¦
à¾Łà¼· à½ºà¼į
à½Ħ à½Ĳà½ĺà½¦
à½ł à½ĵà½¦
à½¡ à½ĺà½ļà½ĵ
à½Ķà½¢ à½Ģ
à¾¡ à¾²à½²à¼į
à½¨ à½ĸà½£
à½¾ à½¿à¼į
à½Ĩà½ĳ à½¦
à½¦ à½ĸà½Ģà½łà½¦
à½²à¼ĭ à¼ħà¼į
à¾© à½½à¼į
à½ĺà½Ĳ à½ĵ
à¼¡à¼¦ à¼¢à¼§
à¾Ľ à½¾
à¼ĭà¾ Ŀ
à½ĺà½Ĳ à½Ħà½¦
à¼¡à¼ł à¼¥à¼¢
à¼¡à¼£ à¼¨à¼ł
à¾ĳ à½±à¼ĭ
à½¢ à½ĵà½ł
à½´à¼ĭ à¼ħ
à½ī à½ĺà½Ĩ
à¾Ĵà¾± à¼įà¼įà¼įà¼į
à½Ĥà½ı à½ĵà½ĺ
à½Ĵ à½ĵà½Łà½«
à¾´ à½²à¼į
à¾Łà¾Ń à¾ĥà¼ĭ
à½Ĥà½ŀ à½£à½ĺ
à½ĺà½Ĳ à½ĸ
à½¢à½ĸ à½Ģà½ł
à½¥ à½£
à½±à½² à½¾à¼į
à¼¡à¼¥ à¼¢à¼¦
à½Ĺ à½İ
à¼ĭà½²à¼ĭ à½²
à¾¨ à¾¨à½±
à¾Łà½ºà¼ĭ à¼Ī
à¾Łà½ºà¼ĭ à¼ħà¼į
à½¡à½ĸ à½ĵ
à½ĥ à½ı
à½ºà¼ĭà¼ ĭ
à½¦ à½İà½ł
à½¤ à½Ľ
à½Ħà½¦ à½ĳà½Ĥ
à¾³ à¾Ĺà½¼à¼ĭ
à½ĳà½ĸ à½Ļ
à¾Ķà½¼à¼ĭ à¼ĳ
à¼¡à¼¤ à¼£à¼§
à¾Łà½ºà¼ĭà¼ĳ à¼ĳ
à½Ĥ à½ĸà½Ģà½ł
à¼¡à¼¥ à¼¦à¼¦
à¼¡à¼¦ à¼¤à¼¤
à½Ķ à½Ļà½ĵ
à½Ĥà½¦ à½Ķà½ĳ
à½ħ à½Ģ
à½ĺà½ļ à½ĸ
à¼¡à¼¨ à¼©à¼¢
à½¼à¾ħ à¼ĭà¼ĳ
à½ĵ à½īà½ł
à½Ł à½ĸà½ħ
à¾¤à¾²à½´ à¼į
à½Łà½Ķ à½Ĥà½¥
à½£ à½īà½ĺà½¦
à½ī à½¤
à½¢à½Ħ à½Ħ
à½£à½Ĥ à½ĸà½¢
à¼ĭà½²à¼ĭ à½¼
à¾Ĳ à¼Ķ
à¼Ķ à¼¼
à¼¡à¼§ à¼¨à¼ł
à¼¡à¼¤ à¼¦à¼ł
à¼ĭà¾¢ à½ºà¼į
à½Ħ à½Ĥà½ĵ
à¾± à½ºà¼·à¼ĭ
à½Ĥà½¦à½£ à½£
à¾Łà½² à½¾
à¼¡à¼¥ à¼¤à¼¦
à½² à½²à¼į
à¼¡à¼¤ à¼§à¼§
Ġ à½ĸà½¦à½ĳ
à½Ĥ à½Ĭ
à½ĳà½Ģ à½£
à¼¡à¼¤ à¼§à¼©
à½ĳà½Ķà½¢ à½ĵ
ĭ à¾£à¼ĭ
à½¼ à½¾à¼ĭà¼ĳ
à½Ħ à½ħà½ĵ
à¼ ĭà¾£à¼ĭ
à½¢à½Ħ à½ł
à½© à½ĸ
Ġ à½ĸà½ıà½ĸ
à½Ĥà½ī à½ĺà½¦
à½ĳà½ĺà½ĵ à½Ķ
Ġ à½¨à½¢
à¼¡à¼¦ à¼¥à¼ł
à¾Łà½ºà¼ĭà¼ĳ à¼ĳà¼ĭ
à½ĺ à½ĺà½ī
à½ģ à½ĸà½¢
à½łà½ĸ à½ı
à½Ĥà½ĵà½¦ à½ĸ
à½Łà½Ĥ à½¢
à¼¡à¼¥ à¼£à¼£
Ġà¼Ħà¼ħ à¼Ħà¼ħà¼įà¼į
à½Ķ à½ħà½¦
à½ĵà½¦ à½ĸà½ĳà½Ĥ
à½Ĥà½Ħ à½ĳà½Ħ
à½īà½ĺà½¦ à½Ķ
à¼įà¼ĭà¼ ĭà¼ĭà¼ĭà¼ĭà¼ĭà¼ĭà¼ĭà¼ĭà¼ĭà¼ĭà¼ĭà¼ĭ
à½ĵ à½ĸà½Ģà½ł
à½ĺ à½ĳà½Ķà½£
à½ŀ à½ĸà½¢
à½£à½¦ à½ĳà½Ĥ
à¾© à¾Ńà½¼à¼ĭ
à¾¦ à¾¦à½²à¼ĭ
à½Ķà½ĳ à½ł
à¼¡à¼§ à¼¤à¼§
à¼¡à¼¦ à¼£à¼©
Ġà¼¡à¼¢ à¼ł
Ġ à½łà½Ĩà½¢
à½ĺ à½Ĥà½ĳ
à½ĸà½Ļ à½ĸà½¦
Ġà¼į à¼Ĳ
à½½ à½¾à¼į
à¼¡à¼¤ à¼©à¼¤
à¾Ľ à½±à½¿à¼į
à½ĵ à½ģà½ĺà½¦
à½ĸà½¢ à½ĺà½Ľ
à½łà½ĸ à½Ģ
à½ĸà½¦à½£ à½ĳ
à¼¡à¼§ à¼©à¼£
à¾¦à¾²à½´ à¼į
à¼¡à¼¦ à¼¤à¼¦
à¼¡à¼¦ à¼§à¼¥
à½ĳ à½ŀà½¦
à½£à½¦ à½ĺà½Ľ
à¾¦ à½¿à¼į
à½±à½´ à¼įà¼į
à¾Ĵà¾²à¼ĭ à¼ĳ
à¼¡à¼¤ à¼¦à¼¨
à¼¡à¼¥ à¼¢à¼¢
à½ĵà½Ķ à½ŀ
à¾Łà½ºà¼ĭà¼ĳ à¼į
à½ĵ à½ĳà½Ģà½¢
à½ĺà½ļ à½¦
à¾« à¼ĭà¼´
à½łà½ĺ à½£
à¼¡à¼¨ à¼¥à¼¥
Ġà¼Į à¼Į
à½Ĥ à½łà½ķà½Ĥà½¦
à½Ķ à½Łà½Ħ
à¼¡à¼§ à¼§à¼¢
à½Ħ à½ĳà½Ķ
à½Ķà½ł à½ĵ
à½Ĳà½ĸà½¦ à½ĵ
à½Ŀ à½ģ
à¼łà¼ł à¼£à¼¡
à¼¡à¼¤ à¼¥à¼¥
à¾Ľ à¼įà¼į
Ġ à½Ĩà½¢
à½Ĳ à½ķ
à½Ķà½¢ à½ī
à½Ľ à½Ĭ
à¾·à½º à½¾à¼ĭ
à½ŀ à½ĵà½¦
à¾Ĺà½ºà¼ĭ à¼¼
à½Ĥà½¤ à½¦
à½¦à½ĺ à½¡à½¦
à¼¡à¼¦ à¼¢à¼¢
Ġ à½ĺà½ī
à½ĺà½¦ à½Ĳ
à½ĵà½¦ à½ĳà½Ħ
à¼¡à¼§ à¼¡à¼ł
à½ĳà½£ à½ĸ
à¼łà¼ł à¼©
à½ģà½ģ à½ģ
à½£ à½īà½ĵ
à½ĸà½ıà½Ĥà½¦ à½Ķ
à½į à½Ģ
à½¢ à½ĺà½ļà½ĵ
à½¡à½Ħ à½ĳà½Ħ
à½¡à½Ħ à½łà½Ĥ
à½¡ à½ĵà½ĺ
à½Ĳ à½ĸà½ĸ
à¾¨ à½ºà¼įà¼į
à¾²à¼ µà¼ĭ
à½ĵà½Ħ à½ĵà½¦
à½Ŀ à½Ļ
à¼¡à¼¨ à¼£à¼ł
à¼¡à¼¦ à¼¡à¼¢
à¼¡à¼¦ à¼£à¼¦
à¼ĭà¼Ī à¼Ħà¼ħà¼įà¼į
Ġà¼ł à¼¡
à¼ĭà¾¢ à½¿à¼į
à¼ĭà¼ĭà¼ĭà¼ĭà¼ĭ à¼ĭà¼į
à¼Įà¼Įà¼Įà¼Įà¼Įà¼Įà¼Įà¼Įà¼Įà¼Įà¼Įà¼Įà¼Įà¼Įà¼Įà¼Įà¼Įà¼Įà¼Įà¼Įà¼Įà¼Įà¼Įà¼Įà¼Įà¼Įà¼Įà¼Įà¼Įà¼Įà¼Įà¼Į à¼Įà¼Įà¼Įà¼Įà¼Įà¼Įà¼Įà¼Įà¼Įà¼Įà¼Įà¼Įà¼Įà¼Įà¼Įà¼Įà¼Įà¼Įà¼Įà¼Įà¼Įà¼Įà¼Įà¼Įà¼Įà¼Įà¼Įà¼Įà¼Įà¼Įà¼Įà¼Į
à½ĳ à½Ĥà½¦à½Ħ
à½¢ à½£à½ĺ
à½ĺ à½Ĥà½ĵ
à½Ķ à½Ĥà½¤
à¾Ĳ à½±à¼į
à¼¦ à¼łà¼łà¼ł
à¾ŀ à½¿à¼į
à¼¡à¼£ à¼¨à¼¤
à¼¡à¼¨ à¼©à¼§
à½¦ à½Ħà½ł
à½² à½¼
à½Ĥ à½ĺà½ģ
à¾Ł à¾¨à¼ĭ
à½ĺà½ĳ à½Ķà½¢
à½Ĥà½ĵ à½£
à¼¡à¼¦ à¼¨à¼£
à½Ĥà½Ķ à½Ĩ
à½ ¶
à½¦ à½ĺà½ĵà½ĵ
à½ĸ à½ļà½ĵ
à½ĺ à½£à½ĵ
à½ħà½ĳ à½ĺà½Ĳ
à¾²à½²à¼ĭ à¼¼
à¾Ĳà¾± à¾±à½ºà¼ĭ
à¼¡à¼¤ à¼¦à¼§
à¼¡à¼¦ à¼£à¼ł
à½¦ à½Ķà½¢à½ĸ
à¾² à½²à¼·
à½Ķà½¢ à½Ĩà½Ĥà½¦
à½ĸà½ĳà½Ĥ à½ŀ
à½ķà½ĵ à½łà½ĳ
à¼¡à¼§ à¼¢à¼¤
à½Ĥà½¦ à½Ĥà½ŀà½ĵ
à½ħ à½ĳà½Ĥà½ħ
à½łà½ĳà½¦ à½ŀ
à¼ĭà½Ī à¾²à½²
à¼¡à¼¨à¼ł à¼£
à½ĺ à½ĸà½¤à½ĳ
à½ĺ à½£à½Ĥà½¦à½¦
à½ī à½Ĳ
à½Ķà½¦ à½ĸà½ĳà½Ĥ
à½ħà½ĳ à½¢à½ĸ
à½Ĭ à½ĸ
à¼¡à¼¤ à¼©à¼©
à½łà½« à½Ĳ
à½ĺ à½ĺà½ĵ
à½¤à½¢ à½ķ
à½Ĵ à½ģ
Ġà¼Ħà¼ħà¼įà¼į à¼į
à¾±à¾Ģ à¼įà¼į
à¾ĳ à½´à¼ĭ
à¾µà¾¨ à½±à½¾à¼ĭ
à½¦ à½ĳà½Ķà½£
à½ı à½ŀ
à½¨ à½Ĥà½¦
à¾²à½´à¼ĭ à¼Ħà¼ħà¼įà¼į
à½Ŀ à½Ħà½¦
à½¡à½Ħà½¦ à½Ħà½¦
à¼¡à¼¨ à¼¥à¼©
à¼¡à¼¨ à¼©à¼£
à¼Ģ à½Ĥà½¦
à½ŀ à½Ħà½¦
à¾Ĳ à½¿à¼į
à½ĳà½ĸà½Ħ à½£
à½Ĭ à½ĭ
Ġ à½Ľà½ĺ
à½Ķ à½ĺà½¢
à¾Ł à¾©à½¼
à½ĳà½Ģ à½Ħ
à½Ĥà½¡à½¦ à½ĵ
à¼ĭà¼¹ à¼įà¼į
à¼¡à¼¥à¼ł à¼¥
à¾¼ à¼
à¾¼à¼ ĭ
Ġ à½ĵà½Ĥà½¦
à½£ à½łà½Ĩ
à½´à¼ĭ à½¾
à½ĸà½¦ à½Ķà½¢
à½ģ à½łà½ĳ
à¾· à½±à½¾à¼į
à½¢à½¦ à½Ĥà½Ł
à¾£ à½±à½¾à¼ĭ
à½łà½ĩà½ĺ à½ĳà½ĸ
à¼¡à¼¥ à¼¦à¼¤
Ġà¼¡ à¼¡à¼¢
à½²à¼ĭà¼ Ħà¼ĭ
à½Ħ à½Ĥà½¤
à½£ à½ļà½ĸ
à½¤ à½ģ
à½¤ à½Ł
à¼¡à¼¤ à¼¨à¼¡
à½¼à¼ĭà¼İ à¼į
à½ºà¼ĭà½Ī à¾·à½²
à½Ķ à½Ĩà½Ĥà½¦
à½ĸà½ł à½ļ
à¾¨ à¾¨à½±à½¿à¼ĭ
à½ĺà½Ľ à½ĺ
à½Ħà½ĵ à½łà½Ĥ
à½ĸà½ıà½ĸ à½ĵà½¦
à½ħà½Ħ à½ĺ
à¼¡à¼§ à¼§à¼ł
à¼¡à¼¨ à¼¥à¼¦
à¼¡à¼¦ à¼¨à¼ł
à½¦ à½Ļà½ĺ
à½ĳ à½¦à½ł
à½²à¼ĭ à¼Ħà¼įà¼į
à½¼à¼ĭ à¾İ
à½¤ à½ĸà½¦
à½¡à½¦ à½Ķ
à½ĸà½¦à½ĺà½¦ à½Ķ
à¼¡à¼¦ à¼¢à¼¦
à¾ĭ à½§
à½¼à¼į à¼ĭà¼ĭà¼ĭà¼ĭà¼ĭà¼ĭà¼ĭà¼ĭà¼ĭà¼ĭà¼ĭà¼ĭà¼ĭà¼ĭà¼ĭà¼ĭà¼ĭà¼
à¾³à½´ à½¾à¼ĭ
à½ķà½ĵ à½¡
à½ĸà½Ľ à½Ģ
Ġà¼ĭ à½²à¼ĭ
à¼¡à¼§ à¼¦à¼ł
à½¦ à½ĳà½Ķà½ł
à½£ à½ĳà½ĳ
à½ŀ à½Ĳ
à¾· à¾Ģà¼ĭ
à½ĸà½ħà½¦ à½Ģ
à¼ĭà¼ĭà¼ĭà¼ ĭà¼įà¼į
à½ĺ à½łà½ĳà½¦
à½Ķà½¦ à½łà½ĸ
à½¨ à½ĸà½¦
à¼¡à¼§ à¼§à¼§
à¼łà¼ł à¼£
à½ļ à½ĵà½ĺ
à½łà½Ĥ à½ı
à½ĺà½Ħ à½ĸ
à½¼à¼ĭà¼ĳ à¼ĭà¼ĳà¼ĭ
à¼¢à¼ł à¼¢à¼¡
à¾µà½¾ à¾¼à¾»
à½£à½¦ à½ĸà½Ł
à½¢à½ĸ à½Ļ
à½¦à½¢ à½Ķ
à¾ª à½ºà¼į
à¾¡à¾· à½±à½²à¼ĭ
à¼¡à¼¦ à¼¡à¼ł
à¼¡à¼¦ à¼¥à¼¤
à½ĳ à½¦à½ĵ
à½Ħ à½Ķà½ī
à½Ĥà½ĵà½¦ à½ĺà½£
à½ĳà½Ķà½£ à½Ĩ
à½ķà½Ĭ à½¨
à¼¡à¼©à¼ł à¼¢
à½ĸ à½ĵà½ł
à½¢ à½ĳà½¦
à½Ĩ à½ļà½ĳ
à½ĸà½¢ à½łà½ĸ
à½Ĥà½ĵà½¦ à½¤
à½ĸà½Ĥ à½ĳà½ĸ
à¾¨à¼ ·
à¼łà¼ł à¼¨
à¼ĭà¼´ à¼´
Ġ à½łà½ĸà½ł
à½£ à½ĺà½Ħà½ł
à¾±à½²à¼ĭ à¼ħà¼įà¼į
à¾±à½¼ à½¿à¼į
à½łà½ļà½£ à½ı
à½ĸà½Ľ à½ĺ
à¼¡à¼§ à¼¡à¼¡
à¼¡à¼¤ à¼©à¼§
à¾µà¾¨ à½±à½²
à½Łà½ĳ à½¦
à½¼à¼Ķ à¼Ī
à½¢ à½Ĥà½¡
à¾¦à¾± à¾³à½¼
à¼¡à¼¤ à¼©à¼¥
à¾Ĵà¾²à½º à¼įà¼į
Ġ à½ŀà½Ĥ
Ġà¼¼ à¼Ī
à¼¡à¼¦ à¼£à¼¥
à¼ĭà¾§ à½±à¼ĭ
à½Ħ à½ĺà½ĵ
à½Ĥà½¦ à½łà½ģ
à½Ĥà½¦ à½ĺà½ł
à½Ĥà½¦ à½Ķà½ĺ
à½ĸà½¦ à½Ł
à½ĺà½¦ à½ĺà½Ĩ
à½ĵà½Ĥà½¦ à½ļà½£
à¼¡à¼¦ à¼©à¼¤
à¼¢à¼¢ à¼¢à¼¢
à¾Ħ à¼įà¼į
à½ĸà½¦ à½ĳà½Ĥ
à½ĸà½¤à½ĳ à½£
à¾Ĳà½´à¼ĭ à¼´
à¼¡à¼§ à¼§à¼¤
à¼¡à¼¨ à¼§à¼¦
à½ĸ à½ĸà½ı
à½ĺ à½Ĥà½ŀ
à½Ķ à½£à½Ĥ
à½ķ à½ĵà½¦
à½Ħà½¦ à½ĸà½ł
à½´à¼į à¼ĭà¼į
à¼¡à¼§ à¼¨à¼¦
à¼¡à¼¤ à¼¥à¼§
à¼¡à¼¥ à¼¡à¼ł
à½Ħ à½Ļà½ĺ
à½Ĥà½¦ à½¢à½Ħ
à½ļ à½£à½ĵ
à¾Ļ à¾°
à½ĺà½Ĥ à½ł
à¼¡à¼¥ à¼¥à¼¦
à¼¡à¼¥ à¼§à¼§
à¼¡à¼¥ à¼§à¼£
à½į à½ł
à½£ à½ĸà½Łà½Ħ
à¾² à¾¤à½º
à½ĸà½¢ à½Ķ
à¾Ĳ à¾Ĺà½¼
à¾Ĳ à¾µà¾±
à½Ħà½¦ à½ķ
à¾¤ à½¿à¼ĭ
à¾ľ à½¿à¼ĭ
Ġ à½Ĥà½īà½ł
à¾¨à¾² à¾Ģ
à¼¡à¼¥ à¼¦à¼¨
Ġà¼¡ à¼¡à¼£
à¼Ī à¼į
à½ĭ à½Ĥ
à¾³à¼ĭà¼ ½
Ġ à½Ĥà½ĳà½ĸ
à½£ à½ļà½ĵ
à½ļ à½ĸà½ħ
à½ĸà½Ł à½ĳà½Ķ
à½ĵà½ĺ à½ĸ
à¼¡à¼¤ à¼¥à¼¨
à½Ĺ à½łà½«
à½Ķ à½Ħà½Ĥ
à½£ à½īà½£
à¾Ĳ à½¿à¼ĭ
à½¨ à½Ģà½¢
à½ĺà½Ĳà½¢ à½ķ
à¼¡à¼§ à¼§à¼©
à¼¡à¼¤ à¼©à¼ł
à¼¡à¼¥ à¼¢à¼©
à¼¡à¼¦ à¼£à¼¤
à¾Ľ à½¼à¼ĭ
à¾²à½±à¾Ģ à½¿à¼ĭ
Ġ à½ĺà½£
à½ĸ à½ļà½£
à½£ à½ĳà½Ķà½£
à¾© à¼ĭà¼¼
à½ĳà½Ĥà½ł à½ĸà½¦
Ġà¼¡ à¼¡à¼¦
à¼ĭà¼ĭà¼ĭà¼ ĭà¼Į
à¼ĭà¼Ŀ à¼Ķ
à½Ķà½¦ à½ĺà½Ħ
à¾³à½´à¼ĭ à½²
à½Ĥà½Ļà½Ħ à½ĺ
à½¼à¼ĭà¼ĳ à½¿à¼į
à¼¡à¼¤ à¼¥à¼©
à¼ĭà¼ŀ à¼ŀ
à½Ĥ à½ĸà½Ł
à½Ĥà½¦ à½¢à½ĸ
à½Ķà½ł à½ĺà½ĳ
à¾Ĵ à¾·à½±à¼ĭ
à¾£ à¾²à½²à¼ĭ
à¾Ĳà½´ à½¿à¼ĭ
à½Ĳà½£ à½ĸà½¢
à¼¡à¼£ à¼©à¼¤
à¼¡à¼¤ à¼¨à¼¦
à¼¡à¼¥ à¼¨à¼©
à¼¡à¼¨ à¼¥à¼£
à½ĳ à½£à½Ĥ
à½Ĥà½¦ à½ĺà½ļ
à½Ĥà½¦ à½ĸà½ĳ
ĭà¼ĭà¼ Į
à½Ħà½ĵ à½ĺà½¦
à½ĵà½ĵ à½¢
à¼¡à¼¥ à¼©à¼¥
Ġà¼¡à¼¢ à¼¡
Ġ à¼¡à¼©à¼©
à½Ŀ à½ķà½¥
à¼¡à¼§ à¼£à¼¨
à½ĵà½Ķ à½¡
à½ĸà½ĸà½ĸà½ĸ à½ĸà½ĸà½ĸ
à¼įà¼ħ à¼įà¼į
ĭà¼ ĭà¼įà¼į
à¼¡à¼§ à¼¢à¼¢
à¼¡à¼¦ à¼¤à¼§
à¼Ģ à½łà½ĳ
à¼ĭà¼Ħà¼ħ à¼Ħà¼ħà¼įà¼į
Ġà¼¡à¼ł à¼¤
à¼¡à¼§à¼ł à¼¨
Ġ à½ķà½Ĭ
à½Ķ à½Ĥà½ĵ
à½ķ à½¦à½¢
à¾£ à½±à½²à¼į
à½ĳà½ĸ à½Ĥà½¦
à½ĸà½¤ à½ĳà½Ħ
à½Ħà½Ĥ à½ĺ
à½ĳà½¢ à½ĳ
à¼¡à¼¤ à¼©à¼¦
à½¦à½Ķ à½Ĥ
à½Ĵà½ħ à½«à½Ĥ
à½ĳà½ĸà½Ħ à½ĵ
à¼łà¼ł à¼£à¼¤
à¼¡à¼¨ à¼¢à¼ł
à½Ĳ à½ĸà½¢
à½ī à½£à½¦
à½¡à½Ħ à½ķ
à¾Ĺ à½ºà¼µà¼ĭ
à½ĺà½ģ à½łà½ģ
à¼¡à¼¥ à¼¥à¼¥
à½ĸ à½ĺà½Ĳà½¢
à½Ĩ à½ı
à½Ķà½¢ à½ı
à¼¡à¼¥ à¼¤à¼¡
à½ĳ à½¦à½¢
à¾Ł à¾Łà½²à¼į
à½Ł à½ĸà½Ł
à½Ķà½¦ à½ĩ
à½ħà½ĵ à½ı
à¾ķ à½´à¼ĭ
à½Ĥà½ł à½ł
Ġà½¦ à½ĳ
à½¢ à½Ĥà½¦à½Ħ
à½£à½¦ à½Ł
à¾Ń à¾ĥà¼ĭ
à½ĺà½Ĳà½ł à½¦
ĭ à¾¤
à½Ĳ à½¢à½ĸ
à½¤ à½Ļ
à¼ ĭà¾¤
à¾¦ à¾·à½±
à½Ľ à½ģ
à½§ à½İ
à½łà½ĳà½¦ à½Ĥà½£
à½ĸà½¦à½ĺ à½Ķà½ł
à½ĸà½łà½ĺ à½ĺ
à¾·à½¼ à¾ħà¼ĭ
à¼¡à¼¥ à¼¥à¼¢
à¼¡à¼¦ à¼¦à¼£
à½¾à¼ĭà¼ Ĳ
à½ĵ à½īà½ĺà½¦
à½ĳà½Ħ à½ĸà½ĳ
à½Ĳ à½ĳà½Ħ
à½Ħà½¦ à½ī
à¾±à½ºà¼ĭ à¼´
à½Ĥà½ı à½¦
à¾ª à½²à½¾à¼ĭ
à¾²à¼įà¼į à¼į
à½Ħà½Ķ à½Ĩ
à½¦ à½ģà½ĺà½¦
à½£ à½£à½Ĥ
à½Ĳ à½ħ
à½Ķà½¦ à½ħ
à½Ĥà½Ħ à½£à½¦
à¼¡à¼§ à¼¥à¼©
à¼¡à¼¦ à¼¤à¼ł
à¾» à½¾à¼į
à½ĺ à½ĺà½ģà½¦
à½ĸà½¢ à½łà½ĩ
à½²à¼į à¼İ
à½ĸà½¤ à½ĳà½Ģ
à½ĺà½Ľ à½£
à½İ à½ģ
Ġà¼¡ à¼¡à¼§
à½łà½« à½¥
à½¼ à½¾à¼ĭà¼Ħà¼ħà¼įà¼į
à½Ķ à½Į
à½ł à½¦à½ĺ
à½ĸà½¦ à½£à½¦
à½ĵà½¦ à½ĸà½Ł
à½ĳà½Ķà½ł à½ķ
à½łà½ĩà½ĺ à½ĺà½Ĥ
à¼¡à¼¥ à¼¥à¼§
à¾Łà½± à½¿à¼į
à½Ķ à½Łà½ĸ
à½£ à½£à½¢
à½ĳà½Ħ à½łà½ĩ
à½ĳà½Ħ à½ĺà½Ĩ
à¾²à½´ à½¿à¼į
à½Ĳà½ĸà½¦ à½¢
à½¼à¼ĭ à½²à¼ĭ
à¾Ł à¾ĥà¼ĭ
à½¤ à½ī
à¾· à½¿à¼įà¼į
à½Ĥà½ı à½£
à½Ĥà½ĵ à½ĺà½¦
à½ĺà½ĵ à½Ĩà½ĳ
à½²à¼ĭà¼½ à¼¼
à½ĳ à½Łà½¦
à¾¡ à½±à½´à¼ĭ
à¼ ı
à½ĵà½ĵ à½ıà½ĵ
à¼¡à¼¥ à¼¡à¼¡
à¼¡à¼¦à¼ł à¼¦
à½ĳ à½łà½ļ
à½ĳà½Ħ à½ĺà½ļà½ĵ
à½Ķà½ł à½£
à¼ĭà¼ ĭà¼ĭà¼ĭà¼ĭà¼ĭà¼ĭà¼ĭà¼ĭà¼ĭ
à¼ĭà¼ Ħà¼Ħ
à¾Łà½ºà¼įà¼į à¼įà¼į
à¼¡à¼§ à¼©à¼ł
à¾·à¾² à½¾à¼į
à½¢ à½ĺà½ģ
à¼łà¼ł à¼£à¼¢
à¼¡à¼¨ à¼¦à¼ł
à¾ļ à½¼
à¾ĭ à¾ĭ
à½¢ à½Ģà½¢
à½ĺ à½ĺà½ģà½ĵ
à½Ĭ à½¡
à¾¡à¼ µ
à¼ĭà¼¹ à½º
à¼ĭà½ºà¼ĭ à½ºà¼ĭ
à¼ĭà¼ĭà¼ĭà¼ĭà¼ ĭà¼įà¼į
Ġ à½ĺà½ģà½¢
à½Ķà½¢ à½ĸà½¦à½ĺà½¦
à¼¡à¼¥ à¼£à¼¦
à½ĭ à½ĺ
à¼¡à¼§à¼ł à¼¦
à½Ĥ à½Ķà½ĵ
à½ĳà½ĸà½Ħ à½ĺ
à½ĸà½¤à½ĳ à½ħ
à½ĸà½Ĥ à½Ħà½¦
à¼½ à¼Ī
à¼¡à¼¥ à¼£à¼©
à½´à¼Ķ à¼
à¾ł à½±à½¿à¼į
à¼¡à¼¥à¼ł à¼£
Ħ à¼įà¼į
à¾±à½²à¼ĭ à¼Ħ
à½ĺà½¦ à½ĳà½Ĥ
à½¼à¼įà¼į à¼Ħà¼ħ
à¾Ń à½½à¼į
à½İ à½¤
à½¿à¼ĭ à½¼
à¼¡à¼¦ à¼©à¼©
à¼ĭà¼ĭà¼ĭà¼ĭà¼ĭà¼ĭà¼ĭà¼ Ħà¼ħà¼įà¼į
à½¦ à½ĸà½£
à½£ à½Ħà½Ĥ
à½Ĥà½Ļ à½£
à¼¡à¼¥ à¼©à¼¤
à¼¡à¼¦ à¼¢à¼©
à¼¡à¼¦ à¼©à¼¥
à½±à½´à¾Ĥ à¼Ķ
Ġ à½łà½Ĥà½ł
à¾Ĵ à½´à¼įà¼į
à½łà½ĳà½¦ à½ĸ
à½ĵà½ĺà½¦ à½ĺà½Ħ
à½Į à½ı
à¼¡à¼¤ à¼§à¼¡
à¼¡à¼¦ à¼¦à¼¨
à¼ĭà½Ī à¾Ļà½²
Ġà¼ł à¼£
à¼ĭà¼ĭà¼ Ħà¼ħ
à½¢ à½Ĳà½¢
à½ħà½ĳ à½¤
à½ĸà½Ģ à½łà½ĸ
à½ĵà½ĵ à½ł
à½Į à½Ķ
à¼¡à¼¥ à¼£à¼¥
à½Ĵ à½Ķ
à¼¡à¼¦ à¼£à¼§
à½ĵà½Ķ à½ĸ
à¾ĭ à½Ĥà½¦
à½ł à½łà½Ľ
à¾Ł à¾²à½¾à¼į
à¾±à½²à¼ĭ à¾İ
à¼¡à¼¥ à¼¥à¼ł
à¼¡à¼¥ à¼§à¼©
à¼¡à¼¨ à¼§à¼¡
à½Ĵ à½¢à½Ĥ
à¼¡à¼¦ à¼¢à¼¥
à¼¡à¼§à¼ł à¼§
à¼ĭà¼¼ à¼į
à¼¡à¼¤ à¼¨à¼¨
à¼¡à¼¥ à¼§à¼¡
à¾µà½¾à¾¼à¾» à½´
à½ĸ à½Ĳà½Ħ
à½ħ à½ĸà½¦
à½Ħà½¦ à½Ĥà½¦
à¾© à¼ĭà¼ĳ
à½ħà½ĵ à½ī
à¼łà¼ł à¼¢
à¼¡à¼¥ à¼¤à¼¥
à¼ĭà¼ĭà¼ĭà¼ ¼
à½ħ à½łà½ĳ
à¾Ļ à½¼à¼įà¼įà¼įà¼į
à¼ĭà¼ ĭà¼ĭà¼ĭà¼ĭà¼ĭà¼ĭà¼ĭà¼ĭà¼ĭà¼ĭ
à½ıà½ĵ à½ĳ
à½ĳà½Ģà½ł à½ŀ
à½Ĥà½ĺ à½£
à¼¡à¼¥ à¼¦à¼©
à½´à¼Ķà¼ ĭ
à½¼ à½²
à½łà½Ĩ à½ĳà½ĳ
à½łà½Ħ à½ł
à½£à½ĵ à½ĺà½Ħ
à½łà½Ĳà½ĳ à½Ķà½¢
à¼¡à¼¥ à¼¨à¼¨
à¼¡à¼¦ à¼§à¼¢
à¼£à¼£ à¼£à¼£
à½© à½ł
ĭ à½±à½²à¼ĭ
à½Ķà½ł à½ĸà½ł
à½ī à½Ĥà½¦
à½ĵà½¦ à½ĺà½¦
à¼ ĭà½±à½²à¼ĭ
à¾Ļ à¾±à½º
à½¢à½Ħ à½ĺ
à½ĩ à½ī
à½ĺà½Ĳà½ł à½¢
à½ĸà½ıà½ĸ à½ĵ
à¼¡à¼¥ à¼£à¼ł
à¼¡à¼¦ à¼¥à¼©
à¼ĭà¼¸ à¼
à½© à½£
à¼ĭà¼¸à¼ ĭ
à½Ĥà½¦ à½Ķà½ĳà½Ħ
à½Ķà½ł à½Ĩà½¢
à½Ķà½¢ à½ĳà½Ħ
à¾Ķ à¼įà¼ĭ
à½Ĩà½Ĥà½¦ à½Ķà½ł
à½ĺà½Ĳà½¢ à½Ĥ
à½ĸà½¦à½£ à½ĸ
à¼¡à¼§ à¼¥à¼¤
à¼¡à¼¦ à¼¢à¼¤
à¾¡à¾² à½¿à¼ĭ
Ġà¼¡à¼¢ à¼£
à¼¡à¼¦à¼ł à¼§
à½¦ à½¨à½¢
à¾± à½ºà¼·
à½¨ à½ĳà½Ħ
à½Ĩà½ĳ à½Ķà½¢
à¾µ à½±à½´à¼ĭ
à¼¡à¼§ à¼£à¼ł
à¾¶ à½±à½²à¼ĭ
à½²à¼ĭ à¼ĭà¼ĭ
à¼¡à¼§ à¼¡à¼¢
à¼¡à¼§ à¼¤à¼ł
à¼¡à¼§ à¼¤à¼¡
à¾ª à½¿à¼ĭ
à½ĺà½İ à½Įà½£
à½»à½» à½»à½»
à½¢ à½ĸà½ŀà½Ĥ
à½Ģ à½Ĥà½¦
à½Ģ à½ŀà½ĵ
à½ħ à½ħà½ĳ
à¾« à½´à¼Ķ
à¼¡à¼§ à¼£à¼£
à¼¡à¼§ à¼¨à¼©
à¼¡à¼¥ à¼£à¼¢
à¼¡à¼¥ à¼¦à¼¡
à¾° à½¿à¼į
à¾·à¾± à½±à¼į
à½¦ à½Ĥà½ĵà½Ħ
à½Ħ à½ĸà½ĺ
à½ĩ à½«
à¼ĭà¼ ĭà¼ĭà¼ĭà¼ĭà¼ĭà¼ĭà¼ĭà¼ĭà¼ĭà¼ĭà¼ĭ
à¼¡à¼¥ à¼¢à¼ł
à¼¡à¼¥ à¼£à¼§
à½ĸ à½Ĩà½Ĥà½¦
à½Ķ à½Łà½ĳ
à½Ķà½ł à½ĳà½¦
à½Ħà½¦ à½ĸà½¢
à½Ļ à½Ĩ
à¾Ļ à½¿à¼į
à½Ķà½ĳ à½ĵ
à¼½ à¼½
à¼¡à¼¦ à¼¦à¼ł
à¼µ à¼įà¼į
Ġà¼ĭà¼ĭà¼ĭà¼ĭà¼ĭ à¼ĭà¼į
à½² à½º
à½Ķ à½ĸà½Ģà½ł
à½ł à½¤à½ĳ
à½Ł à½ĳà½ĸ
à½ĳà½Ģà½¢ à½ĺ
à½Ĥà½¡à½¦ à½¦
à¼¡à¼§ à¼¨à¼¨
à¼¡à¼¨ à¼©à¼¨
à¾ł à½ºà¼į
à½Ķ à½ģà½¦
à½Ķà½¦ à½Ł
à¾¨à¾² à¾±à½´à½¾à¼ĭ
Ġà½Ķ à½ĵ
à¼¡à¼¨ à¼¦à¼¥
à¼¡à¼¦ à¼©à¼ł
à¾ĭ à½ķ
à¼¡à¼¦à¼ł à¼¤
Ġ à½ļà½Ħ
à½ĵ à½ĵà½ĺà½¦
à¾±à½² à½¾à¼ĭ
à½¤ à½Ĭ
à½ĵà½¦ à½ĩ
à½ħà½ĳ à½łà½ĳ
à¾£à¼ µ
à½łà½Ĳ à½£
à¾¦à¾² à¾Ģ
à¼¡à¼¨ à¼¦à¼§
à¼¡à¼¦ à¼¡à¼¥
à¼¡à¼¦ à¼¦à¼§
à½±à¼· à¼·
à½£ à½ĳà½¦
à¾Ĵ à½ºà¼įà¼į
à½ĵà½¦ à½ħ
à½ħà½ĵ à½łà½ĳ
à½ĸà½ŀà½Ĥ à½¢
à½±à½´à¾ĥ à¼ĭà¼´
à½ĳà½Ģà½ł à½¦
à¼¡à¼¨ à¼¡à¼©
Ġ à½ĸà½ĸà½¦
Ġ à½£à½Ħ
à½Ĥà½¦ à½ĺà½¦
à½ĸà½¦ à½łà½Ĥ
à½ĳà½Ĥ à½Ĳ
à½£à½¦ à½¢à½ĸ
à½¡à½Ħ à½ħ
à¾· à½´à¼įà¼į
à½ģà½ĺà½¦ à½Ĥà½Ħ
à½Į à½Ĥ
à¼¡à¼¥ à¼¢à¼¡
à½¦à½Ķ à½ĵà½¦
à½ĺà½Ķ à½Ĥ
Ġà¼¢à¼¢ à¼¢
à½ĺà½ļà½ĵ à½£
à¾¡à½ºà¼ĭ à¼ĳ
à½ĺà½ĵà½ĵ à½ĵà½¦
à¾·à¾± à½¿à¼Ķ
à¼ĭà¼ĭà¼ĭà¼ Ī
à½¦ à½Ĥà½¤
à½¦ à½ŀà½ĵ
à¾± à¾²à½²
à½ł à½Ģà½ł
à½Ļ à½¨
à¾Łà½ºà¼į à¼ĭà¼ĭ
à½łà½ĳà½¦ à½Ĩ
à½ĺà½ģà½¦ à½Ķà½¦
à½Ĺà½ı à½¡
Ġ à½Ķà½łà½ĺ
à½Ĥ à½ĺà½Ľà½ĳ
à½¡ à½£à½Ĥ
à½ĵà½¦ à½Ĥà½ŀà½ĵ
à¾²à¼ĭ à¼Ĳ
à½Ĥà½ĵà½¦ à½Ĥ
à½¦à½ĺ à½łà½ĳ
à½Ĺ à½ĳà½Ħ
à¼¡à¼¦ à¼§à¼ł
à½ĭ à½ı
à¼ĭà¾¾ à¼Ķ
à½ºà¼ĭà½Ī à½±à½²
à½¦ à½ĵà½¢
à¾² à¾¡à½º
à½ĺà½¦ à½Ł
à¾¡ à½´à¼·
à¾© à½±à½²à¼ĭ
à½¨ à½Ł
à½łà½ķ à½¦
à½ĸà½ĸ à½ĺ
à¼¡à¼§ à¼¥à¼¨
à¼¡à¼¥ à¼©à¼§
à¼ĭà¼Ħ à¼ĭà¼ĭ
à¼¡à¼¦à¼ł à¼¥
à½ĺà½¦ à½Ķà½Ģ
à½Ļ à½ģ
à½¨ à½ĸà½¢
à½Ĳà½¢ à½¦
à¼¡à¼¨ à¼§à¼¥
à¼ĭà¾¢ à¾±à¼ĭ
à½ĳ à½£à½ĵ
à½ĵ à½ĺà½ļà½ĵà½ĺ
à½ĵà½¦ à½Ł
à½ĸà½Ł à½łà½ĸà½¢
à½ĵà½ĺ à½īà½ĵ
à½Ĥà½ıà½ĵ à½ĸà½ŀ
à¼¡à¼§ à¼¤à¼¦
à¼¡à¼¦ à¼£à¼¢
à¼¡à¼¦ à¼¤à¼£
à¼¡à¼¥à¼ł à¼¢
Ġ à½ĵà½Ķ
à½Ĥ à½łà½ļ
à¾± à¾Ĺà½ºà¼ĭ
à½Ľ à½łà½ĺ
à½ĵà½Ĥ à½ĺ
à¾Łà½²à¼ĭ à¼ĳ
à¼¡à¼¥ à¼¡à¼¢
à¼¡à¼¥ à¼¨à¼£
à¼¡à¼¨à¼ł à¼¢
à½ķà½İ à½ķ
à½Ķ à½ħà½ĳ
à½ĳà½Ħ à½Ĥà½Ħ
à½£à½¦ à½łà½Ĥ
à½¡à½Ħ à½Ĳ
à½¡à½Ħ à½ĺà½Ħ
à½§ à½ī
à¾Ĵà¾±à¼ µà¼ĭ
à¾©à½ºà¼ĭ à¼Ħà¼ħà¼įà¼į
à½Ķà½ł à½ĩà½ĺ
à¾¡ à½¿à¼į
à¾¡ à¾²à¼įà¼į
à½Ĥà½Ħ à½£à½Ĥà½¦
à½ĸà½¤à½ĳ à½Ķà½¦
à½Ŀ à½ī
à¼¡à¼§ à¼©à¼§
à¼¡à¼¥ à¼¦à¼ł
à½¦à½Ķ à½ı
à½¢ à½¦à½ĺ
à¾Ł à¾Łà½²
à¾±à½²à¼ĭ à¼ħà¼į
à½Ķà½¦ à½ı
à¾¨ à¼ĭà¼ĳ
à½łà½ĩ à½łà½ļ
à½łà½Ĥà½ł à½ĵ
à½² à½¼à¼ĭ
à½´ à½¼
à½¼à¼ĭ à¼ŀ
à½ī à½¡
à½Ķà½¦ à½ĵà½ĺ
à½£à½ĵ à½¢
à½ĺà½ģà½¦ à½Ķà½ł
à¾²à½ºà¼ĭ à¼ĳ
à¼¡à¼§ à¼¤à¼¤
à¼¡à¼¤ à¼©à¼¡
à¼¡à¼¥ à¼¤à¼¨
à¼¡à¼¥ à¼©à¼ł
à¾´ à½´à¼ĭ
à½¦ à½Łà½¦
à½¢ à½ĵà½¢
à½Ĥà½¦ à½§
à½£à½¦ à½ħ
à½Ľ à½ĳà½Ħ
à½ħà½ĳ à½ł
à¼¡à¼§ à¼§à¼¡
à¼¡à¼¥ à¼¢à¼¨
à¼¡à¼¦ à¼¡à¼£
à¾±à½²à¼ĭà½Ī à½º
à½ĳ à½ĳà½Ģà½¢
à½Ħ à½ĸà½¦à½ĺ
à½Ķ à½¡à½ĵ
à½ĸà½¦ à½Ĭ
à½ĺà½¦ à½¢à½Ħ
à½ļ à½ķ
à½ĵà½¦ à½ĵà½¦
à¾¡ à½¼à¼Ķ
à½¡à½Ħ à½ĩ
à¾« à¾«
à½ĺà½Ĳà½ł à½£
à½ĺà½īà½ĵ à½¡
Ġà¼Į à¼Įà¼Įà¼Įà¼Įà¼Įà¼Įà¼Įà¼Įà¼Įà¼Įà¼Įà¼Įà¼Įà¼Įà¼Įà¼Į
à¾¡à¾·à½º à¾ħ
à½Ħ à½łà½ķ
à½ļ à½£à½¦
à½²à¼į à¼Įà¼Įà¼Į
à½ĳà½ĸà½Ħ à½¢
à¼¡à¼¤ à¼¨à¼§
à½Ĺ à½ķà½Ŀ
à¼¡à¼¦ à¼¢à¼£
à¼ĭà¼Ħà¼ħ à¼ĳ
à½Ĥ à½ĸà½£
à½ĵ à½Łà½Ħ
à½Ĥà½¦ à½ŀà½¦
à¾Ł à½ºà¼·
à½ļ à½ī
à½£à½ĺ à½¡
à½Ĳà½ĸà½¦ à½ĳà½Ħ
à¾³à½² à½¾à¼ĭ
à¼¡à¼§ à¼¡à¼©
à¼¡à¼§ à¼¤à¼¢
à¼¡à¼¥ à¼§à¼¨
à½ĸ à½īà½ĵ
à¾¤ à¾±à¼·à½¼
à½łà½Ľ à½£
à½ŀà½ĸà½¦ à½Ģ
à¼¡à¼¤ à¼¨à¼¥
à¼¡à¼¦ à¼¥à¼¨
à¼¡à¼¦ à¼¨à¼§
Ġà¼¡ à¼¡à¼¨
à½¦ à½ļà½£
à½ĳ à½ļà½ĳ
à½ĳà½ĸ à½Łà½Ħ
à¾²à½¼ à½¼
à½Ĥà½¦à½£ à½ĳ
à¼¡à¼¥ à¼©à¼¦
à¼¡à¼¦ à¼§à¼§
à¾·à¾£ à½¾à¼ĭ
à½¦ à½ĺà½ģà½¦
à¾Łà½²à¼ĭ à¼Ħà¼ħà¼įà¼į
à¼¡à¼¤ à¼¨à¼¢
à¼¡à¼¤ à¼¨à¼¤
à¾Łà¾Ń à¾ĥà¼į
Ġà¼¡à¼ł à¼¢
à¼¡à¼§à¼ł à¼¢
à½£ à½ļà½Ħà½¦
à½ºà¼ĭ à½²à¼ĭ
à½Ĥà½¦ à½ĺà½Ľà½ĳ
à½¼à¼ĭ à¼Į
à½Ģ à½ĸà½¦
à½ĸà½ħ à½Ŀ
à¾³à½¼ à½¼
à¼¡à¼¥ à¼¤à¼ł
à½Ĺ à½ĵà½¥
à¼¡à¼¦ à¼£à¼¡
à¾Ł à½»
à¼ĭà¼ Ĺ
à½Łà½ĸ à½ĸ
à½¦à½Ħ à½¢
à¼łà¼ł à¼£à¼¥
à¼¡à¼¥ à¼¡à¼©
à¾ŀà¾ŀ à½¾à¼ĭ
Ġ à½Ĩà½Ĥ
à¾² à¾ĥà¼į
à¾£ à¾²
à¾Ń à½±à½¿à¼ĭ
à½¦à½ĺ à½ŀ
à¼įà¼ Ħà¼Ħà¼ħà¼įà¼į
à½¦à½Ķ à½£à½¦
Ġ à½£à½łà½Ħ
à½Ĥ à½Ĩà½¢
à½¢ à½ĳà½ĳ
à½ºà¼ĭ à½±à¼ĭ
à½Ķà½¢ à½Ĥà½¡
à½łà½ĳà½¦ à½ħ
à¾²à½±à½²à¼ĭ à¼½
à¼¡à¼¥ à¼©à¼¢
à¼¡à¼¨ à¼¦à¼¢
à½Ĺ à½ĺ
à¼Ģ à½Į
à¼¡à¼¦à¼ł à¼£
Ġ à½ķà½£
à½ĵ à½ŀà½Ĥ
à½Ķà½¢ à½łà½ļà½£
à½¤ à½ļ
à½ĳà½ĺ à½ĸ
à½ĺà½ģà½ł à½¦
à½ĸà½ħà½ĳ à½¦
à¼¡à¼§ à¼¡à¼£
à¼¡à¼¥ à¼¤à¼¤
à½Ĺ à½Ĥà½¢
à¾ŀ à¼įà¼į
à¾³à¼ĭà¼ Ħà¼ħ
à½Ķ à½Ħà½ĵ
à½´à¼ĭ à¼ŀ
à½ĳà½Ģ à½¢à½ĸ
à¼¡à¼¥ à¼¤à¼§
à¾ŀ à¾ŀà½²à¼ĭ
ĭ à¾Ĺà½ºà¼ĭ
à¾ ¸
à¼ ĭà¾Ĺà½ºà¼ĭ
à¾³à¼ĭ à½²
Ġà¼Ī à¼Ī
à¼¡à¼§ à¼¥à¼¢
à¾¶ à½±à¼į
Ġà¼¡à¼¥ à¼ł
à¾Ĵà¾±à¼ĭà¼ ½
à½¦ à½ŀà½£
à½ĳ à½ĳà½Ĥà½ł
à½ĵ à½Ĳà½ĸà½¦
à½£ à½Ķà½£
à½Ĥà½¦ à½łà½ĩ
à¾±à½²à¼ĭ à¾¾
à¾¡ à¾±à½±à¼ĭ
à¼¡à¼§ à¼¢à¼¥
à¼ĭà¾¢ à½¾à¼ĭ
à½Ĺà½Ĵ à½Ħà½Ĥ
à½Ķ à½ĺà½ł
à¾Ł à¾Ĺà½ºà¼ĭ
à½ĵà½¦ à½łà½ģ
à½¡à½Ħ à½ģ
à½Ķà½¦ à½¦à½Ħà½¦
à½ħà½ĳ à½ħ
à¼¡à¼¥ à¼£à¼¨
à¼¡à¼¦ à¼§à¼¦
à½¦à½Ķ à½¡
à½Łà½Ĳ à½ķ
à½¦ à½£à½ł
à½Ħ à½Ŀ
à½ĳà½Ħ à½łà½Ĥ
à½ĵà½¦ à½ĳà½ĸ
à½ĸà½ŀ à½ĸ
à½± à½´à¼µà¼ĭ
à¾· à¾²à½±
à¾²à½º à½º
à½ĸà½¦à½ĺ à½¢
à¼¡à¼§ à¼¤à¼©
à¾¤à½ºà¼ĭ à¼´
à½ĵà½ı à½¢à½¡
Ġà¼¡à¼¢ à¼©
à¼¡à¼¥à¼ł à¼¡
à¼¡à¼¥à¼ł à¼¦
à½Ħ à½£à½Ĥà½¦
à½´à¼ĭ à½´
à¼ĭà¼ ĭà¼ĭà¼ĭà¼ĭà¼ĭà¼ĭà¼ĭà¼ĭà¼ĭà¼ĭà¼ĭà¼ĭà¼
à½Ŀ à½ª
à¼¡à¼§ à¼£à¼¥
à½¾à¼ĭà¼ Ħà¼ħà¼į
à¼ĭà¼ĭà¼ĭà¼ Ħà¼ħà¼į
à¼ĭà½ºà¼ĭ à½º
à½Ħ à½ĸà½Ģ
à½ĸà½¦ à½ĸà½¦à½ĺ
à½łà½ģ à½ĺ
à½Ģà½¢ à½¦
Ġà¼ĭà¼ĭà¼ĭà¼ĭà¼ĭà¼ĭà¼ĭà¼ĭà¼ĭà¼ĭà¼ĭà¼ĭà¼ĭà¼ĭà¼ĭà¼ĭà¼ĭà¼ ĭà¼ĭ
à½ģà½ģ à½ģà½ģ
à½Ĥ à½ª
à½²à¼ĭ à¼ĭà¼Ħà¼ħà¼įà¼į
à¾Ĳ à¾±à½²à¼į
à¾±à½º à¼įà¼ĭ
à½Ĥà½ħ à½«à½Ĥ
à½Ĥà½ŀà½ĵ à½ī
à½ĺà½Ľ à½ĳà½Ģ
à¾Ń à½½à¼ĭ
à¼¡à¼¥ à¼£à¼¡
à¼¡à¼¦ à¼¥à¼¡
Ġà¼¡à¼ł à¼£
à¼¡à¼¦à¼ł à¼¢
à¾± à½½
à½¡ à½ĳà½Ħ
à¼¡à¼§ à¼£à¼¤
à¼¡à¼¥ à¼£à¼¤
à¼ĭà¾¾ à¾¾à¾¾
à½¦ à½ĸà½Ļ
à½¦ à½ģà½¦
à½ī à½Ķà½¢
à¾·à¼ ·
à½ĳà½Ķà½£ à½ĵ
à¾¡à½ºà¼ĭ à¼¼
à½İ à½¨
à¼¡à¼¨ à¼§à¼ł
à½Ķà½ĺ à½¡
ĭ à¾©
à½Ħà½¦ à½ĺà½¦
à½ĵà½¦ à½ĸà½ĳ
à¼ ĭà¾©
à¾Ļ à¾Ģ
à½łà½ļ à½£à½¦
à¼¡à¼§ à¼©à¼¨
à¼¡à¼¦ à¼£à¼£
à½ĭ à½ŀ
à½² à½²à¼įà¼į
à½ĵ à½łà½ĩà½ĺ
à½ĸà½¢ à½ı
à¼ ī
à½£à½ĺ à½Ģ
à½ĳà½¢ à½¦
à¼¡à¼§ à¼£à¼¦
à¼ĭà¾¢ à½²à¼į
à¾Ł à¾±à½»à¼ĭ
à½ķ à½¢à½£
à¾· à½»à¼į
à½Ĥà½Ħ à½ĵà½¦
à½ĳà½Ķ à½ļ
à½£à½ĺ à½ĺà½Ĳ
à½ĵà½ĺ à½Ħà½¦
à½Ħà½Ĥ à½ĸ
à½ĵà½ĳ à½£
à¼¡à¼§ à¼¥à¼¦
Ġà½ĸ à½ķ
à½Ĺ à½ĸà½ĵ
à½Ĵà½Ĥ à½«
à½ĵ à½īà½ĵ
à½ĺ à½ĸà½Ĥ
à½ĺ à½¡à½ĵ
à½Ĳ à½łà½ĺ
à½Ļ à½¢à½ł
à½ĺà½ģ à½Ħ
à½Ĥà½ıà½ĵ à½ĵ
à½łà½Ĥà½£ à½ļà½ĸà½¦
à¾¡à¾· à½²à½¾à¼ĭ
à½²à¼ĭ à¼Ħà¼ħà¼ħà¼įà¼į
à½§ à½Ĥà½¦
à¾« à½¿à¼į
à½£à½ĺ à½ŀ
à¼¡à¼¦ à¼¥à¼¦
à¼¡à¼¦ à¼¨à¼¡
à½ª à½ĺ
à¾·à½± à½¿à¼į
à½ĺ à½Ĥà½ŀà½Ĥ
à½ģ à½Ĥà½ī
à½¡à½Ħ à½¢à½Ħ
à½īà½ĺà½¦ à½ĺ
à½Łà½¦ à½Ģ
à¼¡à¼§ à¼¢à¼¦
à¼¡à¼¨ à¼¤à¼¦
Ġà¼¡ à¼¡à¼¤
Ġà¼¡à¼£ à¼¥
à¼¡à¼§à¼ł à¼¤
Ġ à½Ĥà½ŀà½Ĥ
Ġ à½łà½Ĩà½Ħ
à¾ ¢
à½²à¼ĭ à½±à¼ĭ
à½Ĥà½¦ à½Ĥà½Ł
à½Ĥà½¦ à½ĺà½Ĳà½¢
à½Ĩ à½Ĥà½ĺ
à¾±à½´ à½´
à¾¦ à½¿à¼ĭ
à½ĳà½Ķ à½ħ
à½Ĥà½ĵà½¦ à½ı
à½ĺà½¢ à½£
à½ĵà½ĳ à½ł
à½¡à½Ħà½¦ à½¦
à¾ŀ à½´à¼į
à½´à¼ĭà¼ĳ à¼ĳ
à½ĵà½ıà½¢à½¡ à½ħ
à½Ĥ à½ĺà½ģà½ĵ
à½Ķà½ł à½Ĥà½ł
à½ħ à½Ĥà½ĵ
à½ĸà½¢ à½ĺà½Ĳ
à¾²à½¼ à½¾à¼į
à½Ĭ à½łà½Ħ
à½ĸà½ŀà½Ĥ à½Ĥ
à¾ľ à½±à½²à¼į
à½łà½Ĥà½Ĥ à½Ķ
à¾» à½´
à½² à½±à¼ĭ
à½Ħ à½¤à½¢
à½¡ à½ĺà½ł
à¾Ĳ à¾±à¼Ķ
à¾Ļ à½±à½¿à¼ĭ
à½¼à¼ĭà¼ĳ à½¼à¼į
à¼¡à¼¨ à¼¢à¼£
à¼¡à¼¦ à¼§à¼£
à¼¡à¼¦ à¼¨à¼©
à½Ĥ à½łà½ĩà½ĺ
à½´à¼ĭ à¾İ
à¾£ à½´à¼į
à¼¡à¼¨ à¼©à¼¤
à¾¡à½ºà¼į à¼¼
Ġà¼¡à¼ł à¼©
à¾±à½²à¼ĭà½Ī à¾±à½²à¼ĭ
à½ĸ à½łà½ĳà½¦
à¾© à¾±à½²à¼ĭ
à½İ à½Ļ
à¾ľ à½±à¼į
à½Ķà½łà½Ħ à½ĺ
à¼¡à¼¤ à¼¨à¼ł
à½¦ à½Ĩà½Ĥà½¦
à½Ķ à½Ķà½ĳ
à½Ķ à½ĭ
à½ĸà½¦ à½ĺà½Ĳà½ł
à½ĸà½ł à½ķà½Ĥà½¦
à½±à¼ĭ à½º
à½ĩ à½Ĥà½¦
à½¼à¼į à¼ĭà¼ĭà¼ĭà¼ĭà¼ĭà¼ĭà¼ĭà¼ĭà¼ĭà¼ĭà¼ĭà¼ĭà¼ĭà¼ĭà¼ĭà¼ĭà¼ĭà¼ĭà¼ĭà¼ĭà¼ĭà¼ĭà¼ĭà¼ĭà¼ĭà¼ĭà¼ĭà¼ĭà¼ĭà¼ĭà¼ĭà¼ĭà¼ĭà¼
à¾¨à¼ ·à¼ĭ
à½Ŀ à½Ĥà½¥
à½© à½ŀ
à½ĥ à½ĸ
Ġ à½Ħà½ł
Ġ à¼¡à¼¤à¼ł
à½Ķà½¢ à½Ķà½¢
à¾¡ à¾¡à½¼
à¾±à½º à½ºà¼Ķ
à¾Ĺ à½²à¼į
à½ħà½ĳ à½ļ
à½łà½ķ à½ĸ
à½ĸà½Łà½Ħ à½Ĥ
à½Ĵ à½Łà½Ĳ
Ġà½ĵ à½ķ
à½ĺà½¦ à½łà½ĸ
à½ĺà½Ľ à½ĳà½Ħ
à¾²à½²à¼ĭ à¼İ
à¾ļ à½¼à½¾à¼į
à½¢ à½łà½ķà½Ĥà½¦
à¾Ł à½¿à¼įà¼į
à¾Ł à½¼à¼·
à½ĳà½Ģ à½łà½ĺ
à½¥ à½Ļ
à½łà½Ĥà½£ à½ŀ
à½Ĺà½Ł à½«
Ġ à½Ģà½ł
ĭ à¾·
à½ĸà½¢ à½Ģ
à¼ ĭà¾·
à½Ļ à½ĵà½ĳà½ĵ
à½ĸà½ĺ à½¡
à¼¡à¼§ à¼©à¼©
à½Ī à¾±à½º
à¼¡à¼¤ à¼¨à¼£
à¼¡à¼¦ à¼¤à¼©
Ġà¼¡à¼£ à¼ł
à¾³à¼ĭà¼ Ħà¼ħà¼į
à½ĳ à½Ĥà½¦à½¢
à½Ķ à½Ĥà½£
à½ħà½ĳ à½¦à½Ħà½¦
à¾« à½±à¼į
à¾²à½²à¼ĭ à½²
à¼¡à¼§ à¼¡à¼¦
à¼¡à¼¥ à¼¡à¼£
à¼¡à¼¨ à¼¤à¼ł
à¼ĭà¼ĭà¼ĭà¼ĭà¼ĭà¼ĭà¼ĭà¼ĭà¼ĭà¼ĭà¼ĭà¼ĭà¼ĭà¼ĭà¼ĭà¼ĭà¼ĭà¼ĭà¼ĭà¼ĭà¼ĭà¼ĭà¼ĭà¼ĭà¼ĭà¼ĭà¼ĭà¼ĭà¼ĭà¼ĭà¼ĭà¼ĭà¼ĭà¼ĭà¼ĭà¼ĭà¼ĭà¼ĭà¼ĭà¼ĭà¼ĭà¼ĭà¼ĭà¼ĭà¼ĭà¼ĭà¼ĭà¼ĭà¼ĭà¼ĭà¼ĭà¼ĭà¼ĭà¼ĭà¼ĭà¼ĭà¼ĭà¼ĭà¼ĭà¼ĭà¼ĭà¼ĭà¼ĭà¼ĭà¼ĭà¼ ĭà¼ĭà¼ĭà¼ĭà¼ĭà¼ĭà¼ĭà¼ĭà¼ĭà¼ĭà¼ĭà¼ĭà¼ĭà¼ĭà¼ĭà¼ĭà¼ĭà¼ĭà¼ĭà¼ĭà¼ĭà¼ĭà¼ĭà¼ĭà¼ĭà¼ĭà¼ĭà¼ĭà¼ĭà¼ĭà¼ĭà¼ĭà¼
à½Ģ à½ĸà½¢
à½Ĩ à½ī
à½ĺà½Ĳ à½łà½Ĥà½ī
à¾« à½ºà¼į
à½¦à½Ħà½¦ à½¦
à¾Ń à¼ĭà¼½à¼¼
à½¤à½¢ à½ĵ
à½łà½Ĥà½£ à½ĸà½ł
à¼łà¼ł à¼£à¼§
à¼¡à¼¥ à¼¥à¼©
à¼¡à¼¨ à¼¢à¼¢
à¼¡à¼¦ à¼¦à¼¡
à¾ĭ à½¤
Ġà¼¡à¼¢ à¼§
à½Ĥà½ĵà½¦ à½Ķà½¦
à½Ĺ à½ĸà½ı
à½²à¼ĭ à½´à¼ĭ
à½¼à¼ĭ à½´
à½¼à¼ĭ à¾ħ
à½Ķà½ł à½ĺà½¢
à½Ĳ à½Ł
à¾Ĵà¾±à¼ĭ à½²
à½ŀà½£ à½Ĥà½¦
à½ĵà½ĺà½¦ à½¦
à¼¡à¼¦à¼ł à¼¨
à¾Ĵà¾±à¼ĭà¼ Ī
Ġ à½łà½ĳà½ĸ
Ġ à½ĳà½ĺà½Ħà½¦
à¾± à½ºà¼µ
à½ĺà½Ľ à½ĵ
à½¥ à½¤
à½¾à¼į à¼Įà¼Įà¼Į
à¼¡à¼¦ à¼¥à¼¥
Ġà¼¡ à¼¡à¼ł
à¾ļ à½²à½¿à¼į
à½¦ à½ĳà½Ģà½¢
à½Ķ à½ĺà½ģà½ł
à¾± à½¾à¼ĭà¼´
à½£à½¦ à½¡à½Ħ
à½Ķà½¦ à½Ĥà½ŀà½ĵ
à¾²à½¼ à½¿à¼ĭ
à¾Ń à¾°à¼į
à¾¦à¾± à¼į
Ġà½Ķ à½ī
à½Ħà½Ķ à½ĸà½ł
à¼¡à¼¥à¼ł à¼¨
à¼¡à¼§à¼ł à¼£
à½Ħ à½ĸà½ħà½¦
à½Ĳ à½Ļ
à½ĺà½¦ à½ĩ
à½Ķà½¦ à½Ĥà½Ł
à½ĺà½Ľ à½łà½ĸ
à½ĸà½Łà½Ħ à½ĸ
Ġà¼ ¸
à¼¡à¼§ à¼©à¼¦
à¼¡à¼¨ à¼¨à¼ł
à¼¡à¼¦à¼ł à¼©
Ġ à½łà½ĺ
Ġ à½ĸà½¦à½ĺà½¦
à½Ĥ à½Ķà½ĳà½Ħ
à¾Ĵ à½¾à¼į
à½ı à½Į
à½ĺà½¦ à½¨
à½Ĥà½ĵà½¦ à½ļ
à½ĺà½Ľà½ĳ à½ĸà½¦
à½ĺà½Ľà½ĳ à½Ķà½¦
à¼¡à¼¥ à¼¥à¼¨
à½²à¼ĭà½²à¼ĭ à½²à¼ĭà½²à¼ĭ
Ġ à½Ĥà½¡à½Ħ
à½Ķ à½ĵà½Ĥ
à¾± à½¾à¼įà¼į
à½¼à¼ĭ à¼ħà¼į
à½łà½Ĥ à½ŀà½ĵ
à½ĳà½Ķ à½ĵà½¦
à¾Ĵà¾² à¾Ģà¼ĭ
à¼¡à¼¨ à¼¡à¼£
à¼¡à¼¨ à¼¨à¼¦
à½Ĺ à½¢à½¥
à¾» à½¿à¼ĭ
Ġà¼¡à¼£ à¼£
Ġ à½£à½ł
ħ à¼į
à½ĵ à½ĸà½ı
à¾±à½º à½ºà¼į
à½ĸà½ł à½ĸà½ł
à½ºà¼į à¼Į
à½ĸà½ĳ à½ı
à¾Ĵà¾±à½´ à½´à¼ĭ
à½¤à½¢ à½£
à½łà½Ĥà½ł à½¡à½Ħ
à¼¡à¼¥ à¼§à¼¦
à¼¡à¼¨ à¼¦à¼¦
à½Ķà½£ à½Ķ
à¼ĭà¾¾ à¾¾
à½ĺ à½Ĥà½¤
à½£ à½¤à½¢
à½ĺà½Ĳ à½łà½Ĥà½ħ
ĭà¼ĭà¼ ĭà¼Į
à½Ĩà½Ĥà½¦ à½ŀ
à¼¡à¼¦ à¼§à¼¤
à¼µ à½¼à¼įà¼į
à¼ĭà½²à¼ĭ à½º
à¼¡à¼¨à¼ł à¼¡
à½§à½§à½§à½§ à½§
à½Ļà½ĺ à½¢
à¾¡à½ºà¼ĭ à½Īà¾±à½²
à¾¦à¾²à½´ à¼įà¼į
à¼įà¼Ħà¼ħ à¼Ħà¼ħà¼įà¼į
Ġ à½ļà½£
à½ĺ à½£à½Ĥ
à½łà½ĳ à½ŀ
à½ĵà½¦ à½ĺà½Ħ
à¾¦ à¾¦à½ºà¼ĭ
à¾Łà¼ĭ à½º
à½ĳà½¢ à½ĺ
à½£à½Ħà½¦ à½ĵà½¦
à¼įà¼ ´
à¾Ħ à½²
à¼ĭà¼ŀ à¼Ħà¼ħà¼įà¼į
à½ĸ à½ĳà½Ķà½£
à¼ĭà¼į à¼ĭà¼ĭà¼ĭà¼ĭà¼ĭà¼ĭà¼ĭà¼ĭà¼ĭà¼ĭà¼ĭà¼ĭà¼ĭà¼ĭà¼ĭà¼ĭà¼ĭà¼ĭà¼ĭà¼ĭà¼ĭà¼ĭà¼ĭà¼ĭà¼ĭà¼ĭà¼ĭà¼ĭà¼ĭà¼ĭà¼ĭà¼ĭà¼ĭà¼
à¾¨ à¾¨à½²à¼ĭ
à¾±à½ºà¼ĭ à¼¼
à½Ŀ à½łà½ĺ
à¼łà¼ł à¼£à¼¦
à¼¡à¼¥ à¼¦à¼¢
à¼¡à¼¨ à¼¤à¼¡
à¼¡à¼¦ à¼¦à¼¥
Ġà¼¢à¼ł à¼¢
à¾±à¼µ à½²à¼ĭ
à½ķà½Ģ à½Ł
à½´à¼įà¼ĭà¼ĭà¼ĭà¼ĭà¼ĭà¼ĭà¼ĭà¼ĭà¼ĭà¼ĭà¼ĭà¼ĭà¼ĭà¼ĭà¼ĭà¼ĭà¼ĭà¼ ĭà¼ĭà¼ĭà¼ĭ
ĭ à¾¡à½¼à¼ĭ
à½Ĥ à½Ĳà½Ħ
à½ĵ à½¢à½£
à½Ĥà½¦ à½łà½ķ
à½ı à½ħ
à¼ ĭà¾¡à½¼à¼ĭ
à½ĸà½ĳà½Ĥ à½¡
à¼¡à¼§ à¼¤à¼¨
à¼įà¼ĭà¼ ĭà¼ĭà¼ĭà¼ĭà¼ĭà¼ĭà¼ĭà¼ĭà¼ĭà¼ĭà¼ĭà¼ĭà¼ĭà¼ĭà¼ĭ
à¾¶ à½ºà¼ĭ
Ġà¼Ħà¼ħ à¼Ķ
Ġà¼¡à¼ł à¼¦
à½Ķ à½ĳà½Ķà½£
à½Ķ à½ļà½Ħà½¦
à½ĵà½¦ à½Ĥà½ĵà½¦
à½łà½Ĥ à½łà½ĺ
à¾¤ à½¿à¼į
à½ĳà½ĺ à½ī
à½ĸà½ĳà½Ĥ à½ĸ
à½£à½Ĥà½¦ à½ŀ
à¼¡à¼§ à¼¦à¼¤
à¼¡à¼¥ à¼©à¼©
à¼¡à¼¨ à¼¦à¼¤
à¾Ńà½± à½²à¼į
à½Ĥà½¦ à½Ĥà½ĵà½¦
à½ĺà½¦ à½ĳà½Ķ
à½¤ à½ĵà½¦
à¾Ĳ à¾Łà¾±
à½¡à½Ħ à½ĺà½ĳ
à½Ļ à½ħ
à¾¦ à¾·à½²à½¿à¼ĭ
à½¨ à½łà½ĺ
à¼¡à¼§ à¼£à¼¢
à¾Łà½± à½¾à¼Ķ
à½ĳ à½ŀà½ĵ
à½Ħ à½ĸà½ĵ
à½´à¼ĭ à¼ĭà¼į
à½Ħà½¦ à½Ķà½£
à½£à½¦ à½łà½ĳà½ł
à½§ à½ķ
à¾Ń à½±à½²
à½ĵà½ĺ à½§
à½±à½²à¼ĭ à¼Ħà¼ħà¼įà¼į
à¼¡à¼§ à¼¨à¼¢
à¼¡à¼¦ à¼¡à¼¡
à¾Łà¾Ń à½¾
à½´à¼įà¼ĭà¼ĭà¼ĭà¼ĭà¼ĭà¼ĭà¼ĭà¼ĭà¼ĭà¼ĭà¼ĭà¼ĭà¼ĭà¼ĭà¼ĭà¼ĭà¼ĭà¼ ĭà¼ĭà¼ĭà¼ĭà¼ĭà¼ĭà¼ĭ
à½Ħ à½ĳà½ĸà½Ħ
à½ħ à½¡
à½ĺà½Ľ à½ĸ
à¾Łà½ºà¼į à¼ĭà¼ĭà¼ĭà¼ĭà¼ĭ
à¾Łà½´ à½¿à¼į
à¼¡à¼¨ à¼¤à¼¢
à½ĵ à½Ĥà½¦à½ĵ
à½´à¼ĭ à½²à¼ĭ
à½Ĳ à½ĵà½Ĥ
à½ĺà½¦ à½Ĥà½Ħ
à¾¨ à¾±à½ºà¼į
à½ĳà½Ķ à½£à½ĺ
à½Ĥà½ı à½ĵà½¦
à½īà½ĺà½¦ à½Ķà½¢
à½¦à½Ħ à½¥
à¼¡à¼¥ à¼¡à¼¤
à¼¡à¼¥ à¼¨à¼§
à½Ĺ à½Ĥà½İ
à¼¡à¼¦ à¼¨à¼¦
à½ĭ à½£à½¦
Ġà¼ĭà¼ĭ à¼ĭà¼į
à½²à¼ĭà½Ī à½ºà¼ĭ
à½¦ à½ĵà½Ĥ
à½Ĥ à½ĺà½ģà½¦
à½ĳà½Ħ à½ĸà½ŀ
à½Ķà½ł à½¦à½Ħà½¦
à¾· à¾¨
à¾· à¾Ļ
à¾· à¾Ĵà¾·
à¾¦ à½±à½´à¼ĭ
à½ĳà½ĺ à½ĸà½ħà½ł
à½Ĥà½ŀà½ĵ à½ĵà½¦
à½±à½´ à½¾à¼ĭà¼Ħà¼ħà¼įà¼į
à½ģà½ĺà½¦ à½ĵà½¦
à½ķà½ĵ à½Ķà½¢
à¼¡à¼§ à¼§à¼¥
à¼¡à¼¥ à¼¦à¼£
à¼¡à¼¨ à¼¨à¼¢
à¼¡à¼¦ à¼¦à¼©
à½¦ à½ĸà½Łà½Ħ
à¾± à½±à¼Ķ
à½Ģ à½£à½¦
à½ĳà½Ħ à½łà½ģ
à½ķ à½¤
à¾¨ à½±à½²
à¾²à½¼ à½¼à¼ĭ
à½Ĩà½ĳ à½ĵ
à½ģà½Ĥ à½Ĥ
à¼łà¼ł à¼¤à¼ł
à¼¡à¼¨ à¼¢à¼§
à½Ĵ à½Ĳà½Ĥ
à¼¡à¼¦ à¼©à¼£
à¼¡à¼§à¼ł à¼©
à¾²à¼· à½º
à½¦ à½Ķà½Ĥà½¦
à½ĳ à½£à½Ĥà½¦
à½ĸ à½ĸà½¤
à½¡ à½ķà½Ĭ
à½Ķà½¦ à½ĸà½ĳ
à¾µ à½¼
à¼¡à¼¦ à¼¨à¼¥
à¾µà¾¼ à½¿à¼ĭ
à½£ à½Ĥà½ĳà½ĺà½¦
à¾² à½¼à¼µà¼ĭ
à½¼à¼ĭ à¼Ŀà¼įà¼į
à½Ĩ à½ħ
à½ī à½ĺà½Ħ
à½ĸà½¢ à½Ĩ
à½¡à½Ħ à½ļ
à½ĺà½ģà½ł à½ĺà½Ĳà½ł
à¾¡à½´à¼ĭ à¼ĳ
à¼¡à¼¥ à¼§à¼¤
à¼¡à¼¨ à¼§à¼©
à¼¡à¼¦ à¼¡à¼©
à¼¡à¼¦ à¼¦à¼¤
à¾·à½º à½¿à¼ĭ
Ġ à½Ĥà½ħà½ĵ
Ġ à½ĺà½ģà½£
à½ĵ à½ĸà½¤
à½Ķ à½¤à½¢
à¾Ł à¼įà¼ĭ
à½Ħà½¦ à½Ĳ
à½Ķà½¦ à½ĺà½Ĳ
à½ħà½ĵ à½Ĥà½ŀà½ĵ
à½ĺà½īà½ĺ à½Ĥà½ŀà½Ĥ
à¼¡à¼§ à¼¥à¼¥
à¼ĭà¾¢ à½¼à¾ħ
Ġà¼¡à¼¢ à¼¦
à¼įà¼ĭà¼ĭà¼ĭà¼ĭà¼ĭà¼ĭà¼ĭà¼ĭà¼ĭà¼ĭà¼ĭà¼ĭà¼ĭà¼ĭà¼ĭà¼ĭà¼ĭà¼ĭà¼ĭà¼ĭà¼ĭà¼ĭà¼ĭà¼ĭà¼ĭà¼ĭà¼ĭà¼ĭà¼ĭà¼ĭà¼ĭà¼ĭà¼ĭà¼ĭà¼ĭà¼ĭà¼ĭà¼ĭà¼ĭà¼ĭà¼ĭà¼ĭà¼ĭà¼ĭà¼ĭà¼ĭà¼ĭà¼ĭà¼ĭà¼ĭà¼ĭà¼ĭà¼ĭà¼ĭà¼ĭà¼ĭà¼ĭà¼ĭà¼ĭà¼ĭà¼ĭà¼ĭà¼ĭà¼ĭà¼ĭà¼ĭà¼ĭà¼ĭà¼ĭà¼ĭà¼ĭà¼ĭà¼ĭà¼ĭà¼ĭà¼ĭà¼ĭà¼ĭà¼ĭà¼ĭà¼ĭà¼ĭà¼ĭà¼ĭà¼ĭà¼ĭà¼ĭà¼ĭà¼ĭà¼ĭà¼ĭà¼ĭà¼ĭà¼ĭà¼ĭà¼ĭà¼ĭà¼ĭà¼ĭà¼ĭà¼ĭà¼ĭà¼ĭà¼ĭà¼ĭà¼ĭà¼ĭà¼ĭà¼ĭà¼ĭà¼ĭà¼ĭà¼ĭà¼ĭà¼ĭà¼ĭà¼ĭà¼ĭà¼ĭà¼ĭà¼ĭà¼ĭà¼ĭà¼ĭà¼ĭà¼ĭà¼ĭà¼ĭà¼ĭà¼ ĭà¼ĭà¼ĭà¼ĭà¼ĭà¼ĭà¼ĭà¼ĭà¼ĭà¼ĭà¼ĭà¼ĭà¼ĭà¼ĭà¼ĭà¼ĭà¼
à½ĺ à½Ĥà½¡à½¦
à½Ķ à½Ĳà½ĸà½¦
à½Ĳ à½ī
à½ĸà½ĳ à½Ģà½¢
ĭà¼ Ī
à½¿ à¼ĭà¼ħà¼į
à¼¡à¼¥ à¼©à¼¨
à¼¡à¼¨ à¼¤à¼¥
à¼¡à¼¨ à¼¥à¼§
Ġà¼¡à¼ł à¼¥
Ġà¼Į à¼Įà¼Į
à½´à¼įà¼ĭà¼ ĭà¼ĭà¼ĭà¼ĭà¼ĭà¼ĭà¼ĭà¼ĭà¼ĭà¼ĭà¼ĭà¼ĭà¼ĭà¼ĭ
Ġ à½łà½ĸà½ĳ
à½¢ à½ļà½ĳ
à½²à¼ĭ à¾²
à½¡ à½Ł
à½¡ à½ĸà½Ģ
à¼ Ĺ
à¾¡à½¼à¼ĭ à¼¼
à½ĺà½Ĳà½¢ à½ĳ
à¼Ģ à½Ŀ
à½¾à¼ĭà¼ Ħà¼ħ
Ġà¼¡à¼¥ à¼¥
Ġà¼¡à¼¥ à¼¦
à½¡ à½ļà½ĵ
à½ĸà½¦ à½ħà½ĵ
à½ļ à½£à½ĺà½Ĥ
à¼ĭà¼į à¼ĭà¼ĭà¼ĭà¼ĭà¼ĭà¼ĭà¼ĭà¼ĭà¼ĭà¼ĭà¼ĭà¼ĭà¼ĭà¼ĭà¼ĭà¼ĭà¼ĭà¼
à¾Łà¼ĭ à¼Ĳ
à½ĺà½ł à½Ĩ
à½ĺà½¢ à½¢
à½ĺà½ĳà½ł à½¦
à¼¡à¼§ à¼¦à¼¦
à¼¡à¼§ à¼¨à¼§
à½±à½´à½¾ à½¾à¼ĭ
ĭ à¾Ĺà½¼à¼ĭ
à½¢ à½ĺà½īà½ĺ
à½Ĥà½¦ à½ĸà½Ł
à¾² à½¾à¼Ķ
à¾Ł à¾Ł
à¾Ĵ à½±à½²
à¼ ĭà¾Ĺà½¼à¼ĭ
à½łà½ĳà½¦ à½Ĥ
à½łà½ĳà½¦ à½¤
à½łà½ĳà½¦ à½ĺà½īà½ĵ
à½ĸà½Łà½ĳ à½¦
à½¢à½ĳ à½ĸà½ŀ
à¾¼ à½±à¼ĭ
» ¿
ï »¿
à½Ĥà½¦ à½łà½Ľ
à¾Ł à¾Łà½±à¼ĭ
à½ĸà½¦ à½¢à½Ħ
à¾¡à¾· à½²à½¿à¼ĭ
à¼¡à¼¥ à¼¤à¼©
à¼¡à¼¨ à¼¥à¼¨
à¼Ģ à½ķ
Ġà¼£ à¼łà¼ł
Ġà¼¡à¼¢ à¼¥
à½¦ à½ŀà½ĸà½¦
à¼į à¼ĭà¼įà¼į
à½¡ à½łà½ĳ
à½ģ à½£à½¦
à½¡à½Ħ à½ĺà½Ĳ
à½ĺà½Ĥ à½Ĥ
à½ĳà½Ĥà½Ĥ à½Ķ
à¾±à¼į à¼ĭà¼į
à½Ģà½ł à½¦
à¼¡à¼§ à¼©à¼¥
à¼¡à¼¨ à¼¢à¼¨
à¼¡à¼¨ à¼¨à¼©
à¼¡à¼¦à¼ł à¼¡
à½¦ à½Ķà½łà½ĺ
à½±à½´ à½´à½¾à¼ĭ
à½Ĭ à½Ĥ
à½Ĥà½ŀà½Ĥ à½Ĥ
à¾·à¾± à½»à¼ĭ
à¼£à¼¨ à¼¦à¼¢
à½Ĥ à½ĳà½Ĥà½ł
à½ĸ à½ĺà½ģà½¦
à½ĳà½Ĥ à½ĺà½Ħ
à½ļà½ĵ à½ĵ
Ġà½¢ à½Ģ
à½±à¼Ķ à¼
à½¼ à½±à½¾à¼ĭ
à½¢ à½ĺà½ĵ
à½ĳà½Ħ à½Ħà½Ĥ
à¾Ķ à½²
à½Ĥà½ĵà½¦ à½Ĥà½¦
à¾Łà½ºà¼ĭ à½²
à½Ĥà½Ļ à½ĸà½¦
à½ĺà½Ĳà½¢ à½Ģ
à¼¡à¼¥ à¼¥à¼¡
à½Ĵ à½ŀ
à½¦à½¦ à½ĵ
à½§à½ĵ à½§à½ĵ
à¼¡à¼¨à¼ł à¼¨
à¼įà¼İ à¼į
à¾² à¾Ĵà¾±
à½ĳà½Ħ à½ĳà½ĸ
à½Ķà½¢ à½ĳà½Ĥà½ł
à½ĳà½Ĥ à½Ĥà½Ħ
à½Ĥà½ŀ à½Ĥà½¢
à¾Ļ à½±à½²à¼ĭ
à¼¡à¼§ à¼¦à¼£
à¾·à½±à½² à½¿à¼Ķ
à¼ĭà¾§ à½²à½¿à¼į
à½ĳ à½ĺà½Ĳà½¢
à½Ħ à½ĺà½ģ
à¾Ł à¾²à½±à½²
à½ģ à½łà½ĸ
à½¡à½Ħ à½ĸà½¢
à½£à½Ĥ à½ħà½ĵ
à½¢à½ĺ à½§
à¼¡à¼¥ à¼¥à¼£
à¼¡à¼¦ à¼¡à¼¤
à¾» à½±à¼į
à¾¶ à½¿à¼ĭ
à½Ĵà½Ĥ à½«à½¥
à¼łà¼łà¼łà¼łà¼łà¼łà¼łà¼ł à¼łà¼ł
à½¦ à½łà½Ĩà½ĳ
à½Ħ à½ĺà½ī
à½£ à½Ħà½ĵ
à½Ĥà½¦ à½ĵà½ĺ
à½ļ à½ŀ
à½ĳà½Ķà½£ à½Ĥà½ŀ
à½Ĥà½£ à½ĸ
à½Ģà½¢ à½¤
à¼¡à¼§ à¼¦à¼§
à½±à¼Ķà¼ ĭ
Ġ à½łà½ĩà½ł
à½² à¾ħà¼ĭ
à½ºà¼ĭ à¼ħà¼įà¼į
à½Ĥà½¦ à½¡à½Ħ
à½Ĥà½¦ à½ĳà½ĸà½Ħ
à¾Ł à¾Łà½¿à¼į
à½Ķà½ł à½ĺà½Ĩ
à½ĵà½ĺ à½¡
à½łà½ļà½£ à½ł
à¾¨à¾²à¼ĭ à¼ĳ
à¾Łà½ºà¼ĭà¼ĳ à¼ĭà¼ĳà¼ĭ
à¾²à½¼à¼Ķ à¼
à½´à¼įà¼ĭà¼ĭà¼ĭà¼ĭà¼ĭà¼ĭà¼ĭà¼ĭà¼ĭà¼ĭà¼ĭà¼ĭà¼ĭà¼ĭà¼ĭà¼ĭà¼ĭà¼ ĭà¼ĭà¼ĭà¼ĭà¼ĭà¼ĭà¼ĭà¼ĭà¼ĭà¼ĭ
à¾²à½¼à¼Ķà¼ ĭ
à½ĳ à½¦à½ĺ
à½ĺ à½Ĥà½¦à½£
à½¡ à½¢à½£
à¾· à¾¨à½±à¼ĭ
à¾© à¾©à¼ĭ
à¾²à½¼à¼ĭ à¼İ
à½ĸà½ı à½¦
à¼¡à¼¨ à¼©à¼¦
à½Ļ à½ĵà½ĵ
à½İ à½¥
à½Ĥà½ıà½ĵ à½ĳ
à¾¤à¾± à¾¡à½¼
à½Ĥà½¢ à½ĺ
à½Ĥà½¢ à½£
à½Ĥà½¡à½¦ à½Ķ
à¼¡à¼§ à¼¦à¼¡
à¼¡à¼¨ à¼¨à¼£
à½Ĵ à½Łà½ĸ
à¾Ľ à¼ĭà¼Ħà¼ħà¼įà¼į
à¼ĭà¼Ħà¼ħ à¼įà¼ĭ
à½±à½´à½¾ à½¼à¼ĭ
Ġà¼¡à¼¢ à¼¨
à¾Ĵà¾±à¼ĭà¼ Ħà¼ħà¼į
à½ĳà½Ħ à½łà½Ĥà½£
à½ļ à½Ļ
à½ĸà½ĳ à½ŀ
à½²à¼į à¼ĭà¼ĭà¼ĭ
à¼¡à¼¥ à¼¨à¼¡
à¼¡à¼¦ à¼¨à¼¨
à½łà½Ļ à½ĺ
à½Ħ à½Ķà½ĺ
à½¡ à½ĳà½ĵ
à¾Ł à¾Ĺà½º
à½ĸà½¦ à½Ĥà½ĵà½¦
à¾Ĺ à¼·à½º
à½łà½Ĩ à½łà½ĺ
à½ģà½ĺà½¦ à½ħà½ĳ
à½Ŀ à½ļ
à½ĸà½ĵ à½ĸ
à¼¡à¼¨ à¼¥à¼¤
à½ĳà½Ĥà½¦ à½¦
à½ĵ à½ĸà½ħà½¦
à½Ķ à½ĺà½ģà½¦
à½£ à½ĺà½ģà½ł
à½ĸà½£ à½ĸ
à¼¡à¼§ à¼£à¼©
à½ł à½Łà½Ħ
à½Ĩ à½ĺà½Ĳ
à½Ĩ à½Ĥà½¤
à½ĳà½Ĥ à½ķ
à¾¡ à¾¡à¼ĭ
à¾¨ à¾¨à½¿à¼ĭ
à¾³à½¼à¼ĭ à¼ĳ
à½¢à½¦ à½¦
à½Į à½Ĳ
à¼¡à¼¨ à¼¦à¼£
à½Ĺ à½ŀ
à½Ĺà½ģ à½¥
ĭ à¾Ķ
à½Ħ à½ĸà½¤à½ĳ
à½ł à½Ħà½Ĥ
à¼ ĭà¾Ķ
à½£à½¦ à½§
à¼¡à¼§ à¼¦à¼©
à½ĺ à½ĸà½Ģ
à¾± à¾Ńà¼įà¼į
à½Ģà½¢ à½İà½ł
à½Ī à¾²à½º
à¼¢à¼¤ à¼¢à¼¥
à½Ħ à½ĺà½Ľ
à½ŀ à½£à½Ĥ
à½Ķà½¦ à½ĺà½Ľà½ĳ
à½ĸà½¤ à½Ĥà½¦à½ĵ
à¼¡à¼§ à¼¦à¼¨
à¼¡à¼¦ à¼©à¼¢
Ġà¼¡à¼ł à¼§
à½¼ à½º
à½Ħ à½ĺà½ļà½ĵ
à½Ŀ à½Ĥà½¦
à¾²à½± à½¾à¼Ķ
à½£à½Ķ à½ĸà½ł
Ġà¼¡à¼£ à¼¢
à¾Łà¼· à½º
à¼ŀà¼ŀ à¼ŀ
à½ħà½ĳà½Ĥ à½Ł
à½¦ à½Łà½ĸ
à½Ķà½¢ à½ĳà½ĸ
à¾£ à¾¡à½¼
à½Ł à½łà½Ħ
à½Ķà½¦ à½Ĥà½Ħ
à½Łà½¦ à½ĺ
à½ĸà½¦à½ĺà½¦ à½ĺ
à½ºà¼Ķ à¼
à¼¡à¼¦ à¼¥à¼§
à½´à¼įà¼ĭà¼ ĭà¼ĭà¼ĭà¼ĭà¼ĭà¼ĭà¼ĭà¼ĭà¼ĭà¼ĭà¼ĭ
à½ĵ à½ĳà½Ķà½ł
à½ģ à½Ħà½ĵ
à¾·à¼ĭà¼ Ī
Ġ à½ĸà½Ģà½£
à½¦ à½łà½Ĩ
à½¢ à½ĺà½Ĳà½ł
à½¢ à½ĵà½Ĥ
à½Ķ à½ĳà½Ĥà½ł
à¼įà¼į à¼Ħà¼ħ
à¾· à½±à½´à¾ĥà¼ĭ
à½Ĵ à½Łà½Ĥ
à½¦à½Ķ à½Ĩ
Ġà¼½ à¼į
à½ħà½ĳà½ĸ à½ĳà½Ĥ
à½¦ à½łà½ļ
à½Ħ à½ĺà½Ĳà½ł
à¾² à¾Ĺà½²
à¾Ł à½±à¼įà¼į
à½Ĩ à½ģ
à½ļ à½łà½Ħ
à¾Ĵà¾± à½ºà¼į
à½łà½Ĥ à½¡
à½ĺà½Ĳ à½łà½ĳ
à¾ĭ à½ı
à½²à¼ĭà¼Ħà¼ħà¼įà¼į à¼į
à½´à¼ĭà¼ĳ à¼ĭà¼ĳà¼ĭ
à½Ĥà½¦ à½ĺà½Ĳà½ł
à½ī à½łà½Ħ
à½¢à½Ħ à½Ĥà½ŀà½ĵ
à½Ĥà½ŀà½ĵ à½Ħ
à½ĸà½¦à½ĺ à½ŀ
à½¥ à½¨
à½ĵà½ıà½ĵ à½ĵ
à¾·à¼ĭà¼ Ĳ
à½´à¼įà¼ĭà¼ĭà¼ĭà¼ĭà¼ĭà¼ĭà¼ĭà¼ĭà¼ĭà¼ĭà¼ĭà¼ĭà¼ĭà¼ĭà¼ĭà¼ĭà¼ĭà¼ ĭ
Ġ à½ĸà½¦à½Ĥà½¦
à½ĸ à½Ĥà½¦à½Ħ
à½ĵ à½łà½Ĳ
à½Ģ à½ĺà½¦
à½ķ à½Ļ
à½ı à½ĳà½Ħ
à¾· à¼įà¼ĭ
à¾· à¾Ħ
à½ĸà½ħà½¦ à½ĺ
à¼¡à¼¥ à¼©à¼£
à½Ĥà½Ķ à½ı
Ġ à½¡à½Ħà½¦
à½ĸ à½łà½Ĥà½ł
à½£à½¦ à½ĸà½ħ
à¾© à½½à¼ĭ
à½²à¼į à¼Ħà¼ħà¼į
à½Ĭ à½ķ
à¾ľ à½º
à½ķà½Ĭ à½ĸ
à½¼à¼Ķ à¼Ħà¼ħà¼įà¼į
à¾Ĳà¾±à½´ à¼į
à½Ī à½±à½²
à¼¡à¼¥ à¼¨à¼¤
à¼¡à¼¨ à¼£à¼¨
à½ĭ à½£
Ġà¼Ĳ à¼Ĳ
à¼ĭà¼ĭà¼ĭà¼ĭà¼ĭà¼ Į
à¾ĳ à½±à½²à¼ĭ
à½į à½ĳà½Ĥ
à¾¨à¾¼à¾» à½´à½¾à¼ĭ
à½ł à½ĺà½ĵ
à½ĳà½Ħ à½Ķà½ł
à½Ķà½¢ à½łà½ģ
à¾Ĺ à½ºà¼·
à¾© à½±à¼į
à¼¢à¼łà¼ł à¼łà¼ł
à¾¦à¾· à½±à½²à¼į
Ġ à¼¡à¼©à¼ł
à½¦ à½Ļà½ĵ
à½Ķ à½Ĥà½¢
à½ĸà½¢ à½ĳà½Ħ
à½Ĥà½Ħ à½Ħ
à½ĸà½ĳà½Ĥ à½ł
à¼ĭà¼įà¼į à¼Ī
à½Ĥà½¦à½£ à½ĵ
à¼¡à¼¦ à¼§à¼¡
à¼ĭà¼ĳà¼ĭà¼ĳ à¼¼
à¼ĭà¿ ī
à½Ķ à½ŀà½£
à½ł à½¡à½Ħ
à½Ķà½¢ à½ĳà½ĺ
à½Ł à½ĳà½Ĥ
à½£à½ĺ à½¤
à¾Łà½ºà¼ĭ à¼Ħà¼ħà¼į
à½ĺà½ī à½ĺà½¢
à½ļà½ĳ à½£
à½łà½ļà½£ à½ĸ
à¼¡à¼§ à¼§à¼¦
à¼ĭà½Ī à½¼à¼ĭ
à¿ ļ
à¾± à¾³à½º
à¾³ à¾¡à½¼à¼ĭ
à½²à¼ĭà¼´ à¼į
Ġà¼¡à¼§ à¼¡
Ġ à½¼à¼ĭ
Ġ à½Ĳà½ĳ
à½¦ à½ĸà½ħà½¦
à½ĵ à½£à½Ĥà½¦
à½¡ à½ģà½¦
à¾Ĵà¾±à¼ µ
à½ĳà½Ķà½ł à½ĳà½Ħ
à¾¡à½¼ à½¾
à¼¡à¼¨ à¼¨à¼¥
à¾·à¾²à¼ĭà½µ à¾ĥà¼ĭ
à½ºà¼Ķà¼ ĭ
à½Ĥà½¦ à½ĸà½ħà½ĳ
à½¡ à½ĸà½ŀ
à½£à½¦ à½Ĳà½ĺà½¦
à¾« à½¾à¼ĭ
à½ĸà½£ à½¢
à½Ŀ à½¦à½¦
à½¼à¼Ķ à¼į
à¼¡à¼¥ à¼¨à¼ł
à½¼à¼įà¼Ħà¼ħ à¼ħà¼įà¼į
à½Ĥ à½ĳà½ĺà½¢
à½Ĥ à½Ĥà½Ħà½¦
à½ĸ à½Ĥà½ıà½ĵ
à½£ à½ģà½ĺà½¦
à½£ à½ĸà½ĵ
à½¡ à½£à½¦
à¾Ĵ à½±à½²à¼į
à¾Ĵ à¾·à¼į
à½Ĳ à½ĺà½ĳ
à½ĸà½ħ à½łà½ĺ
à½ĺà½ļ à½ĺà½ļà½ĺà½¦
à½ĳà½ĺ à½ģà½ł
à¼¡à¼¥ à¼¨à¼¢
à¼¡à¼¨ à¼¦à¼¡
à½ĵà½Ķ à½Ģ
à½¦à½Ķ à½ŀ
à½ĵà½Ķà½ł à½ĳ
à½±à½¼ à¾ĥ
Ġ à½īà½£
à½Ĥ à½ĸà½Ļ
à½ĸ à½ĸà½Ļ
à½¢ à½Ĥà½ĵ
à½Ħ à½ĸà½Ĥ
à½Ķà½¢ à½Ĥà½¦à½£
à½ĵà½¦ à½Ĥà½Ħ
à¼łà¼ł à¼£à¼¨
à¼łà¼ł à¼£à¼©
à¼¡à¼¨ à¼¥à¼¡
à¾ļ à¾²à¼ĭ
Ġ à½¢à½ĸà½¦
à½ºà¼ĭ à¼Ħà¼įà¼į
à½ĸà½¦ à½ĳà½Ķ
à½Ł à½Ĥà½£
à¾Ķ à¾¡à½¼à¼ĭ
à½ĺà½ļà½ĵ à½Ķ
à½Ĳà½£ à½£
à½ĸà½ıà½Ħ à½ĸ
à¼¡à¼§ à¼¤à¼¥
à¼¡à¼¥ à¼¨à¼¦
à½ĳà½Ķà½¢ à½Ĥ
Ġà¼¡à¼¤ à¼¥
à½ĸ à½Ķà½£
à½¢ à½ĳà½Ģà½¢
à¾Ł à¾Ĳà¾±à½ºà¼ĭ
à½£à½¦ à½łà½ģ
à½£à½¦ à½ĺà½Ľà½ĳ
à½ĸà½ĸ à½Ķ
à¼¡à¼§ à¼§à¼¨
à¼ĭà¼ĭà¼ĭà¼ĭà¼ Ī
à½ĵ à½Ĥà½¤à½Ĥà½¦
à½ĺ à½ŀà½ĵ
à½´à¼ĭ à½Īà½²
à½ŀ à½Ķà½¦
à½ĸà½¢ à½ĺà½Ħ
à½Ħà½¦ à½Ł
à½ĵà½¦ à½§
à½Ĥà½ŀ à½Ĥà½ĳ
à½§ à½Ķ
à½±à¼į à¼Įà¼Įà¼Į
à½Ĥà½ĳà½ĺà½¦ à½Ķ
à½ĵà½Ķ à½Ħ
à¾ł à½²à¼įà¼į
à¼ĭà¼Ī à¼Ļ
à¼ĭà¾§ à½±à½´à¼ĭ
à½ħà½ĳ à½ĵà½¦
à¾¡à½´ à½¿à¼ĭ
à½ĸà½¦à½ĺ à½ĵ
à½ĺà½Ĥ à½Ļ
à½Ī à¾±à½²à¼ĭ
à¼¤à¼ł à¼¢à¼ł
Ġà¼Į à¼
Ġà¼Įà¼ ĭ
à½ī à½ĺà½ł
à½ļ à½ĳà½ĸ
à¾· à½½à¼į
à¾· à¾²à½±à¾Ģà¼ĭ
à½£à½Ĥà½¦ à½ĳ
à¾³à½´à¼ĭ à¼ĳ
à¼¡à¼§ à¼£à¼¡
à¼¡à¼§ à¼§à¼£
à¼¡à¼¨ à¼¥à¼ł
à½Ļà½Ħ à½¥
à½²à¼ĭà¼½ à¼
à½ł à½Ħà½ĵ
à½£ à½Ĳà½ĸà½¦
à¼įà¼į à¼įà¼įà¼į
à½Ł à½ı
à½Ĥà½ŀà½Ĥ à½Ķà½¢
à½£à½Ħ à½ł
à¼¡à¼¨ à¼¤à¼©
à¾ŀ à½¾à¼ĭà¼Ħà¼ħà¼įà¼į
Ġà¼¡à¼£ à¼©
à½²à¼ĭà¼½à¼ ĭ
à½º à½¼
à½Ĥà½¦ à½ĵà½Ħ
à½ĸà½ŀ à½Ķ
à¾¦ à¾·à¼Ķ
à½ħà½ĵ à½ĵà½ĺ
à½Ľ à½Ŀ
à½Ĥà½ı à½ĺà½Ĥ
à½ĵà½ĺ à½¤
à½Ĩà½Ĥà½¦ à½ĸ
à½ĸà½ħà½ĳ à½ĵà½¦
à¾±à¼į à¼½
à¼¡à¼§ à¼¡à¼¥
à¼¡à¼¨ à¼§à¼¨
à½ĳà½¦ à½£
à¼ĭà¾¢ à½²
à½¼à¼ĭà¼½ à¼į
ĭ à¾ĥà¼ĭ
à½ĸà½¦ à½ħ
à¼ ĭà¾ĥà¼ĭ
à¾· à¾²à½ºà¼ĭ
à½Ļ à½łà½ĺ
à¾±à½ºà¼ĭ à¼İ
à½ĩ à½Ķ
à½¤à½¢ à½Ĥ
à½ĵà½ĺà½¦ à½£
à¾²à¼į à¼¼
à¼įà¼ĭà¼ĭà¼ĭà¼ĭà¼ĭà¼ĭà¼ĭà¼ĭà¼ĭà¼ĭà¼ĭà¼ĭà¼ĭà¼ĭà¼ĭà¼ĭà¼ĭà¼ ĭà¼ĭà¼ĭà¼ĭà¼ĭà¼ĭà¼ĭà¼ĭà¼ĭ
Ġ à½ĳà½ĺà½ĵ
à½Ĥ à½Ĥà½¦à½¢
à½¢ à½łà½ĳà½¦
à½ħ à½Ĥà½£
à½ĵà½¦ à½£à½¦
à½ĵà½¦ à½ĺà½ĳ
à½¢à½ĸ à½ĺà½Ĩ
à¾« à¾·à¼ĭ
à½ĵà½ĺ à½ĺà½Ĩ
à½±à½²à¼ĭ à¼´
à¼¡à¼¨ à¼£à¼§
à½ĵà½Ķ à½ļ
Ġà¼¡à¼ł à¼¨
à¾Ĵà¾±à¼ĭà¼ ´
à½ĳ à½ĵà½łà½Ħ
à½Ĥ à½łà½Ĳ
à½ĸ à½Ħà½Ħ
à½ĳà½Ħ à½ĺà½Ħ
à½Ķà½¢ à½¢à½Ħ
à½Ļ à½ĺà½ļ
à¾Łà¼ĭ à¼Ħà¼ħà¼į
à½łà½ĳà½¦ à½ĺà½Ħ
à¾Ĳà¾±à½ºà¼ĭ à¼İ
à½ĵà½ĺ à½¡à½Ħ
à¼¡à¼¥ à¼©à¼¡
à½Ĳà½ĺà½¦à½ħà½ĳ à½£à½¦
à¼ĭà¼ĭà¼ ĳ
à¾²à½²à¼ĭ à¼Ħà¼ħà¼į
à½ĸà½ıà½Ĥà½¦ à½¦
à¼¡à¼¨ à¼¢à¼¥
à¾ŀ à½²à¼į
à¾ĭ à½ī
à¾´ à¼Ķ
Ġà¼İ à¼Ī
à½¦ à½ĺà½ģà½ĵ
à½¦ à½Ķà½łà½Ħ
à½Ħ à½¤à½¦
à½ºà¼į à¼Įà¼Įà¼Į
à½Ĥà½ĵà½¦ à½¡
à½Ĥà½Ļ à½¢
à½Ħà½ĵ à½ĸ
à¾Łà½´ à¼įà¼įà¼į
à½¥ à½Ĥ
à½Ħà½Ħ à½£
à¾¦à¼ĭ à½²
à¾¡à¼ĭ à¾¢
à¼¸ à¼
à¼¸à¼ ĭ
Ħ à¼į
à¾ Ĭ
à½Ĥ à½ļà½Ħ
à½Ķ à½ĸà½Ļ
à½Ĥà½¦ à½ĺà½ļà½ĵ
à¾² à½¾à¼įà¼į
à½ĸà½¦ à½łà½ĸ
à½ģ à½Ģà½ł
à½ĸà½¢ à½ıà½£
à½Ķà½¦ à½ĺà½¦
à½ĸà½¤ à½Ĳà½Ĳ
à½Ħà½ĵ à½¢
Ġà¼¡à¼¥ à¼¤
à½²à¼ĭà½Ī à¾²à½º
à½Ħ à½Ħà½ĵ
à½ł à½ĺà½Ĳ
à½ł à½£à½ĺ
à½¼à¼ĭ à¼Ħà¼įà¼į
à½ĺà½Ħ à½ĺ
à½īà½ĺà½¦ à½£
à½Į à½ļ
à¼¡à¼§ à¼©à¼¤
à¼¡à¼§ à¼¨à¼¡
Ġ à½Ĳà½ĸ
ĭ à½±à½¿à¼ĭ
à½ĸ à½¡à½ĵ
à½º à¾ĥà¼ĭ
à¾± à¾Ĺà½¼
à½¡ à½ĩ
à½ħ à½Ķà½ł
à½ĺà½¦ à½łà½ģ
à¼ ĭà½±à½¿à¼ĭ
à¾¦ à¾·à¾±à½±
à½ĳà½Ķà½ł à½¡
à½±à¼į à¼Ħà¼ħà¼įà¼į
à½Ĥà½Ħà½¦ à½¢
à¼¡à¼¥ à¼¨à¼¥
à¼¡à¼¨ à¼¢à¼©
à½²à¼ĭà¼ĳ à¼ĭà¼ĳ
à½¦ à½Ĥà½£
à½Ĥ à½ĸà½¤à½ĳ
à½¢ à½Ĥà½Ļ
à½ħ à½¤
à¾Ĳ à½±à½²à¼ĭ
à¾±à½ºà¼ĭ à½²
à½¿ à¼ĭà¼½
à½Ĥà½¦à½¢ à½Ķ
à½ĵà½ĵà½¦ à½ī
Ġà¼¡à¼¤ à¼¢
Ġà¼ĭà¼ĭà¼ĭà¼ĭà¼ĭà¼ĭà¼ĭà¼ĭà¼ĭà¼ĭà¼ĭà¼ĭà¼ĭà¼ĭà¼ĭà¼ĭà¼ĭà¼ĭà¼ĭà¼ĭà¼ĭà¼ĭà¼ĭà¼ĭà¼ĭà¼ĭà¼ĭà¼ĭà¼ĭà¼ĭà¼ĭà¼ĭà¼ĭà¼ĭà¼ĭà¼ĭà¼ĭà¼ĭà¼ĭà¼ĭà¼ĭà¼ĭà¼ĭà¼ĭà¼ĭà¼ĭà¼ĭà¼ĭà¼ĭà¼ĭà¼ĭà¼ĭà¼ĭà¼ĭà¼ĭà¼ĭà¼ĭà¼ĭà¼ĭà¼ĭà¼ĭà¼ĭà¼ĭà¼ĭà¼ĭà¼ ĭà¼ĭà¼ĭà¼ĭà¼ĭà¼ĭà¼ĭà¼ĭà¼ĭà¼ĭà¼ĭà¼ĭà¼ĭà¼ĭà¼ĭà¼ĭà¼ĭà¼ĭà¼ĭà¼ĭà¼ĭà¼ĭà¼ĭà¼ĭà¼ĭà¼ĭà¼ĭà¼ĭà¼ĭà¼ĭà¼ĭà¼ĭà¼ĭà¼ĭà¼ĭà¼ĭà¼ĭà¼ĭà¼ĭà¼ĭà¼ĭà¼ĭà¼ĭà¼ĭà¼ĭà¼ĭà¼ĭà¼ĭà¼ĭà¼ĭà¼ĭà¼ĭà¼ĭà¼ĭà¼ĭà¼ĭà¼ĭà¼ĭà¼ĭà¼ĭà¼ĭà¼ĭà¼ĭà¼ĭà¼
à½Ĺà½Ĳ à½Ł
Ġ à½ĸà½¦à½£
Ġ à½¢à½Ĥ
à½¦ à½£à½Ĥ
à½¦ à½Ķà½ī
à½ĳ à½ĺà½ļà½ĺà½¦
à½ĺ à½ĸà½¦à½ĺ
à½Ĩ à½Ł
à½Ĳ à½ĸà½ĺ
à¾· à½ºà½ºà¼ĭ
à½ĳà½Ķà½ł à½ī
à½¡à½¦ à½ĵ
à¼¡à¼¦ à¼¢à¼¨
Ġ à½ĸà½Ħ
à½ĳ à½Ĳà½ĺà½¦à½ħà½ĳ
à½Ĥ à½Ķà½łà½ĺ
à¾¤ à½ºà¼įà¼į
à¾Ĵà¾±à½´à¼ĭ à¼Ī
à½ļà½Ħà½¦ à½Ķ
à½ĺà½ĩà½£ à½ĳ
à¼¡à¼¨ à¼§à¼£
Ġà¼¡à¼¦ à¼§
à½ĵ à½ļà½ĵ
à½²à¼ĭ à¼ĭà¼ĭà¼ĭà¼ĭ
à½ĳà½Ħ à½Ĥà½ĵà½¦
à½ħ à½ķ
à¾Ĵà¾± à½´à¼·
à½£à½¦ à½ĸà½ĳ
à½¡à½Ħ à½łà½ĸ
à½¢à½ĸ à½ĸà½¦
à½Ĥà½ŀà½ĵ à½ĳà½ĸà½Ħ
à½¦à½¢ à½ĺ
à½¤à½¦ à½¢à½ĸ
à¾·à½±à½´ à½¿à¼į
à¾±à½²à¼ĭà¼ĳ à¼į
Ġ à½Ĥà½ıà½ĳ
à½ŀ à½Ĩ
à½łà½ĸ à½ĳà½Ķ
à¾© à½»à¼ĭ
à¾Łà¼ĭ à¼Ī
à¾±à½ºà¼ĭ à¼·à¼ĭ
à½Ĥà½ı à½Ķ
à½ĳà½Ķà½ł à½ł
à¾¨à¼ĭ à½²
à½£à½ĵ à½£
à¾²à½± à¾ĥà¼Ķ
à½ĵ à½łà½Ĥà½£
à½Ħ à½£à½Ĥ
à½²à¼ĭ à½¾à¼ĭ
à½¼à¼ĭ à¼ŀà¼į
à¾±à½¼ à½¿à¼ĭ
à½ĳà½ĸ à½¤
à½ĺà½ģ à½ĺà½¦
à½łà½ĳà½¦ à½ĩ
à½£à½Ĥà½¦ à½Ķ
à½£à½Ĥà½¦ à½ı
à½Į à½¥
à½ĳà½Ķà½¢ à½ĺ
à¼¡à¼¡à¼ł à¼łà¼ł
à¼¡à¼§à¼ł à¼¡
Ġ à¼¡à¼©à¼¨
à½²à¼ĭ à¾±
à½Ĳ à½ĵà½¦
à½Ĳ à½Ĥà½¢
à½± à¾ĥà½¿à¼ĭ
à¾Łà¼ĭ à¼Ħà¼ħ
à½İ à½Ĥ
à¼¡à¼§ à¼¥à¼£
à¼ĭà¼ĭà¼ĭà¼ĭà¼ĭà¼ ¼
à½¦ à½ķà½¥
à½ĵ à½¡à½ĵ
à½Ģ à½łà½Ĥ
à½Ĩ à½ĺà½īà½ĺ
à½ī à½Ķà½ł
à½ļ à½Ľ
à½ĸà½Łà½Ħ à½£
à½ĸà½ĸ à½Ħ
à¼¡à¼¨ à¼¦à¼¨
à½Ĺ à½©
à¼¤à¼¥ à¼łà¼ł
à½Ĳ à½ĺà½Ĳ
à¾¡ à¾Ńà¼ĭ
à½Ł à½¡
à½¡à½Ħ à½łà½ĩ
à½ĳà½Ķà½ł à½¤
à¾Ĵà½¼à¼ĭ à¼ĳ
Ġà¼Ī à¼Ļ
à¼ĭà¼´ à¼´à¼´
à¼¡à¼¨ à¼¥à¼¢
à¼¡à¼¦ à¼¨à¼¤
à½¢à½Ķ à½ĸà½¦
Ġà¼¡à¼¤ à¼§
à¾¾à¾¾à¾¾à¾¾ à¾¾à¾¾à¾¾à¾¾
à½ĺ à½£à½ł
à½Ķ à½ĵà½ł
à½Ĥà½¦ à½Ĥà½ŀ
à½ļ à½¨
à¾Ļ à½±à½¾à¼ĭ
à½Ĳà½ĺà½¦ à½¦
à¾³à½¼à¼ĭ à¼´
à½łà½Ĳ à½ĳà½Ķà½ł
à½ĸà½¦à½ĺà½¦ à½ĵ
à½Ĺ à½ķà½¦
à½¦ à½ĳà½Ĥà½ł
à½Ķ à½ŀà½ĸà½¦
à½£ à½łà½ĳà½¦
à½Ģ à½İà½ł
à½Ķà½ł à½ī
à½ı à½ĸà½Ľ
à½ļ à½Ĩ
à¾¡ à½¾à¼į
à¾· à¾±à½²à¼ĭ
à¾· à¾²à½²à½¾à¼ĭ
à½ħà½ĳ à½ĳà½Ĥ
à¼¡à¼§ à¼¦à¼¥
à¾ĳ à½²
à¾Ķà¼ĭà¼ İ
à½Ħ à½ĺà½£
à½´à¼ĭ à½´à¼ĭ
à½¡ à½ĳà½ĳ
à½Ķà½¢ à½Ĥà½ı
à½£à½¦ à½ĸà½ŀ
à¾²à½¼ à¼įà¼ĭ
à½£à½ĺ à½ĺà½Ĩ
à¾Ĵà¾²à½´ à¼į
à½Ĥà½£ à½Ĩ
à½ĳà½¢ à½Ĥ
à½²à¼Ķ à¼į
à¼¡à¼¦ à¼¦à¼¦
à½ºà¼ĭà¼ ı
à¾ľà¾ľ à¼ĭà¼¼
à¾ľà¾ľ à¾ľà¾ľà¼ĭà¼¼
à½ĺ à½Ģà½¢
à½¡ à½ĳà½ĸ
à½ĵà½¦ à½ĵà½ĺ
à¾±à¼ĭ à¼ħà¼įà¼į
à¾Ĵà¾±à½´à¼ĭ à¼Ħà¼ħà¼į
à½ĺà½ł à½¦
à¼ł à¼©à¼ł
à½Ĺ à½ķà½¢
à¾´ à¼įà¼į
Ġ à½¦à½Ħ
à¾± à½±à¼įà¼į
à½¼à¼ĭ à¼ĭà¼į
à½ĸà½¦ à½ĸà½ŀ
à½ķ à½łà½Ħ
à½ļ à½Ł
à½ĵà½¦ à½ĺà½Ĳ
à½ĵà½¦ à½ĳà½Ģ
à½Ľ à½ĸà½Ľ
à½£à½ĺ à½İ
à½ĵà½Ħ à½ĺ
à½ĸà½¦à½ĺ à½Ķà½¦
à½¦à½¢ à½£
à½ĵà½ĵ à½łà½Ħ
à½Ĩà½Ĥ à½ĳà½Ħ
à¼¡à¼¨ à¼£à¼¦
à¾Ńà½± à½¿à¼į
à½ºà¼ĭà¼ĳ à¼ĭà¼ĳà¼ĭ
à¼½à¼¼ à¼½
à¾±à¾Ń à¼ĭà¼´
à¾Ĭ à½Ķ
à½ĳ à½Į
à½Ĥ à½ļà½ĵ
à½¢ à½īà½ĺà½¦
à½£ à½¡à½ĵ
à½Ķà½ł à½¤
à½Ĩ à½¤
à½¦ à½ĸà½¦à½ĺà½¦
à½² à½ºà¼ĭ
à½¢ à½£à½ĵ
à¾± à¾ĥà¼ĭ
à½ļ à½Ķà½ł
à¾³ à¾Ĵà¾²à½¼
à¾¤ à½±à¼į
à½± à½¼à¼į
à½Ĳà½ĺà½¦ à½ħà½ĵ
à½īà½ĵ à½¢à½Ħ
à¼¡à¼¨ à¼¤à¼¤
à¼¡à¼¨ à¼§à¼¢
à¼¡à¼¦ à¼©à¼¡
à¼ĭà½Ī à¾¤à¾²à½²
à¾²à¾° à½²à¼į
à¾Ĵà¾· à¾ĥà¼ĭ
à½ĳ à½īà½ĺà½¦
à½ĸ à½īà½ĺ
à½Ħ à½ĸà½Łà½Ħ
à½£ à½ĳà½Ģà½¢
à½ĸà½¦ à½Ĥà½ī
à½ĳà½Ĥ à½¢à½ĸ
à½¨ à½¢à½ł
à½ĺà½Ľ à½Ĥ
à½²à¼įà¼į à¼
à½Ĥà½£ à½ł
à½Ŀ à½«à½Ħ
à¼įà¼ĭà¼ ĭà¼Į
à¾Łà¾Ń à¾ĥà¼Ķ
Ġà¼¡à¼© à¼¢
à½´à¼ĭ à¾¾à¼į
à½ķ à½ĺà½ł
à½Ħà½¦ à½ĺà½Ħ
à½Ł à½¦à½¢
à½£à½¦ à½ħà½ĵ
à½£à½¦ à½ĺà½Ĩ
à¾· à¾²à½²à¼į
à½Ĥà½ŀ à½ĸ
à½ħà½ĳ à½Ķà½ł
à½ĳà½ĺà½¢ à½¦
à¾¨à½² à½¾à¼į
à½Ĳà½Ĥ à½Ķ
à½Ĩà½Ĥ à½Ģ
à¾¤à¾² à¼į
à¼¡à¼¨ à¼¡à¼ł
à¼¡à¼¨ à¼¢à¼¡
à¼¡à¼¨ à¼¨à¼§
à¾ŀ à½¿à¼ĭ
à¾ĭ à½Ĥà½ĵà½¦
à½Ĥà½¦ à½Ĥà½ı
à½ĸà½¦ à½Ĥà½Ħ
à½¨ à½ĩ
à¾Ĵà¾²à½² à¼į
à¼§ à¼łà¼łà¼ł
à¼· à¼ĭà¼·
à¼ĭà¼½ à¼Ī
Ġà¼¡à¼¥ à¼¢
à¼¡à¼¨à¼ł à¼¤
à¼ĭà¿ ļ
à½²à¼įà¼įà¼ ĭ
à½ĵ à½ĺà½ģà½ĵ
à¼į à¼ĭà¼įà¼ĭ
à½Ķà½¢ à½ħ
à½ĳà½Ĥ à½łà½Ĥ
à¾±à½¼ à½¾
à¾© à¾±à½¼à¼ĭ
à½ĺà½Ĩ à½ĸ
à½Ħà½ĵ à½ĳà½Ħ
à¾³à½´à¼ĭ à¼Ħà¼ħ
à¼Ģ à½ļ
Ġà¼¢ à¼¡à¼¡
à½ħà½ĳà½ĺ à½Ĩ
Ġà¼¡à¼£ à¼¦
Ġà¼¡à¼¦ à¼£
à½ĳ à½łà½ķà½Ĥà½¦
à½ĵ à½ħà½ĳ
à¾±à½²à¼ĭ à¾¾à¼į
à½Ķà½¢ à½ĸà½Ł
à¾±à¼ĭ à¼Ħà¼ħ
à½Ķà½¦ à½¢à½ĸ
à¾© à¼ĭà¼Ħà¼ħà¼į
à¾Ń à¼ĭà¼½
à¾³à½¼à¼ĭ à¼¼
à½Ĥà½ıà½ĵ à½ĵà½¦
Ħà¼ Ħà¼ħ
à¼· à¼·à¼ĭ
à¼¡à¼§ à¼¨à¼¤
à¼¡à¼¨ à¼¡à¼¥
à¾ĭ à½Ĥà½Ħ
Ġà¼¡à¼£ à¼¤
à½¦à½¦à½¦à½¦ à½¦à½¦à½¦à½¦
à½ĳà½Ħ à½ı
à¾Ĳ à½´à¼µà¼ĭ
à¾¨ à¾¨à¼į
à½Ľ à½ķ
à½¢à½ĸà½¦ à½ĺà½¦
Ġà¼¢ à¼¡à¼¦
Ġà¼¡à¼¥ à¼¨
Ġà¼ĭà¼ĭà¼ĭà¼ĭà¼ĭà¼ĭà¼ĭà¼ĭà¼ĭà¼ĭà¼ĭà¼ĭà¼ĭà¼ĭà¼ĭà¼ĭà¼ĭà¼ ĭà¼ĭà¼ĭ
à½ĸ à½ĸà½¦à½£
à½Ķ à½Ĩà½ĳ
à½ģ à½ĸà½ĳ
à½Ķà½¦ à½ĸà½ħ
à½¨ à½Ļà½¢
à½ĺà½ĳ à½ħ
à½Ĥà½Ļ à½ł
à½Ŀ à½«à½Ĥ
à¾ĭ à½Ĳ
à½¦à½Ķ à½ĸà½¦
à¾¡à¾·à½² à½¿à¼į
à¾±à½²à¼ĭà¼ĳ à¼ĳ
à¾£ à¼ĭà¼ĳ
à½¢à½Ħ à½ĳà½Ħ
à½Ļà½ĺ à½ī
à¾²à½´à¼ĭ à¼ĳ
à½Ħà½Ħ à½ł
à¼¡à¼¨ à¼§à¼§
Ġà¼¡à¼§ à¼¢
Ġà¼¡à¼¦ à¼ł
Ġà¼¡à¼¤ à¼¤
à½¦ à½ĳà½¢
à½´ à½º
à½£ à½ĺà½ģà½ĵ
à¾£ à¾²à¾Ģà¼ĭ
à½ĵà½ĺ à½¨
à½Ĥà½ĳà½ĺà½¦ à½Ħà½Ĥ
à½łà½Ĥà½Ĥ à½ĺ
à½Ĵ à½Ĥà½Ħ
à¾²à½±à½² à½¿à¼įà¼į
à½ĭ à½ĸà½Ľ
à½ĵà½Ķà½¢ à½¢
à½Ĳà½ĺà½¦à½ħ à½ĳà½Ĥ
à½ĺ à½ĳà½ĺà½¢
à½²à¼ĭ à¼·à¼ĭ
à½£ à½ĸà½Ļ
à½Ĩ à½ĳà½Ķà½ł
à½Ħà½¦ à½Ģà½¢
à½ĵà½¦ à½Ĥà½Ł
à½ħà½ĵ à½Ĩ
à¾Ń à¼ĭà¼´
à½Ĥà½ĵà½Ħ à½ĸ
à¾·à½¼à¼ĭ à¼ĳà¼ĳ
à¼¡à¼¨ à¼¤à¼§
à¾ŀà¾ŀ à½¼à¼ĭ
Ġ à½Ħà½¢
à½ĵ à½ĸà½ĵ
à½Ķ à½ģà½ĺà½¦
à½¼à¼įà¼į à¼Ħ
à½Ħà½¦ à½£à½¦
à¼ Ħà¼ĭ
à¼£à¼¥ à¼łà¼ł
à½ĵà½ĺà½ĺà½ģà½ł à½ĺà½Ĳà½ł
Ġà¼¡à¼§ à¼§
Ġà¼¡à¼¤ à¼¡
à½ł à½ĺà½ļ
à½ºà¼ĭ à¼ĭà¼į
à½£à½¦ à½ĸà½ĳà½Ĥ
à¾Ń à¼ĭà¼Ħà¼ħà¼į
à¾¨à½² à½¾
à¼¡à¼¨ à¼£à¼¤
à¼¡à¼¨ à¼¨à¼¤
à¾£à½± à½ºà¼ĭ
à½Ħ à½İ
à½ĺ à½ħà½ĳ
à½Ķ à½ŀà½Ĥ
à½Ķ à½ĵà½¢
à½ĸà½ħ à½ĳà½ĸ
à½ĳà½ĺ à½ĸà½ħà½¦
à¾Ĳà½´ à½´
à½ĸà½Ģà½ł à½¢
à¼ĭà¼ĳ à¼įà¼į
à½ĸà½ıà½Ĥà½¦ à½Ķà½ł
à½£à½ł à½Ħà½¦
à¼Į à¼
à½ĭ à½Į
à½¼à¼ĭà¼Ħà¼ħà¼įà¼į à¼į
Ġà¼¡à¼¥ à¼§
Ġà¼¡à¼¦ à¼¤
à½´à¼įà¼ĭà¼ĭà¼ĭà¼ĭà¼ĭà¼ĭà¼ĭà¼ĭà¼ĭà¼ĭà¼ĭà¼ĭà¼ĭà¼ĭà¼ĭà¼ĭà¼ĭà¼ ĭà¼ĭà¼ĭà¼ĭà¼ĭà¼ĭà¼ĭà¼ĭà¼ĭà¼ĭà¼ĭà¼ĭà¼ĭà¼ĭà¼ĭà¼ĭ
à¼Įà¼ ĭ
Ġ à½łà½ĸà½ĸ
à½Ĥ à½ĺà½īà½ĺ
à½²à¼ĭ à¼įà¼į
à½£ à½łà½ļ
à½Ĥà½¦ à½ĳà½Ķ
à½¡ à½ĸà½ł
à½Ĩ à½ª
à½Ĳ à½Ĭ
à¾Ķ à½¿à¼ĭ
à½ĸà½ĳà½Ĥ à½Ĩ
à½ĳà½Ķà½ł à½Ĥà½Ħ
à¼ĭà¼ ĭà¼ĭà¼ĭà¼ĭà¼ĭà¼ĭà¼ĭà¼ĭà¼ĭà¼ĭà¼ĭà¼ĭ
à½ĳà½Ģà½¢ à½¦
à½ĸà½ıà½ĸ à½Ķ
à½ĸà½¦à½ĳ à½¦
Ġà¼¡à¼¥ à¼©
à¼ĭà¼ĭà¼Į à¼į
à½º à½´à¼ĭ
à½Ħ à½Ģà½¢
à½Ħ à½Ģà½ł
à¾³ à½»à¼ĭ
à¾¡ à¼ĭà¼ĳ
à½Ł à½¤
à½łà½Ľ à½ĺà½¦
à½ĵà½ĺ à½İ
à½ĸà½Ģà½ł à½£
à½±à½² à½¾à¼įà¼į
à¾ļ à¾²à½±à½²à¼ĭ
à½ĳà½Ķà½¦ à½ĵ
à½© à½ĳà½Ħ
à½ĵ à½Ļà½Ħ
à½Ĥà½¦ à½Ļ
à¾² à½ºà¼·
à½´à¼ĭ à½±à¼ĭ
à½¡ à½ĸà½Ľ
à½Ħà½¦ à½ĸà½ŀ
à½¡à½Ħ à½ĸà½ħ
à½Ķà½¦ à½Ĥà½ĵà½¦
à¾¦ à¾©à½¼
à½±à¼ µà¼ĭ
à½ĺà½ł à½Ĳ
à¾²à½´à¼ĭ à¼¼
à½ĳà½¢ à½£
à¾¶ à¾±
à¼£à¼¨ à¼¦à¼¡
à¾´ à½±à¼ĭ
à¾¦à¾· à½¼à¼į
à½Ħ à½ĸà½łà½ĺ
à½Ħ à½Ķà½Ħ
à¾² à½´à¼·à¼ĭ
à½Ķà½¢ à½ģà½¦
à½ĸà½¢ à½Ĳ
à¾· à¾°
à¾Łà¼ĭ à¼¸
à½¾ à½¾à¼į
à¼įà¼ĭà¼ ĭà¼ĭà¼ĭà¼ĭà¼
à¾¶ à½½à¼į
à½ºà¼µ à¼į
Ġà¼ĭà¼ĭà¼ĭà¼ĭà¼ĭà¼ĭà¼ĭà¼ĭà¼ĭà¼ĭà¼ĭà¼ĭà¼ĭà¼ĭà¼ĭà¼ĭà¼ĭà¼ĭà¼ĭà¼ĭà¼ĭà¼ĭà¼ĭà¼ĭà¼ĭà¼ĭà¼ĭà¼ĭà¼ĭà¼ĭà¼ĭà¼ĭà¼ĭà¼ĭà¼ĭà¼ĭà¼ĭà¼ĭà¼ĭà¼ĭà¼ĭà¼ĭà¼ĭà¼ĭà¼ĭà¼ĭà¼ĭà¼ĭà¼ĭà¼ ĭà¼ĭà¼ĭà¼ĭà¼ĭà¼ĭà¼ĭà¼ĭ
à½¦ à½ĵà½ĺà½¦
à½¢ à½¢à½¦
à½Ħ à½ĳà½Ģ
à½ł à½Ķà½¦
à½ķ à½£à½¦
à½Ĳ à½¦à½ĺ
à½łà½ĳ à½Ķà½ł
à¾· à¾³
à¾²à½² à½²
à¾¨ à½±à½¾à¼ĭ
à¾·à½´ à½¾à¼į
à¼łà¼ł à¼¤à¼¡
à¾¡à¾· à½²à¼įà¼į
Ġà¼¡à¼§ à¼ł
Ġà¼¡à¼¦ à¼¨
à½Ĩ à½Ĥà½ĵà½¦
à½Ķà½¢ à½ĸà½Ģ
à½£à½¦ à½ĳà½ĸ
à½£à½¦ à½£à½Ħà½¦
à½ĸà½¤ à½ĳà½Ĥ
à½±à½´ à½¾à¼ĭà¼½
à¾¤à¾± à¾Ģà¼ĭ
à½Ĳà½£ à½łà½ĳ
à½¡à½ĵ à½£
à¼¡à¼§ à¼¨à¼£
à¼¡à¼¨ à¼©à¼¡
à½ĵ à½Ĳà½ĺ
à½¢à½Ħ à½ĺà½ļà½ĵ
à½Ĥà½Ļ à½Ħà½¦
à½ĳà½ĳ à½Ĩ
à½Łà½ĳ à½¢
à¾¦à¾· à¾±à¼ĭ
à¾ĳ à½´
à¼¡à¼¤à¼© à¼¢à¼łà¼©
à½ĳ à½Ĩà½ĳ
à½ł à½ĺà½ģ
à½ºà¼ĭ à½ºà¼ĭà½º
à½Ĥà½¦ à½ĸà½¤à½ĳ
à½Ģ à½ķ
à½ı à½ĺà½§
à½ĺà½¦ à½ĳà½Ķà½¦
à½ļ à½Ĳ
à½ĸà½ŀ à½Ĥà½ħ
à¾±à½¼ à½¼
à½£à½¦ à½ĺà½¦
à¾Ĵà¾±à½´à¼ĭ à¼½
à½ĸà½ħà½¦ à½ĸ
à½Ķà½ĳ à½£
à¼ł à¼¡à¼¥
à¼¡à¼¨ à¼¤à¼¨
à¾²à½²à¼Ķ à¼
à¾ĳ à½±
à½Ĺà½Ħ à½Ł
à¾²à½²à¼Ķà¼ ĭ
à½¦ à½ŀà½Ĥ
à½ĺ à½Į
à½Ķ à½ļà½¢
à½Ģ à½īà½ł
à½ĳà½Ħ à½ĸà½ĳà½Ĥ
à½± à¾ħ
à½Ĥà½ŀ à½Ĥà½£
à½Ĥà½ŀà½Ĥ à½Ķà½ł
à½Ĥà½¦à½ĵ à½ĵà½¦
à¼¡à¼§ à¼¤à¼£
à¼µ à¼µ
à¾¶ à½ºà¼į
à¾ħà¾ħ à¾ħ
à½¢ à½Ĥà½ł
à½ĵ à½łà½ļ
à½¼à¼ĭ à½¾
à½ģ à½ĺà½Ĥ
à½¤ à½ĵà½Ħ
à½Ļ à½ĵà½¦
à½Ļ à½Ŀ
à½¨ à½łà½Ħ
à½ĺà½ģ à½ª
à½¢à½ĸ à½ī
à¾Ķà¼ĭ à½²
à½ģà½Ħ à½ĳ
à½Į à½¤
à¼¡à¼¨ à¼¤à¼£
à¼£à¼¨ à¼¢à¼¤
à¾¦à¾· à½¿à¼į
à¼įà¼¼ à¼¼
à½Ģà½ĺà½£ à½¤
à½Ħ à½ĳà½¦
à¾² à¾²
à½ħ à½Ķà½¢
à½Ĳ à½ĳà½Ĥ
à¾³ à¾©à½¼
à½ĸà½Ľ à½¦
à½ĸà½Łà½ł à½ĳà½Ħ
à¾ļ à½¼à½¾à¼ĭ
Ġà¼¡à¼ł à¼łà¼ł
à¼¡à¼¨à¼ł à¼©
à¾± à¾±à½ºà¼ĭ
à½ĸà½¢ à½ķ
à¾²à½´ à¾ĥà¼į
à½ĳà½ĺ à½ģà½¦
à½Ľ à½ĵà½¦
à½ħà½ĳ à½łà½ĩ
à½łà½ķà½Ĥà½¦ à½¦
à½łà½ĺ à½ŀ
à½Ĥà½¡à½¦ à½Ĥà½¡
à¾ł à½¾
à¼¢à¼§ à¼¢à¼¨
à¼ĭà¾§ à¾±à½¿à¼į
à½º à½¿à¼Ķ
à½Ħ à½ĺà½ļà½ĺà½¦
à½ĺ à½Ĥà½ıà½ĵ
à½²à¼ĭ à¼Ŀà¼įà¼į
à½ºà¼ĭ à½¾
à¾±à¼ĭ à½º
à½Ķà½¦ à½£à½¦
à½Ķà½¦ à½ĳà½ĸ
à¾³à¼ µ
à½ĺà½ģà½ł à½ĺà½īà½ĺ
à½¡à½ĵ à½Ķ
à½£à½Ĥà½¦ à½Ģ
à½ŀà½ĸà½¦ à½Ĥà½ī
à½£à½Ħ à½ĺ
à¾¡à¾· à¾Ń
à¾²à¼įà¼į à¼įà¼į
à¼¡à¼¨ à¼£à¼¡
Ġà¼¢ à¼¢à¼ł
à¼įà¼½ à¼ĭà¼ĭà¼ĭà¼ĭà¼ĭ
à¾¡ à¾±à½²
à½łà½ķ à½Į
à¾²à½¼à¼ĭ à¼½
à½£à½ĺ à½ĸà½¦
à¼ĭà¼ ĭà¼ĭà¼ĭà¼ĭà¼ĭà¼ĭà¼ĭà¼ĭà¼ĭà¼ĭà¼ĭà¼ĭà¼ĭà¼ĭ
à½İ à½ŀ
à½¥ à½Ķ
à½ĳà½ĵ à½ĳà½Ħ
à¼ĭà¾¾ à¼įà¼įà¼į
Ġà¼¡à¼¥ à¼¡
à¼łà¼łà¼łà¼łà¼łà¼łà¼łà¼ł à¼łà¼łà¼łà¼ł
à¾Īà¾Īà¾Īà¾Ī à¾Ī
à½´à¼įà¼ĭà¼ĭà¼ĭà¼ĭà¼ĭà¼ĭà¼ĭà¼ĭà¼ĭà¼ĭà¼ĭà¼ĭà¼ĭà¼ĭà¼ĭà¼ĭà¼ĭà¼ ĭà¼ĭà¼ĭà¼ĭà¼ĭà¼ĭà¼ĭà¼ĭà¼ĭà¼ĭà¼ĭà¼ĭà¼ĭ
à½¼à¼ĭà¼Į à¼įà¼į
Ġ à½ģà½¢
à½¡ à½łà½Ħ
à½Ĩ à½¨
à½ķ à½ĺà½¢
à½ĳà½Ĥ à½ĳà½Ĥ
à½£à½¦ à½ĺà½Ĳ
à¼¡à¼¨ à¼¡à¼¡
Ġà¼ł à¼łà¼łà¼ł
Ġà¼¡à¼¥ à¼£
à½¢à½Ķà½ł à½Ĥ
à¼Īà¼Ī à¼Īà¼Ī
ĭ à½¶
à½Ķ à½£à½łà½Ħ
à½£ à½¢à½¦
à½ģ à½Ŀ
à½ı à½ª
à¾Ĳ à¾±à¼·à½º
à¼ Ĩ
à¼ ĭà½¶
à½£à½¦ à½¦à½Ħà½¦
à½ĺà½Ĳ à½łà½ĸ
à½ħà½ĳ à½łà½ĸ
à½ĸà½ħà½¦ à½ĵ
à½ĺà½ī à½ĵà½ĳ
à½ĳà½ĳ à½ł
à¾Ĵà¾²à¼ĭ à¼½
à¼ł à¼¡à¼¡
à¼¡à¼¨ à¼¢à¼¤
à¾ł à½º
à¼ĭà¼¹ à¼į
Ġà¼¡à¼§ à¼¥
Ġà¼¡à¼¦ à¼¢
à½ķà½ħ à½Ĳ
à½ĵ à½Ĥà½ıà½ĵ
à¾± à¾³à½¼
à½£ à½ĳà½¢
à½Ķà½¦ à½ĺà½ļ
à¾¨ à¾²à¼·à¼ĭ
à½łà½ĩ à½Ħà½¦
à¾« à¾±à½¼
à½ĸà½Ļ à½ĸ
à½Ħà½ĵ à½ł
à½Łà½ĳ à½ħ
à½Łà½¦ à½ĵ
à¼įà¼ĭà¼ Į
à¼įà¼½ à¼į
à½ĳ à½Ĩà½¦
à½ĵ à½ķà½ĵ
à½ł à½¦à½ĳ
à¾±à½²à¼ĭ à½²à¼ĭ
à½ĺà½ł à½ļà½£
à¾©à½²à¼ĭ à¼Ħà¼ħà¼įà¼į
à¾µ à½´à¾ĥà¼ĭ
à½Ĵ à½Ĺà½¥
à¾Ĥ à¼Ķ
Ġà¼¡à¼§ à¼©
ĭ à¾Ģ
à½ĳ à½łà½ĳà½¦
à½ĸ à½Ķà½ĺ
à½ĵ à½Łà½ĸ
à½¡ à½īà½ł
à½ħ à½ĳà½ĸà½ĳ
à½ĺà½¦ à½Ķà½ĳ
à½ĸà½¢ à½Ĳà½£
à¼ ĭà¾Ģ
à½Ķà½¦ à½¡à½Ħ
à½ĳà½Ķ à½İ
à½Ĥà½¦à½£ à½ł
à½ĸà½Ĥ à½ĺà½¦
à½ĺà½ģà½ł à½¢
à½ĺà½ģà½ł à½ĺà½Ľ
à¾Ĳà¾± à¾¦à¾·à½º
à½Ķà½łà½ĺ à½¡à½Ħ
à¼łà¼ł à¼¤à¼¥
à¼¤à¼ł à¼¤à¼©
Ġà¼¡à¼¢ à¼¤
Ġà¼¡à¼¦ à¼¡
à¾³à¼ĭà¼ Ī
à½Ĥ à½ĸà½ħà½¦
à¾± à½¿à¼įà¼į
à½£ à½Ķà½ĺ
à½Ķà½ł à½ĺà½Ĳ
à½Ĩ à½£à½¦
à½ĸà½¦ à½ĳà½ĸ
à¾£ à¼ĭà¼¼
à½ĳà½ĺ à½ĸà½¦
à½Ĳà½ĺà½¦ à½Ķà½ħ
à½£à½ĺ à½ĸ
à½łà½ĩà½ĺ à½Ķà½ł
à½ļà½Ħà½¦ à½Ķà½ł
à¼ĭà¼ĭà¼ĭà¼ĭà¼ĭà¼ĭà¼ĭà¼ĭà¼ĭà¼ĭà¼ĭà¼ĭà¼ĭà¼ĭà¼ĭà¼ĭà¼ĭà¼ĭà¼ĭà¼ĭà¼ĭà¼ĭà¼ĭà¼ĭà¼ĭà¼ĭà¼ĭà¼ĭà¼ĭà¼ĭà¼ĭà¼ĭà¼ĭà¼ĭà¼ĭà¼ĭà¼ĭà¼ĭà¼ĭà¼ĭà¼ĭà¼ĭà¼ĭà¼ĭà¼ĭà¼ĭà¼ĭà¼ĭà¼ĭà¼ĭà¼ĭà¼ĭà¼ĭà¼ĭà¼ĭà¼ĭà¼ĭà¼ĭà¼ĭà¼ĭà¼ĭà¼ĭà¼ĭà¼ĭà¼ĭà¼ ĭà¼ĭà¼ĭà¼ĭà¼ĭà¼ĭà¼ĭà¼ĭà¼ĭà¼ĭà¼ĭà¼ĭà¼ĭà¼ĭà¼ĭà¼ĭà¼
à½´à¼ĭà¾¾ à¼
à½´à¼ĭà¾¾à¼ ĭ
à½¦ à½Ĥà½ıà½ĵ
à¾± à½¼à¼·
à½łà½ĳ à½Ķà½£
à½łà½ĸ à½ĺà½¦
à½± à½´à¼µ
à¾· à¾±à½´à¼ĭ
à¾²à¼ĭ à½µ
à½¨ à½¦à½¦
à½łà½Ľ à½ŀ
à½ĸà½ħà½¦ à½ĵà½¦
à½¢à½¦ à½ĺà½¦
à½Ķ à½Łà½Ĥ
à½Ģ à½¡à½Ħ
à½Ĳ à½¨
à½Ķà½¢ à½ĸà½ĳ
à½Ķà½¦ à½¦à½¦
à½Ĥà½ĳ à½Ķà½ł
à¾¤à¾²à½² à¼įà¼į
à¼¡à¼¨ à¼£à¼¥
à¼Ģ à½Ļà½Ģ
à¾ĭ à½Ķ
à½¦à½Ķ à½¤
Ġ à½ĺà½Ħà½£
Ġ à¼ĭà¼įà¼ĭ
à½¦ à½łà½Ĳ
à½ĺ à½¡à½¦
à½ĺà½¦ à½ĺà½ĵ
à¾Ĳ à½¾à¼į
à½¡à½Ħ à½Ĥà½Ł
à¾³à¼ µà¼ĭ
à½ĸà½ħà½¦ à½Ķà½¢
à½łà½ļà½£ à½ŀ
à½¢à½Ħà½¦ à½¦
à½ĭ à½ĳà½ĺà½¢
Ġà¼¡à¼£ à¼§
à¼¡à¼¨à¼ł à¼¥
à½²à¼ĭ à¼ĭà¼ĭà¼į
à½Ĥà½¦ à½ĸà½ĳà½Ĥ
à½ģ à½ĺà½Ĩ
à½ģ à½£à½ł
à½łà½ĳ à½ĸà½¢
à½£à½¦ à½īà½ĺà½¦
à¾© à¼ĭà¼½
à½¢à½Ħ à½ĳ
à½ħà½ĳ à½Ĳ
à½ĳà½ĸà½Ħ à½Ĩ
à½²à¼įà¼į à¼Ħà¼ħà¼įà¼į
à¾Ń à½´
à½łà½Ĩ à½ĳà½Ķà½ł
à½Ĥà½¦à½£ à½ŀ
à½Ĥà½ĵ à½ĸ
à½¦à½¢ à½ĸà½¦
à½ķà½Ĭ à½ĳ
à½ĳà½ĵ à½£
à¼łà¼ł à¼¤à¼¤
à¾ŀà¾ŀ à½¿à¼į
Ġ à½łà½Ĥà½Ĥ
à½Ĥà½¦ à½Ĥà½¦à½£
à½ĵà½¦ à½Ĥà½ī
à½§ à½Ĭ
à½ĺà½¢ à½ĸà½¦
à½Į à½Ħ
à½Į à½Ĭ
à½ĳà½ĵ à½Ķ
à¾Łà½ºà¼ĭà¼ĳ à¼ĭà¼ĳ
Ġà¼¢à¼¢ à¼¡
à¾·à½¼à¼ĭà¼ĳà¼ĳ à¼ĭà¼ĳà¼ĳ
à½Ĥ à½ģà½ĺà½¦
à½Ĥ à½Ĳà½Ĥ
à½ĸà½¦ à½ĩ
à½ģ à½ª
à½Ł à½Ĥà½ĵ
à½Ĥà½ĵà½¦ à½Ĩ
à½¾à¼ĭ à½¾à¼ĭ
à½ª à½£
à¾²à½¼à¼įà¼į à¼į
à½²à¼ĭà¼¼ à¼½
Ġ à½ĸà½Ģà½Ĥ
ĭ à¾ĥ
à½ĳ à½ģà½ĺà½¦
à½Ħ à½ĺà½īà½ĺ
à½ħ à½ģ
à¾¡ à½±à½²à¼į
à¼ ĭà¾ĥ
à½ĸà½¤à½ĳ à½ĵà½¦
à¾¦à¾± à½±à¼ĭ
à½ĺà½ļà½ĺà½¦ à½ĵà½¦
à½ĸà½ıà½Ĥà½¦ à½ĵ
à¾±à¼į à¼Ī
à¾µ à¾ŀ
à¼¡à¼¨ à¼£à¼©
à½Ĺ à½Ĳà½Ĥ
à¼ĭà½Ī à¾¡à½ºà¼ĭ
à¼¢à¼¢ à¼¢à¼¤
à¼µ à½ºà¼į
Ġà¼¡à¼© à¼¤
à¾Ĵà¾· à½¾à¼ĭà¼´
Ġ à¿Ĳ
à½¦ à½łà½ĳà½¦
à½¦ à½«
à½´ à½¿à¼įà¼Įà¼Įà¼Į
à½ĺ à½ĺà½Ĳà½¢
à½Ĳ à½łà½Ħ
à½Ħà½¦ à½¡à½Ħ
à½ĵà½¦ à½ĳà½ĺ
à½ĳà½ĸ à½łà½ĳ
à¾© à¾±à½´à¼ĭ
à½ĳà½ĺ à½¢à½ĸ
à½ĺà½Ľà½ĳ à½Ķà½¢
à½ĳà½Ĥà½Ĥ à½Ķà½ł
à½Į à½Ĩ
à½Ĵ à½Ł
à¾ł à½¼
Ġà¼¡à¼¤ à¼©
à¾·à¼ĭà¼ Ħà¼ħ
à½ĳà½ĳà½ĸ à½ħà½¦
Ġ à½Ĥà½ĺ
à½ĸ à½ĸà½Ľ
à½ı à½¦à½ł
à½ļ à½ĳà½Ģ
à¾Ķ à½¼à¼įà¼įà¼įà¼į
à½¨ à½łà½ĳ
à¾Ĳà¾±à½ºà¼ĭ à¼¼
à¾Łà½ºà¼ĭ à¼ı
à½ķà½ĵ à½ĸà½ĳ
à½£à½ĵ à½Į
à¼ĭà¼ĳ à½¼
à½ĸà½ĺ à½ĺ
à¼£à¼¨ à¼¦à¼ł
à½Ĥà½¦ à½Ļà½ĺ
à¾Ł à¾Łà¼į
à½ĳà½Ħ à½ĸà½ħ
à½£à½¦ à½łà½ĩ
à½Ľ à½ļ
à½±à¼ĭ à½¾
à½ĸà½ħà½¦ à½Ķà½¦
à½ĵà½ĺ à½ı
à½Ĩà½ĳ à½£
à½Ĥà½£ à½Ĥà½¦
à½ŀà½ĸà½¦ à½¦
à½Łà½¦ à½£
à¾ľ à¾·à¾±à¼į
à½Ĩà½¢ à½¦
à¾¶ à½º
à¾ŀà¾ŀ à½¿à¼ĭ
à¾¦à¾¦ à½±
à½¢ à½ĳà½ĵ
à½ĵ à½Ķà½łà½Ħ
à½´ à¾Ĥà¼į
à½Ģ à½Ķà½ł
à½ĳà½Ħ à½¨
à¾£ à½¼à¼Ķ
à½ĵà½¦ à½Ķà½ł
à½Ľ à½¦à½¢
à½¨ à½ĳà½Ģà½¢
à¼Ķ à¼įà¼į
à¾Ĵà½¼à¼ĭ à¼¼
Ġà¼įà¼į à¼Ī
à½ĭ à½ĸ
à½¦ à½¤à½¢
à½¦ à½łà½Ĥà½ł
à½¢ à½ıà½ĵ
à½ĺ à½ĸà½ŀà½Ĥ
à¾Ĵ à½±à½¿à¼ĭ
à½¤ à½ķ
à½ĳà½Ĥ à½ĸà½ħ
à½ºà¼į à¼Ħà¼ħà¼į
à½Ĥà½Ħ à½ķ
à½ģà½ĺà½¦ à½Ĥ
à½ĳà½Ķà½£ à½ĳ
à½łà½Ĥà½£ à½£
à½¦à½Ħ à½¤
à½Ĥà½ĳà½Ĥà½¦ à½¦
Ġà¼įà¼į à¼Ħà¼ħà¼įà¼į
à¾ ¿
à½ĵ à½ĳà½ĺà½¢
à½Ķ à½ĸà½ĺà½Ķ
à½ł à½ĺà½ī
à½ł à½ħà½¦
à½²à¼ĭ à¾Ĵ
à½²à¼ĭ à¼ĭà¼ĭà¼ĭ
à½²à¼ĭ à¼Ŀ
à½Ĩ à½İ
à½ı à½Ħà½ł
à¾£ à¾±
à½Ķà½¦ à½ĺà½ļà½ĵ
à¾²à¼ĭ à¼Ī
à½ĺà½ļà½ĺà½¦ à½¢
à½łà½Ĩà½¢ à½Ģ
à¼Ģ à½ģà½¢
à½¦à½ĺà½¦ à½ĺ
à½Ħà½ĸ à½ĳà½Ħ
à¼ĭà¾§ à½ºà¼ĭ
Ġà¼¢à¼¢ à¼¥
à½Ĥ à½ĺà½ģà½ł
à½Ĥ à½ĺà½Ĳà½¢
à½ĵ à½Ĥà½¦à½¢
à½Ķ à½ĺà½Ľà½ĳà½Ķ
à¾² à½´à¼µ
à½ĸà½¢ à½łà½ģ
à¾· à¾±à¼įà¼į
à½ĳà½Ķà½ł à½Ĥ
Ġà¼¡à¼¤ à¼¦
à½¦ à½ĸà½ĵ
à½´à¼ĭ à¼ĭà¼ĭà¼ĭ
à½ĳà½Ħ à½ĸà½¦à½ĺ
à½Ĳ à½ĺà½ĵ
à½¾à¼ ·à¼ĭ
à¼ĭà¼ ĭà¼ĭà¼ĭà¼ĭà¼ĭà¼ĭà¼ĭà¼ĭà¼ĭà¼ĭà¼ĭà¼ĭà¼ĭ
à½ĳà½ĳ à½ĸà½ŀ
à¾©à½ºà¼ĭ à¼½
à¼ĭà¼Ķ à¼į
à½¦à½Ħ à½£
à½ª à½Ĥ
à½ĵà½Ķà½¢ à½ĺ
à½Ľà½Ľ à½ŀ
à½¦ à½łà½ĩà½ĺ
à½Ĥ à½łà½Ĩ
à½¼ à½¾à¼ĭà¼´
à½Ķ à½ĸà½£
à¾³ à½´à¼·à¼ĭ
à¾¡ à½±à½²
à½ĸà½¦à½Ĥà½¦ à½Ķ
à¼¡à¼¨ à¼£à¼¢
à¼ĭà¼¹ à½±
à½¼ à½´à¼ĭ
à½¢ à½ĺà½ģà½¦
à½£ à½ĸà½Ľ
à¾Ł à½»à¼į
à½ĵà½¦ à½ĵà½Ħ
à¼ĭà¼į à¼ĭà¼ĭà¼ĭà¼ĭ
à¾¤ à¾¤à¼ĭ
à½Ķà½¦ à½ĺà½Ľ
à½łà½ģ à½ĳ
à½ķà½ĵ à½ĵ
à½ģà½Ħ à½Ķ
à½ĳà½¢ à½¢
à½ĸà½¦à½£ à½ĸà½ł
à½¦à½Ķ à½ĸà½¢
Ġà¼¢ à¼¡à¼ł
à¾¡à¾² à½¿à¼į
à½ĵà½ıà½ĵ à½¢
à¼įà¼įà¼įà¼įà¼įà¼įà¼įà¼į à¼įà¼įà¼įà¼įà¼įà¼įà¼įà¼į
à½¦ à½Ĳà½ĸà½¦
à¾± à¾Ļà½²à¼ĭ
à½ŀ à½ļ
à½ĳà½Ħ à½¦à½Ħà½¦
à½ĸà½¦ à½£à½ĺ
à½ĺà½¦ à½ĺà½Ĥ
à½¢à½ĸ à½¡
à½ĳà½ĸà½Ħ à½Ħ
à½ĺà½Ľ à½ĳà½Ĥ
à¾Ń à½¼à½¿à¼į
à½ĸà½¦à½ĺ à½Ķà½¢
à½Ķà½ī à½ĳ
à½ĸà½Ķ à½Ĳà½ĸà½¦
à½¦ à½ĸà½ĸ
à½¼ à½²à¼ĭ
à¾± à¾±à½¼
à¾± à¾¤à¾±à½¼
à½¤ à½ĺà½Ĳà½ĸà½¦
à½Ħà½¦ à½ĺà½ģ
à¾Ĺ à½¼à¼·
à½Ĥà½Ħ à½łà½ĳ
à½Ľ à½ĺà½¦
à¾Ń à¼ĭà¼ĳ
à½´à¼į à¼ĭà¼ĭà¼ĭà¼ĭà¼ĭà¼ĭà¼ĭà¼ĭà¼ĭ
à½Ĥà½ıà½ĵ à½Ĥà½ī
à½Į à½§
à¾·à½¼ à½¿à¼ĭ
à¾ª à½±à½²à¼ĭ
à½Ī à¾²à½ºà¼ĭ
à½¢ à½ĳà½Ķà½£
à½ĺà½¦ à½Ĳà½ĺà½¦à½ħà½ĳ
à¾£ à½²à½¿à¼ĭ
à¾²à½´ à½±à¼ĭ
à½ħà½ĳ à½ģ
à¾Ń à½¼à¼Ķ
à¼¨ à¼łà¼łà¼ł
à½ļà½ĵ à½¢
à¾²à½ºà¼ĭ à¼´
à½ĵà½Ķ à½¤
à¼ĭà¾¢ à½±
à¾±à½» à¼ĭà¼ĳ
Ġ à½º
à½´à¼ĭ à¼ĭà¼ĭ
à½ļ à½İ
à½Ħà½¦ à½łà½Ĥ
à½Ļ à½łà½Ħ
à½ĺà½Ħ à½łà½ĸ
à½Ĥà½ŀà½ĵ à½Ĥà½Ħ
à½¼à¼į à¼ĭà¼įà¼įà¼į
à½ĸà½ħà½¦ à½ı
à½īà½ĵ à½ĵ
à½ķà½Ĭ à½¢
à½¤à½¦ à½¦
à½ĵà½Ķ à½ĵà½¦
à¼ĭà¼ĭà¼ ½
à¼Ŀà¼Ŀ à¼Ŀ
à¼ĭà¼ĭà¼ĭà¼ĭà¼ ¼
Ġ à½¤à½ĺ
à½¦ à½«à½Ĳ
à½ł à½ĺà½ł
à½ŀ à½ģ
à½ĸà½¦ à½łà½ģ
à½ĺà½¦ à½łà½Ĥ
à½ļ à½£à½ĺ
à½Ķà½¢ à½ĺà½Ĩ
à¾¨ à½ºà¼Ķ
à½ĳà½ĺ à½Ĥà½ı
Ġà¼į à¼ĭà¼ĭà¼ĭ
Ġà¼£ à¼¡à¼ł
à½ĥ à½Ķ
Ġà¼¡à¼£ à¼¨
ĠĠĠĠĠĠĠĠ Ġ
à¼įà¼Ħà¼ħ à¼İ
Ġ à½Ķà½łà½Ħ
à½ĳ à½£à½ł
à½Ħ à½ģà½ĺà½¦
à½¡ à½Ĭà½ł
à½ħ à½ļ
à½ĸà½¦ à½Ĥà½ŀà½ĵ
à½¡à½Ħ à½Ĥà½ĵà½¦
à¾· à¾²à¾Ģà¼į
à½Ļ à½ķ
à½²à¼į à¼Ħà¼ħ
à½¤à½¢ à½¢
à¾©à½²à¼ĭ à¼ĳ
à¾¦à¾² à½ºà¼į
à¼¦à¼ł à¼¦à¼ł
à¾Ĥ à¼įà¼į
Ġ à½ģà½ĸ
Ġ à½ĺà½ĵà½ĵ
à¾ ĸ
à½¦ à½«à½Ħ
à¾² à½»à½¾à¼ĭ
à½ĺà½¦ à½Ļà½ĵ
à¾Ĳ à¾Ĺà½ºà¼ĭ
à¼ĭà¼į à¼ĭà¼į
à¾³ à½¿à¼ĭ
à½ĸà½ł à½ĺà½¦
à¾¨ à¾¨à½¼à¼ĭ
à½ĳà½ĺ à½ģà½ĵ
à½Ĥà½ĳ à½łà½ĺ
à½ĸà½¦à½ĺ à½¡à½¦
à½ģà½ĺà½¦ à½ĳ
à½ĳà½ĳ à½ĸà½¦
à¾±à½²à¼į à¼½
à¾µ à¾ŀà½´à¼ĭ
à½¦à½¦ à½ĺà½¦
à½ĳà½Ķà½¢ à½łà½Ĥ
à¾ļ à½½à¼ĭ
à½¦ à½ĸà½ıà½ĸ
à½Ĥ à½ĸà½ĺ
à½ĸ à½Ĳà½ĸ
à½ĵ à½ģà½Ħ
à½ĵ à½ļà½Ħà½¦
à½ĵ à½ĸà½ĸ
à½¼à¼ĭ à¾ħà¼ĭ
à½ķ à½ĸà½ĸà½¦
à½ĺà½¦ à½¢à½ĸ
à½ĺà½¦ à½Ķà½£
à½ļ à½ĵà½ĳ
à¾© à¾²à½ºà¼ĭ
à½ĸà½¦à½ĺ à½ĵà½¦
à½´à¼į à¼ĭà¼ĭà¼ĭ
à½łà½ļà½£ à½ĸà½¦
à½ĸà½ĵ à½¡
à¾ŀ à½ºà¼į
à½ĳà½Ķà½¦ à½¦
à½ĭ à½īà½ł
à¼łà¼łà¼łà¼łà¼łà¼łà¼łà¼ł à¼łà¼łà¼ł
à½²à¼ĭà¼Ħà¼ħ à¼Ķ
à½¦ à½£à½Ĥà½¦
à½¢ à½īà½ĵ
à½ĵ à½Ĳà½Ħ
à¾Ł à¾²à½±
à½ı à½ĺà½ł
à¾£ à½»à¼ĭ
à¾« à½¾à¼į
à¾Łà½ºà¼į à¼Ī
à¾Ĺà½º à½ºà¼ĭ
à½ĸà½¦à½ĺ à½¡
à½ĸà½ħà½ĳ à½ĵ
à½Ĥà½¦à½¢ à½¦
à¼ĭà½Ī à½±à½²à¼ĭ
Ġà¼£ à¼¢à¼¢
à½ĭ à½ĭ
Ġà¼¡à¼§ à¼¤
à½ĳ à½łà½Ĩ
à½Ĥ à½ĸà½ħà½ĳ
à½ļ à½ı
à¾¡ à¼ĭà¼½
à¾¡ à¾¤à½ºà¼ĭ
à½Ł à½ħ
à½£à½¦ à½Ĥà½ī
à½¢à½Ħ à½¤
à½Ĥà½Ħ à½ļ
à¾Łà½ºà¼į à¼Į
ĭà¼ĭà¼ ¼
à½łà½Ħ à½£
à½Ĵ à½Ļ
Ġà¼¢ à¼¡à¼¢
Ġà¼¡à¼¦ à¼¥
à½¼à¼ĭà½Ī à½±à½²
Ġà¼ĭà¼ĭà¼ĭà¼ Į
à½£ à½łà½ĩà½ĺ
à½ŀ à½¡
à½Ĩ à½ĸà½ŀ
à½ĵà½Ħ à½¢
à¾©à½ºà¼ĭ à¼ĳ
à½Ĭ à½łà½ĺ
à½¢à½ĸà½¦ à½£
à½ĸà½ĵ à½Ķ
à½ĳà½ĵ à½£à½¦
à¼łà¼ł à¼¤à¼¢
à½Ĺ à½Ķ
à½´à¼Ķ à¼į
à½¦à½¦ à½ĸ
à½±à½²à¼į à¼
à½ĳà½¦ à½Ķ
Ġà¼Ħà¼ħ à¼ħ
à½±à½²à¼įà¼ ĭ
à½´ à½±à¼ĭ
à½¡ à½ĺà½§
à½ĸà½¦ à½ĵà½ĺ
à¾±à½²à¼ĭ à½´
à½Ķà½¦ à½ĳà½ĺ
à¾Ķ à¾·à½±à¼ĭ
à¾¨ à¼ĭà¼¼
à½Ļ à½£à½¦
à¾¦à¾± à¾Ģ
à½Łà½ĳ à½ĵ
à½¢à½¦ à½£
à¼£à¼© à¼¤à¼ł
Ġà¼¡à¼¤ à¼£
ĭ à½»
à½¢ à½łà½Ĩ
à½Ķà½ł à½ł
à¾Ĵ à¾¡à½¼
à½ĸà½¦ à½ĸà½ĳà½Ĥ
à¼ ĭà½»
à½ĳà½ĺ à½¡
à½ħà½ĳ à½łà½Ĥ
à½łà½Ħ à½¢
à½Ĳà½£ à½łà½Ĥ
à½Ĭ à½¨
à½¢à½¦ à½Ĥ
à½Ĩà½Ĥ à½Ĳ
Ġà¼¡à¼¦ à¼¦
Ġà¼¡à¼© à¼¥
à¾Ķà¼ĭà¼ ´
à½¦ à½£à½¢
à½Ĥ à½Ŀà½¢
à½ĵ à½ĵà½ĺà½ĺà½ģà½ł
à½£ à½ĸà½Ħ
à½ºà¼ĭ à½¼à¼ĭ
à½Ĥà½¦ à½ĸà½ĺ
à½¡ à½¤à½¦
à½Ģ à½¦à½¢
à½Ķà½¢ à½ĳà½Ķ
à¼ ģà¾ĥà¼Ķ
à½ħà½ĵ à½ł
à½łà½Ľ à½ĺà½Ĥ
à½ĺà½ļà½ĵ à½ĺà½¦
à½īà½ĺà½¦ à½ĵ
à½İ à½ĺà½ł
à½£à½ĵ à½ĸà½ĳ
à½Ĥà½ŀà½£ à½ĸ
Ġà½Ķ à½£
à½Ĩà½¦ à½¦
à¾ĭ à½Ĥà½ŀà½ĵ
à¼ĭà½µ à¾ĥà¼Ķ
à½ĵà½Ķà½¢ à½ĸà½¦
à½¦ à½Ĥà½Ļà½Ħ
à½ĵ à½£à½ł
à½ħ à½«à½Ĥ
à¾Ĵ à¼Ķ
à½ģ à½ĺà½Ĳà½ł
à½ļ à½¡à½Ħ
à¾²à¼ĭ à¼Ħà¼ħà¼į
à½ĺà½Ĩ à½ł
à½ıà½ĵ à½ĸ
à½Ŀ à½Į
à¾·à½¼à¼ĭ à¼¼
à½ĸà½Ļà½£ à½ĳ
à¼¡à¼¨ à¼¡à¼¦
à¼¢à¼¤ à¼łà¼ł
Ġà¼ł à¼łà¼łà¼łà¼ł
à¾Łà½´à¼ĭ à¼İ
à½Ģà½Ģ à½Ģà½Ģà½Ģ
Ġà¼¡à¼£ à¼¡
Ġà¼¡à¼¨ à¼©
Ġà¼¢à¼¢ à¼¨
à¾·à½¾à¼įà¼į à¼į
à½Ĥ à½ģà½Ħ
à½ĸ à½ĸà½¦à½ĺà½¦
à½ģ à½¢à½¦
à½ļ à½ĳà½Ķ
à½Ķà½¢ à½īà½ĵ
à½¤ à½¦à½ĺ
à½Ł à½ĸà½ĳ
à¾« à¾Ńà¼ĭ
à¾Łà½ºà¼į à¼ĭà¼į
à¼¡à¼¨ à¼¨à¼¡
à½¾à¼įà¼į à¼Ī
à½¢à½Ķ à½ı
à¼ĭà¼Į à¼
à¼ĭà¼ĭà¼ Ķ
à¼ĭà¼Įà¼ ĭ
Ġ à½ĵà½¢
Ġ à½ĺà½Ĥà½¢
à½Ĥ à½ĳà½ĺà½Ĥ
à½ĵ à½Ģà½¢
à¾Ł à¾²à¾Ģà¼į
à½ħ à½Ĥà½¢
à¾· à¾Ńà½±à¼ĭ
à¾¨ à¾¨à½¼
à½Ļ à½ĺà½Ĩ
à¾²à¼ĭ à½¼
à½¨ à½ĸà½ĳ
à½¨ à½Ħà½ł
à¾²à½º à½¿à¼ĭ
à½¡à½ĸ à½¡
à¾ľ à½±à½´
à¼ĭà¼Ķ à¼Ħà¼ħà¼įà¼į
à½ĳà½£ à½¢
à¾ŀ à¾±à¼ĭ
à½ĭ à½§
Ġà¼¢à¼ł à¼¡
Ġà¼¢à¼¥ à¼ł
à½¦ à½¦à½Ħ
à½ĳ à½ŀà½£
à½¡ à½«à½Ĥ
à½Ķà½¢ à½łà½ļ
à½Ķà½¢ à½łà½ķà½Ĥà½¦
à¾Łà½¼ à½¼
à¼ĭà¼įà¼į à¼Į
à½£à½ĵ à½Ķ
à¼£ à¼łà¼łà¼łà¼ł
à½¾à¼į à¼Ī
à¼łà¼ł à¼¤à¼£
à¼įà¼ Ĩ
à¼Ħà¼ħ à¼Ħà¼ħà¼įà¼į
Ġ à½Ĩà½¦
à½ģ à½¢à½ĸ
à½ı à½ĸà½¢
à½ĺà½¦ à½Ļ
à¾Ĵà¾± à½¿à¼į
à¼¢ à¼¡à¼¤à¼¢
à½Ĳà½ĸà½¦ à½¤
à½ºà¼įà¼į à¼
à½Ŀ à½¦à½ı
à½łà½ĳà½ł à½ĸà½ł
à¼įà¼ ī
à¼¡à¼¨ à¼¡à¼¢
à¾ŀ à½º
Ġà¼£ à¼¤à¼¥
à¾¶ à½¿à¼į
Ġà¼¡à¼¨ à¼¢
ĉĉ ĉĉ
à½¼à¼ĭà¼Ī à¼į
à½Ķà½Ĳà½ĺà½¦ à½Ķà½ħ
à¼ĭà¼ĭà¼ĭà¼ĭà¼ Ħà¼ħà¼į
à½ĸ à½ĺà½ī
à½Ķ à½ĸà½Łà½Ħ
à½Ĳ à½ĺà½Ĳà½ĺà½¦
à½ĺà½¦ à½ĺà½ł
à¾£ à¾²à¼ĭ
à¾¤ à½±à½´
à½ħà½ĵ à½ĺà½Ħ
à½Ĳà½ĺà½¦ à½ħà½¢
à½ĵà½ĺ à½ĳà½Ķ
à½ĺà½¢ à½¡
à½ĸà½Ģà½ł à½ĵ
à¾¤à¾±à½²à¼ĭ à½Ī
à½Ŀ à½ĵà½¦
à¾³à½´à¼ĭ à¼½
à½ĺà½ģà½ĵ à½Ĩ
à¼¡à¼¨ à¼¦à¼©
à¾¦à¾· à¾±à½±à¼ĭ
à¼ĭà½²à¼ĭ à½²à¼ĭ
à¼ĭà¼· à¼į
à¾Ķà¼ĭà¼ Ħà¼ħà¼į
à½¦ à½Ķà½İ
à½ĳ à½¡à½ĵ
à½ĸ à½Ĩà½Ĥ
à½Ħ à½Į
à½ł à½¢à½Ħ
à½²à¼ĭ à¼ĭà¼ħ
à½Ĥà½¦ à½ĵà½ĵ
à¾Ł à½±à½´
à½Ķà½ł à½Ĥà½£
à½Ĳ à½ģ
à½ı à½¦à½¢
à½ĺà½¦ à½£à½ĺ
à½ĺà½¦ à½īà½ĺà½¦
à¾±à½² à½º
à½Ħà½¦ à½¢à½Ħ
à½¡à½Ħ à½ĺà½Ĩ
à½± à½±à½²à¼ĭ
à¾¨ à¾±à½ºà¼įà¼į
à½ĵà½ĺ à½ĵà½ĵ
à½Łà½ĳ à½Ķà½¦
à½ıà½ĵ à½Ĳà½ĺà½¦
à½ĸà½ŀà½Ĥ à½ģ
à½Ĳà½¢ à½ĸà½¢
à¾±à½²à¼į à¼ĭà¼ĭà¼ĭà¼ĭà¼ĭ
à¼¡à¼¨ à¼¡à¼¤
à½£à½¢ à½ĵ
à¼¢à¼¥ à¼¢à¼¥
Ġà½¤ à½Ħà½¦
à½¾à¼ĭà¼ ŀ
à¼Ķà¼Ķ à¼Ķà¼Ķ
à½¢ à½ĸà½ħà½ĵ
à½ºà¼ĭ à¼Ħà¼į
à½Ģ à½ĵà½ĳ
à½ĸà½¦ à½ĳà½ĵ
à½ı à½łà½ĳ
à½ļ à½Ħà½ĵ
à½Ķà½¢ à½ĸà½ĳà½Ĥ
à¾£ à¼ĭà¼½
à½¤ à½£à½¦
à¾²à½¼ à¾ħ
à¾©à¼ĭ à½²
à½Ĭ à½Ķ
à½¢à½ĺ à½İ
à¾·à½±à¼ĭ à½²
Ġà¼ĭà¼ ĭà¼ĭà¼ĭà¼ĭà¼ĭà¼ĭà¼ĭà¼ĭà¼
à½Ŀà½¢ à½¡
à½© à½¨
à¼ĭà¼ĭà¼ĭà¼ĭà¼ĭà¼ ĭà¼ĭà¼į
à½ºà¼įà¼įà¼ ĭ
à½¦ à½ĸà½ı
à½ĵ à½Ģà½ł
à½¡ à½¢à½Ħ
à½Ĳ à½Ģà½ł
à½ĵà½¦ à½Ħà½¦à½¢
à¾© à¼ĭà¼Ħà¼ħ
à¾Ĵà¾±à½´ à¼įà¼ĭ
à½Ĥà½ĵ à½Ķ
à½İ à½ļ
à½ĵà½ĺà½¦ à½ļ
à½¡à½¦ à½£
à½¡à½¦ à½Ķà½ł
à½¡à½¦ à½ģà½Ħ
à¼łà¼ł à¼¥à¼ł
à½ĵà½Ķ à½ĳà½Ĥ
à¾¦à¾· à½¿à¼ĭ
Ġà¼ĭà¼ĭà¼ĭ à¼ĭà¼į
Ġ à½Ħà½ĺ
à½ĵ à½ĺà½ĳà½ł
à¾± à¾©à½¼
à¾² à¾³à½º
à¾Ł à¾±à½ºà¼įà¼į
à½Ĳ à½ĸà½ł
à½Ķà½¢ à½¨
à½ĵà½¦ à½Ĥà½ħ
à½¿à¼ ĳ
à½ĸà½¦à½£ à½ĵà½¦
à¼¢à¼ł à¼¢à¼¢
à½´à¼ĭà¼ĳ à¼ĳà¼ĭ
à½Ħà½Ķ à½ĸà½¦
ĠĠĠĠĠĠĠĠ ĠĠ
à¼¡à¼¨à¼ł à¼§
à¾ŀà¾ŀ à¾±à¼ĭ
Ġà¼ĭà¼Į à¼į
Ġ à½Ĥà½¡à½Ĥ
à¾± à¾¦à¾·à½º
à½ħ à½łà½ĺ
à½ħ à½«à½Ħ
à½ĸà½¢ à½ĸà½¦à½ĺ
à½ĸà½ĳà½Ĥ à½ĺà½Ĥ
à½ĸà½Ģ à½Ĥà½ĵà½¦
à½ĵà½ĵ à½Ĥà½¦
à½Ĵ à½¤
à¼įà¼ĭà¼ĭà¼ĭà¼ĭà¼ĭà¼ĭà¼ĭà¼ĭà¼ĭà¼ĭà¼ĭà¼ĭà¼ĭà¼ĭà¼ĭà¼ĭà¼ĭà¼ ĭà¼ĭ
ĠĠĠĠĠĠĠĠ ĠĠĠĠ
Ġ à½Ļà½Ģ
à½Ĥ à½ĸà½ı
à½Ķ à½ļà½Ħ
à½Ķ à½ĳà½Ĥà½Ĥ
à½´à¼ĭ à¼·
à¾Ł à¾³à½¼
à½ĳà½Ħ à½ħ
à¾¡ à¾¡à¾·à¼ĭ
à¾¤ à¾©à½¼
à¾¤ à½¼à¼Ķ
à½ĸà½Ģà½ł à½ĸà½ŀ
à¾³à½´à¼ĭ à¼¼
à½¢à½¦ à½ĵ
à½ĸà½ĸ à½ĸà½ĸà½¦
à¾¡à¾· à¾±à¼į
à¼¡à¼¨ à¼¢à¼¦
à¼¡à¼¨ à¼£à¼£
à¼ĭà¼ŀ à¼ŀà¼ŀ
à¾ĳ à½¾à¼į
à½Ĥà½Ŀ à½ı
Ġ à½łà½ĳà½ł
à½Ķ à½£à½¢
à½Ĩ à½ĸà½ĳ
à½ģ à½ĸà½Ģ
à½ļ à½Ķà½¢
à½ĺà½ģ à½ĺ
à½¢à½ĸ à½ıà½Ħ
à½ĳà½Ĥà½ł à½ĵà½¦
à¾Ńà¼ ·à¼ĭ
à½ĺà½ĵ à½ĵà½ĳ
à½±à½²à¼ĭ à½²
à½Ģà½¢ à½£
à½Į à½ģ
Ġà¼§ à¼łà¼ł
à¾¶ à½±à½¾à¼ĭ
à¼ĭà½µ à¼½
à½´à¼ĭà¼Ħà¼ħà¼įà¼į à¼į
Ġà¼¡à¼§ à¼¨
Ġà¼¡à¼¤ à¼¨
ĭ à¾Ģà¼ĭ
à½Ĥ à½Ĳà½ĸà½¦
à½¢ à½Ĥà½ĺ
à½ĺ à½ĺà½£
à¾± à¾¤à¾²à½²
à½ĳà½Ħ à½£à½¦
à½ī à½İ
à½ļ à½ĳà½ĺà½¢
à½ĳà½Ĥ à½Ĳà½ĺà½¦à½ħà½ĳ
à½ĵà½¦ à½¢à½ĸ
à¼ ĭà¾Ģà¼ĭ
à¾±à½ºà¼ĭ à¼½
à½ĵà½ĺ à½ĩ
à½ļà½ĵ à½Ķ
à¾µ à¾±à½±à¼ĭ
à½Ī à¾±à½ºà¼ĭ
à¾ł à¾Ģ
Ġà¼¡à¼© à¼£
Ġà¼¡à¼¨ à¼ł
Ġà¼¢à¼ł à¼¡à¼¡
à½Ķà½ł à½ļà½£
à½Ĩ à½Ĥà½ĵ
à½Ħà½¦ à½Ķà½ĺ
à½ĵà½¦ à½Ķà½¢
à¾³ à½¾à¼į
à¾¡ à¾·à¼ĭà¼ĳ
à½£à½¦ à½Ĥà½Ł
à¾¨ à¼ĭà¼½
à¾Ļ à½½à½¾à¼ĭ
à½¤à½¢ à½¦
à½ĳà½Ģà½ł à½ĵ
à¾ļ à½´à½¾à¼ĭ
à¼¢à¼£ à¼¢à¼£
à¾ĳ à½´à½¾à¼ĭ
à½ĳ à½Ĳà½ĸà½¦
à½ĵ à½ŀà½ĸà½¦
à½Ķ à½ĸà½¤
à½ł à½ĺà½ļà½ĵ
à½Ģ à½łà½ĸ
à½Ķà½ł à½Ĩà½ĳ
à½ĸà½¢ à½ĺà½ł
à¾¡ à¼ĭà¼´
à½¡à½Ħ à½Ģ
à¾¦ à¾·à¾±à½¾à¼į
à¾Ĵà¾±à½´à¼ĭ à¼İ
à¾ĭ à½Ĥà½Ł
à½¢à½ĳ à½ı
à½¼à¼ĭà¼½ à¼įà¼į
à¾µà¾¨ à½¾à¼ĭ
à½¢ à½ĸà½łà½ĺ
à½ĸà½¦ à½ĸà½ĳ
à½ĸà½¦ à½¢à½ĸ
à½ĸà½¦ à½ĺà½Ľà½ĳ
à½Ĳ à½ĺà½Ĥ
à½ĸà½ł à½ł
à½£à½¦ à½Ĥà½ħ
à½ĵà½ĺ à½Ķ
à¾©à½ºà¼ĭ à½²
à½ĵà½ĺà½¦ à½ĸ
Ġà¼½ à¼¼
à½ĵà½Ķà½¦ à½ĵ
Ġà¼¢à¼¦ à¼¢
ħ à¼įà¼į
à½¢ à½ĳà½¢
à½£ à½łà½ĸà½ĳ
à¾Ĵ à¾·à½¼à¼ĭ
à½ĸà½¦ à½ĺà½ł
à½ģ à½Ĥà½ı
à½ı à½¦à½ĺ
à½¤ à½¦à½¢
à½Ł à½Ļ
à¾³à½´ à½±à¼ĭ
à½£à½ĵ à½ł
à¼ĭà¼Ħà¼ħ à¼
à¼ĭà¼¹ à½¼à¼į
à½¼à¼· à¼į
à¼įà¼ĭà¼ĭà¼ĭà¼ĭà¼ĭà¼ĭà¼ĭà¼ĭà¼ĭà¼ĭà¼ĭà¼ĭà¼ĭà¼ĭà¼ĭà¼ĭà¼ĭà¼ĭà¼ĭà¼ĭà¼ĭà¼ĭà¼ĭà¼ĭà¼ĭà¼ĭà¼ĭà¼ĭà¼ĭà¼ĭà¼ĭà¼ĭà¼ĭà¼ĭà¼ĭà¼ĭà¼ĭà¼ĭà¼ĭà¼ĭà¼ĭà¼ĭà¼ĭà¼ĭà¼ĭà¼ĭà¼ĭà¼ĭà¼ĭà¼ ĭà¼ĭà¼ĭà¼ĭà¼ĭà¼ĭà¼ĭà¼ĭ
à¾±à½²à¼ĭà¼ ĭ
à¼ĭà¼Ħà¼ħà¼ ĭ
Ġ à½Ĥà½¦à½ĵ
à½¦ à½ĳà½ĵ
à½Ĥ à½Ĳà½ĳ
à¾² à½±à½´à¾ĥà¼į
à½ŀ à½ķ
à½ĳà½Ħ à½Ĥà½¡
à½ĸà½¢ à½ĺà½ļ
à½ĸà½ł à½ĩà½ĺ
à¾© à¾±à½ºà¼ĭ
à½ħà½ĳ à½ĸà½¢
à½§ à½łà½ĺ
à½ĳà½Ĥà½ł à½Ħ
à½Ĥà½£ à½ĳ
à½Ĥà½£ à½¢
à½ĸà½ŀà½Ĥ à½ĺ
à½Ĥà½¢ à½ĳ
à½Ĥà½Ħà½¦ à½ħà½ĵ
à¾²à¾Ģ à¼Ķ
à½¼à½¾ à½¾à¼ĭ
Ġà¼¡à¼© à¼¦
Ġà¼¢à¼¢ à¼¦
à½Ĳ à½¤
à½ĳà½Ĥ à½ĵà½ĺ
à½Ķà½¦ à½ĺà½ĳ
à½Ĥà½ŀà½ĵ à½ĸ
à¼ĭà¼ µà¼ĭ
à½ĸà½Ľ à½¢
à½ķà½Ĭ à½ĸà½¦
à½¼à¼Ķ à¼įà¼į
à½¼à¼įà¼įà¼įà¼į à¼
à¼Ģ à½Ķà½ī
Ġà¼£ à¼£à¼£
à¾¡à¾²à¼ĭ à¼Ħà¼ħà¼įà¼į
à¾Ħ à½º
Ġ à½ĺà½ĳà½Ħà½¦
à½ĳ à½¦à½ĳ
à½ĸ à½Ķà½ĵ
à½Ħ à½ĳà½Ģà½¢
à½Ħ à½Ķà½ŀ
à½ĸà½¦ à½ĺà½ļà½ĵ
à½ĺà½¦ à½ĺà½Ľà½ĳ
à½ĺà½¦ à½£à½ł
à½ĸà½¢ à½ĳà½ĺ
à¾³ à¾Ĳà½¼
à½łà½ĸ à½Ł
à½ĳà½Ķà½ł à½ģ
à½ĺà½Ĳà½ł à½ł
Ġà¼ Ĩ
à½Ĳà½¢ à½¢
à¾¤à¾±à½² à½²
à½¢à½¦ à½ĳ
à¼łà¼ł à¼¤à¼¦
à½¦ à½¦à½ł
à½ĺ à½Ļà½İ
à½Ķ à½Ĥà½ıà½ĵ
à½Ĥà½¦ à½ª
à½ģ à½ĺà½ģ
à½ĸà½¢ à½Ħà½¦
à½Ħà½¦ à½ĩ
à½Ķà½¦ à½Ħà½¦à½Ķà½¢
à¾Ķ à¾·à½ºà¼ĭ
à½ħà½ĳ à½ĳà½ĳ
à½ĺà½ł à½ļ
à½£à½Ĥ à½ĺà½Ĳ
à¼¡à¼¨ à¼¡à¼§
à¼¡à¼¨ à¼§à¼¤
à¼ĭà¼ĭà¼ĭà¼ĭà¼ĭà¼ ĭà¼
à¾·à¼ĭà¼ İ
à½¼à¼įà¼įà¼įà¼įà¼ ĭ
à½¦ à½Ĥà½¢
à½Ĥ à½ĸà½Łà½Ħ
à½ĵ à½ŀà½£
à½ĵ à½ĸà½Ħ
à½ĵ à½ĳà½Ĥà½łà½ĸ
à½Ķà½¢ à½ĺà½ģ
à½ĳà½Ĥ à½¢à½Ħ
à½Ħà½¦ à½Ĥà½ŀà½ĵ
à½Ħà½¦ à½ŀà½¦
à½Ł à½łà½ĳ
à½ĸà½ħ à½ĺà½¦
à½Ļ à½Ħà½¦
à¾Łà½º à½º
à½Ĥà½¡ à½ĳ
à½Ĥà½ĳ à½Łà½Ĥ
à½ĸà½ıà½Ĥà½¦ à½ĵà½¦
à¾ķà½ºà¼ĭ à¼Ħà¼ħà¼įà¼į
à¾ŀ à½´à½¿à¼ĭ
à½ºà¼ĭà¾¾ à¼į
à¼ĭà½ºà¼ĭ à½ºà¼ĭà½º
Ġ à½Ĥà½ĸ
à½Ĥ à½ĺà½ļà½ĺà½¦
à½Ĥ à½Ĥà½ĵà½ĺ
à½ĵ à½Ĳà½¢
à½ł à½¦à½ĺà½¦
à½ĸà½¦ à½łà½ĩ
à½Ĳ à½£à½Ĥ
à½ĺà½¦ à½¡à½Ħ
à½Ķà½¢ à½Ĥà½ŀ
à½Ĥà½ĵà½¦ à½łà½ĳ
à½ĺà½Ĳà½ł à½ī
à½ĳà½Ĥà½ł à½ĳà½Ħ
à½Ħà½ĵ à½Ķà½ł
à½ĳà½Ķà½Ĥ à½Ķ
à½ĸà½Ļà½ĵ à½Ķ
à¾µ à½½à¼ĭ
à¾¶ à½¼
à¾µà½² à½¾à¼į
Ġà¼¢à¼£ à¼ł
à½ĸ à½ļà½Ħà½¦
à½²à¼ĭ à¼Ħà¼į
à½£ à½Łà½¦
à½£ à½ģà½¦
à½ĺà½¦ à½ĺà½ļ
à½łà½ İ
à½ĸà½Ģà½ł à½ĸà½¦
à½Ĥà½¢ à½ĵ
à½Ĥà½ŀà½Ĥ à½ĸ
à¾¤à¾±à½² à¼įà¼įà¼į
à½ĸà½¦à½Ĥà½¦ à½Ķà½ł
à½Ĺ à½ķ
à¾ĭ à½Ĥà½ī
à½Ĥà½Ķ à½¡
à½ĺà½Ķà½¢ à½ĳà½Ĥ
à½ĳ à½ģà½Ħ
à½ĳ à½§à½ĳ
à½¢ à½ļà½ĵ
à½Ķ à½Ģà½¢
à½£ à½ķà½ĸ
à½Ĩ à½ĺà½Ĩ
à½Ķà½¢ à½ĩ
à¾³ à¾·à½²à½¾à¼ĭ
à½§ à½Ļ
à½łà½ĳà½¦ à½ł
à½£à½Ĥ à½ĸ
à½Ģà½¢ à½Ģ
à½¢à½¦ à½ł
à½« à½Ħà½¥
à½¦à½ĵà½¦ à½ĵ
à¼įà¼Į à¼Įà¼Įà¼Įà¼Įà¼Įà¼Įà¼Įà¼Įà¼Įà¼Įà¼Įà¼Įà¼Įà¼Įà¼Įà¼Į
Ġ à½Ĥà½ł
Ġ à½Ħà½£
à¾ ¯
à½ĳ à½ĳà½ĺà½¢
à½ĳ à½ŀà½ĸà½¦
à½¢ à½Ĥà½ŀà½Ĥ
à½ĵ à½ĸà½ĺ
à½ł à½¢à½ĸ
à½¡ à½łà½ĸ
à½¼à¼ĭ à½´à¼ĭ
à½Ĩ à½Ķà½ł
à½ĵà½¦ à½ĺà½Ĥ
à¾· à¾±à½´
à½łà½Ĩ à½¢à½ĸ
à¾Ĳà½´ à¼įà¼ĭ
à½±à½² à½¿à¼įà¼į
à½¦à½ĳ à½¦à½¢
à¼ĭà¾ ¬
à¾´ à½ºà¼į
à¾·à½±à½² à½¿à¼įà¼į
Ġà¼¡à¼¨ à¼§
Ġà¼¢à¼ł à¼¡à¼¢
à½łà½ł à½łà½ł
à½²à¼ĭà¼ ı
Ġ à½¡à½£
ĭ à¾ľ
à¾± à¾Ĳà¾±à½ºà¼ĭ
à½ĳà½Ħ à½Ł
à½ĸà½¦ à½ĳà½ĳ
à¾±à½²à¼ĭ à¼į
à¼ ĭà¾ľ
à¾¤ à¾Ĺà½¼
à¾Ļ à½±à¼ĭà¼½
à¼ĭà¼ ģ
à¼ĭà¼ Ħà¼Ħà¼įà¼į
à¾µ à½»à¼ĭ
à¾ĭ à½łà½ĳ
à½Ķà½ı à½ı
à¾Ĵà¾· à½¾
à½Ħ à½īà½ĺà½¦
à½£ à½ģà½¢
à¾Ł à¾²à½±à¾Ģà¼ĭ
à½Ķà½¢ à½Ħà½¦
à¾¡ à¾·à¼ĭà¼´
à½ĳà½Ķ à½Ĥà½Ħ
à½ħà½ĳ à½ĺà½ļà½ĵ
à½Ĥà½ĳ à½¡
à½¾à¼ĭ à½²
à½īà½ĺà½¦ à½¢
à½İ à½łà½ĺ
à½ĺà½ļà½ĺà½¦ à½ĵ
à¾¦à¼ĭ à¾¾
à½Į à½¡
à½ĵà½Ķ à½ķ
à¾° à½¾à¼ĭ
à½±à¼· à¼į
Ġ à½¤à½¦
ĭ à¾²à¼ĭ
à½¦ à½ķà½ĵ
à½Ĥ à½łà½ĳà½¦
à½Ĥ à½ķà½ĵ
à½ĵ à½ıà½ĺ
à½´ à½ºà¼ĭ
à½£ à½Ĥà½¡à½¦
à½Ĩ à½ĸà½ħ
à½ģ à½ķà½ĵ
à½ī à½ĸà½¦
à½łà½Ĥ à½Ĭ
à¼ ĭà¾²à¼ĭ
à½ĺà½Ĳà½ł à½ĺà½Ħ
à½Ĩà½Ĥà½¦ à½Ĩ
à½Ĳà½£ à½ĳà½Ħ
à¼¤ à¼¡à¼¥à¼¨
à½ĺà½£ à½Ĩ
à¼ĭà¼Ĳ à¼į
à¾Īà¾Īà¾Īà¾Ī à¾Īà¾Ī
à½Ĥ à½łà½ļà½£à½£
à½ĸ à½Ĥà½¡à½¦
à¾Ł à½½
à½ģ à½ĺà½ĳ
à½Ķà½¢ à½£à½¦
à½ĸà½¢ à½ĸà½¤à½ĳ
à½Ķà½¦ à½Ĥà½ī
à½Ļ à½ĺà½ģ
à½Ĥà½Ħ à½Ķ
à½Ĥà½Ħ à½ĺà½Ħ
à¾¦à¾± à¾¡à½¼
à½ĳà½Ģà½¢ à½£
à¾±à¼į à¼Ħà¼ħà¼įà¼į
à¾µ à¾¨à½ºà¼ĭ
à¾ª à½¼
à½Ķà½ĵ à½Ķ
à½ĥ à½īà½ł
à¼įà¼Į à¼Įà¼Įà¼Įà¼Įà¼Įà¼Įà¼Įà¼Įà¼Įà¼Įà¼Įà¼Įà¼Įà¼Įà¼Įà¼Įà¼Įà¼Įà¼Įà¼Įà¼Įà¼Įà¼Įà¼Įà¼Įà¼Įà¼Įà¼Įà¼Įà¼Įà¼Įà¼Į
à½ºà¼ĭ à¼·
à½¼à¼ĭ à¼įà¼įà¼įà¼į
à½Ķà½ł à½ĸà½¢
à½ħ à½ĸà½¢
à½ģ à½ĸà½ł
à¾¨ à¾²à½²à¼į
à½ĸà½ĳ à½Ķà½ł
à½ĺà½ī à½ĺà½ĳ
à½ĸà½Ģà½ł à½łà½ĸ
à½İ à½ī
à½Ĥà½ıà½ĵ à½Ĥà½¦
à½Ĭ à½¤
à½ĺà½īà½ĵ à½Ķ
à¾Ľ à½´à¼ĭ
à¼¢à¼¤ à¼¢à¼¤
à½¢à½¢ à½¢à½¢
à¾·à½±à½´ à½¿à¼ĭ
à½ĩ à½ĺà½¦
à½Ĥà½ĳ à½ĵà½ĳ
à¾Ń à¾ĥà¼į
à½£à½Ĥ à½ł
à½ģà½ĺà½¦ à½Ĳà½ĺà½¦
à½Ŀ à½ĳà½Ħ
à½Ĩà½Ĥ à½Ĩ
à¾²à¾Ģ à¾ħà¼ĭ
à½Ľà½ĺ à½ĸ
à¼ĭà¾¢ à½±à¼į
à¾Łà¾Ń à½±à¼į
à½¦ à½ĳà½Ķà½Ĥ
à½Ĥ à½ĺà½ĩ
à½¢ à½«
à½´ à½¾à½¿à¼ĭ
à½¡ à½ĳà½¢
à½Ĳ à½ĺà½Ħ
à½ģ à½¥
à¾¡ à¾Ģ
à¼ »
à½ĸà½ħ à½ª
à½ĸà½ĳ à½Ģà½ł
à¾Łà¼ĭ à¼İ
à½ĳà½ĸà½Ħ à½ĳà½Ħ
à½Ĥà½ı à½ĺà½¢
à¾Ķà¼ µà¼ĭ
à¾¤à¾±à½¼ à½¼
ĭà¼ĭà¼ ĭà¼¼
à½´à¼į à¼ĭà¼ĭà¼ĭà¼ĭà¼ĭà¼ĭ
à½Ĥà½ŀà½£ à½¡à½¦
à½łà½ĸà½ĳ à½ĵ
à½±à½¿à¼ĭ à½±à½´à¾ĥà¼ĭ
à¼łà¼ł à¼¤à¼§
à½ĳà½Ķà½¢ à½¦
à¼ĭà¾ ´
à¼Ī à¼Ļ
Ġà¼¢ à¼¡à¼¥
à¼Ħà¼ħ à¼ħ
à¾·à¾² à½²à¼Ķ
Ġà¼¢à¼ł à¼¤
à¾²à¾° à½²à¼Ķ
Ġ à½ĳà½ĵ
Ġ à½ģà½ĺ
à½¢ à½ª
à½ĺ à½ĸà½ıà½Ħ
à½ĺ à½ĺà½Ħà½ł
à½¡ à½ĸà½£
à½ĳà½Ħ à½ĳà½Ķ
à½ı à½ĸà½¦
à½ī à½ĳà½Ħ
à½ī à½ĵà½ĳ
à½Ķà½¦ à½ĳà½Ķ
à½£à½ĺ à½ĩ
à½ĳà½Ĥà½ł à½ĵ
à½īà½ĺà½¦ à½Ķà½ł
à¾¡à½ºà¼ĭ à¼½
à½Ĥà½¢ à½¡à½Ħ
à½łà½Ĥà½£ à½ĸà½¢
à½ķà½ĸ à½ĵà½¦
à¾¦à¾· à½´à¼į
à½ºà½º à½¾à¼ĭ
Ġà¼Ħà¼ħ à¼ħà¼į
Ġà¼¡à¼¨ à¼¥
à¾Ħà¼ µ
à½¢ à½Ĩà½Ĥà½¦
à½Ħ à½ĳà½ĳ
à½ĺ à½ĸà½ħà½¦
à½Ķ à½ĸà½ħà½¦
à½Ģ à½ĺà½Ĳ
à½ĵà½¦ à½Ĥà½ŀ
à¾Ļ à½±à¼įà¼į
à½¢à½ĸ à½¤à½Ĥà½¦
à½Ĥà½ŀà½ĵ à½łà½ķ
à½£à½ł à½¢
à½Ģà½¢ à½§
à½ĸà½¦à½ĺà½¦ à½ı
à¾µ à¼ĭà¼ĳ
à¾ŀ à½½à½¾à¼ĭ
à¾ł à½´
à½£ à½ŀà½£
à½Ĥà½¦ à½ĳà½Ģ
à½Ķà½ł à½ļà½Ħ
à½Ĥà½Ħ à½ħ
à½ĸà½Ģ à½¤
à½£à½ĺ à½£à½¦
à½ĸà½ı à½Ħà½ĵ
à½Ĩà½Ĥà½¦ à½Ķà½¢
à½ĳà½ĺà½ĵ à½Ķà½ł
à¾¡à¾· à¾±
à¼Ģ à½Ĩ
à¾ĭ à½ĳà½Ĥ
à¾¨à¾¨à½± à½¿à¼į
à½ĺ à½ĳà½Ĥà½ł
à¾¡ à¾²à½¼à¼ĭ
à½ĳà½ĺ à½ħà½ĵ
à½ĳà½ĺ à½ĺà½ģà½ł
à½²à¼į à¼ĳ
à½§ à½ĸà½¦
à¾Ĺà½ºà¼ĭ à¼½à¼¼
à½ºà¼įà¼į à¼Ħà¼ħà¼įà¼į
à½łà½ķà½Ĥà½¦ à½ĺà½ł
à½Ĳà½Ĥ à½ĺ
à½Ī à½¼à¼ĭ
à½¢à½ĵ à½ĸ
à¾ĭ à½¡à½Ħ
à¾° à½²à¼ĭ
à½¾à¼Ķ à¼
Ġà¼¢ à¼¡à¼¤
à½Ħà½Ķ à½ĸà½¢
Ġà¼¡à¼© à¼§
à½¼à¼įà¼įà¼Ī à¼įà¼į
à¾Īà¾Īà¾Īà¾Ī à¾Īà¾Īà¾Ī
à½ĺ à½Ģà½ł
à½Ĥà½¦ à½Ĥà½ĳ
à½ŀ à½¥
à½ĸà½¢ à½ĳà½Ģà½ł
à½Ļ à½Ķà½ł
à½Ľ à½ĳà½Ĥ
à½ĳà½Ķà½ł à½Ĳ
à½ĵà½ĺ à½Ķà½¢
à½ĸà½Ģà½ł à½ĺà½Ĩ
à½ĺà½īà½ĺ à½ŀ
à¾·à½¼à¼ĭ à¼Ħà¼ħà¼įà¼į
à¾Ķà¼į à¼½
à¼įà¼Ħà¼ħà¼įà¼į à¼į
à½£à½£ à½£
à¼ĭà¼Į à¼Į
à¼įà¼ĭà¼ĭà¼ĭà¼ĭà¼ĭà¼ĭà¼ĭà¼ĭà¼ĭà¼ĭà¼ĭà¼ĭà¼ĭà¼ĭà¼ĭà¼ĭà¼ĭà¼ ĭà¼ĭà¼ĭà¼ĭà¼ĭ
Ġ à½łà½Ĳà½ĳ
à½ĵ à½ĳà½Ķà½Ĥ
à½¼à¼ĭ à¼·
à½Ģ à½ĳà½ĺ
à½ģ à½ĵà½Ħ
à¾· à¾Ģ
à¾· à¾£à½¼à¼ĭ
à¾© à¾¡à½ºà¼ĭ
à¾²à½¼ à¾ĥà¼ĭ
à½Ľ à½ħ
à¾·à¼ µà¼ĭ
à¾±à¼į à¼ĭà¼ĭà¼ĭà¼ĭà¼ĭ
à½¼à¼ĭà¼ĳ à½¾à¼į
à½ĸà½ĵ à½£
à¼ĭà¼¼ à¼Ħà¼ħà¼įà¼į
à½Ĺ à½ĵà½Łà½«
à½ĵà½Ķ à½ĸà½¦
à½ĭ à½¨
à¾±à½± à½ºà¼ĭ
Ġà¼¡à¼¦ à¼©
à¼ĭà¼ĭà¼ĭà¼ Ħà¼ħ
Ġà¼Į à¼į
à½Ĳà½ĺà½¦à½ħ à½ĳà½Ħ
à¾łà½² à¾Ģ
à½¼à¼ĭà¾¾ à¼į
à½¾à¼Ķà¼ ĭ
à½¦ à½ĸà½¤
à½ĵ à½ĳà½Ģà½ł
à½²à¼ĭ à¾£
à½£ à½Ĥà½ıà½ĳ
à½ĸà½¢ à½ī
à¾Ĳ à¼ĭà¼½
à½ĵà½¦ à½ĸà½¤à½ĳ
à½£à½¦ à½ĵà½ĺ
à¾Ĵà¾±à½´ à½´
à½Ľ à½İ
à¾£à¼ µà¼ĭ
à¼ł à¼¡à¼¢
à½łà½ĺ à½ĸ
à½ļà½Ħ à½ĺ
à½» à½»à¼ĭ
Ġà½¢ à½¢
à½Ĺ à½ħ
à½¦à½Ģ à½£
à½Ķà½ķ à½ĸà½ĸ
à½²à¼ĭà¼ ī
Ġà¼´ à¼´
Ġ à½īà½Ĥ
à½ĵà½¦ à½ĸà½ŀ
à½Ķà½¦ à½ĵà½Ħ
à½ĳà½ĸ à½ĳà½¦
à½Ĥà½Ħ à½ĸà½¢
à½Ĳà½ĺà½¦ à½ĺ
à½łà½ĳà½¦ à½łà½ĳ
à½ĳà½Ķà½ł à½ĺà½Ĩ
à½Łà½ĳ à½Ļà½ĺ
à½ĸà½ħà½ĳ à½Ķà½¦
à¼ĭà¼ĳ à¼¼
à½Ĥà½ĳà½ĵ à½ĵ
à½¢à½¦ à½Ĩ
à¾£à½´ à½¿à¼į
à½¢à½ı à½ł
à½¦à½¦ à½Ķ
Ġà¼£ à¼¢à¼¨
Ġà¼£ à¼¥à¼ł
à½¦à½Ķ à½ļ
à½Ĥà½Ķ à½ŀ
à½ĥ à½¡
à½ĵà½ĺà½ĺà½ģà½ł à½ĳà½Ħ
Ġà¼¢à¼ł à¼¥
Ġà¼¢à¼¤ à¼¢
Ġà¼¢à¼£ à¼¤
à¾±à¼µ à½º
à½Ļà½ļ à½Ľà½Ľ
à½¡ à½ĸà½ĳ
à½Ĳ à½ķà½ķ
à½ĸà½ł à½ĺà½¢
à½£à½¦ à½Ĳà½¢
à¾¤ à½±à½²à¼ĭ
à½ĸà½Ģà½ł à½ĸà½¢
à¾Ĳà¾± à¾¡à½¼
Ġà½£ à½¢
à¼¢à¼¥ à¼¢à¼¦
à¾·à¾² à¾ĥà¼ĭ
à½ĵà½ĺà½ģà½ł à½£
à½£à½ķ à½Ĥà½¦
Ġà¼¢à¼ł à¼¨
à½Ĳà½Ĳ à½Ĳ
Ġ à½ħà½Ĥ
à½Ħ à½Ĥà½Ļ
à½ĺ à½łà½ķà½Ĥà½¦
à¾Ł à¾Łà½±à¼į
à½ĺà½¦ à½ĺà½ĳ
à½Ķà½¦ à½ĵà½ĳ
à¾« à¾²à¼ĭ
à½ĳà½Ĥà½ł à½ł
à½Ĥà½ĵà½Ħ à½ĵ
à½Ĥà½¢ à½Ģ
à½ĸà½Ľ à½§
à½ļà½£ à½ĳ
à¾µ à¾ĥà¼ĭ
Ġà¼£ à¼¡à¼¡
à¼Įà¼Įà¼Įà¼Įà¼Įà¼Įà¼Įà¼Į à¼Įà¼Į
Ġà¼¢à¼¢ à¼©
à½´à¼ĭà½Ī à½ºà¼ĭ
à½ĸ à½Ĩà½¢
à½ĸ à½Ķà½Ģ
à½ĵ à½ĺà½Ħà½ł
à½º à½»
à½Ķà½ł à½Ħà½¦
à½Ķà½¢ à½Ĥà½Ħ
à½łà½Ĥ à½Ĥà½ħ
à½Ļ à½ĺà½Ĳ
à½ĸà½ĳ à½ĸà½¢
à¾Ĺà½ºà¼ĭ à¼¸
à½£à½ĺ à½ĺà½Ħ
à½Ĥà½ĳ à½ĳà½Ĥ
à¾Ń à½±à¼ĭà¼Ħà¼ħà¼įà¼į
à½ĺà½Ĳà½ł à½ħà½ĵ
à½ĳà½ĺà½¢ à½ĺ
Ħà¼ Ħà¼ħà¼į
à½¡à½¦ à½ı
à½¼à¼įà¼įà¼įà¼į à¼Į
Ġà¼£ à¼¢à¼£
à¾ł à½½à¼ĭ
Ġà¼¢ à¼¡à¼§
à½Ĥà½¦à½Ķ à½ĸ
à½ĥ à½Ħ
à¾¼ à½²à¼ĭ
Ġ à½ĺà½īà½ĵ
à½ĳ à½ĳà½Ĥà½Ĥ
à½Ĥ à½Ĥà½¢
à½Ķ à½Ħà½Ħ
à½ĸà½¦ à½Ģà½£
à½Ĳ à½ª
à½Ł à½Ķà½ł
à½Ķà½¦ à½Ĥà½ĳ
à¾Ĵà¾±à½´à¼ĭ à½²
à½ĳà½Ķà½ł à½Ģ
à½Ĥà½ĵ à½ĳà½ĳ
à½£à½ĵ à½ļ
à½ĸà½Ľ à½Ĥ
à½¢à½ĺ à½£
à¼¡à¼¢ à¼łà¼łà¼ł
à½Ĳà½ĺà½¦à½ħà½ĳ à½ĸà½¦
à¼§à¼§ à¼§à¼§
à½¦ à½Ĥà½¦à½¢
à½ĸ à½ļà½¢
à½ĵ à½Łà½¦
à½Ģ à½ĳà½Ķà½£
à¾Ĵ à¾Ń
à½ī à½£à½ĵ
à½ħà½ĵ à½ķ
à½ħà½ĳ à½Ĥà½¦
à½ĸà½ĳà½Ĥ à½Ĥà½ŀà½ĵ
à½ĸà½Ģ à½łà½ģ
à½Ĥà½£ à½ļ
à½¤à½¢ à½ĵà½¦
à½ĳà½Ģà½ł à½ĸà½¦
à½Į à½ĸà½¦
Ġà½Ķ à½Ĥà½¦
à¾Łà½²à¼ĭ à¼´
à¾Ĺà½ºà¼į à¼Ħà¼ħà¼įà¼į
à¼µ à¼µà¼ĭ
à½« à½¢
à¼§à¼¥ à¼łà¼ł
à½¢à½ĸà½ı à½Ĥà½¦
à¾³à¼ĭà¼ ´
à½ĳ à½ħà½ĳ
à½£ à½Ķà½Ĩ
à½ĸà½Ģ à½Ģ
à½Ĥà½ĵ à½łà½Ħ
à½ĸà½ŀà½Ĥ à½ĸ
à¼ł à¼¢à¼¥
à¾Ħ à¾Ħà¼į
à¼ŀ à¼
Ġà¼¡à¼¨ à¼¡
à½ıà½Ĳ à½ĳà½ĳ
à¼ŀà¼ ĭ
Ġ à½Łà½Ħ
à½ĳ à½łà½Ĳ
à½Ĥ à½Ĥà½ıà½ĺ
à¾± à¾Ļà½²
à½£ à½ĳà½Ģà½ł
à½£ à½ģà½ł
à½¼à¼ĭ à½ºà¼į
à½Ĩ à½Ĥà½¡
à½ĸà½¦ à½ĺà½Ľ
à½ķ à½ĵà½ĺ
à¾±à¼ĭ à¼
à½ĩ à½¡
Ġà¼ Ħà¼Ħà¼ħà¼įà¼į
à¾¤à¾± à½½
à½ĺà½Ĳà½¢ à½¦
à¼ł à¼¡à¼§
à½¦à½¢ à½¦à½¢
à½łà½Ĥà½£ à½¢
à½ļà½Ħà½¦ à½Ķà½¢
à¾Ĳà¾±à¼ĭ à¼Ħà¼ħà¼įà¼į
à½Į à½¨
à¾ŀ à½±à½²à¼į
ĠĠĠĠĠĠĠĠ ĠĠĠĠĠĠ
Ġà¼ĭà¼Į à¼Į
Ġà¼ĭà¼ĭà¼Į à¼
Ġà¼ĭà¼ĭà¼Įà¼ ĭ
à½² à½±
à½ĸ à½ĺà½ģà½ł
à½Ħ à½Ĩà½Ĥà½¦
à½£ à½£à½Ĥà½¦
à½£ à½ĺà½ļà½ĺà½¦
à½´à¼ĭ à¼ħà¼įà¼į
à½ŀ à½¤
à¾£ à½½à¼ĭ
à¾Ĳ à½²à¼Ķ
à¾Ĳ à¾µà¼ĭ
à¾Ķ à½²à¼ĭ
à½± à½´à¼·à¼į
à½ĳà½Ģ à½ĸ
à½ĺà½ł à½ĵ
à¼Ķ à¼´
à½Ļà½ĺ à½¡
à½ĵà½ĳ à½ĳà½Ħ
à½Ĩà½Ĥ à½ĸà½¦
à¾¡à¾· à½±à½¾à¼į
à½ŀà½Ĥà½¦ à½Ķ
Ġà½£ à½ĸ
à½¦à½¦ à½£
à¾²à½±à½² à¾ĥà¼ĭ
à½ĭ à½ģ
à¾Ĵà¾±à¼ĭà¼ Ħà¼ħ
à½Ĥ à½Ķà½İ
à½ĺ à½Ĥà½¦à½Ħ
à½Ķ à½ķà½ĵ
à½ºà¼ĭ à½¾à¼ĭ
à½´à¼ĭ à½ºà¼ĭ
à½¼à¼ĭ à¼ĭà¼įà¼į
à½ĳà½Ħ à½§
à½Ĩ à½¢à½Ħ
à½ģ à½Ĥà½ħ
à½ĺà½¦ à½ĸà½ĳ
à½ļ à½ħ
à¾· à¾³à¾Ģà¼ĭ
à½ĳà½Ķ à½ĳà½Ħà½Ķ
à½ĺà½Ĩ à½ĵà½ĺ
à¾Ĵà¾±à½´à¼ĭ à½Īà½²
à½İ à½Ħ
à½İ à½Ĳ
à½ĺà½ĵ à½ĵà½ĵ
à½ĸà½£ à½ķ
à½¡à½¦ à½Ģ
à½ĸà½ĸà½¦ à½¦
à¾ŀ à½¼
Ġà¼£ à¼¢à¼ł
à½Ĥà½Ķ à½ħ
à½Ĥà½Ķ à½£à½¦
Ġà¼¢à¼ł à¼©
à¾ļà½² à½¾à¼į
à¾·à¾²à½´ à½¾à¼į
à½ķà½İ à½Ħ
à½¦ à½Ħà½Ħ
à½¦ à½Ĩà½¢
à½ĸ à½ĵà½ĺà½¦
à½¢ à½Ĥà½ıà½ĵ
à½£ à½ĸà½ĺ
à½¡ à½ĸà½ħ
à½Ģ à½ĩ
à½ĳà½Ĥ à½łà½ĩ
à½łà½ĸ à½Ģà½ł
à½¡à½Ħ à½¢à½ĸ
à½¨ à½ĸà½ĵ
à½ĺà½ĳ à½Ĥà½¦
à½ĳà½Ķà½ł à½ĸà½¢
à¼ĭà¼ ĭà¼ĭà¼ĭà¼ĭà¼ĭà¼ĭà¼ĭà¼ĭà¼ĭà¼ĭà¼ĭà¼ĭà¼ĭà¼ĭà¼ĭà¼ĭ
à¼Ķ à¼½
à¾Łà½ºà¼ĭ à¼į
ĭà¼ĭà¼ Ħà¼ħà¼įà¼į
à¾¡à½¼ à½¼
à½ĳà½ĺà½Ĥ à½ļ
à½ķà½ĺ à½Ķà½¢
à½¢à½Ĥ à½£à½¦
Ġà½¦ à½ĵ
à¾ª à½±à¼ĭà¼Ħà¼ħà¼įà¼į
à¾Ĳà½´à¼įà¼į à¼į
à½¢à½Ħà½¦ à½Ħà½¦à½¢
à¼¢à¼© à¼£à¼ł
à½ĸà½ī à½ĳ
à¾²à¾° à½²à½¿à¼ĭ
Ġà¼¢à¼¤ à¼ł
Ġ à½¢à½Ĥà½¦
à½¦ à½Ĥà½¡à½¦
à½¦ à½ĵà½ĺà½ĺà½ģà½ł
à½¢ à½ĺà½ģà½ł
à½ļ à½ª
à½łà½ĳ à½ĸà½ŀ
à½¡à½Ħ à½Ķ
à½Ķà½¦ à½Ĥà½ŀ
à¾Ļ à¼·
à½ħà½ĵ à½Ķ
à½ħà½ĵ à½Ĳ
à½Ĥà½¡ à½¦à½¢
à½ĸà½¦à½ĺ à½ī
à½ĺà½ģà½ł à½ĵ
à½¢à½¦ à½Ħ
à½Ĩà½Ĥ à½ĺà½Ĩ
à½Ĵ à½ķà½ĳ
à½¼à½¿à¼ĭ à½¿à¼ĭ
à¾¨à¾±à½´ à¼į
Ġà¼¢ à¼¡à¼¨
à¾±à½²à¼ĭà¼ĳ à¼ĳà¼ĭ
à¼ŀ à¼Ħà¼ħà¼įà¼į
Ġà¼¡à¼§ à¼£
Ġà¼¢à¼ł à¼§
à½Ĳà½Ģ à½Ł
à¾ļà½± à¾Ģà½¿à¼ĭ
à½¦ à½¦à½ĳ
à½¦ à½Ģà½¦
à½ĳ à½ĸà½łà½ĺ
à½ĵ à½Ĩà½¢
à½²à¼ĭ à¾³
à½Ĥà½¦ à½Ľ
à½ĺà½¦ à½ĳà½ĸ
à¾¤ à¾Ĳà½¼
à½ĳà½Ķ à½ĸà½¦
à½ĸà½¤ à½Ĭ
à½ĸà½¦à½ĺà½¦ à½¦
à½¢à½ı à½ĺ
à½Ħà½Ķ à½ĸà½Ķ
à½Ķà½Ķ à½Ķà½Ķ
à½Łà½Ł à½Ł
à½¢ à½¡à½ĵ
à½Ģ à½¢à½Ħ
à½ļ à½ĵà½Ĥ
à½ĵà½¦ à½ĺà½ļ
à½± à¾Ĥà¼ĭ
à½ĺà½ļà½ĵ à½¡
à½ģà½ĺà½¦ à½ĺà½Ĳà½ł
à½±à¼į à¼ĭà¼ĭà¼ĭà¼ĭà¼ĭ
à½¼à¼įà¼įà¼įà¼į à¼Ħà¼ħà¼įà¼į
à½łà½ĸà½ĳ à½Ķà½¢
à¾ĭ à½ĸà½¦
Ġà¼¢ à¼¡à¼©
à½²à¼ĭà¼½ à¼į
à½¢à½Ķ à½¡
Ġà¼¡à¼§ à¼¦
à½ĺà½¦à½ĳà½Ķà½ł à½¢
Ġà¼ĭà¼ĭà¼ĭà¼ĭà¼ĭà¼ĭà¼ĭà¼ĭà¼ĭà¼ĭà¼ĭà¼ĭà¼ĭà¼ĭà¼ĭà¼ĭà¼ĭà¼ĭà¼ĭà¼ĭà¼ĭà¼ĭà¼ĭà¼ĭà¼ĭà¼ĭà¼ĭà¼ĭà¼ĭà¼ĭà¼ĭà¼ĭà¼ĭà¼ĭà¼ĭà¼ĭà¼ĭà¼ĭà¼ĭà¼ĭà¼ĭà¼ĭà¼ĭà¼ĭà¼ĭà¼ĭà¼ĭà¼ĭà¼ĭà¼ ĭà¼ĭà¼ĭà¼ĭà¼ĭà¼ĭà¼ĭà¼ĭà¼ĭà¼ĭà¼ĭ
à½ĳ à½Ļà½¦
à½Ĥ à½ģà½¦
à½¢ à½ĳà½ĺà½¢
à½ĵ à½Ĥà½ŀà½£
à½´ à¾Ģà¼ĭ
à½Ģ à½Ĥà½ī
à½ģ à½ĺà½ł
à½£à½¦ à½ĸà½¤à½ĳ
à½¡à½Ħ à½ĸà½ĳà½Ĥ
à½ĳà½Ķ à½Ķ
à½ĸà½¤à½ĳ à½ĸà½ł
à¾Ĳà½´à¼ĭ à¼½
à¾£à¼ĭ à½²
à½ĸà½ħà½ĳ à½£
à½ķà½Ĭ à½§
à½£à½Ħ à½ļ
à¾¥ à½±à½²à¼ĭ
à¾ĭ à½ħ
Ġà¼¥ à¼łà¼ł
à¼įà¼½ à¼Ī
à½ĸ à½łà½Ĥà½Ĥ
à¾Ł à½±à¼Ķ
à¾Ĳ à¾³à½¼
à½ĵà½¦ à½Ļ
à¾¨ à¾¨à½ºà¼ĭ
à½łà½ķ à½ł
à½Ĥà½¦à½£ à½Ķ
à¼¢ à¼¡à¼¢à¼¢
à¾Ĵà¾²à¼ĭ à¼¼
Ġà¼¼ à¼
à½½ à¼įà¼Įà¼Įà¼Į
à¾Ľ à½²à¼įà¼į
à¼¢à¼¢ à¼łà¼ł
à¾» à¼Ķ
Ġà¼Ķ à¼į
à¼ĭà¾¾ à¾¾à¾¾à¾¾à¾¾
à½¢ à½Ķà½Ĥà½¦
à½ĺ à½ĸà½Ľ
à¾² à¾Ĺà½ºà¼ĭ
à½Ķà½ł à½ĺà½Ħ
à½Ĩ à½¢à½ĸ
à½ķ à½ĸà½¢
à½¤ à½ĸà½ĳ
à½¤ à½ĵà½ł
à¾±à½º à½¿à¼į
à½Ļ à½Ľ
à¾Ķà½¼ à½¼
à½Ĳà½ĸà½¦ à½ŀ
à½Ķà½İ à½ł
à½Ĩà½Ĥ à½Ĥà½¦
à½Ĩà½Ĥ à½Ĩà½Ĥ
à¾ļ à½±à½¿à¼ĭ
Ġà¼£ à¼¢à¼¦
à¼Įà¼Įà¼Įà¼Į à¼Įà¼Į
à½ĵà½ĺà½ĺà½ģà½ł à½ĺà½Ľ
Ġà¼¡à¼¨ à¼¤
à½ł à½łà½ĳà½¦
à½£ à½Ļà½Ģ
à¾² à½¼à¼µ
à½ŀ à½łà½ĺ
à½Ķà½ł à½ŀ
à½Ĩ à½Ĥà½Ł
à½ģ à½łà½Ĥ
à½ģ à½ĳà½ĸ
à½ģ à½¢à½Ħ
à½ı à½£à½ł
à½Ķà½¢ à½Ĥà½ŀà½ĵ
à¾Łà¼ µà¼ĭ
à½ĸà½Ģ à½łà½ķ
à½ĵà½ĺ à½Ģ
à½ıà½ĵ à½ı
à¾¨à¾²à¼ĭ à¼Ħà¼ħà¼įà¼į
à¾µ à¾¨à½²à¼ĭ
à½» à½¾à¼Ķ
à½Ĺ à½Ĥà½¦
à¼ĭà¼ŀ à¼įà¼į
Ġ à½ĸà½ŀà½ĳ
à½¢ à½ĳà½£
à½ĵ à½ĸà½ıà½Ĥà½¦
à½²à¼ĭ à½ºà¼į
à½ģ à½Ĥà½£
à½ĵà½¦ à½Ĥà½ĳ
à¾±à½´ à½±à¼ĭ
à¾© à¾¨à¼ĭ
à¾¦ à½±à½²à¼į
à½ĳà½ĸà½Ħ à½¤
à½±à¼ĭ à½±
à½ĸà½ıà½Ħ à½ĵà½¦
à½Ĳà½Ĥ à½Ĩ
à½ĸà½¤à½Ĥà½¦ à½¦
à½Ĵ à½ķà½Ĳà½Ĥ
à½Ĥà½¦à½Ķ à½¡
à¼©à¼© à¼©à¼©
Ġà¼¢à¼¢ à¼§
à¾·à¼ĭà¼ ¸
à½ĸà½¦à½ĺà½Ĥà½ıà½ĵ à½ĳà½Ħ
ĭ à¾¤à¼ĭ
à½Ħ à½ĺà½Ĳà½¢
à½ħ à½Ĥà½¦à½Ħ
à½ķ à½ģ
à½ī à½Ļ
à¼ ĭà¾¤à¼ĭ
à½£à½¦ à½ĳà½ĸà½Ħ
à¾±à¼ĭ à¼º
à¾© à½¿à¼ĭ
à½Ĥà½Ħ à½ĺà½¦
à¾« à¼·à½¼
à½ĺà½Ĥ à½ĵà½Ħ
à¼¢ à¼¡à¼łà¼ł
à½ĺà½ģà½¦ à½Ĥ
à½Ĥà½¢ à½ĺà½ģà½ĵ
à¾±à½´à¼ĭ à¼½
à¼Ģ à½ĺà½Ĩ
Ġà¼£ à¼¡à¼¢
Ġà½Ģ à½Ģ
à½´à¼įà¼ĭà¼ĭà¼ĭà¼ĭà¼ĭà¼ĭà¼ĭà¼ĭà¼ĭà¼ĭà¼ĭà¼ĭà¼ĭà¼ĭà¼ĭà¼ĭà¼ĭà¼ĭà¼ĭà¼ĭà¼ĭà¼ĭà¼ĭà¼ĭà¼ĭà¼ĭà¼ĭà¼ĭà¼ĭà¼ĭà¼ĭà¼ĭà¼ĭà¼ ĭà¼ĭà¼ĭ
ĭ à¼ĭà¼įà¼ĭ
à½Ĥ à½łà½Ľà½ĺ
à½ĺ à½ŀà½£
à¾² à½²à¼µ
à½ĳà½Ħ à½łà½Ľ
à½ģ à½ĺà½ĺ
à½ī à½łà½ĳ
à½ĸà½¢ à½łà½ļà½£
à¾Ĳ à¾Ńà¼ĭ
à¾±à½º à¼įà¼įà¼į
à¾· à¾¨à¼ĭ
à½Ĳà½ĺà½¦ à½Ĳà½ĺà½¦
à½Ĥà½ĳ à½ŀ
à½¤à½¢ à½ĸà½ł
à½Ŀ à½ħ
à½ĸà½¦à½Ĥà½¦ à½ĵ
à¼łà¼ł à¼©à¼ł
Ġà¼£ à¼¤à¼©
Ġà¼£ à¼§à¼©
à½¼à½¾ à½¾à½¾à¼ĭ
ĠĠĠĠĠĠĠĠ ĠĠĠĠĠ
à¾²à¾° à½¾à¼į
Ġà¼¢à¼¢ à¼£
à¾±à¼µ à½¼
à¾·à¾²à¼ĭà½µ à½¾à¼ĭ
Ġ à½¤à½ĵ
Ġ à½¨à½ĺ
à½Ĥ à½Ĳà½¢
à½ĵ à½£à½łà½Ħ
à¼į ï»¿
à½Ħ à½Ĥà½¦à½Ħ
à¼ ĭà¼ĭà¼įà¼ĭ
à½ĸà½Ł à½ĺ
à¾« à½±à½´
à½ĩ à½Ģ
à¾³à½¼à¼ĭ à¼½à¼¼
à½ĺà½¢ à½ł
à½Łà½ĳ à½£
à½Ŀ à½Ĳ
à½Łà½ĸ à½Ķ
à½Ķà½łà½ĺ à½£
à½Ĥà½ĺ à½ŀ
à½Ĺ à½ıà½Ĥ
Ġà¼įà¼į à¼
Ġà¼£ à¼¢à¼©
à¾©à¾Ń à¼Ķ
à½Ĥ à½Ĩà½Ĥ
à½ĵ à½¤à½¢
à¼į à½¿
à½£ à½«à½Ħ
à½Ĩ à½ĸà½Ĥ
à½ħ à½Ĥà½ħ
à½± à½¼à½¾
à¾· à¾°à¼ĭ
à¾²à½² à¾ĥà¼ĭ
à¾¨ à½±à¼įà¼į
à½Ļà½ĺ à½¡à½Ħ
à½ĺà½Ĥ à½ĺ
à½Ĭ à½Į
à½ļà½Ħ à½ĸ
à½ĳà½Ģà½ł à½ł
à½ģà½ł à½¢
à¼¤à¼¢ à¼¡à¼ł
Ġà¼¡à¼¨ à¼¦
Ġà¼¢à¼¢ à¼¤
à½Ĵà½Ĩ à½Ĳ
Ġ à½ķà½ĺ
à½Ĩ à½ĵà½Ķ
à½ĳà½Ĥ à½¡à½Ħ
à½¡à½Ħ à½Ħà½Ĥ
à¾· à¾±à½²
à½ħà½ĵ à½ĸà½¦
à½Ħà½Ĥ à½£à½¦
à¾Ńà¼ĭ à½²
à½İ à½Ľ
à¼ł à¼¡à¼£
à½Ĵ à½ļ
à¾ļ à½¾
Ġà¼£ à¼¢à¼¥
à½Ĳà½ĺà½¦à½ħà½ĳ à½¡
à¼µ à½²à¼į
à¾¦à¾²à¼ĭ à¼Ħà¼ħà¼įà¼į
à½ĺà½Ķà½¢ à½¢
à¼ĭà¾§ à½²à½¿à¼ĭ
Ġà¼¢à¼¦ à¼¦
à½£à½Ķà½ł à½ģ
à¾łà½² à¾Ģà¼į
Ġà¼įà¼įà¼ ĭ
à½Ķ à½ĸà½ı
à½£ à½ŀà½ĸà½¦
à½ĳà½Ħ à½Ĥà½ħ
à½ĳà½Ħ à½Ĥà½ı
à½Ĳ à½Ľ
à½Ķà½¦ à½Ķà½ł
à½Ķà½¦ à½ĵà½¦
à½Ľ à½Ĩ
à¾Ĺà½ºà¼ĭ à½Īà½²
à½ĺà½ļà½ĵ à½Ĥà½ŀ
à½ĸà½Ĥ à½ĵà½Ħ
à½£à½Ĥ à½Ĩ
à½ĵà½Ĥ à½ĸ
à½Ģà½¢ à½Ĥ
à½±à½´à¼ĭ à¼Ħà¼ħà¼įà¼į
à¾Łà½²à¼ĭ à¼¼
à¾¡à¾· à¾°à¼ĭ
à½¦à½ĵ à½£
Ġà¼£ à¼¢à¼¤
à½ĭ à½İ
à½© à½ĳ
à½²à¼ĭà¼ Ĩ
Ġà¼ĭà¼ĭà¼ĭà¼ĭà¼ĭà¼ĭà¼ĭà¼ĭà¼ĭà¼ĭà¼ĭà¼ĭà¼ĭà¼ĭà¼ĭà¼ĭà¼ĭà¼ĭà¼ĭà¼ĭà¼ĭà¼ĭà¼ĭà¼ĭà¼ĭà¼ĭà¼ĭà¼ĭà¼ĭà¼ĭà¼ĭà¼ĭà¼ĭà¼ĭà¼ĭà¼ĭà¼ĭà¼ĭà¼ĭà¼ĭà¼ĭà¼ĭà¼ĭà¼ĭà¼ĭà¼ĭà¼ĭà¼ĭà¼ĭà¼ĭà¼ĭà¼ĭà¼ĭà¼ĭà¼ĭà¼ĭà¼ĭà¼ĭà¼ĭà¼ĭà¼ĭà¼ĭà¼ĭà¼ĭà¼ĭà¼ĭà¼ĭà¼ĭà¼ĭà¼ĭà¼ĭà¼ĭà¼ĭà¼ĭà¼ĭà¼ĭà¼ĭà¼ĭà¼ĭà¼ĭà¼ĭà¼ĭà¼ĭà¼ĭà¼ĭà¼ĭà¼ĭà¼ĭà¼ĭà¼ĭà¼ĭà¼ĭà¼ĭà¼ĭà¼ĭà¼ĭà¼ĭà¼ĭà¼ĭà¼ĭà¼ĭà¼ĭà¼ĭà¼ĭà¼ĭà¼ĭà¼ĭà¼ĭà¼ĭà¼ĭà¼ĭà¼ĭà¼ĭà¼ ĭà¼ĭà¼ĭà¼ĭà¼ĭà¼ĭà¼ĭ
à¾©à¼· à½ºà¼ĭ
à½¦ à½ĸà½ıà½Ĥà½¦
à½£ à½ĳà½Ķà½ł
à½ºà¼ĭ à¼·à¼ĭ
à½Ķà½ł à½Ĥà½Ĥ
à½ģ à½Ĥà½Ħ
à½łà½Ĥ à½İ
à¾© à½ºà¼·à¼ĭ
à½Ĥà½ĵà½¦ à½ĺà½Ĩ
à½Ĥà½ı à½ĳà½ĳ
à½£à½ĺ à½Ķ
à½ĵà½ĺà½¦ à½ĵ
à½ĵà½ĵ à½ĵà½ĵ
à½łà½Ĥà½Ĥà½¦ à½Ķ
à¾ļ à¾²à½±à¾Ģà½¿à¼ĭ
Ġà¼£ à¼§à¼§
Ġà¼£ à¼¦à¼¥
à¼ĭà¾¢ à½¾à¼į
à½¼à¼ĭà¼´ à¼į
Ġà¼¢à¼¦ à¼¤
à¼ĭà¾ħ à¼
à¼ĭà¾ħà¼ ĭ
à½ĵ à½Ĥà½¡à½¦
à½Ħ à½łà½ĳà½¦
à½£ à½Ķà½ĵ
à½¡ à½ħ
à¼įà¼į à¼įà¼ĭ
à½ŀ à½£à½ĵ
à¾±à½²à¼ĭ à¼·
à½ģ à½ĳà½Ķ
à½ĺà½¦ à½Ĥà½ī
à½ĺà½¦ à½ĸà½Ł
à½ĵà½¦ à½ĺà½ļà½ĵ
à¾³ à¾Ģà½¾à¼ĭ
à¾¤ à¼·
à½ĳà½ĸ à½Ķ
à½ĺà½Ĳ à½łà½Ĥ
à½ĺà½Ĳ à½łà½ģ
à½ħà½ĵ à½¤
à½ħà½ĳ à½ĳà½ĸ
à½£à½ĺ à½§
à½±à½´ à½¾à¼ĭà¼´
à½ĺà½ģà½ł à½Ħ
à¾Ĳà¾± à¾¤à½º
à½łà½ĸà½¢ à½ĸà½¦
à½Ĩà½Ĥ à½łà½ĳ
à¼ĭà½² à½²à½²
Ġà¼£ à¼¦à¼©
à¾·à¼ĭà¼ Ħà¼ħà¼į
à½¼à¼ĭà½Ī à½²à¼ĭ
Ġ à¼ĭà¼ĳ
à½¦ à½¡à½¦
à½ĸ à½ļà½Ħ
à½Ķ à½ıà½Ħ
à¾² à¾±à½¼
à½ĸà½¦ à½ĳà½ĺ
à½ģ à½ĸà½£
à½ı à½«
à½ĺà½¦ à½ĺà½ī
à½ĺà½¦ à½ĳà½ĸà½ł
à¾Ĳ à¾²à½ºà¼ĭ
à½Ħà½¦ à½¦à½ĺ
à¾¡ à¾²à¾Ģà¼ĭ
à½Ł à½Ĩà½Ħ
à½Ĥà½ŀ à½Ĥà½ħ
à¾¦ à½²à½¿à¼ĭ
à½Ĥà½Ħ à½ĩ
à½Ļà½ĺ à½£à½¦
à½Ĳà½ĸà½¦ à½ĸ
à½ĺà½ļà½¢ à½ĳ
à¾µ à¾¨à½±
à¾ļ à¾²à½²à½¿à¼ĭ
Ġà¼£ à¼¦à¼ł
à¼¢à¼¦ à¼¢à¼¦
à½ĭ à½ĵà½ł
Ġà¼ĭà¼ĭà¼ĭà¼ĭà¼ĭà¼ĭà¼ĭà¼ĭà¼ĭà¼ĭà¼ĭà¼ĭà¼ĭà¼ĭà¼ĭà¼ĭà¼ĭà¼ ĭà¼ĭà¼ĭà¼ĭà¼ĭà¼ĭà¼ĭà¼ĭ
Ġà¼¡à¼© à¼¡
à½į à½ī
Ġ à½ħà½Ħ
Ġ à½¨à½ĵ
à½Ĥ à½ĺà½ī
à½ĸ à½łà½Ĥà½£
à½ĺ à½Łà½ł
à½¡ à½ıà½ĵ
à½ĳà½Ĥ à½łà½Ĩ
à½Ķà½¦ à½Ĳà½ĺà½¦
à¾· à¾±à½ºà¼į
à½£à½Ĥ à½ĸà½ĳ
à½ĺà½īà½ĺ à½Ķà½ī
à¾©à½ºà¼ĭ à¼¼
à½ĵà½Ĥ à½Ĥ
à½ĸà½£ à½ĳ
à½īà½ĵ à½Ķà½¢
à¾·à½²à¼ĭ à¼½
à½Ĺ à½Ĭ
à¾Ľ à½¼
à½ĵà½Ķ à½ĸà½ħ
à¾ĭ à½ĺà½Ĩ
à¾¶ à½´à½¿à¼į
à¼ĭà¼Ħà¼ħ à¼įà¼Ī
à½Ĥà½Ķ à½ĸ
à¾¾à¾¾ à¾¾
à½Ĩ à½Ķà½¦
à½ģ à½Ĥà½ĵà½¦
à½ĵà½¦ à½ĳà½ĸà½Ħ
à½£à½¦ à½Ĥà½ŀ
à½ĸà½ĳ à½ĸà½ł
à½ĺà½Ħ à½£à½ĵ
à½ļà½ĳ à½¢
à½ĵà½¢ à½Ģ
à½ĺà½ĵà½ĵ à½Ķ
à½ĳà½Ķà½¢ à½ĳ
à¼ĭà½² à½¿à¼ĭ
Ġà¼¢à¼¦ à¼¡
Ġà¼¢à¼¤ à¼¦
à¼ĭà¼· à¼ĭà¼·
à¾ŀà¾ŀ à½ºà¼ĭ
à¾·à¾£ à½¿à¼į
à¼ĭà¼ı à¼
à¼ĭà¼ıà¼ ĭ
à½¦ à½¡à½ĵ
à½¦ à½ļà½Ħà½¦
à½Ĥ à½ĸà½¤
à½ĸ à½Ķà½¢à½ĸ
à½º à¾ĥ
à½Ħ à½ĳà½Ĥà½ł
à½Ħ à½ĸà½Ģà½ł
à½Ķ à½ĸà½ıà½Ħ
à½£ à½Ķà½łà½ĸ
à½¼à¼ĭ à½±à¼ĭ
à½ĳà½Ħ à½ĺà½ĳ
à½Ĳ à½Ĥà½Ħ
à½Ħà½¦ à½ħ
à½Ł à½ĸà½£
à¾Łà½º à½ºà¼ĭ
à½ĸà½ĳà½Ĥ à½£à½¦
à¼ĭà¼įà¼į à¼Ħà¼ħà¼į
à½ĳà½Ģ à½łà½ĳ
à½¾ à½²à¼ĭ
à½£à½ĵ à½ĸ
à½ĳà½¢ à½¤
à½¦à½ĺ à½ĩ
Ġà¼£ à¼¥à¼§
à¼¤à¼ł à¼©à¼ł
à¾´ à¾Ńà¼ĭ
à½ºà¾ħ à¼į
à½¦ à½Ĳà½¢
à½¦ à½§à½¦
à½ĵ à½Ĩà½¦
à½Ħ à½£à½ĵ
à½Ĩ à½łà½ĸ
à¾£ à¾£à¼ĭ
à½ĵà½¦ à½ĺà½Ĳà½¢
à¾¡ à¾Ĺà½º
à¾¡ à¾²à½¾à¼ĭ
à½¡à½Ħ à½ĺà½ļ
à¾¤ à¼ĭà¼´
à½Ļ à½ĸà½¢
à½Ĥà½ĵ à½ĵà½¦
à½£à½Ĥ à½ĸà½ŀ
à½ĳà½ĳ à½ŀ
à½ıà½ĵ à½ĺà½Ĳà½ł
à½£à½ĵ à½Ĥà½ħ
à½ĸà½ŀà½Ĥ à½Ķà½ł
à½łà½ĸà½ĸ à½Ĩ
Ġà¼ĭà¼ ĭà¼įà¼į
à¼¤à¼ł à¼¨à¼©
à¼ĭà¼ĭà¼ Ĳ
à½į à½£
à½Ĥ à½Ķà½Ĥà½¦
à½¢ à½ĸà½Łà½Ħ
à½¢ à½ĭ
à½Ķ à½£à½Ħ
à½ĸà½¢ à½ĺà½ģ
à½Ħà½¦ à½ĺà½ĳ
à¾³ à¾º
à¾±à¼ĭ à¼¸
à½¡à½Ħ à½Ĥà½ħ
à½Ļ à½ĳà½Ħ
à½¢à½Ħ à½ĳà½ĸà½Ħ
à½Ľ à½Ĳ
à½ĳà½ĸà½Ħ à½Ĥà½¦
à¾Ń à½´à¼ĭ
à½ĳà½ĳ à½ĸà½¢
à¾¦à¾±à½² à¼į
à½İ à½Ĩ
à¾Ĵà¾² à½±à¼ĭ
à½Ĥà½Ļà½Ħ à½ĺà½ł
à½ĵà½¢ à½¢
Ġà¼£ à¼£à¼¥
à¼¥à¼¦ à¼§à¼¨
à½¨à½Ļ à½£
Ġà¼£à¼ł à¼£
à½¦ à½Łà½ĳ
à½Ħ à½Ķà½ĵ
à½ĺ à½Ģà½¦
à½Ķ à½ĺà½ĩ
à½Ķ à½ĸà½¦à½£
à½²à¼ĭ à¾Ĳ
à½£ à½łà½Ĳ
à½£ à½ļà½Ħ
à½ĳà½Ħ à½ĺà½¢
à½ĺà½¦ à½ĳà½ĺ
à½ĵà½¦ à½£à½ĺ
à½£à½¦ à½łà½ķ
à½£à½Ĥ à½Ĥà½ī
à¾ķ à¼į
à¼ł à¼¡à¼¤
à½¦à½¢ à½Ĥ
à½łà½Ĩà½Ħ à½ĸ
à¾±à½´à¼ĭ à¼Ħà¼ħà¼įà¼į
à½ĸà½¦à½ĺà½¦ à½ĺà½¦
à½¡à½¢ à½Ģ
à¾¤à¾²à½¼à¼ĭ à¼ĳ
à½īà½£ à½ĸ
à¾ļ à¾²à¾Ģ
à¼£à¼ł à¼£à¼ł
à¾Łà¾Ń à½ºà¼ĭ
Ġà¼¢à¼¦ à¼ł
Ġà¼¢à¼¥ à¼¥
à¼Įà¼Įà¼Įà¼Įà¼Įà¼Įà¼Įà¼Įà¼Įà¼Įà¼Įà¼Į à¼Įà¼Į
à½ĳ à½Ļà½Ĥ
à½Ĥ à½Ĳà½£
à½Ķ à½ĳà½Ģà½¢
à½²à¼ĭ à¾Ł
à½£ à½ļà½¢
à½ºà¼ĭ à¼ĭà¼ĭ
à¾Ł à¾Łà½¿à¼ĭ
à½Ķà½¢ à½Ĥà½ĵ
à½ĸà½¢ à½¢à½ĸ
à½£à½¦ à½ĵà½¦
à¾© à½¼à¼Ķ
à¾¦ à¾·à½´
à½Ĥà½ĵà½¦ à½ĸà½¦
à½ħà½ĵ à½ļ
à¾²à½¼à¼ĭ à½²
à½ĩ à½łà½ĺ
à½¼à¼į à¼Įà¼Įà¼Į
à½ĸà½Ĥ à½Ķ
à½ģà½ĺà½¦ à½łà½ĳ
à½¢à½Ģ à½¦
à¼¡à¼¡ à¼¡à¼£à¼¥
à¼Ģ à½Ĭ
à½ºà¼ĭà¼Ħà¼ħà¼įà¼į à¼į
à¼Įà¼Įà¼Įà¼Įà¼Įà¼Įà¼Įà¼Į à¼Įà¼Įà¼Į
à½ĵà½Ķà½¦ à½¦
Ġà¼¡à¼¨ à¼¨
à¼įà¼Į à¼Į
Ġà¼¢à¼¦ à¼¥
à½ĸà½ĸà½ĸà½ĸà½ĸà½ĸà½ĸà½ĸ à½ĸ
à½¢ à½Ķà½łà½ĳ
à½Ħ à½ŀà½¦
à½ĺ à½ĸà½£
à½²à¼ĭ à½±à½´à¾ĥà¼ĭ
à½£ à½Łà½ĳ
à½Ģ à½Ĥà½ŀà½ĵ
à½Ĩ à½Ĥà½ŀ
à½ĺà½¦ à½ĵà½ĳ
à½ĳà½Ĥ à½ĩ
à½ħà½ĳ à½ĵà½ĺ
à½¢à½ĸ à½ļ
à½łà½ĳà½¦ à½Ķà½¢
à½łà½ĳà½¦ à½ĸà½ĳà½Ĥ
à½ĺà½ł à½¢
à½Ĳà½£ à½ł
à¼ĭà¼´ à¼Ķ
Ġà¼£ à¼©à¼ł
à¼Įà¼Įà¼Įà¼Į à¼Įà¼Įà¼Į
à¼¤à¼ł à¼¢à¼¤
à½ºà½º à½¿à¼ĭ
à½ĺà½¦à½ħà½ĵ à½Ĥ
à½ĵà½łà½ĳà½¦ à½£
Ġà¼ĭà¼ĭà¼ĭà¼ĭà¼ĭà¼ĭà¼ĭà¼ĭà¼ĭà¼ĭà¼ĭà¼ĭà¼ĭà¼ĭà¼ĭà¼ĭà¼ĭà¼ ĭà¼ĭà¼ĭà¼ĭà¼ĭà¼ĭ
à¼Ķà¼ ģà¾ĥà¼Ķ
à½²à¼ĭà½Ī à¾±à½ºà¼ĭ
Ġ à½łà½ķà½Ĥ
ĭ à½´à¼į
à½¦ à½ĵà½łà½Ħ
à½¦ à½Ħà½ĺ
à½ĳ à½ŀà½Ĥ
à½ł à½ħà½ĳ
à½£ à½Łà½ĸ
à½£ à½ŀà½Ĥ
à½£ à½ĸà½łà½ĺ
à½¡ à½łà½Ĥ
à½Ķà½ł à½ĺà½Ĥ
à½Ĳ à½Ĳà½ĸà½¦
à½ģ à½Ĥà½¢
à½ģ à½īà½ł
à½ī à½Ĭ
à½ļ à½ĺà½ļ
à¼ ĭà½´à¼į
à½łà½ĸ à½¤
à½ĸà½ħ à½ĳà½Ĥà½ħ
à½ĺà½ļà½ĵ à½ĸ
à¾Ĳà¾±à½ºà¼ĭ à½²
à½ŀà½£ à½ĳ
à½¡à½ĵ à½Ĥ
à¾±à½´à¼ĭ à¼ĳ
à½łà½Ĥà½Ĥ à½Ķà½¢
à¾¡à¾· à¾±à½±à¼ĭ
à¾ł à¾±à¼ĭ
Ġà¼ĭà¼ĭà¼ĭà¼ĭà¼ĭà¼ĭà¼ĭà¼ĭà¼ĭà¼ĭà¼ĭà¼ĭà¼ĭà¼ĭà¼ĭà¼ĭà¼ĭà¼ĭà¼ĭà¼ĭà¼ĭà¼ĭà¼ĭà¼ĭà¼ĭà¼ĭà¼ĭà¼ĭà¼ĭà¼ĭà¼ĭà¼ĭà¼ĭà¼ĭà¼ĭà¼ĭà¼ĭà¼ĭà¼ĭà¼ĭà¼ĭà¼ĭà¼ĭà¼ĭà¼ĭà¼ĭà¼ĭà¼ĭà¼ĭà¼ ĭà¼ĭà¼ĭà¼ĭà¼ĭà¼ĭà¼ĭà¼ĭà¼ĭà¼ĭà¼ĭà¼ĭà¼ĭà¼ĭ
à¼ĭà¼ĭà¼ħ à¼
à¼ĭà¼ĭà¼ħà¼ ĭ
à½ĵ à½¢à½ĺ
à½Ħ à½ĳà½Ķà½£
à½Ģ à½Ĥà½¡
à¾Ł à¾Ģà¼ĭ
à½ı à½Ķà½ł
à½Ķà½¢ à½ĺà½¦
à½¡à½Ħ à½łà½ģ
à¾· à½¾à¼ĭà¼İ
à½ħà½ĵ à½£à½¦
à¾Ļà½¼ à¾ħ
à½Ĥà½¦à½¢ à½ĺ
à½¢à½ĸà½¦ à½¢
à½Ĥà½ĳà½ĸ à½ĸ
à¾¡à¾· à¾Ńà¼ĭ
à¼¢à¼¢ à¼¢à¼£
Ġà¼£ à¼¥à¼¥
à¼įà¼ĭà¼ĭà¼ĭà¼ĭà¼ĭà¼ĭà¼ĭà¼ĭà¼ĭà¼ĭà¼ĭà¼ĭà¼ĭà¼ĭà¼ĭà¼ĭà¼ĭà¼ ĭà¼ĭà¼ĭà¼ĭà¼ĭà¼ĭà¼ĭà¼ĭ
à¿ Ģ
à½ĸà½ĸà½ĸà½ĸà½ĸà½ĸà½ĸà½ĸ à½ĸà½ĸ
à¾±à½²à¼ĭà¼ Ħà¼ĭ
Ġ à½ĸà½łà½ĺ
Ġ à½ĭ
à½¦ à½Į
à½¢ à½ĺà½ī
à½Ĥà½¦ à½ĸà½Ģ
à¾Ł à¾±à½²à¼ĭ
à¾Ĵ à¾Ĵ
à¾Ĵ à¾·à¼·à¼ĭ
à½ķ à½Ĩ
à½ģ à½ĺà½Ħ
à½Ķà½¢ à½ĸà½ħ
à½Ł à½ĸà½ŀ
à½Ł à½Ĥà½ħ
à¾±à½¼ à¾ħ
à½¡à½Ħ à½Ĥà½ī
à½Ķà½¦ à½ĳà½ĸà½Ħ
à¾²à¼ĭ à¾İ
à½ĳà½Ķ à½ģ
à½Ľ à½Ĥà½¦
à½§ à½ĺà½¦
à½¢à½ĸ à½ķ
à½ĺà½¢ à½ĳà½Ħ
à½ĺà½ģà½ł à½£à½¦
à¾¦à¾±à½² à½²
à½¿ à½¿à¼į
à½Ĭ à½ģ
à½Ĭ à½Ľ
à½¦à½ĺ à½İ
à¾·à½²à¼ĭ à¾İ
à½Ĵ à½Łà½ĳ
à¼¢à¼© à¼§à¼¡
à¾¶ à¾Ńà¼ĭ
à¼ĭà¼ĭ à½¿à¼į
à½¦à½ĵà½¦ à½¦
à½ľ à½¢
à¼łà¼łà¼łà¼łà¼łà¼łà¼łà¼łà¼łà¼łà¼łà¼łà¼łà¼łà¼łà¼ł à¼łà¼łà¼łà¼łà¼łà¼łà¼łà¼łà¼łà¼łà¼łà¼łà¼łà¼łà¼łà¼ł
à¼ĭà¼Ħà¼ Ħà¼ħà¼į
à½¢ à½Ķà½ŀ
à½º à¾ħà¼ĭ
à½´ à¾°à¼ĭ
à½ĳà½Ħ à½ĺà½Ĥ
à½Ķà½¢ à½Ł
à¾Łà½¼ à¾ħ
à½Ķà½¦ à½Ĥà½ħ
à½ĳà½ĺ à½ĵà½ĵ
à½ĺà½ģ à½ĵà½ĺ
à½ĺà½ĳ à½łà½ĺ
à½ĸà½ı à½£
à½ĸà½¦à½ĺ à½īà½ĺ
à½Ĥà½¢ à½¢
à½ķà½Ĭ à½ĺ
à¾·à½¼à¼ĭ à¼ĳ
à¾²à¼į à¼ĭà¼ĭà¼ĭà¼ĭà¼ĭ
à¼ĭà½Ī à¾Ĺà½ºà¼ĭ
Ġà¼£ à¼¡à¼¥
à¾ĭ à½Ł
à¼Įà¼Įà¼Įà¼Į à¼Į
Ġà¼¡à¼¨ à¼£
Ġà¼¢à¼ł à¼£
à½ĸà½Ļà½ĺ à½£
Ġà¼¢à¼¥ à¼¤
Ġà¼´ à¼´à¼´
à½Ĥ à½ĸà½Ļà½ĵ
à½ĸ à½ĳà½ĺà½¢
à½ĵ à½łà½Ĥà½ł
à½ĵ à½ģà½¦
à½ĺ à½Ķà½Ĥà½¦
à½Ģ à½¦à½ĺ
à½ħ à½ī
à½ļ à½ģ
à½¤ à½¨
à½ĳà½Ĥ à½¡à½¦
à½£à½¦ à½ĺà½ĳ
à¾¦ à½¾
à¾¦ à¾·à½¾à¼ĭ
à½ĺà½ģ à½łà½ĳ
à½¢à½ĸ à½£à½¦
à½Ĥà½ŀà½ĵ à½Ĥà½ī
à½Ĳà½ĸà½¦ à½Ĩ
à½ĳà½ĺà½¢ à½£
à½£à½Ĥà½¦ à½ĺ
à½Ŀ à½Ł
à½ĳà½¢ à½ĵ
à¾©à½²à¼ĭ à¼´
à½Ģà½¢ à½ī
à½ĵà½ĵ à½ĸ
à¾ļ à½±à½²
à¼łà¼łà¼ł à¼¡à¼¡à¼łà¼łà¼ł
à½ĳà½ĸà½ł à½¦à½ĺà½¦
à¼Ĳ à¼Ĳ
Ġà¼¢à¼£ à¼©
Ġĉĉ ĉ
à½ļà½ļà½ļà½ļ à½ļà½ļà½ļà½ļ
à½£ à½¤à½¦
à½ºà¼ĭ à½¾à¼į
à½Ĥà½¦ à½ĸà½Łà½Ħ
à½Ĥà½¦ à½ĺà½īà½ĺ
à½ħ à½ĳà½Ĥà½Ħ
à½ĸà½¦ à½Ĥà½ħ
à½ĳà½Ĥ à½Ĥà½ŀà½ĵ
à½łà½Ĥ à½ĸà½¦
à½Ľ à½£à½ĵ
à½Ĳà½ĺà½¦ à½Ļ
à½łà½ĳà½¦ à½ĺà½ł
à½ĸà½ı à½Į
à½ĳà½ĳ à½ĺà½ļ
à¾ķ à½²à¼Ķ
à½ĸà½Ľ à½¨
à½¢à½ĸà½¦ à½¦
à¾µ à¾ŀà½±à¼ĭ
à½Ģà½ĵ à½Ģ
à¾ļ à½±à½´à¼ĭ
à½ºà¼ĭà¼½ à¼į
à½±à¾Ģ à¼įà¼į
ĭ à¾Ĳà½¼
ĭ à¾©à½¼à¼ĭ
à½¢ à½Ĳà½ĸà½¦
à½¢ à½ģà½¦
à½Ħ à½ĺà½ģà½¦
à¾² à¾©à½¼
à¾Ĵ à¾¤à½º
à½ĸà½¦ à½ĸà½ł
à¼ ĭà¾Ĳà½¼
à¼ ĭà¾©à½¼à¼ĭ
à½ħà½ĵ à½¢à½Ħ
à½¢à½ĸ à½ĺà½Ľ
à¾Łà½ºà¼į à¼¼
à½Ĥà½ĳ à½łà½ĳ
à½ĺà½ĵ à½ı
à¾²à½´à¼ĭ à¼½
à½Ħà½Ħ à½Ħ
à½Į à½Ļ
à½²à¼Ķ à¼Ħà¼ħà¼įà¼į
Ġà¼ĳ à¼įà¼į
Ġà¼£ à¼¤à¼§
à½Ĳà½ĺà½¦à½ħà½ĳ à½ŀ
à½¦à½Ķ à½ĳà½Ħà½Ķ
à½Ĥà½¦à½Ķ à½Ĩ
à½ĺà½¦à½ħà½ĵ à½ĳà½ĺ
Ġà¼¢à¼© à¼ł
Ġ à½łà½Ĳà½ĸ
Ġ à½łà½ĳà½ĺ
à½Ĥ à½ĺà½ĳà½ł
à½Ĥ à½Ķà½¢à½ĸ
à½ĸ à½Ħà½ł
à½¢ à½İà½ł
à½Ķ à½ĵà½ĺà½ĺà½ģà½ł
à½Ĥà½¦ à½ĸà½¦à½£
à½¡ à½ĳà½ĸà½Ħ
à½Ĳ à½ĸà½Ģ
à½Ķà½¢ à½īà½ĺà½¦
à½ĸà½ŀ à½Ħà½¦
à½£à½¦ à½ĳà½ĺ
à½ħà½ĳ à½ķ
à½ĸà½ĳà½Ĥ à½Ĥà½¦
à½łà½ļ à½£à½Ĥ
à½Ĳà½¢ à½Ķà½¢
à¼ł à¼¡à¼¦
à½łà½ĸà½¢ à½ĸà½¢
à½¢à½ĸà½¦ à½Ģ
à½¼à¼Ķ à¼¼
à¾Łà½²à¼ĭ à½²
à½ĵà½Ķ à½Ĥà½¦
à½Ĳà½ĺà½¦à½ħà½ĳ à½Ĩ
Ġà¼¢à¼§ à¼¤
à½Łà½ĩ à½«à½Ĥ
Ġ à½ŀà½Ĥà½¦
à½ĸ à½ģà½¦
à½¢ à½¤à½¢
à½Ħ à½Ĳà½ĸà½¦
à½¡ à½¢à½¦
à½ĳà½Ħ à½Ĥà½ŀ
à½ĳà½Ħ à½¢à½ĸ
à½ĳà½Ħ à½ĳà½ĸà½Ħ
à½ĸà½¦ à½£à½ĵ
à½¤ à½ĸà½ł
à½ĸà½¢ à½ļà½ĳ
à½ĵà½¦ à½Ĥà½¦à½Ħ
à½Ĥà½ĵà½¦ à½Ħà½ĵ
à¾Ĳà¾±à½º à½º
à½ĵà½Ħ à½£
à½¦à½Ħà½¦ à½Ħà½¦
à¾²à½´à¼ĭ à½²
à½Ħà½Ħ à½£à½¦
à½ķà½Ĭ à½¦à½¢
à½ķà½£ à½§
à½łà½ĸà½ĳ à½Ķà½¦
Ġà¼£ à¼£à¼ł
Ġà¼¢à¼£ à¼¦
Ġà¼¢à¼§ à¼§
à¾Ĵà¾±à¼ĭà¼ Ĳ
à½Ķà½Ł à½ĺà½¦
à½ĳ à½Ĩà½Ĥ
à½ĵ à½Ĳà½£
à½ĵ à½ª
à½ģ à½¢à½ĺ
à½ĺà½¦ à½Ĥà½ħ
à½ĵà½¦ à½Ķà½¦
à½¡à½Ħ à½Ĥà½ŀ
à½ħà½ĳ à½¡à½Ħ
à½£à½ĺ à½ĩà½£
à¾Ĵà½¼ à¼įà¼ĭ
à½¾à¼ µà¼ĭ
à¾¤à¾±à½²à¼ĭ à¼¼
à½ĺà½ģà½¦ à½¢
à½ĺà½ģà½¦ à½£
à¼¤ à¼łà¼łà¼łà¼ł
à½¥ à½Ł
à¼¨ à¼§à¼©à¼§
à½łà½ĳà½ĸ à½Ĩà½Ĥà½¦
à½ģà½¢ à½Ĥ
à¾ļ à½´à¼į
Ġà¼£ à¼¡à¼§
Ġà¼£ à¼¡à¼£
à¼¢à¼§ à¼¢à¼§
Ġà¼¢ à¼łà¼łà¼ł
à½²à¼ĭà½²à¼ĭ à½²à¼ĭ
à½±à½¿ à¼įà¼ĭ
à¾±à¼ĭà¼ ĭ
à½ĳ à½¦à½Ħ
à½£ à½Ģà½¦
à½¡ à½ĺà½ĵ
à½ħ à½ħà½ĵ
à¾³ à½±à½²à¼į
à½ĸà½ł à½£
à½ĸà½ł à½ĺà½ĳ
à¾¨ à½±à½´
à½Ļ à½ĺà½ł
à½Ĥà½ŀà½ĵ à½ĵà½ĺ
à½ĸà½Ģ à½£à½¦
à½£à½ĺ à½¡à½ĵ
à½¿ à¼įà¼įà¼į
à½¦à½¢ à½ı
à½Łà½ĸ à½¥
à½£à½łà½Ħ à½ĺ
à½ĸà½ĸà½¦ à½Ĥà½¦
à¾¦à¾² à¼įà¼į
à½ĺà½īà½ĵ à½Ķà½¢
à¼£à¼¦ à¼£à¼§
à½Ķà½ĸ à½Ķà½¦
à¼¡à¼¨à¼ł à¼¦
Ġà¼¢à¼¤ à¼¤
à½Ĺà½« à½Ĥà½¥
à¾Ķà¼· à½¼
Ġ à½£à½Ħà½¦
à½Ĥ à½ĸà½ĸ
à½¼à¼ĭ à¼·à¼ĭ
à½ĳà½Ħ à½ĳà½ĺ
à½ĳà½Ħ à½Ĳà½ĸà½¦
à¾¦ à½²à½¾à¼ĭ
à¾Ĳà½´à¼ĭ à¼Ī
à½ıà½ĵ à½ĸà½¦
à½ıà½ĵ à½ĺà½Ħ
à½ŀà½£ à½£
à¼ĭà¼ĳ à½¿à¼į
à½ĸà½ĵ à½Ĥà½¦
à¼įà¼ º
à¾ª à½±à½²
Ġà¼£ à¼£à¼¤
Ġà½Ĥà½¡ à½ł
à½¨à½¨ à½¨
à¼ĭà¾§ à½²
à½²à¼µ à¼į
à½ĸà½ĳà½ĸ à½ĳà½Ĥ
à¾±à½²à¼ĭà½Ī à¾²à½º
Ġà¼¼à¼ ĭ
Ġ à½¼
à½¦ à½Ĩà½ĵ
à½Ķ à½ĺà½ļà½ĺà½¦
à½Ķ à½ĳà½Ģà½ł
à½Ĩ à½Ķà½¢
à½ķ à½ķà½¥
à¾±à½²à¼ĭ à¼Ŀà¼į
à½Ĳ à½Ķà½ł
à½ī à½ĺà½Ĳ
à½Ħà½¦ à½Ĥà½Ħ
à½łà½Ľ à½¦
à¾Ĺà½º à½º
à½ĳà½Ķà½ł à½ļà½ĵ
à½ĸà½ı à½ĸà½£
à¾Ń à¼ĭà¼¼
à½ĺà½Ľà½ĳ à½Ĩ
à½ĳà½ĳ à½ħ
à½ıà½ĵ à½ł
à½łà½ķà½Ĥà½¦ à½ĸ
à½Ĩà½¢ à½Ķ
Ġà½¦ à½Ķ
à¾¡à¾· à½ºà¼įà¼į
à¾²à¾Ģ à¼įà¼į
à½ĳà½Ĥà½¦ à½Ħà½¦
à¾ĭ à½ĳà½Ħ
à¾¶ à¼įà¼į
à½¼à¼· à¼·
à¾¡à¾·à½¼à¼ĭ à¾ħ
Ġà¼¢à¼¤ à¼¡
à¾±à½²à¼ĭà½Ī à½ºà¼ĭ
à½ºà¼ĭà¼ Ħà¼ĭ
à½Łà½Ĩ à½Ĳ
à½ĸ à½Ĳà½ł
à½ĸ à½§à½ł
à½ĵ à½ĸà½ĳà½¦
à¾Ł à¾²à½¿à¼ĭ
à½ħ à½Ĥà½ī
à½ģ à½ĸà½ŀ
à½ģ à½łà½ģ
à½¤ à½ĳà½Ĥ
à½ĸà½ł à½ĺà½Ĩ
à½¡à½Ħ à½ĳà½ĺ
à½Ķà½¦ à½§
à½ĳà½Ķ à½ķ
à½ĺà½Ĳà½ł à½łà½ģ
à½ĺà½¢ à½ĵ
à½ĳà½ĳ à½ĺà½Ĳ
à½Ĩà½ĳ à½Ķà½¦
à½ķà½Ĭ à½ĵ
à½ĵà½¢ à½Ĥ
à¼łà¼ł à¼¦à¼ł
à½Ĵ à½¡à½Ħ
à½ĵà½Ķà½ł à½ĸ
Ġà¼¢à¼¦ à¼©
à½¦à½¦à½¦à½¦ à½¦à½¦
Ġ à½łà½Ĥà½Ĥà½¦
à½Ĥ à½Ĥà½ıà½ĵ
à½ĸ à½ĸà½ŀà½Ĥ
à½ĸ à½Ĳà½¢
à½¢ à½Ļà½ĺ
à½ĵ à½Łà½Ĥ
à½Ħ à½łà½Ĳ
à½Ħ à½Ĭ
à½Ħ à½ĺà½ģà½ĵ
à½ĺ à½Łà½ĸ
à½´à¼ĭ à½Īà½¼
à½ĸà½¦ à½ĺà½Ĳà½¢
à½ĳà½Ĥ à½łà½ķ
à¾Ĳ à¼ĭà¼ĳ
à½¼à¼įà¼į à¼Ĳ
à½Ħà½¦ à½łà½ĸ
à½Ł à½ī
à½łà½Ĥ à½¤
à¾±à½¼ à¼įà¼ĭ
à¾¨ à½²à¼Ķ
à¾¡à½¼à¼ĭ à¼ĳ
à½£à½Ĥ à½ĵà½Ħ
à¾³à½¼à¼ĭ à¼¸
à½Ĩà½Ĥà½¦ à½Ķà½¦
à½ģà½ĺà½¦ à½Ĩ
Ġà¼ ŀ
à½´à¼įà¼į à¼Ħà¼ħà¼įà¼į
à¾±à½²à¼į à¼ĭà¼į
à½ĳà½Ĥà½Ĥ à½ĸ
à½¢à½Ĥà½¦ à½Ķ
à¾ľà¼ĭ à½±à½²à¼ĭ
à¾ĭ à½Ħ
à¼¥à¼¦ à¼¥à¼§
à¼Įà¼Įà¼Įà¼Įà¼Įà¼Įà¼Įà¼Į à¼Į
à½ĵà½ĺà½ĺà½ģà½ł à½ĺ
à¾º à¼į
Ġà¼¢à¼ł à¼¦
à¾·à¾Ń à½¿à¼į
Ġà¼¢à¼£ à¼§
à¼¤à¼łà¼ł à¼łà¼łà¼ł
à½Ĳà½ĺà½¦à½ħà½ĳà½ĺ à½īà½ĺ
à½² à½¿à¼įà¼Įà¼Įà¼Į
à½¢ à½ĳà½Ĥà½ł
à½Ķ à½Ĥà½¦à½¢
à¾± à½´à¼·à¼ĭ
à½£ à½ĸà½ĸà½¦
à½´à¼ĭ à¼ĭà¼Ħà¼ħà¼įà¼į
à¾Ł à¾¡à½ºà¼ĭ
à¾Ł à½¼à¼Ķ
à¾£ à¾±à¼ĭ
à½ĳà½Ĥ à½Ļà½Ħ
à¾Ĺ à½²à¼įà¼į
à½ĳà½Ķ à½ĳà½Ĥ
à½ħà½ĵ à½ĺà½ł
à½ħà½ĳ à½ĳà½ĺ
à½ĸà½ĳà½Ĥ à½łà½ĳ
à½ĸà½ĳà½Ĥ à½£à½ł
à½ĺà½¢ à½Ĥà½ĵà½¦
à½Ħà½Ĥ à½ģ
à½ķà½ĵ à½Ĥà½ĳà½Ĥà½¦
à½½ à¼ĭà¼ĳ
à½Ĵ à½Ģà½Ħ
à¼¢à¼ł à¼£à¼ł
à½¦à½ĵ à½łà½ĳ
à½ĭ à½Ķ
à¼ĭà¼Ħà¼ħ à¼ħà¼į
à¼ĭà¼Ħ à¼įà¼įà¼į
à¾ĳ à½²à¼ĭ
Ġà¼£à¼ł à¼¤
Ġà¼¢à¼§ à¼¢
à¾Łà¼· à¼į
à¾²à½½ à½¾à¼į
à¼Įà¼Įà¼Įà¼Įà¼Įà¼Įà¼Įà¼Įà¼Įà¼Įà¼Įà¼Į à¼Įà¼Įà¼Į
à¾Ļà½±à¼ĭà¼½ à¼¼
à½Ĥà½¦ à½ĸà½Ĥ
à½Ĥà½¦ à½Ĥà½¦à½Ħ
à¾² à½½à¼į
à½¼à¼ĭ à¿Ħ
à½Ķà½¢ à½ĺà½ļ
à¾Ĵà¾± à½´à¼µà¼ĭ
à½ĸà½¢ à½¦à½Ħà½¦
à½ĳà½Ķà½ł à½łà½ĳ
à½ĺà½īà½ĺ à½ĸ
à½Ĳà½£ à½ĸà½ł
à½ŀà½£ à½Łà½¦
à½ĳà½Ķà½Ĥ à½ĸà½¦à½ĺ
à¾±à½²à¼į à¼Ħà¼ħà¼įà¼į
à½ļà½ĵ à½£
Ġà½¦ à½ĸ
à½Ĵ à½ķà½Ŀ
à¾ļ à½½à¼į
à¼ĭà¼ĭà¼ĭà¼ĭà¼ĭà¼ ĭà¼Į
à¼ĭà¾§ à¼į
à¼ĭà¿ Ĵ
à¾µà¾¨ à¾¼à¾»
à½¦ à½Ĥà½ĳà½ĸ
à½ĳ à½¤à½¢
à½Ĥ à½ĺà½ģà½¢
à½ĸ à½ĸà½ıà½Ħ
à½¢ à½¦à½Ħà½¦à½¢
à½Ĥà½¦ à½ĺà½Ĥ
à½¡ à½ĸà½ĳà½Ĥ
à½¡ à½Ķà½£
à½ŀ à½Ķà½ł
à¾Ĵ à½¼à¼·à¼ĭ
à½ļ à½ĸà½ĳà½Ĥ
à½ĳà½Ĥ à½ĺà½Ĩ
à¾³ à½±à½´à¼ĭ
à½Ł à½ĵà½¦
à½£à½¦ à½Ķà½ł
à¾¦ à¾¦à¼į
à½Ĥà½Ħ à½Ĩ
à½§ à½Ł
à½ĳà½Ģà½ł à½łà½Ĥ
à½ĵà½ĺà½¦ à½ĳà½Ħ
à½ĺà½£ à½Ŀà½¢à½¡
à½Ĵ à½Łà½ļ
à½ĳà½Ĥà½¦ à½ĺ
à¾° à¼Ķ
à½ĳà½ĵà½ĺà½¦ à½Ģ
ĠĠĠĠĠĠĠĠ ĠĠĠ
à¼ĭà¾§ à½¼à¼ĭ
à½»à½»à½»à½» à½»à½»à½»à½»
Ġ à½īà½ĺ
ĭ à½³
à½Ĥ à½ļà½Ħà½¦
à½¢ à½ĺà½Ĳà½¢
à½Ģ à½£à½ĵ
à¾Ł à¼įà¼įà¼į
à¾Ł à¾¦à¾·à½º
à½Ķà½ł à½Ĩà½Ħ
à½ī à½Ĩ
à½ĸà½ł à½Ĥà½¦
à¼ ĭà½³
à½ºà¼į à¼İ
à½ºà¼į à¼ĭà¼ĭà¼ĭ
à¾Ķ à¾±à½¼
à½Ĥà½ī à½Ħ
à½¨ à½ģà½¦
à½łà½ķ à½Ĥà½¦à½£
à½ĳà½Ģ à½ĳ
à½¼à¼į à¼ĭà¼ĭà¼ĭà¼ĭ
à¾Łà½ºà¼ĭ à¼Ĳ
à¼¢à¼ł à¼¢à¼¥
Ġà¼£ à¼¢à¼§
à½¢à½¢ à½¢
Ġà¼¢ à¼¡à¼£
Ġà¼£à¼ł à¼¡
Ġà¼¢à¼© à¼¢
Ġ à½ĵà½ł
Ġ à½Ĥà½¤à½ĺ
à½² à½´à¼ĭ
à½Ĥ à½Ĥà½ĵà½ł
à½¢ à½ļà½Ħà½¦
à½£ à½ĸà½ŀà½Ĥ
à½£ à½¡à½ĸ
à½ħ à½«
à½ģ à½Ļà½ĺ
à½Ķà½¢ à½ĺà½Ĥ
à¾Ĳ à½±à½²
à½ĵà½¦ à½ĸà½¦à½ĺ
à¾¡ à½»à¼ĭ
à½łà½ĸ à½Ļ
à½§ à½ĳà½Ħ
à½¾ à½²
à½Ĥà½ĳ à½ĸà½¢
à½¼à¼į à¼ĭà¼įà¼į
à¾Ĳà¾± à½ºà¼·
à½Ĥà½ıà½ĵ à½Ķ
à½Ĳà½¢ à½£
à½¥ à½ļ
à¾µ à½ºà½¾à¼ĭ
à½ĳà½£ à½łà½ĸ
à¾Ľ à½ºà¼į
à¼¢à¼¢ à¼¢à¼¡
à¼¢à¼¢ à¼£à¼£
à½ĥ à½£
à½Ķà½ĳà½Ĥ à½Ķà½Ĥ
Ġà¼¢à¼© à¼¥
à¼łà¼łà¼łà¼łà¼łà¼łà¼łà¼ł à¼łà¼łà¼łà¼łà¼ł
Ġà¼¢à¼¨ à¼¢
à½´à¼įà¼ĭà¼ĭà¼ĭà¼ĭà¼ĭà¼ĭà¼ĭà¼ĭà¼ĭà¼ĭà¼ĭà¼ĭà¼ĭà¼ĭà¼ĭà¼ĭà¼ĭà¼ĭà¼ĭà¼ĭà¼ĭà¼ĭà¼ĭà¼ĭà¼ĭà¼ĭà¼ĭà¼ĭà¼ĭà¼ĭà¼ĭà¼ĭà¼ĭà¼ ĭà¼ĭà¼ĭà¼ĭà¼ĭà¼ĭ
Ġ à½łà½ķà½Ħ
à½ĵ à½Ķà½İ
à½Ķ à½¤à½¦
à½ł à½łà½Ħ
à½¡ à½ĺà½¢
à½Ģ à½¢à½ĸ
à½ĸà½¦ à½Ĥà½Ł
à½ĸà½¦ à½ĵà½ĳ
à½ĺà½¦ à½ĸà½ĳà½Ĥ
à¾¡ à¾¡à¾·
à½ºà¼į à¼Ĳ
à½Ķà½¦ à½£à½ĺ
à¾¨ à¾±à¼į
à¾¦ à¼ĭà¼ĳ
à½Ĥà½ĵà½¦ à½Ĳ
à½Ĥà½ĵà½¦ à½ī
à½ħà½ĵ à½Ĥà½¦
à¾« à¾±à¼ĭ
à½ĸà½ı à½Ĥà½¦à½£
à½łà½Ĩ à½ĸà½¦
à½±à½´ à½¾à¼·à¼ĭ
à½łà½ĩà½ĺ à½Ķ
à½ĸà½¦à½ĺà½¦ à½ĳà½Ķà½ł
à½ĸà½ĸ à½ĵà½¦
à¼ĭà¼´ à¼Ħà¼ħà¼įà¼į
à½Ĵ à½ķà½ŀ
à¾Ľ à¼ĭà½²
à½ºà¼ĭà¼ĳ à¼ĭà¼ĳ
Ġà¼£ à¼§à¼ł
à¾¾ à¼
à½ħà½ĳà½ĺ à½ĳ
à¾¾à¼ ĭ
à½º à½¼à¼ĭ
à½Ķ à½ĳà½Ķà½Ĥ
à¾± à¾Łà½º
à½²à¼ĭ à½¼à¼ĭà½º
à½Ł à½Łà½ĸ
à½¡à½Ħ à½ĺà½¡
à½Ļ à½ĺà½Ħ
à¾¦ à¾·à¼įà¼į
à½ĳà½ĸà½Ħ à½Ĳ
à¾Ĺà½ºà¼ĭ à½²
à¾Ĺà½ºà¼ĭ à¼Ī
à½ĺà½ī à½Ĥ
à½¦à½¢ à½Ģ
à½Łà½¦ à½ĳà½Ħ
à¾µ à½²à½¿à¼į
à½¦à½Ħ à½ĸ
à½¦à½ĵ à½ĸ
à½Ķà½ĳà½Ħ à½Ķà½¦
à¼ĭà½²à¼ĭ à½¼à¼ĭà½ºà¼ĭ
à½±à½²à¼įà¼į à¼į
à¼įà¼ĭà¼ĭà¼ĭà¼ĭà¼ĭà¼ĭà¼ĭà¼ĭà¼ĭà¼ĭà¼ĭà¼ĭà¼ĭà¼ĭà¼ĭà¼ĭà¼ĭà¼ ĭà¼ĭà¼ĭà¼ĭà¼ĭà¼ĭà¼ĭà¼ĭà¼ĭà¼ĭà¼ĭà¼ĭ
à½Ķà½Ķ à½Ķà½ĸ
à½į à½İ
à½Ħà½ĵà½£à½¦ à½łà½ĳà½¦
à½²à¼ĭà¼ ľ
à¾ľà¾» à½²à¼ĭ
Ġ à½ĸà½¦à½Ħà½¦
à½¼ à¾Ĥà¼ĭ
à½ºà¼ĭ à¾İ
à½¡ à½Ĥà½ī
à½¤ à½¢à½Ħ
à¾³ à½²à¼įà¼į
à½Ķà½¦ à½Ļ
à¾¦ à½´à¼įà¼į
à½ĳà½ĸà½Ħ à½ĸà½ŀ
à½ĸà½¤ à½ĳà½Ķà½£
à½ĩ à½łà½Ħ
à½ĸà½ı à½ĸà½ĳ
à½ĺà½¢ à½łà½Ĥ
à½Ĥà½¦à½Ħ à½ł
à½ĸà½Ľ à½ĵ
à½Ĳà½Ĥ à½Ķà½ł
à½ĺà½ĳà½ł à½¢
à½¢à½ĺ à½ŀ
à½ĸà½Ģà½Ĥ à½Ķ
à½¢à½Ĥ à½Ĥ
à½¦à½Ķà½ł à½ĳ
Ġà¼¢à¼ł à¼¡à¼¤
Ġ à¾Īà¾Īà¾Ī
à½ĵ à½¡à½¦
à½Ħ à½łà½Ĩ
à½ł à½ĵà½Ħ
à½Ĥà½¦ à½ĸà½Ģà½ł
à½ĳà½Ħ à½ĸà½ł
à½ĸà½¦ à½ĺà½ģ
à½ķ à½ĳà½Ħ
à½ķ à½ļ
à½ĺà½¦ à½ĵà½ĺ
à¾Ĳ à¾Ń
à½łà½Ĥ à½£à½ĺ
à½ĸà½ł à½Ĩà½ĳ
à¾¤ à½²à¼į
à¾© à¾ªà½²à¼ĭ
à½ĺà½Ĳ à½Ķ
à½Ļ à½Ķà½¢
à½ĺà½Ĩ à½ĵà½¦
à½ĸà½Ł à½£
à¾²à½¼à¼ĭ à¼Ħà¼ħà¼į
à¾Ĵà½¼ à½¼
à¼ĭà¼ ĭà¼ĭà¼ĭà¼ĭà¼ĭà¼ĭà¼ĭà¼ĭà¼ĭà¼ĭà¼ĭà¼ĭà¼ĭà¼ĭà¼ĭ
à¾¨à¾² à¾Ģà¼į
à½ĸà½ħà½ĳ à½Ķà½¢
à½Ĥà½Ļà½Ħ à½ĸ
à¾²à½ºà¼ĭ à¼Ħà¼ħà¼įà¼į
à¼łà¼ł à¼¤à¼¨
à½Ħà½Ķ à½ķ
à½²à¼· à¼įà¼į
à¼įà¼Į à¼Įà¼Įà¼Įà¼Įà¼Įà¼Įà¼Įà¼Įà¼Įà¼Įà¼Įà¼Įà¼Įà¼Įà¼Įà¼Įà¼Įà¼Įà¼Įà¼Įà¼Įà¼Įà¼Įà¼Įà¼Įà¼Įà¼Įà¼Įà¼Įà¼Įà¼Įà¼Įà¼Įà¼Įà¼Įà¼Įà¼Įà¼Įà¼Įà¼Įà¼Įà¼Įà¼Įà¼Įà¼Įà¼Įà¼Įà¼Įà¼Įà¼Įà¼Įà¼Įà¼Įà¼Įà¼Įà¼Įà¼Įà¼Įà¼Įà¼Įà¼Įà¼Įà¼Įà¼Į
à¾Ķà¼ĭà¼ Ī
à½£ à½Łà½Ĥ
à¾Ł à½»à½¿à¼ĭ
à½ģ à½Ĥà½Ł
à½ı à½Ķà½¢
à½ı à½ĳà½Ĥ
à½ĵà½¦ à½ĳà½Ķ
à½¡à½Ħ à½ĵà½¦
à½Ĥà½ŀ à½Ł
à½Ļ à½Ł
à¾Ļ à½¼à¼ĭà¼Ħà¼ħà¼įà¼į
à½Ĥà½Ħ à½ĸà½ł
à½Ĳà½ĺà½¦ à½Ĩà½ĳ
à½±à¼ĭ à½±à¼ĭ
à½ĳà½Ķà½ł à½Ľ
à¾Łà½ºà¼ĭ à¼´
à¾Ĳà¾± à½¼à¼Ķ
à½ķà½ĵ à½ĳ
à½ĸà½ŀà½Ĥ à½Ĥà½¡
à¾¨à¾² à½ºà¼į
à½ĸà½ıà½ĸ à½Ķà½¦
à½¢à½¦ à½ı
Ġà¼Ī à¼Ħà¼ħà¼įà¼į
à½Ĩà½Ĥ à½ĳà½Ķà½£
à½łà½ļà½Ħ à½¢
à½Ĥà½ĳà½ł à½¦
à½¼à¼įà¼ Ħ
à¾Łà½´à¼į à¼Ħà¼ħà¼įà¼į
Ġà¼¢à¼¤ à¼©
Ġà¼¢à¼¥ à¼§
Ġà¼¢à¼§ à¼¦
à½Ľà½Ľ à½Ľ
à¼ĭà¾ĵ à½±à¼ĭ
Ġ à½ĺà½ļà½¢
Ġ à½ĺà½ĺ
à½ĳ à½Łà½ĳ
à½Ĥ à½Ĥà½Ļà½Ħ
à½Ĥ à½Ĩà½ĸ
à¾² à½¿à¼įà¼į
à½´à¼ĭ à½¼à¼ĭ
à½¡ à½Ģà½ł
à½¼à¼ĭ à¼Ħà¼ħà¼ħà¼įà¼į
à½ķ à½ª
à½ī à½ĸà½ł
à½ĳà½Ĥ à½Ĥà½ĳ
à½£à½¦ à½£à½ĺ
à½ºà¼į à¼ĳ
à½ĳà½ĸ à½Ļà½ĵ
à½± à¾ħà¼ĭ
à¾· à¾ľ
à½Ļ à½ĵà½ł
à½ĸà½Ł à½Ķ
à½Ĥà½¦à½£ à½ĸà½¦
à¾¦à¾±à½¼ à½¼
à½ĺà½ĵ à½¢à½ĺ
à½ĺà½ĩ à½Ĥ
à½ĺà½Ħà½ł à½¢
à½ĸà½ĸà½¦ à½ĵ
à¼łà¼ł à¼¤à¼©
à¾ļ à¾Ģà½¿à¼ĭ
Ġà¼£ à¼£à¼¢
à¼¢à¼¤ à¼¢à¼¢
à¼Ī à¼
à½ĳà½ĸà½ł à½¢
à½ĥ à½ŀ
Ġà¼ĭà¼ĭà¼ĭà¼ĭà¼ĭà¼ĭà¼ĭà¼ĭà¼ĭà¼ĭà¼ĭà¼ĭà¼ĭà¼ĭà¼ĭà¼ĭà¼ĭà¼ ĭà¼ĭà¼ĭà¼ĭà¼ĭ
à½ķà½¥ à½¢
Ġ à½ĺà½Ľà½ł
Ġ à½łà½ķà½¢
à½¦ à½Ķà½¦à½¦
à½ĵ à½łà½ļà½£
à½´ à½²à¼įà¼į
à½£ à½ĸà½ħà½¦
à½£ à½łà½Ĥà½£
à¾±à½²à¼ĭ à½¾
à½ģ à½¡à½Ħ
à¾Ĳ à¾µà¾¨
à½Ħà½¦ à½Ĥà½ī
à½Ł à½Ĥà½ĳ
à¾¨ à½±à½´à¼ĭ
à½Ĥà½ĵà½¦ à½Ħ
à½ĺà½Ĳà½ł à½ĵà½¦
à½ĳà½Ķà½£ à½ĸ
à½Ĳà½ĸà½¦ à½ĳ
à¾Ĳà¾± à½»
à½ıà½ĵ à½Ĩ
à½Ĳà½£ à½¡
à½ŀà½ĸà½¦ à½¢
à½ķà½£ à½ļ
à½£à½Ħ à½£
à¾µ à½ºà¼įà¼į
à¼ĭà½² à½²
à¾ŀ à½±à½¾à¼į
à½ĭ à½¡
à¼ĭà¼įà¼ Ħ
à¾·à¾²à¾Ģ à½¾à¼ĭ
Ġà¼¢à¼¤ à¼§
Ġà¼¢à¼£ à¼¥
Ġà¼¢à¼© à¼¤
à¾Ķà¼ĭà¼ Ħà¼ħ
à¼Īà¼ ĭ
à½¢ à½łà½ļ
à½¢ à½Ĥà½¢
à½´ à½²à¼į
à½ĺ à½ĸà½Łà½Ħ
à½£ à½łà½Ĩà½ĳ
à½Ĥà½¦ à½Ĥà½¡
à¾±à½²à¼ĭ à¼ŀà¼į
à½Ĳ à½ĺà½Ĩ
à½ī à½ķ
à½¤ à½łà½ĳ
à½ĳà½Ĥ à½Ĥà½ħ
à½ĳà½Ĥ à½ıà½ĵ
à¾³ à½¿à¼į
à½łà½ Į
à½łà½Ĩ à½ĳà½ĸ
à¾³à½¼à¼ĭ à¼Ħà¼ħ
à½Ħà½Ĥ à½Ķ
à½Ģà½¢ à½ĵ
à½½ à½¾
à¼¢à¼ł à¼¡à¼¢à¼ł
à½Ģà½¦ à½£
à¾ł à½²à¼įà¼įà¼įà¼į
à½ĳà½¦ à½ĺà½¦
à½ĥ à½ĺ
Ġà¼¢à¼ł à¼¡à¼¦
à½į à½ĵ
Ġà¼łà¼łà¼ł à¼łà¼łà¼ł
à½Ĺà½Ļ à½¡
Ġ à½ĺà½ĩà½£
Ġ à½ĳà½Ķà½Ħ
à½£ à½Ĥà½ıà½ĵ
à½Ĥà½¦ à½Ķà½Ĥà½¦
à¾Ł à¾Łà½ºà¼į
à½Ĳ à½łà½ĳ
à½Ĳ à½Ŀ
à½Ĳ à½ıà½Ħ
à½ģ à½ĩ
à½ļ à½£à½Ĥ
à½łà½ĳ à½łà½ĺ
à½¼à¼įà¼į à¼ĭà¼ĭà¼ĭ
à½łà½Ĥ à½£à½¦
à½Ļ à½łà½ĳ
à½¨ à½¡à½ł
à¾« à¾Ļà¾°
à½¾ à½¼
à½ģà½Ħ à½ĳà½Ħ
à½¤à½¦ à½ł
à½Ĥà½ĳà½ĸ à½Ķ
à½Ķà½ĵ à½Ĩ
à½ĸà½Ħ à½¢
à¾Ĺà½ºà¼į à¼
à½ķà½¦ à½ķ
à¾Ĺà½ºà¼įà¼ ĭ
Ġ à½łà½ķà½ĵ
à½Ĥà½¦ à½ĸà½¦à½ĺ
à½Ĥà½¦ à½ļà½ĳ
à½Ģ à½ħà½ĵ
à½ī à½Ħà½¦
à½ī à½Ł
à½ļ à½Ķà½¦
à¾£ à½¾à¼įà¼į
à½£à½¦ à½ĺà½ļà½ĵ
à½Ķà½¦ à½ĺà½Ĥ
à¾© à¾ª
à½ĸà½Ģ à½łà½Ĩ
à½£à½ĺ à½łà½ĸ
à½Ĭ à½ŀ
à½Ĭ à½İà½Į
à½¡à½ĵ à½ı
à½Ĥà½¢ à½ĸà½¦
à¼ĭà¼ĳ à½¼à¼į
à¾Ĳà¾²à½´ à¼į
à½Ĳà½ĳ à½¦
à½ĵà½Ķ à½ĳà½Ħà½Ķ
à¾Łà¾Ń à½¾à¼įà¼į
à½¢à½Ķ à½ĸà½ł
à½į à½¦
à½±à¾Ģ à½¾à¼į
à½Ĵà½ĳà½Ħ à½¥
à½Ĥ à½ĸà½ĵ
à½ĸ à½ĳà½Ķà½Ĥ
à½ĸ à½ĳà½ĺà½ł
à½Ĳ à½ĸà½ĳ
à½ī à½ĵà½ĺ
à½ĳà½Ĥ à½Ĥà½ī
à½ĳà½Ĥ à½ĸà½ĳà½Ĥ
à½ĵà½¦ à½¤à½Ķ
à¾Ĺ à½»à¼ĭ
à½Ĥà½ī à½ĵà½¦
à¾¦ à¼ĭà¼Ĳ
à½ĳà½ĺ à½ĵà½¦
à¾Łà¼ĭ à¼
à¾« à½±à½²
à½łà½ĳà½¦ à½ĸà½ł
à½ĸà½Ļ à½ĵà½¦
à½ĺà½¢ à½Ģ
à½Ħà½Ĥ à½Ģ
à½Ĭ à½Ļà½ł
à½¦à½¢ à½¢
à¾¨à¾²à¼ĭ à½²
à½łà½ĸà½¢ à½ĺ
à½Ģà½¢ à½ĺ
à½¢à½ĸà½¦ à½ĳ
à½ķà½ĺ à½Ķ
à½ĵà½Ķ à½ĺà½Ħ
à½Łà½Ħ à½Ł
Ġà¼£ à¼¡à¼¦
Ġà¼£ à¼¦à¼¡
Ġà¼¢à¼© à¼¨
Ġà¼¢à¼§ à¼ł
Ġà¼¢à¼§ à¼¥
à½±à½¼ à¾ĥà¼Ķ
à¼ĭà¾Ŀ à¾±à¼ĭ
Ġ à½ĸà½¤à½Ħ
à½Ĥ à½ĸà½Ľ
à½ĵ à½Ļà½Ĥ
à½Ķ à½Ĥà½ĵà½Ħ
à¾± à¾°
à½£ à½«
à½´à¼ĭ à¼Ħà¼įà¼į
à½¡ à½Ĳà½ł
à½¼à¼ĭ à¼Ŀà¼į
à½Ģ à½ĵà½ĺ
à½ħ à½ĳà½ĸà½ħ
à½Ĳ à½ĳà½Ķ
à½ģ à½ĺà½Ĳ
à½¤ à½ĩ
à½ĳà½Ĥ à½Ĥà½ĵà½¦
à½ĳà½Ĥ à½ĵà½ĳ
à¾Ĳ à½´à¼·
à½Ł à½Ĥà½¡
à½ĳà½ĸ à½ıà½Ħ
à¾· à¾ĥà¼į
à½ĳà½ĺ à½Ģ
à½Ĥà½ĵà½¦ à½ģ
à½§ à½ĸà½Ľ
à½¦à½Ħà½¦ à½Ķà½¢
à½ĸà½ħà½¦ à½ŀ
à½ĸà½ı à½ĸà½ħ
à½ĸà½£ à½ĸà½¦
à¾Ĵà¾² à½´à¼·
à½¦à½ĺ à½ı
à½¤à½¦ à½ĵ
à½ĸà½¦à½£ à½ĸà½¢
à¾·à½²à¼ĭ à¼ĳ
à¾µ à¾ŀà¼į
à½Ĵ à½ī
à½Ĵ à½ķà½ħ
à½ħà½¢ à½Į
à½ĸà½¤à½ĺà½¦ à½ĵà½¦
Ġà¼£ à¼£à¼©
Ġà¼£ à¼§à¼¢
à½¦à½Ķ à½Ħ
à½Ĥà½¦à½Ķ à½£à½¦
Ġà¼¢à¼¦ à¼§
Ġà¼¢à¼¨ à¼ł
à¼ĭà¼ĭà¼ĭà¼Į à¼į
à½¦à½ĺà½¡à½¦ à½ı
Ġ à½¢à½ĺ
à½¦ à½Ĳà½£
à½ĸ à½ĺà½ļà½ĺà½¦
à½Ĥà½¦ à½łà½Ĩà½Ħ
à½ĳà½Ħ à½ĵà½ĺ
à½Ĳ à½Ĥà½ī
à½ī à½ĺà½Ĳà½Ĥ
à¾±à¼ĭ à¼ħà¼į
à½Ĥà½ŀ à½Ĥà½ĵ
à¾© à¾±à¼ĭ
à¾¨ à¾¡à½¼
à¾¨ à¾¨à½²à¼į
à½ħà½ĳ à½łà½ģ
à½ħà½ĳ à½ħà½ĳ
à½Ļà½ĺ à½ĸ
à½Ħà½Ĥ à½ĳà½ĸà½Ħ
à½¡à½ĵ à½ĳ
à¼¤ à¼¡à¼¨à¼¢
à½Ĥà½¡à½¦ à½Ģ
à½Ĥà½¡à½¦ à½Ķà½ł
à½ĳà½Ĥà½Ĥ à½ĺ
à½¢à½£ à½Ķ
à½łà½ĳà½ĸ à½ĺà½ł
à¾µ à½±à½´à½¾à¼ĭ
à¾µ à½±à½²à½¾à¼ĭ
à¼łà¼ł à¼¥à¼¤
Ġà¼£ à¼¡à¼¨
Ġà¼¤ à¼łà¼ł
à¼ĭà½²à¼ĭ à½ºà¼ĭ
à¾¨à½± à½¿à¼į
à½Ĭà½İà½Į à½ĭà½¢
à½¦ à½ļà½ĵ
à½ĳ à½ļà½£
à½Ħ à½ħà½¦
à½ĺ à½Ķà½ĺ
à½Ĥà½¦ à½Ķà½¢à½ĸ
à¾Ł à¾¤à½ºà¼ĭ
à½ħ à½İ
à½ĵà½¦ à½ĸà½Ļ
à½ĺà½Ĳ à½łà½Ĥà½Ħ
à¾¦ à½»à¼ĭ
à½ĺà½Ĩ à½ĺ
à½Ľ à½ĵà½ł
à½ħà½ĳ à½Ļ
à½§ à½łà½Ħ
à¾« à¾«à½²à¼ĭ
à½¼à¼į à¼ĭà¼įà¼ĭ
à¼Ķ à¼Ħ
à½łà½ļ à½£à½ĺ
à½ĸà½Ļ à½£à½ĵ
à½łà½Ĳ à½ĸà½ĺ
à½£à½Ĥà½¦ à½ĸ
à½Ŀ à½¦à½¢
à¾·à½´ à½¾
à½Ĥà½ĵà½ĳ à½¦
à½£à½Ħ à½¢
à½ĵà½Ķ à½ıà½ĵ
Ġà¼£ à¼¥à¼¤
à½¦à½Ķ à½ģ
à½Ķà½ĺ à½Ķà½¡
à½Ķà½ĳà½Ħ à½Ķà½£
à½ĺà½Ķà½¢ à½¤
Ġà¼¢à¼© à¼§
à½¼à¼ĭà½Ī à¾·à½²
Ġ à½ķà½ĸ
à½Ħ à½ĸà½ĳà½¦
à½Ķ à½Ĩà½ĵ
à¾± à¾¦à¾·à½±à½²à¼ĭ
à½ł à½¦à½Ħà½¦
à½²à¼ĭ à¼ĭà¼ĭà¼Ħà¼ħà¼įà¼į
à½Ĥà½¦ à½ĺà½ģ
à½´à¼ĭ à¼įà¼į
à½Ĩ à½Ĥà½ı
à½ĸà½¦ à½Ĥà½¦à½£
à½ĺà½¦ à½Ĥà½¡
à½Ķà½¢ à½łà½ļà½ĳ
à½¤ à½ĺà½Ħ
à½ĸà½¢ à½łà½Ľ
à½Ħà½¦ à½ĺà½Ĩ
à½łà½ĸ à½ĳà½ĺ
à½ĳà½Ķ à½¡à½Ħ
à½ħà½ĵ à½ĳà½ĸ
à½ģà½Ħ à½£
à½Ĩà½ĳ à½ĵà½¦
à¼¦ à¼łà¼łà¼łà¼ł
à½ĵà½ĺà½¦ à½ŀ
à½±à¼į à¼ĭà¼ĭ
à½Ĥà½ł à½¦
à½ĺà½£ à½¢
à½ļà½¢ à½Ĥà½ħ
à¾¦à¾² à½±
Ġà¼£ à¼¤à¼£
à¼¢à¼¡ à¼¡à¼¦
à½±à¼ĭà¼ Ħ
à½Ħ à½ļà½ĳ
à½´ à½¼à¼ĭ
à½Ķà½ł à½¡
à½ĸà½¦ à½¡à½Ħ
à½Ĳ à½Ĥà½ħ
à½Ķà½¢ à½Ĥà½ħ
à¾Ĵà¾± à½¿à¼ĭà½¿à¼ĭ
à¾¡ à¼ĭà¼Ħà¼ħà¼įà¼į
à¾¡ à¾²à¾Ģ
à½ĺà½Ĳ à½ĺà½¦à½ħà½ĳ
à½Ĥà½Ħ à½ĸà½¦
à½ĳà½Ķ à½ı
à½ĵà½Ħ à½ĸ
à½Ĥà½ĳ à½ĵà½Ĥ
à½Ĩà½ĳ à½¢
à½ĳà½Ģà½ł à½ĸà½¢
à½łà½Ĥà½£ à½ı
à½¦à½ĺ à½ĩà½£
à½Ĥà½ŀà½Ĥ à½ĺ
à½Ģà½¢ à½Ķ
à½ĺà½Ħà½ł à½¦
à½Ķà½İ à½¦
à¾·à½²à¼ĭ à¼Ħà¼ħà¼įà¼į
à¼łà¼ł à¼¥à¼¡
à½Ī à½±à½²à¼ĭ
à¾©à¾Ńà¼ĭ à½²
Ġà¼£ à¼¡à¼¤
Ġà¼£ à¼¦à¼¤
à¾ĭ à½¢à½Ħ
à½ĺà½Ķ à½Ĳà½ĺà½¦
à½¼à¼įà¼ĳ à¼į
à½ķà½İ à½Ĥà½¥
à½ĸ à½Ĳà½Ĥ
à½¢ à½ŀà½ĵ
à½´ à¾ĥ
à½Ĥà½¦ à½Ĥà½Ļ
à½´à¼ĭ à¼ħà¼į
à½ĳà½Ħ à½ĵà½Ħ
à½Ĩ à½Ĥà½ŀà½ĵ
à½ģ à½ĵà½¢
à½ļ à½§
à½Ł à½Łà½¦
à½ĸà½ħ à½ĳà½Ħ
à¾¨ à½¾
à½ĺà½ļ à½Ĥà½¦
à¾¦ à½±à½¿à¼į
à½Ĥà½ı à½Ħà½¦
à¾Ĳà¾± à¾³à½º
à½ĺà½īà½ĺ à½ĸà½ŀà½Ĥ
à½¦à½ĺ à½Ķ
à½Ĥà½Ħà½¦ à½Ħà½¦
à½ĳà½£ à½ķ
à¾²à½±à½²à¼ĭ à¼Ħà¼ħà¼įà¼į
à½ĵà½Ķ à½Ĥà½ī
à¾ĭ à½ĸà½¢
à¼¢à¼¨ à¼¢à¼¨
à½ĥ à½¨
à½£à½Ķ à½ĸà½¢
à½±à¼ĭà¼ ŀ
Ġà¼£à¼ł à¼¨
à½±à¾Ģ à¼Ķ
Ġ à½Ĥà½ĳà½Ĥà½¦
à½ĸ à½ģà½ĺà½¦
à½ĸ à½Ĳà½ĳ
à½¢ à½¢à½£
à½ĺ à½ĺà½ĩ
à½Ĥà½¦ à½ĳà½ĳ
à¾Ĵ à¼ĭà¼½
à½ĸà½¦ à½ĳà½Ķà½ł
à½ķ à½£à½Ĥà½¥
à½Ĳ à½İ
à½¤ à½Ķà½ĳà½ł
à½¡à½Ħ à½ĸà½ĳ
à½ĳà½Ķ à½Ł
à½ĸà½ĳà½Ĥ à½Ĥà½¡
à½ĸà½ħà½¦ à½ĳ
à½İ à½łà½Ħ
à¾³à½´à¼ĭ à½´
à½Ĥà½¦à½¢ à½ĳ
à½ĳà½Ĥà½Ĥ à½ĳà½ĸ
à¾ľ à½´
à¾Ľ à½º
à½¦à½ı à½ıà½ĸ
Ġà¼£ à¼¤à¼ł
Ġà¼£ à¼¤à¼¦
à¾» à½»à¼ĭ
à½¢à½Ķ à½ĸà½¢
à¾·à½±à½´ à½±à¼ĭ
Ġà¼¢à¼¥ à¼£
Ġà¼¢à¼© à¼©
à½Ķà½Ĳà½ĺà½¦ à½ħà½ĳà½ĺà½ģ
à½ĸà½¦à½ĺà½Ĥà½ıà½ĵ à½Ĥ
à½¦ à½Łà½Ĥ
à½Ķ à½Łà½¦
à¾² à¾Ĥ
à½ħ à½Ł
à½ģ à½Ĥà½ŀà½ĵ
à½ģ à½ĸà½ı
à½ĵà½¦ à½Ĳà½ĺà½¦
à½ĵà½¦ à½łà½ķ
à¾¡ à½½
à¾Ĺ à½¼à¼µ
à½± à½½à¼ĭ
à¾Ļ à½±à½´
à½ĸà½ĳ à½Ŀ
à½ĸà½ĳà½Ĥ à½ģ
à½łà½ĳà½¦ à½ĺà½¦
à½łà½ĳà½¦ à½ļ
à½Ĥà½ĵ à½Ĥà½ĵà½¦
à½łà½Ħ à½ĳ
à¾ĥ à¼ĭà¼½
à½Ĭ à½Ģà½ł
à¾¤à½¼ à½¼
à½±à½´à¾ĥà¼ĭ à½±à½´à¾ĥà¼ĭ
à½Ħà½Ħ à½ĵà½¦
à¾Ķà½¼à¼ĭ à¼Ħà¼ħà¼įà¼į
à¼· à¼ĭà¼ĳ
à½¢à½ĺ à½ĺ
à½ķà½¢ à½ķ
à¾¤à¾² à½±à¼ĭ
à¾ļ à¾Ńà¼ĭ
à¼ĭà¼ĭà¼ĭà¼ĭà¼ĭà¼ ĭà¼įà¼į
à½ĵà½ıà½ĵ à½ĳà½Ħ
à½Ĳà½ĺà½¦à½ħ à½ĳà½Ķ
à½Ĩà½Ĩ à½Ĩ
à½£à½ĺà½Ĳ à½ĺà½¦
Ġà¼¼à¼¼ à¼½
Ġ à½Ĥà½ıà½¢
à½ł à½ĺà½Ĳà½ł
à½ł à½¦à½£
à¾Ł à¾±à½¾à¼į
à½ĺà½¦ à½Ĥà½ĵà½¦
à¼ĭà¼į à¼Ķ
à½ĳà½ĸ à½ħà½ĳ
à½ĳà½ĸ à½ĳà½ĳ
à½ħà½ĵ à½Ĥà½ī
à¾Ĵà¾±à½´ à½¿à¼ĭ
à½¨ à½ĳà½Ĥ
à½¨ à½¦à½¢
à½łà½ĳà½¦ à½Ħ
à½łà½ĳà½¦ à½ı
à½łà½ļ à½¦
à½ĸà½£ à½łà½Ħ
à½´à¼įà¼į à¼
à½ĵà½ĵ à½£
à¼¡à¼ł à¼łà¼łà¼łà¼ł
à¾¡à¾· à½»à¼ĭ
à¼Ģ à½¨à½¢
à¾´ à½¿à¼ĭ
à¾Łà½ºà¼Ķ à¼
à¼¡à¼¡à¼¥ à¼łà¼ł
Ġà¼ĭà¼ĭà¼ĭà¼ĭà¼ĭà¼ĭà¼ĭà¼ĭà¼ĭà¼ĭà¼ĭà¼ĭà¼ĭà¼ĭà¼ĭà¼ĭà¼ĭà¼ĭà¼ĭà¼ĭà¼ĭà¼ĭà¼ĭà¼ĭà¼ĭà¼ĭà¼ĭà¼ĭà¼ĭà¼ĭà¼ĭà¼ĭà¼ĭà¼ĭà¼ĭà¼ĭà¼ĭà¼ĭà¼ĭà¼ĭà¼ĭà¼ĭà¼ĭà¼ĭà¼ĭà¼ĭà¼ĭà¼ĭà¼ĭà¼ĭà¼ĭà¼ĭà¼ĭà¼ĭà¼ĭà¼ĭà¼ĭà¼ĭà¼ĭà¼ĭà¼ĭà¼ĭà¼ĭà¼ĭà¼ĭà¼ ĭà¼ĭà¼ĭà¼ĭà¼ĭà¼ĭà¼ĭà¼ĭà¼ĭà¼ĭà¼ĭà¼ĭà¼ĭ
à¼łà¼łà¼łà¼łà¼łà¼łà¼łà¼ł à¼łà¼łà¼łà¼łà¼łà¼ł
à¼ĭà¿ Ģ
Ġ à½¨à½Ĥ
à½ĸ à½ĸà½Ģà½Ĥ
à½¼ à½²à¼įà¼į
à½¢ à½ĺà½ģà½ĵ
à½ĵ à½¡à½¢
à½ł à½Łà½ĳ
à½Ĥà½¦ à½ĺà½ģà½ł
à½ĳà½Ħ à½Ĥà½ĵ
à½ģ à½ĺà½ļ
à½ģ à½ĵà½ĳ
à½ī à½¨
à½Ķà½¢ à½ĺà½ĳ
à½¤ à½Ŀ
à¾Ĳ à¾²à½¼à¼ĭ
à½łà½Ĥ à½łà½Ļà½ĺ
à½ĳà½ĸ à½ĳà½Ķ
à¾© à¾ªà¼į
à¾²à½² à½²à¼ĭ
à¾¨ à¼įà¼Ħà¼ħà¼įà¼į
à½Ļ à½ĵà½ĺ
à¼ĭà¼įà¼į à¼ĭà¼ĭà¼ĭà¼ĭà¼ĭà¼ĭà¼ĭà¼ĭà¼ĭà¼ĭà¼ĭà¼ĭà¼ĭà¼ĭà¼ĭà¼ĭà¼ĭà¼
à½Ĥà½ŀà½ĵ à½ĸà½¦
à½ĺà½ĳ à½Ĩ
à½ĺà½ĳ à½Ķà½¦
à½Ļà½ĺ à½Ķ
à½±à½´ à½¾à¼ĭà¼
à½´à¼į à¼Įà¼Įà¼Į
à½ĺà½ģà½ł à½ł
Ġà¼ ·à¼ĭ
à½Ĳà½£ à½Ĩ
à½ĸà½£ à½£
à½¤à½¦ à½£
à¼¡à¼£ à¼łà¼łà¼ł
à¾ļ à¾Ģà¼ĭ
à½ĵà½Ķ à½ħ
Ġà¼£ à¼¦à¼¨
Ġà¼£ à¼¨à¼©
à¼¢à¼¦ à¼¢à¼§
à½±à½¾à¼į à¼Įà¼Įà¼Į
à¼¢à¼¡ à¼¡à¼¢
à½Ĥà½Ĥ à½Ĥ
à¼ĭà½µ à¾ĥà¼įà¼į
à½Ĥà½Ķ à½ĸà½¦
à¾·à½±à½² à½¿à¼ĭà¼½
Ġà¼¢à¼¥ à¼¦
Ġà¼¢à¼¨ à¼¨
à½²à¼ĭà¾İ à¼į
à½¡à½¢à½£ à½Ŀ
à¾Łà¼ĭà¼ ĭ
à¾Łà½ºà¼Ķà¼ ĭ
à½ĳ à½ĸà½ŀà½Ĥ
à½ĳ à½łà½ĸà½¢
à½¼ à½¾à¼ĭà¼½
à½Ħ à½ŀà½£
à½Ķ à½Ħà½ĺ
à½£ à½ĸà½ı
à½Ĥà½¦ à½ĳà½Ķà½£
à½¼à¼ĭ à½ºà¼ĭà½²
à½Ģ à½ĵà½Ĥ
à½ĳà½Ħ à½ĸà½Ģ
à½ĸà½¦ à½Ĳà½ĺà½¦
à½ĸà½ł à½ĸà½¢
à¾Ĺ à½ºà¼µ
à½Ķà½¦ à½Ĥà½ı
à½ĳà½ĸ à½Ľ
à½£à½ĺ à½ĳà½ł
à½ļà½ĳ à½ĸà½¢
à½ĳà½Ģà½¢ à½Ĥ
à½ķà½ĵ à½Ĩà½ĳ
à½Ŀ à½ĵà½ł
à¾µ à½²à¼įà¼į
à¼łà¼ł à¼¥à¼§
à¼Ģ à½ĸà½¦
à½¢à½ĳ à½¦à½Ħà½¦
Ġà¼¢à¼¤ à¼¥
à¼ĭà¼ĭà¼ĭà¼ĭà¼ Ħà¼ħ
à½´à¼įà¼įà¼ ĭ
à½¦ à½ĸà½Ľ
à½¦ à½Ĥà½ĳà½ĵ
à½¦ à½ļà½¢
à½¢ à½¡à½¦
à½Ķ à½ĳà½Ķà½ł
à½Ķ à½Ĩà½¢
à½£ à½Ģà½¢
à½Ĥà½¦ à½ĳà½Ģà½¢
à½ĸà½ĳ à½ĸà½¦
à½ħà½ĵ à½¡à½Ħ
à½Ĳà½ĺà½¦ à½Ħ
à¾Ĺà½ºà¼ĭ à¼İ
à½ĺà½ģà½¦ à½Ķà½¢
à½ĵà½Ĥ à½Ħà½¦
à½Ŀ à½ĺà½¦
à½¡à½¦ à½ĳ
à½Ĵ à½ĳà½Ĥ
Ġà¼ĭà¼ ħ
à¾ł à½¼à¼į
à¾·à½± à½ºà¼ĭ
à½¢à½İ à½¦
à½Ķà½ĳà½Ĥ à½Ķ
Ġà¼¢à¼© à¼¦
à½Ĥ à½ĺà½Ħà½ł
à½ĵ à½¢à½ĸà½¦
à½¡ à½¢à½ĸà½¦
à½ĳà½Ħ à½ĩ
à½ĳà½Ħ à½ĸà½Ĥ
à½Ķà½ł à½¨
à¾Ĵ à¼ĭà¼Ħà¼ħà¼įà¼į
à¾Ĵ à½±à½´à¼ĭ
à¾Ĵ à¼·à½¼à¼ĭ
à½ĸà½¦ à½ĵà½Ħ
à½ĸà½¦ à½Ĥà½ĳ
à½ģ à½ĸà½ħ
à½ģ à½Ĥà½¡
à½ı à½¢à½Ĥ
à¾¤ à¾³à½º
à½ĳà½ĺ à½Ħà½ł
à¾Łà½º à½ºà¼į
à½¨ à½ĳà½ĸ
à½¨ à½¢à½Ħ
à½²à¼į à¼Įà¼Įà¼Įà¼Į
à½¢à½ĸ à½Ĥà½ĵà½¦
à¾Ķà¼ µ
à½Ĥà½ĵ à½ĳà½Ģ
à½£à½Ĥ à½Ĥà½¦
à¼© à¼łà¼łà¼ł
à½¦à½ĺ à½¡à½§
à½Ĺ à½£à½ł
Ġà¼£ à¼¥à¼¢
à½ĭ à½ĺà½¦
à½§à½ĵ à½§
à¾Ħ à¼ĭà¼ĳ
à½© à½¤
à½ĵà½łà½ĳà½¦ à½¢
à½Ĺà½Ĥ à½«
Ġà¼¢à¼§ à¼©
à¾·à¾²à½±à½´ à¾Ĥà¼ĭ
à¾¨à¾¼à¾» à½´à¾ĥà¼ĭ
à¼ĭà¼ĭà¼ĭà¼ĭà¼ĭà¼ĭà¼ĭà¼ĭà¼ĭà¼ĭà¼ĭà¼ĭà¼ĭà¼ĭà¼ĭà¼ĭà¼ĭà¼ĭà¼ĭà¼ĭà¼ĭà¼ĭà¼ĭà¼ĭà¼ĭà¼ĭà¼ĭà¼ĭà¼ĭà¼ĭà¼ĭà¼ĭà¼ĭà¼ĭà¼ĭà¼ĭà¼ĭà¼ĭà¼ĭà¼ĭà¼ĭà¼ĭà¼ĭà¼ĭà¼ĭà¼ĭà¼ĭà¼ĭà¼ĭà¼ ĭà¼ĭ
Ġ à½ģà½ł
à½Ħ à½ĸà½ĸ
à½Ķ à½ĺà½ģà½ĵ
à½łà½ĳ à½ĺà½¢
à½ĸà½¢ à½Ķà½¢
à½ĸà½¢ à½ĩ
à½¼à¼įà¼į à¼ĭà¼ĭà¼ĭà¼ĭà¼ĭ
à½ĳà½ĸ à½ī
à½ĳà½ĸ à½ıà½Ĥà½¦
à½ĺà½Ĳ à½¢à½ĸ
à½ĺà½Ĩ à½£
à½¨ à½łà½ĸ
à½ĵà½Ħ à½¤
à½łà½ĳà½¦ à½£à½łà½ĳ
à¾Ĵà½¼à¼ĭ à½²
à½ĳà½Ģà½¢ à½Ĩà½Ĥ
Ġà¼ Ĭ
à½ĺà½īà½ĺ à½£
à½¦à½¢ à½ĵ
à½Ŀ à½Ĩ
à½¡à½Ħà½¦ à½Ķ
à½£à½ĸ à½ĳà½Ħ
à¾·à¾± à¾ĥà¼ĭ
à½ĵà½ı à½ĵà½ĺ
à¾Łà½´à¼ĭ à¼ĳ
à¼ĭà½µ à¾ĥà½¿à¼ĭ
à¼įà¼ĭà¼ĭà¼ĭà¼ĭà¼ĭà¼ĭà¼ĭà¼ĭà¼ĭà¼ĭà¼ĭà¼ĭà¼ĭà¼ĭà¼ĭà¼ĭà¼ĭà¼ ĭà¼ĭà¼ĭà¼ĭà¼ĭà¼ĭà¼ĭà¼ĭà¼ĭà¼ĭà¼ĭ
à¼ĭà¾İ à¼Ķ
à¾µà¾¨ à½±à½¾à¼į
à½¿à¼įà¼Įà¼Įà¼Į à¼į
à½´à¼įà¼ĭà¼ ĭà¼ĭà¼ĭà¼ĭà¼ĭà¼ĭà¼ĭà¼ĭà¼ĭà¼ĭ
Ġà¼Įà¼Įà¼Įà¼Įà¼Įà¼Įà¼Įà¼Įà¼Įà¼Įà¼Įà¼Įà¼Įà¼Įà¼Įà¼Įà¼Įà¼Įà¼Įà¼Įà¼Įà¼Įà¼Įà¼Įà¼Įà¼Įà¼Įà¼Įà¼Įà¼Įà¼Įà¼Įà¼Į à¼Įà¼Įà¼Įà¼Įà¼Įà¼Įà¼Įà¼Įà¼Įà¼Įà¼Įà¼Įà¼Įà¼Įà¼Įà¼Į
à¼Įà¼Įà¼Įà¼Įà¼Įà¼Įà¼Įà¼Įà¼Įà¼Įà¼Įà¼Į à¼Į
Ġ à½ĸà½Ļà½£
ĭ à¾³à½½à¼ĭ
à½ĵ à½¡à½ĸ
à¾± à½½à½¿à¼į
à½ł à½Ĥà½¦à½¦
à½¡ à½ĳà½£
à½Ĩ à½Ļ
à½ĸà½¦ à½¦à½ĺ
à¾±à½²à¼ĭ à¾¾à¼įà¼į
à½Ĳ à½Ħà½Ĥ
à½ļ à½Ĭ
à¾Ĵà¾± à¼įà¼įà¼į
à¾Ĳ à½¼à¼Ķ
à¾³ à½»à¼į
à¼ ĭà¾³à½½à¼ĭ
à½¨ à½¢à½ĸ
à½łà½ĳà½¦ à½ĺà½Ĳ
à½ĺà½Ĳà½ł à½¡
à½ĸà½Łà½Ħ à½¢
à½Ĳà½ĸà½¦ à½Ĥ
à½Ĳà½£ à½¢à½Ħ
à½¥ à½ŀ
à¾£à½¼ à½¿à¼į
à½Ĥà½ŀà½Ĥ à½Ķà½¦
à½ģà½¦ à½¦
à½Ģà½¢ à½ı
à½Ĵ à½Ľ
à½Ĺ à½¤
Ġà¼£ à¼¦à¼¦
à¼ĭà¼Ī à¼Īà¼Ī
à¼ĭà¾¢ à½±à½²à¼ĭ
à¼ĭà¾¾ à¾¾à¼įà¼į
à¾ŀà¾ŀ à½¾à¼į
à¾·à¾²à½´ à¾ĥà¼į
à½ķà½Ĭà½ķà½Ĭ à½ķà½Ĭ
à¾Ĳà¾µà¾¨ à¾³à¾º
à½ĸ à½ĸà½ħà½ĳ
à½Ķ à½ĸà½Ľ
à½Ķ à½¡à½¦
à½¡ à½Ĥà½¡
à½ĳà½Ħ à½łà½Ĩ
à½ĵà½¦ à½ĸà½Ģà½ł
à½łà½ĸ à½ª
à¾¦ à½±à½¾à¼ĭ
à¾¤à¾±à½¼ à½¿à¼ĭ
à½ĸà½¦à½ĺ à½ĸà½¦
à½Ļà½ĺ à½ĵà½¦
à½´à¼į à¼Ħà¼ħà¼į
à½ļà½ĳ à½Ļà½ĺ
à½ĳà½ĳ à½ĳà½Ķ
à½ĳà½ĳ à½ĳà½ĳà½ĳ
à½īà½ĵ à½ĸ
à½ĸà½ĸà½¦ à½Ķ
à½ĸà½ĺ à½ĸ
à½Ĥà½ĺ à½Ĥà½ī
à½ĳà½ĵ à½Ĥà½¦
à½ĵà½Ĥà½¦ à½¦
à¾Ķà¼į à¼Ħà¼ħà¼įà¼į
Ġà¼£ à¼¨à¼¢
à¾° à½´à¼ĭ
Ġà¼¤ à¼¢à¼¢
à½ĺà½Ķà½¢ à½¦
à½Ķà½ĸ à½Ķà½ĳà½Ħà½Ķ
à¼ĭà¼Ŀ à¼Ŀ
Ġà¼İ à¼Ħà¼ħà¼įà¼į
à½ĳà½Ł à½İà½ĺ
à½¬ à½ĺ
à½ĳ à½ĵà½ĺà½ĺà½ģà½ł
à½¢ à½ĺà½ĳà½ł
à½£ à½Ĳà½£
à½Ĥà½¦ à½Ķà½łà½ĺ
à½Ĩ à½¦à½¢
à½ģ à½ĸà½Ľ
à½ı à½£à½¦
à½ĺà½¦ à½Ĥà½ŀà½ĵ
à½ĺà½¦ à½Ĥà½¦à½ĵ
à½ļ à½ĸà½ĳ
à¾£ à¾²à½¼à¼ĭ
à½ĵà½¦ à½Ĥà½ı
à¾³ à¾±à½º
à½ĸà½ł à½ī
à½£à½¦ à½Ĥà½ĵà½¦
à¾· à¾³à½±à¼ĭ
à½¨ à½ĳà½ĺà½¢
à½¨ à½ĳà½¦
Ġà¼ ģ
à½ķà½ĵ à½ĸ
à¼ł à¼¡à¼¨
à¾·à½´ à¾ĥà¼ĭ
à¾¡à½º à½ºà¼ĭ
à½¦à½ĺ à½Ģ
à½ķà½Ĭ à½£
à¾²à½ºà¼ĭ à¼¼
à½łà½Ĩà½¢ à½Ģà½¦
à¾ª à½¿à¼į
à½Ĺ à½łà½Ħ
à¼ĭà½Ī à¾¤à½º
à¾«à½² à½¾à¼ĭ
Ġà¼£ à¼¡à¼©
Ġà¼£ à¼¦à¼£
à½Ĥà½ħà½ĳ à½Ķà½¢
à½Ĳà½ĺà½¦à½ħà½ĳ à½ħ
à¾±à¼ĭà¼ĳ à¼ĭà¼ĳ
à¾º à½ºà¼ĭ
à½¦à½Ł à½ĺà½¦
à½¦ à½ģà½Ħ
à½¦ à½ļà½Ħ
à½ĸ à½Ħà½£
à½¢ à½łà½Ĳ
à½ĺ à½ĸà½ı
à½Ķ à½ĺà½Ħà½ł
à¾² à¾¤
à½ģ à½Ĥà½ĳ
à½ĺà½¦ à½ĺà½ļà½ĵ
à½ĸà½¢ à½ĸà½Ł
à¾Ĳ à½¾
à½Ĥà½¡ à½Ĳà½Ĳ
à½ĸà½¤à½ĳ à½ĸà½¦
à½ĺà½Ľà½ĳ à½ĳà½Ĥ
à½Ĥà½¦à½£ à½ķ
à½ĳà½Ĥà½ł à½Ķ
à½ĺà½ģà½ł à½ĸà½ŀ
à½¥ à½ģ
à½ĳà½Ĥà½¦ à½Ģ
à¼Ģ à½Ĳ
à½Ķà½ŀ à½¦
ĠĠĠĠĠĠĠĠ ĠĠĠĠĠĠĠ
Ġà¼ĭà¼ĭà¼ĭà¼ĭà¼ĭà¼ĭà¼ĭà¼ĭà¼ĭà¼ĭà¼ĭà¼ĭà¼ĭà¼ĭà¼ĭà¼ĭà¼ĭà¼ĭà¼ĭà¼ĭà¼ĭà¼ĭà¼ĭà¼ĭà¼ĭà¼ĭà¼ĭà¼ĭà¼ĭà¼ĭà¼ĭà¼ĭà¼ĭà¼ĭà¼ĭà¼ĭà¼ĭà¼ĭà¼ĭà¼ĭà¼ĭà¼ĭà¼ĭà¼ĭà¼ĭà¼ĭà¼ĭà¼ĭà¼ĭà¼ĭà¼ĭà¼ĭà¼ĭà¼ĭà¼ĭà¼ĭà¼ĭà¼ĭà¼ĭà¼ĭà¼ĭà¼ĭà¼ĭà¼ĭà¼ĭà¼ ĭ
Ġà¼¢à¼¨ à¼¦
à½¼à¼ĭà¼ Ħà¼ĭ
à¼Ķà¼Ķ à¼Ķ
à½ĵ à½ĸà½ıà½Ħ
à½ĵ à½ĳà½Ĥà½Ĥ
à½ĵ à½Ĩà½Ħ
à½ĵ à½łà½Ľà½ĺ
à½ĵ à½ĸà½Łà½Ħà½¦
à½ĺ à½ĺà½ļà½ĺà½¦
à½ł à½łà½ĺ
à½£ à½ĳà½Ķà½Ĥ
à½Ģ à½Ĥà½ħ
à½Ĩ à½łà½Ĥ
à½ļ à½ĸà½ŀ
à½ļ à½Ĥà½ħ
à½ĳà½Ĥ à½ĵà½Ħ
à½ĸà½¢ à½Ĥà½ı
à½Ħà½¦ à½Ķà½ĵ
à½Ļ à½ĵà½¢
à½¨ à½Ĥà½ĵ
à½¢à½ĸ à½Ĥà½¦à½£
ĭà¼ĭà¼ ĭà¼Ħà¼ħà¼įà¼į
à½Ĩà½Ĥà½¦ à½ĳ
à½ĳà½ĳ à½ĳà½Ħ
à½Łà½Ĥ à½ĳà½Ħ
à½Ĳà½¢ à½ĸà½ł
à½ĳà½ĺà½¢ à½ĵà½Ĥ
à¾±à½²à¼į à¼ĭà¼ĭ
à½łà½ĸà½¢ à½¦
à½łà½Ĥà½Ĥ à½Ĥ
Ġà¼£ à¼¥à¼¨
Ġà¼£ à¼¤à¼¤
Ġà¼£ à¼¤à¼¢
Ġà¼£ à¼©à¼£
à¾¨à½º à½ºà¼ĭ
Ġà¼ł à¼łà¼§
à¼įà¼ĭà¼ĭà¼ĭà¼ĭà¼ĭà¼ĭà¼ĭà¼ĭà¼ĭà¼ĭà¼ĭà¼ĭà¼ĭà¼ĭà¼ĭà¼ĭà¼ĭà¼ ĭà¼ĭà¼ĭà¼ĭà¼ĭà¼ĭà¼ĭà¼ĭà¼ĭà¼ĭà¼ĭà¼ĭà¼ĭà¼ĭ
Ġà¼£à¼ł à¼§
à½¦ à½¡à½ĸ
à½Ĥ à½Ģà½¢
à½¼ à½¾à¼ĭà¼¼
à½Ģ à½ĸà½ħ
à½Ģ à½ģà½Ĥà½Ĥ
à¾Ł à¾²à½¼à¼ĭ
à½Ĩ à½¡à½Ħ
à½Ĩ à½ĸà½Ģ
à½ĺà½¦ à½łà½Ĩà½£
à¾Ĳ à½½à¼ĭ
à½Ħà½¦ à½Ķà½ı
à¾³ à½¼à¼µà¼ĭ
à½Ł à½Ķà½¢
à½ĸà½ŀ à½Ģ
à½łà½ĸ à½ħà½¦
à½ĳà½Ķ à½¤
à½Ľ à½Ĥà½ı
à½ĸà½Ģ à½¢à½ĳ
à½ıà½ĵ à½ļ
à½ĵà½¢ à½ĳ
à½Ħà½ĺ à½ĺ
à½ĸà½¤à½Ĥà½¦ à½Ķà½¢
à¾¡à¾· à½¾à¼Ķ
Ġà¼£ à¼¨à¼ł
à¼ĭà¾¾ à¼
à½£à½Ķ à½ı
Ġà¼¢à¼¥ à¼¢
Ġà¼¢à¼¥ à¼¨
à½ĸà½¦à½ĺà½Ĥà½ıà½ĵ à½¢
à¼ĭà¾¾à¼ ĭ
à½ĳ à½Ĳà½£
à½ĳ à½£à½łà½Ħ
à½ĳ à½ĸà½ŀà½ĵ
à½Ĥ à½ĳà½ĺà½ĵ
à½ĵ à½ĸà½¦à½£
à½£ à½£à½ł
à½¡ à½ª
à½ĸà½¦ à½¦à½Ħà½¦
à½ĺà½¦ à½ĸà½ł
à½ļ à½ĺà½Ĩ
à½ļ à½¢à½ĸà½¦
à½Ķà½¢ à½ĺà½īà½ĺ
à½Ħà½¦ à½ĸà½ĳ
à¾¡ à½²à¼įà¼į
à¾¡ à¾²à½ºà¼į
à½£à½¦ à½Ļ
à¾· à¾«
à½²à¼į à¼ĭà¼ĭà¼ĭà¼ĭà¼ĭà¼ĭ
à½ĺà½Ħ à½¤
à¾Ĺà½ºà¼ĭ à¼Ħà¼ħà¼į
à½ĳà½Ķà½£ à½łà½ĸ
à½ŀà½£ à½ĺà½Ĳ
à¾¨à¾² à¾±à½´
à½ĸà½ıà½ĸ à½ĸ
à¾ľ à¼ĭà¼ĳ
à¼¡à¼¥ à¼łà¼łà¼ł
à½ĳà½Ĥà½¦ à½ĳ
Ġà¼£ à¼¥à¼©
à½¦à½Ķ à½Ĥà½ī
à¼£à¼¨ à¼¤à¼¦
à¾²à½± à½ºà¼ĭ
à¾´ à½ºà¼ĭà¼´
à½±à½´à½¾à¼įà¼į à¼į
à½į à½ĳ
à½ĵà½ĳà½Ĥ à½ĳ
à¼įà¼ĭà¼ĭà¼ĭà¼ĭà¼ĭà¼ĭà¼ĭà¼ĭà¼ĭà¼ĭà¼ĭà¼ĭà¼ĭà¼ĭà¼ĭà¼ĭà¼ĭà¼ĭà¼ĭà¼ĭà¼ĭà¼ĭà¼ĭà¼ĭà¼ĭà¼ĭà¼ĭà¼ĭà¼ĭà¼ĭà¼ĭà¼ĭà¼ĭà¼ĭà¼ĭà¼ĭà¼ĭà¼ĭà¼ĭà¼ĭà¼ĭà¼ĭà¼ĭà¼ĭà¼ĭà¼ĭà¼ĭà¼ĭà¼ĭà¼ ĭà¼ĭà¼ĭà¼ĭà¼ĭà¼ĭà¼ĭà¼ĭà¼ĭà¼ĭà¼ĭà¼ĭà¼ĭà¼ĭ
à¼ŀà¼ŀ à¼ŀà¼ŀ
à½ºà¼ĭà¼Ħà¼ħ à¼Ķ
à½ĸà½ĸà½ĸà½ĸà½ĸà½ĸà½ĸà½ĸ à½ĸà½ĸà½ĸà½ĸà½ĸà½ĸà½ĸà½ĸ
à¼ĭà¾¾à¾¾à¾¾ à¾¾
à½ĺ à½ĸà½Ļ
à½£ à½ĸà½ıà½Ĥà½¦
à½ĳà½Ħ à½ĺà½ĩà½£
à½ĺà½¦ à½ĸà½ħ
à½łà½Ĥ à½Ļ
à¾© à½½
à½Ĥà½Ħ à½ģ
à½¨ à½¨à½ĵ
à½ĺà½Ĳà½ł à½ĸà½ŀ
à½±à½´ à½¾à¼įà¼įà¼įà¼į
à¾µ à¾³à¾Ģà¼ĭ
à½ĺà½īà½ĵ à½Ķà½ł
à¾ļ à¾²à½²à¼ĭ
Ġà¼£ à¼§à¼¤
à½¦à½Ķ à½Ĳ
à¼ĭà¼¹ à½´
à¼ĭà¼ĭà¼ĭà¼ĭà¼ĭà¼ Ī
à½ĵà½ıà½ĵ à½£
à½Ħà½ĸà½¢ à½łà½Ĥ
Ġà¼¢à¼¦ à¼£
Ġà¼¢à¼£ à¼¢
à¼ĭà¼ĭà¼ĭà¼ĭà¼ĭà¼ĭà¼ĭà¼ĭà¼ĭà¼ĭà¼ĭà¼ĭà¼ĭà¼ĭà¼ĭà¼ĭà¼ĭà¼ ĭà¼ĭà¼ĭà¼ĭà¼
à¼ĭà¾Ĥ à¼
à½ĳà½§à½ĳ à½§
à¼ĭà¾Ĥà¼ ĭ
Ġ à½ıà½Ħ
à½¦ à½ĸà½ħà½ĳ
à½¦ à½Ĥà½Ħà½¦
à½¼ à½¿à¼ĭà¼ĳ
à½¢ à½Ĥà½¦à½¢
à½¢ à½¡à½¢
à½¢ à½Ķà½Ĩ
à½ĵ à½ķà½£
à½Ķ à½¡à½ĸ
à¾± à¾Ļà½ºà¼ĭ
à½£ à½Ĩà½ĳ
à½´à¼ĭ à¼Ħà¼ħà¼ħà¼įà¼į
à½Ģ à½ĵà½ĵ
à¾Ł à½ºà¼µà¼ĭ
à½ĳà½Ĥ à½Ĥà½Ł
à½ĳà½Ĥ à½£à½ĺ
à½ĸà½¢ à½ĺà½Ĩ
à½£à½¦ à½Ĥà½¦à½Ħ
à¾© à½±à½²
à¾Ļ à¾²à½º
à½ĳà½ĺ à½ĸà½ł
à½ĸà½Ł à½łà½ĺ
à½ĳà½Ķà½ł à½ĺà½¦
à½łà½Ĩ à½Ħà½Ĥ
à½ĸà½¦à½ĺ à½Ģ
à½ĳà½Ķà½£ à½Ģ
à½Ĳà½ĸà½¦ à½ĸà½¦
à¾Ĳà¾± à¾Ĳà½¼
à½Ĭ à½ļ
à½±à½´à¾ĥ à¼įà¼įà¼įà¼į
à¼¥ à¼łà¼łà¼łà¼ł
à½¦à½ĺ à½Ĥà½¦
à½Ħà½Ħ à½ĳ
à½Ĥà½ıà½ĺ à½ĺ
à¾¡à¾· à½±à½²
à¾Ńà½± à½±à½´à¼ĭ
à½¦à½¦ à½ĸà½¦
à½ĳà½Ķà½¢ à½¢
à¼¢à¼¢ à¼¢à¼¥
à¼¢à¼¨ à¼¢à¼©
à¼ĭà½¼ à½¼
à¼įà¼ĭà¼ĭà¼ĭà¼ĭà¼ĭà¼ĭà¼ĭà¼ĭà¼ĭà¼ĭà¼ĭà¼ĭà¼ĭà¼ĭà¼ĭà¼ĭà¼ĭà¼ĭà¼ĭà¼ĭà¼ĭà¼ĭà¼ĭà¼ĭà¼ĭà¼ĭà¼ĭà¼ĭà¼ĭà¼ĭà¼ĭà¼ĭà¼ĭà¼ĭà¼ĭà¼ĭà¼ĭà¼ĭà¼ĭà¼ĭà¼ĭà¼ĭà¼ĭà¼ĭà¼ĭà¼ĭà¼ĭà¼ĭà¼ĭà¼ ĭà¼ĭà¼ĭà¼ĭà¼ĭà¼ĭà¼ĭà¼ĭà¼ĭà¼ĭà¼ĭ
à¾±à½²à¼ĭà½Ī à¾¡à½º
ĭ à½¿
ĭ à¾ľà¼į
à½ĳ à½ķà½£
à½Ĥ à½ĳà½Ģà½ł
à½ĵ à½Ĳà½Ĥ
à½ĵ à½łà½Ĩà½ĳ
à½¼à¼ĭ à¼ĭà¼ĭ
à¾±à½²à¼ĭ à¼ĭà¼į
à½Ĳ à½ĳà½Ģà½¢
à½ĸà½¢ à½ĸà½ŀ
à½Ł à½ĸà½Ĥ
à¼ ĭà½¿
à¼ ĭà¾ľà¼į
à½± à¼ĭà¼į
à½Ļà½ĺ à½ĳà½Ħ
à½ģà½ĺà½¦ à½ĺà½Ħ
à½łà½ĺ à½¢à½Ħ
à¼ĳ à¼½
à½ķà½Ĭ à½ł
à½Į à½ķ
à½Ĥà½ĺ à½Ķ
Ġà¼ĭà¼ ĭà¼Ħà¼ħà¼įà¼į
à½ĳà½Ķà½¢ à½ĸà½¦
à¾Ľ à½±à½²à¼į
Ġà¼£ à¼¦à¼§
à½ĳà½ĺà½ł à½ĵ
à¼ĭà½¼ à½²
à¾·à¾±à½¼à¼ĭ à¼İ
Ġà¼¢à¼¤ à¼£
Ġà¼¢à¼£ à¼¨
à½¦ à½ĸà½ŀà½Ĥ
à½ĸ à½¡à½¦
à½ł à½Ķà½Ħ
à½¡ à½¡à½¦
à½ķ à½£à½ĺ
à½Ĳ à½§
à½¤ à½Ĥà½ħ
à¾Ĳ à¾Ĳ
à¾© à¼ĭà¼Ī
à½Ĳà½ĺà½¦ à½¨
à½łà½ĳà½¦ à½Ĥà½Ħ
à¾Ĳà½´à¼ĭ à½²
à½ĸà½Ĥ à½Ļà½Ħ
à½ļà½ĳ à½ĳà½Ħ
à½Ħà½ĵ à½Ķà½¢
à½łà½Ĳ à½ĸà½ĸ
à½ĺà½ĵ à½łà½ĺ
à½Ģà½¢ à½ł
à½ĺà½Ħà½ł à½ł
à½ķà½Ĭ à½Ĭà½Ĭ
à½Į à½ĭ
à½ķà½£ à½Ķ
à½Ĩà½Ĥ à½ķ
à½ĸà½¤à½Ĥà½¦ à½Ķ
Ġà¼ĭà¼ ĭà¼¼
Ġà¼£ à¼£à¼§
Ġà¼§ à¼¡à¼ł
à¾²à½± à½¾à½¿à¼ĭ
à½¦à½ĺà½¦ à½ĳà½Ķà½ł
à¾Łà½´à¼į à¼ĭà¼ĭà¼ĭà¼ĭà¼ĭ
à½¡à½Ħà½ĳà½Ĥ à½Ķà½¢
à½Ĳà½Ĳ à½łà½ĸ
à½Ĳà½Ĳ à½Ĳà½Ĳ
à½ºà¼ĭà½Ī à¾¦à¾·à½±à½²
à½Łà½ķ à½ķ
à¼ĭà¼Ħà¼ Ħà¼ħ
à¼įà¼ĭà¼ĭà¼Į à¼į
ĭ à¾¦
à½¦ à½Ĩà½ĳ
à½º à½´
à½Ħ à½ĺà½ģà½ł
à½£ à½ĳà½ĺà½¢
à½£ à½ĸà½ıà½Ħ
à½£ à½Ħà½Ħ
à½Ĥà½¦ à½ĳà½¦
à½ķ à½¨
à½ķ à½Ģà½ł
à½ĸà½¢ à½Ĥà½Ł
à½Ħà½¦ à½ĺà½Ĳ
à½Ħà½¦ à½Ĥà½ħ
à¾²à½´ à½¾
à¼ ĭà¾¦
à½łà½ĸ à½ĸà½ĸ
à½Ķà½¦ à½īà½ĺà½¦
à¾¦ à½±à½´
à½ĳà½Ķ à½ĸà½ŀ
à½ĳà½Ķ à½Ĥà½ī
à½ĺà½ģ à½ĵà½Ĥ
à¾Ĺà½º à½¿à¼ĭ
à½Ħà½Ĥ à½Ĥà½¦
à¾¤à¾± à¾±à½²à¼ĭ
à½Ŀ à½ķ
à½ŀà½Ĥ à½ĸà½ĳ
à½Į à½ŀ
à¾µ à½´à¼įà¼į
à½Ĥà½ıà½ĳ à½ĵà½¦
Ġà¼Ī à¼½
à½Ĵ à½Ĳà½ķà½Ħ
à¼¢à¼§ à¼łà¼ł
à¼ĭà¼Ħà¼ħ à¼ħ
à½Ķà½ĳà½Ħ à½Ķà½¢
à¼ĭà¼ĭà¼ĭà¼ Ķ
Ġà¼ĭà¼ĭà¼ĭà¼ĭà¼ĭà¼ĭà¼ĭà¼ĭà¼ĭà¼ĭà¼ĭà¼ĭà¼ĭà¼ĭà¼ĭà¼ĭà¼ĭà¼ĭà¼ĭà¼ĭà¼ĭà¼ĭà¼ĭà¼ĭà¼ĭà¼ĭà¼ĭà¼ĭà¼ĭà¼ĭà¼ĭà¼ĭà¼ĭà¼ĭà¼ĭà¼ĭà¼ĭà¼ĭà¼ĭà¼ĭà¼ĭà¼ĭà¼ĭà¼ĭà¼ĭà¼ĭà¼ĭà¼ĭà¼ĭà¼ĭà¼ĭà¼ĭà¼ĭà¼ĭà¼ĭà¼ĭà¼ĭà¼ĭà¼ĭà¼ĭà¼ĭà¼ĭà¼ĭà¼ĭà¼ĭà¼ ĭà¼ĭà¼ĭà¼ĭà¼ĭà¼ĭà¼ĭà¼ĭà¼ĭà¼ĭà¼ĭà¼ĭà¼ĭà¼ĭà¼ĭ
Ġà¼¢à¼¨ à¼©
à¾³à¼· à½¼
à½ĸà½Ģà½łà½Ĥ à½ĳà½ĺà½¦
ĭ à¾Ĺà¼ĭ
à½Ĥ à½Ĥà½ĳà½ĵ
à½Ĥ à½Ĩà½Ħ
à½¢ à½ķà½ĵ
à½Ħ à½ķà½ĵ
à½ĺ à½ĸà½¦à½ĺà½¦
à½Ķ à½ŀà½ĵ
à¾² à¾Ĳà¾±à½º
à¼įà¼į à¼Ħ
à½ģ à½Ķà½ł
à½ĳà½Ĥ à½Ĥà½¢
à½łà½Ĥ à½Ĥà½¦à½ĵ
à¼ ĭà¾Ĺà¼ĭ
à½£à½¦ à½Ħà½¦à½¢
à¾¤ à¼Ķ
à½± à½¼à½¾à¼Ķ
à½¨ à½¨à½¢
à½ĺà½Ħ à½łà½ĸà½ĳà½Ĥ
à¼ĭà¼įà¼į à¼¼
à½£à½ĺ à½ĸà½¢
à¾Ĵà½¼ à½¼à¼ĭ
à½Ĥà½¦à½£ à½ı
à½ĵà½ĺ à½ĳà½Ħ
à½ĺà½¢ à½ı
à½ĳà½Ģà½¢ à½¢
à¾ķ à½ºà¼Ķ
à½ŀà½£ à½¢
à¼ł à¼¤à¼¤
à½Ģà½¢ à½ĳà½Ħ
à¼ĭà¼Ķ à¼Ķ
à½ĸà½ĸ à½łà½Ĥ
à¾ª à¾²à¼ĭ
Ġà¼£ à¼¢à¼¡
Ġà¼£ à¼¤à¼¨
à¾²à½± à½¿à¼į
à¾¦à¾· à½²à¼įà¼į
Ġà¼Ħà¼ħ à¼İ
à½¨à½ł à½¢
à¾·à¾² à½±à½¾à¼ĭ
à¾º à½±à½²à¼ĭ
Ġà¼¢à¼§ à¼£
à½ĺà½Ľà½łà½ĸ à½¤
Ġ à½ĵà½łà½Ħ
Ġ à½ģà½Ĥ
ĭ à½½à¼ĭ
à½¦ à½ĳà½£
à½ĸ à½ĸà½ıà½Ĥà½¦
à½ĸ à½Ŀà½Ħ
à½ĸ à½ĵà½ĺà½ĺà½ģà½ł
à½ĵ à½Łà½ĳ
à½Ħ à½īà½ĵ
à½Ħ à½Ļà½ĵ
à½£ à½Ĥà½ĳà½ĵ
à½¡ à½ŀà½ĵ
à¾Ł à¾Ĵà¾²à½¼
à½ħ à½Ļ
à½ħ à½¨
à¾Ĳ à½±à½¿à¼ĭ
à¾³ à¾±à½²
à¾³ à½±à½²à½¾à¼ĭ
à¾¡ à¾²à¼Ķ
à½ĸà½ł à½Ħà½ĺ
à¼ ĭà½½à¼ĭ
à½£à½¦ à½ĸà½¦à½ĺ
à½ºà¼į à¼Ħà¼ħ
à½Ķà½¦ à½ĺà½īà½ĺ
à½ĸà½ħ à½Ķ
à½Ļ à½ĺà½łà½ĺ
à½ĳà½ĺ à½ĺà½Ĩ
à½ħà½ĵ à½ĩ
à½Ĳà½ĺà½¦ à½Ļà½ĳ
à½łà½ķ à½ª
à½Ĥà½ŀà½ĵ à½ł
à½±à¼ĭ à¾İ
à½ĳà½Ģà½¢ à½ĵ
à½ıà½ĵ à½¡
à¾¨à¼ µà¼ĭ
à½ĸà½ŀà½Ĥ à½Ģ
à½ĺà½ĵ à½ĵà½¦
à½Ĥà½ĵà½Ħ à½ĵà½¦
à½Ŀ à½¥
à½ķà½Ĭ à½ŀ
à½ĳà½ĺà½ĵ à½£
Ġà¼£ à¼©à¼©
Ġà¼£ à¼¥à¼£
à¾ĭ à½Ĥà½ħ
Ġà¼¤ à¼łà¼¤
à½²à¼ĭà¼´ à¼
à½Ķà½ı à½ĸ
à¼įà¼ĭà¼ĭà¼ĭà¼ĭà¼ĭà¼ĭà¼ĭà¼ĭà¼ĭà¼ĭà¼ĭà¼ĭà¼ĭà¼ĭà¼ĭà¼ĭà¼ĭà¼ĭà¼ĭà¼ĭà¼ĭà¼ĭà¼ĭà¼ĭà¼ĭà¼ĭà¼ĭà¼ĭà¼ĭà¼ĭà¼ĭà¼ĭà¼ĭà¼ ĭà¼ĭà¼ĭà¼ĭà¼ĭà¼ĭà¼ĭ
Ġà¼¢à¼£ à¼¡
Ġà¼¢à¼§ à¼¡
à¼ĭà¼ĭà¼ĭà¼ĭà¼ĭà¼ĭà¼ĭà¼ĭà¼ĭà¼ĭà¼ĭà¼ĭà¼ĭà¼ĭà¼ĭà¼ĭà¼ĭà¼ĭà¼ĭà¼ĭà¼ĭà¼ĭà¼ĭà¼ĭà¼ĭà¼ĭà¼ĭà¼ĭà¼ĭà¼ĭà¼ĭà¼ĭà¼ĭà¼ ĭà¼ĭà¼ĭà¼ĭà¼ĭà¼ĭ
à½²à¼ĭà¼´à¼ ĭ
ĭ à½»à¼ĭ
à½ĳ à½§à½¢
à½Ĥ à½ĳà½ĺà½Ħà½¦
à½ĵ à½Ĩà½ł
à½Ķ à½ĺà½īà½ĵ
à½£ à½Ĥà½ŀà½Ĥ
à½Ĥà½¦ à½ĸà½ħà½¦
à¾² à½¿à¼Ķ
à½¼à¼ĭ à½¼à¼ĭà½ºà¼ĭ
à¾Ł à¾Ńà½±à½¾à¼ĭ
à½ĳà½Ħ à½łà½ķ
à½Ķà½¢ à½Ķà½ł
à¼ ĭà½»à¼ĭ
à½łà½ĸ à½ĸà½ł
à¾¦ à¾¦à½¼à¼ĭ
à½ĳà½ĺ à½Ĥà½¦à½¦
à½Ľ à½ĸà½¢
à½±à¼ ĭà¼ĭ
à½ĸà½¦à½ĺ à½¤
à½ĸà½Ģà½ł à½¤
à½Ħà½Ĥ à½ĵà½Ħ
à½łà½Ĥà½ł à½¢
à½±à½¿à¼ĭ à½±à½´à¾ĥà¼į
à¾ª à¾Ńà¼ĭ
Ġà¼ĭà¼ Ħà¼ħà¼į
Ġà¼£ à¼¥à¼¦
à¼¢à¼£ à¼łà¼ł
à¾¶ à¾£à½±à¼ĭ
à¾Ħ à½¼
Ġà½¨ à½Ģ
à¾·à¾² à½¿à¼ĭ
à¼įà¼ĭà¼ĭà¼ĭà¼ĭà¼ĭà¼ĭà¼ĭà¼ĭà¼ĭà¼ĭà¼ĭà¼ĭà¼ĭà¼ĭà¼ĭà¼ĭà¼ĭà¼ĭà¼ĭà¼ĭà¼ĭà¼ĭà¼ĭà¼ĭà¼ĭà¼ĭà¼ĭà¼ĭà¼ĭà¼ĭà¼ĭà¼ĭà¼ĭà¼ ĭ
Ġà¼£à¼ł à¼¦
Ġà¼¢à¼© à¼£
à½±à½¿ à¼ĭà¼Ħà¼ħà¼įà¼į
à¼įà¼ħ à¼į
à¾¦à¾·à½± à½²à¼įà¼į
à½¦ à½ĳà½ĺà½¢
à½ĳ à½¡à½¦
à½ĺ à½łà½ĩà½ĺ
à½Ķ à½ĺà½ī
à½Ĥà½¦ à½ŀà½£
à½ŀ à½Ĥà½ĵà½¦
à½Ĩ à½¦à½ĺ
à½Ĳ à½ŀà½Ĥ
à¾±à½² à½¾
à¾Ĵà¾± à½±à¼ĭ
à½ĸà½¢ à½ĵà½¦
à¾Ĳ à¼ĭà¼¼
à½Ħà½¦ à½ĵà½ĺ
à½ĵà½¦ à½Ĥà½¡
à¾³ à¾±à½¼à¼ĭ
à¾¡ à½±à½´
à¾¡ à½ºà¼·à¼ĭ
à½£à½¦ à½Ħà½ĵ
à½¡à½Ħ à½Ĥà½£
à½Ķà½¦ à½Ĥà½¦à½Ħ
à¾Ļ à½±à½²à¼į
à½ĺà½ģ à½ĸ
à½§ à½Ľ
à½Ĥà½ı à½¨
à½ĳà½Ģ à½łà½Ĥ
à¾²à½¼à¼ĭ à¼¸
à½¾ à½¾
à½ĸà½ħà½¦ à½¤
à½ĸà½ı à½ĸà½¢
à½£à½Ĥ à½ĸà½ħ
à½ĳà½Ģà½¢ à½ĵà½Ĥ
à½İ à½¦à½ĺ
à½ıà½ĵ à½Ģ
à½Ĥà½£ à½Ħ
à½ĺà½ģà½¦ à½¦
à½Łà½Ĥ à½ĸà½ħà½¦
à½Ĳà½¢ à½ĺ
à½£à½Ĥà½¦ à½ģ
à½ĺà½ģà½ĵ à½¢
à½Ķà½łà½ĺ à½ĸ
à½ĺà½Ħà½ł à½Ĥà½¦
à¼¼ à¼
à¼Ģ à½¢à½Ģ
Ġà¼§ à¼§à¼§
à¼ĭà¾¢ à½±à½¿à¼ĭ
à¾ĳ à½±à½´à¼ĭ
à¾²à¾° à½¾
à¼įà¼ĭà¼ĭà¼ĭà¼ĭà¼ĭà¼ĭà¼ĭà¼ĭà¼ĭà¼ĭà¼ĭà¼ĭà¼ĭà¼ĭà¼ĭà¼ĭà¼ĭà¼ĭà¼ĭà¼ĭà¼ĭà¼ĭà¼ĭà¼ĭà¼ĭà¼ĭà¼ĭà¼ĭà¼ĭà¼ĭà¼ĭà¼ĭà¼ĭà¼ĭà¼ĭà¼ĭà¼ĭà¼ĭà¼ĭà¼ĭà¼ĭà¼ĭà¼ĭà¼ĭà¼ĭà¼ĭà¼ĭà¼ĭà¼ĭà¼ĭà¼ĭà¼ĭà¼ĭà¼ĭà¼ĭà¼ĭà¼ĭà¼ĭà¼ĭà¼ĭà¼ĭà¼ĭà¼ĭà¼ĭà¼ĭà¼ ĭà¼ĭà¼ĭà¼ĭà¼ĭà¼ĭà¼ĭà¼ĭà¼ĭà¼ĭ
Ġà¼¢à¼¥ à¼¡
à½²à¼ĭà¼Ī à¼į
Ġà¼¢à¼§ à¼¨
à¼¼à¼ ĭ
à½¢ à½Ĳà½ĺà½¦à½ħà½ĳ
à½Ħ à½łà½ļ
à½Ħ à½¢à½¦
à½ĺ à½łà½Ĥà½Ĥ
à½Ķ à½ĵà½ĺà½¦
à½£ à½ģà½ĸ
à½Ĥà½¦ à½ĳà½Ķà½ł
à½Ĥà½¦ à½īà½ĺà½¦
à½Ĥà½¦ à½Ħà½Ĥ
à½ŀ à½ĵà½ĵ
à½Ģ à½ĺà½§
à¾Ł à¾²à½²à½¾à¼ĭ
à½Ĳ à½ĸà½ħ
à½ĺà½¦ à½Ķà½ħà½ĵ
à¾³ à¼įà¼ĭ
à¾³ à½´à¼·
à½Ķà½¦ à½łà½ķ
à½ĸà½ħ à½łà½ĸà½¢
à¾· à¾²à½±à¾ĥà¼ĭ
à½Ĥà½ŀ à½¡
à½ħà½ĵ à½ĵà½¦
à½Ľ à½ĳà½ĺ
à½ĺà½ģ à½¡
à½ĳà½Ķà½ł à½ĺà½Ĳ
à½ĳà½Ĥà½ł à½łà½ĺ
à½ĺà½īà½ĺ à½ĵ
à½łà½ķà½Ĥà½¦ à½ĺà½Ĩ
à½¦à½¢ à½ĳ
à½¡à½¦ à½ĺà½¦
à½ĸà½¦à½ĺà½¦ à½Ķà½ł
à½Ĩà½Ĥ à½ĺà½ĳ
à½ĳà½ĵ à½ĸ
à½¦à½ĳ à½ħ
Ġà¼ĭà¼ ĭà¼
à¼¢à¼¢ à¼¢à¼§
Ġà¼£ à¼©à¼§
à¼ħ à¼
à½±à½¾ à½¿à¼į
à½łà½ł à½ł
à½§à½§à½§à½§à½§à½§à½§à½§à½§à½§à½§à½§à½§à½§à½§à½§ à½§à½§à½§à½§à½§à½§à½§à½§à½§à½§à½§à½§à½§à½§à½§à½§
à½ĳ à½īà½ĵ
à½ĺ à½Ķà½ī
à½Ķ à½īà½ĺ
à½ł à½Ķà½£
à½£ à½ħà½ĳ
à½£ à½ĸà½¤
à½Ĥà½¦ à½Ħà½ĵ
à½´à¼ĭ à½Īà¾±à½²
à½¡ à½Ĥà½ĵà½¦
à½ģ à½ĺà½¢
à½ĺà½¦ à½łà½ķ
à½ļ à½ĳà½ĸà½Ħ
à½¤ à½Ĥà½¡
à½£à½¦ à½Ķà½¦
à¾±à¼ĭ à¼·
à¾¤ à½ºà¼Ķ
à¾· à¾±à½º
à½Ĥà½ĵà½¦ à½ķ
à½¨ à½ĸà½ŀ
à½ĳà½Ģ à½łà½Ħ
à½ĵà½Ħ à½Ķ
à½ĸà½¤à½ĳ à½ĸà½¢
à½Ħà½ĵ à½Ĥà½¦
à½Ĭ à½İ
à½Ĳà½¢ à½Ĥ
à¼ł à¼¢à¼¤
à¾Ĵà¾² à¾Ģ
à½ĵà½ĵ à½ĺà½ģà½ł
à½ĸà½¦à½£ à½£
à½¢à½£ à½¢
à½ļà½£ à½£
à¼łà¼ł à¼¥à¼¦
à¾ļ à½»à¼ĭ
Ġà¼£ à¼¦à¼¢
à¼¢à¼¦ à¼łà¼ł
à¾ļà¼ĭ à½¶
à¾±à¼ĭà¼ĳ à¼ĳà¼ĭ
à½Ķà½¡ à½ı
à¼įà¼ĭà¼ĭà¼ĭà¼ĭà¼ĭà¼ĭà¼ĭà¼ĭà¼ĭà¼ĭà¼ĭà¼ĭà¼ĭà¼ĭà¼ĭà¼ĭà¼ĭà¼ ĭà¼ĭà¼ĭà¼ĭà¼ĭà¼ĭà¼ĭà¼ĭà¼ĭà¼ĭà¼ĭà¼ĭà¼ĭà¼ĭà¼ĭ
à¼¡à¼łà¼¡à¼¡ à¼¡à¼¢à¼¡à¼£
à¼ħà¼ ĭ
Ġ à½ĺà½ļà½£
à½Ĥ à½łà½ĸà½¢
à½ĸ à½Ĩà½Ħ
à½¢ à½łà½ĩà½ĺ
à½ĺ à½ŀà½Ĥ
à½Ķ à½Ħà½ł
à½ł à½ĳà½Ĥà½ł
à½²à¼ĭ à¼ĭà¼ĭà¼ĭà¼į
à½ºà¼ĭ à¼Ħà¼ħà¼ħà¼įà¼į
à½ŀ à½Ķà½¢
à½Ģ à½Ķà½¢
à¾Ł à¾Łà½ºà¼ĭ
à½ĳà½Ħ à½Ķà½ĳ
à½Ķà½ł à½ĺà½ģ
à¾Ĵ à¾Ĵà¾·
à½ģ à½ĸà½ĸ
à½Ķà½¢ à½Ľ
à¾£ à½±à½²
à½ĳà½Ĥ à½īà½ĵ
à¾Ĳ à½±à½´à¼ĭ
à½ĸà½ł à½ŀ
à½ĳà½ĸ à½¡
à¾²à½¼ à½¿à¼į
à¾Ļ à¼įà¼į
à½Ľ à½Ľà½¦
à½¨ à½ĺà½¢
à½£à½Ĥà½¦ à½ĸà½ħ
à½Ŀ à½ĳà½ĺà½¢
à½ĺà½ļà½ĺà½¦ à½ŀ
à¾µ à½±à½²à¼į
à½ĸà½Ģà½Ĥ à½Ķà½ł
à½Ĩà½Ĥ à½ģ
à½» à½ºà¼ĭ
à¼łà¼ł à¼¥à¼¢
à¾Ńà½± à½¾à¼įà¼į
à½ª à½Ĥà½¦
à½±à½²à¼į à¼Įà¼Įà¼Į
à½Ĥà½ħà½ĳ à½ĳ
à½¦à½Ķ à½ĳà½Ĥ
à½¼à¼ĭà¼ĳà¼ĳ à¼ĳ
à½ĺà½Ķ à½¡
à½Ĺà½Ĥ à½«à½¥
à½´à¼įà¼ĭà¼ ĭà¼ĭà¼ĭà¼ĭà¼ĭà¼ĭà¼ĭà¼ĭà¼ĭà¼ĭà¼ĭà¼ĭà¼ĭ
à¼ĭà¼ĭà¼ĭà¼ĭà¼ĭà¼ĭà¼ĭà¼ĭà¼ĭà¼ĭà¼ĭà¼ĭà¼ĭà¼ĭà¼ĭà¼ĭà¼ĭà¼ĭà¼ĭà¼ĭà¼ĭà¼ĭà¼ĭà¼ĭà¼ĭà¼ĭà¼ĭà¼ĭà¼ĭà¼ĭà¼ĭà¼ĭà¼ĭà¼ĭà¼ĭà¼ĭà¼ĭà¼ĭà¼ĭà¼ĭà¼ĭà¼ĭà¼ĭà¼ĭà¼ĭà¼ĭà¼ĭà¼ĭà¼ĭà¼ĭà¼ĭà¼ĭà¼ĭà¼ĭà¼ĭà¼ĭà¼ĭà¼ĭà¼ĭà¼ĭà¼ĭà¼ĭà¼ĭà¼ĭà¼ĭà¼ ĭà¼ĭà¼ĭà¼ĭà¼ĭà¼ĭà¼ĭà¼ĭà¼ĭà¼ĭà¼ĭà¼ĭà¼ĭà¼ĭà¼ĭà¼ĭà¼ĭà¼ĭà¼ĭà¼ĭà¼ĭà¼ĭà¼ĭà¼ĭà¼ĭà¼ĭà¼ĭà¼ĭà¼ĭà¼ĭà¼ĭà¼ĭà¼ĭà¼ĭà¼ĭà¼ĭà¼ĭà¼ĭà¼ĭà¼ĭà¼ĭà¼ĭà¼ĭà¼ĭà¼ĭà¼ĭà¼ĭà¼ĭà¼ĭà¼ĭà¼ĭà¼ĭà¼ĭà¼ĭà¼ĭà¼ĭà¼ĭà¼ĭà¼ĭà¼ĭà¼ĭà¼ĭà¼ĭà¼ĭà¼
Ġ à½łà½ĩà½Ħ
à½¦ à½Ĥà½ĵà½ĳ
à½ĳ à½ĳà½ĺà½Ĥ
à½º à½²à¼į
à½Ħ à½ĸà½¦à½Ĥà½¦
à½Ķ à½Ĳà½¢
à½Ķ à½ĸà½¤à½ĳà½Ķ
à½£ à½Ĳà½ĺà½¦à½ħà½ĳ
à½Ĥà½¦ à½Ĳà½ĺà½¦à½ħà½ĳ
à½¼à¼ĭ à¼ĭà¼ĭà¼ĭ
à½ŀ à½Ĥà½ĵ
à½Ģ à½ĺà½Ħ
à½ģ à½¤à½ĳ
à½¡à½Ħ à½ĳà½ĸ
à¾Ĺ à¼ĭà¼Ħà¼ħà¼įà¼į
à¾¤ à¾±à½ºà¼ĭ
à½Ķà½¦ à½ĺà½Ĳà½ł
à½ĺà½Ĳ à½Ĳ
à½ĺà½Ĳ à½łà½ļ
à½ĳà½Ķ à½£à½ĺà½Ĥ
à½¨ à½ĸà½ł
à½¨ à½Ĥà½ī
à½¨ à½¢à½ı
à½ĺà½ģ à½ĳ
à½łà½ķ à½ĸà½¦
à¾« à¼ĭà¼Ħà¼ħà¼įà¼į
à¾« à¾«à¼į
à½¾à¼ĭ à½º
à½ĺà½Ĳà½ł à½łà½ĺ
à¼¢ à¼¡à¼£à¼©
à½ĳà½Ģà½ł à½¢
à½£à½ł à½ĵ
à¾ľ à¼ĭà½²
à½Į à½łà½ĳ
à½ĺà½£ à½ĸ
à¼łà¼ł à¼¥à¼©
à¾ª à¾«à¾«
à¼¢à¼¢ à¼¡à¼§
à½ĵà½Ķ à½ģ
à½±à¼ĭà¼ ħ
[...]
