{"<s>":0,"<pad>":1,"</s>":2,"<unk>":3,"<mask>":4,"!":5,"\"":6,"#":7,"$":8,"%":9,"&":10,"'":11,"(":12,")":13,"*":14,"+":15,",":16,"-":17,".":18,"/":19,"0":20,"1":21,"2":22,"3":23,"4":24,"5":25,"6":26,"7":27,"8":28,"9":29,":":30,";":31,"<":32,"=":33,">":34,"?":35,"@":36,"A":37,"B":38,"C":39,"D":40,"E":41,"F":42,"G":43,"H":44,"I":45,"J":46,"K":47,"L":48,"M":49,"N":50,"O":51,"P":52,"Q":53,"R":54,"S":55,"T":56,"U":57,"V":58,"W":59,"X":60,"Y":61,"Z":62,"[":63,"\\":64,"]":65,"^":66,"_":67,"`":68,"a":69,"b":70,"c":71,"d":72,"e":73,"f":74,"g":75,"h":76,"i":77,"j":78,"k":79,"l":80,"m":81,"n":82,"o":83,"p":84,"q":85,"r":86,"s":87,"t":88,"u":89,"v":90,"w":91,"x":92,"y":93,"z":94,"{":95,"|":96,"}":97,"~":98,"¡":99,"¢":100,"£":101,"¤":102,"¥":103,"¦":104,"§":105,"¨":106,"©":107,"ª":108,"«":109,"¬":110,"®":111,"¯":112,"°":113,"±":114,"²":115,"³":116,"´":117,"µ":118,"¶":119,"·":120,"¸":121,"¹":122,"º":123,"»":124,"¼":125,"½":126,"¾":127,"¿":128,"À":129,"Á":130,"Â":131,"Ã":132,"Ä":133,"Å":134,"Æ":135,"Ç":136,"È":137,"É":138,"Ê":139,"Ë":140,"Ì":141,"Í":142,"Î":143,"Ï":144,"Ð":145,"Ñ":146,"Ò":147,"Ó":148,"Ô":149,"Õ":150,"Ö":151,"×":152,"Ø":153,"Ù":154,"Ú":155,"Û":156,"Ü":157,"Ý":158,"Þ":159,"ß":160,"à":161,"á":162,"â":163,"ã":164,"ä":165,"å":166,"æ":167,"ç":168,"è":169,"é":170,"ê":171,"ë":172,"ì":173,"í":174,"î":175,"ï":176,"ð":177,"ñ":178,"ò":179,"ó":180,"ô":181,"õ":182,"ö":183,"÷":184,"ø":185,"ù":186,"ú":187,"û":188,"ü":189,"ý":190,"þ":191,"ÿ":192,"Ā":193,"ā":194,"Ă":195,"ă":196,"Ą":197,"ą":198,"Ć":199,"ć":200,"Ĉ":201,"ĉ":202,"Ċ":203,"ċ":204,"Č":205,"č":206,"Ď":207,"ď":208,"Đ":209,"đ":210,"Ē":211,"ē":212,"Ĕ":213,"ĕ":214,"Ė":215,"ė":216,"Ę":217,"ę":218,"Ě":219,"ě":220,"Ĝ":221,"ĝ":222,"Ğ":223,"ğ":224,"Ġ":225,"ġ":226,"Ģ":227,"ģ":228,"Ĥ":229,"ĥ":230,"Ħ":231,"ħ":232,"Ĩ":233,"ĩ":234,"Ī":235,"ī":236,"Ĭ":237,"ĭ":238,"Į":239,"į":240,"İ":241,"ı":242,"Ĳ":243,"ĳ":244,"Ĵ":245,"ĵ":246,"Ķ":247,"ķ":248,"ĸ":249,"Ĺ":250,"ĺ":251,"Ļ":252,"ļ":253,"Ľ":254,"ľ":255,"Ŀ":256,"ŀ":257,"Ł":258,"ł":259,"Ń":260,"à½":261,"à¾":262,"à½¦":263,"à½²":264,"à½ĳ":265,"à½Ĥ":266,"à½ĸ":267,"à½¼":268,"à½¢":269,"à½ĵ":270,"à½º":271,"¼į":272,"à¼į":273,"à½Ħ":274,"à½´":275,"à½ĺ":276,"à½Ķ":277,"à¾±":278,"à½ł":279,"à½²à":280,"à½²à¼":281,"à½²à¼ĭ":282,"à½£":283,"à½ºà":284,"à½ºà¼":285,"à½ºà¼ĭ":286,"à½Ĥà½¦":287,"à¾²":288,"à½´à":289,"à½´à¼":290,"à½´à¼ĭ":291,"à½¡":292,"à½¼à":293,"à½¼à¼":294,"à½¼à¼ĭ":295,"à¼įà¼į":296,"à½ŀ":297,"à½Ģ":298,"à¾Ł":299,"à½ĳà½Ħ":300,"à½Ķà½ł":301,"à½Ĩ":302,"à½ħ":303,"à¾Ĵ":304,"à½ĸà½¦":305,"à½ķ":306,"à¾±à½²à¼ĭ":307,"à½Ĳ":308,"à½ģ":309,"à½ı":310,"à½ĺà½¦":311,"à¾±à½²":312,"à½ī":313,"à½ļ":314,"à½Ķà½¢":315,"à¾£":316,"à½¤":317,"à½ĳà½Ĥ":318,"à½łà½ĳ":319,"à¾Ĵà¾±":320,"à½ĸà½¢":321,"à¾Ĳ":322,"à½¼à¼įà¼į":323,"à½Ħà½¦":324,"à½ĵà½¦":325,"ĭà¼į":326,"¼ĭà¼į":327,"à¼ĭà¼į":328,"à¾³":329,"à¾¡":330,"à½Ł":331,"à¾±à½º":332,"à¾±à½´":333,"ĠĊ":334,"à½łà½Ĥ":335,"à½ĸà½ł":336,"à½ĸà½ŀ":337,"à¾²à½´":338,"à¾±à½¼":339,"à¼":340,"à½£à½¦":341,"à½łà½ĸ":342,"à¾±à¼":343,"à¾±à¼ĭ":344,"à½¡à½Ħ":345,"à¾Ĺ":346,"à½łà½":347,"à½ºà¼į":348,"à¾¤":349,"à¾Łà½¼":350,"à½Ķà½¦":351,"à½ĳà½ĸ":352,"à½ĸà½ħ":353,"à¾Ķ":354,"à½±":355,"à¾·":356,"à½Ĥà½ŀ":357,"à¾©":358,"à½Ĥà½ī":359,"à¾²à½²":360,"à½ĺà½Ĳ":361,"à¾¨":362,"à½Ļ":363,"à¾²à½¼":364,"à¾Ļ":365,"à½¢à½Ħ":366,"à½ĺà½ļ":367,"à¾²à¼":368,"à¾¦":369,"à¾²à¼ĭ":370,"à½Ĥà½Ħ":371,"à½ĳà½ĺ":372,"à½łà½ĩ":373,"à½łà½ģ":374,"à½ĳà½Ķ":375,"à½Ĥà½ĵà½¦":376,"à½ĸà½ĳ":377,"à¾Łà½º":378,"à½ħà½ĵ":379,"à¾Łà¼":380,"à¾Łà¼ĭ":381,"à¾Ĵà¾±à½´":382,"à½ĺà½Ĩ":383,"à½Ľ":384,"à¾Ĳà¾±à½º":385,"à½¨":386,"à½ħà½ĳ":387,"à½Ĳà½ĺà½¦":388,"à½²à¼į":389,"à¾²à½º":390,"à½ĺà½ģ":391,"à½Ĥà½ħ":392,"à¾³à½¼":393,"à¾±à½ºà¼ĭ":394,"à½§":395,"à½ĺà½Ħ":396,"à½ĸà½Ł":397,"à½ĸà½ĳà½Ĥ":398,"ĭà¼":399,"à½¢à½ĸ":400,"à½ĳà½ĸà½Ħ":401,"à½łà½ķ":402,"ĭà¼įà¼į":403,"à½łà½Ľ":404,"à½Ĥà½ı":405,"à¼ĭà¼įà¼į":406,"à½Ĥà½ŀà½ĵ":407,"à½Ĥà½Ł":408,"à½ĳà½Ģ":409,"à¾²à½¼à¼ĭ":410,"à¾Ĺà½ºà¼ĭ":411,"à¾«":412,"à½ĸà½¤":413,"à¾³à¼":414,"à¾³à¼ĭ":415,"à½±à¼":416,"à½±à¼ĭ":417,"à½ĸà½Ģ":418,"à¾Ĵà¾±à¼":419,"à½ĩ":420,"à¾Ĵà¾±à¼ĭ":421,"à½ĺà½Ľ":422,"à¾Łà½ºà¼į":423,"à¾Ĺà½º":424,"à½Ĥà½¡":425,"à¾·à¼":426,"à½ĺà½ļà½ĵ":427,"à¾·à¼ĭ":428,"à¾¡à½¼à¼ĭ":429,"à½¾":430,"à½£à½ĺ":431,"à½ĵà½Ħ":432,"à¾¡à½´":433,"à¾Ķà¼":434,"à¾Ĵà¾±à½´à¼ĭ":435,"à¾Ķà¼ĭ":436,"à¾Ĵà¾²à½´":437,"à½ĸà½¤à½ĳ":438,"à½ĺà½ĳ":439,"à½¦à½Ħà½¦":440,"à½Ĥà½ĳ":441,"à½łà½ĳà½¦":442,"à¾Ĺà½¼":443,"à¾Ĵà½¼":444,"à½¾à¼":445,"à½²à¼įà¼į":446,"à½Ĥà½¤":447,"à½¼à¼į":448,"à¾Ĳà¾±à½ºà¼ĭ":449,"à½¾à¼ĭ":450,"à¾¤à¾±à½¼":451,"à¾«à½¼":452,"à¾²à½²à¼ĭ":453,"à¼¡":454,"à½ĳà½Ķà½ł":455,"à¼ĭà¼":456,"à½ĸà½ħà½¦":457,"à½ĺà½ł":458,"à¾Ĳà½´à¼ĭ":459,"à½ĸà½ı":460,"à¼Ķ":461,"à¾Ļà½²":462,"à¾Łà½ºà¼ĭ":463,"à¾Ń":464,"à¾©à¼":465,"à¾©à¼ĭ":466,"à½łà½Ĩ":467,"à½ĺà½Ľà½ĳ":468,"à½ĸà½¦à½ĺ":469,"à½Ĥà½¦à½£":470,"à½Ļà½ĺ":471,"à¾¦à¾±à½¼":472,"à½ĸà½Ĥ":473,"ĭà¼ĭà¼":474,"à¾¡à½¼":475,"à½Ĥà½ĵ":476,"à½ĺà½Ĥ":477,"à¾Ĳà½´":478,"à½łà½ļ":479,"à½Ĥà½Ļ":480,"à½£à½Ĥ":481,"à¾³à½¼à¼ĭ":482,"à½ĵà½ĺ":483,"à½ĺà½Ĳà½ł":484,"à½±à½´":485,"à¾©à½¼":486,"à½ĳà½Ĥà½ł":487,"à¾£à¼":488,"à¾£à¼ĭ":489,"à¾Ĳà½¼":490,"à½Ĩà½Ĥà½¦":491,"à¾³à½´":492,"à¼¢":493,"à½ĸà½Łà½Ħ":494,"à¾¦à¾±":495,"à½ĸà½Ļ":496,"à¾Ĳà¾±à½¼":497,"à½ĺà½ī":498,"à½ģà½ĺà½¦":499,"à½ĳà½Ķà½£":500,"à½´à¼į":501,"à½ļà½ĳ":502,"à¾Ļà½º":503,"à¾Ķà½¼":504,"à½ĺà½¢":505,"à½ĺà½ģà½ł":506,"à¾Ĵà½¼à¼ĭ":507,"à½ĸà½Ģà½ł":508,"à½Ĳà½ĸà½¦":509,"à¾¨à½¼":510,"à½ĳà½Ģà½¢":511,"Ġà¼":512,"à½ĳà½ĳ":513,"à¾Ĳà¾±":514,"à½īà½ĺà½¦":515,"à¾¦à¾±à½²":516,"à½Ħà½Ĥ":517,"à½Ħà½ĵ":518,"à¾Ĵà¾²à¼ĭ":519,"à½łà½Ĳ":520,"à¼¡à¼":521,"à½ºà¼įà¼į":522,"à½ĺà½īà½ĺ":523,"à½Ĥà½¦à½Ħ":524,"à¾¡à½ºà¼ĭ":525,"à½łà½Ħ":526,"à¾Ńà¼":527,"à¾Ńà¼ĭ":528,"à½İ":529,"à½Ķà½ĳ":530,"à½Łà½ĳ":531,"à½Ĥà½ıà½ĵ":532,"à½¿":533,"à½ķà½ĵ":534,"à¾¤à¾±":535,"à½ıà½ĵ":536,"à¾¤à¾±à½²à¼ĭ":537,"à¾ķ":538,"à½ģà½Ħ":539,"à½Ĩà½ĳ":540,"à½Ĳà½£":541,"à½łà½ķà½Ĥà½¦":542,"à½Ĥà½£":543,"à¾¨à¼":544,"à¾¨à¼ĭ":545,"à¾©à½ºà¼ĭ":546,"à½£à½ĵ":547,"à¾Ĵà¾²à½²":548,"à¾ĥ":549,"à½Ĭ":550,"à½ŀà½£":551,"à½¡à½ĵ":552,"à½ĺà½ģà½¦":553,"à½¼à½¾à¼ĭ":554,"à½ĵà½ĳ":555,"à½ĸà½ŀà½Ĥ":556,"à¼§":557,"à½ĺà½Ĳà½¢":558,"à½ĵà½Ĥ":559,"à½ĺà½ĵ":560,"à¾¨à¾²":561,"ĭà¼ĭà¼ĭà¼ĭà¼":562,"à½¿à¼":563,"à½¿à¼ĭ":564,"à¾Łà½´":565,"à½ĸà½£":566,"à¼¤":567,"à½±à½´à¾ĥ":568,"à½Łà½Ĥ":569,"à¾¤à¾²à½´":570,"à¼£":571,"à½Ĳà½¢":572,"à½ĳà½ĺà½¢":573,"à½Ĥà½ĵà½Ħ":574,"à½£à½Ĥà½¦":575,"Ħà¼":576,"à½Ĥà½¢":577,"à½łà½ļà½£":578,"à¾²à½´à¼ĭ":579,"à½¤à½¢":580,"à¼ł":581,"Ħà¼ħ":582,"à¾±à¼įà¼į":583,"à½¦à½¢":584,"à¾¤à½¼":585,"à¾Ĵà¾²à½¼":586,"à¼¥":587,"à½Ŀ":588,"à½´à¼įà¼į":589,"à¾³à½´à¼ĭ":590,"à½ĺà½ģà½ĵ":591,"à¾¨à½²":592,"à½łà½ĺ":593,"à¾³à½²":594,"à¾·à½´":595,"à¾¡à½²":596,"Ġà¼į":597,"à½ļà½Ħ":598,"à½ĸà½ħà½ĳ":599,"à¾¨à¾²à¼ĭ":600,"à¾Ļà½¼":601,"à¼¦":602,"à¼ĭà¼ĳ":603,"à½ĳà½Ķà½Ĥ":604,"à½īà½ĵ":605,"à½±à½²à¼ĭ":606,"à½ĺà½ļà½ĺà½¦":607,"à½ĸà½ıà½Ħ":608,"à¾±à½²à¼į":609,"à½ĸà½Ľ":610,"à¾©à½²":611,"à½łà½ĩà½ĺ":612,"à½¥":613,"à½ĳà½Ģà½ł":614,"Ħà¼ħà¼įà¼į":615,"à½łà½Ĥà½£":616,"à½Ĳà½Ĥ":617,"à½ŀà½ĸà½¦":618,"à½ĳà½¢":619,"à½Łà½ĸ":620,"à½Ĥà½¡à½¦":621,"à½Ĳà½Ħ":622,"à¾£à½¼":623,"à¾¡à½º":624,"à½ĵà½ĺà½¦":625,"à¼©":626,"à¾³à½º":627,"à¾Łà½ºà¼įà¼į":628,"à½±à½´à¾ĥà¼":629,"à½±à½´à¾ĥà¼ĭ":630,"à¾Ĵà¾²":631,"à½ĸà½ıà½Ĥà½¦":632,"à¾¤à¾²à½¼":633,"à½¡à½¦":634,"à½łà½ĸà½¢":635,"à¼ĳ":636,"à¼¨":637,"à¾©à½²à¼ĭ":638,"à½Łà½¦":639,"à½łà½Ĥà½ł":640,"à½¦à½ĺ":641,"à½Ħà½Ħ":642,"à½Ķà½łà½ĺ":643,"à½Ĥà½ŀà½Ĥ":644,"à½¾à¼į":645,"à½±à¼į":646,"à½łà½Ĩà½ĳ":647,"à¾¤à¾±à½²":648,"à½£à½ł":649,"à½ĺà½ĩ":650,"à½Ĥà½¦à½¢":651,"à¾Ģ":652,"à½ĸà½ıà½ĸ":653,"à½Ĥà½ĳà½ĵ":654,"à½ģà½¦":655,"à½±à½´à½¾à¼ĭ":656,"à½ĳà½Ĥà½Ĥ":657,"à½Ĥà½Ļà½Ħ":658,"à½¡à½ĸ":659,"à¾©à½º":660,"à½Ģà½¢":661,"à¾¦à¼":662,"à¾¦à¼ĭ":663,"à½¢à½ĸà½¦":664,"à½ļà½ĵ":665,"à¾±à¼į":666,"ĭà¼ĭà¼ĭà¼ĭà¼ĭà¼ĭà¼ĭà¼ĭà¼":667,"à¾ľ":668,"à½Ĩà½¢":669,"à½£à½łà½Ħ":670,"à½Ĥà½ĵà½ĳ":671,"à½Ĥà½ĳà½ĺà½¦":672,"à¾±à½²à¼įà¼į":673,"Ġà¼ĭ":674,"à½¢à½¦":675,"à¾¡à½´à¼ĭ":676,"à½ļà½Ħà½¦":677,"à½ĺà½Ħà½ł":678,"à½ķà½Ĭ":679,"à½łà½Ĩà½Ħ":680,"à¾·à½¼à¼ĭ":681,"à½ħà½Ĥ":682,"à¼ĭà¼Ķ":683,"à¼½":684,"à½ĸà½Ļà½ĵ":685,"à½ĳà½ĺà½Ĥ":686,"à¾¤à¾²à½²":687,"à½ŀà½Ĥ":688,"à¾²à½ºà¼ĭ":689,"à½±à½²":690,"à½Ķà½İ":691,"à¾²à¾Ńà¼ĭ":692,"à½¤à½¦":693,"à¾¤à½º":694,"à½łà½Ĳà½ĳ":695,"à¾Ķà½¼à¼ĭ":696,"à¾±à½´à¼ĭ":697,"à¾Ĳà¾±à½²":698,"à½łà½Ĩà½¢":699,"à½Ĥà½ıà½ĺ":700,"à½Ģà½ł":701,"à½ĵà½ĵ":702,"à¾¡à¼":703,"à¾¡à¼ĭ":704,"à¾Ģà¼":705,"à¾Ģà¼ĭ":706,"à½ĸà½¦à½£":707,"à¾Ĳà¾±à¼ĭ":708,"à¼ĭà¼Ħà¼ħà¼įà¼į":709,"à½ĸà½Łà½ł":710,"à½ĸà½¦à½ĺà½¦":711,"à½Į":712,"à½¦à½ł":713,"à¾·à½²à¼ĭ":714,"à¾Ńà½±à¼ĭ":715,"à½Ķà½łà½Ħ":716,"à½¢à½£":717,"à½ķà½£":718,"à½ĵà½ł":719,"à½łà½ĳà½ĸ":720,"à¾¨à½²à¼ĭ":721,"à½²à¼Ķ":722,"à½Ĥà½ŀà½£":723,"à½¼à¼Ķ":724,"à½ĸà½łà½ĺ":725,"à½łà½Ĥà½Ĥ":726,"à½¡à½¢":727,"à½ĸà½ĸ":728,"à½ĵà½łà½Ħ":729,"à¾Ĳà¾²":730,"à½ĸà½ĸà½¦":731,"à½ĸà½ĺ":732,"à½Ĥà½ł":733,"à½ĺà½ļà½¢":734,"à¾¤à½´":735,"à½ĺà½ĳà½ł":736,"à½ļà½£":737,"à½£à½Ħ":738,"à½¼à¼įà¼įà¼įà¼į":739,"à½ħà½Ħ":740,"à¼·":741,"à½¼à¼ĭà¼ĳ":742,"à½Ĥà½ĳà½ĸ":743,"à½ĳà½Ħà½¦":744,"à¼Ħà¼ħà¼įà¼į":745,"à½łà½ĸà½ĳ":746,"à½ĳà½ĺà½ĵ":747,"à½ĸà½ħà½ł":748,"à¾µ":749,"à½Ĥà½ĺ":750,"à¾¤à¾²à½¼à¼ĭ":751,"à½Ĥà½Ħà½¦":752,"à½¢à½ĺ":753,"à½ģà½Ĥ":754,"à¾«à½´à¼ĭ":755,"à½ĸà½¦à½Ĥà½¦":756,"à½ĺà½£":757,"à½ĺà½ģà½¢":758,"à½ĸà½Ģà½Ĥ":759,"à½ļà½¢":760,"à½Ĥà½¦à½ĵ":761,"à¾Ĳà¾²à½´":762,"à½Ĥà½ıà½ĳ":763,"à¼¡à¼ł":764,"Ġà½Ķ":765,"à¼ĭà¼½":766,"à¾Ĵà¼":767,"à¾Ĵà¼ĭ":768,"à½±à½´à¼ĭ":769,"Ġà¼Ī":770,"à½łà½ĳà½ł":771,"à½ĺà½ĩà½£":772,"à½±à½¿à¼ĭ":773,"à¾«à½´":774,"à½Ĩà½Ħ":775,"à½Ħà½ł":776,"à½¡à½Ħà½¦":777,"à½ķà½¢":778,"à½ĵà½¢":779,"à½łà½ĸà½ĸ":780,"à½Ĩà½Ĥ":781,"à½Ħà½ĺ":782,"à¼¡à¼§":783,"à¾¤à¾²":784,"à¼¡à¼¢":785,"à½£à½Ħà½¦":786,"à½ģà½ĸ":787,"à½łà½ĸà½ł":788,"à½Ĩà½¦":789,"à¾ķà½ºà¼ĭ":790,"à½Ĳà½ĳ":791,"à½ģà½¢":792,"à¾¦à¾²":793,"à½»":794,"à½ĸà½¤à½Ĥà½¦":795,"Ġà¼¼":796,"à½¦à½Ħ":797,"à½ķà½ĺ":798,"à¾²à¼į":799,"à½ķà½Ĥ":800,"à½Ĥà½ĵà½ĺ":801,"à½łà½Ľà½ĺ":802,"à½ĳà½£":803,"à¼¡à¼©":804,"à½ĸà½ĵ":805,"à½ĳà½ĵ":806,"à¾¦à¾²à½´":807,"à½łà½Ĥà½Ĥà½¦":808,"à½¢à½Ĥ":809,"à½īà½£":810,"à½¢à½Ĥà½¦":811,"à¾·à½±à¼ĭ":812,"à¾·à½¼":813,"Ġà½¦":814,"à½łà½ķà½Ħ":815,"à½Ħà½£":816,"à½ķà½ĸ":817,"à¾¤à½´à¼ĭ":818,"à¾²à¾Ģà¼ĭ":819,"à¼łà¼ł":820,"Ġà¼ĳ":821,"à½ĸà½¦à½ĳ":822,"à¾Ĺà½²":823,"à½±à½´à½¾à¼į":824,"à½ĳà½ĺà½Ħà½¦":825,"ĭà¼ĭà¼ĭà¼ĭà¼ĭà¼ĭà¼ĭà¼ĭà¼ĭà¼ĭà¼ĭà¼ĭà¼ĭà¼ĭà¼ĭà¼ĭà¼":826,"à¾£à½´":827,"à¾Łà½²à¼ĭ":828,"à½Ĩà½ĸ":829,"à½ĵà½Ĥà½¦":830,"à¼įà¼":831,"à½Ļà½ĵ":832,"à¾Ĵà½º":833,"à½¦à½ĳ":834,"à¾Ĳà¾±à½´":835,"à¾Ĵà¾²à½¼à¼ĭ":836,"à¾Ĳà¾²à¼ĭ":837,"à¾Łà½²":838,"à½¿à¼į":839,"à¾Ĳà¾±à½¼à¼ĭ":840,"à¾ª":841,"à½ĸà½Ļà½£":842,"à¼ĭà¼¼":843,"à½½":844,"à½Ģà½ĵ":845,"à¾Ĵà½´":846,"à½ĺà½ĵà½ĵ":847,"à½ļà½ĸ":848,"à½»à¼":849,"à½»à¼ĭ":850,"à¼¡à¼£":851,"Ġà½¢":852,"à½ĺà½İ":853,"à½ĺà½īà½ĵ":854,"à¾¦à½¼":855,"à½ºà¼Ķ":856,"à½ĺà½ĳà½Ħà½¦":857,"à½¡à½£":858,"à½Ķà½ĵ":859,"à½Ĥà½ĳà½Ĥà½¦":860,"à¼ĭà¼´":861,"à½Ī":862,"à¾²à½±à½²à¼ĭ":863,"à½¢à½Ģ":864,"à¼·à¼":865,"à¼·à¼ĭ":866,"à½łà½Ĳà½ĸ":867,"à½Ĥà½Łà½ł":868,"à¼¡à¼¤":869,"à¾«à¼":870,"à¾«à¼ĭ":871,"à½Ĥà½īà½ĵ":872,"à½ĸà½Ħ":873,"à¾¡à¾·":874,"à½±à½´à¾ĥà¼į":875,"à¾¡à¾·à¼ĭ":876,"à¼¡à¼¥":877,"à¾Ķà¼į":878,"à¾ĥà¼":879,"à¾ĥà¼ĭ":880,"à¾Łà½¼à¼ĭ":881,"à½ŀà½Ħ":882,"à½ŀà½Ĥà½¦":883,"à¾ľà½²à¼ĭ":884,"Ġà½£":885,"à½ĺà½Ĩà½ĵ":886,"Ġà½ĸ":887,"à¾²à¼įà¼į":888,"à¼¡à¼¨":889,"à¾µà¼":890,"à¾µà¼ĭ":891,"à½Ĵ":892,"à½Ĺ":893,"à¾±à½¼à¼ĭ":894,"à¾Ńà½±":895,"à¼¡à¼¡":896,"à¾Ĺà½ºà¼į":897,"à¾·à½´à¼ĭ":898,"à¼¡à¼¦":899,"à½łà½ļà½Ħ":900,"à½´à¼Ķ":901,"à¾©à½´":902,"à½Ĥà½¡à½Ħ":903,"à½łà½Ĥà½ĵ":904,"à¾¨à½´":905,"à½Łà½Ħà½¦":906,"à½±à½´à¾ĥà¼Ķ":907,"à½£à½¢":908,"à½ĳà½ĸà½ĸ":909,"à½Ħà½¢":910,"à½ģà½ł":911,"Ġà¼ĭà¼":912,"à¾Ĳà¼":913,"à¾Ĳà¼ĭ":914,"ĭà½Ī":915,"à¼ĭà½Ī":916,"à¼įà¼ĭ":917,"à¾¦à½´":918,"à½½à¼":919,"à½½à¼ĭ":920,"à½ĺà½Ħà½£":921,"à¾ķà½²à¼ĭ":922,"à¾²à¾Ģ":923,"à¾Ĳà½º":924,"à¼¢à¼ł":925,"Ġà¼¡":926,"à½Ĩà½ł":927,"à½ĸà½łà½Ħ":928,"à½¢à½ı":929,"à½¦à½¦":930,"à½¢à½ł":931,"à¾ķà½º":932,"ĭà½²":933,"à½ĳà½Ķà½¢":934,"à¼ĭà½²":935,"à¾©à¾Ńà¼ĭ":936,"à¾ļ":937,"à½ħà½¢":938,"à½ĸà½ŀà½ĳ":939,"à½īà½ĺ":940,"à½¡à½Ĥ":941,"à½łà½ĩà½ł":942,"à½Ĳà½ĸ":943,"à¾Ľ":944,"à¾²à½±à½²":945,"à¼¼":946,"ĭà¼ĭ":947,"à¾·à½²":948,"à¾Ļà½±à¼ĭ":949,"à¼¢à¼¢":950,"à½ĳà½Ĥà½¦":951,"à½ĸà½¦à½Ħ":952,"à½¢à½ĵ":953,"à¾ŀ":954,"à½łà½ĸà½Ħà½¦":955,"à½ĵà½Ķ":956,"à½ĺà½ĺ":957,"à½Ķà½Ĥà½¦":958,"à½Ĥà½ıà½Ħ":959,"à½¤à½ĺ":960,"à½¨à½¢":961,"à¾ľà¼":962,"à¾ľà¼ĭ":963,"à½Łà½Ħ":964,"à½¤à½ĵ":965,"à¼Į":966,"à½ĺà½Ħà½¢":967,"à½īà½Ĥ":968,"à¾Łà¼į":969,"à¾ªà¼":970,"à¾ªà¼ĭ":971,"à½ĸà½Ģà½Ħ":972,"à¾²à½¼à¼į":973,"à½ŀà½ĵ":974,"à¾«à½²":975,"à¾¤à¼":976,"à¾¤à¼ĭ":977,"à½ĸà½¤à½ĺà½¦":978,"à¾Ĵà¾²à½º":979,"à¾¡à½ºà¼į":980,"à½Ĥà½ĳà½Ħà½¦":981,"à¾Ķà½´":982,"à½Ĥà½ħà½ĵ":983,"à½ª":984,"à¾¤à¾²à½º":985,"à½±à½¾à¼ĭ":986,"à½ĺà½Ľà½ł":987,"à¾²à½²à¼į":988,"à½Łà½ĵ":989,"à½łà½ĳà½ĺ":990,"à½Ĥà½ĳà½ł":991,"à½łà½ķà½Ħà½¦":992,"à¾Ĳà½´à¼įà¼į":993,"à¾Ĳà½¼à¼ĭ":994,"à½łà½Ľà½Ĥ":995,"à½Ĥà½ĵà½ł":996,"à½¢à½Ħà½¦":997,"à¾²à½¼à¼įà¼į":998,"à¾¥":999,"à½łà½ķà½¢":1000,"à½¨à½Ħ":1001,"à½±à½²à¼į":1002,"à½ıà½Ħ":1003,"à½ıà½ł":1004,"à½łà½ĩà½£":1005,"à½¦à½ı":1006,"à¼Ģ":1007,"à½¦à½ĵ":1008,"à½Ĳà½ĺ":1009,"à½¤à½Ĥ":1010,"Ġà¼įà¼į":1011,"à½ĳà½Ķà½¦":1012,"à¼Įà¼Į":1013,"à½¤à½£":1014,"à½ºà¼ĭà¼ĳ":1015,"à¾£à½ºà¼ĭ":1016,"à¾£à½¼à¼ĭ":1017,"à¾²à½±à½²à½¿à¼ĭ":1018,"Ġà¼£":1019,"à½Ģà½¦":1020,"Ħà¼ħà¼į":1021,"à¾¡à¾²à¼ĭ":1022,"à¾ĭ":1023,"à½Ĥà½ħà½ĳ":1024,"à½ĸà½Łà½ĳ":1025,"à¾²à¾Ń":1026,"à½ĺà½ĵà½¢":1027,"à¾¦à¾²à½º":1028,"à½Ĥà½ĸ":1029,"Ġà½ĳ":1030,"à½ĳà½ĺà½ł":1031,"à¾¨à½ºà¼ĭ":1032,"à¾·à¼į":1033,"à½Ŀà½Ħ":1034,"à¾±à½±à¼ĭ":1035,"à¼ĭà¼ĳà¼":1036,"à¼ĭà¼ĳà¼ĭ":1037,"Ġà¼Ħà¼ħà¼įà¼į":1038,"à½²à¼ĭà¼ĳ":1039,"à½±à¼Ķ":1040,"à¼¢à¼¥":1041,"à½¼à¼įà¼įà¼į":1042,"à½łà½ļà½ĺà½¦":1043,"à¾Ĵà¾±à½´à¼į":1044,"à¼¢à¼¤":1045,"à¾¤à½¼à¼ĭ":1046,"à½¼à½¿à¼ĭ":1047,"à½ģà½ĺ":1048,"Ġà¼§":1049,"à½Ĥà½¦à½¦":1050,"à½£à½ĸ":1051,"à¼¢à¼¦":1052,"à½¾à¼įà¼į":1053,"à¾«à½²à¼ĭ":1054,"à½ĳà½Ķà½Ħ":1055,"à½łà½Ĩà½£":1056,"à½Ĥà½¤à½ĺ":1057,"à½Ķà½ī":1058,"à½ļà½Ĥà½¦":1059,"à½ŀà½¢":1060,"à½´à½¾à¼ĭ":1061,"à¼ĭà¼İ":1062,"à½ĳà½ĸà½£":1063,"à½Ĳà½ĺà½¦à½ħà½ĳ":1064,"à¾ł":1065,"à½ĺà½§":1066,"à¼İ":1067,"à½¤à½ł":1068,"à¾·à½±à½´à¼ĭ":1069,"à½¤à½ĳ":1070,"à½Łà½ł":1071,"à¼µ":1072,"à½Ĥà½Łà½ĵ":1073,"à½¤à½Ħ":1074,"à¼ĭà½Īà½²":1075,"à¾Ĳà½´à¼į":1076,"ĭà¼ĭà¼ĭà¼ĭà¼ĭà¼ĭà¼ĭà¼ĭà¼ĭà¼ĭà¼ĭà¼ĭà¼ĭà¼ĭà¼ĭà¼ĭà¼ĭà¼ĭà¼ĭà¼ĭà¼ĭà¼ĭà¼ĭà¼ĭà¼ĭà¼ĭà¼ĭà¼ĭà¼ĭà¼ĭà¼ĭà¼ĭà¼":1077,"à¼¢à¼£":1078,"à½ĸà½¤à½Ħ":1079,"à½¢à½¢":1080,"à¼įà¼įà¼į":1081,"à½¨à½ĵ":1082,"à¼¢à¼§":1083,"ĠĠ":1084,"à½łà½ĳà½¢":1085,"à¾ķà½¼":1086,"à¾²à½±à½´":1087,"à¾¨à½¼à¼ĭ":1088,"à½Ļà½Ģ":1089,"à½ĳà½Ĥà½¢":1090,"Ġà½ļ":1091,"à¾¨à½º":1092,"à¾±à½ºà¼į":1093,"à¾¨à¾±à½´":1094,"à¾Ľà¼":1095,"à¾Ľà¼ĭ":1096,"à¼´":1097,"à½±à½¾à¼į":1098,"à¾Ĵà¾±à¼į":1099,"·à¼":1100,"·à¼ĭ":1101,"à¾¨à¾±à½¼":1102,"à¾¡à¾·à½²à¼ĭ":1103,"ĭà¾":1104,"à¼ĭà¾":1105,"à¾·à½ºà¼ĭ":1106,"à½ĳà½¦":1107,"à¾Ļà½´":1108,"à½Ĥà½ĵà½Ĥ":1109,"à½ķà½¦":1110,"à¼įà¼ĭà¼":1111,"à½ļà½ĸà½¦":1112,"à¼¢à¼©":1113,"à¼Ī":1114,"à¾¦à¾·à¼ĭ":1115,"à¾°":1116,"à½ĸà½¦à½Ħà½¦":1117,"ĭà¼ĭà¼ĭà¼ĭ":1118,"à¼¢à¼¨":1119,"Ġà½ĸà½¦":1120,"à½ĸà½Ļà½¦":1121,"à½ģà½£":1122,"Ġà½ĵ":1123,"à¾·à¾±":1124,"à¾²à½²à¼įà¼į":1125,"à½¼à¾ĥà¼ĭ":1126,"à¾Ķà¼įà¼į":1127,"à½Ķà½£":1128,"à½ıà½ĺ":1129,"à½Ĥà½¦à½ĳ":1130,"à½Ĥà½¡à½Ĥ":1131,"à½¢à½ĳ":1132,"à½Ĥà½īà½ł":1133,"à¾³à¼į":1134,"à¾·à½±":1135,"à¾¦à½´à¼ĭ":1136,"à½¾à¼Ķ":1137,"à½łà½ļà½ĺ":1138,"à½¦à½Ķ":1139,"Ġà½Ĥà½¡":1140,"à½ĸà½Łà½Ħà½¦":1141,"à½Ĥà½¡à½ł":1142,"à¼ĭà¼¸":1143,"à¼£à¼ł":1144,"à½ĸà½ħà½¢":1145,"à½Ĥà½Łà½¢":1146,"à½ĺà½Ħà½Ĥà½¦":1147,"à¾Ļà½ºà¼ĭ":1148,"à½Ģà½Ħ":1149,"à½Ĥà½ıà½¢":1150,"à¼¢à¼¡":1151,"à¾Ĵà¾±à½´à¼įà¼į":1152,"à¼ĭà¼Ī":1153,"à½ĭ":1154,"à½Łà½ĺ":1155,"à¾¦à¾²à¼ĭ":1156,"à½łà½ĩà½Ĥà½¦":1157,"à¾Ĳà½ºà¼ĭ":1158,"à½ĺà½łà½ĺ":1159,"Ġà½ī":1160,"Ġà½Ĥ":1161,"à½ĸà½ħà½Ħ":1162,"Ġà¼ĭà¼ĭ":1163,"à½Ķà½Ħ":1164,"à¾²à½±à¼ĭ":1165,"à¾·à¼įà¼į":1166,"à½²à½¾à¼ĭ":1167,"à½¨à½Ĥ":1168,"à½¦à½ĸ":1169,"à½¡à½ł":1170,"à¾·à½¾à¼ĭ":1171,"à½¼à¼įà¼":1172,"à½ĳà½ĸà½¢":1173,"à¾Łà½ºà¼ĭà¼ĳ":1174,"à¾Ĳà¾±à½ºà¼įà¼į":1175,"à½ĳà½Ĥà½Ħ":1176,"à¾»":1177,"à½Ĥà½Łà½ĸ":1178,"Ġà½Ģ":1179,"à¾Ĳà¾±à½ºà¼į":1180,"à¾Łà¼įà¼į":1181,"à½¼à¼įà¼ĭ":1182,"à½£à½ĳ":1183,"à½ĸà½ħà½Ħà½¦":1184,"à½Ĥà½ŀà½¦":1185,"à¼ĭà¼Ħà¼ħà¼į":1186,"à¾ŀà¼":1187,"à¾ŀà¼ĭ":1188,"Ġà½ķ":1189,"Ġà½ĺ":1190,"à½ĺà½ģà½£":1191,"à½ģà½ĳ":1192,"à¼£à¼£":1193,"à½ĺà½Ĥà½¢":1194,"à¼įà¼Ħà¼ħà¼įà¼į":1195,"à½²à¼ĭà¼Ħà¼ħà¼įà¼į":1196,"à¾Łà½²à¼į":1197,"à¾Ĵà¾±à¼Ķ":1198,"à½¼à¼ĭà¼ĳà¼ĳ":1199,"à½ĺà½ĵà½ł":1200,"à½łà½Ĩà½Ĥà½¦":1201,"à½§à½ĵ":1202,"à¼ĭà¼»":1203,"à¼įà¼įà¼įà¼į":1204,"à¾³à½ºà¼ĭ":1205,"à¾¤à½ºà¼ĭ":1206,"à½Ķà½ĺ":1207,"à½Ħà½ĳ":1208,"à½ıà½¦":1209,"à½łà½Ĥà½¢":1210,"à¼£à¼¥":1211,"à¾²à½ºà¼į":1212,"à¼£à¼¤":1213,"à½¨à½ĺ":1214,"à¼ĭà¼Ĳ":1215,"à½Ĳà½ł":1216,"à½Ľà½ĺ":1217,"Ġà¼ł":1218,"à¼£à¼§":1219,"à½Ĥà½Ĥ":1220,"à¾©à¼į":1221,"à¼£à¼¦":1222,"à½¿à¼Ķ":1223,"à½¦à½£":1224,"à¾¶":1225,"à½¿à¼įà¼į":1226,"à½ıà½ĳ":1227,"à¼µà¼":1228,"à¼µà¼ĭ":1229,"Ġà¼¥":1230,"à½łà½ĳà½Ĥ":1231,"à¾±à½ºà¼įà¼į":1232,"à¾±à¼Ķ":1233,"à¾Ĺà½ºà¼įà¼į":1234,"à¾¨à½±à¼ĭ":1235,"Ġà½¤":1236,"à½ĸà½ĳà½£":1237,"à¾ħ":1238,"à½īà½¢":1239,"à½ĸà½¤à½£":1240,"Ġà¼¢":1241,"à½¤à½Ħà½¦":1242,"à½¦à½Ģ":1243,"à½¡à½ĺ":1244,"à½´à½¿à¼ĭ":1245,"à½ĸà½¤à½ĺ":1246,"à¾Ħ":1247,"à¾·à¾±à½¼":1248,"à¼¤à¼¥":1249,"à¾±à½±à½´":1250,"à½ĳà½ł":1251,"à¾Ķà½´à¼ĭ":1252,"à½Ĭà½ł":1253,"à¼Įà¼Įà¼Įà¼Į":1254,"à¼£à¼¨":1255,"à¼¤à¼ł":1256,"à¾¦à½º":1257,"à¼£à¼©":1258,"à½Ĩà½ĵ":1259,"à½¡à½ĳ":1260,"à¾Ĵà½±":1261,"à¼įà¼½":1262,"à½īà½ł":1263,"à½ĸà½ħà½Ĥ":1264,"à¾Ĵà½´à¼ĭ":1265,"à½łà½Ĩà½ł":1266,"à¾¨à¾±à½¼à¼ĭ":1267,"Ġà¼¤":1268,"à½¼à¼ĭà¼İ":1269,"à¼¥à¼ł":1270,"à½¢à½ĺà½¦":1271,"à½ĺà½ļà½£":1272,"à½Ĥà½¡à½¢":1273,"à¼¢à¼łà¼ł":1274,"à¾ļà¼":1275,"à¾ļà¼ĭ":1276,"à¼¸":1277,"à½łà½ķà½ĵ":1278,"à¾²à½±":1279,"à½ĸà½Ģà½ĸ":1280,"à¼¦à¼ł":1281,"à¾´":1282,"à¾±à½²à¼Ķ":1283,"à½łà½Ĥà½¦":1284,"à½Ĳà½ĵ":1285,"à½ļà½ł":1286,"à½±à¼įà¼į":1287,"à¼¥à¼©":1288,"à½ĵà½£":1289,"à¾Łà½ºà¼Ķ":1290,"à¾Łà½±à¼ĭ":1291,"à¼ħ":1292,"à¼ĭà¼ĭ":1293,"à¾Ĵà½ºà¼ĭ":1294,"Ġà½¡":1295,"Ġà½ĳà½Ħ":1296,"à½Ŀà½¢":1297,"à½Ļà½İ":1298,"ĭà¼ĭà¼ĭ":1299,"à½¡à½Ģ":1300,"à½īà½Ħ":1301,"à¾Ńà¼į":1302,"à½łà½Ĩà½ĺ":1303,"Ġà½Ĩ":1304,"à¼¥à¼§":1305,"à¼¤à¼§":1306,"à¾Ĵà¾±à½²":1307,"à¾¡à¾·à½ºà¼ĭ":1308,"à½¦à½ĺà½¦":1309,"à½ĵà½Ķà½ł":1310,"à½Ĥà½ıà½ĺà½¦":1311,"à¾¨à¾²à½¼":1312,"à½ĵà½ı":1313,"à¼Ħà¼ħ":1314,"à¾¥à¼":1315,"à¾¥à¼ĭ":1316,"ĭà½º":1317,"à¼ĭà½º":1318,"à¼ĭà¼Ħà¼ħ":1319,"à¾¨à¾²à½²":1320,"à¾Ĳà¾±à½´à¼ĭ":1321,"à¼¥à¼¦":1322,"à½ĸà½Ļà½ł":1323,"à¼¤à¼¦":1324,"à½Ķà½ĳà½Ħ":1325,"à½łà½ĳà½ĸà½¦":1326,"à¾¦à¾·":1327,"à½§à½ł":1328,"Ħà¼ĭ":1329,"à½ĳà½Ķà½Ħà½¦":1330,"à¾µà½²à¼ĭ":1331,"à½ĸà½ĳà½¢":1332,"à¼ĭà¼įà¼":1333,"à½ºà½º":1334,"à¼¤à¼©":1335,"à½Ĥà½ĳà½ĺ":1336,"à¾¨à¼į":1337,"à½łà½Ĳà½Ĥ":1338,"Ġà½ĸà½¢":1339,"à½łà½ģà½¢":1340,"à½ĸà½Ģà½¦":1341,"à¼¡à¼©à¼©":1342,"à½¦à½Ĥ":1343,"à½ĺà½ļà½Ħ":1344,"à¼ĭà¼¹":1345,"à¼¤à¼¨":1346,"Ġà½Ł":1347,"à½İà½ł":1348,"à¼¥à¼¨":1349,"à¼ĭà¼įà¼ĭ":1350,"à½łà½Ĩà½Ĥ":1351,"à½ĩà½Ĥ":1352,"à½ĺà½Ħà½¦":1353,"à¾Ńà½¼à¼ĭ":1354,"à¼łà¼łà¼ł":1355,"à¼§à¼§":1356,"Ġà½¨":1357,"à½ĸà½Ģà½£":1358,"Ġà½ŀ":1359,"à¼¡à¼©à¼¨":1360,"Ġà¼Ħà¼ħ":1361,"à½ĳà½ħ":1362,"à½¨à½ł":1363,"à½Ŀà½¦":1364,"à¾¨à¾²à½ºà¼ĭ":1365,"ĭà½¼":1366,"à¼ĭà½¼":1367,"à½łà½Ľà½ĳ":1368,"à½ĵà½ĸ":1369,"à½¼à½¾":1370,"à½ĵà½Ħà½¦":1371,"à½µ":1372,"à¾£à¼į":1373,"à½ķà½ł":1374,"à½Ŀà½ĵ":1375,"à½©":1376,"à¾Ļà½²à¼ĭ":1377,"à½łà½Ĩà½ĸ":1378,"à¼¥à¼¥":1379,"à¾Ħà¼ĭ":1380,"Ġà½ģ":1381,"à½ĸà½¦à½ĵ":1382,"à¼¤à¼¤":1383,"à½Ĥà½¡à½ĸ":1384,"à¼Ħà¼ħà¼į":1385,"à½Ĩà½ĺ":1386,"Ġà½Ĳ":1387,"à½Ħà½ĸ":1388,"à½¼à½¾à¼į":1389,"à¾Łà½´à¼ĭ":1390,"Ġà¼¦":1391,"à¼¦à¼§":1392,"à¾»à¼":1393,"à¾»à¼ĭ":1394,"Ġà½Ķà½ł":1395,"à½ģà½İ":1396,"à½ĸà½Ģà½¢":1397,"à½¨à½ı":1398,"à½ĳà½ĸà½ł":1399,"à¼£à¼¡":1400,"à¾²à½¾à¼ĭ":1401,"à½Ĩà½ĸà½¦":1402,"ĭà½µ":1403,"à¼ĭà½µ":1404,"à½ĺà½ĵà½£":1405,"à½Ļà½Ħ":1406,"à¾Ĳà¾±à½²à¼ĭ":1407,"à¾¡à½²à¼ĭ":1408,"Ġà¼¨":1409,"à½±à½´à½¾":1410,"à½§à½¢":1411,"à¼ĭà¼º":1412,"à½Ĥà½¥":1413,"à¾±à¾Ģà¼ĭ":1414,"à½łà½ĳà½Ħ":1415,"à½²à¼ĭà¼´":1416,"à¼įà¼¼":1417,"à½ĺà½łà½Ħ":1418,"à½ıà½Ĥ":1419,"à¼¦à¼¨":1420,"à½¼à¾ħ":1421,"à¼ħà¼įà¼į":1422,"à½Ļà½¢":1423,"à¾Ļà¼":1424,"à¾Ļà¼ĭ":1425,"à¼¦à¼©":1426,"à¾Łà½¾à¼ĭ":1427,"à¾£à½º":1428,"à½ĵà½Ķà½¢":1429,"à¼§à¼ł":1430,"à¼£à¼¢":1431,"à¾³à½´à¼į":1432,"à¾Ĵà¾²à¼į":1433,"à½ĸà½¦à½Ĥ":1434,"à½Ĥà½İ":1435,"à½ķà½Ħà½¦":1436,"à½Ĥà½¦à½Ķ":1437,"à¼§à¼©":1438,"à½ĸà½ĳà½Ħ":1439,"à¼ĭà½Īà¾±à½²":1440,"à½Ĥà½Ķ":1441,"à½ıà½¢":1442,"à½«":1443,"à½¡à½ĺà½¦":1444,"à½¨à½¦":1445,"ĭà½²à¼ĭ":1446,"à¼ĭà½²à¼ĭ":1447,"à½´à¼ĭà¼Ħà¼ħà¼įà¼į":1448,"à½Ĳà½Ĥà½¦":1449,"à½Ĥà½ŀà½Ħ":1450,"à¾©à½ºà¼į":1451,"à¾Ķà½¼à¼įà¼į":1452,"à¾±à½»à¼ĭ":1453,"à¾Ĵà½¼à¼į":1454,"à¾³à½²à¼ĭ":1455,"à¾²à½´à¼į":1456,"à¾ľà½²":1457,"à¾ļà½²à¼ĭ":1458,"à½¤à½Ķ":1459,"à½ºà½ºà¼ĭ":1460,"à¾©à½²à¼į":1461,"à¾łà¼":1462,"à¾łà¼ĭ":1463,"à¾¨à¾²à¼įà¼į":1464,"à¼§à¼¨":1465,"à½´à¼ĭà¼ĳ":1466,"à¾Ĵà¾±à¼įà¼į":1467,"Ġà½ĳà½Ĥ":1468,"à¾¾":1469,"à¾±à¾Ńà¼ĭ":1470,"à½ĺà½Ĳà½¦":1471,"à¼ĭà¾¢":1472,"à½§à½¦":1473,"à½Łà½¢":1474,"à¼¦à¼¦":1475,"à½ĺà½Ľà½Ħà½¦":1476,"à¾Ĵà¾²à¼įà¼į":1477,"à¼©à¼©":1478,"à½łà½ĸà½Ĥ":1479,"à¾´à¼":1480,"à¾´à¼ĭ":1481,"Ġà¼©":1482,"à½¤à½ĸ":1483,"Ġà½ĳà½Ķà½£":1484,"à¾Ĳà½²à¼ĭ":1485,"à¼¥à¼¤":1486,"à¾Ĵà¾±à½¼":1487,"à½ĵà½¡":1488,"à¾ķà½´":1489,"à¾Łà¾Ń":1490,"à½Ķà½¢à½ĸ":1491,"ĠĠĠĠ":1492,"à½Ĥà½¤à½Ĥà½¦":1493,"à½Ĥà½ĳà½Ħ":1494,"à½łà½ĩà½Ħ":1495,"Ġà½ħ":1496,"à¾¦à½²à¼ĭ":1497,"à¼įà¼Ī":1498,"Ġà½Ķà½¢":1499,"à½ĺà½Ķ":1500,"à½Ħà½¦à½¦":1501,"à¾·à¾±à½¼à½¿à¼ĭ":1502,"Ġà¼Ķ":1503,"Ġà½ĵà½¦":1504,"à½ĳà½Ħà½Ħà½¦":1505,"à¾³à¼įà¼į":1506,"Ġà½łà½ĳ":1507,"à½ļà½Ĥ":1508,"à¾·à½º":1509,"à¼ĭà¾¾":1510,"à½ĺà½ĳà½Ħ":1511,"à½ĥ":1512,"à¼©à¼ł":1513,"ĭà¼Ħà¼ħà¼įà¼į":1514,"à¾·à¾±à½¼à¼ĭ":1515,"à½Ķà½Ģ":1516,"à¼¦à¼¥":1517,"à¾Ńà½±à½¾à¼ĭ":1518,"à½ĵà½Ł":1519,"à¾¤à¾²à¼ĭ":1520,"à½Ķà½Ĥ":1521,"à¾·à¾±à¼ĭ":1522,"à¾²à¾Ĺà½¼":1523,"à¾Ĳà½´à¼Ķ":1524,"à½Ķà½ŀ":1525,"à½¨à½Ģ":1526,"à½¨à½ĳ":1527,"à½ĸà½ħà½ĸà½¦":1528,"à½Ģà½łà½Ħ":1529,"à¼Ĳ":1530,"à½ĺà½Ħà½Ĥ":1531,"à½Ļà½ł":1532,"à¼¨à¼ł":1533,"à¾·à¾²":1534,"à½ĳà½Ħà½¢":1535,"à½ºà¼ĭà¼Ħà¼ħà¼įà¼į":1536,"à¼¤à¼¢":1537,"à¾°à¼":1538,"à¾°à¼ĭ":1539,"à½¦à½Ħà½¦à½¢":1540,"à½Ĥà½ĳà½£":1541,"à¼¤à¼¡":1542,"à¼ĭà¼ĳà¼ĳ":1543,"à¾ĭà½¦":1544,"à½ĸà½ĳà½ĺà½¦":1545,"à¾·à¾±à½¿à¼ĭ":1546,"à½¼à¼ĭà¼Ħà¼ħà¼įà¼į":1547,"à½Ĥà½Ĥà½¦":1548,"à¾ķà½²":1549,"à¾±à½´à¼į":1550,"à¾µà½ºà¼ĭ":1551,"à½Ĺà½¥":1552,"à¾Ĥ":1553,"à½²à¼ĭà¼¼":1554,"ĭà¼ĭà¼ĭà¼ĭà¼ĭà¼ĭà¼ĭà¼ĭà¼ĭà¼ĭà¼ĭà¼ĭà¼":1555,"à¾¡à¾·à½±à¼ĭ":1556,"à½ĵà½ĵà½¦":1557,"à¾ĥà¼į":1558,"à½²à¼·à¼ĭ":1559,"à¾Ķà½¼à¼į":1560,"à¾¡à½´à¼į":1561,"à½łà½ĳà½ĵ":1562,"à½²à½¿à¼ĭ":1563,"à¾³à½¼à¼įà¼į":1564,"à¾·à½±à½²":1565,"à¼łà¼łà¼łà¼ł":1566,"à¾·à½±à½²à¼ĭ":1567,"à½£à½£":1568,"à¾±à½±":1569,"Ġà¼ĭà¼ĭà¼ĭ":1570,"à¼¥à¼¡":1571,"à½ĺà½¦à½ħà½ĵ":1572,"à¾·à½²à¼į":1573,"à½Ľà½¦":1574,"à¾Ħà¼į":1575,"à½±à½´à½¾à¼Ķ":1576,"à¾Ĳà¾²à½¼":1577,"à¾Ĵà¾±à½º":1578,"à¼¥à¼¢":1579,"à½ĺà½¦à½Ģ":1580,"à¾ĭà½Ĥ":1581,"Ġà½Ĥà½¦":1582,"à¼©à¼§":1583,"à¼¤à¼£":1584,"à¾Łà¾²à¼ĭ":1585,"à¼Įà¼Įà¼Įà¼Įà¼Įà¼Įà¼Įà¼Į":1586,"à¼¡à¼łà¼ł":1587,"à½Ĥà½¦à½ĸ":1588,"à¾¥à½´à¼ĭ":1589,"à½¦à½łà½ĺ":1590,"à½łà½¦":1591,"à¾·à¼Ķ":1592,"à½Ħà½Ķ":1593,"à½Ĥà½Łà½¦":1594,"Ġà½ĸà½Ģà½ł":1595,"à¼§à¼¦":1596,"à½¦à½ĵà½¦":1597,"Ġà¼Ĳ":1598,"à½ĵà½łà½ĳà½¦":1599,"à½ĺà½Ķà½¢":1600,"à¼©à¼¨":1601,"à½łà½Ľà½ĸ":1602,"à½ĵà½ĺà½ĺà½ģà½ł":1603,"à¾«à½º":1604,"à½¨à½ĸ":1605,"à½¼à¼ĭà¼¼":1606,"à½¦à½Ĥà½¦":1607,"à¾Ĵà¾·à½¾à¼ĭ":1608,"à¾µà¼į":1609,"à¾¡à¾²":1610,"à¾·à½¼à¼į":1611,"à½Ķà½Ĩ":1612,"à½Ĥà½¦à½Ģ":1613,"à¾±à¾Ģ":1614,"à¾±à¾±à½²":1615,"à¼ĭà¼ĳà¼į":1616,"à¾¡à¾·à¼į":1617,"Ġà¼ĭà¼ĭà¼ĭà¼ĭà¼ĭ":1618,"à¾¡à½ºà¼įà¼į":1619,"à½ķà½Ħ":1620,"à½łà½ĩà½Ĥ":1621,"à½ħà½ĳà½ĺ":1622,"ĭà¼ĭà¼ĭà¼ĭà¼ĭà¼ĭà¼ĭà¼ĭà¼ĭà¼ĭà¼ĭà¼ĭà¼ĭà¼ĭà¼ĭà¼ĭà¼ĭà¼ĭà¼ĭà¼ĭà¼ĭà¼ĭà¼ĭà¼ĭà¼ĭà¼ĭà¼ĭà¼ĭà¼ĭà¼ĭà¼ĭà¼ĭà¼ĭà¼ĭà¼ĭà¼ĭà¼ĭà¼ĭà¼ĭà¼ĭà¼ĭà¼ĭà¼ĭà¼ĭà¼ĭà¼ĭà¼ĭà¼ĭà¼ĭà¼ĭà¼ĭà¼ĭà¼ĭà¼ĭà¼ĭà¼ĭà¼ĭà¼ĭà¼ĭà¼ĭà¼ĭà¼ĭà¼ĭà¼ĭà¼":1623,"à½ķà½ĸà½¦":1624,"à½Ķà½ĸ":1625,"à½´à½¿à¼į":1626,"à½Ľà½§":1627,"à¼¦à¼¢":1628,"à¼¨à¼¨":1629,"à½Ģà½£":1630,"à½ĸà½ī":1631,"Ġà¼½":1632,"à½ĸà½¤à½ł":1633,"à½ĸà½ŀà½ĵ":1634,"à¾Łà½´à¼į":1635,"à¼§à¼¥":1636,"à¼¦à¼¡":1637,"à¾Ńà½ºà¼ĭ":1638,"à¾²à¼Ķ":1639,"à½ģà½ĵ":1640,"à½§à½ĺ":1641,"à½ĳà½ı":1642,"à½ĳà½Ķà½Ĥà½¦":1643,"à½ĸà½ħà½Ĥà½¦":1644,"à¼·à½²à¼ĭ":1645,"à¼ĭà¼ĭà¼ĭà¼ĭà¼ĭ":1646,"à½¦à½Ķà½ł":1647,"à¾±à½¾à¼ĭ":1648,"à½²à¼ĭà¼½":1649,"à½´à¼·à¼ĭ":1650,"à¾¦à¾¦à¼ĭ":1651,"à½¾à¼ĭà¼":1652,"à¾¡à¼į":1653,"µà¼":1654,"µà¼ĭ":1655,"à¾¦à¾²à½²":1656,"à½Ģà½ĺ":1657,"à½ħà½¦":1658,"à¾Łà½¾à¼į":1659,"à½£à½Ķ":1660,"à¾£à½²à¼ĭ":1661,"à½ĳà½İ":1662,"à¼¦à¼£":1663,"à¾³à½¼à¼į":1664,"à¼¦à¼¤":1665,"à½ºà¼įà¼":1666,"à½¢à½ĸà½ł":1667,"à¼¥à¼£":1668,"à½Ģà½İ":1669,"à½¨à½ī":1670,"à½ºà¼įà¼ĭ":1671,"à½ĸà½ĳà½ł":1672,"à½½à¼į":1673,"à¾¤à¾²à½¼à¼įà¼į":1674,"à¼ĭà¼ħ":1675,"à½¢à½Ķ":1676,"à½Ģà½Ģ":1677,"à¼§à¼¡":1678,"Ġà¼¡à¼¢":1679,"à½ĸà½ħà½£":1680,"Ġà½£à½¦":1681,"à¾«à½¼à¼ĭ":1682,"à½ĸà½ĳà½¦":1683,"à½±à½¼à¾ĥà¼ĭ":1684,"à¼ĭà¼Ħ":1685,"à¾¨à¾²à¼į":1686,"à½ĸà½Łà½¦":1687,"à½Łà½Ĥà½¦":1688,"à½ĺà½ĸ":1689,"à½²à¼ĭà½²":1690,"à½¤à½Ĥà½¦":1691,"à½§à½Ħ":1692,"à¼§à¼£":1693,"à¾²à½±à½²à¼į":1694,"à½ĺà½¡":1695,"à¾Ĵà½±à¼ĭ":1696,"à½ĸà½Ĩ":1697,"à½ĳà½Ħà½Ĥà½¦":1698,"à¾¨à½±":1699,"à½ĳà½Ĥà½ĸ":1700,"à½ŀà½ł":1701,"Ġà¼¡à¼ł":1702,"à¾Ĵà½¼à¼įà¼į":1703,"à½łà½¢":1704,"à½Ŀà½ł":1705,"à¾Łà½²à½¾à¼ĭ":1706,"à¾Ī":1707,"à¼§à¼¢":1708,"à¾±à¼ĭà¼ĳ":1709,"à½Ĥà½¦à½Ķà½ł":1710,"à¾Ńà½²à¼ĭ":1711,"à½¼à¼·":1712,"à¾¦à½¼à¼ĭ":1713,"à¼¨à¼©":1714,"à½¼à¼ĭà¼ĳà¼į":1715,"à¾ªà½²":1716,"Ġà½ı":1717,"à¼§à¼¤":1718,"à½ĸà½Ķ":1719,"à½¦à½¢à½ĸ":1720,"à½£à½Ģ":1721,"à½ĺà½Ĥà½£":1722,"à½łà½Ĳà½¦":1723,"à¾¡à¾·à½²":1724,"à¼Ħ":1725,"à½ĳà½Ĩ":1726,"à¾³à½´à¼įà¼į":1727,"à½¼à¼ĭà¼ĳà¼ĳà¼":1728,"à½¼à¼ĭà¼ĳà¼ĳà¼ĭ":1729,"à½Ĥà½īà½£":1730,"à½Ĵà½¢":1731,"à½Ķà½¡":1732,"à¼·à½²":1733,"à½łà½Ĥà½Ħà½¦":1734,"Ġà¼ĭà¼ĭà¼ĭà¼ĭà¼ĭà¼":1735,"à¾ĭà½¢":1736,"à½¦à½ĸà½¦":1737,"à¾¡à¾·à½ºà¼į":1738,"à¾Ĺà½¼à¼ĭ":1739,"à¼Ģà½ĸà½Ľ":1740,"à½Ĥà½ħà½£":1741,"à½ĵà½ŀ":1742,"à½Ĵà½ĵ":1743,"à¾Ĳà½ºà¼į":1744,"à¾ŀà½¾":1745,"à½»à¼į":1746,"à¾¤à¾±à½¼à¼ĭ":1747,"à¾·à½±à½´":1748,"à½±à¾Ģà¼ĭ":1749,"à¾ªà¼į":1750,"Ġà½łà½ĸ":1751,"à¾°à½´":1752,"à½łà½ĩà½¢":1753,"à¼¡à¼¡à¼¢":1754,"à½Ĩà½£":1755,"à¾©à½ºà¼įà¼į":1756,"à½ĸà½¤à½ĵ":1757,"à½īà½§":1758,"à¾²à½´à¼įà¼į":1759,"à¾łà½±à¼ĭ":1760,"à½Ĳà½¦":1761,"à½Ľà½ł":1762,"à½Ĥà½¤à½ł":1763,"à½ĳà½Ķà½łà½¦":1764,"à½Ķà½ı":1765,"Ġà½ĸà½ĳ":1766,"à¾Łà½±":1767,"à¾Ĥà¼":1768,"à¾Ĥà¼ĭ":1769,"Ġà½Ħ":1770,"à½ĸà½Ļà½Ĥà½¦":1771,"à¼ĭà¼ĭà¼ĭ":1772,"à½ĳà½Ķà½łà½Ĩ":1773,"à¾©à¾Ń":1774,"à¾©à½¼à¼ĭ":1775,"à½¦à½ŀ":1776,"à½ĵà½Ĥà½¤":1777,"à½±à½²à¼įà¼į":1778,"à½ĵà½Ķà½¦":1779,"à¼įà¼ĭà¼ĭ":1780,"à½Ĥà½ŀà½ł":1781,"à½łà½ĸà½ĸà½¦":1782,"à¼·à½¼":1783,"à¼©à¼¥":1784,"à¾µà½´à¼ĭ":1785,"à½Ĵà½¥":1786,"à¾¡à¾·à½´à¼ĭ":1787,"Ġà½łà½ķà½Ĥà½¦":1788,"à½¾à¼įà¼įà¼įà¼į":1789,"à¾²à½¼à¼Ķ":1790,"à¼įà¼ĭà¼ĭà¼ĭà¼ĭà¼ĭ":1791,"Ġà½ĺà½ļà½ĵ":1792,"à¾·à½ºà¼į":1793,"à¾¨à¾±":1794,"à¾Ļà½±":1795,"à½ĸà½¦à½ĸ":1796,"à½¡à½ı":1797,"à½ļà½ĺ":1798,"à½²à¼·":1799,"à¾¡à¾·à½¼":1800,"à½łà½ĩà½ĸ":1801,"Ġà½ĳà½ĸ":1802,"à½łà½ļà½ĸ":1803,"à½Ļà½Ĥ":1804,"à¾¶à¼":1805,"à¾¶à¼ĭ":1806,"à½Ħà½Ĩ":1807,"à½łà½ļà½¢":1808,"à¼¡à¼¢à¼ł":1809,"à¾¦à½²":1810,"à½Ĥà½¦à½Ĥ":1811,"à½Ķà½¢à½ĺ":1812,"à½ļà½¦":1813,"à½±à¼ĭà¼":1814,"à½§à½§":1815,"à¼Ģà½¨":1816,"Ġà¼¡à¼¥":1817,"à¾Ģà¼į":1818,"à¾±à½²à¼ĭà¼ĳ":1819,"à¼©à¼¢":1820,"à½ĳà½ĳà½Ħ":1821,"à½ĵà½Ģ":1822,"à¾Łà¾Ńà½¾à¼ĭ":1823,"à½łà½ĸà½Ĥà½¦":1824,"à½¡à½Ļ":1825,"à¼¡à¼¡à¼ł":1826,"à¾Ĳà¾±à¼į":1827,"à½´à¼·":1828,"à¼¡à¼¡à¼¤":1829,"à½ĵà½ħ":1830,"à¼¡à¼¡à¼£":1831,"à½§à½£":1832,"à½Ĥà½¦à½ĺ":1833,"à½¢à½ī":1834,"à½ĸà½Ļà½Ĥ":1835,"à¾¨à¾±à½²":1836,"à¼ŀ":1837,"à½ĳà½ĸà½ŀ":1838,"à½ĸà½Ģà½ĵ":1839,"à½ĵà½Ĩ":1840,"à½¼à½¿à¼į":1841,"à½²à¼įà¼":1842,"à¼ĭà¼Į":1843,"à¼¡à¼¡à¼¦":1844,"à½ĸà½Ĥà½¦":1845,"à½²à¼įà¼ĭ":1846,"à¼¡à¼¡à¼¥":1847,"à½łà½Ĩà½ĺà½¦":1848,"à½¨à½Ļ":1849,"à¼©à¼¦":1850,"à½ĸà½Ģà½łà½¦":1851,"à¾¨à½´à¼ĭ":1852,"à½ºà¼·à¼ĭ":1853,"Ġà½Ĥà½ī":1854,"à½±à¾ĥà¼ĭ":1855,"à¾ľà¼į":1856,"à½´à¼ĭà¼½":1857,"à¾©à¼įà¼į":1858,"Ġà¼¡à¼£":1859,"à¼ĭà½µà¾ĥà¼ĭ":1860,"à½Ĥà½Ĩ":1861,"à¾ĥà¼Ķ":1862,"à½ŀà½¦":1863,"à¾Ľà¼į":1864,"à½ıà½ı":1865,"à½¨à½İ":1866,"à¾¤à¾±à½²à¼į":1867,"à¼¡à¼¡à¼§":1868,"à½Ĥà½¤à½Ħ":1869,"à½ĵà½ĳà½Ħ":1870,"à½īà½¦":1871,"à¼¡à¼¡à¼¨":1872,"à¼¨à¼§":1873,"Ġà½ĸà½ŀ":1874,"à½±à½¿à¼į":1875,"à¾ļà¼į":1876,"à¼ĭà¼ŀ":1877,"à½ĳà½Ħà½Ħ":1878,"à½ħà½ĳà½ĺà½ģ":1879,"Ġà½łà½Ĥ":1880,"à¾·à½¾à¼į":1881,"Ġà¼ĭà¼ĭà¼ĭà¼ĭà¼ĭà¼ĭà¼ĭà¼ĭà¼ĭà¼ĭà¼ĭà¼ĭà¼ĭà¼ĭà¼ĭà¼ĭà¼ĭà¼":1882,"à¼©à¼£":1883,"à¾±à½¾à¼į":1884,"à¼¨à¼¢":1885,"à½ĵà½ĺà½ģà½ł":1886,"à½Īà½²":1887,"à¼¨à¼¥":1888,"à½¨à½¨":1889,"Ġà½ĵà½Ħ":1890,"à½ĳà½Ĥà½£":1891,"à¼¡à¼¤à¼ł":1892,"Ġà½ĸà½ħ":1893,"Ġà½łà½ģ":1894,"à½ĳà½ĺà½¦":1895,"à½¼à½¾à¼Ķ":1896,"Ġà½¢à½Ħ":1897,"à¾¨à¾±à½´à¼ĭ":1898,"à¼©à¼¤":1899,"à¼©à¼¡":1900,"à½łà½ĸà½ĺ":1901,"Ġà½¡à½Ħ":1902,"à¾Ĳà¼į":1903,"Ġà¼º":1904,"à¼¡à¼©à¼ł":1905,"à¼¡à¼£à¼ł":1906,"à½ĺà½¦à½£":1907,"à¼¨à¼¦":1908,"Ġà½ł":1909,"à½´à¾ĥà¼ĭ":1910,"à¾²à½±à½²à¼Ķ":1911,"à½¨à½Ĭ":1912,"à½ºà¼ĭà¼½":1913,"à½Ķà½łà½ĳ":1914,"à½Ĭà½¢":1915,"à¾¦à½ºà¼ĭ":1916,"à½ķà½Ł":1917,"à¾ªà½±":1918,"à½ĳà½ĸà½¦":1919,"à¼¨à¼¡":1920,"à½ĩà½ł":1921,"à½ĳà½ĺà½ļ":1922,"à½Ĥà½¡à½ĵ":1923,"à½ĺà½ĺà½Ĩ":1924,"à½ĺà½ĵà½ĺ":1925,"à½Łà½£":1926,"à½±à½´à½¾à¼įà¼į":1927,"Ġà¼¡à¼§":1928,"à¾Ĵà¾²à½ºà¼ĭ":1929,"à¼¨à¼¤":1930,"à½¥à½ł":1931,"à½ŀà½ĺ":1932,"Ġà¼¡à¼¦":1933,"à½ĸà½ŀà½¢":1934,"à¾²à½²à¼Ķ":1935,"à½ĺà½ĳà½Ĥ":1936,"à½Ħà½ĸà½ł":1937,"à½Ĥà½ĸà½¦":1938,"à½Ĥà½Ķà½ł":1939,"à½ĸà½Ĥà½ĳ":1940,"à½Ĭà½ĺ":1941,"à¼·à½ºà¼ĭ":1942,"à½§à½ĸ":1943,"à¼ĭà¼ĭà¼ĭà¼ĭà¼ĭà¼":1944,"à¼įà¼ĭà¼ĭà¼ĭà¼ĭà¼ĭà¼ĭà¼ĭà¼ĭà¼ĭà¼ĭà¼ĭà¼ĭà¼ĭà¼ĭà¼ĭà¼ĭà¼ĭà¼":1945,"à½ĺà½Ĳà½Ħ":1946,"Ġà¼¡à¼¤":1947,"à¼¨à¼£":1948,"à½¡à½Ħà½ĺ":1949,"à¾·à¾Ńà¼ĭ":1950,"à¾·à¾±à½¿à¼į":1951,"à½ĳà½ĵà½¦":1952,"à½ĺà½ĵà½ĸà½¦":1953,"à¾¦à¼į":1954,"à½ĵà½ĸà½¦":1955,"à½±à½²à¼Ķ":1956,"à¾¤à¾²à½²à¼ĭ":1957,"à½¢à½İ":1958,"à¾º":1959,"à¾łà½²à¼ĭ":1960,"à¾²à½²à½¾à¼ĭ":1961,"à½Ķà½¢à½¢":1962,"à½²à½¿à¼į":1963,"à½¨à½£":1964,"à½§à½ĳ":1965,"à¾±à½²à¼ĭà¼Ħà¼ħà¼įà¼į":1966,"à¼¡à¼¡à¼©":1967,"à½ĸà½ıà½Ĥ":1968,"à¼ĭà¾İ":1969,"à½Ĥà½īà½Ĥà½¦":1970,"à½¼à¼įà¼ĭà¼į":1971,"à½ħà½£":1972,"à½łà½ĸà½¦":1973,"à¼įà¼ĭà¼ĭà¼ĭà¼ĭà¼ĭà¼ĭà¼ĭà¼ĭà¼ĭà¼ĭà¼ĭà¼ĭà¼ĭà¼ĭà¼ĭà¼ĭà¼ĭà¼ĭà¼ĭà¼ĭà¼ĭà¼ĭà¼ĭà¼ĭà¼ĭà¼ĭà¼ĭà¼ĭà¼ĭà¼ĭà¼ĭà¼ĭà¼ĭà¼":1974,"à½Ķà½¢à½¦":1975,"à½ĺà½¦à½ĳà½Ķà½ł":1976,"à½¦à½ĳà½Ħ":1977,"à½¢à½ŀ":1978,"à½¤à½Ģ":1979,"à¾¡à½´à¼įà¼į":1980,"à½ĵà½ī":1981,"à½ĺà½ļà½ĵà½ĺ":1982,"à½¢à½ĸà½ı":1983,"à¾±à¼·":1984,"à½¦à½Ĩ":1985,"à¾¡à¾·à½¾à¼į":1986,"à½ħà½ĳà½Ģ":1987,"à¾Łà½ºà¼įà¼":1988,"à½±à½´à¼į":1989,"à¾Łà½ºà¼įà¼ĭ":1990,"à¾¡à½¼à¼į":1991,"à½Ķà½¦à½ĵ":1992,"à½Ĥà½ĵà½ĵ":1993,"à¼¡à¼¥à¼ł":1994,"à½£à½ŀ":1995,"à½ĸà½ŀà½ĺà½¦":1996,"à½Ĥà½ıà½ł":1997,"à¾²à½ºà¼įà¼į":1998,"à½£à½ķ":1999,"Ġà½¢à½ĸ":2000,"à½¦à½ĸà½¢":2001,"à½ĸà½ĸà½ĸà½ĸ":2002,"à¾·à½±à½²à½¿à¼ĭ":2003,"à½ĺà½¦à½¦":2004,"à½£à½ı":2005,"à½Ĭà½Ģ":2006,"à¾±à½ºà½ºà¼ĭ":2007,"à¾ĳ":2008,"à½Ķà½£à½¦":2009,"à½ĸà½¢à½ĸ":2010,"à½ĺà½¦à½¢":2011,"à¾Łà½±à¼į":2012,"Ġà¼¡à¼¡":2013,"à¼Ħà¼ħà¼ħà¼įà¼į":2014,"à½²à¼ĭà¼İ":2015,"à¾Ńà½²":2016,"à¾Ľà½²à¼ĭ":2017,"à½¼à¼ĭà¼´":2018,"à½Ķà½¢à½łà½Ĥ":2019,"Ġà¼¡à¼©":2020,"à¾·à¾²à¼ĭ":2021,"à½ĳà½Ĥà½ĵ":2022,"à¾±à¾²à½º":2023,"à¾·à½±à½²à¼Ķ":2024,"à½¦à½Ķà½¢":2025,"à¼º":2026,"à½ºà¼·":2027,"à½łà½ĸà½£":2028,"à¾Łà½¾":2029,"Ġà½Ļà½ĺ":2030,"à¾¤à¾²à½´à¼ĭ":2031,"à¾·à½±à¼į":2032,"à½Ķà½Ķ":2033,"Ġà¼¡à¼¨":2034,"à¾Īà¾Ī":2035,"à½¢à½ĸà½Ģ":2036,"à¼ĭà¼įà¼įà¼į":2037,"à½¦à½ī":2038,"à½ĳà½ĵà½ĺà½¦":2039,"à¾Ńà½¾à¼ĭ":2040,"à½Ŀà½£":2041,"à½£à½łà½ģ":2042,"Ġà½ĳà½ĺ":2043,"à½£à½ļ":2044,"à½ĸà½§":2045,"à½Ħà½¥":2046,"à½ķà½Ŀ":2047,"à½Ķà½¦à½¦":2048,"ĭà½¼à¼ĭ":2049,"à¼ĭà½¼à¼ĭ":2050,"à¾·à¾²à½±à½´à¾ĥà¼ĭ":2051,"à½Ķà½¤":2052,"à¾·à¾±à½¼à¼Ķ":2053,"à½Ľà½ĵ":2054,"à¾¨à¾¨à¼ĭ":2055,"à½ĸà½Ļà½ĳ":2056,"à½łà½Ĥà½ĸ":2057,"à½£à½ĸà½¢":2058,"à½£à½ī":2059,"Ġà¼Ħ":2060,"à½ĵà½ıà½ĵ":2061,"à½ĺà½ĳà½¦":2062,"à½ºà¼ĭà¾¾":2063,"à½ĸà½¡":2064,"à¾¥à½ºà¼ĭ":2065,"à½ķà½ĳ":2066,"à¾Ńà½¾à¼į":2067,"Ġà½ĺà½ĳ":2068,"à¾Ķà½º":2069,"à½£à½Ĩ":2070,"à¾²à½¾à¼į":2071,"à½ĸà½¦à½¦":2072,"ĭà½´":2073,"à¼ĭà½´":2074,"Ġà¼ĭà¼ĭà¼ĭà¼ĭà¼ĭà¼ĭà¼ĭà¼ĭà¼ĭà¼ĭà¼ĭà¼ĭà¼ĭà¼ĭà¼ĭà¼ĭà¼ĭà¼ĭà¼ĭà¼ĭà¼ĭà¼ĭà¼ĭà¼ĭà¼ĭà¼ĭà¼ĭà¼ĭà¼ĭà¼ĭà¼ĭà¼ĭà¼ĭà¼":2075,"à½¦à½ļ":2076,"à¼Ģà½ĺ":2077,"à½¡à½Ħà½ĳà½Ĥ":2078,"à½¢à½ĸà½łà½ĸ":2079,"à½ĸà½Łà½¢":2080,"à½¼à¼ĭà¼½":2081,"à¾¦à¾·à½±à½²à¼ĭ":2082,"à½ĸà½¦à½¢":2083,"Ġà½Ĥà½Ħ":2084,"à½±à½¼à½¾à¼ĭ":2085,"à½¢à½¥":2086,"à¾«à¼į":2087,"Ġà¼ĭà¼ĭà¼ĭà¼ĭ":2088,"à¾·à¾±à½¼à½¿à¼į":2089,"à½ºà¼ĭà¼ĳà¼":2090,"ĠĠĠĠĠĠĠĠ":2091,"à½ºà¼ĭà¼ĳà¼ĭ":2092,"à½ĳà½ĸà½ĳ":2093,"à¾·à½´à¼į":2094,"à¾·à½±à½²à¼į":2095,"à¾¦à½±à¼ĭ":2096,"à½ķà½¥":2097,"à½Ķà½ĳà½Ĥ":2098,"Ġà¼¢à¼ł":2099,"à¼·à½º":2100,"Ġà½ĺà½Ĩ":2101,"à¾Ĳà¾²à¾Ģà¼ĭ":2102,"Ġà½łà½ĩ":2103,"Ġà½§":2104,"à¾£à½±":2105,"à¾¡à½¼à¼įà¼į":2106,"à¾¡à¾·à½¼à¼ĭ":2107,"à¾Ĵà½ºà¼į":2108,"à½¨à½¥":2109,"à½´à¼ĭà¼¼":2110,"à½Ĥà½ģ":2111,"à½ĺà½ĳà½¢":2112,"Ġà½¿":2113,"à½ĸà½¢à½ĺ":2114,"à½Łà½Ĳ":2115,"à¼Įà¼Įà¼Įà¼Įà¼Įà¼Įà¼Įà¼Įà¼Įà¼Įà¼Įà¼Įà¼Įà¼Įà¼Įà¼Į":2116,"à½ºà½¾à¼ĭ":2117,"à¼ĭà¾§":2118,"à½£à½ĸà½¦":2119,"ĭà¼ĭà¼į":2120,"à¾±à½¼à¼įà¼į":2121,"à¾Ńà½±à¼į":2122,"à¼¡à¼¦à¼ł":2123,"à¾ªà½±à¼ĭ":2124,"à¾¥à½¼à¼ĭ":2125,"à½ĸà½ıà½ĸà½¦":2126,"à¾·à½»à¼ĭ":2127,"à½Ķà½ļ":2128,"à½łà½ĵ":2129,"à½£à½ģ":2130,"à½Ħà½ĵà½¦":2131,"à¾Ķà¼Ķ":2132,"à¾¡à½±à¼ĭ":2133,"à¾©à½²à¼įà¼į":2134,"à¼·à¼į":2135,"à¾¥à½´":2136,"à½Ħà½¦à½Ķ":2137,"à½¼à¼·à¼ĭ":2138,"à¼¡à¼§à¼ł":2139,"à½ĵà½¦à½¦":2140,"à¾²à¾Ńà¼į":2141,"à¾ķà½ºà¼į":2142,"à¾²à¾Ģà¼į":2143,"à¼ĭà¼ĭà¼ĭà¼":2144,"à½ĳà½¡":2145,"à½£à½Ĭ":2146,"à¼ĭà¼ĭà¼į":2147,"à½ĸà½ĵà½¦":2148,"à¾ŀà½²à¼ĭ":2149,"à½Ĥà½¦à½ĵà½¦":2150,"à¾³à½½à¼ĭ":2151,"à½Ķà½¢à½Ĥ":2152,"à¼ĭà¼ĭà¼":2153,"à½ĳà½ŀ":2154,"à½Ĥà½ĳà½Ĥ":2155,"à¾²à½´à½¾à¼ĭ":2156,"à¾ļà½±à¼ĭ":2157,"à½ıà½Ĳ":2158,"à½¦à½Ķà½¦":2159,"à½ĸà½Ļà½ĺ":2160,"Ġà½ĳà½ĸà½Ħ":2161,"à½£à½łà½ĺ":2162,"à¼¡à¼©à¼¥à¼©":2163,"à½Ħà½ĸà½¢":2164,"à½łà½£":2165,"à¾£à½±à¼ĭ":2166,"à½£à½łà½ĸ":2167,"Ġà¼ħ":2168,"à¼ĭà¼Ŀ":2169,"à½ĳà½ĳà½Ĥ":2170,"Ġà½ĸà½ħà½¦":2171,"à½£à½¡":2172,"à¾Ĳà½²":2173,"Ġà¼ĭà¼į":2174,"à½£à½¦à½¦":2175,"à¼ĭà¼Įà¼į":2176,"à½ĺà½¦à½ĵ":2177,"à¾²à¾°":2178,"à½Ĥà½¤à½Ĥ":2179,"à½Łà½ĸà½¦":2180,"à¼įà¼ĭà¼į":2181,"ĭà½ºà¼ĭ":2182,"à¼ĭà½ºà¼ĭ":2183,"à½Ĥà½Ķà½¢":2184,"à½ĳà½§":2185,"à¼Ģà½§":2186,"à½¼à¼įà¼įà¼Ħà¼ħà¼įà¼į":2187,"à¾µà½±à¼ĭ":2188,"à½ģà½ħ":2189,"à¾·à¾²à¾Ģ":2190,"à½¼à¼įà¼įà¼Ī":2191,"à½ĸà½łà½ĳ":2192,"Ġà½¦à½Ħà½¦":2193,"à¾¡à¾·à½¾à¼ĭ":2194,"à½ºà¼ĭà¼¼":2195,"ĉĉ":2196,"Ġà¼Ħà¼ħà¼į":2197,"à½ĸà½¤à½¦":2198,"à¼¡à¼¡à¼¡":2199,"à¾·à¾±à½±à¼ĭ":2200,"à¾Ĵà¼į":2201,"à¾ľà½±à½²à¼ĭ":2202,"à½£à½¦à½¢":2203,"à½ĵà½łà½ĳ":2204,"Ġà¼Ħà¼ħà¼ħà¼įà¼į":2205,"à½łà½ķà½Ĥ":2206,"à¼¡à¼¨à¼ł":2207,"Ġà½Ĥà½ĵà½¦":2208,"à¼ĭà¼įà¼Ħà¼ħà¼įà¼į":2209,"à½ĺà½ŀ":2210,"à½łà½Ľà½ł":2211,"Ġà½ĸà½ĳà½Ĥ":2212,"à½Ĥà½ĵà½Ħà½¦":2213,"à¾Łà¾Ńà½¾à¼į":2214,"à½ķà½¡":2215,"à½Ĥà½¡à½ĺ":2216,"à½²à¼ĭà¼¸":2217,"à½¨à½§":2218,"à½ħà½ł":2219,"à½¦à½¡":2220,"à½´à½¾à¼į":2221,"à¾ŀà½±à¼ĭ":2222,"à½Ĺà½Ĥ":2223,"à½łà½Ĳà½ĺà½¦":2224,"à¾²à½±à¾Ģà¼ĭ":2225,"à½ĺà½ı":2226,"à¼ĭà¼ĳà¼ĳà¼":2227,"à¾¡à¼įà¼į":2228,"à¼ĭà¼ĳà¼ĳà¼ĭ":2229,"à½¼à½¼à¼ĭ":2230,"à¾Ļà½¾à¼ĭ":2231,"à½ĺà½¦à½ĺ":2232,"à¾¶à½¾à¼ĭ":2233,"à¾¤à¾±à½´":2234,"Ġà¼¢à¼¢":2235,"à½ĺà½¤":2236,"à½¦à½¤":2237,"à¾²à½¿à¼ĭ":2238,"à¼ĭà¼ĭà¼ĭà¼ĭ":2239,"à¾Ńà½¼":2240,"à¼¡à¼łà¼¤":2241,"à½Ĥà½ħà½Ĥà½¦":2242,"à¾Ĳà½ºà¼įà¼į":2243,"à½ĸà½£à½¦":2244,"à½ĸà½Ħà½¦":2245,"à¼ĭà½µà½¾à¼ĭ":2246,"à¾¤à¾²à½ºà¼ĭ":2247,"à¾¦à¾·à½±à½²":2248,"à½ĺà½Ģ":2249,"à¾µà½²":2250,"à¼Ŀ":2251,"à¾±à½²à¼ĭà¼´":2252,"à½Ģà½ª":2253,"à½ĳà½Ħà½Ķ":2254,"Ġà½ĸà½ł":2255,"à¾·à½¼à¼Ķ":2256,"ĭà¼ĭà¼ĭà¼ĭà¼ĭà¼ĭà¼ĭà¼ĭà¼ĭà¼ĭ":2257,"à½Łà½ģ":2258,"à¿":2259,"à½ĳà½ª":2260,"à½¨à½Ķ":2261,"à¾Ĺà½ºà¼Ķ":2262,"à½ĺà½ĳà½ĸ":2263,"à½Ĥà½Łà½ĸà½¦":2264,"à½£à½łà½ĳ":2265,"à½ĺà½ĵà½¦":2266,"à½¢à½ĸà½¢":2267,"à¼¡à¼łà¼©":2268,"à½Ħà½ŀ":2269,"à¼įà¼Į":2270,"à½Ĩà½Ħà½¦":2271,"à¾°à½¿à¼ĭ":2272,"à½¼à¾ħà¼":2273,"à½¼à¾ħà¼ĭ":2274,"à½ĵà½ĵà½ĺ":2275,"à¾Ĳà½±à¼ĭ":2276,"à½´à¼ĭà¼´":2277,"à½īà½ĳ":2278,"à½Ĥà½Ļà½Ĥà½¦":2279,"à½Ĥà½Ĳ":2280,"à¼½à¼¼":2281,"Ġà½Ĥà½¦à½Ħ":2282,"Ġà½łà½ĩà½ĺ":2283,"à½łà½ļà½Ħà½¦":2284,"à½łà½Ľà½ĵ":2285,"à½Ľà½Ķ":2286,"ĠĠĠ":2287,"à½ĵà½ļ":2288,"à½ĵà½£à½¦":2289,"à¼¡à¼łà¼£":2290,"Ġà½ĺà½Ħ":2291,"à¼ĭà½Īà½º":2292,"à½Ĥà½¦à½Ķà½¢":2293,"à¼¡à¼¢à¼¨":2294,"à½±à½¾à¼įà¼į":2295,"à¼¡à¼łà¼¡":2296,"à½ĸà½¢à½łà½Ĥ":2297,"à¼¡à¼¢à¼¢":2298,"à½¦à½ģ":2299,"à½ŀà½ĳ":2300,"à½łà½ģà½Ħ":2301,"à½Ķà½ĸà½¦":2302,"à¼¡à¼¢à¼©":2303,"à¼¡à¼łà¼¢":2304,"à¼¡à¼łà¼¨":2305,"Ġà¼ĭà¼ĭà¼ĭà¼ĭà¼ĭà¼ĭ":2306,"à½Ģà½Ĥ":2307,"Ġà½ĩ":2308,"ĭà¼ĭà¼ĭà¼ĭà¼ĭà¼ĭà¼ĭà¼ĭà¼ĭ":2309,"à½ĸà½¤à½¢":2310,"à½ĸà½Ķà½ł":2311,"Ġà½Ĥà½ŀà½ĵ":2312,"à½±à½´à¾ĥà¼įà¼į":2313,"à¼¡à¼łà¼§":2314,"à¼¡à¼¢à¼§":2315,"à½ıà½ĸ":2316,"Ġà½Ĥà½ŀ":2317,"à¾¡à¾·à½²à¼į":2318,"Ġà½£à½ĺ":2319,"à½į":2320,"Ġà¼£à¼ł":2321,"à¼¡à¼łà¼¦":2322,"à¾·à¾±à½¼à¼į":2323,"à½Ĥà½ŀà½¢":2324,"à½ĸà½¦à½ĸà½¦":2325,"Ġà¼¢à¼¦":2326,"à½¦à½Ł":2327,"à½Ĥà½ļ":2328,"à¾·à¾²à½±à½´à½¾à¼ĭ":2329,"à¾ķà½²à¼įà¼į":2330,"à¾·à¾²à¾Ģà¼ĭ":2331,"à½ĵà½ĸà½¢":2332,"à½±à½¾":2333,"à½łà½ĳà½¦à½Ģ":2334,"à¾Łà½ºà¼ĭà¼ĳà¼":2335,"à¾Łà½ºà¼ĭà¼ĳà¼ĭ":2336,"ĭà¼ĭà¼ĭà¼ĭà¼ĭà¼ĭà¼ĭà¼ĭà¼ĭà¼ĭà¼ĭà¼ĭà¼ĭ":2337,"Ġà½ĳà½Ķ":2338,"à½¾à¼ĭà¼ĳ":2339,"à½Ĵà½Ĥ":2340,"Ġà¼¢à¼¤":2341,"à½Ĳà½Ģ":2342,"à¼¡à¼¢à¼£":2343,"Ġà½Ĥà½Ł":2344,"à½ĺà½Ħà½ĵ":2345,"à½ĵà½¥":2346,"à½Ĥà½łà½ĺ":2347,"à½Ľà½ĳ":2348,"à½¢à½Ħà½ĸà½ŀ":2349,"à½Ģà½łà½ĺ":2350,"à½łà½Ĳà½ĸà½¦":2351,"à¼¡à¼łà¼¥":2352,"Ġà½Ķà½¦":2353,"à½ĳà½Ħà½£":2354,"à¾¡à¾²à¼į":2355,"à½ĵà½¦à½¢":2356,"à½ĳà½ĺà½Ĥà½¦":2357,"à½¥à½Ĭ":2358,"à¾¤à¾²à½¼à¼į":2359,"à½ĺà½Ķà½ł":2360,"ĭà¼ĭà¼ĭà¼ĭà¼ĭà¼ĭ":2361,"à½Ĥà½Ģ":2362,"à½ħà½ĳà½£":2363,"à¾±à½»":2364,"à½Ħà½ģ":2365,"à¼Ķà¼":2366,"à¼¡à¼¢à¼¦":2367,"à½±à½´à¾Ĥà¼ĭ":2368,"à¼įà¼ĭà¼ĭà¼ĭ":2369,"Ġà¼Į":2370,"à¼¡à¼£à¼¥":2371,"à½Ħà½ĸà½¦":2372,"à½¢à½Ħà½Ĥ":2373,"à¾²à½±à½²à½¾à¼ĭ":2374,"à¾¦à¾·à½ºà¼ĭ":2375,"à¾Ĵà¾·à¼ĭ":2376,"à¾·à¾±à¼į":2377,"à½Ľà½ĸ":2378,"à½ļà½ĳà½Ħ":2379,"à½´à¼įà¼":2380,"à¼¡à¼¢à¼¤":2381,"à½£à½ĸà½ł":2382,"à¾¼":2383,"à½ĳà½Ħà½ĺ":2384,"à½´à¼įà¼ĭ":2385,"ĭà¼ĭà¼ĭà¼ĭà¼ĭà¼ĭà¼ĭà¼ĭà¼ĭà¼ĭà¼ĭà¼ĭà¼ĭà¼ĭà¼ĭà¼ĭ":2386,"à½ĵà½¤":2387,"à¼¡à¼¢à¼¥":2388,"à½Ģà½ı":2389,"à½ĸà½¤à½ĳà½Ķ":2390,"à¾±à½´à¼įà¼į":2391,"à½²à¼ĭà½Ī":2392,"à¼įà¼ĭà¼ĭà¼ĭà¼ĭà¼ĭà¼ĭà¼ĭà¼ĭà¼ĭà¼ĭà¼ĭà¼ĭà¼ĭà¼ĭà¼ĭà¼ĭà¼ĭà¼ĭà¼ĭà¼ĭà¼ĭà¼ĭà¼ĭà¼ĭà¼ĭà¼ĭà¼ĭà¼ĭà¼ĭà¼ĭà¼ĭà¼ĭà¼ĭà¼ĭà¼ĭà¼ĭà¼ĭà¼ĭà¼ĭà¼ĭà¼ĭà¼ĭà¼ĭà¼ĭà¼ĭà¼ĭà¼ĭà¼ĭà¼ĭà¼ĭà¼ĭà¼ĭà¼ĭà¼ĭà¼ĭà¼ĭà¼ĭà¼ĭà¼ĭà¼ĭà¼ĭà¼ĭà¼ĭà¼ĭà¼ĭà¼":2393,"à¾ŀà¼į":2394,"à¾ŀà¾ŀà¼ĭ":2395,"Ġà½Ĥà½¤":2396,"à¾²à½±à½¾à¼ĭ":2397,"à½ĸà½¢à½ĵ":2398,"Ġà¼¢à¼¥":2399,"à½Įà½ł":2400,"à½ĵà½łà½ĺ":2401,"à½¢à½¡":2402,"à½£à½¦à½Ģ":2403,"à½Ĺà½ĸ":2404,"à½²à¼ĭà¼Ĳ":2405,"à½Ħà½Ģ":2406,"à¼Ķà¼ĭ":2407,"à¾ºà¼":2408,"à¾ºà¼ĭ":2409,"à¾Ķà½¼à¼Ķ":2410,"à¾·à¾Ń":2411,"à¼įà¼Ħà¼ħ":2412,"à¾¤à¼į":2413,"à½ĵà½ĺà½Ĩ":2414,"à½Ķà½ª":2415,"à¼·à½¼à¼ĭ":2416,"à½İà½¦":2417,"à½Ļà½£":2418,"à½ĸà½Ķà½¢":2419,"à½ĸà½ĳà½Ĥà½ī":2420,"à¼¡à¼£à¼©":2421,"à½Ķà½ĵà½¦":2422,"à¼ĭà¼½à¼¼":2423,"à½ĸà½Ĥà½ĺ":2424,"Ġà½Ĥà½ı":2425,"à¼¡à¼¢à¼¡":2426,"à¼¡à¼¤à¼¥":2427,"Ġà¼¢à¼£":2428,"à½ĳà½ĺà½ĳ":2429,"à½Ģà½ĳ":2430,"à¾³à½±à¼ĭ":2431,"à½ĳà½Ĥà½łà½ĸ":2432,"à½ķà½ħ":2433,"à¾¨à¾±à½º":2434,"ĭà¼ĭà¼ĭà¼ĭà¼ĭà¼ĭà¼ĭ":2435,"à½²à¼ĭà¼Ī":2436,"à½ĳà½Ĥà½ī":2437,"à½±à¼ĭà¼ĳ":2438,"Ġà¼¢à¼©":2439,"à½Ħà½¤":2440,"à½²à¼ĭà¼Ħà¼ħà¼į":2441,"à½Ľà½¢":2442,"à¾ªà½²à¼ĭ":2443,"à¾ľà½ºà¼ĭ":2444,"à½ĺà½Ł":2445,"à¾©à½±à¼ĭ":2446,"à¾ķà¼":2447,"à¾ķà¼ĭ":2448,"à¾£à½´à¼ĭ":2449,"à½łà½ļà½Ĥ":2450,"à¾·à¾±à½±à½¾à¼į":2451,"Ġà¼Ħà¼įà¼į":2452,"à¼¡à¼¤à¼¤":2453,"à½¼à¼ĭà¼Ī":2454,"à½ºà½¿à¼ĭ":2455,"à¼¡à¼¤à¼¢":2456,"Ġà½Ļ":2457,"à½¼à¼įà¼ĭà¼ĭà¼ĭà¼ĭà¼ĭ":2458,"à¾¦à¾·à½º":2459,"à¾·à¼ĭà¼":2460,"à½łà½ł":2461,"à¾Ĵà¾±à½´à¼ĭà¼Ħà¼ħà¼įà¼į":2462,"à½ºà¼ĭà¼´":2463,"ĭà¼ĭà¼ĭà¼ĭà¼ĭà¼ĭà¼ĭà¼ĭà¼ĭà¼ĭà¼ĭ":2464,"à¾±à½¿à¼ĭ":2465,"à¾±à½¿à¼į":2466,"à¾¦à¾·à½²à¼ĭ":2467,"à½¡à½ĵà½£à½Ĥ":2468,"à½ĳà½Ĩà½Ĥà½¦":2469,"à¾¡à¾·à½¼à¾ħ":2470,"à¾Ńà¼įà¼į":2471,"à½¼à¼įà¼Ħà¼ħà¼įà¼į":2472,"Ġà½ĳà½Ģ":2473,"à½£à½ĺà½Ħ":2474,"à¾£à¾²à½¼":2475,"à½ĵà½ģ":2476,"Ġà¼¼à¼½":2477,"à½ĺà½ĺà½Ĳ":2478,"à½Ķà½Ĳà½ĺà½¦":2479,"à¼ĭà¾¾à¼įà¼į":2480,"à½ĸà½Ĳ":2481,"à¼¡à¼¥à¼¨":2482,"à¼¡à¼¥à¼¤":2483,"à½ĺà½īà½ĺà½¦":2484,"à¾Łà½¼à¼į":2485,"à¼¡à¼£à¼¤":2486,"Ġà½Ĥà½ħ":2487,"à¾Ħà½¿à¼ĭ":2488,"à½ĸà½ħà½ĵ":2489,"à½²à¼įà¼įà¼į":2490,"à¼¡à¼¦à¼¨":2491,"Ġà¼¢à¼§":2492,"à¼¡à¼¤à¼©":2493,"à¾ªà½ºà¼ĭ":2494,"à¾Łà¼Ķ":2495,"à¼¡à¼¥à¼¥":2496,"à¼¡à¼¤à¼£":2497,"à¼¡à¼£à¼£":2498,"à½¼à¼µ":2499,"à¼¡à¼£à¼¨":2500,"à½ĸà½ĳà½Ķ":2501,"à¾Łà½±à½¾à¼į":2502,"à¾Łà¾²à½²à¼ĭ":2503,"à½Ļà½ĸ":2504,"à½Ĭà½¦":2505,"à½Ĥà½Ļà½Ĥ":2506,"à½²à½²":2507,"ĭà¼ĭà¼ĭà¼ĭà¼ĭà¼ĭà¼ĭà¼ĭà¼ĭà¼ĭà¼ĭà¼ĭ":2508,"à½ħà½ĳà½ĵ":2509,"à½ıà½£":2510,"à¼¡à¼£à¼¦":2511,"à¼¡à¼£à¼§":2512,"à¼¡à¼£à¼¢":2513,"à¼¡à¼¤à¼¨":2514,"à¼¡à¼¥à¼¦":2515,"à½ĸà½ıà½ĳ":2516,"à½Ĥà½¦à½Ħà½¦":2517,"Ġà¼İ":2518,"à¾±à½¼à¼į":2519,"à½ĸà½ĳà½ĳ":2520,"à½ºà¼įà¼įà¼į":2521,"à½ºà¼ĭà¼İ":2522,"à¾³à¼Ķ":2523,"à¾¨à½±à½¿à¼ĭ":2524,"à¼¢à¼łà¼¡à¼¡":2525,"à½¡à½İ":2526,"à½Ķà½¢à½¤":2527,"Ġà½Ĳà½ĺà½¦":2528,"à½ħà½Ĳ":2529,"à½Ĥà½Ħà½Ĥ":2530,"Ġà¼įà¼":2531,"à½Ĥà½ħà½¢":2532,"à½Ķà½ķ":2533,"à¾Ĺà½²à¼ĭ":2534,"à½Ģà½ī":2535,"à½¢à½ĳà½Ħ":2536,"Ġà¼įà¼ĭ":2537,"à¾±à½²à¼ĭà¼¼":2538,"à¼¡à¼¤à¼¦":2539,"à½Ĥà½Ĥà½¡":2540,"à½Ĥà½ķ":2541,"à¼¢à¼¢à¼¢":2542,"à½±à½ºà¼ĭ":2543,"à½Ģà½¤":2544,"à¾³à¾Ģà¼ĭ":2545,"à¾©à½´à¼ĭ":2546,"à¾¦à¾±à½²à¼ĭ":2547,"à½¦à½Ĳ":2548,"à¼¡à¼¥à¼©":2549,"à½Ħà½¦à½ĺ":2550,"à½Ķà½ģ":2551,"Ġà¼ĭà¼ĭà¼ĭà¼ĭà¼ĭà¼ĭà¼ĭà¼ĭà¼ĭà¼ĭà¼ĭà¼ĭà¼ĭà¼ĭà¼ĭà¼ĭà¼ĭà¼ĭà¼ĭà¼ĭà¼ĭà¼ĭà¼ĭà¼ĭà¼ĭà¼ĭà¼ĭà¼ĭà¼ĭà¼ĭà¼ĭà¼ĭà¼ĭà¼ĭà¼ĭà¼ĭà¼ĭà¼ĭà¼ĭà¼ĭà¼ĭà¼ĭà¼ĭà¼ĭà¼ĭà¼ĭà¼ĭà¼ĭà¼ĭà¼ĭà¼ĭà¼ĭà¼ĭà¼ĭà¼ĭà¼ĭà¼ĭà¼ĭà¼ĭà¼ĭà¼ĭà¼ĭà¼ĭà¼ĭà¼ĭà¼":2552,"à½ĵà½ķ":2553,"à½ĳà½£à½¦":2554,"à¾¤à½±à¼ĭ":2555,"ĭà¼ĭà¼ĭà¼ĭà¼ĭà¼ĭà¼ĭà¼ĭà¼ĭà¼ĭà¼ĭà¼ĭà¼ĭà¼ĭ":2556,"à¼¡à¼¤à¼§":2557,"à¼¡à¼§à¼¨":2558,"à¼¡à¼¥à¼§":2559,"à½ĸà½¢à½Ĥ":2560,"à½Ĩà½łà½ĺ":2561,"à¼ĭà¼·":2562,"à½²à¼µà¼ĭ":2563,"à½ĵà½ĳà½Ĥ":2564,"à¾±à½ºà¼Ķ":2565,"à¼¡à¼§à¼§":2566,"à¼¡à¼¦à¼§":2567,"à½¦à½Ļ":2568,"à¼£à¼łà¼ł":2569,"à¾±à¼ĭà¼İ":2570,"à½łà½Ľà½Ħà½¦":2571,"à¾²à¼·":2572,"à½±à¾Ģà¼į":2573,"à¼łà¼łà¼łà¼¡":2574,"à¼¡à¼©à¼¥":2575,"à¼¡à¼¨à¼©":2576,"à½Ķà½¦à½¢":2577,"à¼łà¼łà¼łà¼łà¼łà¼łà¼łà¼ł":2578,"à½Ĥà½łà½Ħ":2579,"à½Ĺà½Ĩ":2580,"à½ĸà½ĳà½ĺ":2581,"à½Ĺà½ĵ":2582,"à½ĸà½ļ":2583,"à¾·à½²à¼Ķ":2584,"à½Ĥà½ĳà½¢":2585,"à¾Łà½¿à¼ĭ":2586,"à½£à½¦à½ĺ":2587,"à¾¦à¾±à½¼à¼ĭ":2588,"à¾Ľà½±à¼ĭ":2589,"à¾±à½±à¼į":2590,"à½¦à½łà½ĳ":2591,"à½¢à½ļ":2592,"Ġà¼¢à¼¨":2593,"à½ĸà½¦à½ĺà½Ĥà½ıà½ĵ":2594,"Ġà½Łà½ĸ":2595,"à¼¢à¼¢à¼ł":2596,"à¾¡à¾·à½º":2597,"à½ĸà½Ģà½ĳ":2598,"à½Ķà½¦à½ĳ":2599,"à¼½à¼į":2600,"à¾¤à½ºà¼į":2601,"à¾²à½»à¼ĭ":2602,"à½ĸà½ª":2603,"à½ĸà½ĸà½¢":2604,"à½£à½¤":2605,"à½Ħà½Ĥà½¦":2606,"à½ĸà½ħà½ĸ":2607,"à¼¡à¼©à¼¢":2608,"à½ĸà½ĸà½ŀ":2609,"à¼¡à¼¤à¼¡":2610,"à½ĸà½ĳà½Ĥà½Ĥ":2611,"à½£à½ĵà½¦":2612,"à½ĺà½ħ":2613,"à¼¡à¼¦à¼¢":2614,"à½ĳà½ĳà½Ķ":2615,"à½£à½ĳà½Ħ":2616,"à¾°à¼į":2617,"à¼ĭà¼¹à¾Ģà¼ĭ":2618,"à¼Ħà¼įà¼į":2619,"à¼ħà¼į":2620,"à¼¡à¼©à¼§":2621,"à¼¡à¼©à¼©à¼©":2622,"à¼¡à¼§à¼¢":2623,"à¾Łà½¿à¼į":2624,"à½ĸà½ŀà½Ĥà½¦":2625,"à¾Ĳà¾±à½¼à¼įà¼į":2626,"à½łà½ķà½ĺ":2627,"à¼¡à¼§à¼©":2628,"à¾Ĺà¼":2629,"à¾Ĺà¼ĭ":2630,"à¼¡à¼¦à¼¤":2631,"à½£à½ĺà½Ĩ":2632,"à½ķà½Ĥà½¦":2633,"à½łà½Ľà½¢":2634,"à½ĳà½Ħà½ĸà½ħà½¦":2635,"à½£à½£à½¦":2636,"à¾±à½²à¼ĭà½²":2637,"à½ıà½Ģ":2638,"à¼¡à¼¦à¼¥":2639,"à¾Ľà½²":2640,"à¾¡à¾·à½±":2641,"à½łà½Ħà½¦":2642,"à½£à½ĺà½ģà½¦":2643,"à¼¡à¼©à¼£":2644,"à¼Įà¼Įà¼Į":2645,"à½ĺà½ĸà½¢":2646,"à½ĳà½Ķà½ĳ":2647,"à¼¡à¼£à¼¡":2648,"à½ĸà½ģ":2649,"à¾²à¾±à½²":2650,"à¼¡à¼©à¼¦":2651,"à¼¡à¼¦à¼©":2652,"à½ĺà½ļà½ĵà½ī":2653,"à¼¡à¼¦à¼£":2654,"à¼¡à¼§à¼¥":2655,"à½ĸà½¤à½Ĥ":2656,"à¾·à¾±à½¼à½¿à¼Ķ":2657,"Ġà½ĺà½Ĳ":2658,"à½ĳà½ĸà½Ĥ":2659,"à½Ķà½Ĳ":2660,"à½Ħà½¦à½Ķà½ł":2661,"à½Ħà½ĳà½Ħ":2662,"à½Ķà½ĸà½ŀ":2663,"à¾łà¼į":2664,"à½¼à¼ĭà¼Ĳ":2665,"Ġà¼ħà¼įà¼į":2666,"à½ĸà½ķ":2667,"à½Ķà½ĸà½¢":2668,"à½ĳà½ĺà½Ħ":2669,"à¼¡à¼§à¼¡":2670,"à½łà½Ľà½Ĥà½¦":2671,"à¼¢à¼łà¼łà¼©":2672,"à½ĺà½Ĩà½ĳ":2673,"à¼¢à¼¡à¼¨":2674,"à½Ħà½¦à½¢":2675,"à½ĸà½ĺà½¦":2676,"à¾Ĵà¾±à½ºà¼ĭ":2677,"à¼¢à¼łà¼¡à¼ł":2678,"à½ĸà½łà½Ĥ":2679,"à¼¡à¼¦à¼¦":2680,"à¼įà¼Ħà¼ħà¼į":2681,"à¼¢à¼łà¼łà¼ł":2682,"à½Ĥà½¦à½ł":2683,"à½¢à½łà½ĳ":2684,"Ġà¼łà¼łà¼ł":2685,"à¼¡à¼©à¼¤":2686,"à½²à½²à¼ĭ":2687,"à½¢à½ħ":2688,"à¼ĭà¼ĳà¼ĭà¼ĳà¼ĭ":2689,"à½Ĵà½ĳ":2690,"à¾©à¾±à½²":2691,"à¾¥à½º":2692,"à½Ĺà½¢":2693,"à½ĳà½Ħà½ĵ":2694,"à¾·à¾±à½±":2695,"à¾¨à¾±à½²à¼ĭ":2696,"à½¼à¼įà¼Ī":2697,"à½Ķà½¢à½ĸà½¦":2698,"à½ĵà½Ĳ":2699,"à¾¾à¾¾":2700,"à½ıà½Ķ":2701,"à½£à½ĺà½Ĥ":2702,"à½±à½¼":2703,"à½ĸà½Ĥà½Ħ":2704,"à¼ĭà¼ŀà¼į":2705,"à¼¡à¼¦à¼¡":2706,"à½Ļà½¦":2707,"à½ħà½ĵà½¢":2708,"à¾¡à¾·à½¿à¼ĭ":2709,"à½£à½Ĥà½ĵà½¦":2710,"à½Ĩà½łà½Ħ":2711,"Ġà½ĺà½Ĥ":2712,"à½ĸà½ĳà½ĵ":2713,"à¼¡à¼¥à¼£":2714,"à½ºà¼ĭà½Īà½²":2715,"à½łà½ĳà½£":2716,"à½¦à½ķ":2717,"à½Ķà½¡à½Ħ":2718,"à¾Łà½´à¼įà¼į":2719,"à½łà½Ĳà½ĺ":2720,"à½Ĥà½łà½ĳ":2721,"à½Ķà½Ĥà½Ħ":2722,"à½±à½¿à¼įà¼į":2723,"à½½à¼įà¼į":2724,"à½¢à½ĵà½¦":2725,"à½Ķà½¦à½ĺ":2726,"à¼¢à¼¡à¼¡":2727,"à¼¡à¼§à¼¦":2728,"à½¡à½ŀ":2729,"à½ĵà½ĳà½ĺ":2730,"à½¢à½Ķà½ł":2731,"à½İà½¢":2732,"à½ĳà½Ĥà½ħ":2733,"à½¢à½¤":2734,"à½Ħà½ī":2735,"à½ĳà½¤":2736,"à¾°à½´à¾ĥà¼Ķ":2737,"à¼ĭà¼ĳà¼ĭà¼ĳ":2738,"à¾¤à½²à¼ĭ":2739,"à½¦à½ħà½ĵ":2740,"à½Ĺà½Ļ":2741,"à¾Ĳà¼įà¼į":2742,"à½Ĥà½¤à½¢":2743,"à¼¢à¼¡à¼ł":2744,"à½łà½ģà½£":2745,"à¾·à¾£à½±":2746,"à¼ĭà¼¹à¼":2747,"à¾Łà¾Ńà¼ĭ":2748,"à¼ĭà¼¹à¼ĭ":2749,"à½¾à½¿à¼ĭ":2750,"à½Īà¾±à½²":2751,"à¼¢à¼¡à¼¤":2752,"à¾Łà½±à½²à¼ĭ":2753,"à½łà½ī":2754,"à½ºà¼ĭà½²":2755,"à¾´à½²à¼ĭ":2756,"à½ĵà½¦à½ĳ":2757,"à½ĸà½¢à½¦":2758,"à½ĸà½Ļà½ĺà½¦":2759,"à½´à¼ĭà¼Ĳ":2760,"à¾Ļà½¼à¼ĭ":2761,"à½£à½¦à½ĸ":2762,"à½Ħà½¦à½ĵà½¦":2763,"à¼¡à¼©à¼¡":2764,"à½ĳà½Ļ":2765,"à½Ĥà½ĵà½¦à½¦":2766,"à½Ĥà½¡à½£":2767,"à¾°à½´à½¾à¼ĭ":2768,"à½Ĥà½ŀà½ĵà½¡à½Ħ":2769,"à½ĵà½łà½Ĥ":2770,"à½±à½²à½¿à¼ĭ":2771,"à½ļà½ĳà½ĺ":2772,"à½łà½Ķ":2773,"à¾¨à½²à¼į":2774,"à¾ķà½²à¼į":2775,"à½±à½¼à¼ĭ":2776,"à½ĳà½Ĥà½Ķà½¢":2777,"Ġà½Ĥà½Ħà½¦":2778,"à¼¡à¼§à¼¤":2779,"à¼ĭà½Īà½¼":2780,"Ġà½łà½ķ":2781,"à¾·à¾±à¼Ķ":2782,"à½łà½Ģ":2783,"à½Ķà½ħ":2784,"à½Įà½¢":2785,"à¾ļà½±":2786,"à¾²à¾°à½²à¼ĭ":2787,"à¼ĭà¾¾à¼į":2788,"à¾¡à¾²à½²à¼ĭ":2789,"à½Ŀà½Ģ":2790,"à¼¡à¼¨à¼¢":2791,"ĭà¼ĭà¼ĭà¼ĭà¼ĭà¼ĭà¼ĭà¼ĭà¼ĭà¼ĭà¼ĭà¼ĭà¼ĭà¼ĭà¼ĭ":2792,"à¼¢à¼łà¼¦":2793,"à½ĸà½İ":2794,"à½¤à½ı":2795,"à½ĳà½Ĥà½Ķ":2796,"à¼¢à¼¥à¼ł":2797,"à½Ħà½ħ":2798,"à¼¡à¼¥à¼¢":2799,"à½Ĥà½ıà½Ĥà½¦":2800,"à¼¢à¼¢à¼¥":2801,"à¼¡à¼§à¼£":2802,"à¾ľà½²à¼į":2803,"à½Ķà½Ĥà½ī":2804,"à½ĸà½ĸà½ĸ":2805,"à½¦à½ĳà½¦":2806,"à½Ĥà½ħà½ĺ":2807,"à¾«à½²à¼į":2808,"à¼¢à¼łà¼¢":2809,"à¼Ģà½Ĥ":2810,"à½§à½§à½§à½§":2811,"à½ĸà½¦à½Ģ":2812,"à¾Ķà¼ĭà¼":2813,"à¼Ģà½ĵ":2814,"à½Ķà½łà½ĸ":2815,"à½łà½ĸà½Ħ":2816,"à¾ŀà½±à½²à¼ĭ":2817,"Ġà½ļà½ĳ":2818,"à¼¢à¼łà¼§":2819,"à¼¢à¼łà¼©":2820,"à½¡à½Ķ":2821,"à½¼à¼įà¼½":2822,"à¾µà½¼à¼ĭ":2823,"à½´à¼ĭà¼¸":2824,"à¾²à½²à½¿à¼ĭ":2825,"à½Ķà½Ĭ":2826,"à¼ĭà¼ĭà¼ĭà¼ĭà¼ĭà¼ĭà¼ĭà¼ĭà¼ĭà¼ĭà¼ĭà¼ĭà¼ĭà¼ĭà¼ĭà¼ĭà¼ĭà¼":2827,"à½¡à½Ľ":2828,"à¼¢à¼łà¼¡":2829,"à½ĳà½ķ":2830,"à½Ķà½łà½Ĥ":2831,"à¾Ĳà½¼à¼į":2832,"à½Ĥà½¦à½ĳà½Ħ":2833,"à¾·à½²à½¿à¼į":2834,"à½Ĥà½Ħà½£":2835,"à¼¢à¼łà¼¥":2836,"à¼łà¼¤":2837,"à½Ķà½¢à½ĳà½Ĥ":2838,"à¾¤à½´à¼į":2839,"à¼¢à¼łà¼¤":2840,"Ġà½Ĥà½Ļà½Ħ":2841,"à¼¢à¼¢à¼¡":2842,"à½ĵà½¡à½Ħ":2843,"à½ĵà½Ļ":2844,"à½ĺà½łà½ĳ":2845,"à½²à¼ĭà½¼":2846,"à¼¢à¼¢à¼¤":2847,"à¾Łà¾²":2848,"Ġà½ħà½ĵ":2849,"à½ĳà½Ł":2850,"à¼¢à¼łà¼łà¼¨":2851,"à½Ĳà½ĳà½ĳ":2852,"à½±à¼ĭà¼Ħà¼ħà¼įà¼į":2853,"à½ĳà½ģ":2854,"à¼ĭà¼įà¼½":2855,"à¼ĭà¼¹à½²à¼ĭ":2856,"à½ĳà½Ħà½ĸ":2857,"à½²à¼µ":2858,"à½Ĥà½¦à½Ķà½¦":2859,"à¾¨à½»à¼ĭ":2860,"à½Ĥà½Ħà½ŀ":2861,"à¼¢à¼¡à¼¢":2862,"à¾£à½ºà¼į":2863,"à¼Ģà½¦à½¢":2864,"à¾ľà½±à¼ĭ":2865,"à¼¢à¼¢à¼¦":2866,"à¾¨à½±à¼į":2867,"à½Ķà½Ļ":2868,"à¼¡à¼¨à¼¨":2869,"à¼¢à¼łà¼¡à¼£":2870,"à¾Łà¾¡à½¼":2871,"à¾¨à¾²à¾Ģà¼ĭ":2872,"à½£à½Ĥà½¦à½¦":2873,"à½ħà½ĺ":2874,"à¼įà¼įà¼Ħà¼ħà¼įà¼į":2875,"à¼¢à¼łà¼łà¼¦":2876,"à¼¡à¼¨à¼§":2877,"Ġà½ĸà½¦à½ĺ":2878,"à½£à½¦à½ĵ":2879,"à½Ħà½¦à½ĵ":2880,"ĭà½¾":2881,"à¼ĭà½¾":2882,"à½ĺà½ĸà½¦":2883,"à¼¢à¼¢à¼§":2884,"à¾¦à¾²à½¼":2885,"à¾Ĵà¾±à½´à¼Ķ":2886,"à½ĵà½¦à½ĵ":2887,"à¼¢à¼¡à¼¦":2888,"à¼¡à¼¨à¼¥":2889,"ĭà¼ĭà¼ĭà¼ĭà¼ĭ":2890,"à¼¢à¼¡à¼§":2891,"à¾¨à¾²à½º":2892,"à½Ķà½¢à½Ħ":2893,"à¼¡à¼©à¼¨à¼©":2894,"à½ĳà½ĳà½ĺ":2895,"à¼Ģà½ĸ":2896,"à¼łà¼§":2897,"à¾¦à¾·à½¼à¼ĭ":2898,"à¼¡à¼¨à¼¤":2899,"à½ĸà½ĳà½Ĥà½ĺ":2900,"Ġà¼ĭà¼ĭà¼ĭà¼ĭà¼ĭà¼ĭà¼ĭ":2901,"Ġà¼¢à¼¡":2902,"à¾Ĵà½²à¼ĭ":2903,"à½ģà½ģ":2904,"à½¦à½¨":2905,"à¾·à½²à¼ĭà¼´":2906,"à¾¨à¾²à½²à¼ĭ":2907,"à¼ĭà¼ħà¼įà¼į":2908,"à½¾à¼ĭà¼´":2909,"à¾Ĵà¾±à¼ĭà¼Ħà¼ħà¼įà¼į":2910,"à¾±à½»à¼į":2911,"Ġà½ĺà½ģà½ł":2912,"à¾¨à¾±à¼ĭ":2913,"à½´à¼ĭà½²":2914,"à½²à¼ĭà½º":2915,"à½£à½¡à½Ħ":2916,"à¼¡à¼¥à¼¡":2917,"à½Ķà½ħà½ĵ":2918,"Ġà½ĺà½ļ":2919,"à½ĳà½Ģà½ª":2920,"à½ĸà½Łà½ĸà½¦":2921,"à½Ĥà½Ŀ":2922,"à¾¦à¾·à¼į":2923,"à¾Łà½±à½¾à¼ĭ":2924,"à½Ĳà½ĺà½¦à½ħ":2925,"à½Ĥà½£à½¦":2926,"à¼ĭà¼ĭà¼Ħà¼ħà¼įà¼į":2927,"à½²à½¿à¼įà¼į":2928,"à¾Łà½²à¼įà¼į":2929,"à½´à¼ĭà¼Ħà¼ħà¼į":2930,"à¾Ļà½ºà¼į":2931,"à½ĵà½¦à½Ħà½¦":2932,"à¼¢à¼łà¼¡à¼¢":2933,"à¼¢à¼£à¼ł":2934,"à½ĸà½ĩ":2935,"à½Ĺà½¡":2936,"à¼¢à¼łà¼¨":2937,"à¼įà¼įà¼":2938,"à¾£à½²":2939,"à¾Ĵà¾·":2940,"à½£à½¦à½£":2941,"à¾ŀà¾ŀ":2942,"à½Ľà½Ľ":2943,"à¾·à½¼à¼įà¼į":2944,"à¼¢à¼¢à¼¨":2945,"à¼¢à¼łà¼£":2946,"à½¢à½ģ":2947,"à¼Ģà½¦":2948,"à½ĵà½ĸà½ł":2949,"à¼¡à¼¨à¼¦":2950,"à¾£à¼įà¼į":2951,"à¾»à½±à¼ĭ":2952,"à½£à½¨":2953,"à½Ĥà½ĸà½¢":2954,"à¾¨à¼įà¼į":2955,"à¾İ":2956,"à½Ĥà½£à½ı":2957,"à¼¢à¼¡à¼©":2958,"à½¡à½Ħà½ĵ":2959,"à½²à¼ĭà¼º":2960,"à½´à¼µ":2961,"à¾ļà½²":2962,"à½¨à½Ľ":2963,"à½¥à½¢":2964,"à½ĳà½ļ":2965,"à½łà½Ļ":2966,"à¼įà¼įà¼ĭ":2967,"à¾·à¾£":2968,"à½±à½´à¾Ĥ":2969,"à½Īà½¼":2970,"à½»à½¾à¼ĭ":2971,"à½´à¼µà¼ĭ":2972,"à¾Ńà¾°":2973,"à¼¢à¼¡à¼¥":2974,"à½ģà½¤":2975,"à½ĳà½ĺà½Ĩ":2976,"à¼Ģà½¤":2977,"à½¼à¼ĭà¼":2978,"à½ģà½łà½ĺ":2979,"à¼¡à¼¨à¼£":2980,"à¼¢à¼¤à¼ł":2981,"à¼¥à¼łà¼ł":2982,"à¾Łà¾²à½±à½²à¼ĭ":2983,"à¾ļà½²à½¾à¼ĭ":2984,"à½±à½´à¾ĥà½¿à¼ĭ":2985,"à¼¡à¼©à¼¨à¼¥":2986,"à½ĳà½ī":2987,"à½ĺà½¦à½Ķ":2988,"à½Ħà½ĵà½£à½¦":2989,"à½£à½Ĳ":2990,"à¾°à½´à¾ĥà¼į":2991,"à½ĸà½¢à½ĳ":2992,"Ġà½Ŀ":2993,"à¾±à¼ĭà¼Ħà¼ħà¼įà¼į":2994,"à½¼à¼įà¼įà¼":2995,"à½ĺà½Ľà½ĳà½Ķ":2996,"à½Įà½Ģ":2997,"à¾Ĳà¾±à½ºà¼Ķ":2998,"à¼¢à¼łà¼¡à¼¥":2999,"à¼¢à¼¢à¼©":3000,"ĭà¾±":3001,"à¼ĭà¾±":3002,"à½£à½Ĥà½ī":3003,"à¼ĭà¼Ħà¼įà¼į":3004,"à¼¡à¼¨à¼¡":3005,"à½¨à½¡":3006,"à½ĵà½¦à½ĺ":3007,"à½Ĳà½Ĳ":3008,"à¼ĭà¼ĭà¼ĭà¼į":3009,"à¼¢à¼¡à¼£":3010,"à½ĳà½ĸà½łà½¦":3011,"à½¨à½İà½ł":3012,"à½ĺà½ĸà½Ģà½ł":3013,"à¼łà¼¦":3014,"à½¼à½¼":3015,"à¼ĭà¼Ŀà¼į":3016,"à½£à½ĺà½ļà½ĵ":3017,"à½Ĥà½¦à½ŀ":3018,"à½ºà¼µ":3019,"à½Ŀà½ĺ":3020,"à½¡à½§":3021,"à¼¡à¼©à¼©à¼ł":3022,"à½ĺà½¦à½ĳà½Ħ":3023,"à½ħà½ĵà½Ĥ":3024,"à¼įà¼Įà¼Įà¼Į":3025,"à½Ĺà½ĵà½¡":3026,"à¼¡à¼©à¼¨à¼§":3027,"à¾·à½¼à¼įà¼įà¼įà¼į":3028,"à½Ħà½¡":3029,"à¼ĳà¼":3030,"à¼ĳà¼ĭ":3031,"à¼ĭà¼´à¼į":3032,"à½Ĥà½ħà½Ĥ":3033,"à½ĳà½łà½ĳ":3034,"à½±à¾ĥà¼į":3035,"à½¢à½łà½Ĥ":3036,"à¼¢à¼¢à¼£":3037,"à¼¢à¼łà¼¡à¼¤":3038,"à½ĸà½¢à½Ħ":3039,"à½ĵà½łà½ĸ":3040,"à½¡à½Ĥà½¦":3041,"à¼įà¼İ":3042,"à¾·à¾²à½²à¼ĭ":3043,"à½¥à½¦":3044,"à½»à½¿à¼ĭ":3045,"à½łà½ĸà½ĵ":3046,"à¼¡à¼©à¼¥à¼ł":3047,"à½²à½¾à¼į":3048,"à½Ĥà½ŀà½ĵà½£":3049,"à¾Ļà½±à¼į":3050,"à½Ĥà½Ĥà½ī":3051,"à½Ģà½ĸ":3052,"Ġà½ĸà½Ł":3053,"à¾«à½ºà¼ĭ":3054,"à½ħà½ĳà½¦":3055,"à¼¢à¼¦à¼ł":3056,"à½ĳà½Ģà½ĵ":3057,"à½£à½Ķà½ł":3058,"à½¼à¼įà¼įà¼ĭ":3059,"à½¼à¼ĭà¼ħà¼įà¼į":3060,"à½ĺà½¦à½ŀ":3061,"à½łà½ļà½£à½£":3062,"à½¦à½ĺà½Ĳ":3063,"à¾ħà¼":3064,"à¾ħà¼ĭ":3065,"à¾«à½±à¼ĭ":3066,"à½ĳà½Ĥà½łà½¦":3067,"Ġà½ĸà½Ģ":3068,"à¾£à½¼à¼įà¼į":3069,"à½¦à½łà½ĸ":3070,"à¼¡à¼©à¼¥à¼¨":3071,"à½¢à½Ĩ":3072,"à½¢à½¡à½Ħ":3073,"Ġà¼£à¼©":3074,"à¼ĭà¼įà¼ĳ":3075,"à½ĸà½Ĥà½ī":3076,"à½ĸà½ĺà½Ħ":3077,"à¾Łà¾²à¼į":3078,"à¾Ĺà½¼à¼įà¼į":3079,"à¾Īà¾Īà¾Īà¾Ī":3080,"à½Ħà½ĳà½Ĥ":3081,"à½Ĵà½«":3082,"à½ĸà½Ĳà½ĺà½¦":3083,"à½¦à½ĺà½Ħ":3084,"à½±à¾Ģ":3085,"à¼¢à¼łà¼łà¼£":3086,"à½ĵà½Ĥà½ĵà½¦":3087,"à¼£à¼łà¼¡":3088,"Ġà½Ĥà½ĳ":3089,"à¼¢à¼łà¼łà¼§":3090,"à½²à½¾":3091,"à½¦à½§":3092,"à½ĳà½ĳà½ĳ":3093,"à½ķà½Ĳà½Ĥ":3094,"Ġà¼Īà¼į":3095,"à½ĳà½ĸà½ĵ":3096,"à½ħà½ĳà½ĳ":3097,"à¾¶à½±à¼ĭ":3098,"à¼łà¼¡":3099,"à½Ŀà½ı":3100,"Ġà¼£à¼¥":3101,"à½łà½Ĥà½ĺ":3102,"à½Ĩà½Ĩ":3103,"à½ĺà½£à½¦":3104,"à¼Ļ":3105,"à¾Łà¼·":3106,"à½Ļà½ĳ":3107,"à½¼à¼įà¼¼":3108,"à½ĺà½Ĥà½¦":3109,"à¾¦à¾·à½ºà¼į":3110,"à½Ļà½ı":3111,"à¼¤à¼łà¼ł":3112,"à¾³à¼ĭà¼":3113,"à½Ĵà½¦":3114,"à¼¢à¼¦à¼¢":3115,"à½ĵà½Łà½«":3116,"à¼¢à¼łà¼łà¼¢":3117,"à½Ħà½ķ":3118,"à½¼à¼µà¼ĭ":3119,"Ġà½²à¼ĭ":3120,"à¾µà½¿à¼ĭ":3121,"à¼¢à¼£à¼¥":3122,"à¼¡à¼©à¼¨à¼ł":3123,"à½Ĥà½¢à½ĸ":3124,"à½īà½ĵà½Ĳ":3125,"à¼¢à¼£à¼¤":3126,"à½Ħà½Ĳ":3127,"à½Ĥà½īà½Ĥ":3128,"à½²à¼ĭà¼Ħà¼ħ":3129,"à½ºà¼ĭà¼Ħà¼ħà¼į":3130,"à¾Ĳà¾²à¼į":3131,"à¼¢à¼§à¼§":3132,"à½¢à½łà½ĺ":3133,"à¼¢à¼łà¼łà¼¥":3134,"à½ĵà½¦à½£":3135,"à¾Ĵà¾±à¼ĭà¼":3136,"à¼¢à¼¦à¼©":3137,"à¼¢à¼¦à¼§":3138,"à¼¢à¼¤à¼¥":3139,"à½¦à½Ĳà½ĺà½¦":3140,"à½¦à½ĳà½Ĥ":3141,"Ġà½Ķà½ĳ":3142,"Ġà¼¥à¼ł":3143,"à½¼à¼ĭà½ºà¼ĭ":3144,"à½ĸà½Ĥà½Ĥà½¦":3145,"à¾Ľà½¿à¼ĭ":3146,"à¼¢à¼¥à¼¤":3147,"à½İà½ĺ":3148,"à¼ĭà½µà¾ĥà¼į":3149,"à¼¢à¼£à¼§":3150,"à¼¢à¼¦à¼¦":3151,"à½łà½ĳà½ĺà½¦":3152,"à½ĳà½Ĥà½ĺ":3153,"à½ĵà½¨":3154,"à¼¢à¼¦à¼¥":3155,"Ġà½ĳà½Ĥà½ł":3156,"à¼¡à¼©à¼©à¼¢":3157,"à½ĩà½ĺ":3158,"à¼¢à¼£à¼¨":3159,"à½ĸà½¢à½Ĥà½¦":3160,"à¾ļà½²à¼į":3161,"à½ĩà½¢":3162,"Ġà¼£à¼¦":3163,"à¼¢à¼£à¼¦":3164,"ĭà½´à¼ĭ":3165,"à¼ĭà½´à¼ĭ":3166,"à½Ĥà½ŀà½ĵà½ĺ":3167,"à¼¢à¼¥à¼¦":3168,"à¼¢à¼§à¼¥":3169,"à¾ķà½ºà¼įà¼į":3170,"Ġà½ĵà½ĺ":3171,"à½ļà½ĺà½¦":3172,"à¾·à½¿à¼ĭ":3173,"à¾±à½±à½¾à¼į":3174,"à¾Ķà¼ĭà¼Ħà¼ħà¼įà¼į":3175,"à¼¢à¼¤à¼¦":3176,"à¾¨à½ºà¼į":3177,"à¼¢à¼¥à¼§":3178,"à½Ģà½Ļ":3179,"à¼¢à¼¤à¼§":3180,"Ġà½ĺà½ģà½¦":3181,"à¼¢à¼¦à¼¤":3182,"à¾µà¼Ķ":3183,"à½ľ":3184,"à½Ĥà½ŀà½ĵà½Ĥ":3185,"Ġà½łà½Ľ":3186,"à½Ĳà½ļ":3187,"à¼¡à¼©à¼¨à¼¨":3188,"à½Ħà½¦à½Ģ":3189,"à¼¢à¼¤à¼¢":3190,"à½ģà½Ĭ":3191,"à¼ĭà¼ĭà¼ĭà¼ĭà¼ĭà¼ĭ":3192,"à¼¢à¼§à¼©":3193,"à½£à½ĺà½¦":3194,"à¾¤à¾±à½²à¼įà¼į":3195,"à¼¢à¼¤à¼¨":3196,"à½ħà½ĵà½ĵ":3197,"à½Ĥà½ŀà½ĵà½ĵ":3198,"à½ĵà½ĺà½Ħ":3199,"à½¤à½ĺà½¦":3200,"à¼¢à¼¤à¼¤":3201,"à½Łà½ĩ":3202,"ĭà¼ĭà¼ĭà¼ĭà¼ĭà¼ĭà¼ĭà¼ĭ":3203,"à¼¢à¼§à¼¢":3204,"Ġà½ģà½ĺà½¦":3205,"Ġà½ĳà½Ģà½¢":3206,"à½ĺà½Ĥà½ı":3207,"Ġà¼£à¼§":3208,"à½ĺà½ļà½ĺ":3209,"à¼¢à¼§à¼ł":3210,"à¼¢à¼¥à¼¥":3211,"à¾Ĳà¾±à½¼à¼į":3212,"à¼¢à¼£à¼©":3213,"à¼¡à¼łà¼łà¼ł":3214,"à½ĵà½Ĥà½ī":3215,"à½Ķà½Ł":3216,"à½Ĥà½¦à½Ĩ":3217,"à¼¢à¼¥à¼¢":3218,"à¼¡à¼©à¼©à¼¡":3219,"à½ĸà½łà½ĸ":3220,"à½Ķà½ĺà½Ħ":3221,"à½Ĺà½ı":3222,"à¼¢à¼łà¼łà¼¤":3223,"à¾¦à¼įà¼į":3224,"à½²à¼ĭà½²à¼ĭ":3225,"à¼¢à¼©à¼ł":3226,"à½ħà½ĵà½ĺ":3227,"à¼¢à¼¦à¼¡":3228,"à½¾à¼ĭà¼½":3229,"à½£à½ĳà½Ĥ":3230,"à¼ĭà¼Ħà¼ĭ":3231,"à½¦à½ĺà½Ĩ":3232,"à¼įà¼ĭà¼ĭà¼ĭà¼ĭà¼ĭà¼ĭà¼ĭà¼ĭà¼ĭà¼ĭà¼ĭà¼ĭà¼ĭà¼ĭà¼ĭà¼ĭà¼ĭà¼ĭà¼ĭà¼ĭà¼ĭà¼ĭà¼ĭà¼ĭà¼ĭà¼ĭà¼ĭà¼ĭà¼ĭà¼ĭà¼ĭà¼ĭà¼ĭà¼ĭà¼ĭà¼ĭà¼ĭà¼ĭà¼ĭà¼ĭà¼ĭà¼ĭà¼ĭà¼ĭà¼ĭà¼ĭà¼ĭà¼ĭà¼ĭà¼":3233,"à½´à½¾":3234,"à½Ħà½¦à½ı":3235,"à½Ĥà½ıà½ĸ":3236,"Ġà½ĸà½¤à½ĳ":3237,"à¼¢à¼¤à¼©":3238,"à½ĵà½ĺà½ģ":3239,"à¼¢à¼¨à¼ł":3240,"à¼ĭà¼Ħà¼ħà¼ħà¼įà¼į":3241,"à½Ĳà½ķà½Ħ":3242,"à½Ĥà½łà½ļà½£":3243,"à½ĵà½ĸà½ŀ":3244,"à½Ĥà½¡à½ĸà½¦":3245,"à¾Łà½¼à¼įà¼į":3246,"à½²à¼ĭà¾¾":3247,"à¾±à¼·à½²à¼ĭ":3248,"à¼¢à¼§à¼¨":3249,"à½Ĥà½Łà½Ĥà½¦":3250,"à½ĵà½ĺà½ĳ":3251,"à¼¡à¼©à¼©à¼¦":3252,"Ġà¼£à¼¨":3253,"à¼¢à¼§à¼¦":3254,"à¾¨à½»":3255,"à¼ĭà¼ı":3256,"à½´à¼įà¼įà¼į":3257,"à¼¡à¼©à¼¨à¼¦":3258,"à¼¡à¼©à¼¦à¼ł":3259,"à¾ļà½¾à¼ĭ":3260,"à¾¡à¾·à½´":3261,"à¼ĭà½Īà½±à½²":3262,"ĠĠĠĠĠĠĠĠĠĠĠĠĠĠĠĠ":3263,"à½Ĺà½ļ":3264,"à½Ķà½ĳà½ĺ":3265,"à½ĵà½Ĥà½Ħ":3266,"à¼¢à¼¥à¼¨":3267,"à¾Ľà½±":3268,"à½£à½Ĥà½ĵ":3269,"à½Ħà½łà½ĺ":3270,"Ġà½ĸà½Ĥ":3271,"à½ĺà½ķ":3272,"ĭà¿":3273,"à¼ĭà¿":3274,"à½Ħà½Ķà½ł":3275,"Ġà¼¤à¼ł":3276,"à½łà½Ĥà½Ħ":3277,"à½¦à½ĸà½ħ":3278,"à½Ħà½¦à½£":3279,"à½ĺà½ĵà½ĸ":3280,"à½ħà½ĵà½¦":3281,"à½¦à½Ľ":3282,"à½łà½ļà½ĳ":3283,"à¼¢à¼§à¼¤":3284,"à¼¢à¼¥à¼©":3285,"à½ļà½ļ":3286,"à¾²à½¿à¼į":3287,"à½Ĥà½ŀà½ĳ":3288,"à¼¡à¼©à¼©à¼§":3289,"à½¦à½łà½Ħ":3290,"à½¼à¼ĭà½²":3291,"à½¢à½ķ":3292,"à¾Ńà½±à½²à¼ĭ":3293,"à½ĩà½£":3294,"à¼¡à¼©à¼©à¼¥":3295,"à¾²à½±à½²à½¿à¼į":3296,"à½ĳà½Ĳ":3297,"à¼¢à¼¦à¼£":3298,"à¼¢à¼©à¼©":3299,"à½Ĺà½£":3300,"Ġà½Ľ":3301,"à½ĳà½Ķà½ĵ":3302,"à¼¢à¼£à¼£":3303,"à½Ķà½¦à½£":3304,"à¼¢à¼©à¼§":3305,"à½Ĥà½¦à½ı":3306,"à½¢à½ĸà½ŀ":3307,"à½ĺà½ª":3308,"à½ĸà½ĳà½ĸ":3309,"à½¾à¼ĭà¼Ħà¼ħà¼įà¼į":3310,"à½¡à½ķ":3311,"à¼łà¼łà¼łà¼łà¼ł":3312,"à¼Įà¼Įà¼Įà¼Įà¼Įà¼Įà¼Įà¼Įà¼Įà¼Įà¼Įà¼Įà¼Įà¼Įà¼Įà¼Įà¼Įà¼Įà¼Įà¼Įà¼Įà¼Įà¼Įà¼Įà¼Įà¼Įà¼Įà¼Įà¼Įà¼Įà¼Įà¼Į":3313,"à½Ħà½ı":3314,"à½ĺà½Ļ":3315,"à¼¢à¼¨à¼¢":3316,"à¼¢à¼łà¼łà¼¡":3317,"à½ĵà½ĺà½Ĳ":3318,"à¼¢à¼¦à¼¨":3319,"à¼¢à¼£à¼¢":3320,"Ġà½ħà½ĳ":3321,"à½Ķà½¢à½£":3322,"à¾°à½´à¾ĥà¼ĭ":3323,"à½Ĳà½ĺà½¦à½ħà½ĳà½Ģ":3324,"à¾¥à½²à¼ĭ":3325,"à¼¡à¼©à¼©à¼£":3326,"à¾²à¼ĭà¼ĳ":3327,"à½ĳà½Ĥà½ŀ":3328,"Ħà¼Ħà¼ħà¼įà¼į":3329,"à¼ĭà¼Ħà¼ħà¼įà¼įà¼į":3330,"à¼ĭà¾¢à½²à¼ĭ":3331,"Ġà½ĳà½Ķà½ł":3332,"à½Ĥà½¦à½¤":3333,"à¾µà½²à¼į":3334,"Ġà¼£à¼¤":3335,"à¼łà¼¥":3336,"à½Ķà½Ļà½ĺ":3337,"à½£à½ĵà½Ĥà½¦":3338,"à¾ŀà½´à¼ĭ":3339,"à½Ľà½Ģ":3340,"à½ĳà½Ĥà½¦à½£":3341,"à¾³à½±à½²à¼ĭ":3342,"à½ºà¼µà¼ĭ":3343,"à½£à½ĺà½ĳ":3344,"à¼ĭà¼ħà¼į":3345,"à½ĸà½ĺà½Ĩ":3346,"à¼¢à¼¤à¼£":3347,"à½¦à½Ĥà½ī":3348,"à¼¢à¼©à¼¥":3349,"à¼¢à¼©à¼¦":3350,"à½ŀà½ĸ":3351,"à¼¢à¼¤à¼¡":3352,"à¼¢à¼¨à¼§":3353,"à½Ĺà½ĳ":3354,"à¾Ńà½±à¾ĥà¼ĭ":3355,"Ġà¼įà¼įà¼į":3356,"à½Ħà½ĩ":3357,"à¼¢à¼©à¼¤":3358,"à¼¢à¼£à¼¡":3359,"à¼¢à¼§à¼¡":3360,"à¾·à¾²à½²":3361,"à¼¢à¼©à¼¢":3362,"à½´à½´à¼ĭ":3363,"à¼Ģà½¢":3364,"à¾²à½±à½´à¼ĭ":3365,"à½£à½łà½ĩ":3366,"à½ĵà½¦à½ĸ":3367,"à½ĸà½¢à½¢":3368,"à¼Ģà½ĳ":3369,"Ġà¼£à¼¡":3370,"à½ºà¼ĭà¼Ī":3371,"à¼¢à¼©à¼¨":3372,"à¼ĭà¼½à¼į":3373,"à¼¢à¼¨à¼¥":3374,"à¼įà¼įà¼Ī":3375,"à¾±à½²à¼·à¼ĭ":3376,"à½£à½ĺà½ĵ":3377,"à¼¢à¼¥à¼£":3378,"ĭà½ºà¼į":3379,"à½ĳà½Ĥà½ĳ":3380,"à¼ĭà½ºà¼į":3381,"Ġà¼ĭà¼ĭà¼ĭà¼ĭà¼ĭà¼ĭà¼ĭà¼ĭà¼ĭ":3382,"à¾·à½¾":3383,"à¼łà¼©":3384,"à½ħà½ĵà½Ĳà½ĺà½¦":3385,"à¼¢à¼łà¼¡à¼¦":3386,"à½¡à½Ħà½¢":3387,"à¾±à½±à½¾à¼ĭ":3388,"à½ĵà½¢à½Ħ":3389,"à¾Łà½´à¼įà¼įà¼įà¼į":3390,"à¼¢à¼§à¼£":3391,"à½Ķà½ĩ":3392,"à¼įà¼Ħ":3393,"à½łà½ŀ":3394,"à½Łà½łà½ĺ":3395,"à¼Ŀà¼Ŀ":3396,"à¼¡à¼©à¼§à¼©":3397,"à½Ĥà½łà½ĸ":3398,"à½Ģà½¥":3399,"à¾±à¼·à¼ĭ":3400,"à¼¡à¼©à¼¥à¼¡":3401,"à¾²à½´à¾ĥà¼ĭ":3402,"à½ĳà½ĳà½ĸ":3403,"à¾Ĳà½±":3404,"à½ĺà½łà½Ĥ":3405,"à¾²à½ºà½¾à¼ĭ":3406,"à¼ĭà½Īà½²à¼ĭ":3407,"à¼¢à¼¨à¼¤":3408,"à¾·à½¾à¼įà¼į":3409,"à½«à½¥":3410,"Ġà¼£à¼£":3411,"à½Ĥà½¨":3412,"à½ĸà½ĳà½Ĥà½ħà½Ĥ":3413,"à¾³à¼ĭà¼Ħà¼ħà¼įà¼į":3414,"à¼¢à¼¥à¼¡":3415,"à½Įà½£":3416,"à¼¢à¼¨à¼©":3417,"à½Ħà½ĺà½¦":3418,"Ġà½Ĥà½¦à½£":3419,"ģà¾ĥà¼Ķ":3420,"à¼¢à¼¨à¼¨":3421,"à¾µà¾¨":3422,"à¼¢à¼¨à¼¦":3423,"à½¦à½£à½¦":3424,"à½¼à¼ĭà½Īà½²":3425,"à½Łà½ļ":3426,"à¼ĭà¼ĭà¼ĭà¼ĭà¼ĭà¼ĭà¼ĭà¼ĭà¼ĭà¼ĭà¼ĭà¼ĭà¼ĭà¼ĭà¼ĭà¼ĭà¼ĭà¼ĭà¼ĭà¼ĭà¼ĭà¼ĭà¼ĭà¼ĭà¼ĭà¼ĭà¼ĭà¼ĭà¼ĭà¼ĭà¼ĭà¼ĭà¼ĭà¼":3427,"à¾²à½±à¾ĥà¼ĭ":3428,"à¾²à¾±à½²à¼ĭ":3429,"à¼¡à¼©à¼©à¼¨":3430,"à¾¡à¼Ķ":3431,"à½£à½Ļ":3432,"à¼ĭà½Īà½ºà¼ĭ":3433,"Ġà½¡à½ĵ":3434,"à¼µà¼į":3435,"à½´à¼ĭà¼Ī":3436,"à½Ĥà½ŀà½ĵà½ĳ":3437,"Ġà½Ĥà½ĵ":3438,"à½ĳà½Ĥà½Ģ":3439,"à¼ĭà¼įà¼įà¼įà¼į":3440,"à¼¡à¼©à¼©à¼¤":3441,"à¼¡à¼©à¼¨à¼¢":3442,"à½¢à½Ĳ":3443,"à¼łà¼£":3444,"à¾±à½¾":3445,"à½±à½²à½¾à¼ĭ":3446,"Ġà½Ĥà½Ļ":3447,"à¼¢à¼¨à¼¡":3448,"à½Ŀà½ĳ":3449,"à¾²à¾³":3450,"à½łà½Ĥà½łà½ŀ":3451,"à½¦à½ĺà½ĵ":3452,"à¼£à¼łà¼§":3453,"à½ĸà½¤à½ĳà½ĳ":3454,"à¾²à½¼à½¾à¼ĭ":3455,"à½£à½¦à½ĳà½Ħ":3456,"à¾±à¾Ń":3457,"à¼¡à¼©à¼¨à¼¤":3458,"à½ºà½ºà¼į":3459,"à½Ĵà½ĵà½Ł":3460,"à¼łà¼¨":3461,"à¼ĭà¾ĵ":3462,"à½¢à½Ħà½¦à½Ħà½¦":3463,"à¼Ģà½Ķ":3464,"à½Ķà½¢à½łà½ĩ":3465,"à¾ļà½ºà¼ĭ":3466,"Ġà¼£à¼¢":3467,"à¼įà¼ĳ":3468,"Ġà¼įà¼įà¼įà¼į":3469,"à½Ģà½Ĭ":3470,"à½±à½¿à¼Ķ":3471,"à¾Łà¾±à½ºà¼į":3472,"à½ĳà½ĸà½ħ":3473,"à½Ĳà½ĺà½¦à½ħà½ĳà½ĺà½ģ":3474,"à½´à¼įà¼įà¼įà¼į":3475,"à¾²à½±à½²à½¿à¼Ķ":3476,"à½¼à¼ĭà¼Ħà¼ħà¼į":3477,"à½£à½¦à½ĳ":3478,"à½Ĥà½Ķà½¦":3479,"ĭà¾±à½²à¼ĭ":3480,"à¼ĭà¾±à½²à¼ĭ":3481,"à¼¢à¼©à¼¡":3482,"à¼¡à¼©à¼¨à¼£":3483,"à¾µà½´":3484,"à½²à¼ĭà¼":3485,"Ġà¼´":3486,"à¼£à¼łà¼£":3487,"à¾Ĵà¾²à½´à¼ĭ":3488,"à¾Ĵà¾²à¼Ķ":3489,"à¾Ĵà½²":3490,"à¾±à½ºà¼ĭà¼ĳ":3491,"à½ĺà½ĳà½ĳ":3492,"à¾Ģà¼įà¼į":3493,"à¼Ģà½Ľ":3494,"à¾ŀà½¾à¼ĭ":3495,"Ġà½ĺà½ģ":3496,"à¼ĭà¼Ħà¼į":3497,"à½ĺà½ļà½ĳ":3498,"à½¦à½¢à½ĸà½Ģ":3499,"Ġà½łà½Ĩ":3500,"à¾Ļà½²à¼į":3501,"à½£à½ĺà½Ĳ":3502,"à½ĳà½¨":3503,"à½Ĺà½Ĳ":3504,"à½¥à½ı":3505,"à¼łà¼łà¼łà¼¢":3506,"à½¦à½ħ":3507,"à¼ĭà¼įà¼ĭà¼ĭ":3508,"à¼ĭà¼įà¼¼":3509,"à½Ķà½ĳà½Ħà½Ķ":3510,"à½¦à½İ":3511,"à½¥à½ĵ":3512,"à½´à¼ĭà¼İ":3513,"à½ĵà½Ħà½Ĥ":3514,"à½ĳà½Ķà½łà½¢":3515,"à½ĸà½ĳà½Ĥà½¦":3516,"à¼£à¼łà¼¤":3517,"à½łà½¨":3518,"à¾¦à¾²à½´à¼ĭ":3519,"à¾Ĺà½´":3520,"ĭà¼Į":3521,"à½ĵà½ĳà½ĸ":3522,"Ġà½ĺà½ĵ":3523,"à¾²à½±à½´à½¾à¼ĭ":3524,"Ġà¼ĭà¼ĭà¼ĭà¼ĭà¼ĭà¼ĭà¼ĭà¼ĭà¼ĭà¼ĭà¼ĭà¼ĭ":3525,"à½±à½´à½¾à¼ĭà¼ĳ":3526,"à¼£à¼¦à¼ł":3527,"à¾Łà¾²à½ºà¼į":3528,"à½ĸà½ħà½¦à½Ķ":3529,"à¾µà½²à½¾à¼ĭ":3530,"à½ģà½Ģ":3531,"à½Ķà½łà½ķ":3532,"à½ºà¼ĭà¼¸":3533,"à½łà½Ł":3534,"à¾Ĳà¾²à¾Ģ":3535,"à¾²à½±à¾Ģ":3536,"à½¢à½ĳà½Ĥ":3537,"à¼ĭà½Īà¾¤à¾±à½²":3538,"à½łà½ħ":3539,"Ġà¼ĭà¼ĭà¼ĭà¼ĭà¼ĭà¼ĭà¼ĭà¼ĭà¼ĭà¼ĭà¼ĭà¼ĭà¼ĭà¼ĭà¼ĭà¼ĭà¼ĭà¼ĭà¼ĭà¼ĭà¼ĭà¼ĭà¼ĭà¼ĭà¼ĭà¼ĭà¼ĭà¼ĭà¼ĭà¼ĭà¼ĭà¼ĭà¼ĭà¼ĭà¼ĭà¼ĭà¼ĭà¼ĭà¼ĭà¼ĭà¼ĭà¼ĭà¼ĭà¼ĭà¼ĭà¼ĭà¼ĭà¼ĭà¼ĭà¼":3540,"à¾±à¼įà¼įà¼į":3541,"Ġà½īà½ĺà½¦":3542,"à¼£à¼łà¼©":3543,"à½ģà½ĸà½¦":3544,"à½Ķà½¢à½ĵ":3545,"à¾°à½´à¾ĥ":3546,"à½ħà½ĵà½ĳ":3547,"à½ģà½Ħà½¦":3548,"à½Ħà½łà½ĳ":3549,"à¾Ĳà¾±à¼įà¼į":3550,"à¼¡à¼©à¼¥à¼¦":3551,"à¾łà½²":3552,"à¼£à¼łà¼¨":3553,"à¾·à½²à½¿à¼ĭ":3554,"à½¤à½łà½ĺ":3555,"à½Ĥà½ĵà½¦à½Ķ":3556,"à¾«à¾Ļà½±à¼ĭ":3557,"à½£à½¦à½łà½ĳà½¦":3558,"à¾¡à½´à¼Ķ":3559,"à½¦à½Ĥà½ŀ":3560,"Ġà½łà½ĳà½¦":3561,"à¾¤à¾±à¼ĭ":3562,"Ġà½Ĳà½ĸà½¦":3563,"à¼ĭà½Īà¾²à½º":3564,"à½łà½«":3565,"à½Ķà½ĺà½Ĳ":3566,"à½ĵà½ĸà½ħ":3567,"à½Ĵà½İ":3568,"à¼£à¼¢à¼ł":3569,"à½ĳà½Ķà½łà½ĺ":3570,"à¾Ńà½º":3571,"à½¨à½Ŀ":3572,"à¼£à¼¥à¼ł":3573,"à¼£à¼łà¼¦":3574,"à½£à½ĺà½¢":3575,"à½ĸà½Ĭ":3576,"Ġà¼ĳà¼":3577,"Ġà¼ĳà¼ĭ":3578,"à¾·à½²à¼įà¼į":3579,"à¼¢à¼©à¼£":3580,"à¾£à½¾à¼į":3581,"à½Ķà½¨":3582,"à½Ķà½¦à½ĸ":3583,"à¼£à¼¤à¼¥":3584,"à½§à½ı":3585,"à½Ķà½łà½ĩ":3586,"à¾Ĺà½¼à¼į":3587,"à¾ļà½ºà¼į":3588,"à½ĵà½Ķà½£":3589,"à¾±à½ºà½º":3590,"à½£à½¢à½Ħ":3591,"à½Ķà½łà½ļ":3592,"à¼ĭà¼Ħà¼ħà¼Ķ":3593,"à¾£à½¾à¼ĭ":3594,"à¾¦à¾±à¼ĭ":3595,"à¼£à¼¡à¼¡":3596,"à½Ĵà½ı":3597,"à½Ĥà½ĺà½ł":3598,"à½ĸà½¨":3599,"à¼£à¼¡à¼ł":3600,"à½£à½łà½Ĥ":3601,"à¼£à¼¡à¼£":3602,"à½²à¼įà¼ĭà¼ĭà¼ĭà¼ĭà¼ĭ":3603,"à¼£à¼¢à¼¢":3604,"Ġà¼łà¼ł":3605,"à½¥à½İ":3606,"à¾µà½´à¼į":3607,"à½Ķà½Ķà½ł":3608,"à½£à½ħ":3609,"à½Ħà½¦à½ĳ":3610,"à¾©à¾Ńà¼į":3611,"à½Ľà½ŀ":3612,"à½ķà½ı":3613,"à¾Łà½ºà¼ĭà¼İ":3614,"à¼ĭà¼įà¼Į":3615,"Ġà¼ĭà¼Į":3616,"à¼Ħà¼į":3617,"à½ĥà½¦":3618,"à½ĺà½ĺà½¦":3619,"à¼¦à¼łà¼ł":3620,"à½±à¼įà¼įà¼įà¼į":3621,"à¾³à½ºà¼į":3622,"à½¡à½ī":3623,"à½Ķà½¢à½ĳ":3624,"à½ĸà½¤à½ĳà½Ķà½ł":3625,"à¼įà¼ĭà¼ĭà¼ĭà¼ĭ":3626,"à¾£à¼·":3627,"à½Ģà½Į":3628,"à¾±à½²à¼įà¼":3629,"à½ģà½Ł":3630,"Ġà½Ħà½Ĥ":3631,"à½Ľà½£":3632,"à¼ĭà¼½à¼":3633,"à½łà½ĳà½ĳ":3634,"à½¡à½ģ":3635,"à¾¦à¾¦":3636,"à¾±à¼įà¼":3637,"à¾±à½²à¼įà¼ĭ":3638,"à½ĳà½Ħà½ĳ":3639,"à¼£à¼¡à¼¢":3640,"à½ĺà½ĸà½ŀ":3641,"à½¨à½¤":3642,"à¾±à¼įà¼ĭ":3643,"à½Ħà½ļ":3644,"à¾Ĳà½¼à¼įà¼į":3645,"à¾łà½±":3646,"à¼¡à¼©à¼¤à¼©":3647,"à¼ĭà¼¼à¼½":3648,"à½ĳà½Ĥà½¡":3649,"à½Ķà½Ľ":3650,"à¾Ńà½±à½¾à¼į":3651,"à½¢à½Ķà½¦":3652,"à½ĺà½ļà½Ħà½¦":3653,"à¾Ĵà¾±à½²à¼ĭ":3654,"à½ĸà½¡à½Ħ":3655,"à¼łà¼¢":3656,"à½Ķà½¢à½łà½ĳ":3657,"à½Ģà½Ĩ":3658,"à½ķà½Ĳ":3659,"à½¢à½ĸà½ĳ":3660,"à¾¨à¾±à½ºà¼ĭ":3661,"à½£à½Ł":3662,"à½ĸà½ıà½Ħà½¦":3663,"à½ĸà½Ĥà½Ĥ":3664,"à½ħà½ĳà½ĳà½Ħ":3665,"à¼ĭà¼½à¼ĭ":3666,"à½Ĵà½ĵà½¡":3667,"à½£à½§":3668,"à½ĸà½¦à½ĵà½¦":3669,"à¾Łà¾Łà¼ĭ":3670,"à¼ĭà¼Ŀà¼įà¼į":3671,"à½ĺà½Ĥà½ī":3672,"à¾²à½¾":3673,"à¼ĭà¼½à¼įà¼į":3674,"à½Ĵà½¡":3675,"à½¼à¾ĥ":3676,"à½Łà½ĸà½ĺ":3677,"à½ĵà½Ĳà½ĺà½¦":3678,"à½łà½łà½ĳ":3679,"à½ĵà½¦à½ŀ":3680,"à½Ĥà½¦à½Ĥà½¦":3681,"à¼£à¼¡à¼¤":3682,"à½¡à½¤":3683,"à½ĸà½¦à½ĺà½Ĥ":3684,"à¾Łà¼ĭà¼Ħà¼ħà¼įà¼į":3685,"à½Ĥà½Ħà½¡":3686,"à¼£à¼¥à¼§":3687,"à½¼à¼ĭà¼¸":3688,"à¾±à¼·à½º":3689,"à½«à½Ĳ":3690,"à¼ĭà½¼à¼ĭà½ºà¼ĭ":3691,"à¾²à¼·à¼ĭ":3692,"Ġà½ĺà½Ľ":3693,"à½ĵà½ĺà½Ĥ":3694,"à¾¨à½¿à¼ĭ":3695,"à½Ķà½Ķà½¢":3696,"à½Ĥà½¦à½ĸà½¢":3697,"à½ĭà½Ģ":3698,"à¼£à¼¦à¼¥":3699,"à½Ĳà½ĺà½£":3700,"à¼Ķà¼į":3701,"Ġà¼įà¼Ī":3702,"à½ĺà½Ĳà½łà½ĺ":3703,"à½¦à½ĩ":3704,"à¼£à¼¡à¼§":3705,"à¼Ģà½Ģ":3706,"à¼ĭà½µà½¾à¼į":3707,"à½Ķà½§":3708,"à¾ºà½±à¼ĭ":3709,"à½ģà½ĺà½¦à½Ĥà½¦":3710,"à½Ĥà½īà½¦":3711,"à½¼à½¿à¼Ķ":3712,"à¾¡à¾·à¼Ķ":3713,"à½ĵà½ĸà½ĳ":3714,"à¼¢à¼¨à¼£":3715,"à½Ĥà½ĺà½¢":3716,"à¼įà¼Ħà¼ħà¼ħà¼įà¼į":3717,"Ġà½ŀà½£":3718,"Ġà¼§à¼ł":3719,"à½ķà½Ľ":3720,"à½ĵà½ĺà½ł":3721,"à¼łà¼łà¼łà¼¤":3722,"à½ĳà½ĸà½Ħà½Ķ":3723,"à¾©à½¾à¼ĭ":3724,"à¼£à¼łà¼¥":3725,"à¾·à¾²à½´à½¾à¼ĭ":3726,"à½²à¼ĭà¼ĳà¼į":3727,"à½ĵà½Ķà½ĳ":3728,"à¾¤à½¼à¼į":3729,"à¾±à¼µ":3730,"à½Ĳà½Ħà½¦":3731,"à½ĵà½ĸà½ĳà½Ĥ":3732,"à½¦à½¢à½Ħ":3733,"à½Ĵà½ł":3734,"Ġà½ºà¼ĭ":3735,"à½ħà½ĳà½ĸ":3736,"à¼łà¼łà¼łà¼£":3737,"à½¼à¼ĭà¼ı":3738,"à¼Ķà¼Ķ":3739,"à¼ŀà¼ŀ":3740,"à½½à½¾à¼ĭ":3741,"à¼£à¼£à¼¡":3742,"à½ĳà½Ħà½Ĥ":3743,"ĭà¾±à½²":3744,"à¼ĭà¾±à½²":3745,"à½ĺà½¨":3746,"à½Ĭà½£":3747,"à¼ĭà¼Įà¼İ":3748,"à¼ĭà¼½à¼Ħà¼ħà¼įà¼į":3749,"à½ĳà½Ģà½¢à½Ķ":3750,"à¾ĳà¼":3751,"à¾ĳà¼ĭ":3752,"à½Ģà½Ķ":3753,"à½Ĺà½ļà½Ĳ":3754,"à¼£à¼¡à¼¥":3755,"à½¥à½ī":3756,"à½Ĥà½¦à½ļ":3757,"à½ĵà½£à½ĺ":3758,"à½¡à½Ħà½ĳ":3759,"Ġà½ĺà½Ĳà½ł":3760,"à½ĵà½¦à½Ģ":3761,"à¾Ľà½¿à¼į":3762,"à¾Ńà½ºà¼į":3763,"à¼łà¼¡à¼ł":3764,"à½Ģà½Ĳ":3765,"à¼£à¼¡à¼©":3766,"à¾¤à¾²à¾Ģà¼ĭ":3767,"à¼£à¼£à¼¥":3768,"à¼£à¼¥à¼¥":3769,"à½ıà½İ":3770,"à½ĵà½¦à½ļ":3771,"à¼£à¼¥à¼¦":3772,"Ġà½¦à½¢":3773,"à¾¡à½²à¼į":3774,"Ġà½Ķà½İ":3775,"à¾Łà¼ĭà½²":3776,"à½£à½ĺà½£":3777,"Ġà¼ĭà¼ĭà¼ĭà¼ĭà¼ĭà¼ĭà¼ĭà¼ĭà¼ĭà¼ĭà¼ĭà¼ĭà¼ĭà¼ĭà¼ĭ":3778,"à¼£à¼¤à¼§":3779,"à½łà½ķà½£":3780,"à¼£à¼¡à¼¦":3781,"à½¢à½§":3782,"à¾£à¾²à½º":3783,"à¼£à¼¢à¼£":3784,"à½Ĩà½ĳà½Ħ":3785,"à¼£à¼¦à¼§":3786,"à½£à½¦à½Ĥ":3787,"à½ĺà½Ĳà½Ĥ":3788,"à¼£à¼£à¼¤":3789,"à½ĸà½Ļà½Ħ":3790,"à½Ķà½ĸà½ħ":3791,"à½Ķà½Ķà½¦":3792,"à½ĺà½ģà½łà½£":3793,"à¼£à¼¢à¼§":3794,"à¾£à¾²à½´":3795,"à½ĵà½ĳà½Ĥà½ł":3796,"à½¦à½Ĥà½Ħ":3797,"à¾²à½ºà¼Ķ":3798,"à¾³à½±à¾Ģà¼ĭ":3799,"à¼£à¼¤à¼¤":3800,"à¾ľà½±":3801,"Ġà½ĺà½ģà½ĵ":3802,"à¾µà¾±à¼ĭ":3803,"à¼ĭà¼ĭà¼ĭà¼ĭà¼į":3804,"à½Ĥà½ĳà½ĸà½¦":3805,"à¼£à¼£à¼£":3806,"à¼£à¼¤à¼ł":3807,"à½¡à½¡":3808,"à¼¡à¼©à¼¨à¼¡":3809,"à½ħà½ĳà½Ĥ":3810,"à½¦à½ĸà½ŀ":3811,"à¾²à¼ĭà¼´":3812,"Ġà½ĺà½Ľà½ĳ":3813,"à½Ĥà½¦à½ħà½ĵ":3814,"à¼£à¼¢à¼¥":3815,"à½¦à½łà½Ĥ":3816,"à¾±à¾²à½ºà¼ĭ":3817,"à¾Ķà½ºà¼ĭ":3818,"à¼£à¼łà¼¢":3819,"à½ĳà½ĸà½Ħà½¦":3820,"à½¨à½ŀ":3821,"à¼£à¼¦à¼¡":3822,"à¾²à¾«à½´":3823,"à¼£à¼¦à¼©":3824,"à¼ĭà¼ĭà¼ĭà¼Ħà¼ħà¼įà¼į":3825,"à½²à¼įà¼įà¼įà¼į":3826,"à½¦à½ĺà½¡":3827,"à½Ĥà½ĵà½¦à½ĵ":3828,"à¼£à¼§à¼§":3829,"à¾ľà½´à¼ĭ":3830,"à½ºà¼ĭà½º":3831,"Ġà½ĸà½Ľ":3832,"à½£à½ĵà½ĵ":3833,"ĭà½±à¼ĭ":3834,"à¼ĭà½±à¼ĭ":3835,"à½ĺà½Ľà½ĳà½ĳ":3836,"à½¼à¼ĭà¾¾":3837,"à¼£à¼¡à¼¨":3838,"à¼£à¼¢à¼¦":3839,"à¾©à½±":3840,"à½¦à½¦à½ĺ":3841,"à¾±à½²à¼ĭà½Ī":3842,"à½ĸà½łà½ģ":3843,"à¾±à½»à¼Ķ":3844,"à½ĺà½Ķà½¦":3845,"à½¼à¼ĭà¼įà¼į":3846,"à½ħà½ĵà½£":3847,"à½Ķà½¢à½ŀ":3848,"à½±à¼ĭà½²":3849,"à¼ĭà¼įà¼Ī":3850,"à¼£à¼¤à¼©":3851,"à½Ĥà½Ħà½ĵ":3852,"à½¢à½Ľ":3853,"à½ĺà½Ĭ":3854,"à½«à½Ĥ":3855,"à½ĸà½ŀà½ł":3856,"à½Ķà½łà½Ľ":3857,"à½ĸà½ıà½ĵ":3858,"à½ĸà½Ĥà½Ĩà½Ĥà½¦":3859,"à½ĺà½¦à½ĵà½¦":3860,"Ġà¼¤à¼¥":3861,"à½ĺà½ĳà½ĺ":3862,"à¼£à¼£à¼¦":3863,"à¼¤à¼¥à¼¥":3864,"à½ĸà½¦à½Ķ":3865,"à¾²à¼ĭà¼½":3866,"à½ĸà½ĸà½ł":3867,"à½¦à½ĺà½ļ":3868,"à¾¨à¾¨à½±à¼ĭ":3869,"à½¥à½¥":3870,"à¼£à¼£à¼©":3871,"à½ĸà½ĸà½ĳ":3872,"à¾Ĳà¾²à½´à¼ĭ":3873,"à¾·à¾²à½¾à¼ĭ":3874,"à½ĺà½¦à½ĸà½¦":3875,"à¾¦à½±":3876,"à½ķà½Ģ":3877,"à¾¤à¾±à½¼à¼įà¼į":3878,"à¼įà¼ĭà¼ĭà¼ĭà¼ĭà¼ĭà¼ĭà¼ĭà¼ĭà¼ĭà¼ĭà¼ĭà¼ĭà¼ĭà¼ĭà¼ĭà¼ĭà¼ĭà¼ĭà¼ĭà¼ĭà¼ĭà¼ĭà¼ĭà¼ĭà¼ĭà¼ĭà¼ĭà¼ĭà¼ĭà¼ĭà¼ĭà¼ĭà¼ĭà¼ĭà¼ĭà¼ĭà¼ĭà¼ĭà¼ĭà¼ĭà¼ĭà¼ĭà¼ĭà¼ĭà¼ĭà¼ĭà¼ĭà¼ĭà¼ĭà¼ĭà¼ĭà¼ĭà¼ĭà¼ĭà¼ĭà¼ĭà¼ĭà¼ĭà¼ĭà¼ĭà¼ĭà¼ĭà¼ĭà¼ĭà¼ĭà¼ĭà¼ĭà¼ĭà¼ĭà¼ĭà¼ĭà¼ĭà¼ĭà¼ĭà¼ĭà¼ĭà¼ĭà¼ĭà¼ĭà¼ĭà¼ĭà¼ĭà¼ĭà¼ĭà¼ĭà¼ĭà¼ĭà¼ĭà¼ĭà¼ĭà¼ĭà¼ĭà¼ĭà¼ĭà¼ĭà¼ĭà¼ĭà¼":3879,"à½¼à¼·à¼įà¼į":3880,"à¼£à¼¢à¼¤":3881,"Ġà½ĺà½īà½ĺ":3882,"à½Ľà½¡":3883,"à½±à½´à¾Ĥà¼į":3884,"à½Ĥà½¡à½Ħà½¦":3885,"à½łà½ģà½ĵ":3886,"à¼£à¼£à¼§":3887,"à¼£à¼¦à¼¤":3888,"à½¦à½ĸà½Ģà½ł":3889,"à¾Ĵà¾²à½²à¼ĭ":3890,"à½łà½ĩà½ĺà½¦":3891,"à½¼à½¾à¼įà¼į":3892,"à¼£à¼¥à¼©":3893,"à½Ĩà½ĺà½¦":3894,"à¾µà½¾à¼ĭ":3895,"à¾Ļà½´à¼ĭ":3896,"à¼£à¼¥à¼¤":3897,"Ġà½£à½Ĥ":3898,"à¼ĭà¼·à¼ĭ":3899,"à½ĸà½ĺà½Ĳ":3900,"à½ĳà½łà½Ĥ":3901,"Ġà¼ĭà¼ĭà¼ĭà¼ĭà¼ĭà¼ĭà¼ĭà¼ĭà¼ĭà¼ĭà¼ĭà¼ĭà¼ĭà¼ĭà¼ĭà¼ĭà¼ĭà¼ĭà¼ĭà¼ĭà¼ĭà¼ĭà¼ĭà¼ĭà¼ĭà¼ĭà¼ĭà¼ĭà¼ĭà¼ĭà¼ĭà¼ĭà¼ĭà¼ĭà¼ĭà¼ĭà¼ĭà¼ĭà¼ĭà¼ĭà¼ĭà¼ĭà¼ĭà¼ĭà¼ĭà¼ĭà¼ĭà¼ĭà¼ĭà¼ĭà¼ĭà¼ĭà¼ĭà¼ĭà¼ĭà¼ĭà¼ĭà¼ĭà¼ĭà¼ĭà¼ĭà¼ĭà¼ĭà¼ĭà¼ĭà¼ĭà¼ĭà¼ĭà¼ĭà¼ĭà¼ĭà¼ĭà¼ĭà¼ĭà¼ĭà¼ĭà¼ĭà¼ĭà¼ĭà¼ĭà¼ĭà¼ĭà¼ĭà¼ĭà¼ĭà¼ĭà¼ĭà¼ĭà¼ĭà¼ĭà¼ĭà¼ĭà¼ĭà¼ĭà¼ĭà¼ĭà¼ĭà¼":3902,"à½´à¼ĭà¼Ħà¼ħ":3903,"à½Ĥà½ĵà½¦à½Ķà½ł":3904,"à½ĵà½Ĥà½ŀà½ĵ":3905,"à½ĵà½¢à½¦":3906,"à½ĸà½ĸà½ħ":3907,"Ġà¼ĭà¼ĭà¼ĭà¼ĭà¼ĭà¼ĭà¼ĭà¼ĭà¼ĭà¼ĭà¼ĭà¼ĭà¼ĭà¼ĭà¼ĭà¼ĭà¼ĭà¼ĭ":3908,"à½ķà½łà½ĺ":3909,"à¼łà¼¥à¼ł":3910,"à¼£à¼¤à¼¦":3911,"à½Ĥà½ĸà½ŀ":3912,"à½Ĥà½ıà½Ĥ":3913,"à½ĳà½Ĥà½ı":3914,"à¾»à¼į":3915,"à½ĳà½¢à½Ħ":3916,"à½ºà¼įà¼Ħà¼ħà¼įà¼į":3917,"à½ĵà½łà½ģ":3918,"à½£à½Ĥà½¦à½ĵ":3919,"à¼£à¼¢à¼©":3920,"à½Ģà½ļ":3921,"à½İà½ı":3922,"à½Ĥà½¦à½ĸà½¦":3923,"à¾ŀà½ºà¼ĭ":3924,"à¼£à¼§à¼ł":3925,"à½ĳà½Ķà½łà½¦à½ĺà½¦":3926,"à¼£à¼£à¼ł":3927,"à¼£à¼§à¼¥":3928,"à½¦à½Ķà½ĵ":3929,"à½´à¼ĭà¼º":3930,"à¾¡à½ºà¼Ķ":3931,"à¾²à½¼à¼ĭà¼ĳ":3932,"à¼£à¼¤à¼¨":3933,"à½łà½ĳà½¦à½£":3934,"à¾²à¾Ģà½¿à¼ĭ":3935,"à½ĺà½¦à½ĸ":3936,"à½ĳà½Ĥà½Ĥà½¦":3937,"à¼£à¼©à¼ł":3938,"à½Ĳà½ĵà½Ł":3939,"à¼£à¼¦à¼¦":3940,"à½Ĥà½Ĥà½ħ":3941,"à½Ŀà½İ":3942,"à¾Łà¾±à½ºà¼ĭ":3943,"à¼£à¼¢à¼¡":3944,"à½Ķà½¦à½ŀ":3945,"à½Łà½Ł":3946,"à¾·à½¿à¼į":3947,"à½ĸà½¦à½Ĩ":3948,"à¾¡à½±":3949,"à½¼à¼ĭà¼Ħà¼ħ":3950,"à¼¢à¼łà¼¡à¼§":3951,"à½Ľà½Ĥ":3952,"à¼£à¼§à¼¦":3953,"à¾Ńà½¿à¼ĭ":3954,"à½¼à½¿à¼įà¼į":3955,"à½£à½¢à½ĸ":3956,"à¼£à¼¤à¼£":3957,"à¼ĭà¼įà¼ĭà¼ĭà¼ĭà¼ĭà¼ĭ":3958,"à¾Łà¾±à¼ĭ":3959,"à¼£à¼¥à¼¨":3960,"à½´à¼įà¼ĭà¼ĭà¼ĭà¼ĭà¼ĭà¼ĭà¼ĭà¼ĭà¼ĭà¼ĭà¼ĭà¼ĭà¼ĭà¼ĭà¼ĭà¼ĭà¼ĭà¼":3961,"à¾±à½±à½²":3962,"à¾·à½¼à¾ħ":3963,"à½¨à½ļ":3964,"à½ĳà½Ĥà½Ķà½ł":3965,"à¾¦à½±à½²à¼ĭ":3966,"à¼£à¼¦à¼¢":3967,"à¾ĭà½£":3968,"à½ĸà½¢à½£":3969,"à½Ĵà½Ĥà½£":3970,"à½ĸà½¦à½ĺà½ĺ":3971,"à¼£à¼£à¼¨":3972,"à¼¤à¼¡à¼¢":3973,"à¼ĭà¼ĭà¼ĭà¼ĭà¼ĭà¼ĭà¼ĭ":3974,"à¾·à¾²à½±à¼ĭ":3975,"à½ĸà½Łà½Ħà½Ķ":3976,"Ġà½ĵà½ĳ":3977,"Ġà¼ĭà¼ĭà¼ĭà¼ĭà¼ĭà¼ĭà¼ĭà¼ĭà¼ĭà¼ĭà¼ĭà¼ĭà¼ĭà¼ĭà¼ĭà¼ĭà¼ĭà¼ĭà¼ĭà¼ĭà¼ĭ":3978,"à½ħà½ĳà½Ħ":3979,"à¾¡à¼·":3980,"Ġà½ĸà½Ļ":3981,"à¼£à¼¢à¼¨":3982,"à½Ķà½¢à½ĺà½Ľà½ĳ":3983,"à½Ĥà½¦à½¡":3984,"à½ĵà½§":3985,"à¼ĭà¾¢à½±à¼ĭ":3986,"à½£à½ĳà½ĺ":3987,"à½ĺà½¦à½ĳ":3988,"à½¥à½ĳ":3989,"à½¨à½ıà½ł":3990,"à¼¤à¼¡à¼§":3991,"Ġà½¡à½¦":3992,"à¼§à¼łà¼ł":3993,"à¾ļà½¾à¼į":3994,"à¾Ńà½¿à¼į":3995,"Ġà½ĸà½£":3996,"à¾±à¾¤à½º":3997,"à½¢à½¢à½Ħ":3998,"à½¿à¼įà¼Įà¼Įà¼Į":3999,"à¼łà¼łà¼łà¼§":4000,"à½ħà½ĵà½ĳà½Ħ":4001,"à¾łà½ºà¼ĭ":4002,"à¾·à¼ĭà¼ĳ":4003,"Ġà¼ĭà¼ĭà¼ĭà¼ĭà¼ĭà¼ĭà¼ĭà¼ĭ":4004,"à½ĺà½ĵà½ĺà½¦":4005,"Ġà½ĸà½Łà½Ħ":4006,"à½ĳà½ĺà½£":4007,"Ġà½¡à½¢":4008,"à¾ľà½¼à¼ĭ":4009,"à½Įà½Į":4010,"Ġà¼¥à¼©":4011,"à¼ĭà½Īà¾·à½²":4012,"à½Ķà½Ĥà½ŀà½ĵ":4013,"Ġà½ŀà½Ħ":4014,"à½ĸà½Łà½ĵ":4015,"à¼£à¼£à¼¢":4016,"à½Ĥà½ĺà½ĳ":4017,"à½īà½ĸ":4018,"à¼Ģà½£":4019,"à¼¤à¼¤à¼¤":4020,"à¾Ķà¼ĭà¼ĳ":4021,"à½Ħà½¦à½¤":4022,"à¼£à¼§à¼©":4023,"à½£à½ĸà½ŀ":4024,"à¼£à¼¤à¼¡":4025,"Ġà¼ĭà¼ĭà¼ĭà¼ĭà¼ĭà¼ĭà¼ĭà¼ĭà¼ĭà¼ĭà¼ĭà¼ĭà¼ĭà¼ĭà¼ĭà¼ĭà¼ĭà¼ĭà¼ĭà¼ĭà¼ĭà¼ĭà¼ĭà¼ĭ":4026,"à¼£à¼©à¼§":4027,"à¾©à¼Ķ":4028,"à½¢à½łà½ĸ":4029,"à½ĺà½ĳà½Ķ":4030,"à½£à½¦à½Ĥà½¦":4031,"à¾±à¾Ĺà½º":4032,"à½ĵà½ĺà½ļà½ĵ":4033,"à½Ķà½ĺà½Ĩ":4034,"à¼£à¼§à¼¤":4035,"Ġà¼¤à¼¤":4036,"à¼łà¼łà¼łà¼¦":4037,"à¾Ļà¼į":4038,"à½Ħà½Ĥà½ī":4039,"à¼£à¼§à¼£":4040,"Ġà½¤à½¢":4041,"à½ĺà½¦à½ı":4042,"à¾³à¾³à½¼à¼ĭ":4043,"à¼£à¼¦à¼£":4044,"à½ĳà½Ģà½¦":4045,"à¾µà½ºà¼į":4046,"à¾±à½²à¼ĭà¼¸":4047,"Ġà¼¤à¼¦":4048,"à¼¤à¼¦à¼¥":4049,"Ġà½Ĩà½ĸ":4050,"à¾·à½¾à¼įà¼įà¼įà¼į":4051,"à½łà½ģà½ĺà½¦":4052,"à½Ķà½¦à½Ĩ":4053,"à¾£à½¼à¼į":4054,"à¼£à¼¤à¼¢":4055,"à½¢à½£à½¦":4056,"à½İà½ĵ":4057,"à¼£à¼§à¼¨":4058,"à½¦à½¦à½¦à½¦":4059,"à¼¤à¼¤à¼¥":4060,"à½ĳà½ĺà½Ĳ":4061,"à½Ħà½ĸà½ŀ":4062,"à¾³à½²à¼į":4063,"à¾ļà½±à½¾à¼į":4064,"à½¦à½ª":4065,"à¼£à¼¨à¼©":4066,"à¼łà¼łà¼łà¼¥":4067,"à¾²à½±à½¾à¼į":4068,"à½ĸà½Łà½ĸ":4069,"à½Ĺà½Ł":4070,"à½Ĥà½ıà½ĵà½ļ":4071,"à¼¤à¼łà¼¤":4072,"à½Ĺà½¦":4073,"à¾±à½²à½²à¼ĭ":4074,"à¾¥à½²":4075,"à¼£à¼©à¼¦":4076,"à½ĸà½Ķà½¦":4077,"Ġà¼¦à¼ł":4078,"à½ĵà½łà½ĩ":4079,"à½£à½ĸà½ĳ":4080,"à½Ĥà½¢à½Ħ":4081,"à½¦à½ĺà½ĳ":4082,"à½Ĥà½ĺà½Ĩ":4083,"à½¡à½ĵà½ĵ":4084,"à¾«à½´à¼į":4085,"à½ºà½¾à¼į":4086,"à½¦à½Ĭ":4087,"à½ĵà½¢à½ĸ":4088,"à¾Łà¾±à½º":4089,"à¼ĭà¼ĭà¼ħ":4090,"à½Ĺà½«":4091,"à½ĺà½¦à½Ķà½¢":4092,"à¾¤à½¾à¼ĭ":4093,"à¾Ļà¾°à¼ĭ":4094,"à¼·à½¼à¼įà¼į":4095,"à¼£à¼¨à¼ł":4096,"à½ħà½ĳà½¢":4097,"à¼¤à¼¡à¼¥":4098,"à¼¤à¼łà¼¥":4099,"à¼¤à¼§à¼¥":4100,"à½Ĥà½Ļà½ĺ":4101,"à½±à½´à¾ĥà¼ĭà¼ĳ":4102,"à½Ģà½§":4103,"à½ĵà½¦à½Ħ":4104,"à¼£à¼©à¼¥":4105,"à¾¦à¾·à½²":4106,"à¼Ģà½ı":4107,"à½łà½ĸà½łà½ŀ":4108,"à½ĺà½£à½Ĥà½¦":4109,"à½¼à¼įà¼ĭà¼ĭ":4110,"à½Ģà½ŀ":4111,"à¾Ńà¾°à¼ĭ":4112,"à¼£à¼¥à¼¢":4113,"à½Ķà½Ĥà½ħ":4114,"à½ĳà½Ĥà½ĵà½¦":4115,"à½Ķà½łà½¦":4116,"à¾łà½±à¼į":4117,"à¼£à¼¦à¼¨":4118,"Ġĉĉ":4119,"à¼£à¼§à¼¡":4120,"à½ĳà½Ĥà½Ł":4121,"à½¨à½£à½¦":4122,"à¾·à¼ĭà¼Ħà¼ħà¼įà¼į":4123,"à½ĺà½¦à½ħà½ĳ":4124,"à½ĸà½ħà½ĳà½Ķ":4125,"Ġà½ĺà½ĩ":4126,"à¼£à¼©à¼¡":4127,"à¾²à½±à¼į":4128,"à½Ģà½ħ":4129,"à½£à½¦à½Ħà½¦":4130,"à¾ļà½±à¼į":4131,"Ġà¼ĭà¼ĭà¼ĭà¼ĭà¼ĭà¼ĭà¼ĭà¼ĭà¼ĭà¼ĭà¼ĭà¼ĭà¼ĭà¼ĭà¼ĭà¼ĭà¼ĭà¼ĭà¼ĭà¼ĭà¼ĭà¼ĭà¼ĭà¼ĭà¼ĭà¼ĭà¼ĭà¼ĭà¼ĭà¼ĭ":4132,"à¾¦à½¾à¼ĭ":4133,"à¾ŀà½²":4134,"Ġà½Ĥà½£":4135,"à½Įà½ĵ":4136,"à½²à¼įà¼Ħà¼ħà¼įà¼į":4137,"à½§à½¢à½ı":4138,"à¼¥à¼¦à¼§":4139,"à¼¡à¼¡à¼¡à¼¡":4140,"à½ķà½Ĭà½¦":4141,"Ġà½ķà½ĵ":4142,"à¾±à¼ĭà½²":4143,"à¼£à¼©à¼©":4144,"à¾Ĵà¾²à½¼à¼į":4145,"à¼£à¼¨à¼¥":4146,"à½´à½¿à¼įà¼į":4147,"à¼£à¼¥à¼¡":4148,"à½ĵà½Ĭ":4149,"à½¼à¼įà¼įà¼¼":4150,"à¼¤à¼¥à¼ł":4151,"à½Ļà½ĺà½ĵ":4152,"à½Ĥà½łà½Ĥ":4153,"à¾Ĺà½ºà¼ĭà¼Ħà¼ħà¼įà¼į":4154,"à¾¶à½´à¼ĭ":4155,"Ġà¼ĭà¼ĭà¼ĭà¼ĭà¼ĭà¼ĭà¼ĭà¼ĭà¼ĭà¼ĭà¼ĭà¼ĭà¼ĭà¼ĭà¼ĭà¼ĭà¼ĭà¼ĭà¼ĭà¼ĭà¼ĭà¼ĭà¼ĭà¼ĭà¼ĭà¼ĭà¼ĭà¼ĭà¼ĭà¼ĭà¼ĭà¼ĭà¼ĭ":4156,"à½¢à½Ļ":4157,"à¼£à¼¨à¼§":4158,"à¾ªà½±à¼į":4159,"à½Ķà½¢à½łà½ĸ":4160,"à½Ķà½ĳà½ĳ":4161,"à¾ľà¼įà¼į":4162,"à½łà½¥":4163,"à¼¤à¼¢à¼¢":4164,"à¼£à¼§à¼¢":4165,"Ġà½Ģà½¢":4166,"à½¨à½Ļà½ł":4167,"Ġà¼ħà¼į":4168,"à½Ķà½łà½ģ":4169,"à¾Ńà¼Ķ":4170,"à½»à½¿à¼įà¼į":4171,"à½±à¼ĭà¼´":4172,"à½ĵà½Ĥà½Ł":4173,"à½ĺà½¦à½ĺà½¦":4174,"à¾·à½±à½´à¼į":4175,"à½Ħà½¦à½ĸ":4176,"à½£à½¦à½Ĥà½ŀà½ĵ":4177,"à¾´à½ºà¼ĭ":4178,"à½£à½Ĥà½Ħ":4179,"à½ĸà½¦à½ŀ":4180,"à¾¨à½²à¼įà¼į":4181,"Ġà½ĺà½¢":4182,"à½Ķà½ĸà½ĳ":4183,"à¼ĭà¼ĭà¼ĭà¼ĭà¼":4184,"à½ĸà½ĺà½Ĳà½ł":4185,"à½Ĥà½¤à½ĵ":4186,"à½Ŀà½§":4187,"Ġà¼ĭà¼ĭà¼ĭà¼ĭà¼ĭà¼ĭà¼ĭà¼ĭà¼ĭà¼ĭà¼ĭà¼ĭà¼ĭà¼ĭà¼ĭà¼ĭà¼ĭà¼ĭà¼ĭà¼ĭà¼ĭà¼ĭà¼ĭà¼ĭà¼ĭà¼ĭà¼ĭ":4188,"à½±à¼įà¼":4189,"ĭà¾¨à¼ĭ":4190,"à¼ĭà¾¨à¼ĭ":4191,"à½Ķà½¦à½ģ":4192,"à¾¤à½²":4193,"à½ģà½Ĩ":4194,"à¼¤à¼¡à¼¡":4195,"Ġà½ĵà½Ĥ":4196,"à¾Ħà¼":4197,"à½±à¼įà¼ĭ":4198,"à½ºà¼ĭà½Ī":4199,"à¼¤à¼¥à¼§":4200,"à¼ĭà¾¢à½ºà¼ĭ":4201,"à½Ĥà½ĺà½Ħ":4202,"à½łà½ĩà½¦":4203,"Ġà½Ĩà½Ĥà½¦":4204,"à¾²à¼ĭà¼Ħà¼ħà¼įà¼į":4205,"à½Ĳà½£à½ĺ":4206,"à½¼à¼ĭà¼ĳà¼":4207,"à¼£à¼©à¼¢":4208,"à½£à½Ķà½¢":4209,"à½¨à½ĵà½ł":4210,"à¼ĭà¼ĭà¼įà¼į":4211,"à½¼à¼ĭà¼ĳà¼ĭ":4212,"à½Ĵà½Ĳà½Ħ":4213,"à¼¡à¼§à¼¡à¼§":4214,"à¼£à¼¥à¼£":4215,"à½ĵà½Ĥà½ŀ":4216,"à½ĳà½ĸà½Ħà½Ĥ":4217,"à½¨à½Ĭà½ł":4218,"à½£à½Ĩà½Ĥà½¦":4219,"à½Ĵà½ĸ":4220,"à½Ģà½¡":4221,"à½©à½İ":4222,"à¼¤à¼¥à¼¦":4223,"à½Ĥà½Ĩà½Ĥà½¦":4224,"à¾µà½±":4225,"à¼¡à¼©à¼¥à¼¤":4226,"à½ĳà½Ĥà½łà½ĸà½¢":4227,"à½¢à½Ķà½¢":4228,"à½ģà½ļ":4229,"à¼¡à¼łà¼¡à¼¡":4230,"à½¢à½ĸà½£":4231,"à¾µà½º":4232,"à½´à½´":4233,"à½¼à¼įà¼ĳ":4234,"à¼įà¼ĭà¼ĭà¼ĭà¼ĭà¼ĭà¼ĭà¼ĭà¼ĭà¼ĭà¼ĭà¼ĭà¼ĭà¼ĭà¼ĭà¼ĭà¼ĭà¼ĭà¼ĭà¼ĭà¼ĭà¼ĭà¼ĭà¼ĭà¼ĭà¼ĭà¼ĭà¼ĭà¼ĭà¼ĭà¼ĭà¼ĭà¼ĭà¼ĭà¼ĭà¼ĭà¼ĭ":4235,"à½Ĥà½ĺà½Ĳ":4236,"à½īà½Ģ":4237,"à¼¤à¼¡à¼¤":4238,"à½¼à¼ĭà¼Ĳà¼įà¼į":4239,"à½łà½ĳà½¦à½¢":4240,"à¾¨à½¼à¼į":4241,"à½ıà½Ļ":4242,"à½Ķà½¢à½Ĥà½¦":4243,"à½ºà¼ĭà¼Ħà¼ħ":4244,"à¼£à¼¨à¼¦":4245,"à½ĺà½łà½ĸ":4246,"à½Ħà½¦à½Ķà½¢":4247,"à¼ĭà¼Ĩ":4248,"à½łà½Ĳà½Ĥà½¦":4249,"à½¿à¼ĭà¼ĳ":4250,"à¾¥à½¼":4251,"à¾ļà½±à½¾à¼ĭ":4252,"à¼µà½¼":4253,"à½ģà½Į":4254,"à¾©à¼ĭà¼Ħà¼ħà¼įà¼į":4255,"ĭà¾²à½²à¼ĭ":4256,"à¼ĭà¾²à½²à¼ĭ":4257,"à½ıà½Ĥà½¦":4258,"à½ĵà½Ħà½ĵ":4259,"à¼¤à¼¦à¼¢":4260,"à½Ħà½¦à½Ķà½¦":4261,"à¼§à¼łà¼§":4262,"à½Ķà½ĳà½ĸ":4263,"à½ĸà½łà½ĩ":4264,"à¼£à¼©à¼¨":4265,"à¼įà¼ĭà¼ĭà¼ĭà¼ĭà¼ĭà¼ĭà¼ĭà¼ĭà¼ĭà¼ĭà¼ĭà¼ĭà¼ĭà¼ĭà¼ĭà¼ĭà¼ĭà¼ĭà¼ĭà¼ĭà¼ĭà¼ĭà¼ĭà¼ĭà¼ĭà¼ĭà¼ĭà¼ĭà¼ĭà¼ĭà¼ĭà¼ĭà¼ĭ":4266,"à½łà½ķà½Ĥà½¦à½Ķ":4267,"à½ĸà½ĸà½ĸà½ĸà½ĸà½ĸà½ĸà½ĸ":4268,"à¾Ĵà¾·à½¾à¼į":4269,"à½ĺà½¦à½Ķà½ł":4270,"à½ĸà½ĳà½Ĥà½ĵ":4271,"Ġà¼§à¼§":4272,"à¼ĭà½Īà¾±à½º":4273,"à¾ŀà½¾à¼į":4274,"à½£à½¦à½ŀ":4275,"à¼¥à¼¢à¼¢":4276,"à½Ħà½Ķà½¢":4277,"à½¦à½ĸà½ł":4278,"à¾ļà½¿à¼ĭ":4279,"à¼£à¼¨à¼¢":4280,"à¼¤à¼¡à¼ł":4281,"à¼¤à¼¡à¼©":4282,"à¼¤à¼§à¼§":4283,"à½§à½Ĥ":4284,"à½ķà½Ŀà½«":4285,"à¼¡à¼©à¼§à¼¨":4286,"à½¢à½¨":4287,"à½±à½²à½¿à¼į":4288,"à½Ģà½«":4289,"à½ħà½ĸ":4290,"à½Ĵà½Ĳ":4291,"à½ĵà½ĩ":4292,"à¼¤à¼¦à¼©":4293,"à½¦à½Ĥà½ĵà½¦":4294,"à½¥à½Ħà½¥":4295,"à½Łà½Ĳà½¥":4296,"à¾·à¾²à½±à½´à¾ĥà¼Ķ":4297,"à¼¤à¼¡à¼¦":4298,"à½ĸà½ĺà½ł":4299,"à¼µà½²":4300,"à½ĵà½Ĥà½ħ":4301,"à½¦à½ĳà½ĸ":4302,"à½ĳà½Ĥà½łà½ĺ":4303,"à¾Ĳà½´à¼ĭà¼ĳ":4304,"à¼¡à¼©à¼¥à¼§":4305,"à½ĳà½Ļà½ĺ":4306,"à½Ĭà½ĵ":4307,"à¼¥à¼¥à¼¥":4308,"à¾Łà¾Ńà½±à¼ĭ":4309,"à¼¥à¼¡à¼¢":4310,"à½Ħà½£à½¦":4311,"à½ļà½łà½ĺ":4312,"Ġà¼¤à¼§":4313,"à½ģà½ī":4314,"à½ĸà½¦à½ĺà½Ķ":4315,"à¾ĭà½ĺ":4316,"à½ĸà½Ĥà½ŀà½ĵ":4317,"à¼£à¼¨à¼¤":4318,"à½ĸà½ĵà½ĺ":4319,"à¼¡à¼©à¼¦à¼¢":4320,"Ġà¼§à¼¥":4321,"à½łà½Ĥà½ĳ":4322,"à½ģà½Ļ":4323,"à½Ĥà½¦à½£à½¦":4324,"à¾¡à¾²à½²":4325,"à½Ķà½¢à½ĸà½¢":4326,"à½´à¼ĭà½Ī":4327,"à½¡à½İà½ł":4328,"ĭà½¿à¼į":4329,"à¼Ķà¼Ħà¼ħà¼įà¼į":4330,"à¼£à¼©à¼£":4331,"à¾±à¾±à½²à¼ĭ":4332,"à¼¤à¼łà¼¦":4333,"à½¦à½łà½ģ":4334,"à½Ĥà½Ħà½Łà½Ĥ":4335,"à¼¤à¼¦à¼¨":4336,"à½±à¼ĭà¼½":4337,"à¾³à¼·à¼ĭ":4338,"à¾´à½²":4339,"à¾²à¾Ĥà¼ĭ":4340,"à½¡à½Ĭ":4341,"Ġà½£à½ĵ":4342,"à½łà½ĩà½ĳ":4343,"à½©à½ı":4344,"à¼įà¼ĭà¼ĭà¼ĭà¼ĭà¼ĭà¼ĭà¼ĭà¼ĭà¼ĭà¼ĭà¼ĭà¼ĭà¼ĭà¼ĭà¼ĭà¼ĭà¼ĭà¼ĭà¼ĭà¼ĭà¼ĭà¼ĭà¼ĭà¼ĭà¼ĭà¼ĭà¼ĭà¼ĭà¼ĭà¼ĭ":4345,"à¼¤à¼¢à¼¥":4346,"à¼ĭà½¿à¼į":4347,"à½¦à½Ĥà½¥":4348,"Ġà½Ĳà½ĺ":4349,"à½ĳà½łà½ĸ":4350,"à¼£à¼¨à¼¡":4351,"à¼¤à¼¤à¼¢":4352,"à½§à½§à½§à½§à½§à½§à½§à½§":4353,"à½īà½ĺà½¦à½¦":4354,"à¾ªà½º":4355,"à¾Ĥà¼į":4356,"Ġà¼ĭà¼ĭà¼ĭà¼ĭà¼ĭà¼ĭà¼ĭà¼ĭà¼ĭà¼ĭ":4357,"à¼§à¼§à¼§":4358,"Ġà¼ĭà¼¼":4359,"à½ĸà½ıà½ĺà½¦":4360,"à½Ģà½Ł":4361,"à½ĵà½ĺà½¢":4362,"à½Ĳà½ĺà½¦à½ħà½ĳà½£":4363,"à¼ĭà¼ĭà¼ĭà¼ĭà¼Ħà¼ħà¼įà¼į":4364,"à½ĺà½ļà½ł":4365,"à½Ĥà½¦à½£à½ĸ":4366,"Ġà¼ĭà¼ĭà¼ĭà¼ĭà¼ĭà¼ĭà¼ĭà¼ĭà¼ĭà¼ĭà¼ĭà¼ĭà¼ĭà¼ĭà¼ĭà¼ĭà¼ĭà¼ĭà¼ĭà¼ĭà¼ĭà¼ĭà¼ĭà¼ĭà¼ĭà¼ĭà¼ĭà¼ĭà¼ĭà¼ĭà¼ĭà¼ĭà¼ĭà¼ĭà¼ĭà¼ĭà¼ĭà¼ĭà¼ĭà¼ĭà¼ĭà¼ĭà¼ĭà¼ĭà¼ĭà¼ĭà¼ĭà¼ĭà¼ĭà¼ĭà¼ĭà¼ĭà¼ĭà¼ĭà¼ĭà¼ĭà¼ĭà¼ĭà¼ĭà¼ĭà¼ĭà¼ĭà¼ĭà¼ĭà¼ĭà¼ĭà¼ĭà¼ĭà¼ĭà¼ĭà¼ĭà¼ĭà¼ĭà¼ĭà¼ĭà¼ĭà¼ĭà¼ĭà¼ĭà¼ĭà¼ĭà¼":4367,"à½Ĥà½ĺà½¦":4368,"à½£à½ĸà½ĳà½Ĥ":4369,"à½¢à½ĸà½ĳà½Ĥ":4370,"à½ĵà½¦à½Ĩ":4371,"à¾²à¾ĥà¼ĭ":4372,"à½ĳà½ĸà½ĳà½Ĥ":4373,"à½£à½ĺà½ĺ":4374,"à½ĳà½Ķà½łà½ĸ":4375,"à¼¦à¼¥à¼ł":4376,"à¼¤à¼¢à¼¦":4377,"à¼£à¼¨à¼¨":4378,"à½¢à½Ĳà½£":4379,"à¼łà¼łà¼łà¼łà¼łà¼ł":4380,"à½ĵà½łà½Ħà½¦":4381,"à½Ķà½łà½Ĩ":4382,"à¼¤à¼¡à¼¨":4383,"à¼ĭà½ºà½²":4384,"à½łà½ĳà½Ĥà½¦":4385,"à½¢à½Ĭ":4386,"à¼¤à¼¥à¼©":4387,"à½Ľà½Ħ":4388,"à½łà½ĳà½ĸà½ĺ":4389,"à¼£à¼¨à¼£":4390,"à¼¤à¼¦à¼§":4391,"à¾¼à¾Ģà¼ĭ":4392,"à¼£à¼©à¼¤":4393,"à¼łà¼łà¼łà¼¨":4394,"Ġà¼ĭà¼ĭà¼ĭà¼ĭà¼ĭà¼ĭà¼ĭà¼ĭà¼ĭà¼ĭà¼ĭà¼ĭà¼ĭà¼ĭà¼ĭà¼ĭà¼ĭà¼ĭà¼ĭà¼ĭà¼ĭà¼ĭà¼ĭà¼ĭà¼ĭà¼ĭà¼ĭà¼ĭà¼ĭà¼ĭà¼ĭà¼ĭà¼ĭà¼ĭà¼ĭà¼ĭ":4395,"à½¦à½Ĥà½ŀà½ĵ":4396,"à¾¤à½´à¼įà¼į":4397,"à¼¦à¼¡à¼§":4398,"à½Ĺà½Ħ":4399,"Ġà¼¤à¼¨":4400,"à¾±à½±à½¿à¼ĭ":4401,"à¾Ĳà¾±à¾²à½º":4402,"à½ĵà½ĵà½ĳ":4403,"à½ĳà½Ħà½ł":4404,"à½¢à½ĸà½ħ":4405,"à¼¥à¼¦à¼¥":4406,"à¾±à¾·à½²":4407,"à½²à¼ĭà½Īà½²":4408,"à½¦à½ĺà½ļà½ĵ":4409,"à¼¤à¼¢à¼ł":4410,"à¾µà½±à½²à¼ĭ":4411,"à½ĵà½¦à½Ĥ":4412,"à½Ģà½Ģà½Ģ":4413,"à½Ĥà½ĸà½ĳ":4414,"à¼łà¼łà¼łà¼©":4415,"à½łà½ĳà½Ħà½¦":4416,"à¾¡à¾·à½´à¼į":4417,"à½Ķà½¢à½ĸà½Ĥ":4418,"à¾Łà¼ĭà¼ĳ":4419,"à½²à¼ĭà¼ŀ":4420,"à½ģà½¡":4421,"à½Ĥà½ŀà½ĵà½¦":4422,"à¼¤à¼¦à¼¤":4423,"à¼¤à¼¢à¼¡":4424,"à½¢à½¦à½Ħà½¦":4425,"à½¦à½¦à½Ħà½¦":4426,"à¼¡à¼©à¼§à¼ł":4427,"à¼¤à¼§à¼¢":4428,"à½£à½Ĥà½Ł":4429,"à¼¤à¼łà¼§":4430,"à¼¤à¼¡à¼£":4431,"à½Ĵà½Ĩ":4432,"à½£à½Ĥà½ŀà½ĵ":4433,"à½ĸà½¢à½ĸà½¦":4434,"à¾ĭà½Ķà½İ":4435,"Ħà¼Ħ":4436,"à½ĵà½ĺà½¦à½¢":4437,"à½Ĥà½ŀà½ĵà½ĳà½Ĥ":4438,"à½¦à½Ĥà½¦à½Ħ":4439,"à½ĵà½Ķà½ĵ":4440,"à¾©à½¾à¼į":4441,"à¼įà¼ĭà¼ĭà¼ĭà¼ĭà¼ĭà¼ĭà¼ĭà¼ĭà¼ĭà¼ĭà¼ĭà¼ĭà¼ĭà¼ĭà¼ĭà¼ĭà¼ĭà¼ĭà¼ĭà¼ĭà¼ĭà¼ĭà¼ĭà¼ĭà¼ĭà¼ĭà¼ĭà¼ĭà¼ĭà¼ĭà¼ĭà¼ĭà¼ĭà¼ĭà¼ĭà¼ĭà¼ĭà¼ĭà¼ĭà¼ĭà¼ĭà¼ĭà¼ĭà¼ĭà¼ĭà¼ĭà¼ĭà¼ĭà¼ĭà¼ĭà¼ĭà¼ĭà¼ĭà¼ĭà¼ĭà¼ĭà¼ĭà¼ĭà¼ĭà¼ĭà¼ĭà¼ĭà¼ĭà¼ĭà¼ĭà¼ĭà¼ĭà¼ĭà¼ĭà¼ĭà¼ĭà¼ĭà¼ĭà¼ĭà¼ĭà¼ĭà¼ĭà¼ĭà¼ĭà¼ĭà¼ĭà¼":4442,"à½ĺà½Ĳà½ĳ":4443,"à½ĸà½Ŀ":4444,"à¼¤à¼¢à¼¤":4445,"à½Ĥà½¦à½łà½ĳ":4446,"à½ĺà½Ĩà½Ĥà½¦":4447,"à½²à¼ĭà½Īà½º":4448,"Ġà½ĳà½ĳ":4449,"à½ĺà½ļà½£à½¦":4450,"à½£à½¦à½ł":4451,"Ġà¼§à¼¦":4452,"à½¦à½ĵà½ł":4453,"à¼¥à¼¢à¼¥":4454,"Ġà¼¤à¼¢":4455,"Ġà½ĺà½Ĳà½¢":4456,"à½ĺà½īà½ĺà½Ķ":4457,"à¼¤à¼¤à¼§":4458,"à¾´à¼į":4459,"à½¦à½Ķà½£":4460,"Ġà¼¥à¼¨":4461,"à¾Ĺà½ºà¼ĭà¼ĳ":4462,"à½¦à½ĸà½ĳà½Ĥ":4463,"à¿ī":4464,"à¼¥à¼łà¼¥":4465,"à¾¨à½¿à¼į":4466,"à¾¦à¾·à½´à¼ĭ":4467,"à½ĳà½ĺà½Ķà½ł":4468,"à½łà½Ĳà½¢":4469,"à¼¡à¼©à¼¦à¼£":4470,"à½Łà½Ķ":4471,"à¾Ńà½¼à¼į":4472,"à¼¦à¼¢à¼¢":4473,"à¾Ĵà¾²à¾±à½²":4474,"à¾Ķà¾·à¼ĭ":4475,"à¼¤à¼¢à¼§":4476,"Ġà¼¤à¼¡":4477,"ĭà¾¡à½¼":4478,"à¼ĭà¾¡à½¼":4479,"à½łà½¤":4480,"à¼¤à¼¥à¼¨":4481,"à¼¤à¼łà¼¨":4482,"à½ıà½¤":4483,"à¼įà¼ĭà¼ĭà¼ĭà¼ĭà¼ĭà¼ĭ":4484,"à¼¤à¼¦à¼¡":4485,"à½¡à½Ĳ":4486,"à½Ķà½¦à½ĸà½¦":4487,"à¼įà¼ĭà¼ĭà¼ĭà¼ĭà¼ĭà¼ĭà¼ĭà¼ĭà¼ĭà¼ĭà¼ĭà¼ĭà¼ĭà¼ĭà¼ĭà¼ĭà¼ĭà¼ĭà¼ĭà¼ĭà¼ĭà¼ĭà¼ĭà¼ĭà¼ĭà¼ĭà¼ĭà¼ĭà¼ĭà¼ĭà¼ĭà¼ĭà¼ĭà¼ĭà¼ĭà¼ĭà¼ĭà¼ĭà¼ĭ":4488,"à½Ķà½¦à½Ģ":4489,"Ġà¼¤à¼£":4490,"à¾Ĳà¾²à½²à¼ĭ":4491,"à¾·à¾²à½´à¼ĭ":4492,"à½±à½¿":4493,"Ġà¼§à¼¢":4494,"à½ºà¼ĭà¼Ĳ":4495,"à½ĸà½ĺà½ĳ":4496,"à¼¦à¼¢à¼©":4497,"à¼¤à¼łà¼©":4498,"à¼¡à¼©à¼¥à¼¥":4499,"à¾²à¾°à½²":4500,"à¾±à¾±à½º":4501,"à¾Ĵà½±à¼į":4502,"à½±à¾ĥà¼Ķ":4503,"à½İà½£":4504,"à½¦à½Ŀ":4505,"à¼¦à¼¡à¼¢":4506,"à½¢à½Ĥà½ŀà½ĵ":4507,"à½ĸà½ħà½ĺ":4508,"à¼¥à¼¡à¼¥":4509,"à¼§à¼¡à¼¢":4510,"à½Ĳà½ĺà½¦à½ħà½Ħ":4511,"à½¦à½ĵà½ĺ":4512,"à½Ĥà½§":4513,"à¼¤à¼¦à¼ł":4514,"à¾Ļà¾±à½²":4515,"à¼¡à¼©à¼¦à¼¡":4516,"à½¡à½ĸà½¦":4517,"à¼¤à¼¨à¼¦":4518,"à½ºà¼įà¼įà¼įà¼į":4519,"à¼¡à¼©à¼§à¼¦":4520,"à¼Ŀà¼į":4521,"à¾łà½¾à¼ĭ":4522,"Ġà½Łà½¦":4523,"à½¦à½ĸà½¤à½ĳ":4524,"à¾£à½²à¼į":4525,"à½ģà½ĺà½¦à½ĵ":4526,"à¼¡à¼©à¼¦à¼¦":4527,"à¾±à¼ĭà¼ĳà¼":4528,"à¾±à¼ĭà¼ĳà¼ĭ":4529,"à½ģà½ĺà½¦à½Ģ":4530,"à¼¤à¼§à¼¦":4531,"à¾¦à¾²à½ºà¼ĭ":4532,"à½Ĥà½¤à½ĳ":4533,"à½¦à½Ĥà½ħ":4534,"à¾¡à¾²à½±à¼ĭ":4535,"à½ĺà½Ĳà½£":4536,"à½¨à½ģ":4537,"à½ĵà½ħà½ĵ":4538,"à½¡à½¥":4539,"à½ĸà½ĳà½Ĥà½£":4540,"à½£à½ħà½ĵ":4541,"à¾Łà½±à½²":4542,"à¼¡à¼©à¼¦à¼©":4543,"à½¼à¼ĭà½º":4544,"à½ıà½¡":4545,"à¼łà¼łà¼¡à¼ł":4546,"à½ĺà½Ĳà½łà½¡à½¦":4547,"à¾Łà½ºà¼įà¼įà¼į":4548,"à¼¦à¼łà¼¦":4549,"à½Ĥà½Ĥà½ŀà½ĵ":4550,"à½ĵà½¦à½ģ":4551,"à½ĳà½Ķà½Ģ":4552,"à½£à½Ĥà½ŀ":4553,"à½ĳà½ĺà½Ķ":4554,"à½¦à½ĸà½ĳ":4555,"à½£à½Ľ":4556,"à½¦à½łà½ĩ":4557,"à½ĳà½Ħà½łà½ĳ":4558,"à½ĳà½Ħà½ĺà½Ĳ":4559,"à½£à½ĺà½īà½ĺ":4560,"à½£à½Ĥà½ħ":4561,"à¼¥à¼§à¼¥":4562,"à½ĵà½ĳà½Ķ":4563,"à½Ħà½Ĥà½ŀ":4564,"à½¢à½Ĥà½ĵà½¦":4565,"à½¢à½ĺà½Ħ":4566,"à½¼à¼ĭà½Ī":4567,"à½Ĳà½¢à½Ķ":4568,"à¼¤à¼¨à¼¥":4569,"à¾±à½´à¼·":4570,"à½łà½Ļà½£":4571,"à½Ĳà½Ķ":4572,"à¼¤à¼¤à¼¦":4573,"à½±à½´à½¾à½¿à¼ĭ":4574,"Ġà¼§à¼¨":4575,"à¾Łà¾Łà½²à¼ĭ":4576,"à¾±à½²à¼ĭà¼½":4577,"à½Ķà½¢à½Ĳà½£":4578,"à½ĳà½Ĥà½¤":4579,"à½ĳà½Ķà½£à½¦":4580,"à¾²à½²à¼ĭà¼ĳ":4581,"à½ĳà½Ħà½¤":4582,"à½£à½¦à½Ĩ":4583,"à½Ħà½Ĥà½ł":4584,"à¾¨à½²à½¾à¼ĭ":4585,"à¼¤à¼¥à¼¢":4586,"à½¼à¼ĭà¼İà¼įà¼į":4587,"à¼¤à¼¨à¼ł":4588,"à½²à¼įà¼½":4589,"à¾Ĳà¾±à¾²à½ºà¼ĭ":4590,"à¼¤à¼¤à¼¡":4591,"à¼§à¼£à¼§":4592,"Ġà½Ħà½ĵ":4593,"à¼¦à¼¡à¼ł":4594,"à½±à½¾à¼Ķ":4595,"à½Ĥà½Ĥà½Ħ":4596,"à¾Ĵà½´à¼į":4597,"Ġà¼¥à¼¤":4598,"à½łà½Ķà½Ĥà½¦":4599,"à¼§à¼¡à¼ł":4600,"à½ĺà½ĺà½ģ":4601,"à¾¡à¾·à¾±à¼ĭ":4602,"à¼¥à¼¦à¼©":4603,"à¼įà¼ĭà¼ĭà¼ĭà¼ĭà¼ĭà¼ĭà¼ĭà¼ĭà¼ĭà¼ĭà¼ĭà¼ĭà¼ĭà¼ĭà¼ĭà¼ĭà¼ĭà¼ĭà¼ĭà¼ĭà¼ĭà¼ĭà¼ĭà¼ĭà¼ĭà¼ĭà¼ĭ":4604,"à½Ŀà½¡":4605,"à¼¦à¼¥à¼§":4606,"à½ĭà½ī":4607,"à¼¦à¼§à¼¨":4608,"à½Ķà½¢à½¦à½Ħà½¦":4609,"à½łà½ĳà½¦à½ĺ":4610,"à¾ĭà½ĸ":4611,"à¼¤à¼¥à¼¡":4612,"à¼¥à¼©à¼¥":4613,"à½İà½Ķ":4614,"à¼©à¼¡à¼ł":4615,"à¾¦à¾·à¾±à½±à½¾à¼į":4616,"à½ĸà½¢à½łà½ĳ":4617,"à½Ħà½ĵà½ĺ":4618,"à½Ĥà½¦à½ģ":4619,"à¾³à¾³à¼ĭ":4620,"à¼¥à¼¦à¼¡":4621,"à½ķà½ħà½¥":4622,"à¾³à½±":4623,"à½¨à½Ĳ":4624,"à½¼à¼įà¼İ":4625,"à½©à½¡":4626,"à½Ĥà½Ħà½ĳà½Ĥ":4627,"à½ĳà½Ķà½Ĥà½ı":4628,"Ġà¼¥à¼¥":4629,"à½´à½¿à¼Ķ":4630,"à½ºà¼·à¼į":4631,"à½ļà½ĳà½¦":4632,"Ġà¼¥à¼§":4633,"à½łà½łà½Ĥ":4634,"à¾ļà½´à¼ĭ":4635,"à½ĥà½ĵ":4636,"à½¢à½ĺà½ĳ":4637,"à¼¤à¼¥à¼¤":4638,"à¼¥à¼¡à¼§":4639,"à½ĳà½¡à½Ħ":4640,"à½ĳà½ĳà½Ķà½ł":4641,"à¼¤à¼łà¼¢":4642,"à½Ĥà½ĸà½ħ":4643,"à½ĸà½Ĩà½ĳ":4644,"Ġà¼¼à¼¼":4645,"à½ĺà½¦à½£à½¦":4646,"à¼¥à¼¤à¼¡":4647,"à¼¤à¼©à¼¥":4648,"à¼¥à¼¥à¼¢":4649,"à¼¡à¼©à¼¤à¼§":4650,"à¼ĭà¼´à¼":4651,"à½©à½¦":4652,"à½£à½ĳà½ĸ":4653,"Ġà¼įà¼Ħà¼ħà¼įà¼į":4654,"à¼¤à¼§à¼©":4655,"à½Ķà½ĺà½ĳ":4656,"à¾³à½´à¼Ķ":4657,"à½²à¼ĭà¼ĳà¼ĳ":4658,"à½ĺà½Ŀ":4659,"à½Ķà½¦à½Ħà½¦":4660,"à¼¥à¼¥à¼§":4661,"à¼¦à¼¡à¼¨":4662,"à¼¤à¼łà¼¡":4663,"à¼¤à¼§à¼ł":4664,"à¼¥à¼¤à¼¢":4665,"à¾²à½±à½²à¼įà¼į":4666,"à¼ĭà¼´à¼ĭ":4667,"Ġà½ŀà½ĸà½¦":4668,"Ġà½Ĥà½Łà½ł":4669,"à½ĺà½Ħà½Ķ":4670,"à¾¾à¼į":4671,"à½Ħà½Ķà½¦":4672,"à½¤à½§":4673,"Ġà¼Ħà¼į":4674,"à¼ĭà½Īà¾¦à¾·à½±à½²":4675,"à½¦à½ĺà½Ľà½ĳ":4676,"à¼¥à¼©à¼¦":4677,"à¾µà¾ŀà¼ĭ":4678,"à¾Ħà¼Ķ":4679,"à¼¤à¼¦à¼¦":4680,"à¼¦à¼łà¼¥":4681,"à¼ĭà¼ľ":4682,"à¼¤à¼¢à¼¨":4683,"à½Łà½ķ":4684,"à¼¤à¼¨à¼¢":4685,"à¼¥à¼łà¼©":4686,"à½ĳà½Ħà½ĺà½ļ":4687,"à½ĸà½Ģà½Ħà½¦":4688,"à¼įà¼ĭà¼ĭà¼ĭà¼ĭà¼ĭà¼ĭà¼ĭà¼ĭà¼ĭà¼ĭà¼ĭà¼ĭà¼ĭà¼ĭà¼ĭà¼ĭà¼ĭà¼ĭà¼ĭà¼ĭà¼ĭ":4689,"à¼¥à¼¡à¼¡":4690,"à¼¦à¼¢à¼¤":4691,"à¼¡à¼©à¼§à¼¤":4692,"Ġà¼ĭà¼ĭà¼ĭà¼ĭà¼ĭà¼ĭà¼ĭà¼ĭà¼ĭà¼ĭà¼ĭ":4693,"à½Ħà½¡à½Ħ":4694,"à¼ĭà¼ī":4695,"à¼įà¼ĭà¼ĭà¼ĭà¼ĭà¼ĭà¼ĭà¼ĭà¼ĭà¼ĭà¼ĭà¼ĭà¼ĭà¼ĭà¼ĭà¼ĭà¼ĭà¼ĭà¼ĭà¼ĭà¼ĭà¼ĭà¼ĭà¼ĭà¼ĭ":4696,"à½¼à¼įà¼įà¼Į":4697,"à¼¤à¼©à¼§":4698,"à½Ĥà½ĳà½Ķ":4699,"à½ĺà½ĸà½ħ":4700,"à½Ĩà½ĳà½ĺ":4701,"à½Łà½«":4702,"à¼¤à¼§à¼¨":4703,"à½²à¼ĭà¼ħ":4704,"à¼łà¼¢à¼ł":4705,"à½Ĵà½Ħ":4706,"à½Ĵà½£":4707,"à¼įà¼ĭà¼ĭà¼ĭà¼ĭà¼ĭà¼ĭà¼ĭ":4708,"à¼¥à¼¦à¼¢":4709,"à¾¼à¾»":4710,"à¼¥à¼¢à¼¡":4711,"à½¢à½Ĥà½ī":4712,"à½Ħà½łà½ĸ":4713,"à½Ĳà½ĺà½¢":4714,"à½¾à¼ĭà¼İ":4715,"à¼¤à¼£à¼¥":4716,"à¼¤à¼¢à¼©":4717,"à¼¤à¼łà¼£":4718,"à¼¤à¼§à¼¡":4719,"à½ĳà½Ĥà½łà½¢":4720,"à½Ĥà½ĳà½¦":4721,"à½Ĺà½Ĳà½Ħ":4722,"à¾·à¾±à½¼à½¿à¼įà¼į":4723,"à¼¤à¼¨à¼©":4724,"à¼¦à¼§à¼¢":4725,"à¼ĭà¼Ħà¼ħà¼İ":4726,"à½ıà½§":4727,"Ġà¼ĭà¼ĭà¼ĭà¼ĭà¼ĭà¼ĭà¼ĭà¼ĭà¼ĭà¼ĭà¼ĭà¼ĭà¼ĭà¼ĭà¼ĭà¼ĭà¼ĭà¼ĭà¼ĭà¼ĭà¼ĭà¼ĭà¼ĭà¼ĭà¼ĭà¼ĭà¼ĭà¼ĭà¼ĭà¼ĭà¼ĭà¼ĭà¼ĭà¼ĭà¼ĭà¼ĭà¼ĭà¼ĭà¼ĭ":4728,"à½£à½£à½ĺ":4729,"à½Ĥà½Łà½Ħ":4730,"à¾³à¼·":4731,"à¼¼à¼¼":4732,"à¼¥à¼¨à¼¥":4733,"à¼¦à¼¦à¼¢":4734,"à½«à½Ħ":4735,"à½Ļà½ĺà½Ĥ":4736,"Ġà¼§à¼¤":4737,"à½¾à¼įà¼įà¼į":4738,"à½ĺà½¦à½Ĩ":4739,"à¾Ķà½´à¼į":4740,"à½ĳà½¦à½Ħà½¦":4741,"à¼ĭà¼įà¼İ":4742,"à½ĸà½Ĥà½ĵà½¦":4743,"à½¢à½¢à½ĸ":4744,"à½Ĥà½ħà½Ħ":4745,"à¼¥à¼¡à¼ł":4746,"à½Ĺà½ł":4747,"à¾±à½²à¼ĭà¼Ī":4748,"à¼¥à¼§à¼©":4749,"à¼įà¼ĭà¼ĭà¼ĭà¼ĭà¼ĭà¼ĭà¼ĭà¼ĭà¼ĭà¼ĭà¼ĭà¼ĭà¼ĭà¼ĭà¼ĭà¼ĭà¼ĭà¼ĭ":4750,"à½´à¼įà¼Ħà¼ħà¼įà¼į":4751,"à¼¥à¼¥à¼¦":4752,"à¼¥à¼§à¼§":4753,"à½Ľà½ı":4754,"à½Ŀà½¨":4755,"à½Ħà½Ħà½¦":4756,"à¾Ĵà½±à½²à¼ĭ":4757,"à½Ķà½¢à½Ĥà½ĵà½¦":4758,"à½ĸà½łà½ķ":4759,"Ġà¼¥à¼¡":4760,"à¾·à½±à½²à¼ĭà¼Ħà¼ħà¼įà¼į":4761,"à½Ħà½ĸà½ĳ":4762,"à¼¦à¼¨à¼§":4763,"à½Ĥà½ĩ":4764,"à½ĸà½ĺà½Ľà½ĳ":4765,"à¼½à¼":4766,"à½©à½¢":4767,"à½ĸà½ŀà½£":4768,"à½Ħà½ĺà½ł":4769,"à¾±à½¼à¼Ķ":4770,"à½ĵà½¦à½ĸà½¦":4771,"à½ĺà½ģà½łà½łà½Ĥ":4772,"à½Ĥà½Ĥà½ĵà½¦":4773,"à¾ªà¼Ķ":4774,"ĭà½¾à¼ĭ":4775,"à¼ĭà½¾à¼ĭ":4776,"à¼¡à¼©à¼¡à¼£":4777,"à¾¡à¾·à½¼à¾ħà¼":4778,"à¾¡à¾·à½¼à¾ħà¼ĭ":4779,"à¼¦à¼¡à¼¡":4780,"à¼¥à¼©à¼§":4781,"Ġà½Ĥà½ıà½ĵ":4782,"à½ĳà½Ĥà½łà½ĳ":4783,"à½¡à½Ħà½¤":4784,"à¾¶à½²à¼ĭ":4785,"Ġà½ĺà½ļà½ĺà½¦":4786,"à½łà½Ĥà½ĵà½¦":4787,"à¼¦à¼¢à¼¦":4788,"à¼µà½²à¼ĭ":4789,"à½£à½ĳà½ĸà½Ħ":4790,"à½Ĥà½Łà½Ĥ":4791,"à¼¦à¼§à¼©":4792,"à½ºà¼ĭà¼½à¼¼":4793,"à½Ĥà½¦à½ĸà½ł":4794,"à¼¡à¼©à¼¡à¼¢":4795,"à¼¥à¼¨à¼§":4796,"à¼¡à¼¢à¼¨à¼§":4797,"à¼¥à¼łà¼§":4798,"à¾¾à¾¾à¾¾à¾¾":4799,"à¼½à¼ĭ":4800,"à½¦à½¡à½Ħ":4801,"Ġà¼ĭà¼Ī":4802,"à¼¦à¼¤à¼¡":4803,"à¼łà¼łà¼¡à¼¡":4804,"à¼©à¼©à¼©":4805,"à½Ĥà½ĸà½ł":4806,"à¼¤à¼£à¼§":4807,"à¼¡à¼©à¼§à¼£":4808,"à¼¤à¼¨à¼§":4809,"à½ĳà½ħà½ĵ":4810,"à¼¦à¼¢à¼¥":4811,"à¼¥à¼¢à¼¦":4812,"à¼¡à¼¤à¼¡à¼¥":4813,"à¼ĭà¾İà¼į":4814,"à½Ķà½Ħà½¦":4815,"Ġà¼¤à¼©":4816,"à½Ħà½¦à½ŀ":4817,"à½¡à½Ħà½ĸ":4818,"à½Ħà½łà½Ħ":4819,"à¼¨à¼łà¼ł":4820,"à¼ĭà¼ĭà¼ĭà¼ĭà¼ĭà¼į":4821,"à½ģà½ŀ":4822,"à½¢à½ĸà½ĵ":4823,"à¾·à½´à¼Ķ":4824,"à½łà½ĩà½ĺà½ĳà½Ķà½£":4825,"Ġà½Ĳà½£":4826,"à¼¦à¼¦à¼¥":4827,"à½£à½ĵà½ĺ":4828,"à½Ĥà½ĵà½¦à½£":4829,"à¼¥à¼§à¼¨":4830,"à½ĸà½¤à½Ħà½¦":4831,"à¼¤à¼¤à¼©":4832,"à¼¥à¼©à¼¢":4833,"à½ĳà½ĳà½¦":4834,"à¼¤à¼£à¼¤":4835,"à½Ĳà½Ģà½¡":4836,"à¾Łà½ºà¼ĭà¼Ħà¼ħà¼įà¼į":4837,"à¼¡à¼©à¼¥à¼¢":4838,"à¼łà¼łà¼¡à¼¢":4839,"à½¦à½ĳà½ĺ":4840,"à¼¥à¼¤à¼¥":4841,"à½²à½¼à¼įà¼į":4842,"à½ĵà½ĸà½Ģ":4843,"à½ĸà½Ĥà½ħ":4844,"à½²à¼ĭà¼Ħ":4845,"à½ĳà½Ĥà½£à½¦":4846,"à¾·à½»":4847,"à¾ľà½±à½²":4848,"Ġà½īà½ĵ":4849,"à½Įà½¦":4850,"à¼¥à¼¨à¼¦":4851,"à½ĵà½ĳà½ĸà½Ħ":4852,"à¼¥à¼¦à¼¦":4853,"à½ĳà½Ĥà½łà½ĸà½ł":4854,"à¼Ģà½¡":4855,"à½¢à½ĸà½¤à½ĳ":4856,"à½ķà½ŀ":4857,"à½ĵà½ĺà½ĺ":4858,"à¼§à¼¢à¼¢":4859,"à¼¤à¼£à¼£":4860,"à¼¥à¼©à¼ł":4861,"à¼¤à¼£à¼¦":4862,"à½Ķà½ĸà½ł":4863,"à¼¥à¼¢à¼¤":4864,"à¼¡à¼©à¼§à¼§":4865,"à½ĭà½ĵ":4866,"à¼¥à¼§à¼¦":4867,"à½ģà½ĺà½¦à½¦":4868,"à¼ĭà¼Ķà¼":4869,"à¾¨à¾±à½¼à¼įà¼į":4870,"à½¢à½ĺà½Ĩ":4871,"à½ĳà½Ħà½ŀ":4872,"à½ĺà½Ĳà½ĺà½¦":4873,"à¾²à½¼à¼ĭà¼Ħà¼ħà¼įà¼į":4874,"à¼§à¼¥à¼¦":4875,"à½ĺà½ĺà½Ħ":4876,"à½Ĥà½łà½ģ":4877,"à½¦à½ĺà½Ľ":4878,"à½Ĩà½Ĭ":4879,"à¼¦à¼§à¼¥":4880,"à½Ĥà½Łà½ĳ":4881,"à½´à¼įà¼½":4882,"à½ĵà½ĵà½ĵ":4883,"à¼¥à¼©à¼©":4884,"à½ĳà½Ķà½ĺ":4885,"à½ĩà½¦":4886,"à¼¦à¼¥à¼¢":4887,"à¼įà¼ĭà¼ĭà¼ĭà¼ĭà¼ĭà¼ĭà¼ĭà¼ĭà¼ĭà¼ĭà¼ĭà¼ĭà¼ĭà¼ĭà¼ĭà¼ĭà¼ĭà¼ĭà¼ĭà¼ĭà¼ĭà¼ĭà¼ĭà¼ĭà¼ĭà¼ĭà¼ĭà¼ĭà¼ĭà¼ĭà¼ĭà¼ĭà¼ĭà¼ĭà¼ĭà¼ĭà¼ĭà¼ĭà¼ĭà¼ĭà¼ĭà¼ĭ":4888,"à¼¥à¼¢à¼©":4889,"à¾¥à½´à¼į":4890,"à¾Łà½±à½²à¼į":4891,"à½ĳà½Ĥà½ŀà½ĵ":4892,"à½Ħà½łà½Ĥ":4893,"à½ķà½ĵà½ļ":4894,"à½ĺà½¢à½ĺ":4895,"à¼¥à¼¢à¼§":4896,"à¾Ĵà¼įà¼į":4897,"à¾±à½²à½²":4898,"à¼įà¼įà¼¼":4899,"à¼¥à¼§à¼¢":4900,"à½ĸà½ħà½¦à½Ķà½ł":4901,"à¼¦à¼¦à¼¨":4902,"à½¦à½Ĥà½Ł":4903,"à¾±à¼ĭà¼¼":4904,"à¼§à¼¡à¼¡":4905,"à½Ĥà½Ĥà½Ł":4906,"à½łà½ģà½ł":4907,"à½ģà½ĺà½¦à½ĺ":4908,"à¼¤à¼§à¼¤":4909,"à¼¦à¼¡à¼¦":4910,"à¼¡à¼©à¼¦à¼¥":4911,"à½ĺà½Ľà½Ħ":4912,"à¼¥à¼¦à¼¨":4913,"à½Ħà½Ĥà½¢":4914,"Ġà¼ĭà¼ĭà¼ĭà¼ĭà¼ĭà¼ĭà¼ĭà¼ĭà¼ĭà¼ĭà¼ĭà¼ĭà¼ĭà¼ĭà¼ĭà¼ĭà¼ĭà¼ĭà¼ĭà¼ĭà¼ĭà¼ĭà¼ĭà¼ĭà¼ĭà¼ĭà¼ĭà¼ĭà¼ĭà¼ĭà¼ĭà¼ĭà¼ĭà¼ĭà¼ĭà¼ĭà¼ĭà¼ĭà¼ĭà¼ĭà¼ĭà¼ĭ":4915,"à¼ĭà¼Ķà¼ĭ":4916,"à½ĸà½¥":4917,"à½¿à¼ĭà½¿à¼ĭ":4918,"à½ĵà½¦à½ī":4919,"à¾Ĵà¾±à½´à¼·à¼ĭ":4920,"à¼¥à¼łà¼¡":4921,"à¼¡à¼©à¼¤à¼ł":4922,"à¾Łà¼·à¼ĭ":4923,"à¼¦à¼¡à¼¥":4924,"à½ĺà½ĺà½ģà½ł":4925,"à½ºà¼ĭà½´à¼ĭ":4926,"à½ģà½łà½Ħ":4927,"à¼įà¼ĭà¼ĭà¼ĭà¼ĭà¼ĭà¼ĭà¼ĭà¼ĭà¼ĭà¼ĭà¼ĭà¼ĭà¼ĭà¼ĭà¼ĭ":4928,"à¾Ĵà¾±à½¼à¼ĭ":4929,"à¼¤à¼¨à¼¡":4930,"à¼¤à¼¨à¼¨":4931,"à½Ĥà½¦à½Ģà½¢":4932,"à½±à½º":4933,"à¾±à¼·à½²":4934,"à½Ħà½Ĥà½ŀà½ĵ":4935,"à¾Ĺà½ºà¼ĭà¼´":4936,"à½´à¾Ĥà¼ĭ":4937,"à¼¡à¼¡à¼¡à¼¢":4938,"à¼¡à¼©à¼¡à¼¤":4939,"à¼¤à¼¦à¼£":4940,"à¼¥à¼¡à¼©":4941,"à½ĳà½Ķà½Ĥà½ĺ":4942,"à¼¢à¼łà¼¡à¼¨":4943,"à¼ĭà½Īà¾±à½²à¼ĭ":4944,"à¼¤à¼§à¼£":4945,"à¼¥à¼¥à¼¤":4946,"à½łà½ĳà½¦à½Ķ":4947,"à¾«à¾«à¼ĭ":4948,"à½¦à½Ķà½Ģ":4949,"à¼¦à¼łà¼¨":4950,"à¼¤à¼¤à¼£":4951,"à½ĵà½İ":4952,"à¼¦à¼¦à¼©":4953,"à½Ĥà½Ĥà½ŀ":4954,"à½ĺà½ĵà½Ĥ":4955,"à½Ĥà½ĵà½¦à½ĺ":4956,"à½ĳà½ĵà½ĺ":4957,"à½łà½ĺà½¦":4958,"à¼½à¼Ħà¼ħà¼įà¼į":4959,"à¼įà¼ĭà¼ĭà¼ĭà¼ĭà¼ĭà¼ĭà¼ĭà¼ĭà¼ĭ":4960,"à½¼à¾ĥà¼į":4961,"à½Łà½ĳà½Ķ":4962,"à¼¦à¼¢à¼¡":4963,"à¼§à¼¦à¼¢":4964,"à¼¤à¼£à¼©":4965,"à¼¥à¼¡à¼¦":4966,"à½ĵà½Ķà½Ĥ":4967,"à¼¦à¼¦à¼¡":4968,"à¼¥à¼łà¼¨":4969,"à½łà½ĺà½ĺ":4970,"à½ĳà½ĩ":4971,"à½Ĥà½Ľ":4972,"à¼¤à¼¢à¼£":4973,"à¼¦à¼¢à¼§":4974,"à¼§à¼©à¼§":4975,"à½Ĥà½łà½¥":4976,"à¼¦à¼¨à¼¢":4977,"à¼¡à¼łà¼¡à¼ł":4978,"à½Ĵà½ĵà½¥":4979,"à¼§à¼¢à¼§":4980,"à½Įà½İ":4981,"ĭà¾£":4982,"à¼ĭà¾£":4983,"à½¨à½Ĩ":4984,"à½ĳà½Ĳà½ĺà½¦":4985,"à¼¥à¼łà¼¦":4986,"à¼¤à¼©à¼¦":4987,"à½¼à½´":4988,"à½Ķà½¦à½ļ":4989,"à½£à½ĵà½ĳ":4990,"à½ķà½£à½Ĳ":4991,"à¼¥à¼§à¼ł":4992,"à¾¦à½ºà¼į":4993,"à¼¦à¼¤à¼¥":4994,"à½ĺà½ħà½ĵ":4995,"à½£à½Ĭà½ł":4996,"à¼¦à¼¥à¼¥":4997,"à¼¦à¼©à¼©":4998,"à½¢à½Ĥà½Ħ":4999,"à½Ĥà½ŀà½Ĥà½¦":5000,"à½Ĳà½ĺà½ł":5001,"à¼¤à¼©à¼ł":5002,"à½£à½Ĥà½ı":5003,"à½Ĥà½ıà½ĵà½£":5004,"à¾łà½±à½¿à¼ĭ":5005,"à¼¥à¼©à¼¨":5006,"à¾±à½²à¼ĭà¼Ħà¼ħà¼į":5007,"à¼¦à¼¤à¼¢":5008,"Ġà½ĳà½ĺà½¢":5009,"à¼§à¼¡à¼§":5010,"à¼¥à¼¡à¼£":5011,"à¼¦à¼¦à¼ł":5012,"à¼¦à¼¡à¼¤":5013,"à½¦à½ĺà½Ĳà½ł":5014,"à¼¥à¼¨à¼ł":5015,"à¾¤à½±":5016,"à¼¦à¼¢à¼ł":5017,"à¼¥à¼¨à¼¢":5018,"à½ļà½Ķ":5019,"à¾±à¾Ĳà¾±à½º":5020,"à¾Łà¾²à¾Ģà¼ĭ":5021,"à½łà½Ĳà½ł":5022,"à¾³à¾¡à½¼":5023,"à¼įà¼ĭà¼ĭà¼ĭà¼ĭà¼ĭà¼ĭà¼ĭà¼ĭà¼ĭà¼ĭà¼ĭà¼ĭ":5024,"à¾²à¾°à½¾à¼ĭ":5025,"à¼¥à¼¥à¼¡":5026,"à¾±à½²à¼ĭà¼º":5027,"à¾Ļà½¼à¼įà¼į":5028,"à½łà½ķà½Ĥà½¦à½Ķà½ł":5029,"à¼§à¼¥à¼ł":5030,"à½ĺà½ĩà½ł":5031,"à½Ħà½ĺà½Ĩ":5032,"à¼¤à¼£à¼¢":5033,"à¼¥à¼¡à¼¨":5034,"Ġà¼ĭà¼ĭà¼ĭà¼ĭà¼ĭà¼ĭà¼ĭà¼ĭà¼ĭà¼ĭà¼ĭà¼ĭà¼ĭà¼ĭà¼ĭà¼ĭà¼ĭà¼ĭà¼ĭà¼ĭà¼ĭà¼ĭà¼ĭà¼ĭà¼ĭà¼ĭà¼ĭà¼ĭà¼ĭà¼ĭà¼ĭà¼ĭà¼ĭà¼ĭà¼ĭà¼ĭà¼ĭà¼ĭà¼ĭà¼ĭà¼ĭà¼ĭà¼ĭà¼ĭà¼ĭ":5035,"Ġà½Ĳà½¢":5036,"à½ĺà½ĳà½Ķà½ł":5037,"à½¢à½Ł":5038,"à½Ģà½Ľ":5039,"à½£à½¦à½łà½ĳ":5040,"Ġà¼§à¼©":5041,"à¾£à½¾":5042,"à¼¦à¼łà¼¢":5043,"à½£à½ĩ":5044,"à¾³à½¼à½¼à¼ĭ":5045,"à½¢à½ĸà½Ĥ":5046,"à¼¡à¼©à¼¦à¼¤":5047,"à¾¡à¾·à½ºà¼Ķ":5048,"à½ĸà½ĵà½ĳ":5049,"à½łà½¡":5050,"à½¡à½Ħà½¡":5051,"à½Ķà½¦à½Ĥ":5052,"à½ĸà½ĳà½Ĥà½ħ":5053,"Ġà½Ĥà½ĳà½ĺà½¦":5054,"à¾¦à¾·à½±à¼ĭ":5055,"à¼łà¼łà¼¡à¼¥":5056,"à¼¦à¼§à¼¡":5057,"à½ĵà½ĺà½Ľà½ĳ":5058,"à¾ļà¾²à¾Ģà½¿à¼ĭ":5059,"à¼¤à¼©à¼©":5060,"à½£à½Ĥà½¢":5061,"à¾¶à¼į":5062,"à¾Ńà¼ĭà¼Ħà¼ħà¼įà¼į":5063,"à¾¦à¾±à½¼à¼į":5064,"à½Ĳà½ĺà½¦à½ħà½ĳà½ĺ":5065,"à½ĩà½ĵ":5066,"à½¿à¼įà¼įà¼įà¼į":5067,"à½ĺà½ĳà½ĵ":5068,"à½ķà½Łà½«":5069,"à½ĸà½¦à½ĳà½Ħ":5070,"à½¨à½ª":5071,"à¼¥à¼¢à¼¨":5072,"à¼¦à¼¡à¼£":5073,"à½ĵà½Ķà½ĺ":5074,"à¼¦à¼©à¼¨":5075,"Ġà¼¦à¼¢":5076,"à½¢à½Ĥà½Ł":5077,"à½ĺà½ļà½ĵà½ĺà½ł":5078,"à¼¦à¼łà¼©":5079,"à¼¤à¼¨à¼¤":5080,"à½¦à½¦à½¢":5081,"à½ĸà½¤à½ĳà½Ķà½¢":5082,"à¼¦à¼¨à¼ł":5083,"à¾·à¾Ńà½ºà¼į":5084,"à½³":5085,"à½Ĩà½Ķ":5086,"à¾Ĵà¾Ńà¼ĭ":5087,"à¼¥à¼¢à¼£":5088,"à½ĭà½ł":5089,"à½Ķà½£à½ł":5090,"à½¦à½Ģà½ĸà½¦":5091,"à¼¦à¼©à¼§":5092,"à¼¡à¼©à¼łà¼¤":5093,"à½ĵà½¦à½¡":5094,"à½Ķà½¦à½łà½ĳ":5095,"à½ĳà½Ķà½łà½ĵ":5096,"à¼¦à¼łà¼¡":5097,"ĭà¾¨":5098,"à½ĵà½¦à½ł":5099,"à¼ĭà¾¨":5100,"à½Ħà½Ĥà½Ĥ":5101,"à½Ĥà½ĸà½ĳà½Ĥ":5102,"à½łà½ĳà½Ķ":5103,"à½łà½ģà½¦":5104,"à¾¡à¾·à½±à¼į":5105,"à¼¥à¼§à¼¡":5106,"à¼¦à¼¨à¼©":5107,"à½ºà¼ĭà½Īà¾±à½²":5108,"à¼¥à¼¤à¼¤":5109,"à¼·à¼įà¼į":5110,"à¼¦à¼¡à¼©":5111,"à½¼à¼ĭà½¼":5112,"à¼Ģà½Ķà½ĳ":5113,"à½ĵà½Ķà½ī":5114,"à¼¤à¼©à¼¢":5115,"à½ıà½Ľ":5116,"à¾¨à½±à¼Ķ":5117,"à¼¥à¼¦à¼£":5118,"à½ĸà½ĸà½¦à½ĺ":5119,"à½ģà½ĺà½¦à½¢":5120,"Ġà½ĺà½ł":5121,"à¼¥à¼©à¼¡":5122,"à½ĵà½¦à½łà½ĳ":5123,"à¼¥à¼¡à¼¤":5124,"à½Ķà½¢à½ĸà½¤à½ĳ":5125,"à¼¤à¼£à¼¨":5126,"à¼¥à¼¥à¼ł":5127,"à½ĺà½ĺà½ĳ":5128,"à½ĵà½ĺà½Ĳà½ł":5129,"à½ĵà½Ĩà½ĳ":5130,"à½Ļà½¡":5131,"à½Ĥà½Ħà½ĳ":5132,"à¾·à¾Ńà½¾à¼į":5133,"à¼¦à¼łà¼§":5134,"à¼¦à¼¥à¼¡":5135,"à½Ĥà½ŀà½ĵà½¢":5136,"à¼Ħà¼ħà¼İ":5137,"à¼¦à¼©à¼¥":5138,"à½ĺà½Ĥà½ħ":5139,"à½ºà¼ĭà¼":5140,"à½´à¼ĭà¼":5141,"à½Ŀà½Ĥ":5142,"à¼¡à¼©à¼¦à¼¨":5143,"à¼¦à¼¦à¼¦":5144,"à½¼à¾ĥà¼Ķ":5145,"à½¢à½ĸà½ĺ":5146,"à½łà½ļà½£à½ĵ":5147,"à½łà½ĺà½¢":5148,"à½Ľà½¨":5149,"à½Ĥà½¦à½ķ":5150,"à¼¦à¼£à¼¥":5151,"Ġà½łà½ļ":5152,"à¾¶à¾±à¼ĭ":5153,"à½¤à½¡":5154,"à¼¤à¼£à¼¡":5155,"à¼¦à¼¢à¼¨":5156,"à¼¥à¼¨à¼¨":5157,"à¼¤à¼¤à¼¨":5158,"à½Ĥà½ĵà½¦à½ĵà½¦":5159,"à¾·à¾²à½´":5160,"à¼¤à¼¤à¼ł":5161,"à½ķà½İ":5162,"à¼¦à¼łà¼¤":5163,"à¼¦à¼§à¼ł":5164,"à¼¦à¼©à¼ł":5165,"à½¼à¼ĭà½Īà¾±à½²":5166,"à¼¥à¼¨à¼©":5167,"à½Ĥà½ĺà½ļà½ĵ":5168,"à½Ħà½Ĥà½Ħ":5169,"à¾©à½ºà¼Ķ":5170,"à¼¦à¼©à¼¢":5171,"à¾·à¼·à¼ĭ":5172,"Ġà½ĸà½Ļà½ĵ":5173,"à¾·à¼ĭà½µ":5174,"à¼¥à¼¢à¼ł":5175,"à½Īà½º":5176,"à½Įà½ĺ":5177,"à¼¤à¼£à¼ł":5178,"à¾µà¼įà¼į":5179,"à¾¦à½´à¼į":5180,"à¼¡à¼¢à¼¡à¼¢":5181,"à½ıà½Ĭ":5182,"à½łà½ĳà½łà½¦":5183,"à½ªà½¦":5184,"à½¾à¼ĭà¼¼":5185,"à¼¦à¼¥à¼¤":5186,"à½Ļà½ļ":5187,"à¼§à¼¤à¼¢":5188,"à¼¥à¼£à¼¥":5189,"à¼¦à¼¥à¼©":5190,"à¼¨à¼¤à¼¥":5191,"à½łà½ķà½ĳ":5192,"à¼§à¼¢à¼¥":5193,"à½ĺà½Ĥà½Ħ":5194,"à½ĺà½łà½ģ":5195,"à½Ķà½łà½¢":5196,"à½Ĥà½¦à½£à½ĺ":5197,"à½ĳà½Ħà½łà½ĸ":5198,"à½ħà½Ķ":5199,"à½ĸà½¢à½ł":5200,"à½īà½łà½ĺ":5201,"à¾ļà½¿à¼į":5202,"à½¼à¼Ķà¼":5203,"à¼¤à¼©à¼¡":5204,"à½Ķà½¦à½¡":5205,"à¼¢à¼łà¼¡à¼©":5206,"à¼įà¼ĭà¼ĭà¼ĭà¼ĭà¼ĭà¼ĭà¼ĭà¼ĭà¼ĭà¼ĭà¼ĭà¼ĭà¼ĭà¼ĭà¼ĭà¼ĭà¼ĭà¼ĭà¼ĭà¼ĭà¼ĭà¼ĭà¼ĭà¼ĭà¼ĭà¼ĭà¼ĭà¼ĭà¼ĭà¼ĭà¼ĭà¼ĭà¼ĭà¼ĭà¼ĭà¼ĭà¼ĭà¼ĭà¼ĭà¼ĭà¼ĭà¼ĭà¼ĭà¼ĭà¼ĭ":5207,"à½ĵà½¦à½ķ":5208,"à½²à¼ĭà½ºà¼ĭ":5209,"à¼¦à¼£à¼©":5210,"à¼§à¼¡à¼¥":5211,"à¼¡à¼©à¼¥à¼£":5212,"à¼įà¼Ĳ":5213,"à¼¦à¼¨à¼¥":5214,"à¾¼à½±à¾Ģà¼ĭ":5215,"à¼¥à¼¦à¼¤":5216,"à¾ĭà½ŀà½ĸà½¦":5217,"à½łà½ĳà½¦à½Ķà½ł":5218,"à½ĺà½ĸà½ł":5219,"à½¡à½¡à½Ħ":5220,"à¾Ĳà½´à¼ĭà¼Ħà¼ħà¼įà¼į":5221,"à¾¤à¾±à½²à¼Ķ":5222,"Ġà½Ĥà½¡à½¦":5223,"à¾²à½²à¼ĭà¼Ħà¼ħà¼įà¼į":5224,"à¼¦à¼£à¼£":5225,"à½ºà¼ĭà¼ĳà¼ĳ":5226,"à½Ķà½¥":5227,"à¼¥à¼§à¼¤":5228,"à½Ĵà½Łà½Ĳà½¥":5229,"à½²à¼ĭà¼ĳà¼ĭà¼ĳà¼ĭ":5230,"à½ĳà½£à½ĺ":5231,"à½Ħà½Ĥà½ĵà½¦":5232,"à½ĸà½¦à½łà½ĳ":5233,"Ġà½ĸà½ĸ":5234,"à½£à½Ķà½¦":5235,"à½Ģà½ĵà½¦":5236,"à¼§à¼¢à¼¦":5237,"à¾¦à¾²à¼į":5238,"à¾¨à½±à½²à¼ĭ":5239,"Ġà½Ĥà½ĵà½ĺ":5240,"à¼łà¼łà¼¡à¼£":5241,"à½²à¼ĭà¼ĳà¼ĳà¼ĭ":5242,"à½Ħà½ĺà½Ĳ":5243,"à½£à½ķà½ĵ":5244,"à½Ħà½ĺà½Ħ":5245,"à½²à¼įà¼ĭà¼į":5246,"à¾Ĺà½ºà¼ĭà¼½":5247,"Ġà½Ĥà½ĵà½ł":5248,"à½ĵà½ĺà½ļ":5249,"à½Ļà½Ķ":5250,"à¼Ģà½Ļà½İ":5251,"à¼¦à¼§à¼¦":5252,"à½£à½Ĥà½ĳ":5253,"à¼¡à¼©à¼¤à¼¥":5254,"à¾łà½¿à¼į":5255,"à½ĵà½ĵà½Ħ":5256,"à½Ķà½Ĳà½ĺà½¦à½ħà½ĳ":5257,"à¼§à¼¢à¼©":5258,"à¼¦à¼¤à¼¨":5259,"à½ĸà½ŀà½¦":5260,"à¾Ĵà¾±à¼·":5261,"à¼¦à¼£à¼¤":5262,"à¾µà½´à½¾à¼ĭ":5263,"à¼¡à¼¥à¼łà¼ł":5264,"à½£à½ĸà½ħ":5265,"à¾Łà¾²à½²":5266,"à½ĵà½ĳà½Ģ":5267,"à½ĳà½Ĥà½ĳà½Ħ":5268,"à½£à½¦à½¡":5269,"à¼¦à¼¤à¼©":5270,"à¼ĭà¼Įà¼įà¼į":5271,"à½¢à½ĳà½ĸ":5272,"Ġà½İ":5273,"à½Ĥà½«":5274,"à¼¥à¼¤à¼¨":5275,"à¼¦à¼¢à¼£":5276,"à½ĺà½¦à½¡":5277,"à¾Ĵà¾²à½¼à¼įà¼į":5278,"à¼¦à¼¨à¼¨":5279,"à½łà½Ĩà½ĵ":5280,"à½´à¼įà¼ĭà¼":5281,"à½¼à¼Ķà¼Ķ":5282,"à¼¤à¼¥à¼£":5283,"à¼¥à¼łà¼¢":5284,"à¼¤à¼©à¼¨":5285,"à½ĸà½Ħà½Ĥ":5286,"à¼¥à¼£à¼§":5287,"à¼Īà¼Ī":5288,"à½łà½ķà½Ĭ":5289,"à½ĸà½£à½Ĥà½¦":5290,"à¼¥à¼¥à¼¨":5291,"Ġà¼¦à¼¨":5292,"à½¿à¼įà¼ĭ":5293,"à¾Ļà½ºà¼įà¼į":5294,"à½Ĺà½ģà½Ł":5295,"à½¦à½¦à½¦":5296,"à¼§à¼§à¼¨":5297,"à¾²à¾²à½º":5298,"à½ĺà½ĵà½Ħà½Ĥ":5299,"à½¡à½Ħà½Ĥ":5300,"à½£à½Ŀ":5301,"à½Ļà½ĸà½¦":5302,"à¼¥à¼¤à¼§":5303,"à½¦à½£à½ĺ":5304,"à¼§à¼¡à¼¤":5305,"à¼¡à¼©à¼¡à¼©":5306,"à½ĸà½Ļà½Ħà½¦":5307,"à¾Łà¾²à½±à¼ĭ":5308,"à½ĸà½Ķà½ĳ":5309,"à½²à¼ĭà½´":5310,"à¾Ģà½¾à¼ĭ":5311,"à¼¥à¼©à¼¤":5312,"à¾±à¼·à½ºà¼ĭ":5313,"Ġà½łà½Ľà½ĺ":5314,"à½Ĥà½īà½¢":5315,"à½Ħà½Ł":5316,"à¼¦à¼¤à¼¤":5317,"à½Ĥà½łà½ĩ":5318,"à½£à½ĵà½Ĥ":5319,"à¾Ĵà¾±à½¿à¼ĭ":5320,"à¼¦à¼£à¼¦":5321,"à½ĸà½łà½¦":5322,"à½ĳà½ĺà½¢à½Ķ":5323,"à¼¥à¼£à¼¡":5324,"à¼¥à¼£à¼©":5325,"à½Ŀà½¤":5326,"à¾¤à¾²à½¼à¼Ķ":5327,"à¼§à¼§à¼¢":5328,"à½Ķà½¢à½ł":5329,"à¼¥à¼łà¼£":5330,"à½ĺà½ļà½ĵà½¦":5331,"à½ıà½łà½ĺ":5332,"à¼¦à¼©à¼¡":5333,"à½ĸà½Ģà½łà½ĳ":5334,"à½£à½İ":5335,"à½ĵà½¦à½ĸà½ħ":5336,"à½¾à½¾à¼ĭ":5337,"Ġà¼ĳà¼ĳ":5338,"Ġà½Ĳà½Ħ":5339,"à½ŀà½£à½ĵà½¦":5340,"Ġà¼¦à¼¥":5341,"Ġà¼¨à¼ł":5342,"à¼¥à¼¤à¼£":5343,"à¾³à¾³":5344,"à¼łà¼łà¼¢à¼¤":5345,"Ġà¼¦à¼¦":5346,"à¾¥à½±à¼ĭ":5347,"à½ĳà½Ĥà½Ķà½¦":5348,"à¼§à¼§à¼¥":5349,"à½Ķà½ĵà½ĺ":5350,"à¼¥à¼¨à¼¡":5351,"Ġà¼¦à¼©":5352,"à¼¦à¼¦à¼¤":5353,"à½Ĥà½Ļà½ĳ":5354,"à¾·à¾±à½ºà¼ĭ":5355,"à¼¡à¼©à¼§à¼¥":5356,"à¼¦à¼¦à¼£":5357,"à½Ģà½Ģà½Ģà½Ģ":5358,"à½±à½¼à¼įà¼į":5359,"à¾²à½´à¼Ķ":5360,"à½ĸà½łà½Ľ":5361,"à¼¦à¼¨à¼¡":5362,"à½ĺà½¢à½Ħ":5363,"à½ıà½¨":5364,"à¼¦à¼¥à¼¦":5365,"à½Ĥà½¦à½ĳà½Ĥ":5366,"à¾²à¾Ĺà½º":5367,"à¼§à¼¡à¼¦":5368,"à¼łà¼łà¼¡à¼¤":5369,"à¾ļà½¼à¼ĭ":5370,"à¾±à¾¡à½¼":5371,"à¼¥à¼¦à¼ł":5372,"à¾²à¼ĭà¼İ":5373,"à½ĺà½Ĩà½¦":5374,"à½»à¼įà¼į":5375,"à¼¥à¼£à¼¦":5376,"à¼¦à¼¤à¼¦":5377,"à¼¡à¼©à¼¦à¼§":5378,"à½Łà½Ļà½¢":5379,"à¼¡à¼©à¼£à¼£":5380,"à¾ļà½²à½¿à¼ĭ":5381,"à½ĺà½ĸà½ĳà½Ĥ":5382,"à½ĵà½ĺà½ĺà½ģà½¢":5383,"à¾±à½²à¼ĭà¼İ":5384,"à¼§à¼¦à¼¡":5385,"à¾¤à½¼à¼įà¼į":5386,"à¾¤à¾±à½¼à¼į":5387,"à¼¡à¼¢à¼¡à¼£":5388,"à¼¥à¼¤à¼©":5389,"à¼§à¼§à¼©":5390,"à½Ļà½ª":5391,"à¼§à¼¢à¼¨":5392,"à¼§à¼§à¼ł":5393,"à½¥à½Į":5394,"à¼Ģà½ĺà½§":5395,"à½ĺà½ĵà½Ħ":5396,"à¼¥à¼¥à¼©":5397,"à¼¡à¼¢à¼łà¼ł":5398,"à¼¥à¼¨à¼¤":5399,"à½ģà½¦à½ĺ":5400,"à½ĺà½īà½ĺà½Ķà½¢":5401,"à¼¡à¼¡à¼¡à¼£":5402,"à½ĵà½Ľ":5403,"à½¡à½¨":5404,"à¾Łà¼ĭà¼¼":5405,"à¼ĭà¼ģà¾ĥà¼Ķ":5406,"à½¼à¼ĭà¼½à¼¼":5407,"Ġà½Į":5408,"à¼¡à¼©à¼¡à¼ł":5409,"à¼¦à¼£à¼¨":5410,"à¾¦à½±à½²":5411,"à¾ĥà¼įà¼į":5412,"à¾·à½¼à¼ĭà¼½à¼¼":5413,"à½¢à½Ķà½ĸ":5414,"à½ģà½ı":5415,"à¼¥à¼łà¼¤":5416,"à¼¦à¼¤à¼§":5417,"à½ĳà½Ħà½Ĩ":5418,"à½£à½Ĥà½¦à½£":5419,"à¾Ĵà¾±à¼·à¼ĭ":5420,"à½¼à¼ĭà¼ĭ":5421,"à¾µà½¿à¼į":5422,"à¾³à¾±à½¼":5423,"à¼§à¼¥à¼¥":5424,"à½¤à½¤":5425,"à¼¡à¼©à¼£à¼¥":5426,"à½ĺà½Ľà½ĳà½Ķà½ł":5427,"à¼§à¼¦à¼¥":5428,"à¼¡à¼łà¼¡à¼¢":5429,"à½Ĥà½£à½Ĥ":5430,"à¾±à¾°à¼ĭ":5431,"à¾«à½±":5432,"à¼¦à¼£à¼ł":5433,"à½Ĥà½ĺà½Ĥ":5434,"à½¢à½Ħà½ī":5435,"ĭà¾²":5436,"à¼ĭà¾²":5437,"à½Īà½²à¼ĭ":5438,"à¾²à¾±à½º":5439,"à½ĸà½¢à½Ĥà½ŀà½Ĥ":5440,"à¼¤à¼©à¼£":5441,"à¾«à¼įà¼į":5442,"à¼©à¼łà¼ł":5443,"à¼¦à¼§à¼£":5444,"à¾£à½±à½²à¼ĭ":5445,"à½łà½Ĥà½ī":5446,"à½ĳà½ĺà½ª":5447,"à½£à½ĵà½ħ":5448,"à½¢à½ĩ":5449,"à¼¥à¼£à¼¢":5450,"Ġà½Ĥà½¢":5451,"à½ĳà½Ķà½łà½ĳ":5452,"à¾·à¾±à½±à½¾à¼ĭ":5453,"à¾±à¼ĭà¼½":5454,"à¼¦à¼¥à¼¨":5455,"à½²à¼ĭà¼į":5456,"à½Ĥà½ŀà½ĺà½¦":5457,"à½ħà½ĳà½£à½¦":5458,"à½Ĥà½ĵà½¢":5459,"à½Łà½ĺà½¦":5460,"Ġà¼ĭà¼ĭà¼ĭà¼ĭà¼ĭà¼ĭà¼ĭà¼ĭà¼ĭà¼ĭà¼ĭà¼ĭà¼ĭ":5461,"à¾ĭà½ĳ":5462,"à¾±à½²à¼ĭà½Īà½¼":5463,"à½Ħà½¦à½Ħà½¦":5464,"à¼¡à¼¦à¼¡à¼§":5465,"à¾Łà½±à½¿à¼ĭ":5466,"à½£à½Ĥà½£":5467,"à¼łà¼łà¼¡à¼§":5468,"à¾¶à½¾":5469,"Ġà¼¥à¼¢":5470,"à¾·à¾²à½´à¾ĥà¼ĭ":5471,"à½łà½Ĩà½¦":5472,"à½łà½ļà½ĵ":5473,"à¼¦à¼£à¼¢":5474,"à¼§à¼©à¼ł":5475,"à½¢à½łà½ĩ":5476,"à½ļà½Ģ":5477,"à¼¨à¼¡à¼¢":5478,"à¼¦à¼©à¼¤":5479,"à¾ĥà½¿à¼ĭ":5480,"à½īà½Ķ":5481,"à½ĸà½¢à½ĺà½¦":5482,"à½ĵà½ĺà½ĵ":5483,"Ġà¼§à¼£":5484,"à¼¦à¼¨à¼¤":5485,"à¼¦à¼¨à¼¦":5486,"à½ºà¼ĭà¼ħà¼į":5487,"à½ĳà½ĸà½Ħà½ĸà½¦":5488,"ĭà¾©à½¼":5489,"à¼ĭà¾©à½¼":5490,"à¾Ńà½»à¼ĭ":5491,"à¾²à¾Ģà½¾à¼ĭ":5492,"à¼ĭà¼ĭà¼Į":5493,"à¼§à¼¡à¼£":5494,"à½²à¼ĭà¼ħà¼įà¼į":5495,"à¾¶à½´à¼į":5496,"à¼įà¼ĭà¼ĭà¼ĭà¼ĭà¼ĭà¼ĭà¼ĭà¼ĭà¼ĭà¼ĭà¼ĭà¼ĭà¼ĭà¼ĭà¼ĭà¼ĭà¼ĭà¼ĭà¼ĭà¼ĭà¼ĭà¼ĭà¼ĭà¼ĭà¼ĭà¼ĭà¼ĭà¼ĭà¼ĭà¼ĭà¼ĭà¼ĭà¼ĭà¼ĭà¼ĭà¼ĭà¼ĭà¼ĭà¼ĭà¼ĭà¼ĭà¼ĭà¼ĭà¼ĭà¼ĭà¼ĭà¼ĭà¼ĭà¼ĭà¼ĭà¼ĭà¼ĭà¼ĭà¼ĭà¼ĭà¼ĭà¼ĭà¼ĭà¼ĭà¼ĭà¼ĭà¼ĭà¼ĭà¼ĭà¼ĭà¼ĭà¼ĭà¼ĭà¼ĭà¼ĭà¼ĭà¼ĭà¼ĭà¼ĭà¼ĭà¼ĭà¼ĭà¼ĭà¼ĭà¼ĭà¼ĭà¼ĭà¼ĭà¼ĭà¼ĭà¼ĭà¼ĭà¼ĭà¼ĭà¼ĭà¼ĭà¼ĭà¼ĭà¼ĭà¼ĭà¼ĭà¼ĭà¼ĭà¼ĭà¼ĭà¼ĭà¼ĭà¼ĭà¼ĭà¼ĭà¼ĭà¼ĭà¼ĭà¼ĭà¼ĭà¼ĭà¼ĭà¼ĭà¼ĭà¼ĭà¼ĭà¼ĭà¼ĭà¼ĭà¼ĭà¼ĭà¼ĭà¼ĭà¼ĭà¼ĭà¼ĭà¼ĭà¼ĭà¼ĭà¼":5497,"à¾·à¾Ńà½¾à¼ĭ":5498,"à½ĸà½Ĥà½¢":5499,"à¼¦à¼¤à¼ł":5500,"à¼¤à¼©à¼¤":5501,"à¼¡à¼¢à¼¥à¼§":5502,"à½Ļà½ĺà½ĺ":5503,"à¼¦à¼§à¼§":5504,"à¾Ĵà½¼à¼Ķ":5505,"à½¢à½ĺà½Ĳ":5506,"à½Ĥà½¦à½ī":5507,"à½ĺà½¦à½Ħà½¦":5508,"à½Ĵà½ĺ":5509,"à½²à¼ĭà¼ĳà¼":5510,"à¼§à¼łà¼¨":5511,"à½²à¼ĭà¼ĳà¼ĭ":5512,"à¼¡à¼©à¼§à¼¢":5513,"à¾±à½²à¼·":5514,"à¼¦à¼£à¼¡":5515,"à¼§à¼¨à¼ł":5516,"à½ĸà½ĸà½ĳà½Ĥ":5517,"à½ĺà½ģà½¦à½Ķ":5518,"à½ĸà½ĸà½ĵ":5519,"à¾¡à¾·à½±à½´à¼ĭ":5520,"à¾Ńà½¾à¼Ķ":5521,"à¾Ĳà½¾à¼ĭ":5522,"à½²à¼ĭà½Īà½¼":5523,"à½Ĩà½Ĥà½¦à½Ķ":5524,"à½ĸà½ŀà½Ĥà½ĵà½¦":5525,"à¼§à¼¦à¼£":5526,"à½Ĥà½¦à½ĸà½ħ":5527,"à½ıà½ĵà½ĵ":5528,"à¼¥à¼£à¼¤":5529,"à½Ĵà½Ģ":5530,"à½ºà¼ĭà¼º":5531,"à¼§à¼¥à¼§":5532,"à½¦à½Ķà½ĳ":5533,"à¾Łà¾¡à½ºà¼į":5534,"à¾©à½¾":5535,"à¼¤à¼¨à¼£":5536,"à½Ķà½Ĥà½Ł":5537,"à¾©à½¼à¼į":5538,"à¼§à¼£à¼ł":5539,"à½Ĵà½ħ":5540,"à¼ĭà¼ĭà¼ĭà¼ĭà¼ĭà¼Ħà¼ħà¼įà¼į":5541,"à½¼à¼Ķà¼ĭ":5542,"à½ĵà½ĺà½¦à½Ģ":5543,"à¼§à¼©à¼¨":5544,"à½ĺà½¦à½ī":5545,"à½Ĥà½ĵà½¦à½Ģ":5546,"à½ĸà½£à½Ħ":5547,"à¾¡à¾·à½¾":5548,"à½¦à½ĸà½Ĥ":5549,"à½Ķà½ĺà½Ľà½ĳ":5550,"à½Ĥà½¦à½Ĥà½ħ":5551,"à½¡à½ĵà½¦":5552,"à½£à½¦à½ģ":5553,"à½Ĺà½Ľ":5554,"à½ĳà½ĸà½Ħà½ĳ":5555,"à¾Łà¾±":5556,"à½§à½ª":5557,"à¼§à¼¢à¼¡":5558,"à½¨à½Ģà½ł":5559,"à¼¥à¼¤à¼¦":5560,"à¾Łà¾Ńà½¾à¼Ķ":5561,"à½ĸà½Ĥà½ŀ":5562,"à¾²à¼ĭà¼½à¼¼":5563,"à¾Łà½²à½¿à¼į":5564,"à½Ĵà½Ĺ":5565,"à¾£à¼ĭà¼´":5566,"à½Ŀà½ĸ":5567,"à½²à¼ĭà¼ĭ":5568,"à½ĳà½Ĥà½Ħà½¦":5569,"à½¨à½ķ":5570,"à¼¥à¼§à¼£":5571,"à½ĳà½Ħà½¡":5572,"à½Ĳà½ĸà½¦à½ĺ":5573,"à¼§à¼¢à¼¤":5574,"à½Łà½ĸà½¢":5575,"à¼ĭà¼Ħà¼Ħà¼ħà¼įà¼į":5576,"à¼łà¼łà¼łà¼łà¼łà¼łà¼łà¼łà¼łà¼łà¼łà¼łà¼łà¼łà¼łà¼ł":5577,"à¾±à¾¤à¾±à½²":5578,"à¾¨à¼Ķ":5579,"à½ĳà½Ħà½ķ":5580,"à½ªà½ĸ":5581,"à½ºà¼ĭà½¼":5582,"à½ĳà½Ĥà½Ĩ":5583,"à½ĺà½ļà½ĺà½¦à½¦":5584,"à¼įà¼Ħà¼į":5585,"à½ºà½¿à¼įà¼į":5586,"Ġà¼¥à¼¦":5587,"à½¦à½Ĳà½ĺà½¦à½ħà½ĳ":5588,"à½¡à½Ĩ":5589,"à¾Łà¾²à¾Ģ":5590,"Ġà¼¥à¼£":5591,"à¾²à½²à½¾à¼į":5592,"à¾·à½±à½´à½¾à¼ĭ":5593,"à¾¦à½²à¼į":5594,"à¼¦à¼£à¼§":5595,"à¼¡à¼¤à¼¡à¼©":5596,"à¾ļà¾²à½±à½²à½¿à¼ĭ":5597,"à¼¥à¼¥à¼£":5598,"à¼§à¼¨à¼©":5599,"à½ĸà½ĸà½ĸà½ĸà½ĸ":5600,"à½łà½łà½ĸ":5601,"à½ĸà½¢à½Ĥà½¤":5602,"à½ĳà½Ģà½łà½ĸ":5603,"à½ĺà½Ĳà½łà½ĳà½Ĥ":5604,"à½Ŀà½Ķ":5605,"à½ĳà½Ķà½Ĥà½ļà½ĳ":5606,"à½¢à½łà½ģ":5607,"à½Ĥà½Ħà½¡à½Ħ":5608,"à½Ĥà½ĵà½¦à½¢":5609,"à½ıà½ī":5610,"à½ĳà½ĳà½ĳà½ĳ":5611,"à¼§à¼¤à¼¥":5612,"Ġà½ĸà½ŀà½Ĥ":5613,"à½ĺà½¦à½¤":5614,"Ġà½Ĥà½ĳà½ĵ":5615,"à¾£à½¿à¼į":5616,"à¼§à¼¦à¼¨":5617,"à½¦à½ĺà½īà½ĺ":5618,"à½²à½¾à¼įà¼į":5619,"à¾Łà¾²à½º":5620,"à¾«à¾Ļà¾°à¼ĭ":5621,"à½¢à½ĺà½ł":5622,"à½Ħà½Ľ":5623,"à½Ķà½łà½Ĳ":5624,"à½Ķà½¢à½¡":5625,"à¾·à½´à½¾à¼ĭ":5626,"à¼¦à¼¥à¼£":5627,"à½Ķà½ĸà½ĳà½Ĥ":5628,"à¾·à½½à¼ĭ":5629,"à½Ķà½ļà½ĳ":5630,"à½Ĥà½¦à½ĺà½Ĳ":5631,"à½Ģà½¨":5632,"à½Ķà½¦à½ķ":5633,"à½Ļà½ĺà½ĳ":5634,"à¼§à¼¨à¼§":5635,"à½ĩà½Ħ":5636,"à¼¡à¼¦à¼¤à¼¢":5637,"à¾·à¾±à½¾à¼ĭ":5638,"à½¦à½ĺà½Ĥ":5639,"à¾±à½²à¼ĭà¼Ĳ":5640,"Ġà½ķà½Ĥ":5641,"à½£à½ĺà½ļ":5642,"à½¡à½Ħà½Ħ":5643,"Ġà½ģà½Ħ":5644,"à¾²à½½à¼ĭ":5645,"Ġà½Łà½Ĥ":5646,"à¾·à¾±à½¼à¼įà¼į":5647,"à¼¦à¼©à¼¦":5648,"ĭà½²à¼įà¼į":5649,"à½ĳà½łà½Ħ":5650,"à½Ħà½ĸà½ħ":5651,"à¼ĭà½²à¼įà¼į":5652,"à½Ĺà½ĵà½Ł":5653,"à¼¡à¼¡à¼¡à¼ł":5654,"à¿Ĳ":5655,"à½Łà½Ĩ":5656,"à½ħà½ĵà½ĳà½ĺ":5657,"à¾¦à¼ĭà¼´":5658,"à¼¡à¼©à¼£à¼¦":5659,"à¼§à¼§à¼¤":5660,"à¾Łà¾¡à½º":5661,"à¼¥à¼£à¼£":5662,"à½Ĩà½Ĥà½¢":5663,"à¼¡à¼¢à¼£à¼¤":5664,"à¼§à¼łà¼©":5665,"à½ĺà½¢à½ĸ":5666,"à¼§à¼¢à¼ł":5667,"à¼¥à¼©à¼£":5668,"à½Ķà½Ĥà½ĵà½¦":5669,"à¼¨à¼¡à¼¥":5670,"à½±à½´à¼·à¼ĭ":5671,"à¼¥à¼¤à¼ł":5672,"à¼¡à¼¢à¼¨à¼£":5673,"à½Ĥà½¦à½¨":5674,"à½¡à½ļ":5675,"à¼¡à¼£à¼¡à¼£":5676,"Ġà¼©à¼©":5677,"ĭà½²à¼į":5678,"à¼ĭà½²à¼į":5679,"à½ĸà½¦à½¤":5680,"à½Ļà½¥":5681,"à¾ªà½²à¼į":5682,"à½Ģà½Ŀ":5683,"à½ĸà½ĳà½Ģ":5684,"à¼©à¼łà¼©":5685,"à¼¨à¼¢à¼¢":5686,"à¼¡à¼©à¼§à¼¡":5687,"à¾Ķà¼·à¼ĭ":5688,"à¼§à¼¡à¼¨":5689,"Ġà¼ĭà¼ĭà¼į":5690,"à½ºà¼ĭà¼ĳà¼į":5691,"ĭà¾±à¼ĭ":5692,"à¼ĭà¾±à¼ĭ":5693,"à½Ķà½¦à½Ħ":5694,"à¾²à½²à¼ĭà¼½":5695,"à¾ľà¾ľ":5696,"à½Ħà½Ĥà½ħ":5697,"à¾±à½´à¼Ķ":5698,"à½Ķà½ĺà½Ĳà½ł":5699,"à½£à½¦à½łà½ĸ":5700,"à½¢à½Ĥà½ı":5701,"à½Ĩà½Ĥà½£":5702,"à½Ĥà½¤à½ĺà½¦":5703,"à½Ķà½ĺà½ļ":5704,"à½ĸà½¢à½ĺà½Ľà½ĳ":5705,"Ġà¼¡à¼łà¼ł":5706,"à¼©à¼©à¼ł":5707,"Ġà½Ĥà½īà½ĵ":5708,"à½ĳà½łà½ģ":5709,"à¾ķà½¼à¼ĭ":5710,"à¼§à¼¤à¼¡":5711,"à¼¦à¼§à¼¤":5712,"Ġà¼©à¼ł":5713,"à½ħà½ĵà½¡":5714,"à¼łà¼łà¼¡à¼¦":5715,"à¼ĭà¼ĭà¼ĭà¼ĭà¼ĭà¼ĭà¼ĭà¼ĭ":5716,"à¼ĭà¼¹à½¼":5717,"à½ĸà½Ĳà½ĺà½¦à½ħà½ĳ":5718,"à½±à¼Ķà¼į":5719,"à½ĵà½ĵà½Ĥ":5720,"à½¢à½Ħà½£":5721,"à¿Ħ":5722,"Ġà½ĳà½¢":5723,"à½ĵà½Ĥà½¦à½£":5724,"à½ģà½ķ":5725,"à½ĳà½Ĥà½Ĳà½ĺà½¦":5726,"à½ĵà½ĳà½ĳ":5727,"à¾²à¼ĭà¼¼":5728,"à¼§à¼£à¼£":5729,"à½ĸà½Ĥà½Ł":5730,"à¾£à½±à¼į":5731,"à½Ĥà½ĵà½¦à½Ķà½¢":5732,"Ġà¼¦à¼¡":5733,"à½ĺà½¥":5734,"à½łà½ļà½ĸà½¦":5735,"à½ĸà½Ĥà½ı":5736,"à½ĳà½ĺà½Ľ":5737,"à½£à½Ĥà½Ķ":5738,"à¼¥à¼£à¼ł":5739,"à¼§à¼łà¼¢":5740,"à¾Łà¾²à½²à¼į":5741,"à¼§à¼£à¼¡":5742,"à¼¡à¼łà¼¢à¼§":5743,"à¼¡à¼©à¼£à¼©":5744,"à½±à½´à¼Ķ":5745,"à½¦à½ĳà½ĸà½Ħ":5746,"à½ļà½ĵà½¦":5747,"à½²à¼įà¼ĭà¼ĭ":5748,"à¼ĭà¼ĭà¼ĭà¼ĭà¼ĭà¼ĭà¼ĭà¼ĭà¼ĭà¼ĭà¼ĭà¼ĭà¼ĭà¼ĭà¼ĭà¼ĭà¼ĭà¼ĭà¼ĭà¼ĭà¼ĭà¼ĭà¼ĭà¼ĭà¼ĭà¼ĭà¼ĭà¼ĭà¼ĭà¼ĭà¼ĭà¼ĭà¼ĭà¼ĭà¼ĭà¼ĭà¼ĭà¼ĭà¼ĭà¼ĭà¼ĭà¼ĭà¼ĭà¼ĭà¼ĭà¼ĭà¼ĭà¼ĭà¼ĭà¼ĭà¼ĭà¼ĭà¼ĭà¼ĭà¼ĭà¼ĭà¼ĭà¼ĭà¼ĭà¼ĭà¼ĭà¼ĭà¼ĭà¼ĭà¼ĭà¼":5749,"à¼ĭà¼ħà¼ħà¼įà¼į":5750,"à½Ħà½łà½Ľ":5751,"à¾ĭà½ĵ":5752,"à¾²à¼·à½¼à¼ĭ":5753,"à½Ĳà½£à½¦":5754,"à¼łà¼łà¼łà¼łà¼łà¼łà¼ł":5755,"à½¿à¼ĭà¼Ī":5756,"à½ºà¼ĭà½ºà¼ĭ":5757,"à½ĳà½Ĥà½Ĥà½¡":5758,"à¼§à¼¤à¼©":5759,"à½²à¼ĭà¾İ":5760,"à¾±à¼ĭà¼´":5761,"à¼§à¼¡à¼©":5762,"à¼ĭà¼½à¼½":5763,"à½¼à¼ĭà¼ıà¼":5764,"à¼¥à¼£à¼¨":5765,"à¼ĭà¾¢à¼į":5766,"à½¢à½ĵà½ĺ":5767,"à¼½à¼įà¼į":5768,"à¼§à¼£à¼¥":5769,"à½Ķà½¢à½Ĥà½ŀà½Ĥ":5770,"à¾Ģà¼Ķ":5771,"à¼ĭà¿Ĳ":5772,"à¼§à¼£à¼¦":5773,"à½±à½»à¼ĭ":5774,"à½ĵà½¦à½ĸà½¢":5775,"à¼§à¼łà¼¤":5776,"à½¼à¼ĭà¼ıà¼ĭ":5777,"à¼¡à¼©à¼£à¼ł":5778,"à½łà½ĳà½¦à½ĳ":5779,"à¼¡à¼©à¼¢à¼ł":5780,"à¼§à¼©à¼¡":5781,"à½£à½ĵà½Ħ":5782,"à¼§à¼£à¼©":5783,"à¼įà¼ĭà¼ĭà¼ĭà¼ĭà¼ĭà¼ĭà¼ĭà¼ĭà¼ĭà¼ĭà¼ĭà¼ĭà¼ĭà¼ĭà¼ĭà¼ĭà¼ĭà¼ĭà¼ĭà¼ĭà¼ĭà¼ĭà¼ĭà¼ĭà¼ĭà¼ĭà¼ĭà¼ĭà¼ĭà¼ĭà¼ĭà¼ĭà¼ĭà¼ĭà¼ĭà¼ĭà¼ĭà¼ĭà¼ĭà¼ĭà¼ĭà¼ĭà¼ĭà¼ĭà¼ĭà¼ĭà¼ĭà¼ĭ":5784,"à½ĺà½ĵà½ĳ":5785,"à¼§à¼łà¼¥":5786,"à½ĺà½ģà½łà½Ĥ":5787,"à¼§à¼¥à¼¤":5788,"à¼§à¼¨à¼¨":5789,"à¼§à¼¥à¼©":5790,"à¼§à¼¦à¼©":5791,"à½¦à½ĵà½Ħ":5792,"à¾Ľà½ºà¼ĭ":5793,"à¼¦à¼©à¼£":5794,"à¼ĭà¼ĭà¼ĭà¼ĭà¼ĭà¼ĭà¼ĭà¼":5795,"à¾·à¼ĭà¼´":5796,"à¾Ĵà¾±à½´à¼ĭà¼ĳ":5797,"à½ĺà½Ĩà½¢":5798,"à¼§à¼¦à¼ł":5799,"à½ĳà½ĸà½Ħà½ķ":5800,"à¾·à¾£à½±à½¾à¼ĭ":5801,"à½Ĥà½¦à½ĸà½ŀ":5802,"à½Ĥà½¥à½¢":5803,"Ġà¼ĭà¼ĭà¼ĭà¼ĭà¼ĭà¼ĭà¼ĭà¼ĭà¼ĭà¼ĭà¼ĭà¼ĭà¼ĭà¼ĭà¼ĭà¼ĭà¼ĭà¼ĭà¼ĭà¼ĭà¼ĭà¼ĭà¼ĭà¼ĭà¼ĭà¼ĭà¼ĭà¼ĭà¼ĭà¼ĭà¼ĭà¼ĭà¼ĭà¼ĭà¼ĭà¼ĭà¼ĭà¼ĭà¼ĭà¼ĭà¼ĭà¼ĭà¼ĭà¼ĭà¼ĭà¼ĭà¼ĭà¼ĭ":5804,"à½ºà¾ħ":5805,"à½ĸà½¢à½¤":5806,"à¼¦à¼¤à¼£":5807,"à½ķà½£à½Ĩ":5808,"à¼łà¼łà¼¡à¼¨":5809,"à¼Ŀà¼įà¼į":5810,"à½ŀà½Ķ":5811,"à½Ĥà½ıà½ĵà½ĳà½Ħ":5812,"à¼¡à¼©à¼£à¼§":5813,"Ġà½ĸà½¤":5814,"à½ºà½¾":5815,"à¼§à¼£à¼¤":5816,"à½łà½ĸà½¢à½ĸ":5817,"à¼¡à¼¡à¼¡à¼¥":5818,"à¼§à¼§à¼¡":5819,"à½ĳà½ĸà½Ģ":5820,"à½ģà½Ĥà½¦":5821,"à½¼à¼įà¼įà¼½":5822,"à¾Ļà½²à¼įà¼į":5823,"à¼§à¼¨à¼¢":5824,"à¼§à¼¤à¼§":5825,"à¾«à½¿à¼ĭ":5826,"à¼¡à¼©à¼¤à¼¨":5827,"à¾łà½±à½²à¼ĭ":5828,"Ġà¼¦à¼§":5829,"à½ĺà½¦à½ł":5830,"à½¤à½¢à½ĳ":5831,"à½ķà½Ĭà½ķà½Ĭ":5832,"à½ĳà½Ķà½łà½Ħ":5833,"à½Ĥà½ıà½ĵà½Ĥ":5834,"à¾ŀà½±":5835,"à½ĭà½¢":5836,"Ġà¼¦à¼£":5837,"à¾Łà¾²à½ºà¼ĭ":5838,"à½Ĥà½¥à½Ħ":5839,"ĠĠĠĠĠĠ":5840,"à½±à½¾à½¿à¼ĭ":5841,"à¼ĭà¼Īà¼į":5842,"à¼§à¼¢à¼£":5843,"à¼§à¼¥à¼¢":5844,"à¼¦à¼¦à¼§":5845,"Ġà½Ĭ":5846,"à½łà½ĳà½¦à½ĵ":5847,"à½Ĳà½¢à½Ķà½ł":5848,"à½ķà½Į":5849,"à½Ħà½¦à½Ĥ":5850,"à¾¶à½±":5851,"à½¥à½Ģ":5852,"à¼¦à¼łà¼£":5853,"à¾Ĳà¾±à½ºà¼ĭà¼ĳ":5854,"à¼§à¼©à¼©":5855,"à¾¨à½¾à¼ĭ":5856,"à½ĸà½¤à½ĳà½ĸ":5857,"à½ĳà½Ķà½łà½Ĩà½ĵ":5858,"à¾¦à¼Ķ":5859,"à½Łà½Ĥà½ĺ":5860,"à¾±à¼įà¼įà¼įà¼į":5861,"à¼¡à¼©à¼£à¼¤":5862,"à¼¨à¼¡à¼¡":5863,"Ġà¼¢à¼łà¼ł":5864,"à¼ĭà¿Ħ":5865,"à½ĸà½Ĥà½£":5866,"à¼¨à¼¤à¼¡":5867,"à½¢à½ĸà½¦à½ĺ":5868,"à½ĳà½Ķà½£à½£":5869,"à½Ĥà½¦à½łà½ĸ":5870,"à¾±à½ºà½¿à¼ĭ":5871,"à¾Ĳà¾²à¼įà¼į":5872,"à¼įà¼ĭà¼ĭà¼ĭà¼ĭà¼ĭà¼ĭà¼ĭà¼ĭ":5873,"à½ĺà½Ĥà½¡":5874,"à¾£à½¿à¼ĭ":5875,"à½ĸà½¢à½Ĥà½ĵà½¦":5876,"à¾¡à¾·à½²à¼Ķ":5877,"à¼µà½º":5878,"à½±à½´à¾Ĥà¼ĭà¼Įà¼į":5879,"à½łà½£à½¦":5880,"ĭà½ºà¼įà¼į":5881,"à½ĳà½Ħà½ĸà½¦":5882,"à¼ĭà½ºà¼įà¼į":5883,"à½Ķà½¦à½¤":5884,"à½ħà½ĵà½ŀ":5885,"à¼ĭà¼ħà¼":5886,"à½ĳà½ĳà½Ģ":5887,"à½Ķà½İà½Ĩ":5888,"à¼¡à¼¢à¼©à¼ł":5889,"à½¡à½ıà½ł":5890,"à¼ĭà¼ħà¼ĭ":5891,"à¼¡à¼¤à¼¡à¼¤":5892,"à½¢à½¢à½ĺ":5893,"à½ĭà½¦":5894,"à½¦à½ĺà½¢":5895,"à¼ĭà¾ħ":5896,"à¼ĭà¼įà¼Ħà¼ħà¼į":5897,"à½ĵà½ĺà½ĺà½ģà½łà½£":5898,"à½¼à¼ĭà¼º":5899,"à½¡à½Ħà½£":5900,"à¾±à½²à¼įà¼įà¼į":5901,"à¾¡à¾·à½¼à¼į":5902,"à½Ĳà½Ĩ":5903,"à¾²à¼ĭà½³":5904,"à½ºà½¿à¼į":5905,"à½ĸà½¦à½¡":5906,"à½ıà½ģ":5907,"à½ĸà½łà½Ĩ":5908,"à¾Łà½²à½¿à¼ĭ":5909,"Ġà½ĺà½İ":5910,"à¾«à½²à¼įà¼į":5911,"à¾¡à½¼à¼ĭà¼Ħà¼ħà¼įà¼į":5912,"à½Ĭà½Ĭ":5913,"à½Ĺà½Ŀ":5914,"à¾²à¾¡à½¼":5915,"à½ĺà½¦à½Ħ":5916,"à½łà½§":5917,"à½Ķà½İà½Į":5918,"à½ĳà½łà½ĩ":5919,"à½ĳà½Ŀ":5920,"à¾±à½²à¼µà¼ĭ":5921,"à½§à½Ģ":5922,"à½Ĳà½ĸà½¦à½Ģ":5923,"à¼¥à¼¨à¼£":5924,"à½¦à½ĸà½Ł":5925,"à½Ĩà½Ģ":5926,"à½ĵà½Ħà½ł":5927,"à½¦à½ĺà½ł":5928,"à½Ĥà½¦à½Ĳ":5929,"à¾²à¼įà¼Ī":5930,"à½£à½¦à½Ħ":5931,"à¾¤à½¾à¼į":5932,"à¾³à½¼à¼ĭà¼Ħà¼ħà¼įà¼į":5933,"à¼¡à¼łà¼¤à¼ł":5934,"à½ĺà½ĺà½ĺ":5935,"à¾Ļà½¼à¼į":5936,"à¼Ģà½£à½¦":5937,"à¾ªà½´":5938,"à¼ŀà¼į":5939,"à¾ĭà½ģ":5940,"Ġà¼¦à¼¤":5941,"à½ĸà½¦à½Ķà½ł":5942,"à¾łà½²à¼į":5943,"à¾Łà¾²à½»à¼ĭ":5944,"à¾Ĳà¾²à½²":5945,"à½ĺà½Ħà½ĳ":5946,"à¾Łà¾±à½±à¼ĭ":5947,"à½ĳà½Ħà½ĺà½īà½ĺ":5948,"à¼įà¼Īà¼į":5949,"ĭà¾Ĺà½¼":5950,"à¼ĭà¾Ĺà½¼":5951,"à½Ĥà½Ļà½ĵ":5952,"à½Ĳà½ĸà½¦à½ĺà½ģà½¦":5953,"Ġà¼ĭà¼ĭà¼ĭà¼ĭà¼ĭà¼ĭà¼ĭà¼ĭà¼ĭà¼ĭà¼ĭà¼ĭà¼ĭà¼ĭ":5954,"à¼©à¼©à¼§":5955,"à¾³à¾³à½¼":5956,"à½Ĳà½ĺà½¦à½ħà½ĳà½¦":5957,"à¾ī":5958,"à½ĵà½Ħà½ĳ":5959,"à½ĺà½ĵà½Ĥà½¦":5960,"à½ĥà½Ĭ":5961,"à½łà½ı":5962,"à½ĳà½ĸà½ĸà½¦":5963,"à¼§à¼¤à¼¨":5964,"à½Ĳà½ĺà½¦à½ħà½ĳà½ĵ":5965,"Ġà¼ĭà¼Ħà¼ħà¼įà¼į":5966,"à¼ĭà¼įà¼įà¼":5967,"à½ĸà½Ĥà½ĸ":5968,"à½ĸà½Ģà½Ĥà½¦":5969,"à½ĵà½¦à½Ķ":5970,"à¼§à¼©à¼¢":5971,"à¾²à½¼à¼·à¼ĭ":5972,"à½ĺà½¦à½Ķà½¦":5973,"à½Łà½ĳà½Ķà½¢":5974,"à¼¨à¼¢à¼§":5975,"à½Ĥà½Ķà½£":5976,"à½£à½¦à½ķ":5977,"à½ĺà½¡à½Ħ":5978,"à¼§à¼¥à¼¨":5979,"à½Ĳà½Ĥà½Ł":5980,"à½Ķà½¢à½ĸà½¦à½ĺ":5981,"à½ĸà½ĳà½Ĥà½¢":5982,"à¼įà¼Ķ":5983,"à½±à½¼à½¾à¼į":5984,"à¼¡à¼łà¼¥à¼§":5985,"à¼§à¼¦à¼¤":5986,"Ġà½ĳà½Ĥà½Ĥ":5987,"à½ĸà½£à½ł":5988,"à¾µà¾±":5989,"à¾±à½²à¼ĭà¼ĳà¼":5990,"à¾±à½²à¼ĭà¼ĳà¼ĭ":5991,"à¼įà¼ħ":5992,"à½ĳà½Ķà½łà½£":5993,"à¾ªà½´à¼ĭ":5994,"à¾¡à¾·à½¿à¼į":5995,"à¾²à½±à¾Ģà¼į":5996,"à½ħà½Ĥà½¦":5997,"à½ĸà½¢à½Ĩà½ĳ":5998,"à¼įà¼įà¼Į":5999,"à¾±à½±à½¿à¼į":6000,"à¼¡à¼łà¼¡à¼§":6001,"Ġà½ĳà½Ģà½ł":6002,"à½Ĳà½ı":6003,"Ġà¼§à¼¡":6004,"Ġà½Ĥà½¦à½¢":6005,"à½İà½Į":6006,"à¼§à¼¤à¼£":6007,"à¾±à¼·à½¼":6008,"à½¢à½Ĥà½ŀ":6009,"à½ĺà½ĸà½ĳ":6010,"à½²à¼ĭà½¼à¼ĭà½ºà¼ĭ":6011,"à½ĸà½¦à½ĺà½¦à½£":6012,"à¼¡à¼¤à¼¡à¼¢":6013,"ĭà¾Ĵ":6014,"à¼ĭà¾Ĵ":6015,"à¼¡à¼£à¼¥à¼§":6016,"à¾ļà½±à½²à¼ĭ":6017,"à¾¨à¾±à½¼à¼į":6018,"à¼§à¼łà¼¡":6019,"à½ĳà½¢à½ĸ":6020,"à¾±à½²à½¿à¼ĭ":6021,"à¾»à½¼":6022,"à½ĵà½ĳà½¦":6023,"à¼¡à¼£à¼łà¼ł":6024,"à¼ĭà¼´à¼įà¼į":6025,"à¼¨à¼¢à¼¡":6026,"à¼ĭà¼įà¼įà¼ĭ":6027,"à½»à¼Ķ":6028,"à¾©à½²à¼Ķ":6029,"à¼¡à¼łà¼¤à¼¢":6030,"à¼§à¼¨à¼¥":6031,"à¼¡à¼¡à¼łà¼ł":6032,"à½£à½ĸà½£":6033,"à½Łà½ĳà½ĺ":6034,"à½Ĥà½¢à½¦":6035,"à¾³à¼ĭà¼ĳ":6036,"à¾łà½´à¼ĭ":6037,"à½Ļà½Ļ":6038,"ĭà½¼à¼įà¼į":6039,"à¼ĭà½¼à¼įà¼į":6040,"à¼§à¼£à¼¢":6041,"Ġà½ŀà½¢":6042,"à½ĵà½ĺà½ģà½¦":6043,"à½£à½ĺà½ģ":6044,"à¾¦à¾·à½¼":6045,"à¼¨à¼¡à¼£":6046,"Ġà¼ĳà¼į":6047,"à¼¡à¼¡à¼¡à¼§":6048,"à½©à½ĺ":6049,"à½Ħà½ĵà½Ķ":6050,"à¼§à¼¥à¼¡":6051,"à½ĸà½ĺà½¢":6052,"à½Ħà½ĺà½Ľà½ĳ":6053,"à½Ľà½¤":6054,"à½±à¼·":6055,"à½łà½ĳà½¦à½¦":6056,"à½ĵà½ĺà½īà½ĺ":6057,"à¼¡à¼łà¼§à¼¡":6058,"à¾łà½¿à¼ĭ":6059,"ĠĠĠĠĠ":6060,"Ġà½ĺà½Ħà½ł":6061,"à½´à¼ĭà¾¾":6062,"à½Łà½Ģ":6063,"à½Ķà½¦à½Ķ":6064,"à¼įà¼ĭà¼ĭà¼ĭà¼ĭà¼ĭà¼ĭà¼ĭà¼ĭà¼ĭà¼ĭà¼ĭà¼ĭà¼ĭà¼ĭà¼ĭà¼ĭà¼ĭà¼ĭà¼ĭà¼ĭà¼ĭà¼ĭà¼ĭà¼ĭà¼ĭà¼ĭà¼ĭà¼ĭà¼ĭà¼ĭà¼ĭà¼ĭà¼ĭà¼ĭà¼ĭà¼ĭà¼ĭà¼ĭà¼ĭà¼ĭà¼ĭà¼ĭà¼ĭà¼ĭà¼ĭà¼ĭà¼ĭà¼ĭà¼ĭà¼ĭà¼ĭ":6065,"Ġà½ļà½Ħà½¦":6066,"à½Ħà½łà½ģ":6067,"à½ºà¼įà¼ĭà¼ĭ":6068,"à¾²à½ºà½ºà¼ĭ":6069,"à½ĸà½Ĳà½ĸà½¦":6070,"à½¦à½¢à½¦":6071,"à¾±à¾¦à¾·à½±à½²":6072,"à½Ķà½¦à½Ĥà½¦":6073,"à¼©à¼¡à¼§":6074,"à½Ĥà½¦à½ĺà½Ĩ":6075,"à¾±à½±à½´à¼ĭ":6076,"à½£à½Į":6077,"à¾²à½´à¼·":6078,"à½ĺà½īà½ĺà½ĺ":6079,"à¼¡à¼©à¼£à¼¨":6080,"à¼¦à¼¨à¼£":6081,"Ġà½łà½Ĥà½£":6082,"à½¦à½Ħà½Ĥ":6083,"à½ĵà½Ĥà½ı":6084,"à½ĺà½ĺà½Ľà½ĳ":6085,"à½ĺà½ļà½ĵà½ĵ":6086,"à½ģà½ĺà½¦à½£":6087,"à¾²à¼·à½²":6088,"à½ĵà½¦à½¤":6089,"à½ĺà½ļà½ĺà½¦à½ĺ":6090,"à½Ķà½¢à½Ĳà½¢":6091,"à¼¡à¼¡à¼¡à¼¨":6092,"à¼¡à¼¡à¼¡à¼¤":6093,"à¾²à½±à½²à½¾à½¿à¼ĭ":6094,"à¼łà¼łà¼¢à¼ł":6095,"à¼©à¼łà¼¦":6096,"à½ĸà½¦à½ļ":6097,"à½ĺà½Ľà½ĳà½ĵà½¦":6098,"à¼§à¼¤à¼¤":6099,"à¾·à¾±à½¾à¼į":6100,"Ġà½ĺà½¦":6101,"à½Ķà½Ĥà½ı":6102,"Ġà¼ĭà¼ĭà¼Į":6103,"à¼§à¼¨à¼¡":6104,"à¼ĭà¼ĭà¼Ī":6105,"à¾Ķà¼·":6106,"à¼¨à¼¢à¼£":6107,"à½ĵà½Ķà½£à½¦":6108,"à½Ĥà½ĳà½ĳ":6109,"à¼łà¼łà¼¡à¼©":6110,"à½¦à½Ģà½ĳ":6111,"à½ıà½łà½Ħ":6112,"à½Ĥà½¦à½£à½Ĥ":6113,"à¼Ħà¼ħà¼Ķ":6114,"à½Ķà½Ĥà½ŀ":6115,"à½Ķà½¢à½ĺà½Ľ":6116,"à¼§à¼£à¼¨":6117,"à½»à½¿à¼į":6118,"à¼¨à¼łà¼¨":6119,"à½ĺà½Łà½ĳ":6120,"à½£à½¦à½ĸà½¦":6121,"à½¢à½Ħà½¢":6122,"à¾ľà½±à½´à¼ĭ":6123,"à½»à½»":6124,"à½Ħà½¦à½Ĩ":6125,"à¼¡à¼©à¼¢à¼§":6126,"à½Ķà½ĺà½Ľ":6127,"à½¼à¼ĭà¼į":6128,"à½ĳà½Ħà½ī":6129,"à¼©à¼¡à¼¢":6130,"à¼ĭà½Īà¾¡à½º":6131,"à½£à½ĺà½Ĳà½ł":6132,"à½¼à¼įà¼įà¼Ħà¼ħà¼į":6133,"à¼§à¼©à¼¥":6134,"à½¦à½ĸà½Ģ":6135,"à½Ĥà½ĺà½ļ":6136,"à½Ħà½ĸà½Ł":6137,"à½ĸà½¦à½Ķà½¦":6138,"à¾ĭà½Ģ":6139,"à¼§à¼©à¼¤":6140,"à½ĺà½¦à½Ĥ":6141,"à¾³à¾Ģ":6142,"à¼¡à¼©à¼¤à¼¦":6143,"à¼¡à¼©à¼¤à¼¡":6144,"à½¢à½Ĥà½ħ":6145,"à½£à½¦à½Ĳ":6146,"à½Ĥà½¦à½Ħà½ĸ":6147,"à¼§à¼¦à¼§":6148,"à¼¨à¼¡à¼¤":6149,"à½Ĳà½ĺà½¦à½ħà½ĳà½ĳ":6150,"à¾±à¾Ģà¼į":6151,"à½Ķà½ĳà½Ķ":6152,"à½İà½ĳ":6153,"à¾µà½±à½²":6154,"à¼§à¼¨à¼¦":6155,"à½ĵà½¦à½¨":6156,"à½£à½¦à½ļ":6157,"à¾¦à¾±à¾±à½²":6158,"à½ĸà½ĸà½ĸà½ĸà½ĸà½ĸ":6159,"à½£à½Ķà½ĳ":6160,"à¼¨à¼¤à¼¢":6161,"à½Ħà½ĺà½¢":6162,"à½Ĳà½£à½ĳ":6163,"à¼¨à¼¢à¼¥":6164,"à½ģà½¦à½ĸ":6165,"à½¨à½ĵà½ĵ":6166,"à½ĵà½ĺà½Ľ":6167,"à½Ħà½ĵà½Ĥ":6168,"à¼´à¼´":6169,"à½´à¼ĭà¼½à¼¼":6170,"à½ºà¼įà¼½":6171,"à¼·à½ºà¼į":6172,"Ġà½¡à½ĸ":6173,"Ġà½ĸà½ħà½ł":6174,"à½£à½ĸà½Ģ":6175,"à¾¨à¼ĭà¼Ħà¼ħà¼įà¼į":6176,"à¾»à½¼à¼ĭ":6177,"à½§à½§à½§":6178,"ĭà¾Ĺ":6179,"à¼ĭà¾Ĺ":6180,"à¾·à½±à½¾à¼ĭ":6181,"à½ĺà½ļà½ĵà½Ĥ":6182,"à¾·à½¾à¼Ķ":6183,"à¾¦à¾±à½´":6184,"à½Ĥà½¦à½£à½ĸà½¢":6185,"à½ģà½Ķ":6186,"à¾Ĳà¾¡à½¼":6187,"à¼¡à¼©à¼¡à¼¡":6188,"à½²à¼ĭà½¼à¼ĭ":6189,"à¾²à½ºà¼ĭà½Īà½²":6190,"à¾Łà½²à¼Ķ":6191,"à¾Łà½¾à¼įà¼į":6192,"à½ĺà½¦à½ĺà½Ħ":6193,"à½Ķà½¢à½ļ":6194,"à½ºà¼įà¼Ī":6195,"à½Ĺà½Ģ":6196,"à¼ĭà¼İà¼į":6197,"à¼ĭà¼ĭà¼ĭà¼ĭà¼ĭà¼ĭà¼ĭà¼ĭà¼ĭ":6198,"à½ĺà½¦à½ļ":6199,"à¾ŀà¾ŀà½±à¼ĭ":6200,"Ġà¼©à¼¡":6201,"à¼¡à¼¡à¼£à¼£":6202,"à½ĵà½łà½Ľ":6203,"à½ĸà½ıà½¢":6204,"à¼§à¼¤à¼¦":6205,"à¼©à¼¦à¼ł":6206,"à¼ĭà¼įà¼ĭà¼ĭà¼ĭ":6207,"à½±à¼·à¼ĭ":6208,"à½Ķà½¢à½¡à½Ħ":6209,"à½ģà½ĺà½¦à½ĳà½Ħ":6210,"à½ĵà½Ĥà½ĳ":6211,"à½¼à¼ĭà¼ħ":6212,"à½Ĥà½ħà½¦":6213,"à¼¡à¼łà¼¡à¼¤":6214,"à½Ħà½¦à½Ħ":6215,"à¼£à¼łà¼łà¼ł":6216,"à½ĸà½¦à½ı":6217,"à½ĵà½¦à½Ĥà½¦":6218,"à½ºà¼įà¼ĭà¼ĭà¼ĭà¼ĭà¼ĭ":6219,"à½Ĩà½Ĥà½¦à½ĳà½Ħ":6220,"à¼¨à¼łà¼¢":6221,"Ġà½Ĩà½ĳ":6222,"à½łà½Ľà½Ħ":6223,"à½Ĥà½¦à½Ħà½ĸà½ł":6224,"à½İà½Ģ":6225,"à¼¡à¼¤à¼łà¼©":6226,"Ġà½ķà½¢":6227,"à¾¥à¼į":6228,"Ġà¼Įà¼Įà¼Įà¼Įà¼Įà¼Įà¼Įà¼Įà¼Įà¼Įà¼Įà¼Įà¼Įà¼Įà¼Įà¼Įà¼Įà¼Įà¼Įà¼Įà¼Įà¼Įà¼Įà¼Įà¼Įà¼Įà¼Įà¼Įà¼Įà¼Įà¼Įà¼Įà¼Į":6229,"à¾Ĳà¾±à¾±à½º":6230,"à½Ĳà½¢à½ĳ":6231,"à½Ħà½Ħà½ĺ":6232,"à¾µà½´à½¿à¼ĭ":6233,"à¼¡à¼¢à¼¥à¼¡":6234,"à¾ļà½±à½²à½¿à¼ĭ":6235,"à½Ĩà½ĸà½¢":6236,"à¾Ĳà¾Ĺà½º":6237,"à½Ĩà½Ĥà½¦à½¦":6238,"à¾·à½±à½¿à¼ĭ":6239,"à½Īà½ºà¼ĭ":6240,"ĭà½¼à¼į":6241,"à½ĳà½Ħà½ģ":6242,"à¼ĭà½¼à¼į":6243,"à½ĺà½ĩà½ĳ":6244,"à¼¡à¼łà¼§à¼£":6245,"à½´à¼ĭà½º":6246,"à½ĺà½¦à½ĳà½Ķà½łà½Ĩ":6247,"à½Ĥà½Łà½Ħà½¦":6248,"Ġà½ĳà½ĺà½Ĥ":6249,"à½Ķà½¤à½ĳ":6250,"à¼ĭà¼Īà¼":6251,"à¾»à½¾à¼ĭ":6252,"à½ĳà½ĸà½łà½Ĩ":6253,"à½Ĥà½Į":6254,"à½ĳà½Ħà½Ĳ":6255,"à¾¦à¾²à½²à¼ĭ":6256,"à¼¨à¼¢à¼¨":6257,"à½Ķà½¢à½ĺà½Ĳ":6258,"à½ĵà½ĳà½ĵ":6259,"à¼¡à¼łà¼§à¼©":6260,"à¼įà¼Ħà¼įà¼į":6261,"à½ĸà½ĸà½Ģ":6262,"ĠĠĠĠĠĠĠĠĠĠĠĠĠĠĠĠĠĠĠĠĠĠĠĠĠĠĠĠĠĠĠĠ":6263,"à½¼à¼ĭà¼Ĳà¼įà¼įà¼įà¼į":6264,"à¼¡à¼¡à¼¨à¼¢":6265,"à¾Īà¾Īà¾Īà¾Īà¾Īà¾Īà¾Īà¾Ī":6266,"à¼įà¼ĭà¼ĭà¼ĭà¼ĭà¼ĭà¼ĭà¼ĭà¼ĭà¼ĭà¼ĭà¼ĭà¼ĭà¼ĭà¼ĭà¼ĭà¼ĭà¼ĭà¼ĭà¼ĭà¼ĭà¼ĭà¼ĭà¼ĭà¼ĭà¼ĭà¼ĭà¼ĭà¼ĭà¼ĭà¼ĭà¼ĭà¼ĭà¼ĭà¼ĭà¼ĭà¼ĭà¼ĭà¼ĭà¼ĭà¼ĭà¼ĭà¼ĭà¼ĭà¼ĭà¼ĭà¼ĭà¼ĭà¼ĭà¼ĭà¼ĭà¼ĭà¼ĭà¼ĭà¼ĭà¼ĭà¼ĭà¼ĭà¼ĭà¼ĭà¼ĭà¼ĭà¼ĭà¼ĭà¼ĭà¼ĭà¼ĭà¼ĭà¼ĭà¼ĭà¼ĭà¼ĭà¼ĭà¼ĭà¼ĭà¼ĭà¼ĭà¼ĭà¼ĭà¼ĭà¼ĭà¼ĭà¼ĭà¼ĭà¼ĭà¼ĭà¼ĭà¼ĭà¼ĭà¼ĭà¼ĭà¼ĭà¼ĭà¼ĭà¼ĭà¼ĭà¼ĭà¼ĭà¼ĭà¼ĭà¼ĭà¼ĭà¼ĭà¼ĭà¼ĭà¼ĭà¼ĭà¼ĭà¼ĭà¼ĭà¼ĭà¼ĭà¼ĭà¼ĭà¼":6267,"à½ĸà½¦à½ĺà½ĸ":6268,"à½Ħà½¢à½Ħ":6269,"à¼¡à¼¤à¼¡à¼¦":6270,"à¼¨à¼łà¼©":6271,"à¼¡à¼¡à¼łà¼©":6272,"à¼ĭà¼Īà¼ĭ":6273,"à¾Ĵà¾²à½ºà¼į":6274,"à¼¡à¼łà¼¡à¼£":6275,"à½´à¼·à¼į":6276,"à½ĺà½ĺà½Ĥ":6277,"à½İà½İ":6278,"à¾¡à¾·à½±à½¿à¼ĭ":6279,"à¾±à½²à¼µ":6280,"à½ĸà½ŀà½Ĥà½ĳ":6281,"à¼§à¼§à¼£":6282,"à¼ĭà¼ĭà¼Ħ":6283,"à½Ĥà½¦à½Ķà½£":6284,"à¾°à¼įà¼į":6285,"à½ĳà½ĺà½ļà½ĵ":6286,"à¼¨à¼¡à¼¨":6287,"à¼łà¼łà¼¥":6288,"à¼ĭà¾ĵà½¾à¼ĭ":6289,"Ġà½łà½Ĳ":6290,"à½ĸà½ĺà½īà½ĺ":6291,"à¼©à¼¡à¼¡":6292,"à¼ĭà½Īà¾²à½ºà¼ĭ":6293,"à¼§à¼§à¼¦":6294,"à¾ĳà¼į":6295,"à½ķà½ĵà½Ķ":6296,"à½ıà½ķà½¥":6297,"à¾·à½¼à¼ĭà¼½":6298,"Ġà½Ĥà½ĵà½Ħ":6299,"à¾¤à¾²à¾Ģ":6300,"à½ĸà½ıà½Ĭ":6301,"à½ĵà½ĺà½¦à½ĺ":6302,"à¾±à½²à¼ĭà¼Ħà¼ħ":6303,"à½ĵà½¦à½Ĳ":6304,"à¼Ħà¼Ħà¼ħà¼įà¼į":6305,"à¾·à¾£à¼ĭ":6306,"à¼¡à¼¢à¼łà¼¤":6307,"à½Ħà½Łà½ĳ":6308,"à½Ĥà½¦à½Ĥà½ī":6309,"à¼¡à¼¢à¼¥à¼£":6310,"Ġà¼ģà¾ĥà¼Ķ":6311,"à¼¨à¼¢à¼¦":6312,"à¾ŀà½¼à¼ĭ":6313,"à½Ķà½ĺà½ļà½ĵ":6314,"à½¼à¼ĭà¼ĳà¼ĳà¼¼":6315,"à¾·à¾ĥà¼ĭ":6316,"à¼¡à¼§à¼¡à¼¨":6317,"à½ĵà½ĺà½ļà½ĺà½¦":6318,"à½Łà½ĳà½ĳ":6319,"Ġà¼ī":6320,"à¼©à¼łà¼¤":6321,"à¾£à¼ĭà¼Ħà¼ħà¼įà¼į":6322,"à¼¨à¼¡à¼ł":6323,"à¼¡à¼£à¼¦à¼¤":6324,"à¼ĭà¼ĭà¼ĭà¼įà¼į":6325,"à½§à½ħà½Ħ":6326,"à¼§à¼¤à¼ł":6327,"à¾¦à¾¡à½¼":6328,"à½¢à½ĳà½Ķ":6329,"à½ķà½ĺà½¦":6330,"ĭà¾²à½²":6331,"à½¡à½ĳà½ĺ":6332,"à¼ĭà¾²à½²":6333,"à¾¦à½¼à¼įà¼į":6334,"à¾ªà½¼à¼ĭ":6335,"à¾²à½´à½¾à¼į":6336,"à¼įà¼¼à¼½":6337,"à¾Ĳà¾±à½ºà¼ĭà¼Ħà¼ħà¼įà¼į":6338,"à½ĵà½ĺà½ŀ":6339,"à¼¨à¼¡à¼©":6340,"à½ĸà½ĺà½ĺà½Ĩ":6341,"Ġà¼¨à¼©":6342,"à½¦à½ĸà½¦à½ĺ":6343,"à½Ħà½łà½ĩ":6344,"à½Ģà½łà½ĳ":6345,"à½ĳà½Ħà½Ĥà½ŀà½ĵ":6346,"à¾Ĵà½¾à¼ĭ":6347,"à¾³à¾Ģà¼į":6348,"à½ĳà½ĳà½Ķà½¢":6349,"à¼įà¼įà¼Ħà¼ħà¼į":6350,"à½½à½¿à¼į":6351,"à¼¡à¼łà¼łà¼¡":6352,"à½ĸà½ĸà½Ĥ":6353,"à½Ķà½īà½ĺà½¦":6354,"à½łà½ĸà½ŀ":6355,"à½ħà½ĳà½¡":6356,"à½Ķà½¦à½Ĳ":6357,"à¼¡à¼©à¼¤à¼¢":6358,"à½ĺà½Ķà½ĵ":6359,"à½£à½¦à½¤":6360,"à½Ľà½Ľà½§":6361,"à½Ĺà½ģ":6362,"à½ĵà½Ķà½ĳà½Ħ":6363,"à½ĺà½ļà½Ĥ":6364,"à¼¨à¼¢à¼©":6365,"à¾Łà¼ĭà¼´":6366,"à½Ķà½ĵà½Ħ":6367,"à½ĸà½ŀà½ĸà½¦":6368,"à¼¨à¼¡à¼§":6369,"à¾Ľà½±à¼į":6370,"à¼¨à¼łà¼¤":6371,"à¼©à¼¨à¼¦":6372,"à½ĳà½Ķà½łà½ļ":6373,"à½ĸà½¦à½ĺà½¦à½ĵà½¦":6374,"à½Ĥà½£à½ĺ":6375,"à½ĺà½¦à½ĳà½Ķà½łà½¦":6376,"à½¢à½Ŀ":6377,"à½ĸà½ħà½¦à½¦":6378,"à½¦à½ĵà½ĳ":6379,"à¼¡à¼¢à¼©à¼¢":6380,"à¼Ģà½ģ":6381,"à½Ķà½£à½Ĥà½¦":6382,"à¼¡à¼¢à¼¨à¼¨":6383,"à¼§à¼¨à¼¤":6384,"à½ķà½ķ":6385,"à¼ĭà¼¹à½²":6386,"à½İà½ĸ":6387,"à¼¡à¼łà¼łà¼¤":6388,"à¼¡à¼©à¼łà¼©":6389,"à¼¡à¼łà¼¡à¼¥":6390,"à½ģà½Ĳ":6391,"à½¡à½Ħà½łà½ĳ":6392,"à½ĳà½ĸà½Ħà½ĸ":6393,"à½²à¼ĭà¾¾à¼į":6394,"à¾Ńà½±à¼Ķ":6395,"à¾¦à½¼à¼į":6396,"Ġà¼łà¼¨":6397,"Ġà½ļà½¢":6398,"à½ĸà½¦à½ģ":6399,"à½¡à½Ħà½ŀ":6400,"à½¢à½ĸà½Ħ":6401,"à½¦à½Ķà½ĺà½Ľà½ĳà½Ķ":6402,"à¼¡à¼łà¼¤à¼¦":6403,"à½Ķà½ĳà½ĸà½Ħ":6404,"à½ĺà½¢à½Ĥ":6405,"à¼§à¼łà¼£":6406,"à½Ķà½£à½ĺ":6407,"à¾²à¼ĭà½²":6408,"à¾¡à½ºà¼ĭà¼Ħà¼ħà¼įà¼į":6409,"à¼¡à¼¢à¼¢à¼¢":6410,"à¾³à½¼à¼ĭà¼½":6411,"à¼¡à¼¤à¼¡à¼ł":6412,"à¼§à¼©à¼¦":6413,"à½¦à½ŀà½¦":6414,"Ġà¼įà¼ĭà¼ĭ":6415,"à¼§à¼łà¼¦":6416,"à½ĳà½ĵà½ĳ":6417,"à¾¦à½¾à¼į":6418,"à¾±à½ºà¼ĭà½Īà½²":6419,"à¼¨à¼¦à¼©":6420,"à½¦à½łà½Ľ":6421,"à¾¦à¾¦à½±à¼ĭ":6422,"à¾ľà½ºà¼į":6423,"à½ĸà½ĵà½ĵ":6424,"à¼įà¼įà¼ĭà¼ĭ":6425,"à½¥à½¡":6426,"à¼¨à¼¢à¼¤":6427,"à¼¨à¼łà¼¦":6428,"à½ĵà½Į":6429,"à½Ħà½Ĥà½Ł":6430,"à½ĳà½ĺà½ģ":6431,"à¼¡à¼©à¼¢à¼¢":6432,"à¼łà¼£à¼ł":6433,"à¼¡à¼¢à¼¦à¼ł":6434,"Ġà¼łà¼¤":6435,"à¼©à¼łà¼§":6436,"à½Ĩà½¡":6437,"à½Ħà½¦à½ĳà½Ħ":6438,"à½ĳà½ĺà½Ľà½ĳ":6439,"à½ĳà½Ĥà½łà½£":6440,"à½Ĺà½Ĥà½ł":6441,"à¼¡à¼¦à¼©à¼¨":6442,"à¾·à¾²à½±à½´à¾ĥà¼į":6443,"à¼¡à¼¡à¼¢à¼£":6444,"à¾Łà½½à¼ĭ":6445,"à½ĺà½Ĳà½łà½Ħ":6446,"à½±à½²à¼ĭà¼½":6447,"à¾²à¼įà¼":6448,"à½¦à½ħà½ĳ":6449,"à¾£à½ºà¼įà¼į":6450,"à¼·à½²à¼į":6451,"à¼¡à¼łà¼£à¼¨":6452,"à½±à½¼à¾ĥà¼į":6453,"à½ĸà½ĵà½Ħ":6454,"à¾Łà½¼à¼įà¼įà¼įà¼į":6455,"à¼¡à¼łà¼¤à¼¤":6456,"à¾±à¼ĭà¼Ĳ":6457,"à½ıà½ĵà½¢":6458,"à¼¡à¼¢à¼¢à¼§":6459,"à¼¡à¼£à¼¤à¼©":6460,"à½©à½§":6461,"Ġà¼ĭà¼ĭà¼ĭà¼ĭà¼ĭà¼ĭà¼ĭà¼ĭà¼ĭà¼ĭà¼ĭà¼ĭà¼ĭà¼ĭà¼ĭà¼ĭà¼ĭà¼ĭà¼ĭà¼ĭà¼ĭà¼ĭà¼ĭà¼ĭà¼ĭà¼ĭà¼ĭà¼ĭà¼ĭà¼ĭà¼ĭà¼ĭà¼ĭà¼ĭà¼ĭà¼ĭà¼ĭà¼ĭà¼ĭà¼ĭà¼ĭà¼ĭà¼ĭà¼ĭà¼ĭà¼ĭà¼ĭà¼ĭà¼ĭà¼ĭà¼ĭ":6462,"à½ĺà½īà½£":6463,"à¼¡à¼£à¼¡à¼¢":6464,"à¼¡à¼¡à¼¡à¼¦":6465,"à¾²à¼įà¼ĭ":6466,"ĭà¾Ł":6467,"à½ĸà½¢à½ĸà½Ĥ":6468,"à¼ĭà¾Ł":6469,"à¼¨à¼łà¼§":6470,"à½Ķà½ĳà½ĺà½ł":6471,"à½Ĥà½ŀà½Ĥà½Ķ":6472,"à½ĺà½ĩà½ĺ":6473,"à¼©à¼§à¼¥":6474,"à½ĳà½ĳà½ĸà½Ħ":6475,"à½¢à½Ĥà½¦à½£":6476,"à½ĵà½Ĥà½¡":6477,"à½ģà½Ľ":6478,"à¾²à¼µ":6479,"Ġà½Ļà½ĵ":6480,"à½Ĥà½«à½¥":6481,"à½Ķà½ĳà½Ģ":6482,"à½Ģà½ĭ":6483,"à¼łà¼łà¼¤":6484,"à½¢à½ĸà½Ł":6485,"à½±à¼įà¼įà¼į":6486,"à¼¡à¼łà¼¢à¼¦":6487,"à¾Ħà¼·à¼ĭ":6488,"à½¢à½£à½Ĥà½¦":6489,"à½£à½ļà½ĳ":6490,"à½ĸà½ĳà½Ģà½ĵ":6491,"à½ħà½ĳà½ĸà½¦":6492,"à½ĺà½īà½ĺà½ī":6493,"à¼łà¼łà¼¢à¼¥":6494,"Ġà½ĸà½Ģà½łà½łà½Ĥ":6495,"à¼©à¼¡à¼£":6496,"à¼¡à¼¡à¼¢à¼¨":6497,"à½ĺà½Ļà½ĵ":6498,"à¾Ľà½²à¼į":6499,"à½Ĵà½¢à½¥":6500,"à¼¡à¼¢à¼§à¼§":6501,"à¼§à¼¨à¼£":6502,"à½łà½ĺà½ĳ":6503,"à¾¨à½¼à¼įà¼į":6504,"à½ªà½Ħ":6505,"à¼¨à¼¡à¼¦":6506,"à½¼à¼ĭà¼ĳà¼ĭà¼ĳ":6507,"à¼¡à¼£à¼¥à¼¦":6508,"à½ĳà½ĸà½¤à½ĳ":6509,"à½ĺà½Ĩà½Ĥ":6510,"à½²à¼ĭà½Īà½²à¼ĭ":6511,"à½Ĵà½Ĥà½¦":6512,"à¼§à¼©à¼£":6513,"à¼©à¼©à¼¥":6514,"à½Ĥà½Ĥà½ı":6515,"à½Ħà½¦à½ĸà½¦":6516,"à½ĳà½Ĥà½łà½ŀ":6517,"à½¥à½Ľ":6518,"Ġà¼ĭà¼ĭà¼ĭà¼ĭà¼ĭà¼ĭà¼ĭà¼ĭà¼ĭà¼ĭà¼ĭà¼ĭà¼ĭà¼ĭà¼ĭà¼ĭà¼ĭà¼ĭà¼ĭà¼ĭà¼ĭà¼ĭà¼ĭà¼ĭà¼ĭà¼ĭà¼ĭà¼ĭà¼ĭà¼ĭà¼ĭà¼ĭà¼ĭà¼ĭà¼ĭà¼ĭà¼ĭà¼ĭà¼ĭà¼ĭà¼ĭà¼ĭà¼ĭà¼ĭà¼ĭà¼ĭà¼ĭà¼ĭà¼ĭà¼ĭà¼ĭà¼ĭà¼ĭà¼ĭà¼ĭà¼ĭà¼ĭà¼ĭà¼ĭà¼ĭà¼ĭà¼ĭà¼ĭà¼ĭà¼ĭà¼ĭà¼ĭà¼ĭà¼ĭà¼ĭà¼ĭà¼ĭà¼ĭà¼ĭà¼ĭà¼ĭà¼ĭà¼ĭà¼ĭà¼ĭà¼ĭà¼ĭà¼ĭà¼ĭà¼ĭà¼ĭà¼ĭà¼ĭà¼ĭà¼ĭà¼ĭà¼ĭà¼ĭà¼ĭà¼ĭà¼ĭà¼ĭà¼ĭà¼ĭà¼ĭà¼ĭà¼ĭà¼ĭà¼ĭà¼ĭà¼ĭà¼ĭà¼ĭà¼ĭà¼ĭà¼ĭà¼ĭà¼ĭà¼":6519,"à½¦à½ĳà½Ģ":6520,"à½ĵà½ĸà½¦à½ĺ":6521,"à½Ĥà½¦à½Ķà½Ģ":6522,"à½´à¼įà¼Ī":6523,"à¼¡à¼©à¼łà¼¨":6524,"à½Ĥà½ŀà½ĵà½ŀ":6525,"à¼¡à¼¡à¼§à¼¥":6526,"à½Ĥà½ĳà½Ķà½£":6527,"à½¢à½ĳà½ĺ":6528,"à¾¦à½±à¼į":6529,"à¼¡à¼¢à¼¢à¼¥":6530,"à¾ĭà½Ĩ":6531,"Ġà½ĳà½Ķà½¢":6532,"à½ıà½¥":6533,"à½ĳà½ĳà½£":6534,"Ġà¼Ķà¼Ķ":6535,"Ġà¼ĭà¼įà¼į":6536,"à½ĺà½ĺà½ļ":6537,"à½łà½Ĥà½ĺà½¦":6538,"à¾Łà¼µ":6539,"à¾²à½¼à¼ĭà¼´":6540,"à¼¡à¼¢à¼¡à¼¦":6541,"à¾Īà¾Īà¾Ī":6542,"à½Ķà½¢à½łà½ļà½Ħ":6543,"à¼©à¼¢à¼£":6544,"à½ıà½ĵà½ĺ":6545,"à½Ĩà½Ĥà½¥":6546,"à½ĵà½Ļà½ĵ":6547,"à½ĸà½¦à½ĺà½ĳ":6548,"à¼¡à¼łà¼¢à¼¤":6549,"à¼¡à¼©à¼£à¼¢":6550,"à¼ĭà¼¼à¼¼":6551,"à½Ĺà½Ĵ":6552,"Ġà½¢à½£":6553,"à½Ĥà½łà½Ľ":6554,"à½£à½¦à½£à½¦":6555,"à½Ħà½Ķà½ĳ":6556,"à½Ĥà½Ħà½ĺ":6557,"à¼¡à¼¦à¼¡à¼¦":6558,"à¼©à¼©à¼¢":6559,"à¼©à¼¨à¼©":6560,"à½ıà½ķ":6561,"à¼¡à¼łà¼łà¼¢":6562,"à¾·à¾£à½±à¼ĭ":6563,"à½Ģà½¢à½İ":6564,"à¾»à½´à¼ĭ":6565,"à½²à¼·à¼į":6566,"à½±à¼ĭà¼¼":6567,"à½Ħà½¨":6568,"à¾²à¾Ĥà¼į":6569,"à½ļà½ĸà½¢":6570,"à½¡à½ĵà½ł":6571,"à½«à½¡":6572,"à¼©à¼©à¼£":6573,"à¼¡à¼©à¼łà¼£":6574,"à½¦à½ĺà½ģ":6575,"à½¦à½Ĥà½ĳ":6576,"à½ĸà½Ĥà½ł":6577,"à¼¨à¼£à¼¦":6578,"à¼¡à¼£à¼¡à¼¤":6579,"à½ĳà½Ħà½ļ":6580,"à¼©à¼¢à¼¢":6581,"à¾·à½²à½¿à¼įà¼į":6582,"à½¡à½ĳà½ĳà½Ĥ":6583,"à½ĺà½¦à½ģ":6584,"à½Ĥà½ŀà½ĺ":6585,"à½¼à¼įà¼įà¼įà¼įà¼Ī":6586,"à¼¡à¼¢à¼¨à¼ł":6587,"à¾®":6588,"à½ĳà½ĵà½ĵ":6589,"à½Ķà½Ĥà½¡":6590,"à½ĵà½¦à½¢à½Ħ":6591,"à½Ķà½¦à½ī":6592,"à¼¡à¼©à¼¢à¼¤":6593,"à½¦à½Ķà½ĸ":6594,"à¼¨à¼¨à¼¨":6595,"à¼¡à¼¡à¼¢à¼¡":6596,"à½Ħà½§":6597,"à½Ĥà½ĳà½ĵà½£":6598,"à¼¡à¼¡à¼¤à¼¢":6599,"à¾ĳà½¾à¼ĭ":6600,"à½ĵà½¦à½ĳà½Ĥ":6601,"à½¨à½ħ":6602,"à¾Ńà½²à¼į":6603,"à¼¨à¼£à¼¡":6604,"à¼¡à¼łà¼¢à¼¥":6605,"à¾łà½¾à¼į":6606,"à½¾à¼ĭà¼Ī":6607,"à¾°à½´à½¾à¼į":6608,"à½łà½ģà½ĸ":6609,"à½ĸà½¤à½ĳà½ĵ":6610,"à¼©à¼łà¼¡":6611,"à½¢à½Ĥà½¤":6612,"à½ĳà½Ħà½Ĥà½Ł":6613,"à½Ĥà½¤à½£":6614,"à½¥à½Ħ":6615,"à¼©à¼¡à¼¨":6616,"à¾·à½´à½¿à¼ĭ":6617,"à¼¡à¼©à¼¢à¼¦":6618,"à¾¶à½²à¼į":6619,"à¾³à¼·à½¼à¼ĭ":6620,"à½Ģà½«à½¥":6621,"à½²à¼įà¼¼":6622,"à½Ĵà½§":6623,"à¼¡à¼¡à¼¢à¼©":6624,"à½ĸà½¢à½ŀ":6625,"à½Ķà½¦à½ł":6626,"à¾Łà½ºà¼ĭà¼¼":6627,"à½£à½¦à½Ĥà½Ħ":6628,"à¼¡à¼łà¼¡à¼¦":6629,"à½ĺà½¦à½ħ":6630,"à½ĸà½Ģà½łà½ĺ":6631,"à½łà½Ĩà½ĳà½Ķà½¢":6632,"à½Ķà½¦à½¢à½Ħ":6633,"à¾Ńà½ºà½¿à¼ĭ":6634,"à¼¡à¼©à¼¤à¼£":6635,"à½ĸà½īà½ĺà½¦":6636,"à¾¡à½±à½²à¼ĭ":6637,"à½ĳà½Ģà½Ĥ":6638,"à¼¡à¼¢à¼¢à¼¡":6639,"à½Ĵà½ķ":6640,"à¼©à¼§à¼¢":6641,"à½ĸà½ĺà½ļ":6642,"à¾Ĳà¼ĭà¼Ħà¼ħà¼įà¼į":6643,"à½ĳà½ĳà½¢":6644,"ĭà¾Ĺà½º":6645,"à½Ģà½ĵà½ł":6646,"à½īà½ģ":6647,"à¼ĭà¾Ĺà½º":6648,"Ġà¼ĭà¼ĭà¼ĭà¼":6649,"à¼¨à¼łà¼¥":6650,"à¼¡à¼¡à¼¨à¼©":6651,"à¼©à¼©à¼¡":6652,"à½ľà½£":6653,"à½´à½¾à¼Ķ":6654,"à½ĳà½Ĥà½ģ":6655,"à½²à¼ĭà½Īà¾±à½º":6656,"à½ĺà½£à½ĺ":6657,"à½£à½ĸà½Ģà½ł":6658,"à½Ĥà½¦à½ĺà½Ľ":6659,"à¼¡à¼łà¼§à¼§":6660,"à¼¡à¼¢à¼¡à¼§":6661,"à½¢à½ĸà½ĸ":6662,"à½ĵà½ĺà½¦à½ĺà½ĵ":6663,"à¼¨à¼¦à¼§":6664,"à½Ĥà½Ħà½ł":6665,"à¼¡à¼¦à¼¡à¼¨":6666,"à¼¡à¼¦à¼¨à¼¢":6667,"à½ĥà½ī":6668,"à½Ĥà½Ĥà½£":6669,"à½±à½´à½¿à¼į":6670,"à¼¡à¼¢à¼£à¼¥":6671,"à¼¡à¼¢à¼¦à¼§":6672,"à¼¡à¼©à¼¤à¼¤":6673,"à¼¨à¼¨à¼©":6674,"à½ºà¼ĭà¼ŀ":6675,"à½łà½Ĥà½ħ":6676,"à½łà½ĸà½ĳà½Ĥ":6677,"à¾Łà½ºà½¿à¼ĭ":6678,"à¼¨à¼¦à¼¦":6679,"à¼¡à¼łà¼łà¼£":6680,"à¼¨à¼¥à¼©":6681,"à¼¡à¼¤à¼¤à¼§":6682,"à½¢à½ĸà½ĳà½Ħ":6683,"à½£à½ĺà½ł":6684,"à½ĺà½Ĳà½łà½£à½¦":6685,"à¼¡à¼¡à¼¢à¼ł":6686,"à¼¡à¼¢à¼łà¼¦":6687,"à½£à½ĸà½¦à½ĺ":6688,"à½Ĩà½ĳà½Ĥ":6689,"à¾·à¾²à½±à½´":6690,"à½§à½¨":6691,"à¼©à¼¦à¼¥":6692,"à¼¡à¼łà¼¢à¼ł":6693,"à¼¡à¼łà¼¤à¼§":6694,"à¼ĭà¾Ĥ":6695,"à¼ĭà¾¢à¼":6696,"à¼ĭà¾¢à¼ĭ":6697,"à½ĳà½Ķà½£à½Ĥ":6698,"à½łà½Ĥà½£à½ĸ":6699,"à¼¡à¼łà¼¦à¼¡":6700,"à¼¡à¼©à¼¢à¼£":6701,"à¾Łà½´à½¾à¼ĭ":6702,"à¼¨à¼¨à¼ł":6703,"à¼©à¼¢à¼¡":6704,"à¼¡à¼łà¼¤à¼¡":6705,"à¼¡à¼łà¼¨à¼©":6706,"à¼µà½ºà¼ĭ":6707,"à¼¡à¼¡à¼¢à¼§":6708,"à½¢à½Ķà½£":6709,"à½ºà½ºà¼įà¼į":6710,"à¼©à¼¥à¼¥":6711,"Ġà½ĸà½ĵ":6712,"à¼©à¼¢à¼©":6713,"à¼¡à¼łà¼¡à¼¨":6714,"à½¦à½ĳà½Ķ":6715,"à¾¦à¾·à½²à½¿à¼į":6716,"à½Ĭà½ı":6717,"à½ĺà½ļà½ĵà½ĺà½ĺ":6718,"à¼·à¼·":6719,"à¼©à¼©à¼¦":6720,"à¼ĭà¼ĭà¼Ħà¼ħà¼į":6721,"à¾¡à½¿à¼ĭ":6722,"à½ļà½ĳà½ĺà½¦":6723,"à½łà½ļà½£à½ĵà½¦":6724,"à¼©à¼¥à¼§":6725,"Ġà¼łà¼§":6726,"à¼©à¼§à¼£":6727,"à¼¡à¼¢à¼łà¼§":6728,"à½ĵà½Ĥà½£":6729,"à½ĵà½ĸà½£":6730,"à½Ĩà½ļ":6731,"à½ĸà½¢à½¡à½Ħ":6732,"à¼¡à¼łà¼¢à¼¢":6733,"à¼¡à¼¡à¼¤à¼§":6734,"à½²à½¾à¼Ķ":6735,"à½²à¼ĭà¼Ŀà¼į":6736,"à½£à½Ĥà½¡":6737,"à¾Ĵà¾±à½´à¼ĭà¼Ħà¼ħ":6738,"à½ĳà½Ķà½łà½ŀ":6739,"à¼Ģà½ŀ":6740,"à½±à¾Ģà½¾à¼ĭ":6741,"à½ĺà½ĺà½Ľ":6742,"à½Ķà½Ģà½ł":6743,"à½Ĳà½ĺà½ħà½ĳ":6744,"à½ļà½ĸà½ł":6745,"à¾·à¾²à¼į":6746,"Ġà¼¨à¼¦":6747,"à¾µà¾¨à½±à½²à¼ĭ":6748,"à½ĵà½łà½ķà½Ĥà½¦":6749,"à½łà½ĩà½ĸà½¦":6750,"à¼©à¼¥à¼©":6751,"à¼¡à¼łà¼¦à¼¥":6752,"à¼¡à¼¡à¼¤à¼£":6753,"à½Ĥà½¦à½ĺà½Ħ":6754,"à½¼à¼ĭà¼Ħ":6755,"à½ĳà½Ķà½£à½¢":6756,"à¼§à¼¥à¼£":6757,"à½Ĥà½Ħà½¤":6758,"à¾«à½´à¼įà¼į":6759,"à½¦à½ĺà½ĸ":6760,"à¾µà¾¨à¼ĭ":6761,"à¼¡à¼¢à¼¡à¼¡":6762,"à¼©à¼©à¼¨":6763,"à½£à½Ĳà½ĺà½¦":6764,"à½Ħà½Ĥà½£":6765,"à¼§à¼¦à¼¦":6766,"à½£à½Ķà½ĸ":6767,"à½ŀà½£à½¦":6768,"à¼łà¼¦à¼ł":6769,"à¼¨à¼£à¼ł":6770,"à½»à½¾à¼į":6771,"à¾Ńà½±à½¾":6772,"Ġà¼łà¼¥":6773,"à½ĵà½ĸà½Łà½Ħ":6774,"à½ºà¼ĭà¼į":6775,"à¼¡à¼¡à¼¦à¼©":6776,"à½¼à¼ĭà¼ĳà¼įà¼įà¼į":6777,"à¼¡à¼©à¼¡à¼¨":6778,"à¼łà¼łà¼¢à¼¢":6779,"à¼¡à¼¦à¼¢à¼ł":6780,"à¾Ľà¼Ķ":6781,"à½¢à½ĺà½Ĥ":6782,"à¾²à½½":6783,"à¼¡à¼©à¼¢à¼©":6784,"à½ĳà½¥":6785,"à¼¡à¼¢à¼¤à¼¤":6786,"à¼¡à¼¡à¼¡à¼©":6787,"à¾²à¾Ńà¼įà¼į":6788,"à¼¡à¼¢à¼¤à¼ł":6789,"à½Ħà½ĸà½ĳà½Ĥ":6790,"à½ĺà½łà½ķ":6791,"à½Ļà½ĺà½ŀ":6792,"à¼©à¼§à¼¨":6793,"à¼łà¼łà¼¢à¼¡":6794,"à½¤à½Ĳ":6795,"à½ĳà½Ķà½Ĩ":6796,"à¼¡à¼¢à¼¡à¼ł":6797,"à¼¡à¼¢à¼¤à¼¡":6798,"à¾·à¾²à½±à½´à¼ĭ":6799,"à½Ķà½¢à½ģ":6800,"à¾·à½»à½¾à¼ĭ":6801,"à½¨à½ĵà½ĳ":6802,"à½ĸà½Ľà½ĳ":6803,"à¼ĭà¼Ĳà¼Ĳ":6804,"à½ĸà½ĳà½Ĥà½Ķ":6805,"à¾«à½±à½²à¼ĭ":6806,"à½ĺà½ĳà½£":6807,"à½ĺà½īà½ĺà½Ķà½ł":6808,"à¼©à¼¤à¼©":6809,"à¼¨à¼¤à¼¦":6810,"à¾¤à¾±à½²à¼įà¼įà¼įà¼į":6811,"à¼Ħà¼ħà¼įà¼įà¼į":6812,"à¼¡à¼łà¼¢à¼¨":6813,"à¼¡à¼¤à¼łà¼ł":6814,"à¼Ģà½Ļ":6815,"à½£à½ĸà½Ł":6816,"à½Ĥà½Ħà½ĸ":6817,"à¾°à½´à½¾":6818,"Ġĉ":6819,"à½£à½¦à½ĸà½¢":6820,"à½´à¼įà¼ĭà¼ĭà¼ĭà¼ĭà¼ĭ":6821,"à¼¨à¼¦à¼¥":6822,"à½Įà½ĳ":6823,"à½¨à½ĺà½ł":6824,"à½¿à¼ĭà¼´":6825,"à¼¡à¼¢à¼¢à¼£":6826,"à½Ķà½Ĥà½ĳ":6827,"à¼©à¼¡à¼¥":6828,"à¼¨à¼£à¼§":6829,"à¼¡à¼łà¼¥à¼¤":6830,"à¼¡à¼łà¼¦à¼¢":6831,"à¼¡à¼¢à¼§à¼¦":6832,"à¼¡à¼£à¼¢à¼¢":6833,"à¼¡à¼łà¼łà¼¦":6834,"à½²à¼Ķà¼":6835,"à¼¡à¼¡à¼©à¼£":6836,"à½ĺà½Ĳà½łà½ĳà½Ħ":6837,"à¼¨à¼¦à¼¡":6838,"à¼įà¼ĭà¼ĭà¼ĭà¼ĭà¼ĭà¼ĭà¼ĭà¼ĭà¼ĭà¼ĭà¼ĭ":6839,"à½¦à½Ķà½ĺ":6840,"Ġà½Ĥà½ĵà½ĳ":6841,"à½ĸà½¢à½ĳà½Ĥ":6842,"à¼¨à¼¢à¼ł":6843,"à¼¨à¼łà¼¡":6844,"à¾¡à¾·à¼įà¼į":6845,"à½¢à½Ĥà½£":6846,"à½²à¼įà¼Ī":6847,"ĭà¼¼":6848,"à¼ĭà¼µ":6849,"Ġà¼łà¼¦":6850,"Ġà½Ĥà½ıà½ĺ":6851,"à½Ĥà½¦à½ĺà½ļà½ĺà½¦":6852,"à½Ĩà½Ĥà½ĳà½Ģà½¢":6853,"à½ĸà½Ĥà½¡":6854,"à½Ĳà½ĵà½¢":6855,"à¾·à½ºà¼Ķ":6856,"à¾µà¾Ģà¼ĭ":6857,"à¼©à¼©à¼¤":6858,"à½Ħà½ĳà½ĸ":6859,"à½Ħà½Ĥà½ĳ":6860,"à½ĳà½Ħà½Ģ":6861,"à¼©à¼¨à¼§":6862,"à¼¨à¼¥à¼¥":6863,"à¼¡à¼£à¼łà¼©":6864,"à¾Ĵà¾±à½´à¼ĭà¼¼":6865,"à½Ĭà½§":6866,"à¼łà¼łà¼§":6867,"à½ºà¼ĭà¼ĳà¼ĳà¼ĭ":6868,"à¾ĭà½ŀ":6869,"à½¡à½łà½ĺ":6870,"à¼©à¼¦à¼¡":6871,"à¼¡à¼łà¼¤à¼¥":6872,"à¼¡à¼¢à¼¥à¼¥":6873,"à½ĵà½Ŀ":6874,"à½ºà½²":6875,"à½´à¼ĭà¼Ħ":6876,"à½ģà½ĵà½¦":6877,"à¾¨à¾²à½¼à¼ĭ":6878,"à¼Ķà¼Ī":6879,"à¼¡à¼¤à¼łà¼¥":6880,"à¾±à½´à¼µ":6881,"à½ģà½ĳà½Ĥ":6882,"à½ĸà½łà½Ĳ":6883,"à½łà½Ĭ":6884,"à½¡à½¦à½¦":6885,"à¼¨à¼£à¼¢":6886,"à¼¡à¼łà¼łà¼©":6887,"à½ĺà½ĺà½īà½ĺ":6888,"à¾¨à¾¨":6889,"à½ĳà½Ķà½ĸ":6890,"à¼©à¼¥à¼¨":6891,"à¼ĭà½Īà¾±à½ºà¼ĭ":6892,"à½łà½Ķà½¢":6893,"à½ļà½ĳà½ĵ":6894,"à½Ĥà½Ķà½Ĥ":6895,"à½¢à½£à½Ĥ":6896,"à½ĳà½ĳà½Ķà½¦":6897,"à¼¡à¼¡à¼łà¼£":6898,"à¼¡à¼¡à¼§à¼©":6899,"à½ĵà½ĸà½Łà½ł":6900,"à¾Łà½¾à¼Ķ":6901,"à½ĺà½¦à½łà½ĳ":6902,"à½ĳà½ĺà½Ķà½¢":6903,"à¼¡à¼łà¼¥à¼¥":6904,"à½Ĥà½łà½ķ":6905,"à½ģà½§":6906,"à½ĵà½Ļà½ĺ":6907,"à½£à½łà½Ľ":6908,"à½£à½¦à½ī":6909,"à¾¨à¾¼à¾»":6910,"à½¾à¼įà¼":6911,"à½ļà½¡":6912,"à¼łà¼łà¼¢à¼£":6913,"à½½à½¿à¼ĭ":6914,"à¼¡à¼£à¼¦à¼¡":6915,"à½²à¼Ķà¼ĭ":6916,"à½Ĥà½ĳà½ĸà½Ħ":6917,"à¾£à¼Ķ":6918,"à¾³à½´à¼ĭà¼Ħà¼ħà¼įà¼į":6919,"à¼¡à¼£à¼£à¼©":6920,"à½¼à¼µà¼įà¼į":6921,"Ħà¼Ħà¼įà¼į":6922,"à½Ĥà½¦à½ĳà½ĺ":6923,"à½ĳà½ĸà½ħà½¦":6924,"à¼¨à¼¥à¼ł":6925,"à¼įà¼įà¼įà¼įà¼įà¼įà¼įà¼į":6926,"à¼¨à¼łà¼£":6927,"à½ĳà½Ľ":6928,"à¾²à¾±à¼ĭ":6929,"à½Łà½Ĥà½Ķ":6930,"à¾¶à½¾à¼į":6931,"à½łà½ĳà½łà½ĸà½¢":6932,"à¾Ĳà¼įà¼įà¼į":6933,"à½ļà½ĳà½ĳ":6934,"à¼¡à¼¢à¼¨à¼¤":6935,"à¾ļà¾Ńà½±à¼ĭ":6936,"à¼¡à¼łà¼£à¼¦":6937,"à¼¡à¼§à¼¢à¼§":6938,"à¼¡à¼¢à¼¦à¼¨":6939,"à¾»à½±":6940,"Ġà½ĳà½Ķà½Ĥ":6941,"à½Ħà½Ļ":6942,"à½Ķà½¢à½ĸà½ŀà½Ĥ":6943,"à½Ĥà½ħà½ł":6944,"à½¦à½ĺà½¦à½ħà½ĵ":6945,"à½¦à½¥":6946,"à½ĳà½Ĥà½ĸà½ł":6947,"à¾Łà½´à½¾à¼į":6948,"à¼¥à¼łà¼łà¼ł":6949,"à¼¡à¼łà¼¢à¼£":6950,"à¼¡à¼łà¼§à¼¤":6951,"à½ĸà½£à½ĺ":6952,"à½ĸà½¦à½ĺà½Ĩ":6953,"à¼¡à¼¢à¼£à¼ł":6954,"à¼¡à¼©à¼¢à¼¨":6955,"à½ĳà½ĸà½Ł":6956,"à¼©à¼¡à¼¤":6957,"Ġà¼Īà¼įà¼į":6958,"à¼¡à¼¢à¼¨à¼©":6959,"à½¢à½Ķà½ĳ":6960,"à½łà½Ĳà½Ħ":6961,"à¼¡à¼£à¼¨à¼¥":6962,"à½²à¼ĭà¼ŀà¼į":6963,"à½¾à¼įà¼ĭ":6964,"à¼ľ":6965,"à½Ļà½ĺà½¦":6966,"à¼©à¼£à¼§":6967,"à¼¡à¼¤à¼łà¼¢":6968,"à½ĵà½łà½ķ":6969,"à¼łà¼¤à¼ł":6970,"à½¥à½ĺ":6971,"à¼¡à¼łà¼¢à¼©":6972,"à¼¡à¼łà¼£à¼¥":6973,"à½Ĥà½ĳà½Ģ":6974,"à½ģà½¨":6975,"à½¥à½ĸ":6976,"à¼¡à¼¢à¼¦à¼¥":6977,"à½¼à¼įà¼Ħà¼ħ":6978,"à½ĳà½ĳà½ĵ":6979,"à¼¡à¼¡à¼¦à¼¡":6980,"à¼¡à¼¡à¼©à¼¢":6981,"à¾Ĵà¾±à¼ĭà¼ĳ":6982,"à½¦à½łà½ķ":6983,"à½¢à½łà½ķ":6984,"à½¤à½Ķà½ł":6985,"à¾³à½¼à¼Ķ":6986,"à½Ĥà½ĵà½¦à½ŀ":6987,"à¾Łà½ºà¼įà¼Ħà¼ħà¼įà¼į":6988,"à½ĺà½ģà½ĵà½Ķ":6989,"à¼¡à¼łà¼¢à¼¡":6990,"à¼¡à¼©à¼łà¼ł":6991,"à½ĵà½Ķà½Ĩ":6992,"à¼¡à¼¡à¼¤à¼¤":6993,"à½ĸà½Ģà½łà½Ĥ":6994,"à¼Ķà¼ĭà¼ĭà¼ĭ":6995,"à¼¨à¼¥à¼¡":6996,"à½©à½ĵ":6997,"à¼¡à¼¡à¼¢à¼¢":6998,"à½£à½ĺà½Ľ":6999,"à½£à½Ĥà½¦à½Ħ":7000,"à½¨à½Ħà½¦":7001,"à¼¨à¼£à¼£":7002,"à¼¡à¼łà¼¦à¼¤":7003,"à¾Ľà½¾à¼ĭ":7004,"à¼¨à¼¨à¼¢":7005,"à½Ĥà½¦à½¦à½ĺ":7006,"à¼¡à¼£à¼¥à¼¤":7007,"à½ĺà½łà½Ľ":7008,"à¾Ĳà¾±à¼·à½ºà¼ĭ":7009,"à½Ĳà½ĸà½¦à½¦":7010,"à¾¦à¾·à½²à¼į":7011,"à½¡à½Ķà½ł":7012,"à½§à½¡":7013,"à¼¢à¼łà¼¢à¼ł":7014,"à¾ħà¾ħ":7015,"à¼©à¼łà¼£":7016,"à¼¡à¼¡à¼¢à¼¦":7017,"à½Ķà½Ĥà½¦à½£":7018,"à½¤à½łà½Ħ":7019,"à½ĵà½¦à½łà½ĸ":7020,"à½Ĥà½Ħà½¢":7021,"à½´à¼įà¼ĭà¼ĭà¼ĭà¼ĭà¼ĭà¼ĭà¼ĭà¼ĭà¼ĭà¼ĭà¼ĭà¼ĭà¼ĭà¼ĭà¼ĭà¼ĭà¼ĭà¼ĭà¼ĭà¼ĭà¼ĭà¼ĭà¼ĭà¼ĭà¼ĭà¼ĭà¼ĭà¼ĭà¼ĭà¼ĭà¼ĭà¼ĭà¼ĭà¼":7022,"à¼¨à¼£à¼¨":7023,"à¼¡à¼¡à¼¥à¼£":7024,"à¼¡à¼¡à¼©à¼¨":7025,"à¼¡à¼¤à¼¡à¼§":7026,"à½ĸà½ĺà½ĵ":7027,"à½£à½ĳà½Ķ":7028,"à½ĸà½Ļà½¢":7029,"à¾ļà¾²à¾Ģà¼ĭ":7030,"à½Ĥà½ĺà½ĵ":7031,"à¾Ķà½´à¼įà¼į":7032,"à½ĸà½Łà½łà½ĸ":7033,"à½¡à½¦à½ĺ":7034,"Ġà¼ĭà¼İ":7035,"à½ħà½ĳà½ĺà½īà½ĺ":7036,"à¾¨à¼ĭà¼´":7037,"à½ĸà½¤à½ĳà½ĺ":7038,"à½£à½ĺà½ĳà½Ħ":7039,"à½ĺà½ĵà½Ħà½¦":7040,"à¼¨à¼¦à¼¤":7041,"à¼¡à¼£à¼§à¼¦":7042,"à½Ħà½Ĥà½¡":7043,"à¼¡à¼¤à¼¡à¼¨":7044,"à¼¨à¼©à¼¡":7045,"à¾¦à¾²à½¾à¼ĭ":7046,"à¼¡à¼¡à¼łà¼¢":7047,"à¾Ńà½¾":7048,"à½ĺà½¢à½¦":7049,"à¼¨à¼¤à¼©":7050,"à¼¨à¼¤à¼£":7051,"à¾²à½±à½²à½¾à¼į":7052,"à½ĺà½¦à½ħà½ĵà½¢":7053,"à¼įà¼ĭà¼ĭà¼ĭà¼ĭà¼ĭà¼ĭà¼ĭà¼ĭà¼ĭà¼ĭà¼ĭà¼ĭà¼ĭà¼ĭà¼ĭà¼ĭà¼ĭ":7054,"à½ĥà½İ":7055,"à¼©à¼§à¼¡":7056,"ĭà¾³":7057,"à½ĳà½Ħà½ĸà½¢":7058,"à¼ĭà¾³":7059,"à¼¨à¼£à¼¥":7060,"Ġà¼¨à¼¢":7061,"à½Ħà½¢à½ĸ":7062,"à½Ĳà½ŀ":7063,"à½ĳà½Ĥà½Ļ":7064,"à¾Ļà½¾à¼į":7065,"à¼©à¼¤à¼¥":7066,"à¼¡à¼łà¼£à¼ł":7067,"à¼¡à¼£à¼©à¼¢":7068,"à¼¡à¼¡à¼¢à¼¤":7069,"à½īà½ĸà½¢":7070,"à¼©à¼£à¼©":7071,"à¼¡à¼¡à¼¤à¼¡":7072,"à½Ĭà½Ļ":7073,"à¼¡à¼¢à¼¢à¼©":7074,"à¼¡à¼¢à¼§à¼ł":7075,"à¼©à¼¨à¼¥":7076,"à¾²à½½à½¾à¼ĭ":7077,"à½Ķà½ĺà½ĺà½Ĩ":7078,"à¼¨à¼¥à¼§":7079,"à¼¨à¼¥à¼¦":7080,"à¼¡à¼¢à¼¡à¼¤":7081,"à¼¡à¼¢à¼¤à¼§":7082,"à¼¡à¼¢à¼©à¼©":7083,"à¼Ħà¼ħà¼ħà¼į":7084,"à½Ĳà½ĺà½ĺ":7085,"à½łà½ĸà½¢à½ĸà½ł":7086,"à¼¡à¼§à¼¢à¼¨":7087,"à¼¡à¼£à¼¢à¼¦":7088,"à¾¡à¾·à½ºà¼ĭà¼´":7089,"à½ĳà½ĳà½Ķà½£":7090,"à¾±à½ºà¼ĭà¼Ħà¼ħà¼įà¼į":7091,"à¼¡à¼©à¼¢à¼¥":7092,"à¼¡à¼¤à¼£à¼©":7093,"à½ĳà½ĵà½Ĥ":7094,"à½ĸà½¢à½¡":7095,"à¼¡à¼łà¼§à¼¦":7096,"à¾¤à¾²à½ºà¼į":7097,"à¼¡à¼¢à¼¤à¼£":7098,"à¼¡à¼¦à¼łà¼ł":7099,"à¼©à¼¨à¼¢":7100,"à¾²à¾±":7101,"à½łà½Ĳà½ĳà½ĳ":7102,"à½ĵà½Ĩà½Ĥà½¦":7103,"à½Ķà½¢à½Ķ":7104,"à¼¨à¼¦à¼¨":7105,"à½ĸà½ĸà½ĸà½¦":7106,"à¼¡à¼§à¼łà¼ł":7107,"à¼¡à¼¢à¼¢à¼¨":7108,"à½Ĳà½ĸà½¦à½£":7109,"à¾Łà½²à½¾à¼į":7110,"à¼¡à¼£à¼¦à¼£":7111,"à¼įà¼ĭà¼ĭà¼ĭà¼ĭà¼ĭà¼ĭà¼ĭà¼ĭà¼ĭà¼ĭ":7112,"à¼¡à¼¡à¼¤à¼©":7113,"à½ĸà½ĸà½Ł":7114,"à¼¡à¼¢à¼¦à¼¡":7115,"à¼¡à¼¡à¼¦à¼¢":7116,"à¼¡à¼¤à¼łà¼¨":7117,"à½¼à½¼à¼įà¼į":7118,"à½ĵà½£à½Ĥ":7119,"à½Ķà½¢à½¢à½ĸ":7120,"à¾Ĺà½ºà¼·à¼ĭ":7121,"à½Ļà½Ĳ":7122,"à¼¡à¼¥à¼¡à¼¥":7123,"à½¦à½Ĥà½ĵ":7124,"à¼¡à¼łà¼¦à¼ł":7125,"à¼¡à¼łà¼¥à¼©":7126,"Ġà¼ĭà¼ĭà¼ĭà¼ĭà¼ĭà¼ĭà¼ĭà¼ĭà¼ĭà¼ĭà¼ĭà¼ĭà¼ĭà¼ĭà¼ĭà¼ĭ":7127,"à¾Ľà½±à½²à¼ĭ":7128,"à¾±à½´à½¿à¼ĭ":7129,"à¼¡à¼£à¼£à¼£":7130,"Ġà½ĸà½¦à½Ħ":7131,"à½łà½ĺà½Ĩ":7132,"à¼¡à¼łà¼©à¼§":7133,"à¼¡à¼¢à¼©à¼¥":7134,"à¼¡à¼©à¼£à¼¡":7135,"à¼¡à¼¢à¼©à¼¤":7136,"Ġà¼¨à¼¤":7137,"à½Łà½Ĳà½«":7138,"Ġà½łà½ļà½£":7139,"à½ĸà½ħà½¦à½£":7140,"à½ĵà½ĺà½ī":7141,"à¼©à¼¡à¼©":7142,"à¼¡à¼łà¼łà¼§":7143,"à¾³à½¾à¼ĭ":7144,"à¼łà¼łà¼¦":7145,"à½ĺà½ĺà½¢":7146,"à½ĸà½¤à½ĳà½¦":7147,"à½ĵà½ĺà½ĺà½ģ":7148,"Ġà¼Īà¼":7149,"à¼¡à¼£à¼¢à¼£":7150,"à½¦à½Ĥà½ı":7151,"à½ĳà½łà½ķ":7152,"à¼¡à¼¡à¼¤à¼¥":7153,"à½Ŀà½ŀ":7154,"à¾łà½²à¾Ģà¼Ķ":7155,"à½łà½łà½ĩ":7156,"à½Ģà½ĺà½£":7157,"à¾·à¾Ńà¼į":7158,"à¼©à¼¦à¼¨":7159,"à¼¡à¼¢à¼¡à¼¥":7160,"à¼¡à¼¢à¼£à¼©":7161,"à¼¡à¼łà¼łà¼¥":7162,"à¼¡à¼¡à¼łà¼¡":7163,"à¼¡à¼¡à¼¦à¼§":7164,"à¼ĭà¼ĭà¼¼":7165,"à½ºà¼ĭà¼Ħ":7166,"à½ĳà½Ĥà½ĸà½¦":7167,"à½ĸà½Ĥà½Ļ":7168,"à¼¡à¼¢à¼©à¼§":7169,"à¾Łà½±à½¾":7170,"à¼¡à¼¡à¼¥à¼©":7171,"Ġà¼Īà¼ĭ":7172,"à½²à¼ĭà¼ĭà¼į":7173,"à½Ĥà½¦à½Ł":7174,"à¾Łà½´à¼Ķ":7175,"à½¿à¼ĭà¼Ħà¼ħà¼įà¼į":7176,"à½ıà½ĵà½Ĥ":7177,"à¾ľà½¾à¼ĭ":7178,"à¼¡à¼¢à¼§à¼©":7179,"à¼¡à¼£à¼¢à¼¤":7180,"à½Ĥà½¦à½Ģà½ł":7181,"à½ıà½ĺà½¦":7182,"à½¢à½Ħà½¢à½Ħ":7183,"à½¢à½ĸà½Ĩ":7184,"Ġà½łà½ĸà½¢":7185,"à¾Ĳà¾Ĳà¼ĭ":7186,"à¼¡à¼łà¼¤à¼£":7187,"à½¦à½Ģà½ł":7188,"à½ĺà½ĺà½ļà½ĵ":7189,"à¼¨à¼¦à¼£":7190,"à¼įà¼ĭà¼ĭà¼ĭà¼ĭà¼ĭà¼ĭà¼ĭà¼ĭà¼ĭà¼ĭà¼ĭà¼ĭà¼ĭà¼ĭ":7191,"Ġà½Łà½Ħà½¦":7192,"à¾©à½´à¼į":7193,"à½ĸà½¦à½ĺà½£":7194,"à¼¨à¼¤à¼¤":7195,"à¼¡à¼łà¼§à¼¥":7196,"à¼¡à¼¡à¼łà¼¨":7197,"à½Ĥà½Ĩà½ĳ":7198,"à½ĺà½łà½ĩ":7199,"à½ħà½ĳà½Ĩ":7200,"à½ĸà½¤à½Ĳ":7201,"à¼¡à¼łà¼¡à¼©":7202,"à¼¡à¼¢à¼¥à¼ł":7203,"à¼¡à¼¡à¼łà¼¦":7204,"à½¼à¼įà¼įà¼Ħà¼ħà¼ħà¼įà¼į":7205,"à½ĩà½ĸ":7206,"à¼©à¼£à¼¥":7207,"à¼Įà¼Įà¼Įà¼Įà¼Įà¼Įà¼Įà¼Įà¼Įà¼Įà¼Įà¼Į":7208,"à¼¡à¼¢à¼§à¼¢":7209,"à¾¦à¾²à¾Ģà¼ĭ":7210,"à¼¡à¼©à¼¢à¼¡":7211,"à¼Ģà½¨à½Ĥ":7212,"à½ĸà½ĺà½Ĥ":7213,"à½£à½£à½ĵ":7214,"à½Ĩà½Į":7215,"à½ļà½ĳà½Ĥ":7216,"à½Ķà½¢à½ĳà½Ģà½ł":7217,"à¾Ĳà¼·":7218,"à¾¦à¾²à½¼à¼ĭ":7219,"à¾łà¼įà¼į":7220,"Ġà½Łà½ĳ":7221,"à½Ķà½ĸà½Ł":7222,"à¼¨à¼£à¼©":7223,"à½¢à½Ĥà½ĳ":7224,"à½¡à½ĳà½Ĥ":7225,"à½ħà½ı":7226,"à¾¡à½±à¼į":7227,"à¼©à¼¢à¼§":7228,"à¼©à¼§à¼©":7229,"à¼¡à¼¡à¼§à¼¡":7230,"à½ĸà½ĸà½¤à½ĳ":7231,"à½Ħà½ĺà½ĳ":7232,"à½Ĥà½ŀà½ŀ":7233,"à¼©à¼£à¼£":7234,"à¼¡à¼łà¼¤à¼©":7235,"à¼¡à¼łà¼£à¼¡":7236,"à½ĵà½ĺà½£":7237,"à¾¦à¾·à¾±à½¿à¼į":7238,"à¼¡à¼łà¼¦à¼§":7239,"à¼¡à¼£à¼łà¼¨":7240,"à½£à½Ļà½ĵ":7241,"à½łà½ĳà½Ģ":7242,"à½ĳà½ĺà½ĺ":7243,"à½ĺà½¦à½¦à½ĺ":7244,"à½Ķà½¦à½Ķà½¦":7245,"à¼©à¼¦à¼£":7246,"à¼ĳà¼ĳ":7247,"à¼¡à¼§à¼¢à¼ł":7248,"à¼¡à¼¢à¼¢à¼¤":7249,"Ġà¼©à¼¨":7250,"à½ĸà½¦à½ķ":7251,"à¼©à¼¥à¼¦":7252,"à½ĺà½Ĥà½Ł":7253,"à½Ķà½¢à½ĸà½ŀ":7254,"à½¼à¼įà¼įà¼ĭà¼ĭ":7255,"à½Ĩà½Ĥà½¦à½¢":7256,"à¼¡à¼¢à¼¡à¼©":7257,"à¼¡à¼¢à¼¥à¼¢":7258,"à¼¡à¼£à¼©à¼¡":7259,"à¾ŀà¾ŀà¼į":7260,"à¼¢à¼¥à¼łà¼ł":7261,"à¼¨à¼¨à¼¦":7262,"Ġà½£à½Ĥà½¦":7263,"à½¡à½¦à½¢":7264,"à¾±à½²à¼ĭà½¼":7265,"à½ıà½Ĩ":7266,"à½ĺà½īà½¦":7267,"à¼¡à¼¢à¼§à¼£":7268,"à¼¡à¼¡à¼§à¼§":7269,"à½¡à½ĸà½¢":7270,"à½¡à½Ŀ":7271,"Ġà½ĸà½ıà½Ħ":7272,"à½ĳà½§à½ł":7273,"à½ĵà½ĸà½Ł":7274,"à½ŀà½Ģ":7275,"à½Ħà½¦à½¡":7276,"à¼©à¼¥à¼ł":7277,"à¼©à¼¤à¼§":7278,"à¼¡à¼£à¼¤à¼¢":7279,"à½¦à½ĵà½ĵ":7280,"à¼¡à¼łà¼¨à¼ł":7281,"à¼¡à¼¤à¼¡à¼£":7282,"à½Ĵà½Ŀ":7283,"à½Ĺà½§":7284,"à¼©à¼łà¼¨":7285,"à½±à¼ĭà¼Ĳ":7286,"à¼¡à¼¡à¼łà¼¤":7287,"à½Ģà½ģ":7288,"à¾²à½²à½¿à¼į":7289,"à¼©à¼¥à¼¢":7290,"à¼¡à¼£à¼§à¼¥":7291,"à¾Ĵà¾²à¼·à¼ĭ":7292,"à½ĸà½ĳà½Ĥà½ĳà½Ħ":7293,"à¾¦à¾±à½¼à¼įà¼į":7294,"à¼©à¼§à¼§":7295,"à¼¡à¼¢à¼£à¼£":7296,"à¼¡à¼¢à¼¦à¼¤":7297,"à¼¡à¼£à¼¦à¼ł":7298,"à¾²à½±à¾ĥà¼į":7299,"à¾¾à¼įà¼į":7300,"à¼¡à¼¡à¼§à¼ł":7301,"ĭà½±à½´à¾ĥà¼ĭ":7302,"à½Ĥà½Ķà½ĳ":7303,"à½ĺà½Ķà½£":7304,"à½Ķà½ĸà½¦à½ĺ":7305,"à¾Łà½½à¼į":7306,"à¼ĭà½±à½´à¾ĥà¼ĭ":7307,"à½¢à½Ħà½ĸ":7308,"à¼¡à¼¡à¼£à¼ł":7309,"Ġà½łà½Ĩà½ĳ":7310,"à¾±à¼ĭà½²à¼ĭ":7311,"à¾©à¼·à¼ĭ":7312,"à¼¡à¼¢à¼§à¼¡":7313,"Ġà¼©à¼¢":7314,"à¼¡à¼¡à¼¢à¼¥":7315,"à¼¡à¼¡à¼¥à¼ł":7316,"à½ĳà½ĸà½¦à½ĺ":7317,"à½£à½łà½ķ":7318,"à½£à½¦à½¢à½Ħ":7319,"à¾¨à¾²à¼Ķ":7320,"à½±à½´à½¿à¼ĭ":7321,"à¼©à¼¦à¼¢":7322,"à¼¡à¼¢à¼¤à¼¦":7323,"à¼¡à¼©à¼¡à¼§":7324,"à¼¡à¼£à¼¦à¼¨":7325,"à¼©à¼łà¼¢":7326,"à½¤à½ĳà½Ħ":7327,"à½¡à½Ħà½ł":7328,"à½ĳà½Ķà½ī":7329,"à¾Ĳà½´à¼ĭà¼İ":7330,"à¾¤à¾±à½²à¼ĭà¼Ħà¼ħà¼įà¼į":7331,"à¼¨à¼§à¼§":7332,"à¼¨à¼¦à¼¢":7333,"à¾µà¼ĭà¼Ħà¼ħà¼įà¼į":7334,"à¼¡à¼¤à¼¤à¼¥":7335,"à¼Ģà½ĳà½Ģà½¢":7336,"à¼¡à¼¡à¼¤à¼¦":7337,"à½łà½Ļà½£à½ĳ":7338,"à½£à½¦à½Ķ":7339,"à¼©à¼¢à¼¤":7340,"à¼¡à¼§à¼¥à¼§":7341,"à¾ļà½²à¼įà¼į":7342,"à¼¡à¼¡à¼£à¼¢":7343,"à¼¡à¼¡à¼¨à¼ł":7344,"à¾Ħà¼·":7345,"à½¢à½ĳà½ĸà½Ħ":7346,"à½Ķà½¢à½ķ":7347,"à½Ľà½¡à½ĵ":7348,"à½Ĵà½ĳà½Ħ":7349,"à¼¡à¼¡à¼¤à¼ł":7350,"à¼¡à¼¢à¼©à¼¦":7351,"à¼¡à¼¢à¼¨à¼¦":7352,"à¼¡à¼£à¼¤à¼¥":7353,"à¼¡à¼©à¼łà¼¦":7354,"à½Ļà½Ĭ":7355,"à¼©à¼¥à¼¡":7356,"à¼¡à¼¢à¼§à¼¥":7357,"à¼¡à¼©à¼¡à¼¥":7358,"à½¼à½¼à¼į":7359,"à½¢à½Ķà½Ĥ":7360,"à½Ĩà½ŀ":7361,"à½ĸà½Ģà½ĸà½¦":7362,"à¼©à¼¢à¼¥":7363,"à½¾à¼įà¼Ħà¼ħà¼įà¼į":7364,"à¼¡à¼¡à¼¥à¼¨":7365,"à¼ĭà¾§à¾±à½±à½¾à¼į":7366,"à½±à½¿à¼ĭà¼½":7367,"à½¡à½Ħà½Ĥà½ŀà½ĵ":7368,"à¾Łà½´à½¿à¼ĭ":7369,"à¼¡à¼¡à¼§à¼¢":7370,"à½ĳà½ĵà½ł":7371,"à½ĺà½¢à½ĳ":7372,"à¼¡à¼¢à¼©à¼£":7373,"à¾±à½½à¼ĭ":7374,"à¾¤à¼įà¼į":7375,"à¼¨à¼¤à¼ł":7376,"à¼¡à¼łà¼£à¼©":7377,"à¼¡à¼łà¼§à¼¢":7378,"à¼¡à¼¢à¼łà¼£":7379,"Ġà½¦à½ĺ":7380,"à½²à½¿à¼Ķ":7381,"à½Ĥà½ĸà½Ģ":7382,"à½ºà½¾à¼Ķ":7383,"à½łà½Ħà½ĺ":7384,"à¼¡à¼§à¼©à¼¢":7385,"à¼¡à¼¢à¼¡à¼¨":7386,"à½Ĩà½ĳà½Ķ":7387,"à½Ķà½¢à½ĸà½£":7388,"à¾Ľà½¾à¼į":7389,"à½ĺà½Ľà½¦":7390,"à½Ħà½ĵà½ĳ":7391,"à½Ĳà½£à½ĸ":7392,"à¼¡à¼¢à¼¢à¼¦":7393,"à¼¡à¼£à¼£à¼¤":7394,"à¼¡à¼¡à¼©à¼§":7395,"à½Ħà½¦à½ħà½ĵ":7396,"à½ĸà½ŀà½ŀ":7397,"à½ĺà½Ľà½ĳà½¦":7398,"à½łà½ļà½£à½ĳ":7399,"à¾ľà½¾à¼į":7400,"à½Ĳà½Ĥà½ı":7401,"à¾Ĺà½´à¼ĭ":7402,"à¾Ĺà¼·à½ºà¼ĭ":7403,"à¾©à½¼à¼įà¼į":7404,"à¼¡à¼£à¼¨à¼©":7405,"à¼¨à¼¨à¼¥":7406,"à¼¡à¼¡à¼£à¼¡":7407,"à¼¡à¼©à¼łà¼§":7408,"à½ģà½Łà½¦":7409,"à½Ļà½§":7410,"à¼¡à¼łà¼¦à¼©":7411,"à¼¡à¼¢à¼¦à¼©":7412,"à½Ĩà½Ĥà½ī":7413,"à¼¡à¼¤à¼¢à¼¨":7414,"à¼©à¼¨à¼¨":7415,"à¾·à¼ĭà¼½":7416,"à½Ħà½ĵà½Ħ":7417,"à½Łà½ķà½¡":7418,"à¼łà¼łà¼¢à¼¦":7419,"à¾»à¼įà¼į":7420,"à½łà½ĸà½ħ":7421,"à½ĺà½ļà½ĵà½ĳà½Ħ":7422,"à½İà½¡":7423,"à½Ŀà½Ĭ":7424,"à¼¡à¼¢à¼¨à¼¥":7425,"à¼¡à¼¢à¼łà¼¢":7426,"à¾Łà¾Ĺà½¼":7427,"à¼¡à¼£à¼§à¼£":7428,"à¾·à¼ĭà¼¼":7429,"à¾¡à¾±à½²à¼ĭ":7430,"à½ĸà½Łà½Ħà½ĺ":7431,"à½Ĩà½Ĥà½¦à½£":7432,"à½Ħà½¦à½łà½ĳ":7433,"à¼¡à¼łà¼©à¼¢":7434,"à¼¡à¼¢à¼¦à¼£":7435,"à½ĸà½ĵà½ĸà½¦":7436,"à¼¡à¼£à¼¢à¼ł":7437,"à¼¨à¼¨à¼¤":7438,"à¾±à¼ĭà¼ĳà¼į":7439,"à¼¡à¼¤à¼łà¼¤":7440,"à½ĺà½¦à½ĺà½Ĳ":7441,"à½ħà½ĵà½ģ":7442,"à½İà½§":7443,"à¼¡à¼£à¼¢à¼§":7444,"à¼¡à¼¤à¼§à¼¤":7445,"à½Ļà½İà½ł":7446,"à¾Ķà¾·à½²à¼ĭ":7447,"à½ĸà½ıà½ĺ":7448,"à½łà½ķà½Ĥà½¦à½ĺ":7449,"à¼ĭà¾¢à½´à¼ĭ":7450,"à¼¨à¼©à¼¦":7451,"à½Ħà½Ķà½Ĥ":7452,"à½Ķà½ĸà½Ģ":7453,"à½ķà½ŀà½Ħ":7454,"à¼©à¼¥à¼£":7455,"à¼¡à¼¤à¼¥à¼¡":7456,"à½´à¼ĭà¼ĭ":7457,"à½¨à½Ķà½¢":7458,"à¾·à¼ĭà½²":7459,"à¾Łà½ºà¼ĭà¼½":7460,"à¼©à¼¦à¼§":7461,"à½ĳà½ħà½¦":7462,"à¼¡à¼¡à¼¨à¼§":7463,"à½ĳà½ĺà½Ĳà½ł":7464,"à½ĸà½¢à½ĸà½¢":7465,"à½Ĥà½Ļà½ĸ":7466,"à½ĵà½łà½¦":7467,"à¼¡à¼¢à¼¥à¼¦":7468,"à½łà½Ķà½ł":7469,"à½Ĥà½¦à½ħ":7470,"à¼©à¼¢à¼¦":7471,"à¼¡à¼¢à¼£à¼¢":7472,"à¼¡à¼£à¼¤à¼¡":7473,"à½Ģà½ĳà½Ħ":7474,"à½Łà½ĳà½Ģ":7475,"à¾·à½ºà¼įà¼į":7476,"à¼¡à¼¢à¼¦à¼¦":7477,"à¼¡à¼¤à¼¢à¼©":7478,"à½Ĥà½Ŀà½Ĥ":7479,"à½ĸà½ļà½ĳ":7480,"à½Ĩà½Ĳ":7481,"à½īà½ĵà½¦":7482,"à½Ļà½ĺà½£":7483,"à¼¡à¼łà¼§à¼ł":7484,"à½łà½Ľà½ĺà½ĸ":7485,"à¼¡à¼łà¼łà¼¨":7486,"à½Ķà½ĺà½Ĥ":7487,"à½Ķà½¢à½Ĥà½Ł":7488,"à½Ķà½ĳà½¦":7489,"à¼¡à¼£à¼¡à¼¥":7490,"à¼¡à¼¤à¼¤à¼¤":7491,"Ġà¼©à¼¥":7492,"à½ħà½ĳà½Ķ":7493,"à½Ĥà½ĳà½ĵà½¦":7494,"à½ĸà½Ĥà½ĵ":7495,"à¼¨à¼£à¼¤":7496,"à¾ľà¾·à¾±à¼ĭ":7497,"à¼¡à¼£à¼¥à¼ł":7498,"à¼¡à¼¤à¼¡à¼¡":7499,"à¾łà½¼à¼ĭ":7500,"à¼¨à¼©à¼¢":7501,"à¼¡à¼¡à¼łà¼¥":7502,"à¼¡à¼¡à¼¦à¼ł":7503,"à½ĳà½Ķà½łà½Ĳà½ĺà½¦":7504,"à½ĸà½ĺà½Ķ":7505,"à¼¡à¼łà¼¥à¼¦":7506,"à¼¡à¼¢à¼£à¼§":7507,"à¼¡à¼¢à¼£à¼¡":7508,"à¼¡à¼£à¼¢à¼¡":7509,"à¼¡à¼£à¼¦à¼©":7510,"à¼ĭà¼Ŀà¼Ŀà¼Ŀ":7511,"à½¦à½ĺà½ļà½ĺà½¦":7512,"à½ĸà½ĺà½Ľ":7513,"à½ºà½²à¼ĭ":7514,"à½ĺà½Ĥà½ŀà½ĵ":7515,"à½Ĩà½Ĥà½¦à½Ģ":7516,"à¼¡à¼¢à¼©à¼¨":7517,"à¼¡à¼£à¼¤à¼§":7518,"à¼¨à¼©à¼¥":7519,"Ġà½ĸà½ı":7520,"à½ĺà½ĳà½ĸà½Ħ":7521,"à¼¨à¼¨à¼§":7522,"à¼¡à¼¡à¼£à¼©":7523,"à½Ĥà½Ĥà½ĺ":7524,"à½ıà½ĵà½¦":7525,"à½Ĩà½Ĥà½ĸ":7526,"à¼łà¼łà¼łà¼łà¼łà¼łà¼łà¼łà¼ł":7527,"Ġà½ĺà½ĳà½ł":7528,"à½ĸà½Ĥà½¤":7529,"à½¢à½ĸà½ħà½¦":7530,"à¾Łà¾¤à½º":7531,"à½ĳà½Ħà½Ĥà½ī":7532,"à½Ĩà½Ĥà½¦à½ĵ":7533,"à¼¡à¼¢à¼¤à¼©":7534,"Ġà½Ħà½Ħ":7535,"à½ĵà½ĺà½ģà½¢":7536,"à½¤à½¥":7537,"à¾³à½¼à¼·à¼ĭ":7538,"à¾³à¼ĭà½±à¼ĭ":7539,"à½ĳà½Ĥà½łà½ĺà½Ĥ":7540,"à¼¨à¼¥à¼¢":7541,"à½ĳà½ĳà½Ģà½ł":7542,"à½Ħà½Ĥà½ı":7543,"à½Ĳà½ħà½ĳ":7544,"à½ĳà½Ĥà½ļ":7545,"à½¾à¼įà¼įà¼Ħà¼ħà¼įà¼į":7546,"à¼¡à¼¡à¼¦à¼¦":7547,"à½§à½§à½§à½§à½§à½§à½§à½§à½§à½§à½§à½§à½§à½§à½§à½§":7548,"Ġà½¢à½¦":7549,"à½Ķà½ĺà½ģ":7550,"à½ļà½ĳà½ĺà½ł":7551,"à¾²à½²à¼ĭà¼´":7552,"à¼¨à¼¥à¼¤":7553,"à¼¡à¼łà¼¨à¼¤":7554,"à¼¡à¼¢à¼¦à¼¢":7555,"à¼¨à¼¨à¼¡":7556,"à½Ĩà½Ĥà½ĳ":7557,"à½¤à½ª":7558,"à½Ħà½¦à½ģ":7559,"à¾Ķà¾·":7560,"à¾Ģà½¿à¼ĭ":7561,"à½ķà½Ĭà½Ģ":7562,"à½ĸà½¦à½ĳà½ĵà½ĺà½¦":7563,"à¼¡à¼¡à¼§à¼£":7564,"à½Ĺà½ıà½Ł":7565,"à¾¡à¾±à¼ĭ":7566,"à½¤à½¦à½Ĩ":7567,"à½ĸà½Į":7568,"à½Ħà½ĳà½ĺ":7569,"à½£à½ĺà½Ľà½ĳ":7570,"à½Ľà½ī":7571,"à½Ŀà½Ŀ":7572,"à½¦à½£à½ĵ":7573,"à½¢à½ĳà½Ģ":7574,"à½Ļà½¤":7575,"à¼©à¼¡à¼¦":7576,"à¼Įà¼į":7577,"à¾®à½²":7578,"à½ĵà½ĸà½Ĥ":7579,"à½ĵà½Ĥà½¢":7580,"à¼¨à¼§à¼©":7581,"à¼¡à¼¤à¼¥à¼ł":7582,"à¼¡à¼¤à¼¤à¼©":7583,"à½ĥà½¢":7584,"à½¦à½ĳà½ĳ":7585,"à½ĳà½ħà½Ĥ":7586,"à¼¡à¼¤à¼¤à¼ł":7587,"à¼¡à¼¡à¼¤à¼¨":7588,"à¼¡à¼¡à¼¦à¼¤":7589,"à¼¡à¼£à¼łà¼¡":7590,"Ġà½ĳà½ĸà½£":7591,"à¼¤à¼łà¼łà¼ł":7592,"à¼¡à¼£à¼£à¼§":7593,"à½Ĥà½Ĳà½ĺà½¦":7594,"à¼¡à¼¥à¼¢à¼§":7595,"à½ĺà½ĺà½§":7596,"Ġà½Ģà½ĵ":7597,"à½Ħà½ĸà½Ħ":7598,"à½ĵà½Ĥà½Ķ":7599,"à¼©à¼¢à¼¨":7600,"à¼¡à¼¢à¼£à¼¦":7601,"à¼¡à¼£à¼£à¼ł":7602,"à¼¡à¼¤à¼¤à¼¦":7603,"Ġà¼©à¼§":7604,"à½Ħà½¤à½ĳ":7605,"à½ħà½ĵà½Ģ":7606,"à½Ĥà½ŀà½ĵà½£à½¦":7607,"à½łà½Ĳà½ĵ":7608,"à¼©à¼£à¼ł":7609,"à¼¨à¼¤à¼§":7610,"à¼ĭà¼¼à¼":7611,"à¾ĭà½¡":7612,"à½ĵà½Ĥà½¦à½Ħ":7613,"à½ĸà½¦à½ĺà½Ħ":7614,"à½ºà¼įà¼ĭà¼į":7615,"à¼©à¼¦à¼©":7616,"à¼¡à¼£à¼¡à¼¡":7617,"à¼¡à¼¤à¼§à¼¥":7618,"à¼©à¼łà¼¥":7619,"à¼¡à¼¡à¼£à¼¦":7620,"à¼¡à¼łà¼¦à¼¨":7621,"à½ħà½ĵà½ĸ":7622,"à¼ĭà¼ĭà¼ĭà¼ĭà¼ĭà¼ĭà¼ĭà¼ĭà¼ĭà¼":7623,"Ġà¼¨à¼¥":7624,"à½±à¼ĭà¼İ":7625,"à¼¡à¼£à¼łà¼£":7626,"à½´à¾ĥà¼į":7627,"à½²à¼ĭà¼·":7628,"à½¡à½Ħà½Ĥà½¦":7629,"à½ĺà½Ľà½ĳà½ĸ":7630,"à½ĺà½ļà½ĵà½ĺà½¢":7631,"à¼¡à¼¢à¼¥à¼¨":7632,"à¼¡à¼¤à¼¢à¼¢":7633,"à½ĵà½ĳà½Ķà½£":7634,"à¾±à½±à½²à¼ĭ":7635,"à¾±à¾·à½²à¼ĭ":7636,"à½Łà½ĳà½Ķà½ł":7637,"à¼ĭà¼įà¼įà¼Ħà¼ħà¼įà¼į":7638,"à¼¡à¼£à¼¡à¼§":7639,"à¼¡à¼¤à¼£à¼¥":7640,"à½ĳà½Ķà½¢à½ĸ":7641,"à¾ŀà½´":7642,"à¼¡à¼¡à¼¥à¼¡":7643,"à¼¡à¼£à¼łà¼¦":7644,"Ġà¼Įà¼Įà¼Įà¼Į":7645,"ĭà½±":7646,"à¼ĭà½±":7647,"à¼¡à¼łà¼¤à¼¨":7648,"à¼¡à¼£à¼¢à¼¥":7649,"à½Ĥà½Ħà½Ĥà½¦":7650,"à¼¡à¼¡à¼©à¼ł":7651,"à¼¡à¼£à¼¥à¼¨":7652,"à¼ĭà¼ĭà¼ĭà¼ĭà¼ĭà¼ĭà¼Ħà¼ħà¼įà¼į":7653,"à½¦à½ĺà½ī":7654,"à¾±à½²à¼ĭà½Īà¾±à½²":7655,"à¼¡à¼łà¼¦à¼¦":7656,"à¼¡à¼£à¼¦à¼§":7657,"à¼¨à¼¨à¼£":7658,"à¾±à½»à½¿à¼ĭ":7659,"à½ĸà½¢à½ļ":7660,"à¾Ĳà½´à¼·à¼ĭ":7661,"à½¦à½ĺà½ĺ":7662,"à¼¡à¼¢à¼¥à¼©":7663,"à¼¡à¼£à¼£à¼¡":7664,"à¼Ģà½Ģà½¢":7665,"à¼ĭà¼¼à¼ĭ":7666,"à½ĵà½Ĳà½ĺà½¦à½ħà½ĳ":7667,"à½Ķà½ĺà½īà½ĺ":7668,"à¾Łà¾²à½¾à¼ĭ":7669,"à¾±à½²à¼ĭà½º":7670,"à½łà½ĩà½ĵ":7671,"à¼¡à¼£à¼§à¼¤":7672,"à½£à½ĳà½Ĥà½ł":7673,"à½ĸà½ħà½ĳà½ĳ":7674,"à¼¨à¼§à¼¢":7675,"à¼¡à¼łà¼£à¼¤":7676,"à¼¡à¼£à¼¡à¼¨":7677,"Ġà½ĸà½ĺ":7678,"à¾µà½±à¼į":7679,"à¼¡à¼£à¼¥à¼©":7680,"à¼Ģà½ĳà½Ħ":7681,"à¼¡à¼¡à¼§à¼¤":7682,"à½ĳà½Ļà½ĵ":7683,"à½Ĥà½Ĥà½ĳ":7684,"à½ĵà½ĸà½¤à½ĳ":7685,"à½Ĩà½ĵà½¦":7686,"à½ĳà½Ĥà½łà½ģ":7687,"à½¡à½Ħà½Ĩ":7688,"à½ĳà½Ķà½ĳà½Ħ":7689,"à¾¤à¾²à½²à¼į":7690,"à¼¡à¼łà¼©à¼¦":7691,"à¼¡à¼¢à¼¤à¼¢":7692,"à¼©à¼¨à¼¡":7693,"à½Ķà½ĺà½ĵ":7694,"à¼¨à¼¥à¼¨":7695,"à¼¨à¼©à¼©":7696,"à¼¡à¼¡à¼¦à¼¥":7697,"à½Ħà½Ķà½£":7698,"à½¡à½«":7699,"à¼¡à¼łà¼¥à¼ł":7700,"à¼¡à¼¢à¼§à¼¤":7701,"à¼¡à¼¢à¼¨à¼¢":7702,"à¼¡à¼¤à¼§à¼¦":7703,"à¾Ļà½´à½±à¼ĭ":7704,"à¼¡à¼¡à¼¥à¼¢":7705,"à½Ĥà½ļà½ĳ":7706,"à½ĸà½¦à½ĺà½ļ":7707,"à¾Ĳà¾±à¾±à½²":7708,"à½ĸà½ŀà½Ĥà½Ķ":7709,"à¼¡à¼¤à¼£à¼£":7710,"à¼¡à¼¦à¼©à¼§":7711,"à¾ŀà½±à¼į":7712,"à½Ĥà½Ĥà½ĵ":7713,"à¾±à¾Ļà½º":7714,"à¼ļ":7715,"à¾±à¼ĭà¼Ħà¼ħà¼į":7716,"à½¿à½¿à¼ĭ":7717,"à¼¨à¼¦à¼ł":7718,"à¾¤à¾±à½²à½²à¼ĭ":7719,"Ġà½¦à½ł":7720,"à½¦à½ĺà½īà½ĵ":7721,"à½´à¼ĭà½¼":7722,"à½ĸà½ħà½łà½ĸ":7723,"à½ħà½ĵà½Ĥà½Ħ":7724,"à½ıà½ĵà½£":7725,"à¼¨à¼§à¼¥":7726,"à¼¡à¼£à¼¡à¼ł":7727,"à½¼à¼įà¼Ħà¼ħà¼į":7728,"à½ĵà½ĺà½Ĳà½¢":7729,"à½ķà½Ķ":7730,"à¾¨à½´à¼į":7731,"à¼©à¼£à¼¦":7732,"à¼¡à¼©à¼¡à¼¦":7733,"à¼¡à¼¤à¼¢à¼ł":7734,"à¼¡à¼¤à¼§à¼¨":7735,"à¼¡à¼©à¼łà¼¥":7736,"à¼ĭà¼ĭà¼ĭà¼Į":7737,"ĭà¾Ĳ":7738,"à½ĳà½ĳà½Ķà½Ĥ":7739,"à½ĸà½ŀà½Ħ":7740,"à¼ĭà¾Ĳ":7741,"à¾·à¾²à¼ĭà½µ":7742,"à¼¡à¼¦à¼¤à¼¡":7743,"à¼¡à¼¡à¼§à¼¨":7744,"à½łà½ļà½ł":7745,"à¼¡à¼łà¼¨à¼¦":7746,"à¼¡à¼¢à¼£à¼¨":7747,"à¾łà½±à½´à¼ĭ":7748,"à½¼à¼ĭà¼įà¼ĭ":7749,"à½ĳà½Ķà½ŀ":7750,"à¼©à¼¢à¼ł":7751,"à¼¡à¼łà¼£à¼§":7752,"à¼¡à¼¤à¼£à¼¤":7753,"à¾²à½»":7754,"à¼łà¼¨à¼ł":7755,"à¼©à¼£à¼¨":7756,"à¼¡à¼łà¼©à¼ł":7757,"à¼¡à¼£à¼£à¼¢":7758,"à¼¡à¼¤à¼£à¼¨":7759,"à¼¡à¼¡à¼©à¼¤":7760,"à½£à½Ĥà½¤":7761,"à½£à½Ĥà½Ļ":7762,"à½¤à½ŀ":7763,"à¾µà½¾à¼į":7764,"à¼¡à¼łà¼©à¼©":7765,"à¼¡à¼¢à¼¤à¼¨":7766,"à¼¡à¼¡à¼§à¼¦":7767,"à½Ħà½ĺà½Ĥ":7768,"à¾±à¼ĭà¼Ī":7769,"à½ĸà½Ģà½ĺ":7770,"à¼¡à¼¤à¼¦à¼©":7771,"à¾»à½ºà¼ĭ":7772,"à½ħà½Ĩ":7773,"à½ĸà½¦à½ł":7774,"à¾±à½²à¼ĭà¼":7775,"à½Ħà½¦à½¨":7776,"à¾¦à¾·à½±à½´à¼ĭ":7777,"à½ĺà½īà½ł":7778,"Ġà¼įà¼¼":7779,"à¼©à¼§à¼ł":7780,"à¼©à¼¤à¼£":7781,"à¼¡à¼¢à¼¤à¼¥":7782,"à¼¡à¼¥à¼§à¼¥":7783,"à½ĸà½£à½Ĥ":7784,"à½ŀà½ŀ":7785,"à¾Ĵà¾Ĵà¼ĭ":7786,"à¼ĭà¼Ħà¼":7787,"à½ĸà½Ģà½łà½¦à½£":7788,"à¼¨à¼§à¼¡":7789,"à¼¡à¼łà¼§à¼¨":7790,"à¾¤à¾±à½º":7791,"à¼¡à¼£à¼¨à¼¢":7792,"à¼ĭà¼įà¼Ĳ":7793,"à¼¡à¼¡à¼£à¼¤":7794,"à½Ĥà½Ĳà½ķ":7795,"à¾Łà¾Ńà¼į":7796,"à½Ķà½¢à½Ĳ":7797,"à¾µà½±à½¾à¼ĭ":7798,"à¾ļà½º":7799,"à½±à¼ĭà¼Ħà¼ħ":7800,"à¼¡à¼£à¼łà¼¢":7801,"à½Ĥà½ŀà½ĸà½¦":7802,"à½´à¼ĭà¼ĳà¼į":7803,"à½ħà½Ħà½¦":7804,"à½Ķà½¦à½ĸà½¢":7805,"à½¢à½ĸà½Ľ":7806,"à½£à½Ĥà½Ĥ":7807,"à¼¡à¼łà¼£à¼£":7808,"à¼¡à¼¢à¼¨à¼¡":7809,"à¼¡à¼¤à¼¤à¼¡":7810,"à¼¡à¼¢à¼łà¼¡":7811,"à¾Łà¾²à½±à½²à¼į":7812,"à¾£à¼·à¼ĭ":7813,"à¼¨à¼©à¼§":7814,"à¼¨à¼©à¼¨":7815,"à¼¨à¼©à¼£":7816,"à½Ĥà½¦à½ĳà½ĸ":7817,"à¾·à½±à¼Ķ":7818,"à¼¡à¼§à¼¢à¼¡":7819,"à¼¡à¼¢à¼©à¼¡":7820,"à¼¡à¼¡à¼©à¼¦":7821,"à½Ĥà½ĺà½Ľ":7822,"à½ĺà½ĳà½Ģ":7823,"à½Ķà½¢à½ĺà½Ħ":7824,"à¾¤à¾¡à½¼":7825,"à¾¨à½»à¼į":7826,"à½īà½ĵà½Ķ":7827,"à¼¡à¼¡à¼¦à¼£":7828,"à½Ĩà½Ĩà½Ĩà½Ĩ":7829,"à¼ĭà¼ĭà¼ĭà¼ĭà¼ĭà¼ĭà¼ĭà¼ĭà¼ĭà¼ĭà¼ĭà¼ĭà¼ĭà¼ĭà¼ĭà¼ĭà¼ĭà¼ĭà¼ĭà¼ĭà¼ĭà¼ĭà¼ĭà¼ĭà¼ĭà¼ĭà¼ĭà¼ĭà¼ĭà¼ĭà¼ĭà¼ĭà¼ĭà¼ĭà¼ĭà¼ĭà¼ĭà¼ĭà¼ĭà¼ĭà¼ĭà¼ĭà¼ĭà¼ĭà¼ĭà¼ĭà¼ĭà¼ĭà¼ĭà¼":7830,"à½¢à½ĺà½Ľà½ĳ":7831,"à½¢à½Ģà½ł":7832,"à½ħà½ĳà½ŀ":7833,"à½£à½Ĥà½ĺ":7834,"à½±à½²à¼ĭà¼ĳ":7835,"à¼©à¼¤à¼¡":7836,"à½¼à¼įà¼Īà¼į":7837,"à½ĸà½¦à½ī":7838,"à½£à½¦à½ĺà½Ħ":7839,"à¼¡à¼£à¼£à¼¨":7840,"à¼¡à¼£à¼¤à¼¤":7841,"à¼¡à¼£à¼©à¼¦":7842,"à¼¡à¼¡à¼©à¼©":7843,"à½¿à¼ĭà¼¼":7844,"à¼©à¼¥à¼¤":7845,"à¼¨à¼¤à¼¨":7846,"à½Ĥà½łà½ĵ":7847,"à¼¡à¼£à¼¤à¼£":7848,"à½ĺà½Ĥà½ĵà½¦":7849,"à½¤à½Ĩ":7850,"à½ĺà½Ĳà½¢à½Ĳ":7851,"à½Ŀà½£à½¦":7852,"à½Ĳà½ĺà½¦à½ħà½ĳà½¢":7853,"à½´à¼ĭà¼ĳà¼":7854,"Ġà¼ĭà¼Įà¼":7855,"à½´à¼ĭà¼ĳà¼ĭ":7856,"Ġà¼ĭà¼Įà¼ĭ":7857,"à½Ķà½ĺà½¦":7858,"à¾±à½½à¼į":7859,"à½ĸà½¦à½Ĳ":7860,"à½¡à½ĵà½Ĩà½ĳ":7861,"à¼¡à¼£à¼¢à¼¨":7862,"à¾·à¾²à½±à½´à½¾à¼į":7863,"à¼¡à¼¢à¼łà¼¥":7864,"à½łà½ĺà½Ĥ":7865,"à½£à½¦à½¨":7866,"à½Ķà½ĳà½¢":7867,"à¼¡à¼łà¼©à¼¨":7868,"à½´à½²":7869,"à½Ķà½¢à½ħà½ĵ":7870,"à½ħà½ĳà½ī":7871,"à¾«à½¼à¼įà¼į":7872,"à½¼à¼ĭà¼ĳà¼įà¼į":7873,"Ġà¼Ķà¼":7874,"à¼¡à¼¤à¼łà¼¦":7875,"à¼įà¼ĭà¼ĭà¼ĭà¼ĭà¼ĭà¼ĭà¼ĭà¼ĭà¼ĭà¼ĭà¼ĭà¼ĭà¼ĭà¼ĭà¼ĭà¼ĭà¼ĭà¼ĭà¼ĭà¼ĭ":7876,"à½Ĥà½Ĥà½¤":7877,"à½Ħà½£à½ĺ":7878,"à½ĳà½ĸà½Ģà½ł":7879,"à½ĺà½Ħà½łà½ĺ":7880,"à¾Ĵà½¼à¼ĭà¼½à¼¼":7881,"à¼¡à¼£à¼¨à¼¦":7882,"à¼¡à¼¡à¼£à¼§":7883,"à½ĺà½ĸà½Ł":7884,"à½½à¼Ķ":7885,"à½¦à½Ķà½ĳà½Ħ":7886,"à½łà½łà½ģ":7887,"à¾²à¾¡à½¼à¼ĭ":7888,"à¼¡à¼łà¼£à¼¢":7889,"à¼¡à¼łà¼¥à¼¡":7890,"à¼¡à¼§à¼£à¼§":7891,"à¼¡à¼£à¼¡à¼¦":7892,"à¾·à½±à¼įà¼į":7893,"à¼¡à¼¢à¼łà¼¨":7894,"à¼¡à¼¡à¼©à¼¥":7895,"à½¦à½ıà½ĵ":7896,"à¾²à½±à½¿à¼ĭ":7897,"à½¡à½Ķà½¦":7898,"à½Ĳà½¡":7899,"à¾¨à½¾à¼į":7900,"à½ĺà½Ľà½ĳà½¢":7901,"à¼łà¼łà¼¡":7902,"à¼¡à¼£à¼©à¼£":7903,"à¾ŀà½±à½²":7904,"à¼©à¼¨à¼ł":7905,"à¼¡à¼§à¼¦à¼¢":7906,"à¼¡à¼¢à¼¢à¼ł":7907,"à¼¡à¼¤à¼łà¼§":7908,"à½ķà½Łà½¥":7909,"à½£à½ĳà½Ģ":7910,"à½ĸà½ŀà½ĺ":7911,"à½Ħà½¦à½ļ":7912,"à¼¡à¼§à¼¢à¼£":7913,"à½£à½ĸà½Ĥ":7914,"à½ŀà½ĺà½¦":7915,"à½īà½ı":7916,"à½łà½ĳà½łà½ĸ":7917,"à¾Ĵà½¼à¼ĭà¼½":7918,"à½Ĥà½£à½ĵ":7919,"à¼¨à¼¥à¼£":7920,"à½¢à½łà½Ħ":7921,"à½Ĥà½ĵà½Ĥà½¦":7922,"à¼©à¼¦à¼¤":7923,"à¼¡à¼łà¼©à¼¤":7924,"à¼¡à¼¤à¼£à¼¦":7925,"à¾ŀà¾ŀà½´à¼ĭ":7926,"à½ĺà½Ļà½ĺ":7927,"à½ĳà½ĺà½īà½ĺ":7928,"à½¨à½ĺà½¦":7929,"à¾¦à¾±à½¼à¼Ķ":7930,"à½Įà½ĸ":7931,"à¼¡à¼§à¼¢à¼©":7932,"à½¦à½Ħà½ĵ":7933,"à½´à¼įà¼ĭà¼ĭ":7934,"Ġà¼¡à¼¡à¼¥":7935,"à¼©à¼¨à¼¤":7936,"à½¢à½ĵà½ĵ":7937,"à½Ķà½ĵà½ĵ":7938,"à½Ĥà½¦à½ĩ":7939,"à½ĺà½ģà½Ĥ":7940,"à½Ħà½ĵà½łà½ĳà½¦":7941,"à¼¡à¼¡à¼£à¼¨":7942,"à¾²à½²à¼·à¼ĭ":7943,"à¾Ĳà¾©à½¼":7944,"à½ĳà½Ģà½łà½Ĳ":7945,"à¼¡à¼£à¼§à¼©":7946,"à¼¡à¼£à¼¨à¼¨":7947,"à¼¡à¼¤à¼¢à¼¦":7948,"à½ĸà½ĸà½Ģà½ł":7949,"à½¢à½Ĳà½ĺà½¦":7950,"à½¤à½İ":7951,"à¼¡à¼£à¼¦à¼¥":7952,"à¾·à½²à½¾à¼ĭ":7953,"à¼ĭà¼Īà¼Ī":7954,"à¼¡à¼¡à¼¦à¼¨":7955,"à¼¡à¼¡à¼¥à¼¤":7956,"à¼ĭà¾§à½²à¼ĭ":7957,"à¾Ĵà¾±à¼ĭà¼¼":7958,"à½ĵà½¦à½¦à½Ħà½¦":7959,"à½łà½Ŀ":7960,"à½ĳà½Ģà½łà½ĸà½ł":7961,"à½Ĩà½Ĥà½Ĥ":7962,"à½Ĩà½Ĥà½Ķ":7963,"à¾ªà¼įà¼į":7964,"à½Ĺà½ī":7965,"à¼¡à¼¡à¼¨à¼¨":7966,"Ġà¼¡à¼¡à¼¡":7967,"à¼įà¼ĭà¼ĭà¼ĭà¼ĭà¼ĭà¼ĭà¼ĭà¼ĭà¼ĭà¼ĭà¼ĭà¼ĭà¼ĭà¼ĭà¼ĭà¼ĭà¼ĭà¼ĭà¼ĭà¼ĭà¼ĭà¼ĭà¼ĭà¼ĭà¼ĭà¼ĭà¼ĭà¼ĭà¼ĭà¼ĭà¼ĭà¼ĭà¼ĭà¼ĭà¼ĭà¼ĭà¼ĭà¼ĭà¼ĭà¼ĭà¼ĭà¼ĭà¼ĭà¼ĭà¼ĭà¼ĭà¼ĭà¼ĭà¼ĭà¼ĭà¼ĭà¼ĭà¼ĭà¼ĭ":7968,"à½²à¼ĭà¾¾à¼įà¼į":7969,"à½¢à½łà½Ľ":7970,"à½Ĳà½ĺà½¦à½ĳ":7971,"à¼©à¼¨à¼£":7972,"à½±à¼ĭà¼Ī":7973,"âĢ":7974,"Ġà½¨à½Ħ":7975,"à¾Łà¾±à½¼":7976,"à½ģà½Ħà½Ĥ":7977,"à½ĳà½Ķà½¡":7978,"à½£à½ĺà½ī":7979,"à¾µà½¾":7980,"à¼¡à¼¤à¼¢à¼§":7981,"Ġà¼Ķà¼ĭ":7982,"à½Ķà½łà½ĺà½¦":7983,"à½Ĩà½ĳà½ĳ":7984,"à¾·à½´à½¿à¼į":7985,"à¼¡à¼£à¼¥à¼¡":7986,"à¼ĭà¾Ħ":7987,"à½ĵà½ļà½ĳ":7988,"à½ĵà½ĸà½Ľ":7989,"à¾Ĳà½´à¼ĭà¼¼":7990,"à¾ľà½¼":7991,"à¼¡à¼£à¼¡à¼©":7992,"Ġà¼©à¼¤":7993,"à¾Łà½±à½´à¼ĭ":7994,"à½ĸà½¦à½ĺà½Ĳ":7995,"à¾³à¼ĭà¼¼":7996,"à½ĸà½Ħà½ĵ":7997,"à½¢à½ĺà½¢":7998,"à½Łà½ĳà½Ħ":7999,"à¼¡à¼£à¼§à¼¢":8000,"à¼¡à¼¤à¼¢à¼¡":8001,"à½Ħà½Ķà½ĸ":8002,"à¾²à¼·à½²à¼ĭ":8003,"à¾Ĺà¼·à½¼":8004,"à¼¨à¼©à¼ł":8005,"à¼¡à¼¢à¼¥à¼¤":8006,"à¼¡à¼£à¼£à¼¥":8007,"à¼¡à¼¥à¼¡à¼¦":8008,"à¾·à½±à½²à½¿à¼į":8009,"à¼¡à¼£à¼łà¼¥":8010,"à¼¡à¼¡à¼©à¼¡":8011,"à½Ħà½Ħà½Ĥ":8012,"à½ºà¼ĭà½´":8013,"à½¡à½Ħà½¡à½Ħ":8014,"à½ĺà½Ľà½ĳà½ħ":8015,"à½ĺà½ļà½ĺà½¦à½Ģ":8016,"à¼©à¼¤à¼¦":8017,"à¼¨à¼§à¼£":8018,"à¼¡à¼¦à¼¤à¼¥":8019,"à¾²à½±à¾Ģà½¾à¼ĭ":8020,"à¾Łà½¾à¼ĭà¼Ħà¼ħà¼įà¼į":8021,"à½Ĳà½£à½ģ":8022,"à¼¡à¼£à¼¥à¼¥":8023,"à¼£à¼¨à¼§à¼¡":8024,"à¾±à¼µà½²":8025,"à½Ĥà½Ĥà½¦à½Ħ":8026,"à½Ĥà½¦à½£à½ĸà½ł":8027,"à¼¡à¼§à¼¥à¼ł":8028,"à¼¡à¼£à¼¥à¼£":8029,"à½£à½¢à½Ĥ":8030,"à½Ĩà½ĳà½Ģ":8031,"à½Ĳà½Ĳà½ĺà½¦":8032,"à¾±à½´à½¿à¼į":8033,"à½łà½Ĥà½ŀ":8034,"à½±à½¾à¼ĭà¼ĳ":8035,"à¾Ĵà½¼à¼ĭà¼Ħà¼ħà¼įà¼į":8036,"à¼łà¼łà¼¢à¼§":8037,"à¼¡à¼£à¼©à¼ł":8038,"à¼¡à¼¡à¼¨à¼¡":8039,"à¾µà¾¼":8040,"à¼¡à¼łà¼łà¼łà¼ł":8041,"à¼¡à¼§à¼¥à¼¡":8042,"à¼¨à¼©à¼¤":8043,"à¼¡à¼£à¼§à¼¡":8044,"à½£à½¦à½ĩ":8045,"à¼¡à¼£à¼¤à¼ł":8046,"à½¼à½¾à½¿à¼ĭ":8047,"à½¢à½¦à½¢":8048,"à¾Ĳà¾±à½ºà¼ĭà½Ī":8049,"à¼¨à¼§à¼¨":8050,"à¼¡à¼łà¼©à¼¥":8051,"à¾Ķà¼ĭà¼¼":8052,"Ġà½ĳà½£":8053,"à½Ĥà½¦à½¦à½Ħà½¦":8054,"à½ĺà½¦à½Ĥà½¦":8055,"à¾±à½´à½¾à¼ĭ":8056,"à¾©à¾¡à½¼":8057,"à½¢à½ĸà½¤":8058,"à¼ĭà¼»à¼":8059,"à½ĵà½Ķà½¢à½ĸ":8060,"à¼¡à¼¡à¼¥à¼¦":8061,"à¼įà¼ĭà¼ĭà¼ĭà¼ĭà¼ĭà¼ĭà¼ĭà¼ĭà¼ĭà¼ĭà¼ĭà¼ĭà¼ĭà¼ĭà¼ĭà¼ĭà¼ĭà¼ĭà¼ĭà¼ĭà¼ĭà¼ĭà¼ĭ":8062,"à¼ĭà¼»à¼ĭ":8063,"à¾²à½±à½´à¾ĥà¼ĭ":8064,"à½Ļà½Ĥà½¦":8065,"à½Ļà½ī":8066,"à½ĵà½ĸà½ī":8067,"Ġà¼¡à¼¢à¼¢":8068,"à½²à¼ĭà½¾":8069,"à½¡à½Ħà½ī":8070,"à½łà½ĳà½ĸà½Ħ":8071,"à¼¡à¼¢à¼§à¼¨":8072,"à¼¡à¼£à¼£à¼¦":8073,"à½ıà½ļ":8074,"à¼¡à¼£à¼§à¼ł":8075,"à¼¤à¼¤à¼¤à¼¤":8076,"Ġà½ĸà½ıà½Ĥà½¦":8077,"à½ĺà½¦à½ĸà½¢":8078,"à½Ĥà½ŀà½ĵà½¡":8079,"à¾Łà½ºà¼ĭà¼¸":8080,"à¼¡à¼¤à¼¢à¼¥":8081,"à½ħà½ĳà½ĺà½Ħ":8082,"à¼¡à¼¡à¼¨à¼¥":8083,"à¾¦à¾¦à½¾à¼ĭ":8084,"à½ĳà½łà½ĺ":8085,"à½Ĥà½¦à½Ĳà½ĺà½¦":8086,"à¾Łà½ºà¼·à¼ĭ":8087,"à¼©à¼§à¼¤":8088,"à½£à½¥":8089,"à½Ĳà½Ķà½¦":8090,"à¾Ļà½¿à¼ĭ":8091,"à½ĸà½Łà½Ĥ":8092,"à½İà½Ĭ":8093,"à¾ĭà½ļ":8094,"à½Ĥà½ĸà½¦à½ĺ":8095,"à½ĺà½ĺà½Ĳà½ł":8096,"à½ĺà½łà½Ĥà½Ĥà½¦":8097,"à½¡à½Ħà½ĸà½¦":8098,"à½łà½ĳà½¦à½ĵà½¦":8099,"à½Ħà½ĵà½£":8100,"à¼©à¼£à¼¡":8101,"à½Ħà½Ĥà½¦à½£":8102,"à½ĸà½ĺà½£":8103,"à¼¡à¼£à¼¢à¼©":8104,"à½ĺà½¦à½ħà½ĵà½Ĳà½ĺà½¦à½ħà½ĳ":8105,"à½ºà¼įà¼¼":8106,"à¾µà¾¨à½±à¼ĭ":8107,"à¼¡à¼¡à¼¨à¼¤":8108,"à½ĸà½ĳà½ĸà½Ħ":8109,"à½Ķà½Ĥà½¦à½Ħ":8110,"à¼¡à¼¤à¼£à¼¢":8111,"à¾±à¼ĭà¼ĳà¼ĳ":8112,"ĭà½¿à¼ĭ":8113,"à½£à½ĸà½ĸ":8114,"à½¡à½Ķà½¢":8115,"à¼ĭà½¿à¼ĭ":8116,"à¾·à¾²à½±à½²à¼ĭ":8117,"à¼¡à¼£à¼łà¼§":8118,"à½¦à½Ĥà½¦à½£":8119,"à½Ĥà½ĵà½¦à½ĸà½¢":8120,"à½¨à½ĸà½Ľ":8121,"à¼©à¼¦à¼¦":8122,"Ġà¾¾":8123,"à½ģà½ĵà½ĺ":8124,"à¾ªà½¾à¼ĭ":8125,"à¼¡à¼¥à¼łà¼§":8126,"Ġà½ĵà½ĵ":8127,"à½´à½²à¼ĭ":8128,"à½£à½Ĳà½¢":8129,"à½Ĥà½ŀà½ĵà½Ķ":8130,"à¼¡à¼łà¼¨à¼¥":8131,"à¼¡à¼£à¼©à¼¥":8132,"à¾¡à¾·à¾ħ":8133,"à½ĸà½£à½ĵ":8134,"à¾¡à¾²à½ºà¼ĭ":8135,"à¼¡à¼łà¼¦à¼£":8136,"à¼¡à¼¢à¼łà¼©":8137,"à½¦à½ĺà½Ĳà½¢":8138,"à½Ĩà½ĸà½ł":8139,"à½Ĳà½ĺà½¦à½¢":8140,"à¼¡à¼¤à¼£à¼¡":8141,"à½Ĵà½łà½Ħ":8142,"à¼©à¼§à¼¦":8143,"Ġà¼¡à¼łà¼¡":8144,"Ġà½Ĥà½ŀà½£":8145,"à½¦à½Ĥà½Ļ":8146,"à½ĸà½ĵà½Ĥ":8147,"à½Ĩà½Ĥà½¦à½ĺ":8148,"à¼¨à¼§à¼¤":8149,"à½ĺà½īà½ĵà½ĵà½¦":8150,"à¾ļà¾²à½±à¼ĭ":8151,"à¾Ĵà½¿à¼į":8152,"à¼łà¼łà¼¢à¼¨":8153,"à¼¡à¼¨à¼łà¼ł":8154,"à¼¡à¼¨à¼©à¼ł":8155,"à½ĳà½Ħà½¡à½Ħ":8156,"à¼¡à¼¦à¼¦à¼¢":8157,"à¼µà½¼à¼ĭ":8158,"à½ĵà½łà½ĳà½¦à½Ģ":8159,"Ġà½ģà½¦":8160,"Ġà½ıà½ĵ":8161,"à½¦à½Ĥà½¡":8162,"à½ĵà½Ĥà½Ļ":8163,"à½ĸà½¦à½ĸà½¢":8164,"à½ĸà½ıà½ł":8165,"à½Ĥà½¢à½Ĥ":8166,"à¼¡à¼£à¼¤à¼¨":8167,"à¼¡à¼¤à¼¢à¼¤":8168,"ĭà¾¡":8169,"à½ĸà½ĺà½ģ":8170,"à¼ĭà¾¡":8171,"à½Ļà½ŀ":8172,"à½ħà½ĵà½ĳà½Ĥ":8173,"à¼¡à¼¤à¼¥à¼¢":8174,"à¾Ńà½±à¼įà¼į":8175,"à½Ħà½ĺà½ĩ":8176,"à½Łà½¦à½¦":8177,"à½Ĩà½ķ":8178,"à¼ĭà¼įà¼Ħà¼ħ":8179,"à½Łà½¨":8180,"Ġà½ļà½ĵ":8181,"à½Ĥà½ĳà½Ģà½¢":8182,"à½ĵà½Ķà½łà½ĺ":8183,"à½Ħà½ĺà½ļ":8184,"à½ĳà½Ħà½ĳà½Ĥ":8185,"à¾²à½´à½¿à¼ĭ":8186,"à½Ķà½¦à½ĳà½Ħ":8187,"à¾Ļà½¾":8188,"à½©à½Ģ":8189,"Ġà½ĸà½ħà½ĳ":8190,"à½¦à½ĺà½ģà½ł":8191,"à¾Łà½ºà¼·à¼į":8192,"à¾³à½½":8193,"à½¨à½ĵà½¦":8194,"à¼¡à¼¡à¼¥à¼§":8195,"à½ĸà½łà½¢":8196,"à½ĵà½ĳà½¢":8197,"à¼©à¼£à¼¤":8198,"à½¦à½ĺà½£":8199,"à½ĳà½łà½Ľ":8200,"à¾©à¾ªà¼ĭ":8201,"à½§à½ŀ":8202,"à½£à½ĺà½ĵà½¦":8203,"à¼¡à¼¥à¼¢à¼£":8204,"à¼¡à¼¡à¼¨à¼¦":8205,"à¾²à¼·à½¼":8206,"Ġà½Ħà½¦":8207,"à½łà½Ĥà½łà½Ħ":8208,"à½±à¾ĥ":8209,"à½ĸà½ĳà½Ĥà½ĳ":8210,"à¾²à½¼à¼ĭà¼¼":8211,"à¼¨à¼§à¼¦":8212,"ĭà½¾à¼į":8213,"à¼ĭà½¾à¼į":8214,"à½Ĥà½īà½ĺ":8215,"à½ĸà½ĳà½Ĩ":8216,"à½ĺà½Ľà½¢":8217,"à½ĺà½Ľà½ĳà½ĺ":8218,"à¼ĭà½¼à¼ĭà½º":8219,"à½¼à¼ĭà¾¾à¼įà¼į":8220,"à¾±à½²à¼ĭà¼ŀ":8221,"à¾ľà½¿à¼į":8222,"à¼¡à¼łà¼¨à¼¢":8223,"à¼¡à¼¡à¼¥à¼¥":8224,"à¾ºà½±":8225,"à¾µà½²à½¾":8226,"à½ĺà½Ĩà½Ħ":8227,"à¼¡à¼łà¼¨à¼¡":8228,"Ġà¼¨à¼¡":8229,"Ġà¼ĭà¼ĭà¼ĭà¼ĭà¼ĭà¼ĭà¼ĭà¼ĭà¼ĭà¼ĭà¼ĭà¼ĭà¼ĭà¼ĭà¼ĭà¼ĭà¼ĭà¼ĭà¼ĭà¼ĭà¼ĭà¼ĭà¼ĭà¼ĭà¼ĭà¼ĭà¼ĭà¼ĭà¼ĭà¼ĭà¼ĭà¼ĭà¼ĭà¼ĭà¼ĭà¼ĭà¼ĭà¼ĭà¼ĭà¼ĭà¼ĭà¼ĭà¼ĭà¼ĭà¼ĭà¼ĭà¼ĭà¼ĭà¼ĭà¼ĭà¼ĭà¼ĭà¼ĭà¼ĭ":8230,"à½Ĥà½¦à½ĺà½ĳ":8231,"à½ļà½łà½ĳ":8232,"à½ĳà½ĸà½ĺ":8233,"à½ĺà½Ľà½ĳà½ĵ":8234,"à½ĺà½ģà½łà½ĺ":8235,"à¼¡à¼£à¼¦à¼¢":8236,"Ġà½¢à½ı":8237,"à¼¡à¼£à¼łà¼¤":8238,"à½¦à½īà½ĺà½¦":8239,"à½±à½ºà¼į":8240,"à½ģà½ĺà½¦à½ŀ":8241,"à½Ŀà½Ľ":8242,"à½ĳà½ĵà½Ħ":8243,"à¾Ĵà¾²à¼ĭà¼Ħà¼ħà¼įà¼į":8244,"à½£à½Ĥà½¦à½¦à½ĺ":8245,"à¼¡à¼£à¼§à¼§":8246,"à¼¡à¼£à¼¨à¼¡":8247,"à½ĥà½ł":8248,"à¾¡à¼·à½¼à¼ĭ":8249,"à½£à½łà½ķà½Ĥà½¦":8250,"à½Ķà½¢à½łà½Ľ":8251,"à¾¦à¾±à½º":8252,"à½¥à½§":8253,"à¼©à¼¤à¼ł":8254,"à¼¨à¼§à¼ł":8255,"à¼¡à¼łà¼©à¼£":8256,"à¼¡à¼łà¼¨à¼£":8257,"à¼¡à¼£à¼©à¼§":8258,"à½Ķà½Ŀ":8259,"à½¼à¼ĭà½¼à¼ĭ":8260,"à¼¡à¼łà¼¥à¼¨":8261,"à¼¡à¼¤à¼¤à¼£":8262,"à½Ģà½ĳà½Ĥ":8263,"à½Ĩà½Ĥà½ħ":8264,"à¾Ńà½¾à¼įà¼į":8265,"à¼¡à¼£à¼¥à¼¢":8266,"à¼¡à¼¤à¼¤à¼¢":8267,"à½±à¼ĭà¼¸":8268,"à¼¡à¼¡à¼£à¼¥":8269,"à¼¡à¼¤à¼łà¼£":8270,"à½±à½¼à¾Ĥà¼ĭ":8271,"à½Ķà½ĵà½ĳ":8272,"à¾¡à½¼à¼·à¼ĭ":8273,"à½ĸà½ŀà½Ĥà½£":8274,"à½Ķà½¦à½¨":8275,"à½Ĥà½ıà½ĵà½¢":8276,"à¼©à¼¤à¼¢":8277,"à¼¡à¼£à¼¨à¼£":8278,"à½ļà½ļà½ļà½ļ":8279,"à½¦à½łà½ķà½Ĥà½¦":8280,"à½ĸà½ĺà½ļà½ĵ":8281,"à½Ĥà½¦à½Ĥà½Ħ":8282,"à½£à½¦à½ı":8283,"à½ıà½ĵà½ĳà½Ħ":8284,"à½±à½´à½¾à¼įà¼":8285,"à½±à½´à½¾à¼įà¼ĭ":8286,"à¾±à½²à¼ĭà¼ħ":8287,"à½Ķà½¢à½łà½ķ":8288,"à½Ĥà½ĵà½¦à½ĳ":8289,"à¼©à¼£à¼¢":8290,"à¼¡à¼łà¼¨à¼§":8291,"à½Ĥà½ĸà½Ĥ":8292,"à½Ķà½łà½ķà½Ĥà½¦":8293,"à½ŀà½ĸà½¦à½£":8294,"à¼¡à¼£à¼¤à¼¦":8295,"à½ĸà½¦à½¨":8296,"à½łà½ļà½Ĥà½¦":8297,"Ġà¼ĭà¼ĭà¼ĭà¼ĭà¼ĭà¼ĭà¼ĭà¼ĭà¼ĭà¼ĭà¼ĭà¼ĭà¼ĭà¼ĭà¼ĭà¼ĭà¼ĭ":8298,"à¾¶à½²":8299,"à½¦à½ļà½ĳ":8300,"à½ĸà½Ĩà½¦":8301,"à¾Ĵà½»à¼ĭ":8302,"à½ģà½ĳà½Ħ":8303,"à¾¡à½¾à¼ĭ":8304,"à½ĸà½łà½ĵ":8305,"Ġà½¦à½¦":8306,"à¼¡à¼¤à¼§à¼£":8307,"à½Ĵà½¨":8308,"à½¢à½Į":8309,"à½ºà¼ĭà¼ħ":8310,"à½Ķà½¦à½ĳà½Ĥ":8311,"à½ĸà½ħà½ĳà½Ķà½ł":8312,"à¼¡à¼¥à¼¦à¼§":8313,"à½ĸà½ĸà½ıà½ĸ":8314,"à¾²à¾¤à¾±à½²":8315,"à½łà½ģà½Ħà½¦":8316,"à½±à¼ĭà¼Ħà¼ħà¼į":8317,"à¾Ķà¼ĭà¼½":8318,"à½īà½ī":8319,"à¼łà¼łà¼£à¼ł":8320,"à½²à¾ĥà¼ĭ":8321,"à½ĳà½Ħà½¢à½Ħ":8322,"à½ĸà½¦à½ĸà½ħ":8323,"à½Ĭà½ĳ":8324,"à½ĭà½Ģà½ł":8325,"à½ĸà½ĸà½Łà½Ħ":8326,"à½¢à½Ķà½ĵ":8327,"à½Ĭà½Ħ":8328,"à½ĵà½Ĥà½ĵ":8329,"à½ħà½ĵà½Ĳà½ĺà½¦à½ħà½ĳ":8330,"à¼¡à¼¤à¼¥à¼£":8331,"Ġà¼¨à¼¨":8332,"à½ķà½ī":8333,"à½ĺà½¦à½Ļà½ĺ":8334,"à½ĵà½¦à½ı":8335,"à½Łà½ŀ":8336,"à½£à½Ĥà½ĳà½Ħ":8337,"à½£à½Ĥà½¥":8338,"à¼©à¼¤à¼¨":8339,"Ġà¼©à¼£":8340,"ĉĉĉ":8341,"à½´à½¾à¼įà¼į":8342,"à¾¡à½¼à¼µà¼ĭ":8343,"à½Ľà½£à½¦":8344,"à¾Ńà½¼à¼įà¼į":8345,"à½Ħà½ĵà½ĵ":8346,"à¼įà¼½à¼¼":8347,"à½¢à½ĵà½Ħ":8348,"à¾±à¾¡à½º":8349,"à¾Łà¼ĭà¼½":8350,"à¼¡à¼łà¼¨à¼¨":8351,"à½ĵà½¦à½¡à½Ħ":8352,"à½Ĥà½ĺà½ĺ":8353,"à¼¡à¼¦à¼¤à¼¨":8354,"à¼¡à¼¦à¼§à¼©":8355,"Ġà¼łà¼¢":8356,"à½ķà½Ĭà½ħ":8357,"à½ħà½Ĥà½Ĥ":8358,"à¼·à¼ĭà¼·à¼ĭ":8359,"à¼¼à¼½":8360,"à¼ĭà¼¹à½¼à¼įà¼į":8361,"Ġà½ĵà½ĺà½¦":8362,"Ġà½ĺà½Ĩà½ĵ":8363,"à½ĵà½£à½ĵ":8364,"à½ħà½ŀ":8365,"à½Ķà½¦à½łà½Ĥ":8366,"à½Ĥà½¦à½£à½¢":8367,"à½ķà½Ŀà½Ĥ":8368,"à½ĺà½ĺà½ł":8369,"à½ķà½Ĥà½ĺ":8370,"à¾©à¼·":8371,"à¾Ĳà½´à½´à¼ĭ":8372,"à¼¡à¼¤à¼¦à¼¢":8373,"à¼¡à¼¥à¼¢à¼¥":8374,"à¾ŀà½¾à¼Ķ":8375,"à½ĳà½Ĭ":8376,"à½Ĥà½¦à½łà½Ĥ":8377,"à½Ĩà½ĳà½ĸ":8378,"à½Ķà½¢à½Ĩ":8379,"à½ĩà½ĳ":8380,"à½¼à¼įà¼ĭà¼ĭà¼ĭ":8381,"Ġà¼łà¼©":8382,"à½ĳà½Ĥà½ĸà½¢":8383,"à½¡à½Ħà½Ĥà½Ħ":8384,"à½Ĳà½ĺà½¦à½ħà½ĳà½ĳà½Ħ":8385,"à½¦à½īà½ĵ":8386,"à½Ķà½ĸà½¤à½ĳ":8387,"à¾©à¼ĭà¼´":8388,"à¾¦à¾·à¾±":8389,"à¾«à½¼à¼į":8390,"à½£à½Ĥà½ģà½Ħ":8391,"à½Ħà½Ĥà½ĳà½Ħ":8392,"à¾ŀà½´à½¿à¼į":8393,"à¼¡à¼¥à¼łà¼©":8394,"à¾Łà¼·à½¼":8395,"Ġà½ĸà½¤à½Ĥà½¦":8396,"à½¢à½ĵà½ĳ":8397,"à½ĵà½ĸà½Ļ":8398,"à½ĺà½¦à½ĺà½īà½ĺ":8399,"à¾Ķà¾¡à½¼":8400,"à¾²à½²à¼įà¼ĭ":8401,"à½Ĥà½ŀà½ĵà½Ķà½ł":8402,"à¼¡à¼¤à¼¥à¼¤":8403,"à¼¡à¼¥à¼¤à¼¢":8404,"à¾Łà¼·à½ºà¼ĭ":8405,"à½ĸà½Ĥà½¦à½£":8406,"à½£à½Ķà½Ĥ":8407,"à¾³à½±à½²":8408,"Ġà¼¼à¼į":8409,"à¼¡à¼£à¼¦à¼¦":8410,"à¼ĭà¾¢à½¼à¼ĭ":8411,"à½Ĳà½ĺà½¦à½ħà½ĳà½ĸ":8412,"Ġà½ĸà½Łà½ł":8413,"à¾±à¼µà¼ĭ":8414,"à½ĺà½Ĳà½ĸà½¦":8415,"à½Ĵà½ķà½¦":8416,"à½§à½ĵà½ł":8417,"à¾¤à¾±à¼į":8418,"à¼¡à¼¤à¼§à¼¢":8419,"à½©à½Ķ":8420,"à¼¡à¼¤à¼łà¼¡":8421,"à½¦à½Ģà½¢":8422,"à½ĺà½ĳà½Ģà½¢":8423,"à½łà½ĺà½Ħ":8424,"à½¡à½ĳà½¦":8425,"à¾Ĵà½¿à¼ĭ":8426,"à½¨à½Ķà½ł":8427,"à½ģà½¦à½£":8428,"à¾ľà½²à¼įà¼į":8429,"à¼¡à¼£à¼¨à¼§":8430,"à¼¡à¼¤à¼§à¼ł":8431,"âĢĤ":8432,"à¾²à½¼à¼·":8433,"Ġà¼¡à¼¡à¼©":8434,"à¼ĭà¾¹":8435,"à¼¡à¼¡à¼¨à¼£":8436,"à½£à½ĸà½¤à½ĳ":8437,"à½ĺà½¦à½łà½ĩ":8438,"à¾³à½±à¼į":8439,"à½ĵà½Ħà½Ħ":8440,"à¼¡à¼¨à¼©à¼©":8441,"à¾ļà½´":8442,"à½ĳà½¦à½¦":8443,"à¾Ĳà¾²à½º":8444,"à½±à½´à¾ĥà¼ĭà¼Ħà¼ħà¼įà¼į":8445,"à¼¡à¼¥à¼¤à¼£":8446,"à¼¡à¼¦à¼¥à¼£":8447,"Ġà½¥":8448,"Ġà½Ĳà½Ĥ":8449,"à½Ĥà½Ķà½ĺ":8450,"à½¢à½ĺà½ļ":8451,"à½¤à½¢à½ĸ":8452,"à½Ļà½ĵà½ĳ":8453,"à½´à¼įà¼¼":8454,"à¼¡à¼¥à¼¡à¼¨":8455,"à¾¶à½±à½²":8456,"à¾·à½±à½²à¼įà¼Ķ":8457,"à½Ĩà½Ĥà½Ħ":8458,"à½īà½ŀ":8459,"à¾Ĺà¼į":8460,"à½Ĳà½£à½¢":8461,"à¼©à¼¤à¼¤":8462,"à½ģà½ĸà½ĵ":8463,"à¼¡à¼¤à¼¦à¼¦":8464,"à½ĸà½ĸà½£":8465,"à½ĺà½¤à½¢":8466,"à½Ĩà½¤à½¦":8467,"à½ĺà½Ĳà½łà½ĵ":8468,"à½ĺà½Ĳà½¢à½ĺ":8469,"à¾²à½ºà¼ĭà½Īà¾±à½²":8470,"à¾¥à½ºà¼į":8471,"à¼Ģà½¢à½ı":8472,"Ġà½īà½Ħ":8473,"à¾ħà¼į":8474,"à¼¡à¼¡à¼łà¼§":8475,"à½ĳà½Ļà½Ħ":8476,"à½ĳà½Ħà½ĳà½Ħ":8477,"à½ĺà½¦à½ĸà½ŀ":8478,"à½Łà½Ĥà½Ĥ":8479,"à¼¡à¼£à¼©à¼¨":8480,"à¾Łà½»à¼ĭ":8481,"à½¨à½īà½ł":8482,"à½ĸà½ħà½¦à½¢":8483,"à½ĺà½ģà½łà½ĳà½Ħ":8484,"à½ŀà½£à½Ĥà½ħ":8485,"à¼¡à¼£à¼§à¼¨":8486,"à¼¡à¼¦à¼¥à¼¢":8487,"à½Ķà½Ĥà½¡à½¦":8488,"à½Ĥà½¦à½Ķà½ĵ":8489,"à½ĸà½ŀà½Ĥà½ĵ":8490,"à¾²à½²à½¾":8491,"à¼¡à¼¤à¼¦à¼¥":8492,"Ġà¼¨à¼§":8493,"à¾¤à½±à½´à¼ĭ":8494,"à½ĳà½ĺà½ŀ":8495,"à½ĸà½ĳà½Ĥà½Ģ":8496,"à¼¡à¼¤à¼¥à¼¦":8497,"à½ĺà½¦à½ħà½ĵà½Ĳà½ĺà½¦":8498,"à¼ĭà¼ĭà¼Ħà¼ĭ":8499,"Ġà½Ĩà½Ħ":8500,"à½¬":8501,"à½´à¼ĭà¼į":8502,"à½Ĥà½ŀà½ĵà½ĳà½Ħ":8503,"à½łà½ĺà½ħ":8504,"à¼¡à¼¤à¼©à¼¨":8505,"à½Ķà½£à½Ķà½¦":8506,"à½¼à¼ĭà¼ĳà¼ĳà¼ĭà¼ĳà¼ĳ":8507,"à½ĸà½ĸà½ħà½¦":8508,"à½¢à½Ķà½ĺ":8509,"à½Ķà½ĸà½Ĥ":8510,"à¾Ĳà½²à¼į":8511,"à½ĺà½Ľà½ĳà½£":8512,"à¼£à¼£à¼łà¼¡":8513,"à¾µà½´à½¿à¼į":8514,"à½Ĵà½ķà½¢":8515,"à¼Ģà½ģà½İ":8516,"à½Ĥà½Ĥà½Ļ":8517,"à½£à½Ĥà½¦à½¢":8518,"à¼¡à¼¥à¼¡à¼§":8519,"à¼¡à¼¨à¼©à¼¥":8520,"à¾¦à¾·à¾°à¼ĭ":8521,"à½£à½Ļà½ĺ":8522,"à½ĸà½¢à½ģ":8523,"à½ĳà½ĸà½ı":8524,"à½ĸà½ĳà½Ĥà½ı":8525,"à½£à½ĺà½łà½ĳ":8526,"à¼ĳà¼į":8527,"à¼¡à¼£à¼©à¼©":8528,"ĠĠĠĠĠĠĠ":8529,"à¼ĭà¾§à½´à¼ĭ":8530,"à½ļà½¤":8531,"à½łà½Ĥà½Ł":8532,"à¾¦à¼ĭà¼Ħà¼ħà¼įà¼į":8533,"à½ķà½ĵà½Ķà½ł":8534,"à¼¡à¼łà¼¥à¼£":8535,"à½¢à½ĺà½Ľ":8536,"à½Ķà½īà½ĵ":8537,"à½ĵà½¦à½ĺà½Ĩ":8538,"à¼¡à¼§à¼łà¼¥":8539,"à½Ķà½Ĥà½Ļ":8540,"à½Ķà½ļà½ĵ":8541,"à½Ĩà½łà½ĳ":8542,"à½ĺà½¦à½Ĳà½ĺà½¦":8543,"à½ĳà½Ĥà½ĺà½Ĳ":8544,"à½Ľà½Ļ":8545,"à¼¡à¼¤à¼£à¼ł":8546,"à¼¡à¼¤à¼¨à¼©":8547,"à¼¡à¼¨à¼¡à¼¨":8548,"à½ĵà½łà½Ĩ":8549,"à½ŀà½ī":8550,"à½Łà½ĸà½ł":8551,"à½Ķà½¦à½łà½ģ":8552,"à½ĸà½ĳà½Ĥà½¤":8553,"à½ĸà½ıà½Ķ":8554,"à¾Ĳà¾±à½ºà¼·à¼ĭ":8555,"à½Ķà½łà½ĺà½ĺ":8556,"à¼¡à¼¦à¼¢à¼¡":8557,"à½ĳà½ĵà½¢":8558,"à½Ķà½¦à½ĺà½Ĩ":8559,"à¾·à½»à½¿à¼ĭ":8560,"à½¢à½Ħà½ĵ":8561,"à½ĺà½Ĩà½ĺà½¦":8562,"à¼¡à¼¤à¼¢à¼£":8563,"à¼¡à¼¥à¼¢à¼¤":8564,"à¼įà¼Įà¼Įà¼Įà¼Į":8565,"à½ĵà½¦à½łà½ĩ":8566,"à½Ķà½¦à½łà½ĩ":8567,"à½ĺà½ļà½ĵà½ĳ":8568,"à¼¡à¼¤à¼¦à¼¤":8569,"à¼¡à¼¤à¼©à¼¢":8570,"à½Ĥà½Ĥà½¦à½£":8571,"à¾«à¼Ķ":8572,"à½ĸà½¤à½ĳà½Ł":8573,"à½£à½ĵà½Ĥà½ī":8574,"à¾ľà¾·à¼ĭ":8575,"à¾ľà¾»":8576,"à¼¡à¼§à¼¨à¼¥":8577,"à¾ļà¼įà¼į":8578,"à½ĭà½ĳ":8579,"à½Ħà½ĸà½£":8580,"à¾±à¾Ńà¼į":8581,"à½łà½Ĳà½ĳà½Ķ":8582,"à¼¡à¼¤à¼¦à¼¡":8583,"Ġà¼¨à¼£":8584,"à½¢à½ħà½ĵ":8585,"à½Ķà½ĺà½Ĳà½¢":8586,"à½Ĥà½Ļà½¦":8587,"à¾²à½±à½²à¼ĭà¼½à¼¼":8588,"à¼¡à¼¤à¼¦à¼£":8589,"à¾¡à¾·à½¾à¼įà¼į":8590,"à¼¡à¼¥à¼¦à¼¥":8591,"à¼¡à¼©à¼łà¼¡":8592,"à¾±à½»à¼įà¼į":8593,"à½Ĥà½Ĥà½¡à½¦":8594,"à½Ķà½£à½ĵ":8595,"à½ħà½ħ":8596,"à½Ĥà½ĵà½¦à½ĳà½Ħ":8597,"à½ĸà½¤à½ĳà½¢":8598,"à¼Ķà¼ĭà¼ĭ":8599,"à½łà½Ĩà½ĳà½Ķ":8600,"à¼łà¼§à¼ł":8601,"à¼łà¼łà¼¢à¼©":8602,"à¾¶à½´":8603,"ĭà¾Łà¼ĭ":8604,"à½ĺà½Ķà½ĳ":8605,"à¾Łà¾Ĳà½¼":8606,"à½Ħà½¦à½ł":8607,"à¼ĭà¾Łà¼ĭ":8608,"à½§à½¤":8609,"à½łà½Ĩà½Ħà½¦":8610,"à½Ĥà½ĺà½Ĳà½ł":8611,"à½ĸà½ĵà½¢":8612,"à¾²à½±à½´à½¾à¼į":8613,"à¾Ĵà½²à¼į":8614,"à½ıà½Ŀ":8615,"à½ĵà½ĺà½¦à½Ĩ":8616,"à¼¡à¼¨à¼¨à¼¨":8617,"à¼¡à¼¦à¼§à¼¨":8618,"à½ĵà½Ķà½ı":8619,"à½£à½ĺà½Ĳà½¢":8620,"à½ĺà½¦à½ķ":8621,"à½ĺà½ļà½ĵà½¢":8622,"à¼¡à¼§à¼¡à¼¤":8623,"à¼łà¼łà¼£à¼£":8624,"à¼¡à¼¦à¼©à¼¦":8625,"à¾©à¾Ńà¼įà¼į":8626,"à½ĵà½¦à½łà½Ĥ":8627,"à½¨à½Į":8628,"à½¼à¼įà¼įà¼įà¼įà¼į":8629,"à¼¡à¼łà¼©à¼¡":8630,"à¼¡à¼¥à¼¥à¼¤":8631,"à¼¡à¼¥à¼§à¼¢":8632,"à½¼à¼ĭà¼İà¼İ":8633,"à¼¡à¼¥à¼łà¼¤":8634,"à¾©à½¿à¼į":8635,"à½ĺà½Ħà½Ħ":8636,"à½ĸà½Łà½ĺà½¦":8637,"à¼¡à¼§à¼©à¼¡":8638,"à¼¡à¼¦à¼£à¼¨":8639,"à¾»à½¿à¼į":8640,"à½ħà½ĵà½Ħ":8641,"à½ħà½ĳà½¢à½Ħ":8642,"à¼¡à¼¤à¼¤à¼¨":8643,"à¼¡à¼¥à¼§à¼ł":8644,"à¼Ŀà¼Ŀà¼Ŀà¼Ŀ":8645,"Ġà½ĺà½§":8646,"à½łà½łà½ķ":8647,"à½Ĥà½¦à½ĵà½ĳ":8648,"à¾Łà¾Ńà½±":8649,"à¾·à¾Ńà½²à¼ĭ":8650,"Ġà¼Ģ":8651,"à¼¡à¼¤à¼©à¼£":8652,"Ġà¼©à¼¦":8653,"à¾Łà¼·à½ºà¼į":8654,"à½Ħà½Ĳà½ĺà½¦":8655,"à½łà½ĵà½¦":8656,"à½¡à½ĺà½ļà½ĵ":8657,"à½Ķà½¢à½Ģ":8658,"à¾¡à¾²à½²à¼į":8659,"à½¨à½ĸà½£":8660,"à½¾à½¿à¼į":8661,"à½Ĩà½ĳà½¦":8662,"à½¦à½ĸà½Ģà½łà½¦":8663,"à½²à¼ĭà¼ħà¼į":8664,"à¾©à½½à¼į":8665,"à½ĺà½Ĳà½ĵ":8666,"à¼¡à¼¦à¼¢à¼§":8667,"à¾Ľà½¾":8668,"à¼ĭà¾Ŀ":8669,"à½ĺà½Ĳà½Ħà½¦":8670,"à¼¡à¼łà¼¥à¼¢":8671,"à¼¡à¼£à¼¨à¼ł":8672,"à¾ĳà½±à¼ĭ":8673,"à½¢à½ĵà½ł":8674,"à½´à¼ĭà¼ħ":8675,"à½īà½ĺà½Ĩ":8676,"à¾Ĵà¾±à¼įà¼įà¼įà¼į":8677,"à½Ĥà½ıà½ĵà½ĺ":8678,"à½Ĵà½ĵà½Łà½«":8679,"à¾´à½²à¼į":8680,"à¾Łà¾Ńà¾ĥà¼ĭ":8681,"à½Ĥà½ŀà½£à½ĺ":8682,"à½ĺà½Ĳà½ĸ":8683,"à½¢à½ĸà½Ģà½ł":8684,"à½¥à½£":8685,"à½±à½²à½¾à¼į":8686,"à¼¡à¼¥à¼¢à¼¦":8687,"à½Ĺà½İ":8688,"à¼ĭà½²à¼ĭà½²":8689,"à¾¨à¾¨à½±":8690,"à¾Łà½ºà¼ĭà¼Ī":8691,"à¾Łà½ºà¼ĭà¼ħà¼į":8692,"à½¡à½ĸà½ĵ":8693,"à½ĥà½ı":8694,"à½ºà¼ĭà¼ĭ":8695,"à½¦à½İà½ł":8696,"à½¤à½Ľ":8697,"à½Ħà½¦à½ĳà½Ĥ":8698,"à¾³à¾Ĺà½¼à¼ĭ":8699,"à½ĳà½ĸà½Ļ":8700,"à¾Ķà½¼à¼ĭà¼ĳ":8701,"à¼¡à¼¤à¼£à¼§":8702,"à¾Łà½ºà¼ĭà¼ĳà¼ĳ":8703,"à½Ĥà½ĸà½Ģà½ł":8704,"à¼¡à¼¥à¼¦à¼¦":8705,"à¼¡à¼¦à¼¤à¼¤":8706,"à½Ķà½Ļà½ĵ":8707,"à½Ĥà½¦à½Ķà½ĳ":8708,"à½ħà½Ģ":8709,"à½ĺà½ļà½ĸ":8710,"à¼¡à¼¨à¼©à¼¢":8711,"à½¼à¾ħà¼ĭà¼ĳ":8712,"à½ĵà½īà½ł":8713,"à½Łà½ĸà½ħ":8714,"à¾¤à¾²à½´à¼į":8715,"à½Łà½Ķà½Ĥà½¥":8716,"à½£à½īà½ĺà½¦":8717,"à½īà½¤":8718,"à½¢à½Ħà½Ħ":8719,"à½£à½Ĥà½ĸà½¢":8720,"à¼ĭà½²à¼ĭà½¼":8721,"à¾Ĳà¼Ķ":8722,"à¼Ķà¼¼":8723,"à¼¡à¼§à¼¨à¼ł":8724,"à¼¡à¼¤à¼¦à¼ł":8725,"à¼ĭà¾¢à½ºà¼į":8726,"à½Ħà½Ĥà½ĵ":8727,"à¾±à½ºà¼·à¼ĭ":8728,"à½Ĥà½¦à½£à½£":8729,"à¾Łà½²à½¾":8730,"à¼¡à¼¥à¼¤à¼¦":8731,"à½²à½²à¼į":8732,"à¼¡à¼¤à¼§à¼§":8733,"Ġà½ĸà½¦à½ĳ":8734,"à½Ĥà½Ĭ":8735,"à½ĳà½Ģà½£":8736,"à¼¡à¼¤à¼§à¼©":8737,"à½ĳà½Ķà½¢à½ĵ":8738,"ĭà¾£à¼ĭ":8739,"à½¼à½¾à¼ĭà¼ĳ":8740,"à½Ħà½ħà½ĵ":8741,"à¼ĭà¾£à¼ĭ":8742,"à½¢à½Ħà½ł":8743,"à½©à½ĸ":8744,"Ġà½ĸà½ıà½ĸ":8745,"à½Ĥà½īà½ĺà½¦":8746,"à½ĳà½ĺà½ĵà½Ķ":8747,"Ġà½¨à½¢":8748,"à¼¡à¼¦à¼¥à¼ł":8749,"à¾Łà½ºà¼ĭà¼ĳà¼ĳà¼ĭ":8750,"à½ĺà½ĺà½ī":8751,"à½ģà½ĸà½¢":8752,"à½łà½ĸà½ı":8753,"à½Ĥà½ĵà½¦à½ĸ":8754,"à½Łà½Ĥà½¢":8755,"à¼¡à¼¥à¼£à¼£":8756,"Ġà¼Ħà¼ħà¼Ħà¼ħà¼įà¼į":8757,"à½Ķà½ħà½¦":8758,"à½ĵà½¦à½ĸà½ĳà½Ĥ":8759,"à½Ĥà½Ħà½ĳà½Ħ":8760,"à½īà½ĺà½¦à½Ķ":8761,"à¼įà¼ĭà¼ĭà¼ĭà¼ĭà¼ĭà¼ĭà¼ĭà¼ĭà¼ĭà¼ĭà¼ĭà¼ĭà¼ĭ":8762,"à½ĵà½ĸà½Ģà½ł":8763,"à½ĺà½ĳà½Ķà½£":8764,"à½ŀà½ĸà½¢":8765,"à½£à½¦à½ĳà½Ĥ":8766,"à¾©à¾Ńà½¼à¼ĭ":8767,"à¾¦à¾¦à½²à¼ĭ":8768,"à½Ķà½ĳà½ł":8769,"à¼¡à¼§à¼¤à¼§":8770,"à¼¡à¼¦à¼£à¼©":8771,"Ġà¼¡à¼¢à¼ł":8772,"Ġà½łà½Ĩà½¢":8773,"à½ĺà½Ĥà½ĳ":8774,"à½ĸà½Ļà½ĸà½¦":8775,"Ġà¼įà¼Ĳ":8776,"à½½à½¾à¼į":8777,"à¼¡à¼¤à¼©à¼¤":8778,"à¾Ľà½±à½¿à¼į":8779,"à½ĵà½ģà½ĺà½¦":8780,"à½ĸà½¢à½ĺà½Ľ":8781,"à½łà½ĸà½Ģ":8782,"à½ĸà½¦à½£à½ĳ":8783,"à¼¡à¼§à¼©à¼£":8784,"à¾¦à¾²à½´à¼į":8785,"à¼¡à¼¦à¼¤à¼¦":8786,"à¼¡à¼¦à¼§à¼¥":8787,"à½ĳà½ŀà½¦":8788,"à½£à½¦à½ĺà½Ľ":8789,"à¾¦à½¿à¼į":8790,"à½±à½´à¼įà¼į":8791,"à¾Ĵà¾²à¼ĭà¼ĳ":8792,"à¼¡à¼¤à¼¦à¼¨":8793,"à¼¡à¼¥à¼¢à¼¢":8794,"à½ĵà½Ķà½ŀ":8795,"à¾Łà½ºà¼ĭà¼ĳà¼į":8796,"à½ĵà½ĳà½Ģà½¢":8797,"à½ĺà½ļà½¦":8798,"à¾«à¼ĭà¼´":8799,"à½łà½ĺà½£":8800,"à¼¡à¼¨à¼¥à¼¥":8801,"Ġà¼Įà¼Į":8802,"à½Ĥà½łà½ķà½Ĥà½¦":8803,"à½Ķà½Łà½Ħ":8804,"à¼¡à¼§à¼§à¼¢":8805,"à½Ħà½ĳà½Ķ":8806,"à½Ķà½łà½ĵ":8807,"à½Ĳà½ĸà½¦à½ĵ":8808,"à½Ŀà½ģ":8809,"à¼łà¼łà¼£à¼¡":8810,"à¼¡à¼¤à¼¥à¼¥":8811,"à¾Ľà¼įà¼į":8812,"Ġà½Ĩà½¢":8813,"à½Ĳà½ķ":8814,"à½Ķà½¢à½ī":8815,"à½Ľà½Ĭ":8816,"à¾·à½ºà½¾à¼ĭ":8817,"à½ŀà½ĵà½¦":8818,"à¾Ĺà½ºà¼ĭà¼¼":8819,"à½Ĥà½¤à½¦":8820,"à½¦à½ĺà½¡à½¦":8821,"à¼¡à¼¦à¼¢à¼¢":8822,"Ġà½ĺà½ī":8823,"à½ĺà½¦à½Ĳ":8824,"à½ĵà½¦à½ĳà½Ħ":8825,"à¼¡à¼§à¼¡à¼ł":8826,"à½ĳà½£à½ĸ":8827,"à¼łà¼łà¼©":8828,"à½ģà½ģà½ģ":8829,"à½£à½īà½ĵ":8830,"à½ĸà½ıà½Ĥà½¦à½Ķ":8831,"à½įà½Ģ":8832,"à½¢à½ĺà½ļà½ĵ":8833,"à½¡à½Ħà½ĳà½Ħ":8834,"à½¡à½Ħà½łà½Ĥ":8835,"à½¡à½ĵà½ĺ":8836,"à½Ĳà½ĸà½ĸ":8837,"à¾¨à½ºà¼įà¼į":8838,"à¾²à¼µà¼ĭ":8839,"à½ĵà½Ħà½ĵà½¦":8840,"à½Ŀà½Ļ":8841,"à¼¡à¼¨à¼£à¼ł":8842,"à¼¡à¼¦à¼¡à¼¢":8843,"à¼¡à¼¦à¼£à¼¦":8844,"à¼ĭà¼Īà¼Ħà¼ħà¼įà¼į":8845,"Ġà¼łà¼¡":8846,"à¼ĭà¾¢à½¿à¼į":8847,"à¼ĭà¼ĭà¼ĭà¼ĭà¼ĭà¼ĭà¼į":8848,"à¼Įà¼Įà¼Įà¼Įà¼Įà¼Įà¼Įà¼Įà¼Įà¼Įà¼Įà¼Įà¼Įà¼Įà¼Įà¼Įà¼Įà¼Įà¼Įà¼Įà¼Įà¼Įà¼Įà¼Įà¼Įà¼Įà¼Įà¼Įà¼Įà¼Įà¼Įà¼Įà¼Įà¼Įà¼Įà¼Įà¼Įà¼Įà¼Įà¼Įà¼Įà¼Įà¼Įà¼Įà¼Įà¼Įà¼Įà¼Įà¼Įà¼Įà¼Įà¼Įà¼Įà¼Įà¼Įà¼Įà¼Įà¼Įà¼Įà¼Įà¼Įà¼Įà¼Įà¼Į":8849,"à½ĳà½Ĥà½¦à½Ħ":8850,"à½¢à½£à½ĺ":8851,"à½ĺà½Ĥà½ĵ":8852,"à½Ķà½Ĥà½¤":8853,"à¾Ĳà½±à¼į":8854,"à¼¦à¼łà¼łà¼ł":8855,"à¾ŀà½¿à¼į":8856,"à¼¡à¼£à¼¨à¼¤":8857,"à¼¡à¼¨à¼©à¼§":8858,"à½¦à½Ħà½ł":8859,"à½²à½¼":8860,"à½Ĥà½ĺà½ģ":8861,"à¾Łà¾¨à¼ĭ":8862,"à½ĺà½ĳà½Ķà½¢":8863,"à½Ĥà½ĵà½£":8864,"à¼¡à¼¦à¼¨à¼£":8865,"à½Ĥà½Ķà½Ĩ":8866,"à½¶":8867,"à½¦à½ĺà½ĵà½ĵ":8868,"à½ĸà½ļà½ĵ":8869,"à½ĺà½£à½ĵ":8870,"à½ħà½ĳà½ĺà½Ĳ":8871,"à¾²à½²à¼ĭà¼¼":8872,"à¾Ĳà¾±à¾±à½ºà¼ĭ":8873,"à¼¡à¼¤à¼¦à¼§":8874,"à¼¡à¼¦à¼£à¼ł":8875,"à½¦à½Ķà½¢à½ĸ":8876,"à¾²à½²à¼·":8877,"à½Ķà½¢à½Ĩà½Ĥà½¦":8878,"à½ĸà½ĳà½Ĥà½ŀ":8879,"à½ķà½ĵà½łà½ĳ":8880,"à¼¡à¼§à¼¢à¼¤":8881,"à½Ĥà½¦à½Ĥà½ŀà½ĵ":8882,"à½ħà½ĳà½Ĥà½ħ":8883,"à½łà½ĳà½¦à½ŀ":8884,"à¼ĭà½Īà¾²à½²":8885,"à¼¡à¼¨à¼łà¼£":8886,"à½ĺà½ĸà½¤à½ĳ":8887,"à½ĺà½£à½Ĥà½¦à½¦":8888,"à½īà½Ĳ":8889,"à½Ķà½¦à½ĸà½ĳà½Ĥ":8890,"à½ħà½ĳà½¢à½ĸ":8891,"à½Ĭà½ĸ":8892,"à¼¡à¼¤à¼©à¼©":8893,"à½łà½«à½Ĳ":8894,"à½ĺà½ĺà½ĵ":8895,"à½¤à½¢à½ķ":8896,"à½Ĵà½ģ":8897,"Ġà¼Ħà¼ħà¼įà¼įà¼į":8898,"à¾±à¾Ģà¼įà¼į":8899,"à¾ĳà½´à¼ĭ":8900,"à¾µà¾¨à½±à½¾à¼ĭ":8901,"à½¦à½ĳà½Ķà½£":8902,"à½ıà½ŀ":8903,"à½¨à½Ĥà½¦":8904,"à¾²à½´à¼ĭà¼Ħà¼ħà¼įà¼į":8905,"à½Ŀà½Ħà½¦":8906,"à½¡à½Ħà½¦à½Ħà½¦":8907,"à¼¡à¼¨à¼¥à¼©":8908,"à¼¡à¼¨à¼©à¼£":8909,"à¼Ģà½Ĥà½¦":8910,"à½ŀà½Ħà½¦":8911,"à¾Ĳà½¿à¼į":8912,"à½ĳà½ĸà½Ħà½£":8913,"à½Ĭà½ĭ":8914,"Ġà½Ľà½ĺ":8915,"à½Ķà½ĺà½¢":8916,"à¾Łà¾©à½¼":8917,"à½ĳà½Ģà½Ħ":8918,"à½Ĥà½¡à½¦à½ĵ":8919,"à¼ĭà¼¹à¼įà¼į":8920,"à¼¡à¼¥à¼łà¼¥":8921,"à¾¼à¼":8922,"à¾¼à¼ĭ":8923,"Ġà½ĵà½Ĥà½¦":8924,"à½£à½łà½Ĩ":8925,"à½´à¼ĭà½¾":8926,"à½ĸà½¦à½Ķà½¢":8927,"à½ģà½łà½ĳ":8928,"à¾·à½±à½¾à¼į":8929,"à½¢à½¦à½Ĥà½Ł":8930,"à¾£à½±à½¾à¼ĭ":8931,"à½łà½ĩà½ĺà½ĳà½ĸ":8932,"à¼¡à¼¥à¼¦à¼¤":8933,"Ġà¼¡à¼¡à¼¢":8934,"à½²à¼ĭà¼Ħà¼ĭ":8935,"à½Ħà½Ĥà½¤":8936,"à½£à½ļà½ĸ":8937,"à½¤à½ģ":8938,"à½¤à½Ł":8939,"à¼¡à¼¤à¼¨à¼¡":8940,"à½¼à¼ĭà¼İà¼į":8941,"à½ºà¼ĭà½Īà¾·à½²":8942,"à½Ķà½Ĩà½Ĥà½¦":8943,"à½ĸà½łà½ļ":8944,"à¾¨à¾¨à½±à½¿à¼ĭ":8945,"à½ĺà½Ľà½ĺ":8946,"à½Ħà½ĵà½łà½Ĥ":8947,"à½ĸà½ıà½ĸà½ĵà½¦":8948,"à½ħà½Ħà½ĺ":8949,"à¼¡à¼§à¼§à¼ł":8950,"à¼¡à¼¨à¼¥à¼¦":8951,"à¼¡à¼¦à¼¨à¼ł":8952,"à½¦à½Ļà½ĺ":8953,"à½ĳà½¦à½ł":8954,"à½²à¼ĭà¼Ħà¼įà¼į":8955,"à½¼à¼ĭà¾İ":8956,"à½¤à½ĸà½¦":8957,"à½¡à½¦à½Ķ":8958,"à½ĸà½¦à½ĺà½¦à½Ķ":8959,"à¼¡à¼¦à¼¢à¼¦":8960,"à¾ĭà½§":8961,"à½¼à¼įà¼ĭà¼ĭà¼ĭà¼ĭà¼ĭà¼ĭà¼ĭà¼ĭà¼ĭà¼ĭà¼ĭà¼ĭà¼ĭà¼ĭà¼ĭà¼ĭà¼ĭà¼":8962,"à¾³à½´à½¾à¼ĭ":8963,"à½ķà½ĵà½¡":8964,"à½ĸà½Ľà½Ģ":8965,"Ġà¼ĭà½²à¼ĭ":8966,"à¼¡à¼§à¼¦à¼ł":8967,"à½¦à½ĳà½Ķà½ł":8968,"à½£à½ĳà½ĳ":8969,"à½ŀà½Ĳ":8970,"à¾·à¾Ģà¼ĭ":8971,"à½ĸà½ħà½¦à½Ģ":8972,"à¼ĭà¼ĭà¼ĭà¼ĭà¼įà¼į":8973,"à½ĺà½łà½ĳà½¦":8974,"à½Ķà½¦à½łà½ĸ":8975,"à½¨à½ĸà½¦":8976,"à¼¡à¼§à¼§à¼§":8977,"à¼łà¼łà¼£":8978,"à½ļà½ĵà½ĺ":8979,"à½łà½Ĥà½ı":8980,"à½ĺà½Ħà½ĸ":8981,"à½¼à¼ĭà¼ĳà¼ĭà¼ĳà¼ĭ":8982,"à¼¢à¼łà¼¢à¼¡":8983,"à¾µà½¾à¾¼à¾»":8984,"à½£à½¦à½ĸà½Ł":8985,"à½¢à½ĸà½Ļ":8986,"à½¦à½¢à½Ķ":8987,"à¾ªà½ºà¼į":8988,"à¾¡à¾·à½±à½²à¼ĭ":8989,"à¼¡à¼¦à¼¡à¼ł":8990,"à¼¡à¼¦à¼¥à¼¤":8991,"à½ĳà½¦à½ĵ":8992,"à½Ħà½Ķà½ī":8993,"à½Ĥà½ĵà½¦à½ĺà½£":8994,"à½ĳà½Ķà½£à½Ĩ":8995,"à½ķà½Ĭà½¨":8996,"à¼¡à¼©à¼łà¼¢":8997,"à½ĸà½ĵà½ł":8998,"à½¢à½ĳà½¦":8999,"à½Ĩà½ļà½ĳ":9000,"à½ĸà½¢à½łà½ĸ":9001,"à½Ĥà½ĵà½¦à½¤":9002,"à½ĸà½Ĥà½ĳà½ĸ":9003,"à¾¨à¼·":9004,"à¼łà¼łà¼¨":9005,"à¼ĭà¼´à¼´":9006,"Ġà½łà½ĸà½ł":9007,"à½£à½ĺà½Ħà½ł":9008,"à¾±à½²à¼ĭà¼ħà¼įà¼į":9009,"à¾±à½¼à½¿à¼į":9010,"à½łà½ļà½£à½ı":9011,"à½ĸà½Ľà½ĺ":9012,"à¼¡à¼§à¼¡à¼¡":9013,"à¼¡à¼¤à¼©à¼§":9014,"à¾µà¾¨à½±à½²":9015,"à½Łà½ĳà½¦":9016,"à½¼à¼Ķà¼Ī":9017,"à½¢à½Ĥà½¡":9018,"à¾¦à¾±à¾³à½¼":9019,"à¼¡à¼¤à¼©à¼¥":9020,"à¾Ĵà¾²à½ºà¼įà¼į":9021,"Ġà½ŀà½Ĥ":9022,"Ġà¼¼à¼Ī":9023,"à¼¡à¼¦à¼£à¼¥":9024,"à¼ĭà¾§à½±à¼ĭ":9025,"à½Ħà½ĺà½ĵ":9026,"à½Ĥà½¦à½łà½ģ":9027,"à½Ĥà½¦à½ĺà½ł":9028,"à½Ĥà½¦à½Ķà½ĺ":9029,"à½ĸà½¦à½Ł":9030,"à½ĺà½¦à½ĺà½Ĩ":9031,"à½ĵà½Ĥà½¦à½ļà½£":9032,"à¼¡à¼¦à¼©à¼¤":9033,"à¼¢à¼¢à¼¢à¼¢":9034,"à¾Ħà¼įà¼į":9035,"à½ĸà½¦à½ĳà½Ĥ":9036,"à½ĸà½¤à½ĳà½£":9037,"à¾Ĳà½´à¼ĭà¼´":9038,"à¼¡à¼§à¼§à¼¤":9039,"à¼¡à¼¨à¼§à¼¦":9040,"à½ĸà½ĸà½ı":9041,"à½ĺà½Ĥà½ŀ":9042,"à½Ķà½£à½Ĥ":9043,"à½ķà½ĵà½¦":9044,"à½Ħà½¦à½ĸà½ł":9045,"à½´à¼įà¼ĭà¼į":9046,"à¼¡à¼§à¼¨à¼¦":9047,"à¼¡à¼¤à¼¥à¼§":9048,"à¼¡à¼¥à¼¡à¼ł":9049,"à½Ħà½Ļà½ĺ":9050,"à½Ĥà½¦à½¢à½Ħ":9051,"à½ļà½£à½ĵ":9052,"à¾Ļà¾°":9053,"à½ĺà½Ĥà½ł":9054,"à¼¡à¼¥à¼¥à¼¦":9055,"à¼¡à¼¥à¼§à¼§":9056,"à¼¡à¼¥à¼§à¼£":9057,"à½įà½ł":9058,"à½£à½ĸà½Łà½Ħ":9059,"à¾²à¾¤à½º":9060,"à½ĸà½¢à½Ķ":9061,"à¾Ĳà¾Ĺà½¼":9062,"à¾Ĳà¾µà¾±":9063,"à½Ħà½¦à½ķ":9064,"à¾¤à½¿à¼ĭ":9065,"à¾ľà½¿à¼ĭ":9066,"Ġà½Ĥà½īà½ł":9067,"à¾¨à¾²à¾Ģ":9068,"à¼¡à¼¥à¼¦à¼¨":9069,"Ġà¼¡à¼¡à¼£":9070,"à¼Īà¼į":9071,"à½ĭà½Ĥ":9072,"à¾³à¼ĭà¼½":9073,"Ġà½Ĥà½ĳà½ĸ":9074,"à½£à½ļà½ĵ":9075,"à½ļà½ĸà½ħ":9076,"à½ĸà½Łà½ĳà½Ķ":9077,"à½ĵà½ĺà½ĸ":9078,"à¼¡à¼¤à¼¥à¼¨":9079,"à½Ĺà½łà½«":9080,"à½Ķà½Ħà½Ĥ":9081,"à½£à½īà½£":9082,"à¾Ĳà½¿à¼ĭ":9083,"à½¨à½Ģà½¢":9084,"à½ĺà½Ĳà½¢à½ķ":9085,"à¼¡à¼§à¼§à¼©":9086,"à¼¡à¼¤à¼©à¼ł":9087,"à¼¡à¼¥à¼¢à¼©":9088,"à¼¡à¼¦à¼£à¼¤":9089,"à¾Ľà½¼à¼ĭ":9090,"à¾²à½±à¾Ģà½¿à¼ĭ":9091,"Ġà½ĺà½£":9092,"à½ĸà½ļà½£":9093,"à½£à½ĳà½Ķà½£":9094,"à¾©à¼ĭà¼¼":9095,"à½ĳà½Ĥà½łà½ĸà½¦":9096,"Ġà¼¡à¼¡à¼¦":9097,"à¼ĭà¼ĭà¼ĭà¼ĭà¼Į":9098,"à¼ĭà¼Ŀà¼Ķ":9099,"à½Ķà½¦à½ĺà½Ħ":9100,"à¾³à½´à¼ĭà½²":9101,"à½Ĥà½Ļà½Ħà½ĺ":9102,"à½¼à¼ĭà¼ĳà½¿à¼į":9103,"à¼¡à¼¤à¼¥à¼©":9104,"à¼ĭà¼ŀà¼ŀ":9105,"à½Ĥà½ĸà½Ł":9106,"à½Ĥà½¦à½¢à½ĸ":9107,"à½Ķà½łà½ĺà½ĳ":9108,"à¾Ĵà¾·à½±à¼ĭ":9109,"à¾£à¾²à½²à¼ĭ":9110,"à¾Ĳà½´à½¿à¼ĭ":9111,"à½Ĳà½£à½ĸà½¢":9112,"à¼¡à¼£à¼©à¼¤":9113,"à¼¡à¼¤à¼¨à¼¦":9114,"à¼¡à¼¥à¼¨à¼©":9115,"à¼¡à¼¨à¼¥à¼£":9116,"à½ĳà½£à½Ĥ":9117,"à½Ĥà½¦à½ĺà½ļ":9118,"à½Ĥà½¦à½ĸà½ĳ":9119,"ĭà¼ĭà¼Į":9120,"à½Ħà½ĵà½ĺà½¦":9121,"à½ĵà½ĵà½¢":9122,"à¼¡à¼¥à¼©à¼¥":9123,"Ġà¼¡à¼¢à¼¡":9124,"Ġà¼¡à¼©à¼©":9125,"à½Ŀà½ķà½¥":9126,"à¼¡à¼§à¼£à¼¨":9127,"à½ĵà½Ķà½¡":9128,"à½ĸà½ĸà½ĸà½ĸà½ĸà½ĸà½ĸ":9129,"à¼įà¼ħà¼įà¼į":9130,"ĭà¼ĭà¼įà¼į":9131,"à¼¡à¼§à¼¢à¼¢":9132,"à¼¡à¼¦à¼¤à¼§":9133,"à¼Ģà½łà½ĳ":9134,"à¼ĭà¼Ħà¼ħà¼Ħà¼ħà¼įà¼į":9135,"Ġà¼¡à¼łà¼¤":9136,"à¼¡à¼§à¼łà¼¨":9137,"Ġà½ķà½Ĭ":9138,"à½Ķà½Ĥà½ĵ":9139,"à½ķà½¦à½¢":9140,"à¾£à½±à½²à¼į":9141,"à½ĳà½ĸà½Ĥà½¦":9142,"à½ĸà½¤à½ĳà½Ħ":9143,"à½Ħà½Ĥà½ĺ":9144,"à½ĳà½¢à½ĳ":9145,"à¼¡à¼¤à¼©à¼¦":9146,"à½¦à½Ķà½Ĥ":9147,"à½Ĵà½ħà½«à½Ĥ":9148,"à½ĳà½ĸà½Ħà½ĵ":9149,"à¼łà¼łà¼£à¼¤":9150,"à¼¡à¼¨à¼¢à¼ł":9151,"à½Ĳà½ĸà½¢":9152,"à½īà½£à½¦":9153,"à½¡à½Ħà½ķ":9154,"à¾Ĺà½ºà¼µà¼ĭ":9155,"à½ĺà½ģà½łà½ģ":9156,"à¼¡à¼¥à¼¥à¼¥":9157,"à½ĸà½ĺà½Ĳà½¢":9158,"à½Ĩà½ı":9159,"à½Ķà½¢à½ı":9160,"à¼¡à¼¥à¼¤à¼¡":9161,"à½ĳà½¦à½¢":9162,"à¾Łà¾Łà½²à¼į":9163,"à½Łà½ĸà½Ł":9164,"à½Ķà½¦à½ĩ":9165,"à½ħà½ĵà½ı":9166,"à¾ķà½´à¼ĭ":9167,"à½Ĥà½łà½ł":9168,"Ġà½¦à½ĳ":9169,"à½¢à½Ĥà½¦à½Ħ":9170,"à½£à½¦à½Ł":9171,"à¾Ńà¾ĥà¼ĭ":9172,"à½ĺà½Ĳà½łà½¦":9173,"ĭà¾¤":9174,"à½Ĳà½¢à½ĸ":9175,"à½¤à½Ļ":9176,"à¼ĭà¾¤":9177,"à¾¦à¾·à½±":9178,"à½Ľà½ģ":9179,"à½§à½İ":9180,"à½łà½ĳà½¦à½Ĥà½£":9181,"à½ĸà½¦à½ĺà½Ķà½ł":9182,"à½ĸà½łà½ĺà½ĺ":9183,"à¾·à½¼à¾ħà¼ĭ":9184,"à¼¡à¼¥à¼¥à¼¢":9185,"à¼¡à¼¦à¼¦à¼£":9186,"à½¾à¼ĭà¼Ĳ":9187,"à½ĵà½īà½ĺà½¦":9188,"à½ĳà½Ħà½ĸà½ĳ":9189,"à½Ĳà½ĳà½Ħ":9190,"à½Ħà½¦à½ī":9191,"à¾±à½ºà¼ĭà¼´":9192,"à½Ĥà½ıà½¦":9193,"à¾ªà½²à½¾à¼ĭ":9194,"à¾²à¼įà¼įà¼į":9195,"à½Ħà½Ķà½Ĩ":9196,"à½¦à½ģà½ĺà½¦":9197,"à½£à½£à½Ĥ":9198,"à½Ĳà½ħ":9199,"à½Ķà½¦à½ħ":9200,"à½Ĥà½Ħà½£à½¦":9201,"à¼¡à¼§à¼¥à¼©":9202,"à¼¡à¼¦à¼¤à¼ł":9203,"à¾»à½¾à¼į":9204,"à½ĺà½ĺà½ģà½¦":9205,"à½ĸà½¢à½łà½ĩ":9206,"à½²à¼įà¼İ":9207,"à½ĸà½¤à½ĳà½Ģ":9208,"à½ĺà½Ľà½£":9209,"à½İà½ģ":9210,"Ġà¼¡à¼¡à¼§":9211,"à½łà½«à½¥":9212,"à½¼à½¾à¼ĭà¼Ħà¼ħà¼įà¼į":9213,"à½Ķà½Į":9214,"à½łà½¦à½ĺ":9215,"à½ĸà½¦à½£à½¦":9216,"à½ĵà½¦à½ĸà½Ł":9217,"à½ĳà½Ķà½łà½ķ":9218,"à½łà½ĩà½ĺà½ĺà½Ĥ":9219,"à¼¡à¼¥à¼¥à¼§":9220,"à¾Łà½±à½¿à¼į":9221,"à½Ķà½Łà½ĸ":9222,"à½£à½£à½¢":9223,"à½ĳà½Ħà½łà½ĩ":9224,"à½ĳà½Ħà½ĺà½Ĩ":9225,"à¾²à½´à½¿à¼į":9226,"à½Ĳà½ĸà½¦à½¢":9227,"à½¼à¼ĭà½²à¼ĭ":9228,"à¾Łà¾ĥà¼ĭ":9229,"à½¤à½ī":9230,"à¾·à½¿à¼įà¼į":9231,"à½Ĥà½ıà½£":9232,"à½Ĥà½ĵà½ĺà½¦":9233,"à½ĺà½ĵà½Ĩà½ĳ":9234,"à½²à¼ĭà¼½à¼¼":9235,"à½ĳà½Łà½¦":9236,"à¾¡à½±à½´à¼ĭ":9237,"à¼ı":9238,"à½ĵà½ĵà½ıà½ĵ":9239,"à¼¡à¼¥à¼¡à¼¡":9240,"à¼¡à¼¦à¼łà¼¦":9241,"à½ĳà½łà½ļ":9242,"à½ĳà½Ħà½ĺà½ļà½ĵ":9243,"à½Ķà½łà½£":9244,"à¼ĭà¼ĭà¼ĭà¼ĭà¼ĭà¼ĭà¼ĭà¼ĭà¼ĭà¼ĭ":9245,"à¼ĭà¼Ħà¼Ħ":9246,"à¾Łà½ºà¼įà¼įà¼įà¼į":9247,"à¼¡à¼§à¼©à¼ł":9248,"à¾·à¾²à½¾à¼į":9249,"à½¢à½ĺà½ģ":9250,"à¼łà¼łà¼£à¼¢":9251,"à¼¡à¼¨à¼¦à¼ł":9252,"à¾ļà½¼":9253,"à¾ĭà¾ĭ":9254,"à½¢à½Ģà½¢":9255,"à½ĺà½ĺà½ģà½ĵ":9256,"à½Ĭà½¡":9257,"à¾¡à¼µ":9258,"à¼ĭà¼¹à½º":9259,"à¼ĭà½ºà¼ĭà½ºà¼ĭ":9260,"à¼ĭà¼ĭà¼ĭà¼ĭà¼ĭà¼įà¼į":9261,"Ġà½ĺà½ģà½¢":9262,"à½Ķà½¢à½ĸà½¦à½ĺà½¦":9263,"à¼¡à¼¥à¼£à¼¦":9264,"à½ĭà½ĺ":9265,"à¼¡à¼§à¼łà¼¦":9266,"à½Ĥà½Ķà½ĵ":9267,"à½ĳà½ĸà½Ħà½ĺ":9268,"à½ĸà½¤à½ĳà½ħ":9269,"à½ĸà½Ĥà½Ħà½¦":9270,"à¼½à¼Ī":9271,"à¼¡à¼¥à¼£à¼©":9272,"à½´à¼Ķà¼":9273,"à¾łà½±à½¿à¼į":9274,"à¼¡à¼¥à¼łà¼£":9275,"Ħà¼įà¼į":9276,"à¾±à½²à¼ĭà¼Ħ":9277,"à½ĺà½¦à½ĳà½Ĥ":9278,"à½¼à¼įà¼įà¼Ħà¼ħ":9279,"à¾Ńà½½à¼į":9280,"à½İà½¤":9281,"à½¿à¼ĭà½¼":9282,"à¼¡à¼¦à¼©à¼©":9283,"à¼ĭà¼ĭà¼ĭà¼ĭà¼ĭà¼ĭà¼ĭà¼Ħà¼ħà¼įà¼į":9284,"à½¦à½ĸà½£":9285,"à½£à½Ħà½Ĥ":9286,"à½Ĥà½Ļà½£":9287,"à¼¡à¼¥à¼©à¼¤":9288,"à¼¡à¼¦à¼¢à¼©":9289,"à¼¡à¼¦à¼©à¼¥":9290,"à½±à½´à¾Ĥà¼Ķ":9291,"Ġà½łà½Ĥà½ł":9292,"à¾Ĵà½´à¼įà¼į":9293,"à½łà½ĳà½¦à½ĸ":9294,"à½ĵà½ĺà½¦à½ĺà½Ħ":9295,"à½Įà½ı":9296,"à¼¡à¼¤à¼§à¼¡":9297,"à¼¡à¼¦à¼¦à¼¨":9298,"à¼ĭà½Īà¾Ļà½²":9299,"Ġà¼łà¼£":9300,"à¼ĭà¼ĭà¼Ħà¼ħ":9301,"à½¢à½Ĳà½¢":9302,"à½ħà½ĳà½¤":9303,"à½ĸà½Ģà½łà½ĸ":9304,"à½ĵà½ĵà½ł":9305,"à½Įà½Ķ":9306,"à¼¡à¼¥à¼£à¼¥":9307,"à½Ĵà½Ķ":9308,"à¼¡à¼¦à¼£à¼§":9309,"à½ĵà½Ķà½ĸ":9310,"à¾ĭà½Ĥà½¦":9311,"à½łà½łà½Ľ":9312,"à¾Łà¾²à½¾à¼į":9313,"à¾±à½²à¼ĭà¾İ":9314,"à¼¡à¼¥à¼¥à¼ł":9315,"à¼¡à¼¥à¼§à¼©":9316,"à¼¡à¼¨à¼§à¼¡":9317,"à½Ĵà½¢à½Ĥ":9318,"à¼¡à¼¦à¼¢à¼¥":9319,"à¼¡à¼§à¼łà¼§":9320,"à¼ĭà¼¼à¼į":9321,"à¼¡à¼¤à¼¨à¼¨":9322,"à¼¡à¼¥à¼§à¼¡":9323,"à¾µà½¾à¾¼à¾»à½´":9324,"à½ĸà½Ĳà½Ħ":9325,"à½ħà½ĸà½¦":9326,"à½Ħà½¦à½Ĥà½¦":9327,"à¾©à¼ĭà¼ĳ":9328,"à½ħà½ĵà½ī":9329,"à¼łà¼łà¼¢":9330,"à¼¡à¼¥à¼¤à¼¥":9331,"à¼ĭà¼ĭà¼ĭà¼¼":9332,"à½ħà½łà½ĳ":9333,"à¾Ļà½¼à¼įà¼įà¼įà¼į":9334,"à¼ĭà¼ĭà¼ĭà¼ĭà¼ĭà¼ĭà¼ĭà¼ĭà¼ĭà¼ĭà¼ĭ":9335,"à½ıà½ĵà½ĳ":9336,"à½ĳà½Ģà½łà½ŀ":9337,"à½Ĥà½ĺà½£":9338,"à¼¡à¼¥à¼¦à¼©":9339,"à½´à¼Ķà¼ĭ":9340,"à½¼à½²":9341,"à½łà½Ĩà½ĳà½ĳ":9342,"à½łà½Ħà½ł":9343,"à½£à½ĵà½ĺà½Ħ":9344,"à½łà½Ĳà½ĳà½Ķà½¢":9345,"à¼¡à¼¥à¼¨à¼¨":9346,"à¼¡à¼¦à¼§à¼¢":9347,"à¼£à¼£à¼£à¼£":9348,"à½©à½ł":9349,"ĭà½±à½²à¼ĭ":9350,"à½Ķà½łà½ĸà½ł":9351,"à½īà½Ĥà½¦":9352,"à½ĵà½¦à½ĺà½¦":9353,"à¼ĭà½±à½²à¼ĭ":9354,"à¾Ļà¾±à½º":9355,"à½¢à½Ħà½ĺ":9356,"à½ĩà½ī":9357,"à½ĺà½Ĳà½łà½¢":9358,"à½ĸà½ıà½ĸà½ĵ":9359,"à¼¡à¼¥à¼£à¼ł":9360,"à¼¡à¼¦à¼¥à¼©":9361,"à¼ĭà¼¸à¼":9362,"à½©à½£":9363,"à¼ĭà¼¸à¼ĭ":9364,"à½Ĥà½¦à½Ķà½ĳà½Ħ":9365,"à½Ķà½łà½Ĩà½¢":9366,"à½Ķà½¢à½ĳà½Ħ":9367,"à¾Ķà¼įà¼ĭ":9368,"à½Ĩà½Ĥà½¦à½Ķà½ł":9369,"à½ĺà½Ĳà½¢à½Ĥ":9370,"à½ĸà½¦à½£à½ĸ":9371,"à¼¡à¼§à¼¥à¼¤":9372,"à¼¡à¼¦à¼¢à¼¤":9373,"à¾¡à¾²à½¿à¼ĭ":9374,"Ġà¼¡à¼¢à¼£":9375,"à¼¡à¼¦à¼łà¼§":9376,"à½¦à½¨à½¢":9377,"à¾±à½ºà¼·":9378,"à½¨à½ĳà½Ħ":9379,"à½Ĩà½ĳà½Ķà½¢":9380,"à¾µà½±à½´à¼ĭ":9381,"à¼¡à¼§à¼£à¼ł":9382,"à¾¶à½±à½²à¼ĭ":9383,"à½²à¼ĭà¼ĭà¼ĭ":9384,"à¼¡à¼§à¼¡à¼¢":9385,"à¼¡à¼§à¼¤à¼ł":9386,"à¼¡à¼§à¼¤à¼¡":9387,"à¾ªà½¿à¼ĭ":9388,"à½ĺà½İà½Įà½£":9389,"à½»à½»à½»à½»":9390,"à½¢à½ĸà½ŀà½Ĥ":9391,"à½Ģà½Ĥà½¦":9392,"à½Ģà½ŀà½ĵ":9393,"à½ħà½ħà½ĳ":9394,"à¾«à½´à¼Ķ":9395,"à¼¡à¼§à¼£à¼£":9396,"à¼¡à¼§à¼¨à¼©":9397,"à¼¡à¼¥à¼£à¼¢":9398,"à¼¡à¼¥à¼¦à¼¡":9399,"à¾°à½¿à¼į":9400,"à¾·à¾±à½±à¼į":9401,"à½¦à½Ĥà½ĵà½Ħ":9402,"à½Ħà½ĸà½ĺ":9403,"à½ĩà½«":9404,"à¼ĭà¼ĭà¼ĭà¼ĭà¼ĭà¼ĭà¼ĭà¼ĭà¼ĭà¼ĭà¼ĭà¼ĭ":9405,"à¼¡à¼¥à¼¢à¼ł":9406,"à¼¡à¼¥à¼£à¼§":9407,"à½ĸà½Ĩà½Ĥà½¦":9408,"à½Ķà½Łà½ĳ":9409,"à½Ķà½łà½ĳà½¦":9410,"à½Ħà½¦à½ĸà½¢":9411,"à½Ļà½Ĩ":9412,"à¾Ļà½¿à¼į":9413,"à½Ķà½ĳà½ĵ":9414,"à¼½à¼½":9415,"à¼¡à¼¦à¼¦à¼ł":9416,"à¼µà¼įà¼į":9417,"Ġà¼ĭà¼ĭà¼ĭà¼ĭà¼ĭà¼ĭà¼į":9418,"à½²à½º":9419,"à½Ķà½ĸà½Ģà½ł":9420,"à½łà½¤à½ĳ":9421,"à½Łà½ĳà½ĸ":9422,"à½ĳà½Ģà½¢à½ĺ":9423,"à½Ĥà½¡à½¦à½¦":9424,"à¼¡à¼§à¼¨à¼¨":9425,"à¼¡à¼¨à¼©à¼¨":9426,"à¾łà½ºà¼į":9427,"à½Ķà½ģà½¦":9428,"à½Ķà½¦à½Ł":9429,"à¾¨à¾²à¾±à½´à½¾à¼ĭ":9430,"Ġà½Ķà½ĵ":9431,"à¼¡à¼¨à¼¦à¼¥":9432,"à¼¡à¼¦à¼©à¼ł":9433,"à¾ĭà½ķ":9434,"à¼¡à¼¦à¼łà¼¤":9435,"Ġà½ļà½Ħ":9436,"à½ĵà½ĵà½ĺà½¦":9437,"à¾±à½²à½¾à¼ĭ":9438,"à½¤à½Ĭ":9439,"à½ĵà½¦à½ĩ":9440,"à½ħà½ĳà½łà½ĳ":9441,"à¾£à¼µ":9442,"à½łà½Ĳà½£":9443,"à¾¦à¾²à¾Ģ":9444,"à¼¡à¼¨à¼¦à¼§":9445,"à¼¡à¼¦à¼¡à¼¥":9446,"à¼¡à¼¦à¼¦à¼§":9447,"à½±à¼·à¼·":9448,"à½£à½ĳà½¦":9449,"à¾Ĵà½ºà¼įà¼į":9450,"à½ĵà½¦à½ħ":9451,"à½ħà½ĵà½łà½ĳ":9452,"à½ĸà½ŀà½Ĥà½¢":9453,"à½±à½´à¾ĥà¼ĭà¼´":9454,"à½ĳà½Ģà½łà½¦":9455,"à¼¡à¼¨à¼¡à¼©":9456,"Ġà½ĸà½ĸà½¦":9457,"Ġà½£à½Ħ":9458,"à½Ĥà½¦à½ĺà½¦":9459,"à½ĸà½¦à½łà½Ĥ":9460,"à½ĳà½Ĥà½Ĳ":9461,"à½£à½¦à½¢à½ĸ":9462,"à½¡à½Ħà½ħ":9463,"à¾·à½´à¼įà¼į":9464,"à½ģà½ĺà½¦à½Ĥà½Ħ":9465,"à½Įà½Ĥ":9466,"à¼¡à¼¥à¼¢à¼¡":9467,"à½¦à½Ķà½ĵà½¦":9468,"à½ĺà½Ķà½Ĥ":9469,"Ġà¼¢à¼¢à¼¢":9470,"à½ĺà½ļà½ĵà½£":9471,"à¾¡à½ºà¼ĭà¼ĳ":9472,"à½ĺà½ĵà½ĵà½ĵà½¦":9473,"à¾·à¾±à½¿à¼Ķ":9474,"à¼ĭà¼ĭà¼ĭà¼Ī":9475,"à½¦à½Ĥà½¤":9476,"à½¦à½ŀà½ĵ":9477,"à¾±à¾²à½²":9478,"à½łà½Ģà½ł":9479,"à½Ļà½¨":9480,"à¾Łà½ºà¼įà¼ĭà¼ĭ":9481,"à½łà½ĳà½¦à½Ĩ":9482,"à½ĺà½ģà½¦à½Ķà½¦":9483,"à½Ĺà½ıà½¡":9484,"Ġà½Ķà½łà½ĺ":9485,"à½Ĥà½ĺà½Ľà½ĳ":9486,"à½¡à½£à½Ĥ":9487,"à½ĵà½¦à½Ĥà½ŀà½ĵ":9488,"à¾²à¼ĭà¼Ĳ":9489,"à½Ĥà½ĵà½¦à½Ĥ":9490,"à½¦à½ĺà½łà½ĳ":9491,"à½Ĺà½ĳà½Ħ":9492,"à¼¡à¼¦à¼§à¼ł":9493,"à½ĭà½ı":9494,"à¼ĭà¾¾à¼Ķ":9495,"à½ºà¼ĭà½Īà½±à½²":9496,"à½¦à½ĵà½¢":9497,"à¾²à¾¡à½º":9498,"à½ĺà½¦à½Ł":9499,"à¾¡à½´à¼·":9500,"à¾©à½±à½²à¼ĭ":9501,"à½¨à½Ł":9502,"à½łà½ķà½¦":9503,"à½ĸà½ĸà½ĺ":9504,"à¼¡à¼§à¼¥à¼¨":9505,"à¼¡à¼¥à¼©à¼§":9506,"à¼ĭà¼Ħà¼ĭà¼ĭ":9507,"à¼¡à¼¦à¼łà¼¥":9508,"à½ĺà½¦à½Ķà½Ģ":9509,"à½Ļà½ģ":9510,"à½¨à½ĸà½¢":9511,"à½Ĳà½¢à½¦":9512,"à¼¡à¼¨à¼§à¼¥":9513,"à¼ĭà¾¢à¾±à¼ĭ":9514,"à½ĳà½£à½ĵ":9515,"à½ĵà½ĺà½ļà½ĵà½ĺ":9516,"à½ĵà½¦à½Ł":9517,"à½ĸà½Łà½łà½ĸà½¢":9518,"à½ĵà½ĺà½īà½ĵ":9519,"à½Ĥà½ıà½ĵà½ĸà½ŀ":9520,"à¼¡à¼§à¼¤à¼¦":9521,"à¼¡à¼¦à¼£à¼¢":9522,"à¼¡à¼¦à¼¤à¼£":9523,"à¼¡à¼¥à¼łà¼¢":9524,"Ġà½ĵà½Ķ":9525,"à½Ĥà½łà½ļ":9526,"à¾±à¾Ĺà½ºà¼ĭ":9527,"à½Ľà½łà½ĺ":9528,"à½ĵà½Ĥà½ĺ":9529,"à¾Łà½²à¼ĭà¼ĳ":9530,"à¼¡à¼¥à¼¡à¼¢":9531,"à¼¡à¼¥à¼¨à¼£":9532,"à¼¡à¼¨à¼łà¼¢":9533,"à½ķà½İà½ķ":9534,"à½Ķà½ħà½ĳ":9535,"à½ĳà½Ħà½Ĥà½Ħ":9536,"à½£à½¦à½łà½Ĥ":9537,"à½¡à½Ħà½Ĳ":9538,"à½¡à½Ħà½ĺà½Ħ":9539,"à½§à½ī":9540,"à¾Ĵà¾±à¼µà¼ĭ":9541,"à¾©à½ºà¼ĭà¼Ħà¼ħà¼įà¼į":9542,"à½Ķà½łà½ĩà½ĺ":9543,"à¾¡à½¿à¼į":9544,"à¾¡à¾²à¼įà¼į":9545,"à½Ĥà½Ħà½£à½Ĥà½¦":9546,"à½ĸà½¤à½ĳà½Ķà½¦":9547,"à½Ŀà½ī":9548,"à¼¡à¼§à¼©à¼§":9549,"à¼¡à¼¥à¼¦à¼ł":9550,"à½¦à½Ķà½ı":9551,"à½¢à½¦à½ĺ":9552,"à¾Łà¾Łà½²":9553,"à¾±à½²à¼ĭà¼ħà¼į":9554,"à½Ķà½¦à½ı":9555,"à¾¨à¼ĭà¼ĳ":9556,"à½łà½ĩà½łà½ļ":9557,"à½łà½Ĥà½łà½ĵ":9558,"à½²à½¼à¼ĭ":9559,"à½´à½¼":9560,"à½¼à¼ĭà¼ŀ":9561,"à½īà½¡":9562,"à½Ķà½¦à½ĵà½ĺ":9563,"à½£à½ĵà½¢":9564,"à½ĺà½ģà½¦à½Ķà½ł":9565,"à¾²à½ºà¼ĭà¼ĳ":9566,"à¼¡à¼§à¼¤à¼¤":9567,"à¼¡à¼¤à¼©à¼¡":9568,"à¼¡à¼¥à¼¤à¼¨":9569,"à¼¡à¼¥à¼©à¼ł":9570,"à¾´à½´à¼ĭ":9571,"à½¦à½Łà½¦":9572,"à½¢à½ĵà½¢":9573,"à½Ĥà½¦à½§":9574,"à½£à½¦à½ħ":9575,"à½Ľà½ĳà½Ħ":9576,"à½ħà½ĳà½ł":9577,"à¼¡à¼§à¼§à¼¡":9578,"à¼¡à¼¥à¼¢à¼¨":9579,"à¼¡à¼¦à¼¡à¼£":9580,"à¾±à½²à¼ĭà½Īà½º":9581,"à½ĳà½ĳà½Ģà½¢":9582,"à½Ħà½ĸà½¦à½ĺ":9583,"à½Ķà½¡à½ĵ":9584,"à½ĸà½¦à½Ĭ":9585,"à½ĺà½¦à½¢à½Ħ":9586,"à½ļà½ķ":9587,"à½ĵà½¦à½ĵà½¦":9588,"à¾¡à½¼à¼Ķ":9589,"à½¡à½Ħà½ĩ":9590,"à¾«à¾«":9591,"à½ĺà½Ĳà½łà½£":9592,"à½ĺà½īà½ĵà½¡":9593,"Ġà¼Įà¼Įà¼Įà¼Įà¼Įà¼Įà¼Įà¼Įà¼Įà¼Įà¼Įà¼Įà¼Įà¼Įà¼Įà¼Įà¼Į":9594,"à¾¡à¾·à½ºà¾ħ":9595,"à½Ħà½łà½ķ":9596,"à½ļà½£à½¦":9597,"à½²à¼įà¼Įà¼Įà¼Į":9598,"à½ĳà½ĸà½Ħà½¢":9599,"à¼¡à¼¤à¼¨à¼§":9600,"à½Ĺà½ķà½Ŀ":9601,"à¼¡à¼¦à¼¢à¼£":9602,"à¼ĭà¼Ħà¼ħà¼ĳ":9603,"à½Ĥà½ĸà½£":9604,"à½ĵà½Łà½Ħ":9605,"à½Ĥà½¦à½ŀà½¦":9606,"à¾Łà½ºà¼·":9607,"à½ļà½ī":9608,"à½£à½ĺà½¡":9609,"à½Ĳà½ĸà½¦à½ĳà½Ħ":9610,"à¾³à½²à½¾à¼ĭ":9611,"à¼¡à¼§à¼¡à¼©":9612,"à¼¡à¼§à¼¤à¼¢":9613,"à¼¡à¼¥à¼§à¼¨":9614,"à½ĸà½īà½ĵ":9615,"à¾¤à¾±à¼·à½¼":9616,"à½łà½Ľà½£":9617,"à½ŀà½ĸà½¦à½Ģ":9618,"à¼¡à¼¤à¼¨à¼¥":9619,"à¼¡à¼¦à¼¥à¼¨":9620,"à¼¡à¼¦à¼¨à¼§":9621,"Ġà¼¡à¼¡à¼¨":9622,"à½¦à½ļà½£":9623,"à½ĳà½ļà½ĳ":9624,"à½ĳà½ĸà½Łà½Ħ":9625,"à¾²à½¼à½¼":9626,"à½Ĥà½¦à½£à½ĳ":9627,"à¼¡à¼¥à¼©à¼¦":9628,"à¼¡à¼¦à¼§à¼§":9629,"à¾·à¾£à½¾à¼ĭ":9630,"à½¦à½ĺà½ģà½¦":9631,"à¾Łà½²à¼ĭà¼Ħà¼ħà¼įà¼į":9632,"à¼¡à¼¤à¼¨à¼¢":9633,"à¼¡à¼¤à¼¨à¼¤":9634,"à¾Łà¾Ńà¾ĥà¼į":9635,"Ġà¼¡à¼łà¼¢":9636,"à¼¡à¼§à¼łà¼¢":9637,"à½£à½ļà½Ħà½¦":9638,"à½ºà¼ĭà½²à¼ĭ":9639,"à½Ĥà½¦à½ĺà½Ľà½ĳ":9640,"à½¼à¼ĭà¼Į":9641,"à½Ģà½ĸà½¦":9642,"à½ĸà½ħà½Ŀ":9643,"à¾³à½¼à½¼":9644,"à¼¡à¼¥à¼¤à¼ł":9645,"à½Ĺà½ĵà½¥":9646,"à¼¡à¼¦à¼£à¼¡":9647,"à¾Łà½»":9648,"à¼ĭà¼Ĺ":9649,"à½Łà½ĸà½ĸ":9650,"à½¦à½Ħà½¢":9651,"à¼łà¼łà¼£à¼¥":9652,"à¼¡à¼¥à¼¡à¼©":9653,"à¾ŀà¾ŀà½¾à¼ĭ":9654,"Ġà½Ĩà½Ĥ":9655,"à¾²à¾ĥà¼į":9656,"à¾£à¾²":9657,"à¾Ńà½±à½¿à¼ĭ":9658,"à½¦à½ĺà½ŀ":9659,"à¼įà¼Ħà¼Ħà¼ħà¼įà¼į":9660,"à½¦à½Ķà½£à½¦":9661,"Ġà½£à½łà½Ħ":9662,"à½Ĥà½Ĩà½¢":9663,"à½¢à½ĳà½ĳ":9664,"à½ºà¼ĭà½±à¼ĭ":9665,"à½Ķà½¢à½Ĥà½¡":9666,"à½łà½ĳà½¦à½ħ":9667,"à¾²à½±à½²à¼ĭà¼½":9668,"à¼¡à¼¥à¼©à¼¢":9669,"à¼¡à¼¨à¼¦à¼¢":9670,"à½Ĺà½ĺ":9671,"à¼Ģà½Į":9672,"à¼¡à¼¦à¼łà¼£":9673,"Ġà½ķà½£":9674,"à½ĵà½ŀà½Ĥ":9675,"à½Ķà½¢à½łà½ļà½£":9676,"à½¤à½ļ":9677,"à½ĳà½ĺà½ĸ":9678,"à½ĺà½ģà½łà½¦":9679,"à½ĸà½ħà½ĳà½¦":9680,"à¼¡à¼§à¼¡à¼£":9681,"à¼¡à¼¥à¼¤à¼¤":9682,"à½Ĺà½Ĥà½¢":9683,"à¾ŀà¼įà¼į":9684,"à¾³à¼ĭà¼Ħà¼ħ":9685,"à½Ķà½Ħà½ĵ":9686,"à½´à¼ĭà¼ŀ":9687,"à½ĳà½Ģà½¢à½ĸ":9688,"à¼¡à¼¥à¼¤à¼§":9689,"à¾ŀà¾ŀà½²à¼ĭ":9690,"ĭà¾Ĺà½ºà¼ĭ":9691,"à¾¸":9692,"à¼ĭà¾Ĺà½ºà¼ĭ":9693,"à¾³à¼ĭà½²":9694,"Ġà¼Īà¼Ī":9695,"à¼¡à¼§à¼¥à¼¢":9696,"à¾¶à½±à¼į":9697,"Ġà¼¡à¼¥à¼ł":9698,"à¾Ĵà¾±à¼ĭà¼½":9699,"à½¦à½ŀà½£":9700,"à½ĳà½ĳà½Ĥà½ł":9701,"à½ĵà½Ĳà½ĸà½¦":9702,"à½£à½Ķà½£":9703,"à½Ĥà½¦à½łà½ĩ":9704,"à¾±à½²à¼ĭà¾¾":9705,"à¾¡à¾±à½±à¼ĭ":9706,"à¼¡à¼§à¼¢à¼¥":9707,"à¼ĭà¾¢à½¾à¼ĭ":9708,"à½Ĺà½Ĵà½Ħà½Ĥ":9709,"à½Ķà½ĺà½ł":9710,"à¾Łà¾Ĺà½ºà¼ĭ":9711,"à½ĵà½¦à½łà½ģ":9712,"à½¡à½Ħà½ģ":9713,"à½Ķà½¦à½¦à½Ħà½¦":9714,"à½ħà½ĳà½ħ":9715,"à¼¡à¼¥à¼£à¼¨":9716,"à¼¡à¼¦à¼§à¼¦":9717,"à½¦à½Ķà½¡":9718,"à½Łà½Ĳà½ķ":9719,"à½¦à½£à½ł":9720,"à½Ħà½Ŀ":9721,"à½ĳà½Ħà½łà½Ĥ":9722,"à½ĵà½¦à½ĳà½ĸ":9723,"à½ĸà½ŀà½ĸ":9724,"à½±à½´à¼µà¼ĭ":9725,"à¾·à¾²à½±":9726,"à¾²à½ºà½º":9727,"à½ĸà½¦à½ĺà½¢":9728,"à¼¡à¼§à¼¤à¼©":9729,"à¾¤à½ºà¼ĭà¼´":9730,"à½ĵà½ıà½¢à½¡":9731,"Ġà¼¡à¼¢à¼©":9732,"à¼¡à¼¥à¼łà¼¡":9733,"à¼¡à¼¥à¼łà¼¦":9734,"à½Ħà½£à½Ĥà½¦":9735,"à½´à¼ĭà½´":9736,"à¼ĭà¼ĭà¼ĭà¼ĭà¼ĭà¼ĭà¼ĭà¼ĭà¼ĭà¼ĭà¼ĭà¼ĭà¼ĭà¼":9737,"à½Ŀà½ª":9738,"à¼¡à¼§à¼£à¼¥":9739,"à½¾à¼ĭà¼Ħà¼ħà¼į":9740,"à¼ĭà¼ĭà¼ĭà¼Ħà¼ħà¼į":9741,"à¼ĭà½ºà¼ĭà½º":9742,"à½Ħà½ĸà½Ģ":9743,"à½ĸà½¦à½ĸà½¦à½ĺ":9744,"à½łà½ģà½ĺ":9745,"à½Ģà½¢à½¦":9746,"Ġà¼ĭà¼ĭà¼ĭà¼ĭà¼ĭà¼ĭà¼ĭà¼ĭà¼ĭà¼ĭà¼ĭà¼ĭà¼ĭà¼ĭà¼ĭà¼ĭà¼ĭà¼ĭà¼ĭ":9747,"à½ģà½ģà½ģà½ģ":9748,"à½Ĥà½ª":9749,"à½²à¼ĭà¼ĭà¼Ħà¼ħà¼įà¼į":9750,"à¾Ĳà¾±à½²à¼į":9751,"à¾±à½ºà¼įà¼ĭ":9752,"à½Ĥà½ħà½«à½Ĥ":9753,"à½Ĥà½ŀà½ĵà½ī":9754,"à½ĺà½Ľà½ĳà½Ģ":9755,"à¾Ńà½½à¼ĭ":9756,"à¼¡à¼¥à¼£à¼¡":9757,"à¼¡à¼¦à¼¥à¼¡":9758,"Ġà¼¡à¼łà¼£":9759,"à¼¡à¼¦à¼łà¼¢":9760,"à¾±à½½":9761,"à½¡à½ĳà½Ħ":9762,"à¼¡à¼§à¼£à¼¤":9763,"à¼¡à¼¥à¼£à¼¤":9764,"à¼ĭà¾¾à¾¾à¾¾":9765,"à½¦à½ĸà½Ļ":9766,"à½¦à½ģà½¦":9767,"à½īà½Ķà½¢":9768,"à¾·à¼·":9769,"à½ĳà½Ķà½£à½ĵ":9770,"à¾¡à½ºà¼ĭà¼¼":9771,"à½İà½¨":9772,"à¼¡à¼¨à¼§à¼ł":9773,"à½Ķà½ĺà½¡":9774,"ĭà¾©":9775,"à½Ħà½¦à½ĺà½¦":9776,"à½ĵà½¦à½ĸà½ĳ":9777,"à¼ĭà¾©":9778,"à¾Ļà¾Ģ":9779,"à½łà½ļà½£à½¦":9780,"à¼¡à¼§à¼©à¼¨":9781,"à¼¡à¼¦à¼£à¼£":9782,"à½ĭà½ŀ":9783,"à½²à½²à¼įà¼į":9784,"à½ĵà½łà½ĩà½ĺ":9785,"à½ĸà½¢à½ı":9786,"à¼ī":9787,"à½£à½ĺà½Ģ":9788,"à½ĳà½¢à½¦":9789,"à¼¡à¼§à¼£à¼¦":9790,"à¼ĭà¾¢à½²à¼į":9791,"à¾Łà¾±à½»à¼ĭ":9792,"à½ķà½¢à½£":9793,"à¾·à½»à¼į":9794,"à½Ĥà½Ħà½ĵà½¦":9795,"à½ĳà½Ķà½ļ":9796,"à½£à½ĺà½ĺà½Ĳ":9797,"à½ĵà½ĺà½Ħà½¦":9798,"à½Ħà½Ĥà½ĸ":9799,"à½ĵà½ĳà½£":9800,"à¼¡à¼§à¼¥à¼¦":9801,"Ġà½ĸà½ķ":9802,"à½Ĺà½ĸà½ĵ":9803,"à½Ĵà½Ĥà½«":9804,"à½ĵà½īà½ĵ":9805,"à½ĺà½ĸà½Ĥ":9806,"à½ĺà½¡à½ĵ":9807,"à½Ĳà½łà½ĺ":9808,"à½Ļà½¢à½ł":9809,"à½ĺà½ģà½Ħ":9810,"à½Ĥà½ıà½ĵà½ĵ":9811,"à½łà½Ĥà½£à½ļà½ĸà½¦":9812,"à¾¡à¾·à½²à½¾à¼ĭ":9813,"à½²à¼ĭà¼Ħà¼ħà¼ħà¼įà¼į":9814,"à½§à½Ĥà½¦":9815,"à¾«à½¿à¼į":9816,"à½£à½ĺà½ŀ":9817,"à¼¡à¼¦à¼¥à¼¦":9818,"à¼¡à¼¦à¼¨à¼¡":9819,"à½ªà½ĺ":9820,"à¾·à½±à½¿à¼į":9821,"à½ĺà½Ĥà½ŀà½Ĥ":9822,"à½ģà½Ĥà½ī":9823,"à½¡à½Ħà½¢à½Ħ":9824,"à½īà½ĺà½¦à½ĺ":9825,"à½Łà½¦à½Ģ":9826,"à¼¡à¼§à¼¢à¼¦":9827,"à¼¡à¼¨à¼¤à¼¦":9828,"Ġà¼¡à¼¡à¼¤":9829,"Ġà¼¡à¼£à¼¥":9830,"à¼¡à¼§à¼łà¼¤":9831,"Ġà½Ĥà½ŀà½Ĥ":9832,"Ġà½łà½Ĩà½Ħ":9833,"à¾¢":9834,"à½²à¼ĭà½±à¼ĭ":9835,"à½Ĥà½¦à½Ĥà½Ł":9836,"à½Ĥà½¦à½ĺà½Ĳà½¢":9837,"à½Ĩà½Ĥà½ĺ":9838,"à¾±à½´à½´":9839,"à¾¦à½¿à¼ĭ":9840,"à½ĳà½Ķà½ħ":9841,"à½Ĥà½ĵà½¦à½ı":9842,"à½ĺà½¢à½£":9843,"à½ĵà½ĳà½ł":9844,"à½¡à½Ħà½¦à½¦":9845,"à¾ŀà½´à¼į":9846,"à½´à¼ĭà¼ĳà¼ĳ":9847,"à½ĵà½ıà½¢à½¡à½ħ":9848,"à½Ĥà½ĺà½ģà½ĵ":9849,"à½Ķà½łà½Ĥà½ł":9850,"à½ħà½Ĥà½ĵ":9851,"à½ĸà½¢à½ĺà½Ĳ":9852,"à¾²à½¼à½¾à¼į":9853,"à½Ĭà½łà½Ħ":9854,"à½ĸà½ŀà½Ĥà½Ĥ":9855,"à¾ľà½±à½²à¼į":9856,"à½łà½Ĥà½Ĥà½Ķ":9857,"à¾»à½´":9858,"à½²à½±à¼ĭ":9859,"à½Ħà½¤à½¢":9860,"à½¡à½ĺà½ł":9861,"à¾Ĳà¾±à¼Ķ":9862,"à¾Ļà½±à½¿à¼ĭ":9863,"à½¼à¼ĭà¼ĳà½¼à¼į":9864,"à¼¡à¼¨à¼¢à¼£":9865,"à¼¡à¼¦à¼§à¼£":9866,"à¼¡à¼¦à¼¨à¼©":9867,"à½Ĥà½łà½ĩà½ĺ":9868,"à½´à¼ĭà¾İ":9869,"à¾£à½´à¼į":9870,"à¼¡à¼¨à¼©à¼¤":9871,"à¾¡à½ºà¼įà¼¼":9872,"Ġà¼¡à¼łà¼©":9873,"à¾±à½²à¼ĭà½Īà¾±à½²à¼ĭ":9874,"à½ĸà½łà½ĳà½¦":9875,"à¾©à¾±à½²à¼ĭ":9876,"à½İà½Ļ":9877,"à¾ľà½±à¼į":9878,"à½Ķà½łà½Ħà½ĺ":9879,"à¼¡à¼¤à¼¨à¼ł":9880,"à½¦à½Ĩà½Ĥà½¦":9881,"à½Ķà½Ķà½ĳ":9882,"à½Ķà½ĭ":9883,"à½ĸà½¦à½ĺà½Ĳà½ł":9884,"à½ĸà½łà½ķà½Ĥà½¦":9885,"à½±à¼ĭà½º":9886,"à½ĩà½Ĥà½¦":9887,"à½¼à¼įà¼ĭà¼ĭà¼ĭà¼ĭà¼ĭà¼ĭà¼ĭà¼ĭà¼ĭà¼ĭà¼ĭà¼ĭà¼ĭà¼ĭà¼ĭà¼ĭà¼ĭà¼ĭà¼ĭà¼ĭà¼ĭà¼ĭà¼ĭà¼ĭà¼ĭà¼ĭà¼ĭà¼ĭà¼ĭà¼ĭà¼ĭà¼ĭà¼ĭà¼":9888,"à¾¨à¼·à¼ĭ":9889,"à½Ŀà½Ĥà½¥":9890,"à½©à½ŀ":9891,"à½ĥà½ĸ":9892,"Ġà½Ħà½ł":9893,"Ġà¼¡à¼¤à¼ł":9894,"à½Ķà½¢à½Ķà½¢":9895,"à¾¡à¾¡à½¼":9896,"à¾±à½ºà½ºà¼Ķ":9897,"à¾Ĺà½²à¼į":9898,"à½ħà½ĳà½ļ":9899,"à½łà½ķà½ĸ":9900,"à½ĸà½Łà½Ħà½Ĥ":9901,"à½Ĵà½Łà½Ĳ":9902,"Ġà½ĵà½ķ":9903,"à½ĺà½¦à½łà½ĸ":9904,"à½ĺà½Ľà½ĳà½Ħ":9905,"à¾²à½²à¼ĭà¼İ":9906,"à¾ļà½¼à½¾à¼į":9907,"à½¢à½łà½ķà½Ĥà½¦":9908,"à¾Łà½¿à¼įà¼į":9909,"à¾Łà½¼à¼·":9910,"à½ĳà½Ģà½łà½ĺ":9911,"à½¥à½Ļ":9912,"à½łà½Ĥà½£à½ŀ":9913,"à½Ĺà½Łà½«":9914,"Ġà½Ģà½ł":9915,"ĭà¾·":9916,"à½ĸà½¢à½Ģ":9917,"à¼ĭà¾·":9918,"à½Ļà½ĵà½ĳà½ĵ":9919,"à½ĸà½ĺà½¡":9920,"à¼¡à¼§à¼©à¼©":9921,"à½Īà¾±à½º":9922,"à¼¡à¼¤à¼¨à¼£":9923,"à¼¡à¼¦à¼¤à¼©":9924,"Ġà¼¡à¼£à¼ł":9925,"à¾³à¼ĭà¼Ħà¼ħà¼į":9926,"à½ĳà½Ĥà½¦à½¢":9927,"à½Ķà½Ĥà½£":9928,"à½ħà½ĳà½¦à½Ħà½¦":9929,"à¾«à½±à¼į":9930,"à¾²à½²à¼ĭà½²":9931,"à¼¡à¼§à¼¡à¼¦":9932,"à¼¡à¼¥à¼¡à¼£":9933,"à¼¡à¼¨à¼¤à¼ł":9934,"à¼ĭà¼ĭà¼ĭà¼ĭà¼ĭà¼ĭà¼ĭà¼ĭà¼ĭà¼ĭà¼ĭà¼ĭà¼ĭà¼ĭà¼ĭà¼ĭà¼ĭà¼ĭà¼ĭà¼ĭà¼ĭà¼ĭà¼ĭà¼ĭà¼ĭà¼ĭà¼ĭà¼ĭà¼ĭà¼ĭà¼ĭà¼ĭà¼ĭà¼ĭà¼ĭà¼ĭà¼ĭà¼ĭà¼ĭà¼ĭà¼ĭà¼ĭà¼ĭà¼ĭà¼ĭà¼ĭà¼ĭà¼ĭà¼ĭà¼ĭà¼ĭà¼ĭà¼ĭà¼ĭà¼ĭà¼ĭà¼ĭà¼ĭà¼ĭà¼ĭà¼ĭà¼ĭà¼ĭà¼ĭà¼ĭà¼ĭà¼ĭà¼ĭà¼ĭà¼ĭà¼ĭà¼ĭà¼ĭà¼ĭà¼ĭà¼ĭà¼ĭà¼ĭà¼ĭà¼ĭà¼ĭà¼ĭà¼ĭà¼ĭà¼ĭà¼ĭà¼ĭà¼ĭà¼ĭà¼ĭà¼ĭà¼ĭà¼ĭà¼ĭà¼ĭà¼ĭà¼ĭà¼":9935,"à½Ģà½ĸà½¢":9936,"à½Ĩà½ī":9937,"à½ĺà½Ĳà½łà½Ĥà½ī":9938,"à¾«à½ºà¼į":9939,"à½¦à½Ħà½¦à½¦":9940,"à¾Ńà¼ĭà¼½à¼¼":9941,"à½¤à½¢à½ĵ":9942,"à½łà½Ĥà½£à½ĸà½ł":9943,"à¼łà¼łà¼£à¼§":9944,"à¼¡à¼¥à¼¥à¼©":9945,"à¼¡à¼¨à¼¢à¼¢":9946,"à¼¡à¼¦à¼¦à¼¡":9947,"à¾ĭà½¤":9948,"Ġà¼¡à¼¢à¼§":9949,"à½Ĥà½ĵà½¦à½Ķà½¦":9950,"à½Ĺà½ĸà½ı":9951,"à½²à¼ĭà½´à¼ĭ":9952,"à½¼à¼ĭà½´":9953,"à½¼à¼ĭà¾ħ":9954,"à½Ķà½łà½ĺà½¢":9955,"à½Ĳà½Ł":9956,"à¾Ĵà¾±à¼ĭà½²":9957,"à½ŀà½£à½Ĥà½¦":9958,"à½ĵà½ĺà½¦à½¦":9959,"à¼¡à¼¦à¼łà¼¨":9960,"à¾Ĵà¾±à¼ĭà¼Ī":9961,"Ġà½łà½ĳà½ĸ":9962,"Ġà½ĳà½ĺà½Ħà½¦":9963,"à¾±à½ºà¼µ":9964,"à½ĺà½Ľà½ĵ":9965,"à½¥à½¤":9966,"à½¾à¼įà¼Įà¼Įà¼Į":9967,"à¼¡à¼¦à¼¥à¼¥":9968,"Ġà¼¡à¼¡à¼ł":9969,"à¾ļà½²à½¿à¼į":9970,"à½¦à½ĳà½Ģà½¢":9971,"à½Ķà½ĺà½ģà½ł":9972,"à¾±à½¾à¼ĭà¼´":9973,"à½£à½¦à½¡à½Ħ":9974,"à½Ķà½¦à½Ĥà½ŀà½ĵ":9975,"à¾²à½¼à½¿à¼ĭ":9976,"à¾Ńà¾°à¼į":9977,"à¾¦à¾±à¼į":9978,"Ġà½Ķà½ī":9979,"à½Ħà½Ķà½ĸà½ł":9980,"à¼¡à¼¥à¼łà¼¨":9981,"à¼¡à¼§à¼łà¼£":9982,"à½Ħà½ĸà½ħà½¦":9983,"à½Ĳà½Ļ":9984,"à½ĺà½¦à½ĩ":9985,"à½Ķà½¦à½Ĥà½Ł":9986,"à½ĺà½Ľà½łà½ĸ":9987,"à½ĸà½Łà½Ħà½ĸ":9988,"Ġà¼¸":9989,"à¼¡à¼§à¼©à¼¦":9990,"à¼¡à¼¨à¼¨à¼ł":9991,"à¼¡à¼¦à¼łà¼©":9992,"Ġà½łà½ĺ":9993,"Ġà½ĸà½¦à½ĺà½¦":9994,"à½Ĥà½Ķà½ĳà½Ħ":9995,"à¾Ĵà½¾à¼į":9996,"à½ıà½Į":9997,"à½ĺà½¦à½¨":9998,"à½Ĥà½ĵà½¦à½ļ":9999,"à½ĺà½Ľà½ĳà½ĸà½¦":10000,"à½ĺà½Ľà½ĳà½Ķà½¦":10001,"à¼¡à¼¥à¼¥à¼¨":10002,"à½²à¼ĭà½²à¼ĭà½²à¼ĭà½²à¼ĭ":10003,"Ġà½Ĥà½¡à½Ħ":10004,"à½Ķà½ĵà½Ĥ":10005,"à¾±à½¾à¼įà¼į":10006,"à½¼à¼ĭà¼ħà¼į":10007,"à½łà½Ĥà½ŀà½ĵ":10008,"à½ĳà½Ķà½ĵà½¦":10009,"à¾Ĵà¾²à¾Ģà¼ĭ":10010,"à¼¡à¼¨à¼¡à¼£":10011,"à¼¡à¼¨à¼¨à¼¦":10012,"à½Ĺà½¢à½¥":10013,"à¾»à½¿à¼ĭ":10014,"Ġà¼¡à¼£à¼£":10015,"Ġà½£à½ł":10016,"ħà¼į":10017,"à½ĵà½ĸà½ı":10018,"à¾±à½ºà½ºà¼į":10019,"à½ĸà½łà½ĸà½ł":10020,"à½ºà¼įà¼Į":10021,"à½ĸà½ĳà½ı":10022,"à¾Ĵà¾±à½´à½´à¼ĭ":10023,"à½¤à½¢à½£":10024,"à½łà½Ĥà½łà½¡à½Ħ":10025,"à¼¡à¼¥à¼§à¼¦":10026,"à¼¡à¼¨à¼¦à¼¦":10027,"à½Ķà½£à½Ķ":10028,"à¼ĭà¾¾à¾¾":10029,"à½ĺà½Ĥà½¤":10030,"à½£à½¤à½¢":10031,"à½ĺà½Ĳà½łà½Ĥà½ħ":10032,"ĭà¼ĭà¼ĭà¼Į":10033,"à½Ĩà½Ĥà½¦à½ŀ":10034,"à¼¡à¼¦à¼§à¼¤":10035,"à¼µà½¼à¼įà¼į":10036,"à¼ĭà½²à¼ĭà½º":10037,"à¼¡à¼¨à¼łà¼¡":10038,"à½§à½§à½§à½§à½§":10039,"à½Ļà½ĺà½¢":10040,"à¾¡à½ºà¼ĭà½Īà¾±à½²":10041,"à¾¦à¾²à½´à¼įà¼į":10042,"à¼įà¼Ħà¼ħà¼Ħà¼ħà¼įà¼į":10043,"Ġà½ļà½£":10044,"à½ĺà½£à½Ĥ":10045,"à½łà½ĳà½ŀ":10046,"à½ĵà½¦à½ĺà½Ħ":10047,"à¾¦à¾¦à½ºà¼ĭ":10048,"à¾Łà¼ĭà½º":10049,"à½ĳà½¢à½ĺ":10050,"à½£à½Ħà½¦à½ĵà½¦":10051,"à¼įà¼´":10052,"à¾Ħà½²":10053,"à¼ĭà¼ŀà¼Ħà¼ħà¼įà¼į":10054,"à½ĸà½ĳà½Ķà½£":10055,"à¼ĭà¼įà¼ĭà¼ĭà¼ĭà¼ĭà¼ĭà¼ĭà¼ĭà¼ĭà¼ĭà¼ĭà¼ĭà¼ĭà¼ĭà¼ĭà¼ĭà¼ĭà¼ĭà¼ĭà¼ĭà¼ĭà¼ĭà¼ĭà¼ĭà¼ĭà¼ĭà¼ĭà¼ĭà¼ĭà¼ĭà¼ĭà¼ĭà¼ĭà¼ĭà¼":10056,"à¾¨à¾¨à½²à¼ĭ":10057,"à¾±à½ºà¼ĭà¼¼":10058,"à½Ŀà½łà½ĺ":10059,"à¼łà¼łà¼£à¼¦":10060,"à¼¡à¼¥à¼¦à¼¢":10061,"à¼¡à¼¨à¼¤à¼¡":10062,"à¼¡à¼¦à¼¦à¼¥":10063,"Ġà¼¢à¼łà¼¢":10064,"à¾±à¼µà½²à¼ĭ":10065,"à½ķà½Ģà½Ł":10066,"à½´à¼įà¼ĭà¼ĭà¼ĭà¼ĭà¼ĭà¼ĭà¼ĭà¼ĭà¼ĭà¼ĭà¼ĭà¼ĭà¼ĭà¼ĭà¼ĭà¼ĭà¼ĭà¼ĭà¼ĭà¼ĭà¼ĭ":10067,"ĭà¾¡à½¼à¼ĭ":10068,"à½Ĥà½Ĳà½Ħ":10069,"à½ĵà½¢à½£":10070,"à½Ĥà½¦à½łà½ķ":10071,"à½ıà½ħ":10072,"à¼ĭà¾¡à½¼à¼ĭ":10073,"à½ĸà½ĳà½Ĥà½¡":10074,"à¼¡à¼§à¼¤à¼¨":10075,"à¼įà¼ĭà¼ĭà¼ĭà¼ĭà¼ĭà¼ĭà¼ĭà¼ĭà¼ĭà¼ĭà¼ĭà¼ĭà¼ĭà¼ĭà¼ĭà¼ĭ":10076,"à¾¶à½ºà¼ĭ":10077,"Ġà¼Ħà¼ħà¼Ķ":10078,"Ġà¼¡à¼łà¼¦":10079,"à½Ķà½ĳà½Ķà½£":10080,"à½Ķà½ļà½Ħà½¦":10081,"à½ĵà½¦à½Ĥà½ĵà½¦":10082,"à½łà½Ĥà½łà½ĺ":10083,"à¾¤à½¿à¼į":10084,"à½ĳà½ĺà½ī":10085,"à½ĸà½ĳà½Ĥà½ĸ":10086,"à½£à½Ĥà½¦à½ŀ":10087,"à¼¡à¼§à¼¦à¼¤":10088,"à¼¡à¼¥à¼©à¼©":10089,"à¼¡à¼¨à¼¦à¼¤":10090,"à¾Ńà½±à½²à¼į":10091,"à½Ĥà½¦à½Ĥà½ĵà½¦":10092,"à½ĺà½¦à½ĳà½Ķ":10093,"à½¤à½ĵà½¦":10094,"à¾Ĳà¾Łà¾±":10095,"à½¡à½Ħà½ĺà½ĳ":10096,"à½Ļà½ħ":10097,"à¾¦à¾·à½²à½¿à¼ĭ":10098,"à½¨à½łà½ĺ":10099,"à¼¡à¼§à¼£à¼¢":10100,"à¾Łà½±à½¾à¼Ķ":10101,"à½ĳà½ŀà½ĵ":10102,"à½Ħà½ĸà½ĵ":10103,"à½´à¼ĭà¼ĭà¼į":10104,"à½Ħà½¦à½Ķà½£":10105,"à½£à½¦à½łà½ĳà½ł":10106,"à½§à½ķ":10107,"à¾Ńà½±à½²":10108,"à½ĵà½ĺà½§":10109,"à½±à½²à¼ĭà¼Ħà¼ħà¼įà¼į":10110,"à¼¡à¼§à¼¨à¼¢":10111,"à¼¡à¼¦à¼¡à¼¡":10112,"à¾Łà¾Ńà½¾":10113,"à½´à¼įà¼ĭà¼ĭà¼ĭà¼ĭà¼ĭà¼ĭà¼ĭà¼ĭà¼ĭà¼ĭà¼ĭà¼ĭà¼ĭà¼ĭà¼ĭà¼ĭà¼ĭà¼ĭà¼ĭà¼ĭà¼ĭà¼ĭà¼ĭà¼ĭ":10114,"à½Ħà½ĳà½ĸà½Ħ":10115,"à½ħà½¡":10116,"à½ĺà½Ľà½ĸ":10117,"à¾Łà½ºà¼įà¼ĭà¼ĭà¼ĭà¼ĭà¼ĭ":10118,"à¾Łà½´à½¿à¼į":10119,"à¼¡à¼¨à¼¤à¼¢":10120,"à½ĵà½Ĥà½¦à½ĵ":10121,"à½´à¼ĭà½²à¼ĭ":10122,"à½Ĳà½ĵà½Ĥ":10123,"à½ĺà½¦à½Ĥà½Ħ":10124,"à¾¨à¾±à½ºà¼į":10125,"à½ĳà½Ķà½£à½ĺ":10126,"à½Ĥà½ıà½ĵà½¦":10127,"à½īà½ĺà½¦à½Ķà½¢":10128,"à½¦à½Ħà½¥":10129,"à¼¡à¼¥à¼¡à¼¤":10130,"à¼¡à¼¥à¼¨à¼§":10131,"à½Ĺà½Ĥà½İ":10132,"à¼¡à¼¦à¼¨à¼¦":10133,"à½ĭà½£à½¦":10134,"Ġà¼ĭà¼ĭà¼ĭà¼į":10135,"à½²à¼ĭà½Īà½ºà¼ĭ":10136,"à½¦à½ĵà½Ĥ":10137,"à½Ĥà½ĺà½ģà½¦":10138,"à½ĳà½Ħà½ĸà½ŀ":10139,"à½Ķà½łà½¦à½Ħà½¦":10140,"à¾·à¾¨":10141,"à¾·à¾Ļ":10142,"à¾·à¾Ĵà¾·":10143,"à¾¦à½±à½´à¼ĭ":10144,"à½ĳà½ĺà½ĸà½ħà½ł":10145,"à½Ĥà½ŀà½ĵà½ĵà½¦":10146,"à½±à½´à½¾à¼ĭà¼Ħà¼ħà¼įà¼į":10147,"à½ģà½ĺà½¦à½ĵà½¦":10148,"à½ķà½ĵà½Ķà½¢":10149,"à¼¡à¼§à¼§à¼¥":10150,"à¼¡à¼¥à¼¦à¼£":10151,"à¼¡à¼¨à¼¨à¼¢":10152,"à¼¡à¼¦à¼¦à¼©":10153,"à½¦à½ĸà½Łà½Ħ":10154,"à¾±à½±à¼Ķ":10155,"à½Ģà½£à½¦":10156,"à½ĳà½Ħà½łà½ģ":10157,"à½ķà½¤":10158,"à¾¨à½±à½²":10159,"à¾²à½¼à½¼à¼ĭ":10160,"à½Ĩà½ĳà½ĵ":10161,"à½ģà½Ĥà½Ĥ":10162,"à¼łà¼łà¼¤à¼ł":10163,"à¼¡à¼¨à¼¢à¼§":10164,"à½Ĵà½Ĳà½Ĥ":10165,"à¼¡à¼¦à¼©à¼£":10166,"à¼¡à¼§à¼łà¼©":10167,"à¾²à¼·à½º":10168,"à½¦à½Ķà½Ĥà½¦":10169,"à½ĳà½£à½Ĥà½¦":10170,"à½ĸà½ĸà½¤":10171,"à½¡à½ķà½Ĭ":10172,"à½Ķà½¦à½ĸà½ĳ":10173,"à¾µà½¼":10174,"à¼¡à¼¦à¼¨à¼¥":10175,"à¾µà¾¼à½¿à¼ĭ":10176,"à½£à½Ĥà½ĳà½ĺà½¦":10177,"à¾²à½¼à¼µà¼ĭ":10178,"à½¼à¼ĭà¼Ŀà¼įà¼į":10179,"à½Ĩà½ħ":10180,"à½īà½ĺà½Ħ":10181,"à½ĸà½¢à½Ĩ":10182,"à½¡à½Ħà½ļ":10183,"à½ĺà½ģà½łà½ĺà½Ĳà½ł":10184,"à¾¡à½´à¼ĭà¼ĳ":10185,"à¼¡à¼¥à¼§à¼¤":10186,"à¼¡à¼¨à¼§à¼©":10187,"à¼¡à¼¦à¼¡à¼©":10188,"à¼¡à¼¦à¼¦à¼¤":10189,"à¾·à½ºà½¿à¼ĭ":10190,"Ġà½Ĥà½ħà½ĵ":10191,"Ġà½ĺà½ģà½£":10192,"à½ĵà½ĸà½¤":10193,"à½Ķà½¤à½¢":10194,"à¾Łà¼įà¼ĭ":10195,"à½Ħà½¦à½Ĳ":10196,"à½Ķà½¦à½ĺà½Ĳ":10197,"à½ħà½ĵà½Ĥà½ŀà½ĵ":10198,"à½ĺà½īà½ĺà½Ĥà½ŀà½Ĥ":10199,"à¼¡à¼§à¼¥à¼¥":10200,"à¼ĭà¾¢à½¼à¾ħ":10201,"Ġà¼¡à¼¢à¼¦":10202,"à¼įà¼ĭà¼ĭà¼ĭà¼ĭà¼ĭà¼ĭà¼ĭà¼ĭà¼ĭà¼ĭà¼ĭà¼ĭà¼ĭà¼ĭà¼ĭà¼ĭà¼ĭà¼ĭà¼ĭà¼ĭà¼ĭà¼ĭà¼ĭà¼ĭà¼ĭà¼ĭà¼ĭà¼ĭà¼ĭà¼ĭà¼ĭà¼ĭà¼ĭà¼ĭà¼ĭà¼ĭà¼ĭà¼ĭà¼ĭà¼ĭà¼ĭà¼ĭà¼ĭà¼ĭà¼ĭà¼ĭà¼ĭà¼ĭà¼ĭà¼ĭà¼ĭà¼ĭà¼ĭà¼ĭà¼ĭà¼ĭà¼ĭà¼ĭà¼ĭà¼ĭà¼ĭà¼ĭà¼ĭà¼ĭà¼ĭà¼ĭà¼ĭà¼ĭà¼ĭà¼ĭà¼ĭà¼ĭà¼ĭà¼ĭà¼ĭà¼ĭà¼ĭà¼ĭà¼ĭà¼ĭà¼ĭà¼ĭà¼ĭà¼ĭà¼ĭà¼ĭà¼ĭà¼ĭà¼ĭà¼ĭà¼ĭà¼ĭà¼ĭà¼ĭà¼ĭà¼ĭà¼ĭà¼ĭà¼ĭà¼ĭà¼ĭà¼ĭà¼ĭà¼ĭà¼ĭà¼ĭà¼ĭà¼ĭà¼ĭà¼ĭà¼ĭà¼ĭà¼ĭà¼ĭà¼ĭà¼ĭà¼ĭà¼ĭà¼ĭà¼ĭà¼ĭà¼ĭà¼ĭà¼ĭà¼ĭà¼ĭà¼ĭà¼ĭà¼ĭà¼ĭà¼ĭà¼ĭà¼ĭà¼ĭà¼ĭà¼ĭà¼ĭà¼ĭà¼ĭà¼ĭà¼ĭà¼ĭà¼ĭà¼ĭà¼ĭà¼":10203,"à½ĺà½Ĥà½¡à½¦":10204,"à½Ķà½Ĳà½ĸà½¦":10205,"à½Ĳà½ī":10206,"à½ĸà½ĳà½Ģà½¢":10207,"ĭà¼Ī":10208,"à½¿à¼ĭà¼ħà¼į":10209,"à¼¡à¼¥à¼©à¼¨":10210,"à¼¡à¼¨à¼¤à¼¥":10211,"à¼¡à¼¨à¼¥à¼§":10212,"Ġà¼¡à¼łà¼¥":10213,"Ġà¼Įà¼Įà¼Į":10214,"à½´à¼įà¼ĭà¼ĭà¼ĭà¼ĭà¼ĭà¼ĭà¼ĭà¼ĭà¼ĭà¼ĭà¼ĭà¼ĭà¼ĭà¼ĭà¼ĭ":10215,"Ġà½łà½ĸà½ĳ":10216,"à½¢à½ļà½ĳ":10217,"à½²à¼ĭà¾²":10218,"à½¡à½Ł":10219,"à½¡à½ĸà½Ģ":10220,"à¼Ĺ":10221,"à¾¡à½¼à¼ĭà¼¼":10222,"à½ĺà½Ĳà½¢à½ĳ":10223,"à¼Ģà½Ŀ":10224,"à½¾à¼ĭà¼Ħà¼ħ":10225,"Ġà¼¡à¼¥à¼¥":10226,"Ġà¼¡à¼¥à¼¦":10227,"à½¡à½ļà½ĵ":10228,"à½ĸà½¦à½ħà½ĵ":10229,"à½ļà½£à½ĺà½Ĥ":10230,"à¼ĭà¼įà¼ĭà¼ĭà¼ĭà¼ĭà¼ĭà¼ĭà¼ĭà¼ĭà¼ĭà¼ĭà¼ĭà¼ĭà¼ĭà¼ĭà¼ĭà¼ĭà¼ĭà¼":10231,"à¾Łà¼ĭà¼Ĳ":10232,"à½ĺà½łà½Ĩ":10233,"à½ĺà½¢à½¢":10234,"à½ĺà½ĳà½łà½¦":10235,"à¼¡à¼§à¼¦à¼¦":10236,"à¼¡à¼§à¼¨à¼§":10237,"à½±à½´à½¾à½¾à¼ĭ":10238,"ĭà¾Ĺà½¼à¼ĭ":10239,"à½¢à½ĺà½īà½ĺ":10240,"à½Ĥà½¦à½ĸà½Ł":10241,"à¾²à½¾à¼Ķ":10242,"à¾Łà¾Ł":10243,"à¾Ĵà½±à½²":10244,"à¼ĭà¾Ĺà½¼à¼ĭ":10245,"à½łà½ĳà½¦à½Ĥ":10246,"à½łà½ĳà½¦à½¤":10247,"à½łà½ĳà½¦à½ĺà½īà½ĵ":10248,"à½ĸà½Łà½ĳà½¦":10249,"à½¢à½ĳà½ĸà½ŀ":10250,"à¾¼à½±à¼ĭ":10251,"»¿":10252,"ï»¿":10253,"à½Ĥà½¦à½łà½Ľ":10254,"à¾Łà¾Łà½±à¼ĭ":10255,"à½ĸà½¦à½¢à½Ħ":10256,"à¾¡à¾·à½²à½¿à¼ĭ":10257,"à¼¡à¼¥à¼¤à¼©":10258,"à¼¡à¼¨à¼¥à¼¨":10259,"à¼Ģà½ķ":10260,"Ġà¼£à¼łà¼ł":10261,"Ġà¼¡à¼¢à¼¥":10262,"à½¦à½ŀà½ĸà½¦":10263,"à¼įà¼ĭà¼įà¼į":10264,"à½¡à½łà½ĳ":10265,"à½ģà½£à½¦":10266,"à½¡à½Ħà½ĺà½Ĳ":10267,"à½ĺà½Ĥà½Ĥ":10268,"à½ĳà½Ĥà½Ĥà½Ķ":10269,"à¾±à¼įà¼ĭà¼į":10270,"à½Ģà½łà½¦":10271,"à¼¡à¼§à¼©à¼¥":10272,"à¼¡à¼¨à¼¢à¼¨":10273,"à¼¡à¼¨à¼¨à¼©":10274,"à¼¡à¼¦à¼łà¼¡":10275,"à½¦à½Ķà½łà½ĺ":10276,"à½±à½´à½´à½¾à¼ĭ":10277,"à½Ĭà½Ĥ":10278,"à½Ĥà½ŀà½Ĥà½Ĥ":10279,"à¾·à¾±à½»à¼ĭ":10280,"à¼£à¼¨à¼¦à¼¢":10281,"à½Ĥà½ĳà½Ĥà½ł":10282,"à½ĸà½ĺà½ģà½¦":10283,"à½ĳà½Ĥà½ĺà½Ħ":10284,"à½ļà½ĵà½ĵ":10285,"Ġà½¢à½Ģ":10286,"à½±à¼Ķà¼":10287,"à½¼à½±à½¾à¼ĭ":10288,"à½¢à½ĺà½ĵ":10289,"à½ĳà½Ħà½Ħà½Ĥ":10290,"à¾Ķà½²":10291,"à½Ĥà½ĵà½¦à½Ĥà½¦":10292,"à¾Łà½ºà¼ĭà½²":10293,"à½Ĥà½Ļà½ĸà½¦":10294,"à½ĺà½Ĳà½¢à½Ģ":10295,"à¼¡à¼¥à¼¥à¼¡":10296,"à½Ĵà½ŀ":10297,"à½¦à½¦à½ĵ":10298,"à½§à½ĵà½§à½ĵ":10299,"à¼¡à¼¨à¼łà¼¨":10300,"à¼įà¼İà¼į":10301,"à¾²à¾Ĵà¾±":10302,"à½ĳà½Ħà½ĳà½ĸ":10303,"à½Ķà½¢à½ĳà½Ĥà½ł":10304,"à½ĳà½Ĥà½Ĥà½Ħ":10305,"à½Ĥà½ŀà½Ĥà½¢":10306,"à¾Ļà½±à½²à¼ĭ":10307,"à¼¡à¼§à¼¦à¼£":10308,"à¾·à½±à½²à½¿à¼Ķ":10309,"à¼ĭà¾§à½²à½¿à¼į":10310,"à½ĳà½ĺà½Ĳà½¢":10311,"à½Ħà½ĺà½ģ":10312,"à¾Łà¾²à½±à½²":10313,"à½ģà½łà½ĸ":10314,"à½¡à½Ħà½ĸà½¢":10315,"à½£à½Ĥà½ħà½ĵ":10316,"à½¢à½ĺà½§":10317,"à¼¡à¼¥à¼¥à¼£":10318,"à¼¡à¼¦à¼¡à¼¤":10319,"à¾»à½±à¼į":10320,"à¾¶à½¿à¼ĭ":10321,"à½Ĵà½Ĥà½«à½¥":10322,"à¼łà¼łà¼łà¼łà¼łà¼łà¼łà¼łà¼łà¼ł":10323,"à½¦à½łà½Ĩà½ĳ":10324,"à½Ħà½ĺà½ī":10325,"à½£à½Ħà½ĵ":10326,"à½Ĥà½¦à½ĵà½ĺ":10327,"à½ļà½ŀ":10328,"à½ĳà½Ķà½£à½Ĥà½ŀ":10329,"à½Ĥà½£à½ĸ":10330,"à½Ģà½¢à½¤":10331,"à¼¡à¼§à¼¦à¼§":10332,"à½±à¼Ķà¼ĭ":10333,"Ġà½łà½ĩà½ł":10334,"à½²à¾ħà¼ĭ":10335,"à½ºà¼ĭà¼ħà¼įà¼į":10336,"à½Ĥà½¦à½¡à½Ħ":10337,"à½Ĥà½¦à½ĳà½ĸà½Ħ":10338,"à¾Łà¾Łà½¿à¼į":10339,"à½Ķà½łà½ĺà½Ĩ":10340,"à½ĵà½ĺà½¡":10341,"à½łà½ļà½£à½ł":10342,"à¾¨à¾²à¼ĭà¼ĳ":10343,"à¾Łà½ºà¼ĭà¼ĳà¼ĭà¼ĳà¼ĭ":10344,"à¾²à½¼à¼Ķà¼":10345,"à½´à¼įà¼ĭà¼ĭà¼ĭà¼ĭà¼ĭà¼ĭà¼ĭà¼ĭà¼ĭà¼ĭà¼ĭà¼ĭà¼ĭà¼ĭà¼ĭà¼ĭà¼ĭà¼ĭà¼ĭà¼ĭà¼ĭà¼ĭà¼ĭà¼ĭà¼ĭà¼ĭà¼ĭ":10346,"à¾²à½¼à¼Ķà¼ĭ":10347,"à½ĳà½¦à½ĺ":10348,"à½ĺà½Ĥà½¦à½£":10349,"à½¡à½¢à½£":10350,"à¾·à¾¨à½±à¼ĭ":10351,"à¾©à¾©à¼ĭ":10352,"à¾²à½¼à¼ĭà¼İ":10353,"à½ĸà½ıà½¦":10354,"à¼¡à¼¨à¼©à¼¦":10355,"à½Ļà½ĵà½ĵ":10356,"à½İà½¥":10357,"à½Ĥà½ıà½ĵà½ĳ":10358,"à¾¤à¾±à¾¡à½¼":10359,"à½Ĥà½¢à½ĺ":10360,"à½Ĥà½¢à½£":10361,"à½Ĥà½¡à½¦à½Ķ":10362,"à¼¡à¼§à¼¦à¼¡":10363,"à¼¡à¼¨à¼¨à¼£":10364,"à½Ĵà½Łà½ĸ":10365,"à¾Ľà¼ĭà¼Ħà¼ħà¼įà¼į":10366,"à¼ĭà¼Ħà¼ħà¼įà¼ĭ":10367,"à½±à½´à½¾à½¼à¼ĭ":10368,"Ġà¼¡à¼¢à¼¨":10369,"à¾Ĵà¾±à¼ĭà¼Ħà¼ħà¼į":10370,"à½ĳà½Ħà½łà½Ĥà½£":10371,"à½ļà½Ļ":10372,"à½ĸà½ĳà½ŀ":10373,"à½²à¼įà¼ĭà¼ĭà¼ĭ":10374,"à¼¡à¼¥à¼¨à¼¡":10375,"à¼¡à¼¦à¼¨à¼¨":10376,"à½łà½Ļà½ĺ":10377,"à½Ħà½Ķà½ĺ":10378,"à½¡à½ĳà½ĵ":10379,"à¾Łà¾Ĺà½º":10380,"à½ĸà½¦à½Ĥà½ĵà½¦":10381,"à¾Ĺà¼·à½º":10382,"à½łà½Ĩà½łà½ĺ":10383,"à½ģà½ĺà½¦à½ħà½ĳ":10384,"à½Ŀà½ļ":10385,"à½ĸà½ĵà½ĸ":10386,"à¼¡à¼¨à¼¥à¼¤":10387,"à½ĳà½Ĥà½¦à½¦":10388,"à½ĵà½ĸà½ħà½¦":10389,"à½Ķà½ĺà½ģà½¦":10390,"à½£à½ĺà½ģà½ł":10391,"à½ĸà½£à½ĸ":10392,"à¼¡à¼§à¼£à¼©":10393,"à½łà½Łà½Ħ":10394,"à½Ĩà½ĺà½Ĳ":10395,"à½Ĩà½Ĥà½¤":10396,"à½ĳà½Ĥà½ķ":10397,"à¾¡à¾¡à¼ĭ":10398,"à¾¨à¾¨à½¿à¼ĭ":10399,"à¾³à½¼à¼ĭà¼ĳ":10400,"à½¢à½¦à½¦":10401,"à½Įà½Ĳ":10402,"à¼¡à¼¨à¼¦à¼£":10403,"à½Ĺà½ŀ":10404,"à½Ĺà½ģà½¥":10405,"ĭà¾Ķ":10406,"à½Ħà½ĸà½¤à½ĳ":10407,"à½łà½Ħà½Ĥ":10408,"à¼ĭà¾Ķ":10409,"à½£à½¦à½§":10410,"à¼¡à¼§à¼¦à¼©":10411,"à½ĺà½ĸà½Ģ":10412,"à¾±à¾Ńà¼įà¼į":10413,"à½Ģà½¢à½İà½ł":10414,"à½Īà¾²à½º":10415,"à¼¢à¼¤à¼¢à¼¥":10416,"à½Ħà½ĺà½Ľ":10417,"à½ŀà½£à½Ĥ":10418,"à½Ķà½¦à½ĺà½Ľà½ĳ":10419,"à½ĸà½¤à½Ĥà½¦à½ĵ":10420,"à¼¡à¼§à¼¦à¼¨":10421,"à¼¡à¼¦à¼©à¼¢":10422,"Ġà¼¡à¼łà¼§":10423,"à½¼à½º":10424,"à½Ħà½ĺà½ļà½ĵ":10425,"à½Ŀà½Ĥà½¦":10426,"à¾²à½±à½¾à¼Ķ":10427,"à½£à½Ķà½ĸà½ł":10428,"Ġà¼¡à¼£à¼¢":10429,"à¾Łà¼·à½º":10430,"à¼ŀà¼ŀà¼ŀ":10431,"à½ħà½ĳà½Ĥà½Ł":10432,"à½¦à½Łà½ĸ":10433,"à½Ķà½¢à½ĳà½ĸ":10434,"à¾£à¾¡à½¼":10435,"à½Łà½łà½Ħ":10436,"à½Ķà½¦à½Ĥà½Ħ":10437,"à½Łà½¦à½ĺ":10438,"à½ĸà½¦à½ĺà½¦à½ĺ":10439,"à½ºà¼Ķà¼":10440,"à¼¡à¼¦à¼¥à¼§":10441,"à½´à¼įà¼ĭà¼ĭà¼ĭà¼ĭà¼ĭà¼ĭà¼ĭà¼ĭà¼ĭà¼ĭà¼ĭà¼ĭ":10442,"à½ĵà½ĳà½Ķà½ł":10443,"à½ģà½Ħà½ĵ":10444,"à¾·à¼ĭà¼Ī":10445,"Ġà½ĸà½Ģà½£":10446,"à½¦à½łà½Ĩ":10447,"à½¢à½ĺà½Ĳà½ł":10448,"à½¢à½ĵà½Ĥ":10449,"à½Ķà½ĳà½Ĥà½ł":10450,"à¼įà¼įà¼Ħà¼ħ":10451,"à¾·à½±à½´à¾ĥà¼ĭ":10452,"à½Ĵà½Łà½Ĥ":10453,"à½¦à½Ķà½Ĩ":10454,"Ġà¼½à¼į":10455,"à½ħà½ĳà½ĸà½ĳà½Ĥ":10456,"à½¦à½łà½ļ":10457,"à½Ħà½ĺà½Ĳà½ł":10458,"à¾²à¾Ĺà½²":10459,"à¾Łà½±à¼įà¼į":10460,"à½Ĩà½ģ":10461,"à½ļà½łà½Ħ":10462,"à¾Ĵà¾±à½ºà¼į":10463,"à½łà½Ĥà½¡":10464,"à½ĺà½Ĳà½łà½ĳ":10465,"à¾ĭà½ı":10466,"à½²à¼ĭà¼Ħà¼ħà¼įà¼įà¼į":10467,"à½´à¼ĭà¼ĳà¼ĭà¼ĳà¼ĭ":10468,"à½Ĥà½¦à½ĺà½Ĳà½ł":10469,"à½īà½łà½Ħ":10470,"à½¢à½Ħà½Ĥà½ŀà½ĵ":10471,"à½Ĥà½ŀà½ĵà½Ħ":10472,"à½ĸà½¦à½ĺà½ŀ":10473,"à½¥à½¨":10474,"à½ĵà½ıà½ĵà½ĵ":10475,"à¾·à¼ĭà¼Ĳ":10476,"à½´à¼įà¼ĭà¼ĭà¼ĭà¼ĭà¼ĭà¼ĭà¼ĭà¼ĭà¼ĭà¼ĭà¼ĭà¼ĭà¼ĭà¼ĭà¼ĭà¼ĭà¼ĭà¼ĭ":10477,"Ġà½ĸà½¦à½Ĥà½¦":10478,"à½ĸà½Ĥà½¦à½Ħ":10479,"à½ĵà½łà½Ĳ":10480,"à½Ģà½ĺà½¦":10481,"à½ķà½Ļ":10482,"à½ıà½ĳà½Ħ":10483,"à¾·à¼įà¼ĭ":10484,"à¾·à¾Ħ":10485,"à½ĸà½ħà½¦à½ĺ":10486,"à¼¡à¼¥à¼©à¼£":10487,"à½Ĥà½Ķà½ı":10488,"Ġà½¡à½Ħà½¦":10489,"à½ĸà½łà½Ĥà½ł":10490,"à½£à½¦à½ĸà½ħ":10491,"à¾©à½½à¼ĭ":10492,"à½²à¼įà¼Ħà¼ħà¼į":10493,"à½Ĭà½ķ":10494,"à¾ľà½º":10495,"à½ķà½Ĭà½ĸ":10496,"à½¼à¼Ķà¼Ħà¼ħà¼įà¼į":10497,"à¾Ĳà¾±à½´à¼į":10498,"à½Īà½±à½²":10499,"à¼¡à¼¥à¼¨à¼¤":10500,"à¼¡à¼¨à¼£à¼¨":10501,"à½ĭà½£":10502,"Ġà¼Ĳà¼Ĳ":10503,"à¼ĭà¼ĭà¼ĭà¼ĭà¼ĭà¼Į":10504,"à¾ĳà½±à½²à¼ĭ":10505,"à½įà½ĳà½Ĥ":10506,"à¾¨à¾¼à¾»à½´à½¾à¼ĭ":10507,"à½łà½ĺà½ĵ":10508,"à½ĳà½Ħà½Ķà½ł":10509,"à½Ķà½¢à½łà½ģ":10510,"à¾Ĺà½ºà¼·":10511,"à¾©à½±à¼į":10512,"à¼¢à¼łà¼łà¼łà¼ł":10513,"à¾¦à¾·à½±à½²à¼į":10514,"Ġà¼¡à¼©à¼ł":10515,"à½¦à½Ļà½ĵ":10516,"à½Ķà½Ĥà½¢":10517,"à½ĸà½¢à½ĳà½Ħ":10518,"à½Ĥà½Ħà½Ħ":10519,"à½ĸà½ĳà½Ĥà½ł":10520,"à¼ĭà¼įà¼įà¼Ī":10521,"à½Ĥà½¦à½£à½ĵ":10522,"à¼¡à¼¦à¼§à¼¡":10523,"à¼ĭà¼ĳà¼ĭà¼ĳà¼¼":10524,"à¼ĭà¿ī":10525,"à½Ķà½ŀà½£":10526,"à½łà½¡à½Ħ":10527,"à½Ķà½¢à½ĳà½ĺ":10528,"à½Łà½ĳà½Ĥ":10529,"à½£à½ĺà½¤":10530,"à¾Łà½ºà¼ĭà¼Ħà¼ħà¼į":10531,"à½ĺà½īà½ĺà½¢":10532,"à½ļà½ĳà½£":10533,"à½łà½ļà½£à½ĸ":10534,"à¼¡à¼§à¼§à¼¦":10535,"à¼ĭà½Īà½¼à¼ĭ":10536,"à¿ļ":10537,"à¾±à¾³à½º":10538,"à¾³à¾¡à½¼à¼ĭ":10539,"à½²à¼ĭà¼´à¼į":10540,"Ġà¼¡à¼§à¼¡":10541,"Ġà½¼à¼ĭ":10542,"Ġà½Ĳà½ĳ":10543,"à½¦à½ĸà½ħà½¦":10544,"à½ĵà½£à½Ĥà½¦":10545,"à½¡à½ģà½¦":10546,"à¾Ĵà¾±à¼µ":10547,"à½ĳà½Ķà½łà½ĳà½Ħ":10548,"à¾¡à½¼à½¾":10549,"à¼¡à¼¨à¼¨à¼¥":10550,"à¾·à¾²à¼ĭà½µà¾ĥà¼ĭ":10551,"à½ºà¼Ķà¼ĭ":10552,"à½Ĥà½¦à½ĸà½ħà½ĳ":10553,"à½¡à½ĸà½ŀ":10554,"à½£à½¦à½Ĳà½ĺà½¦":10555,"à¾«à½¾à¼ĭ":10556,"à½ĸà½£à½¢":10557,"à½Ŀà½¦à½¦":10558,"à½¼à¼Ķà¼į":10559,"à¼¡à¼¥à¼¨à¼ł":10560,"à½¼à¼įà¼Ħà¼ħà¼ħà¼įà¼į":10561,"à½Ĥà½ĳà½ĺà½¢":10562,"à½Ĥà½Ĥà½Ħà½¦":10563,"à½ĸà½Ĥà½ıà½ĵ":10564,"à½£à½ģà½ĺà½¦":10565,"à½£à½ĸà½ĵ":10566,"à½¡à½£à½¦":10567,"à¾Ĵà½±à½²à¼į":10568,"à¾Ĵà¾·à¼į":10569,"à½Ĳà½ĺà½ĳ":10570,"à½ĸà½ħà½łà½ĺ":10571,"à½ĺà½ļà½ĺà½ļà½ĺà½¦":10572,"à½ĳà½ĺà½ģà½ł":10573,"à¼¡à¼¥à¼¨à¼¢":10574,"à¼¡à¼¨à¼¦à¼¡":10575,"à½ĵà½Ķà½Ģ":10576,"à½¦à½Ķà½ŀ":10577,"à½ĵà½Ķà½łà½ĳ":10578,"à½±à½¼à¾ĥ":10579,"Ġà½īà½£":10580,"à½Ĥà½ĸà½Ļ":10581,"à½ĸà½ĸà½Ļ":10582,"à½¢à½Ĥà½ĵ":10583,"à½Ħà½ĸà½Ĥ":10584,"à½Ķà½¢à½Ĥà½¦à½£":10585,"à½ĵà½¦à½Ĥà½Ħ":10586,"à¼łà¼łà¼£à¼¨":10587,"à¼łà¼łà¼£à¼©":10588,"à¼¡à¼¨à¼¥à¼¡":10589,"à¾ļà¾²à¼ĭ":10590,"Ġà½¢à½ĸà½¦":10591,"à½ºà¼ĭà¼Ħà¼įà¼į":10592,"à½ĸà½¦à½ĳà½Ķ":10593,"à½Łà½Ĥà½£":10594,"à¾Ķà¾¡à½¼à¼ĭ":10595,"à½ĺà½ļà½ĵà½Ķ":10596,"à½Ĳà½£à½£":10597,"à½ĸà½ıà½Ħà½ĸ":10598,"à¼¡à¼§à¼¤à¼¥":10599,"à¼¡à¼¥à¼¨à¼¦":10600,"à½ĳà½Ķà½¢à½Ĥ":10601,"Ġà¼¡à¼¤à¼¥":10602,"à½ĸà½Ķà½£":10603,"à½¢à½ĳà½Ģà½¢":10604,"à¾Łà¾Ĳà¾±à½ºà¼ĭ":10605,"à½£à½¦à½łà½ģ":10606,"à½£à½¦à½ĺà½Ľà½ĳ":10607,"à½ĸà½ĸà½Ķ":10608,"à¼¡à¼§à¼§à¼¨":10609,"à¼ĭà¼ĭà¼ĭà¼ĭà¼Ī":10610,"à½ĵà½Ĥà½¤à½Ĥà½¦":10611,"à½ĺà½ŀà½ĵ":10612,"à½´à¼ĭà½Īà½²":10613,"à½ŀà½Ķà½¦":10614,"à½ĸà½¢à½ĺà½Ħ":10615,"à½Ħà½¦à½Ł":10616,"à½ĵà½¦à½§":10617,"à½Ĥà½ŀà½Ĥà½ĳ":10618,"à½§à½Ķ":10619,"à½±à¼įà¼Įà¼Įà¼Į":10620,"à½Ĥà½ĳà½ĺà½¦à½Ķ":10621,"à½ĵà½Ķà½Ħ":10622,"à¾łà½²à¼įà¼į":10623,"à¼ĭà¼Īà¼Ļ":10624,"à¼ĭà¾§à½±à½´à¼ĭ":10625,"à½ħà½ĳà½ĵà½¦":10626,"à¾¡à½´à½¿à¼ĭ":10627,"à½ĸà½¦à½ĺà½ĵ":10628,"à½ĺà½Ĥà½Ļ":10629,"à½Īà¾±à½²à¼ĭ":10630,"à¼¤à¼łà¼¢à¼ł":10631,"Ġà¼Įà¼":10632,"Ġà¼Įà¼ĭ":10633,"à½īà½ĺà½ł":10634,"à½ļà½ĳà½ĸ":10635,"à¾·à½½à¼į":10636,"à¾·à¾²à½±à¾Ģà¼ĭ":10637,"à½£à½Ĥà½¦à½ĳ":10638,"à¾³à½´à¼ĭà¼ĳ":10639,"à¼¡à¼§à¼£à¼¡":10640,"à¼¡à¼§à¼§à¼£":10641,"à¼¡à¼¨à¼¥à¼ł":10642,"à½Ļà½Ħà½¥":10643,"à½²à¼ĭà¼½à¼":10644,"à½łà½Ħà½ĵ":10645,"à½£à½Ĳà½ĸà½¦":10646,"à¼įà¼įà¼įà¼įà¼į":10647,"à½Łà½ı":10648,"à½Ĥà½ŀà½Ĥà½Ķà½¢":10649,"à½£à½Ħà½ł":10650,"à¼¡à¼¨à¼¤à¼©":10651,"à¾ŀà½¾à¼ĭà¼Ħà¼ħà¼įà¼į":10652,"Ġà¼¡à¼£à¼©":10653,"à½²à¼ĭà¼½à¼ĭ":10654,"à½ºà½¼":10655,"à½Ĥà½¦à½ĵà½Ħ":10656,"à½ĸà½ŀà½Ķ":10657,"à¾¦à¾·à¼Ķ":10658,"à½ħà½ĵà½ĵà½ĺ":10659,"à½Ľà½Ŀ":10660,"à½Ĥà½ıà½ĺà½Ĥ":10661,"à½ĵà½ĺà½¤":10662,"à½Ĩà½Ĥà½¦à½ĸ":10663,"à½ĸà½ħà½ĳà½ĵà½¦":10664,"à¾±à¼įà¼½":10665,"à¼¡à¼§à¼¡à¼¥":10666,"à¼¡à¼¨à¼§à¼¨":10667,"à½ĳà½¦à½£":10668,"à¼ĭà¾¢à½²":10669,"à½¼à¼ĭà¼½à¼į":10670,"ĭà¾ĥà¼ĭ":10671,"à½ĸà½¦à½ħ":10672,"à¼ĭà¾ĥà¼ĭ":10673,"à¾·à¾²à½ºà¼ĭ":10674,"à½Ļà½łà½ĺ":10675,"à¾±à½ºà¼ĭà¼İ":10676,"à½ĩà½Ķ":10677,"à½¤à½¢à½Ĥ":10678,"à½ĵà½ĺà½¦à½£":10679,"à¾²à¼įà¼¼":10680,"à¼įà¼ĭà¼ĭà¼ĭà¼ĭà¼ĭà¼ĭà¼ĭà¼ĭà¼ĭà¼ĭà¼ĭà¼ĭà¼ĭà¼ĭà¼ĭà¼ĭà¼ĭà¼ĭà¼ĭà¼ĭà¼ĭà¼ĭà¼ĭà¼ĭà¼ĭà¼ĭ":10681,"Ġà½ĳà½ĺà½ĵ":10682,"à½Ĥà½Ĥà½¦à½¢":10683,"à½¢à½łà½ĳà½¦":10684,"à½ħà½Ĥà½£":10685,"à½ĵà½¦à½£à½¦":10686,"à½ĵà½¦à½ĺà½ĳ":10687,"à½¢à½ĸà½ĺà½Ĩ":10688,"à¾«à¾·à¼ĭ":10689,"à½ĵà½ĺà½ĺà½Ĩ":10690,"à½±à½²à¼ĭà¼´":10691,"à¼¡à¼¨à¼£à¼§":10692,"à½ĵà½Ķà½ļ":10693,"Ġà¼¡à¼łà¼¨":10694,"à¾Ĵà¾±à¼ĭà¼´":10695,"à½ĳà½ĵà½łà½Ħ":10696,"à½Ĥà½łà½Ĳ":10697,"à½ĸà½Ħà½Ħ":10698,"à½ĳà½Ħà½ĺà½Ħ":10699,"à½Ķà½¢à½¢à½Ħ":10700,"à½Ļà½ĺà½ļ":10701,"à¾Łà¼ĭà¼Ħà¼ħà¼į":10702,"à½łà½ĳà½¦à½ĺà½Ħ":10703,"à¾Ĳà¾±à½ºà¼ĭà¼İ":10704,"à½ĵà½ĺà½¡à½Ħ":10705,"à¼¡à¼¥à¼©à¼¡":10706,"à½Ĳà½ĺà½¦à½ħà½ĳà½£à½¦":10707,"à¼ĭà¼ĭà¼ĳ":10708,"à¾²à½²à¼ĭà¼Ħà¼ħà¼į":10709,"à½ĸà½ıà½Ĥà½¦à½¦":10710,"à¼¡à¼¨à¼¢à¼¥":10711,"à¾ŀà½²à¼į":10712,"à¾ĭà½ī":10713,"à¾´à¼Ķ":10714,"Ġà¼İà¼Ī":10715,"à½¦à½ĺà½ģà½ĵ":10716,"à½¦à½Ķà½łà½Ħ":10717,"à½Ħà½¤à½¦":10718,"à½ºà¼įà¼Įà¼Įà¼Į":10719,"à½Ĥà½ĵà½¦à½¡":10720,"à½Ĥà½Ļà½¢":10721,"à½Ħà½ĵà½ĸ":10722,"à¾Łà½´à¼įà¼įà¼į":10723,"à½¥à½Ĥ":10724,"à½Ħà½Ħà½£":10725,"à¾¦à¼ĭà½²":10726,"à¾¡à¼ĭà¾¢":10727,"à¼¸à¼":10728,"à¼¸à¼ĭ":10729,"Ħà¼į":10730,"à¾Ĭ":10731,"à½Ĥà½ļà½Ħ":10732,"à½Ķà½ĸà½Ļ":10733,"à½Ĥà½¦à½ĺà½ļà½ĵ":10734,"à¾²à½¾à¼įà¼į":10735,"à½ĸà½¦à½łà½ĸ":10736,"à½ģà½Ģà½ł":10737,"à½ĸà½¢à½ıà½£":10738,"à½Ķà½¦à½ĺà½¦":10739,"à½ĸà½¤à½Ĳà½Ĳ":10740,"à½Ħà½ĵà½¢":10741,"Ġà¼¡à¼¥à¼¤":10742,"à½²à¼ĭà½Īà¾²à½º":10743,"à½Ħà½Ħà½ĵ":10744,"à½łà½ĺà½Ĳ":10745,"à½łà½£à½ĺ":10746,"à½¼à¼ĭà¼Ħà¼įà¼į":10747,"à½ĺà½Ħà½ĺ":10748,"à½īà½ĺà½¦à½£":10749,"à½Įà½ļ":10750,"à¼¡à¼§à¼©à¼¤":10751,"à¼¡à¼§à¼¨à¼¡":10752,"Ġà½Ĳà½ĸ":10753,"ĭà½±à½¿à¼ĭ":10754,"à½ĸà½¡à½ĵ":10755,"à½ºà¾ĥà¼ĭ":10756,"à¾±à¾Ĺà½¼":10757,"à½¡à½ĩ":10758,"à½ħà½Ķà½ł":10759,"à½ĺà½¦à½łà½ģ":10760,"à¼ĭà½±à½¿à¼ĭ":10761,"à¾¦à¾·à¾±à½±":10762,"à½ĳà½Ķà½łà½¡":10763,"à½±à¼įà¼Ħà¼ħà¼įà¼į":10764,"à½Ĥà½Ħà½¦à½¢":10765,"à¼¡à¼¥à¼¨à¼¥":10766,"à¼¡à¼¨à¼¢à¼©":10767,"à½²à¼ĭà¼ĳà¼ĭà¼ĳ":10768,"à½¦à½Ĥà½£":10769,"à½Ĥà½ĸà½¤à½ĳ":10770,"à½¢à½Ĥà½Ļ":10771,"à½ħà½¤":10772,"à¾Ĳà½±à½²à¼ĭ":10773,"à¾±à½ºà¼ĭà½²":10774,"à½¿à¼ĭà¼½":10775,"à½Ĥà½¦à½¢à½Ķ":10776,"à½ĵà½ĵà½¦à½ī":10777,"Ġà¼¡à¼¤à¼¢":10778,"Ġà¼ĭà¼ĭà¼ĭà¼ĭà¼ĭà¼ĭà¼ĭà¼ĭà¼ĭà¼ĭà¼ĭà¼ĭà¼ĭà¼ĭà¼ĭà¼ĭà¼ĭà¼ĭà¼ĭà¼ĭà¼ĭà¼ĭà¼ĭà¼ĭà¼ĭà¼ĭà¼ĭà¼ĭà¼ĭà¼ĭà¼ĭà¼ĭà¼ĭà¼ĭà¼ĭà¼ĭà¼ĭà¼ĭà¼ĭà¼ĭà¼ĭà¼ĭà¼ĭà¼ĭà¼ĭà¼ĭà¼ĭà¼ĭà¼ĭà¼ĭà¼ĭà¼ĭà¼ĭà¼ĭà¼ĭà¼ĭà¼ĭà¼ĭà¼ĭà¼ĭà¼ĭà¼ĭà¼ĭà¼ĭà¼ĭà¼ĭà¼ĭà¼ĭà¼ĭà¼ĭà¼ĭà¼ĭà¼ĭà¼ĭà¼ĭà¼ĭà¼ĭà¼ĭà¼ĭà¼ĭà¼ĭà¼ĭà¼ĭà¼ĭà¼ĭà¼ĭà¼ĭà¼ĭà¼ĭà¼ĭà¼ĭà¼ĭà¼ĭà¼ĭà¼ĭà¼ĭà¼ĭà¼ĭà¼ĭà¼ĭà¼ĭà¼ĭà¼ĭà¼ĭà¼ĭà¼ĭà¼ĭà¼ĭà¼ĭà¼ĭà¼ĭà¼ĭà¼ĭà¼ĭà¼ĭà¼ĭà¼ĭà¼ĭà¼ĭà¼ĭà¼ĭà¼ĭà¼ĭà¼ĭà¼ĭà¼ĭà¼ĭà¼ĭà¼ĭà¼":10779,"à½Ĺà½Ĳà½Ł":10780,"Ġà½ĸà½¦à½£":10781,"Ġà½¢à½Ĥ":10782,"à½¦à½£à½Ĥ":10783,"à½¦à½Ķà½ī":10784,"à½ĳà½ĺà½ļà½ĺà½¦":10785,"à½ĺà½ĸà½¦à½ĺ":10786,"à½Ĩà½Ł":10787,"à½Ĳà½ĸà½ĺ":10788,"à¾·à½ºà½ºà¼ĭ":10789,"à½ĳà½Ķà½łà½ī":10790,"à½¡à½¦à½ĵ":10791,"à¼¡à¼¦à¼¢à¼¨":10792,"Ġà½ĸà½Ħ":10793,"à½ĳà½Ĳà½ĺà½¦à½ħà½ĳ":10794,"à½Ĥà½Ķà½łà½ĺ":10795,"à¾¤à½ºà¼įà¼į":10796,"à¾Ĵà¾±à½´à¼ĭà¼Ī":10797,"à½ļà½Ħà½¦à½Ķ":10798,"à½ĺà½ĩà½£à½ĳ":10799,"à¼¡à¼¨à¼§à¼£":10800,"Ġà¼¡à¼¦à¼§":10801,"à½ĵà½ļà½ĵ":10802,"à½²à¼ĭà¼ĭà¼ĭà¼ĭà¼ĭ":10803,"à½ĳà½Ħà½Ĥà½ĵà½¦":10804,"à½ħà½ķ":10805,"à¾Ĵà¾±à½´à¼·":10806,"à½£à½¦à½ĸà½ĳ":10807,"à½¡à½Ħà½łà½ĸ":10808,"à½¢à½ĸà½ĸà½¦":10809,"à½Ĥà½ŀà½ĵà½ĳà½ĸà½Ħ":10810,"à½¦à½¢à½ĺ":10811,"à½¤à½¦à½¢à½ĸ":10812,"à¾·à½±à½´à½¿à¼į":10813,"à¾±à½²à¼ĭà¼ĳà¼į":10814,"Ġà½Ĥà½ıà½ĳ":10815,"à½ŀà½Ĩ":10816,"à½łà½ĸà½ĳà½Ķ":10817,"à¾©à½»à¼ĭ":10818,"à¾Łà¼ĭà¼Ī":10819,"à¾±à½ºà¼ĭà¼·à¼ĭ":10820,"à½Ĥà½ıà½Ķ":10821,"à½ĳà½Ķà½łà½ł":10822,"à¾¨à¼ĭà½²":10823,"à½£à½ĵà½£":10824,"à¾²à½±à¾ĥà¼Ķ":10825,"à½ĵà½łà½Ĥà½£":10826,"à½Ħà½£à½Ĥ":10827,"à½²à¼ĭà½¾à¼ĭ":10828,"à½¼à¼ĭà¼ŀà¼į":10829,"à¾±à½¼à½¿à¼ĭ":10830,"à½ĳà½ĸà½¤":10831,"à½ĺà½ģà½ĺà½¦":10832,"à½łà½ĳà½¦à½ĩ":10833,"à½£à½Ĥà½¦à½Ķ":10834,"à½£à½Ĥà½¦à½ı":10835,"à½Įà½¥":10836,"à½ĳà½Ķà½¢à½ĺ":10837,"à¼¡à¼¡à¼łà¼łà¼ł":10838,"à¼¡à¼§à¼łà¼¡":10839,"Ġà¼¡à¼©à¼¨":10840,"à½²à¼ĭà¾±":10841,"à½Ĳà½ĵà½¦":10842,"à½Ĳà½Ĥà½¢":10843,"à½±à¾ĥà½¿à¼ĭ":10844,"à¾Łà¼ĭà¼Ħà¼ħ":10845,"à½İà½Ĥ":10846,"à¼¡à¼§à¼¥à¼£":10847,"à¼ĭà¼ĭà¼ĭà¼ĭà¼ĭà¼¼":10848,"à½¦à½ķà½¥":10849,"à½ĵà½¡à½ĵ":10850,"à½Ģà½łà½Ĥ":10851,"à½Ĩà½ĺà½īà½ĺ":10852,"à½īà½Ķà½ł":10853,"à½ļà½Ľ":10854,"à½ĸà½Łà½Ħà½£":10855,"à½ĸà½ĸà½Ħ":10856,"à¼¡à¼¨à¼¦à¼¨":10857,"à½Ĺà½©":10858,"à¼¤à¼¥à¼łà¼ł":10859,"à½Ĳà½ĺà½Ĳ":10860,"à¾¡à¾Ńà¼ĭ":10861,"à½Łà½¡":10862,"à½¡à½Ħà½łà½ĩ":10863,"à½ĳà½Ķà½łà½¤":10864,"à¾Ĵà½¼à¼ĭà¼ĳ":10865,"Ġà¼Īà¼Ļ":10866,"à¼ĭà¼´à¼´à¼´":10867,"à¼¡à¼¨à¼¥à¼¢":10868,"à¼¡à¼¦à¼¨à¼¤":10869,"à½¢à½Ķà½ĸà½¦":10870,"Ġà¼¡à¼¤à¼§":10871,"à¾¾à¾¾à¾¾à¾¾à¾¾à¾¾à¾¾à¾¾":10872,"à½ĺà½£à½ł":10873,"à½Ķà½ĵà½ł":10874,"à½Ĥà½¦à½Ĥà½ŀ":10875,"à½ļà½¨":10876,"à¾Ļà½±à½¾à¼ĭ":10877,"à½Ĳà½ĺà½¦à½¦":10878,"à¾³à½¼à¼ĭà¼´":10879,"à½łà½Ĳà½ĳà½Ķà½ł":10880,"à½ĸà½¦à½ĺà½¦à½ĵ":10881,"à½Ĺà½ķà½¦":10882,"à½¦à½ĳà½Ĥà½ł":10883,"à½Ķà½ŀà½ĸà½¦":10884,"à½£à½łà½ĳà½¦":10885,"à½Ģà½İà½ł":10886,"à½Ķà½łà½ī":10887,"à½ıà½ĸà½Ľ":10888,"à½ļà½Ĩ":10889,"à¾¡à½¾à¼į":10890,"à¾·à¾±à½²à¼ĭ":10891,"à¾·à¾²à½²à½¾à¼ĭ":10892,"à½ħà½ĳà½ĳà½Ĥ":10893,"à¼¡à¼§à¼¦à¼¥":10894,"à¾ĳà½²":10895,"à¾Ķà¼ĭà¼İ":10896,"à½Ħà½ĺà½£":10897,"à½´à¼ĭà½´à¼ĭ":10898,"à½¡à½ĳà½ĳ":10899,"à½Ķà½¢à½Ĥà½ı":10900,"à½£à½¦à½ĸà½ŀ":10901,"à¾²à½¼à¼įà¼ĭ":10902,"à½£à½ĺà½ĺà½Ĩ":10903,"à¾Ĵà¾²à½´à¼į":10904,"à½Ĥà½£à½Ĩ":10905,"à½ĳà½¢à½Ĥ":10906,"à½²à¼Ķà¼į":10907,"à¼¡à¼¦à¼¦à¼¦":10908,"à½ºà¼ĭà¼ı":10909,"à¾ľà¾ľà¼ĭà¼¼":10910,"à¾ľà¾ľà¾ľà¾ľà¼ĭà¼¼":10911,"à½ĺà½Ģà½¢":10912,"à½¡à½ĳà½ĸ":10913,"à½ĵà½¦à½ĵà½ĺ":10914,"à¾±à¼ĭà¼ħà¼įà¼į":10915,"à¾Ĵà¾±à½´à¼ĭà¼Ħà¼ħà¼į":10916,"à½ĺà½łà½¦":10917,"à¼łà¼©à¼ł":10918,
[...]
