#version: 0.2 - Trained by `huggingface/tokenizers`
à ½
à ¼
à¼ ĭ
à ¾
à½ ¦
à½ Ĥ
à½ ²
à½ ¼
à½ ĳ
à½ ĸ
à½ Ħ
à½ ¢
à½ ´
à½ ĵ
à¾ ±
à½ ł
à½² à¼ĭ
à½ º
à½ £
à½ ĺ
à¾ ²
à½ Ķ
à¼ į
à½Ĥ à½¦
à½ ģ
à½¼ à¼ĭ
à¾ Ĵ
à½´ à¼ĭ
à½ ¡
à½ Ģ
à½ ŀ
à½ ļ
à½ĳ à½Ħ
à¾± à½²à¼ĭ
à½º à¼ĭ
à½ Ĳ
à½ Ĩ
à¾Ĵ à¾±
à½ĸ à½¦
à¾ Ĳ
à½ ħ
à½ ı
à¾ Ł
à½ ķ
à½Ħ à½¦
à½ĵ à½¦
à½Ķ à½ł
à¾± à½¼
à¾ ³
à¾² à½´
à¾± à½º
à½ ī
à¾² à½²
à½ ¤
à½ĸ à½¢
à½ Ł
à¾² à½¼
à½ł à½Ĥ
à¾± à½²
à¼ĭ à¼į
à½ł à½ĳ
à¾ ¤
à½£ à½¦
à½ł à½ĸ
à½ĳ à½Ĥ
à¾ ¡
à½ĺ à½¦
à½ł à½
à¾ ©
à½ĸ à½ħ
à½Ĥ à½ŀ
à¾Ĵà¾± à½´
à¾± à½´
à½ĸ à½ł
à½Ĥ à½ı
à¾ £
à½ĳ à½ĺ
à½Ķ à½¢
à¾ Ķ
à½łà½ Ľ
à½ Ļ
à½ĺ à½Ĳ
à½ĳ à½ĸ
Ġ à½¦
à½ł à½ķ
à¾³ à½¼
à¾Ĳ à¾±à½¼
à¾ Ĺ
à½ĸ à½ŀ
Ġ à½¢
à¾² à½º
à½ĺ à½ļ
à½ §
Ġ à½ĳ
à½ ¨
à¾± à¼ĭ
à¾ ·
â Ģ
à½Ĥ à½ī
à½Ĥ à½ĵà½¦
à¾Ł à½¼
à½ĵ à½Ħ
à½ł à½ģ
Ġ à½£
à½ĺ à½Ħ
à½Ĥ à½ħ
à½ĳ à½Ķ
à½ı à½Ħ
Ġ âĢ
à½ĸ à½Ł
à¾Ł à½º
à½¢ à½Ħ
à½łà½ ĩ
à¼ İ
à¾¤ à¾±à½²à¼ĭ
à¾ ¨
à¾Ĵ à¾²à½²
à½ģ à½Ħ
à½ ĩ
à½Ĥà½¦ à½¢
à¾² à¼ĭ
à¾ Ļ
à½ĺ à½ģ
à½ĸ à½ĳ
à¾Ĵà¾± à½´à¼ĭ
à½ĸ à½Ģ
à¾Ķ à½¼
Ġ à½Ĥ
à¾ ¦
à½¡ à½Ħ
à½ļ à½ĳ
à½ĵ à½ĳ
à½ĳà½ĺ à½Ħà½¦
à½ĸ à½¤
à½ĸà½ħ à½¦
à½Ķ à½¦
à½£ à½ĺ
à¾© à½¼
à¾Ĳ à¾±à½º
Ġ à½ĺ
à¾ «
à¾Ĺ à½¼
à½£ à½Ĥ
à½ī à½ĺ
à½ł à½ļ
à½ Ľ
à¾Ł à¼ĭ
Ġ à½ģ
à¾Ĵà¾± à¼ĭ
Ġ à½ĸ
à¾ Ń
à¾Ĳ à½¼
à¾Ĳ à½´
à½ł à½Ĳ
à½Ĥ à½Ļ
à½ĺ à½īà½ĺ
à¾Ĳ à¾²à½´
à¾¤ à½º
à½łà½Ĥ à½ĵ
à½º à¼į
à¾² à½²à¼ĭ
ã Ģ
à¾¡ à½´
à½ĺ à½Ľ
à½ģ à½ĸ
Ġ à½ŀ
Ġ à½Ģ
ĠâĢ Ŀ
à¾Ĵ à½¼
Ġ 1
à½ģ à½Ĥ
Ġ ãĢ
à¾² à½¼à¼ĭ
ĠâĢ ľ
à½ĸà½¤ à½ĳ
à¾Ĺ à½º
à½ħ à½ĵ
à½ļ à½Ħ
Ġ 2
à¾¡ à½¼
à¾Ĳ à¾±
à½ĸ à½ıà½Ħ
à½ļ à½ĵ
à¾« à½¼
à¾³ à¼ĭ
à¾Ń à¼ĭ
à¾¦ à¾±à½¼
Ġ à½¡
à½ĳ à½Ģ
à¾Ĵ à½¼à¼ĭ
à¾¡ à½ºà¼ĭ
à¾Ķ à¼ĭ
à¾¤ à¾±à½¼
à¾³ à½²
à¾Ĵ à¾²à½´
Ġ à½ī
à½ĺ à½Ĥ
à½ ±
à½Ĳ à½Ħ
à¾³ à½¼à¼ĭ
à¾© à¼ĭ
à½ĸà½¦ à½ĺ
à½Ĥ à½ĵà½Ħ
à½ł à½Ĩ
à¼į "
à½ĸ à½Ļ
à½ĳà½ĸ à½Ħ
à½Ĳ à½ĳ
à½Ĥ à½Ħ
à½ĺ à½ĳ
à¾Ĵ à¾²à½¼
à½Ĳ à½ĸà½¦
à½Ĳ à½Ĥ
à½Ĥ à½Ł
à½Ĥà½¦ à½£
à½ĳà½Ķ à½£
à½ĺ à½ł
à½ķ à½ĵ
Ġ à½ļ
à½Ĥ à½ĵ
à½Ļ à½ĺ
à½ĸà½Ł à½Ħ
à½Ĥ à½ĵà½ĳ
à½¢ à½ĸà½¦
à¾· à¼ĭ
à½ Ŀ
à½ĸ à½ı
à½Ł à½ĳ
à½ĵ à½ĵ
à½± à¼ĭ
à½Ĥ à½£
à¾£ à¼ĭ
à½ĳà½ĺ à½Ĥ
à¾£ à½¼
à½ĺ à½Ĩ
à½Ĥ à½ĳ
Ġ à½ķ
à½ĺà½ģ à½ĵ
à¾Ļ à½²
à¾³ à½º
à¾Ł à½ºà¼ĭ
Ġ2 0
à½ģ à½ĺà½¦
à½ĺà½Ĳ à½ł
à½Ĥà½ŀ à½ĵ
à½Ĥà½ı à½ĵ
ĠãĢ ĭ
à½Ł à½ĸ
Ġ à½Ĩ
à½ĳ à½¢
à½´ à¼į
à½łà½Ĩ à½¢
à½Ħ à½Ħ
à¾¤ à¾±à½²
Ġ à½ĳà½Ħ
Ġ à½Ĳ
à½ĺ à½¢
Ġ à½ĺà½ļ
à¾¤ à¾²à½¼
à¾Ĳà¾± à½ºà¼ĭ
à½ĳà½Ĥ à½ł
à½łà½ĩ à½Ĥà½¦
à½Ĥ à½¡
à½¼ à¼į
à½łà½Ĳ à½ĸ
Ġ à½Ł
ĠãĢ Ĭ
à¾Ĺ à½ºà¼ĭ
ï ¼
à½ĺà½Ľ à½ĳ
Ġ à½Ħ
à½² à¼į
à¾© à½²
à½ł à½Ħ
à½ŀ à½ĸà½¦
à½ĳà½Ģ à½¢
à¾± à½ºà¼ĭ
0 0
à¾Ĳ à¾±à½²
à¾Łà½º à¼į
à½Ĥ à½¤
à¾² à½´à¼ĭ
à½ĺà½ļ à½ĵ
Ġ 3
à½ĸ à½Ĥ
à¾ ¥
à½Ĩ à½ĳ
à¾ ķ
à¾Ĵ à¾²
Ġ à½¨
à½Ĩ à½Ĥà½¦
Ġà½¢ à½Ħ
à¾¡ à½¼à¼ĭ
Ġ à½£à½¦
à½ĺ à½ĩ
Ġ à½łà½ĳ
à½Ĩ à½¦
à¾¤ à½´
à¾Ĳ à½´à¼ĭ
à½Ĩ à½ĸ
à½ħ à½Ħ
à¾³ à½´à¼ĭ
Ġ à½ĵ
Ġ20 1
à¾² à¾Ńà¼ĭ
à¾© à½ºà¼ĭ
à½ĸ à½ĳà½Ĥ
à½ī à½ĺà½¦
à½Ĥà½Ļ à½Ħ
à½¼ à¼İ
à½¢ à½ĸ
à¾¡ à½º
à½Ĥà½ı à½ĺ
Ġ à½§
à½łà½Ľ à½ĺ
à½¦ à½¢
à½ĳà½Ģ à½ł
à½ĸà½ŀ à½Ĥ
Ġ à½ĸà½¢
à½ĺà½ļ à½ĺà½¦
à½¤ à½¢
à¾· à½¼à¼ĭ
à½ĺà½ģ à½¦
à½ĺà½ģ à½ł
Ġ à½ĳà½ĸ
à½¡ à½Ĥ
Ġà½ĳ à½Ķ
à½ĵ à½ĺ
à¾³ à½´
Ġ à½ıà½Ħ
à½Ĥ à½¢
Ġ ï¼
à¾£ à½ºà¼ĭ
à½ĸà½ħ à½ł
à½ı à½ĵ
à½łà½ķ à½¢
Ġ à½łà½ĸ
à½£ à½ĵ
Ġ 4
Ġ (
Ġ 5
à½Ŀ à½Ħ
Ġ à½¤
à¼ Ħ
à¼ ħ
à¼Ħ à¼ħ
à¼Ħà¼ħ à¼İ
à½¡ à½¢
à½¦ à½ł
" à¼Ħà¼ħà¼İ
à¾¤ à¾±
Ġ à½ħ
à½Ĳ à½¢
à¾Ł à½´
à¾Ĵ à½´
à½ĵ à½Ĥ
à½Ħ à½Ĥ
à¾² à¾Ń
à¾© à¾Ńà¼ĭ
à¾¡ à¼ĭ
à½ĺà½Ĳ à½¢
à¾¨ à¼ĭ
à½łà½ĸ à½ĳ
à½ĺ à½ĵ
à½łà½Ĥ à½Ĥ
à½Ĥà½ĵ à½ĺ
à½łà½ĸ à½ĸ
à½ĸ à½ĸ
à½ļ à½ĸ
Ġ à½ĳà½Ĥ
à½ĸà½Ģ à½ł
à½ĺà½ģ à½¢
Ġ à½Ķà½ł
Ġ à½ĸà½¦
Ġ 6
à½Ģ à½ł
Ġ 7
à½ĸà½Ļ à½ĵ
Ġ )
2 0
à¾¡ à½´à¼ĭ
à½ģ à½ł
Ġ à½łà½Ĥ
à½ĸ à½£
à¾© à½º
à½ļ à½Ĥà½¦
" "
à½ĳà½ĺ à½¢
à½Ħ à½£
à¾¤ à½¼
Ġ à½Ķ
à½Ĩ à½¢
à¾Ĵ à¾²à¼ĭ
Ġ à½ł
à¾Ļ à½º
à½¤ à½¦
Ġ 8
à¾© à½²à¼ĭ
à¾Ļ à½¼
Ġ à½Ĥà½ŀ
Ġ à½Ĥà½¦
Ġ ""
à½¡ à½ĵ
à½Ĩ à½ł
à½¨ à½Ħ
à½łà½Ĥ à½ł
à½Ĩ à½Ħ
à½łà½Ĥ à½£
à½ĸà½ħ à½ĳ
à¼ĭ à¼İ
à½Ģ à½¢
Ġ 9
Ġ1 0
âĢ ľ
à¾¦ à¾±
à¾¦ à¾²à½º
à¼ ¡
Ġ à½ĺà½Ħ
à¾¨ à½²
à½Ĥà½ĵ à½ł
à½ŀ à½ĵ
à¾¨ à½¼
à½ĵ à½łà½Ħ
à½Ĥà½¦ à½ĸ
Ġ1 9
à½łà½ļ à½ĺà½¦
à½ĵ à½Ĥà½¦
Ġ à½łà½ķ
à½¼ à¼į"
Ġ à½ĺà½ģà½ł
Ġ à½ĸà½ĳ
Ġ à½Ĥà½¦à½¢
à½¤ à½Ħ
à½ŀ à½Ħ
à½ĸà½Ł à½ł
à½¢ à½ł
à½Ħ à½ĵ
à¼ Į
à½łà½ĳ à½¦
à½Ĥà½ĳ à½ĵ
à½ļ à½£
à½¨ à½¢
à¾· à½¼
à½ĸà½Ģ à½Ĥ
à¾¤ à¾²à½¼à¼ĭ
à½ĺà½Ħ à½ł
à½Ĳ à½ĵ
à½ĺà½ĩ à½£
à½ĸà½¦ à½£
à¾· à½´
Ġï¼ Ī
à½Ĥ à½Ħà½¦
Ġ à½Ĥà½ī
à½§ à½ĵ
à¾¥ à½´
Ġ à½ĳà½ĺà½Ħà½¦
à¾Ĵ à½º
à½ī à½ĵ
à¾¤ à¾²
Ġ à½ĵà½Ħ
à½£ à½Ĥà½¦
Ġ à½¡à½Ħ
à½łà½Ĩ à½ĺ
à½Ĥ à½ł
à½Ĥà½ı à½ĳ
Ġà½ĺ à½īà½ĺ
Ġ à½Ĥà½ħ
Ġï¼ ī
Ġ1 2
ĠãĢ Ģ
à½Ĥà½ŀ à½Ĥ
à¼Į à¼į
Ġ1 1
à½Ł à½¦
à½ģ à½¦
20 1
à¼¡ à¼
à½£ à½ł
à½ģ à½¢
Ġà½£ à½Ĥ
à½ĺà½ĳ à½ł
à¾Ĵà¾±à½´ à¼į
Ġ à½Ĥà½ŀà½ĵ
Ġà½Ĥ à½Ļ
à½ĳ à½Ķà½ł
à½£ à½łà½Ħ
à½¡ à½ł
à¾Ķ à½¼à¼ĭ
à½ĺà½ĵ à½ł
Ġ à½ĺà½Ĳ
à½¢ à½ĺ
Ġ à½Ķà½¢
â ĳ
Ġ à½Ĥà½ĵà½¦
à½ İ
à¾¤ à½¼à¼ĭ
Ġ à½łà½ĩ
Ġà½ĳà½Ķ à½£
à¼ ¢
Ġ à½łà½ģ
à½ĺà½Ĩ à½ĵ
Ġ Â
Ġ à½ļà½ĵ
à½Ĩ à½Ĥ
à½£ à½Ħà½¦
Ġ à½ĵà½¦
à½ħ à½ĳ
à½ĳ à½ĳ
à½ŀ à½£
à¾Ĺ à½²
à½¦ à½Ħà½¦
à½ĳà½Ħ à½¦
ãĢ Ĭ
à¾£ à½´
Ġ1 5
à½Ĳ à½ĺà½¦
à¼ ł
à½ĳà½ĺ à½ł
à¾¥ à½ºà¼ĭ
à½ķ à½£
à¾² à½ºà¼ĭ
à¾« à¼ĭ
à½łà½ļ à½ĺ
à½§ à½ł
à½Ĥà½¦ à½Ħ
à¾¦ à¾²
à½ĺà½Ľ à½ł
Ġ à½ı
à½ķ à½ĸ
à½ļ à½ĸà½¦
à½¢ à½Ĥ
à¾Ĳ à¾±à¼ĭ
à½Ł à½ĺ
à½ĸ à½ĸà½¦
Ġ à½Ħà½¦
Ġ à½ĸà½¦à½ĺ
à¾¨ à½²à¼ĭ
Ġ à½łà½Ľà½ĺ
à½Ķà½ł à½ĺ
à½ĳ à½ĸà½¢
00 0
à½¢ à½ĵ
à½ĸà½ı à½Ĥà½¦
Ġ à½ĸà½ħà½¦
à¼ ½
à½Ĥà½Ł à½ĸ
à½Ķ à½ĳ
Ġà½ĺ à½ĳ
à¼ ¼
à½ł à½ĸà½¢
à½Ħ à½ł
Ġ à½łà½Ĥà½ĵ
Ġ1 3
Ġà½ĺ à½Ľ
à½ĸà½ı à½ĸ
Ġ20 0
à½ĵ à½ĺà½¦
à½łà½ĩ à½£
Ġà½Ĥ à½ĵà½ĳ
Ġ à½ĸà½Ģ
Ġ à½Ļà½ĺ
Ġà½ĺ à½Ĥ
à¾¥ à¼ĭ
Ġà½Ĥ à½£
à½Ķ à½ĵ
à½² à¼İ
à½ĺà½ļ à½¢
Ġ1 8
Ġ à½ĸà½Ł
à¾¡ à½²
Ġà½Ĩ à½ĸ
à½Ģ à½ĵ
à½ĸà½ĳ à½ĺà½¦
Ġ1 7
à½ī à½¢
Ġ à½ĩ
à¾Ĳ à½¼à¼ĭ
Ġ3 0
à½ĺà½Ħ à½Ĥà½¦
Ġ à½ĳà½ĺ
à½łà½Ĩ à½ĳ
à¾· à½²
à½łà½ĩ à½ĺ
Ġ à½ĵà½ĳ
à½¢ à½£
à½Ĳ à½£
Ġ à½ĸà½ħ
Ġ à½Ŀà½Ħ
à½ł à½ĺ
à½Ĩ à½ĸà½¦
à½ĸà½ħ à½Ħà½¦
à½¨ à½ĵ
à¾Ĳ à¾±à½´
à¾¨ à¾±
à½£ à½Ħ
Ġ à½łà½Ľ
Ġà½Ĥ à½ĵ
à½Ĥà½ĳ à½£
à½Ģ à½Ħ
Ġ1 6
à½ĳà½Ķ à½Ħ
à½ĳà½Ķ à½Ĥ
à½łà½ĩ à½¢
Ġ1 4
Ġà½£ à½ĺ
à¾¤ à¾²à½´
Ġ201 6
à½¡ à½¦
à½ĸà½ħ à½¢
à½¡ à½Ħà½¦
à¾¤ à¾²à½²
à½łà½ķ à½Ĥà½¦
à½ŀ à½ł
à½ł à½ĳà½Ħ
à½¦ à½Ħ
à¾¨ à¾²à¼ĭ
Ġà½Ĥ à½Ł
Ġà½ĸ à½Ļ
Ġ à½łà½ķà½¢
à½¦ à½ĺ
à½Ĥà½ŀ à½¦
à¾¦ à¾±à½²
à½ĺ à½ĳà½Ħà½¦
à½łà½ĳ à½ĺ
à¾Ĳ à¾²
à½ļ à½¢
ï¼ ī
à½łà½ĩ à½ĸ
Ġ201 7
à¼İ "
à¾ Ģ
à½Ĥ à½¡à½Ħ
Ġ à½ļà½ĳ
à½Ķà½ł à½Ħ
à½ī à½Ĥ
à½Ķ à½İ
Ġ à½ĳà½ĺà½Ĥ
à¼ĭ à¼ĭ
Ġà½Ĥ à½Ħ
à¾± à½´à¼ĭ
à½¢ à½¦
à½Ĳ à½ł
Ġ à½łà½ļ
à½ĸà½¤ à½ĺà½¦
9 7
à½¢ à½Ĥà½¦
Ġ à½ķà½ĵ
Ġ à½Ŀ
à½Ĥà½ı à½Ħ
Ġ201 8
à½Ĥ à½ĺ
Ġ à½Ĥà½ı
Ġà½¡ à½ĵ
à½¤ à½ĵ
Ġà½ĸ à½ıà½Ħ
Ġ à½ļà½Ħ
à½łà½Ľ à½ĳ
Ġà½Ĥ à½ĳ
Ġ à½ĸà½ŀ
Ġ2 5
à¼ £
à½Ĥà½¡ à½¦
à½º à¼İ
à¾ķ à½²à¼ĭ
Ġ201 5
âĢ Ŀ
à½Ħ à½¢
Ġà½Ĥ à½ĵà½ĺ
à½Ĥà½¤ à½ĺ
à½ĵ à½¢
âĢ Ķ
1 9
à¾Ĳà¾± à½¼à¼ĭ
à½ķ à½¢
Ġ .
à½Ĥà½Ł à½ł
ï¼ Ī
Ġ2 4
Ġà½Ĥ à½Ħà½¦
à¾² à¼į
Ġ20 20
à¼¢ à¼ł
Ġ201 9
à¾¤ à½´à¼ĭ
à½ĸà½¦ à½ĳ
Ġ à½ĳà½ĸà½Ħ
Ġ1 00
Ġ2 1
à½ĸ à½Ħ
à¼ĭà¼į "
à¾¦ à¾²à¼ĭ
à½ı à½ł
à½ķ à½Ĥ
à¾« à½´
Ġ à½łà½Ĳà½ĸ
Ġà½ĸ à½ĳà½Ĥ
Ġà½ĳ à½Ģà½¢
Ġà½Ĥà½Ļ à½Ħ
Ġà½Ĥ à½¡
Ġ à½ĺà½Ĳà½ł
à½ĳ à½£
Ġ7 0
Ġ2 2
Ġ2 3
à½Ĥà½¡ à½Ĥ
à½¢ à½¢
ĠÂ »
Ġ2 8
Ġ âĳ
à½Ħ à½ĺ
à½łà½ĳ à½ĸà½¦
Ġ2 6
Ġà½ĳ à½¢
Ġà½ĳ à½Ģà½ł
Ġ( )
à½ĸà½Ļ à½£
à½ī à½£
à¼ ¥
Ġà½ŀ à½Ħ
à½Ĥà½ī à½ĵ
Ġ à½łà½Ĩà½¢
à½Ĥà½¦ à½ĵ
à¼ ¤
à½łà½ĳ à½ĸ
à¾ķ à½¼
Ġ5 0
à¾¨ à½´
à½ĸà½ł à½ĺ
Ġà½ĺ à½Ĩ
à½¡ à½ĸ
à¾Ģ à¼ĭ
Ġà½Ģ à½ĵ
à½łà½ĸ à½ł
à¼ ©
Ġ4 0
Ġ à½Ĥà½ıà½ĵ
à½ĳ à½Ķà½¢
Ġà½Ĥà½ĵ à½ł
à¼ ¨
Ġ3 1
Ġ2 7
Ġ [
à¼ §
Ġà½Ĥ à½¤
à¼ Ķ
3 0
Ġ à½łà½Ĳ
à½´ à¼İ
à¼ ¦
à½¢ à½ĺà½¦
à¾¨ à½¼à¼ĭ
à½ĸà½¦ à½Ĥà½¦
ĠãĢĭ ãĢĬ
à½Ĥ à½ĳà½Ħà½¦
Ġà½ĵ à½ĺ
à½ĸà½¦ à½Ħ
à½Ĥà½Ł à½ĵ
ĠÂ ·
Ġà½Ħ à½ł
à¾²à½¼ à¼į
à½ķ à½ĺ
Ġà½ŀ à½ĸà½¦
à½ĸà½ŀ à½ĳ
à½łà½ļ à½¢
à½Ĥ à½ĳà½ĺ
à½ĺà½Ħ à½Ĥ
à½ħ à½Ĥ
à¾Ĳ à¾²à¼ĭ
Ġ à½ĸà½ł
à½ĸ à½ĺ
à¾Ķ à½´
Ġ à½Ĳà½Ħ
à½¤ à½Ĥ
à¾± à½¼à¼ĭ
Ġ à½Ļ
à½ĺ à½£
à½¨ à½ł
à½ļ à½ł
Ġ2 9
Ġ6 0
1 0
Ġ19 8
ĠÂ «
à¾¦ à¾²à½´
à½ŀ à½Ĥ
à½ı à½Ĥ
à½ Ĭ
à½Ŀ à½ĵ
à½łà½Ĳ à½ĳ
Ġ 0
à½Ĥà½ĳ à½ĺà½¦
Ġà½ĵ à½Ĥà½¦
Ġà½ĸà½Ļ à½ĵ
à¾Ĵ à¾²à½º
à½ł à½Ĥà½¦
à½ĳà½ĺ à½ĵ
à½ĺ à½ī
Ġà½¤ à½Ħ
Ġ19 9
. .
à½Ķ à½Ħ
Ġ ]
ãĢ ģ
3 2
à½ Į
Ġà½§ à½ĵ
Ġ à¼¼
à½łà½Ĥ à½Ħà½¦
à¼¡à¼ ©
à½£ à½¢
à½ĵ à½ł
à½łà½Ĩ à½Ħ
à¾ķ à½ºà¼ĭ
Ġ à½ģà½Ħ
1 7
Ġ à½¤à½¢
à½ĳà½Ĥ à½¢
à½łà½Ĥ à½¢
Ġ à½ĺà½ģà½¦
1 2
à¾Ķ à¼į
à½¡ à½£
Ġ201 4
5 8
Ġ à½ĸà½Ģà½ł
à½¦ à½ĳ
Ġ à½ĺà½ģ
à¾Ĳ à½ºà¼ĭ
Ġà½ģ à½Ĥ
à½ ¾
à¾Ĳ à½º
Ġà½ĺà½ļ à½ĵ
à¾± à¼į
Ġà½łà½ĩ à½¢
Ġà½ĵ à½Ĥ
8 9
à¾Ĵ à¼ĭ
à½¡ à½ĺà½¦
Ġ ï
ĠâĢ Ļ
Ġà½Ħ à½£
à½£ à½ĸ
Ġ à½ĸà½ħà½ł
1 6
2 00
à½Ĩ à½ĺ
5 0
à¾¥ à½´à¼ĭ
Ġ8 0
à½ģ à½ĺ
à¾²à½² à¼į
Ġà½łà½ĳ à½¦
6 0
Ġà½ĸ à½Ĥ
à½łà½ĸ à½Ħà½¦
Ġà½¢ à½ĸ
à¼Į à¼İ
à¾¦ à¼ĭ
à½ķ à½ł
à¼¢à¼ł à¼¡à¼
Ġ à½ĳà½Ĥà½ł
ĠâĢ ĺ
Ġ à½ĸà½Łà½ł
à½łà½ļ à½£
à½Ł à½Ħà½¦
2 5
Ġ20 00
à½ĸà½Ļ à½ł
à¾¨ à¾²
Ġà½ĺ à½¢
à½Ĳ à½ĸ
à¾¨ à¾±à½´
à¾« à½²
à½ĸà½ł à½Ħ
à½ĸ à½ĵ
à½ĸà½Ģ à½¢
Ġà½¦ à½Ħà½¦
à¾· à½´à¼ĭ
201 6
à½ĸà½¦ à½ĺà½¦
Ġ à½ĵà½ĵ
à½ĺà½Ħ à½¢
à¾Ł à½¼à¼ĭ
Ġ à¼½
à¾Ń à¼į
à½ļ à½Ħà½¦
à½łà½ĸ à½Ĥ
Ġà½Ķ à½ĳ
Ġ à½ĺà½ģà½¢
Ġà½ĺà½Ħ à½ł
Ġ à½Ĳà½ĳ
à¾Ł à½²
Ġà½ĺ à½ĩ
à½Ĥà½ħ à½ĵ
à½ĳ à½ĵ
Ġà½ĳ à½Ķà½ł
à¾¤ à¾²à½º
à¾« à½²à¼ĭ
Ġà½Ł à½¦
Ġ à½Ĳà½ĸà½¦
Ġà½¡ à½¢
à½Ĥà½¡ à½¢
à¾¥ à½²
à½Ĥà½ī à½ł
Ġà½Ĥà½¦ à½Ħ
ĠâĢ Ķ
à½łà½ķ à½Ħ
Ġà½ī à½ĺà½¦
à½Ĩ à½ĵ
4 4
Ġ3 00
à¾¦ à½´
Ġ A
Ġï¼Ī ï¼ī
3 3
ãĢ ĭ
Ġà½Ĥà½¤ à½ĺ
7 5
- -
7 0
à½łà½ķ à½Ħà½¦
Ġ à½ĺà½Ĳà½¢
à½¾ à¼ĭ
Ġ3 5
Ġà½ģ à½ĺà½¦
6 6
à½¼à¼İ "
Ġ à½Ĥà½ıà½ĺ
1 1
à½ĸà½Ģ à½£
201 7
Ġà½ĸ à½ı
ĠâĢĿ âĢľ
8 8
à½¦ à½Ĥ
201 8
â Ĵ
à½Ķ à½Ĥà½¦
à¾¤ à¼ĭ
à½¦ à½ĵ
à¾£ à¼į
Ġ1 000
2 8
Ġà½ĳ à½Ģ
à¾Ĵ à½´à¼ĭ
Ġ /
à½§ à½Ħ
à¾±à½² à¼į
à½ĸà½¤ à½ł
à½łà½Ĳ à½Ĥ
Ġ4 5
à½ĺ à½ĵà½ĵ
Ġ9 0
Ġ à½ħà½ĵ
1 4
ï¼ ļ
à½ĳà½Ĥ à½Ĥ
Ġ à½Ĳà½Ĥ
à½ĺà½Ĥ à½¢
Ġ5 00
à½Ĥ à½ĳà½Ħ
à½ĸà½ĳ à½ł
à¾Ĳ à¾±à½²à¼ĭ
7 7
à½¼à¼ĭ à¼İ
Ġ3 000
1 3
Ġ201 3
9 0
à½ ¿
à½łà½ĩ à½ł
à¾£ à½º
à½ĺà½Ħ à½£
à¼¡à¼ ł
à½Ł à½Ĥ
à½ĳà½ĸ à½ĵ
Ġ à½ħà½Ħ
1 5
Ġ3 2
à¾ ľ
à¾¦ à½¼
à¾Ĵ à¾²à½¼à¼ĭ
à½Ĥà½ĵ à½Ĥ
Ġà½Ħ à½Ĥ
Ġ201 2
201 9
à¾· à¼į
à¾© à½´
âĢ ¦
à¾Ĳ à¼ĭ
201 5
Ġ3 3
Ġ à½ĳà½ĺà½¢
Ġ3 6
Ġ à½Ĥà½¦à½£
2 2
à¾Ł à¼į
9 3
Ġ P
1 8
âĢĶ âĢĶ
ĠâĢ ¦
à¾¥ à½º
à¾£ à½¼à¼ĭ
à¾Ĺ à½ºà¼į
à½łà½ĳ à½¢
Ġà½ĸ à½£
3 4
Ġ3 4
3 5
Ġà½Ĩ à½Ħ
9 2
Ġ3 8
à¾Ļ à½ºà¼ĭ
à½Ĥà½ŀ à½£
Ġà½¡ à½¦
à½ł à½¢
à¾· à½ºà¼ĭ
2 1
a n
à¾Łà½º à¼İ
Ġ à½łà½Ĥà½Ĥ
à½Ĥ à½ĸ
Ġà½Ĥ à½¡à½Ħ
à½Ĥà½¤ à½Ĥà½¦
Ġà½ĺà½ĳ à½ł
2 4
Ġà½łà½ĸ à½ĳ
20 20
à½ĺà½ĵ à½¢
Ġ à½ıà½ĵ
à¾± à¼İ
Ġ201 0
Ġ5 000
Ġà½ĺ à½ĵ
à½Ģ à½¦
ï¼ ħ
Ġà½ĺà½ļ à½ĺà½¦
à½Ĩ à½łà½Ħ
à¾² à¼İ
à½łà½ļ à½Ħ
âĳ ł
à½¤ à½ĺ
à¾ °
Ġ à½ĸà½¤à½ĳ
Ġà½Ķ à½İ
Ġï ¹
Ġà½łà½ĩ à½ĺ
ĠâĢ¦ âĢ¦
Ġà½Ĥà½Ł à½ł
ĠâĢľ âĢĿ
7 6
à¾¥ à½²à¼ĭ
à½¤ à½ł
Ġà½ĺ à½ł
à½£ à½ĳ
Ġ à½łà½Ĩ
ï¼ Į
Ġà½¨ à½¢
Ġ17 7
Ġ4 00
Ġà½£ à½ĵ
à¾±à½² à¼İ
ï ¹
à¾³ à¼į
à¾· à½²à¼ĭ
à½ĺà½Ľ à½Ħà½¦
à½Ļ à½ĵ
à¾· à¼į"
9 6
Ġ à½łà½Ĩà½ĺ
à½Ĥà½Ł à½¢
2 3
Ġà½ŀ à½£
Ġà½łà½Ľ à½ĳ
à½ĸà½Ģ à½¦
Ġ C
à½Ł à½ł
à¼ ·
ãĢģ ï¼ļ
Ġà½¨ à½ĵ
à¾¡ à½ºà¼į
8 0
à½Ĳ à½ĺ
Ġ19 5
à¾¨ à¾±à½¼
à¾Ļ à½²à¼ĭ
à½ »
Ġà½Ĥà½ĳ à½ĵ
à½± à¼į
Ġà½¦ à½Ħ
Ġ6 5
Ġà½ķ à½£
c o
Ġ à¼¢
Ġ3 7
Ġà½¨ à½Ħ
4 0
à¾Ĵà¾± à½¼
à¾¨ à½º
Ġà½Ĥ à½¡à½¦
à½ķ à½¦
Ġà½Ĳ à½ł
6 5
Ġ201 1
â ģ
Ġ5 5
âģ µ
à½Ĥà½ĳ à½ł
ĠâĢĿ [
Ġ à¼¡à¼
à½Ł à½Ĥà½¦
à¼¢à¼ł à¼ł
2 6
à½ĸà½Ļ à½¦
à¼ĭ à¼¼
Ġà½ł à½ĸà½¢
Ġ9 5
Ġà½łà½ķ à½Ĥà½¦
Ġ4 3
2 7
ĠãĢĭ (
à¾© à¾Ń
Ġà½ĳ à½ĳ
à½Ĥà½¦ à½ł
à½łà½ĩ à½Ħ
à½¤ à½ĳ
Ġ3 9
âĢ ĭ
Ġà½ĸ à½ĵ
à½Ŀ à½ł
à¾± à¾Ģà¼ĭ
Â «
" âĢĭ
Ġ7 5
2 9
h a
Ġ -
à¾Ł à½²à¼ĭ
âĳ ¡
à½ł à½ĵ
à¾« à½´à¼ĭ
4 6
à¾²à¾Ń à¼į
Ġ15 0
ãĢ Ĳ
ĠãĢ ĳ
à½± à½²à¼ĭ
ĠâĢ ¢
Ġ4 000
à¾±à½º à¼į
Ġ19 7
Ġ4 6
4 5
co m
3 6
à¾Ĵà¾± à¼į
Ġ4 8
à½ĸà½Ĥ à½¢
Ġ à¼¡à¼©
à½ĸà½ħ à½Ĥ
à¾ľ à½²à¼ĭ
à½ĵ à½Ħà½¦
Ġà½ķ à½Ĥ
Ġ1 20
Ġà½Ĩ à½¢
à¾¨ à½ºà¼ĭ
Ġà½łà½Ĥ à½£
Ġ5 6
à½Ļ à½Ĥ
à½» à¼ĭ
Ġà½¨ à½ł
Ġ4 4
9 8
Ġ à½Łà½ĸ
à½Ł à½Ħ
Ġ4 7
i n
à½± à½ºà¼ĭ
à½Ĥà½¡ à½ł
à½§ à½ĺ
à½ķ à½Ħà½¦
Ġ200 9
Ġ6 00
à¼ł à¼ł
9 5
3 8
Ġ G
à½ŀ à½Ĥà½¦
à¼ĭ à¼½
Ġ :
Ġà½¡ à½ĸ
8 2
à¾Ĵà½¼ à¼į
Ġ p
8 5
à½ĺ à½Ħà½¦
à½± à½´
Ġà½ĺà½Ľ à½ĳ
Ġà½łà½ĳ à½ĺ
Ġ âĴ
Ġà½Ĩ à½Ĥ
Â ·
Ġ à½ĸà½Łà½Ħ
Ġ8 00
8 6
à¾© à½ºà¼į
à¼¡à¼ ¢
4 2
e r
à½łà½ĳ à½ĵ
à¾© à¼į
_ _
à¾Ĵà¾² à¼į
Ġà½Ĥà½ħ à½ĵ
8 7
9 9
Ġà½ŀ à½ĵ
Ġ200 6
Ġ à½ĺà½ģà½ĵ
Ġ à½ĸà½¤
201 4
âĳ ¢
Ġ. ..
à½ģ à½ĳ
4 7
à½łà½Ĥ à½ĳ
Ġ T
Ġ4 2
Ġ B
à½ħ à½¢
Ġ à¼¡
à½ħ à½ł
4 8
Ġ200 8
à½ ª
o n
Ġà½łà½Ĥ à½ł
ï¼ ½
Ġà½¦ à½ł
à¾· à½º
3 1
Ġà½Ĥ à½Łà½ĸ
Ġà½ķ à½¢
à¾Ļ à½´
Ġ4 1
6 9
ĠãĢĭ ï¼Ī
Ġ15 00
Ġà½Ĥ à½¢
4 9
Ġ à¼£
Ġ0 97
Ġ S
à½± à½²
Ġà½Ł à½Ħà½¦
Ġï¹ Ļ
Ġ à½ĳà½ĺà½ł
à½ĺà½ģ à½£
3 7
à¾Ĵà¾± à½²
3 9
à½ĩ à½Ĥ
Ġà½§ à½ł
à½ģ à½Ħà½¦
à½łà½ļ à½ĸ
Ġ5 7
Ġ5 4
Ġ à½ĸà½Ģà½Ĥ
Ġ15 5
à¾° à¼ĭ
5 5
6 7
Ġà½łà½ĸ à½ł
Ġ à¼¢à¼łà¼¡à¼
Ġ5 8
97 0
à½łà½ĳ à½ł
Ġ11 0
à½¢ à½Ħà½¦
à¾¦ à½´à¼ĭ
Ġ200 5
à½¤ à½£
Ġà½Ģ à½¢
z ha
Ġ8 5
Ġ9 8
Ġâĳ ł
à½ĳà½Ķ à½Ħà½¦
6 3
à¼¡à¼ ¤
ï¹ ļ
à½ķ à½Ħ
30 9
Ġ200 7
à½ŀ à½¢
Ġà½Ĥà½ī à½ĵ
Ġ6 000
à½Ļ à½Ħ
âĳ £
Ġà½Ĥ à½¡à½Ĥ
Ġ7 70
ãĢ ĳ
Ġà½Ł à½ĺ
Ġ à½łà½Ĩà½ĳ
à½ĩ à½ł
Ġà½ĺà½Ľ à½ł
6 8
à½ĳà½Ħ à½Ħà½¦
Ġ5 2
à¾ķ à½º
Ġ9 9
à½± à½¼à¼ĭ
à½ĸà½Ģ à½Ħ
à½Ĥà½¡ à½ĸ
Ġ5 3
Ġà½łà½ĩ à½ĸ
à½ĺà½ĳ à½¦
à¼¡à¼ §
4 1
à¾¥ à½¼à¼ĭ
à½ Ĺ
à¾± à¾Ńà¼ĭ
à½ĺ à½ĺ
à½ĸà½¦ à½Ħà½¦
201 3
à½Ĥà½¤ à½Ĥ
Ġ7 4
à½ĸà½¤ à½¦
Ġà½ĸ à½ĸ
Ġ4 9
6 4
Ġ D
à¼¡ à¼¡
58 32
Ġ177 970
88 309
Ġ177970 88309
à½ĸà½Ģ à½ĸ
à½Ĥà½ĳ à½Ĥà½¦
à½ģ à½£
Ġ770 5832
à¼ĭà¼ĭ à¼ĭà¼ĭ
Ġ --
à½ĸà½¤ à½Ĥà½¦
Ġ5 1
à½ĳà½ĸ à½£
Ġà½Ģ à½ł
à¼¡à¼ ¦
97 4
89 3
à½Ĥà½¦ à½¦
à½ĸà½¤ à½£
97 6
ĠâĢĶ âĢĶ
Ġà½£ à½Ħ
Ġâĳ ¡
Â ³
Ġ ?
à¼¡à¼ £
à½§ à½¢
Ġ) ãĢĭ
Ġ à½Ľ
ï¼ Ĳ
10 1
à½Ĥà½ı à½ł
Ġà½ĸà½¦ à½Ħ
Ġà½Ħ à½ĵ
Ġà½Ĩ à½ĳ
Ġ200 4
Ġ18 60
à¼¡à¼ ¥
à¾¤ à¾²à½²à¼ĭ
Ġ6 6
Ġ... ..
Ġ I
à½ĺà½ł à½Ħ
à½Ĥ à½ģ
à½²à¼ĭ à¼ĭ
à½¨ à½ĺ
Ġà½Ĳ à½£
à¾¦ à¾²à½²
Ġà½ģ à½ĺ
Ġà½ļ à½ł
8 4
Ġà½ĳ à½Ķà½¢
97 89
9789 893
Ġï¼ ļ
ãĢ Ģ
Ġà½Ĥà½Ł à½ĵ
à½ī à½Ħ
6 2
à½ī à½ł
Ġ1860 9789893
Ġà½łà½ĳ à½ĸ
à¼· à¼ĭ
à½¼ à½¾à¼ĭ
à½¤ à½Ĥà½¦
Ġà½£ à½ł
âĳ ¤
Ġ200 3
à¾· à½¼à¼į
9 4
Ġà½Ĳ à½¢
Ġ7705832 28
Ġà½Ĳ à½ĵ
à½ĸà½Ł à½¦
a r
3 974
à½ĺà½ł à½ĺ
3974 201
Ġà½¡ à½Ĥ
Ġ6 8
17 9
Ġà½ļ à½Ĥà½¦
à½ĸà½Ĥ à½ĺ
âĳ ¥
77 1
Ġ7 00
Ġ9 7
44 4
0 5
Ġà½ĸà½ĳ à½ĺà½¦
à½Ĥ à½ĳà½ĸ
à½Ħ à½ĳ
à½ĺà½ļ à½Ħ
Ġà½ĺ à½ĵà½ł
à¾²à½¼ à¼İ
Ġ16 0
à½łà½ķ à½ĵ
Ġ200 2
6 1
Ġà½¢ à½Ĥ
Ġà½ī à½Ĥ
17 66
Ġ6 7
Ġ6 101
90 58
Ġ zha
30 92
à¼¡à¼ ¨
25 3974201
75 771
Ġ155 976
179 93
9058 444
3092 1766
Ġ155976 75771
Ġ30 9058444
Ġ6101 17993
à½łà½ģ à½Ħ
Ġ8 000
à¾± à¾Ģ
à½ĺ à½īà½ĵ
à½Ĥà½Ļ à½Ĥà½¦
t i
à¾³à½¼ à¼į
Ġ à¼¤
Ġ6 2
à¾³ à½ºà¼ĭ
l a
à¾¦ à½²
à½Ŀ à½¢
à½ ¥
à½Ģ à½£
à¾© à½²à¼į
Ġ M
Ġà½ĸ à½Ħ
Ġà½ī à½£
32 9
à½łà½Ĥ à½Ĥà½¦
à½ĸà½ħ à½Ĥà½¦
à¾¨à¾± à½´à¼ĭ
Ġ13 9
" âĢľ
à¾Ĳà½´ à¼į
4 3
32 2
5 7
Ġ7 2
âĳ ¦
s h
201 2
0 1
Ġ12 00
à½Ł à½ĵ
Ġà½ī à½ĵ
à½º à½ºà¼ĭ
à½Ĥ à½Ĥ
à½ļ à½Ĥ
o r
Ġ13 0
Ġ..... .
à¾³ à½´à¼į
à½ĺà½ļ à½£
Ġ8 1
à¾Ĳ à¾²à½¼
7 4
Ġ20 30
l e
Ġà½Ĥà½ī à½ł
Ġï¼ī ãĢĭ
à¼ µ
à½Ķ à½ĸ
8 3
Ġà½£ à½Ĥà½¦
à½Ĥà½ĵ à½Ħà½¦
329 322
5 3
Ġà½Ĩ à½Ĥà½¦
Ġ9 6
à¾¨à¾± à½¼à¼ĭ
/ /
à½ģ à½ĵ
à¾¤ à¾²à¼ĭ
Ġ5 9
Ġà½Ĥà½ŀ à½¦
" ãĢĬ
à½łà½Ĩ à½£
33 3
à½¦ à½¦
à¼ĭà¼İ "
e n
Ġà½Ĳ à½ĺà½¦
Ġà½łà½ĩ à½Ħ
9 1
Ġ à¼¥
Ġ18 0
Ġ6 4
8 1
5 6
Ġà½ĳ à½£
Ġà½ĺà½Ħ à½Ĥà½¦
Ġà½ĺ à½Ĥà½¢
Ġà½ĵ à½¢
à¾± à½±à¼ĭ
ĠâĢĿ (
Ġ7 7
âĳ §
Ġ14 0
Ġâĳ ¢
Ġ W
âĳ ¨
Ġà½ļ à½Ħà½¦
Ġ200 1
à¼£ à¼ł
Ġ177 30921766
ĳ ï¼
Ġ31 8
5 9
Ġ7 1
Ġ n
Ġ à½Ħà½Ħ
à½² à½²à¼ĭ
Ġà½ŀ à½Ĥ
Ġ8 2
Ġ8 8
Ġ à¼¢à¼łà¼ł
ãĢ Ĥ
Ġà½ı à½Ĥ
à¾²à½´ à¼į
Ġ6 3
à¾ķ à½´
0 3
0 4
à¾ ĥ
Ġï¼ »
Ġ7 3
à½Ĥà½ı à½ĺà½¦
âĢ ĺ
5 4
Ġà½¢ à½¦
5 1
à½łà½ĳ à½Ĥ
à½Ļ à½ł
Ġ8 3
à½ĳ à½Ĥà½¦
à½Ĥà½Ļ à½Ĥ
Ġ7 6
Ġ45 00
à½ĳ à½ĸà½ł
à¾¨ à½´à¼ĭ
à¾¦ à½²à¼ĭ
Ġ8 6
Ġà½Ħ à½¢
à½Ĥà½Ł à½¦
à½ĸà½¤ à½ĺ
0 2
à¼¡à¼© à¼©
Ġ13 00
5 2
Ġ7 8
97 2
Ġ8 7
0 7
o o
à¾¡ à¾²à¼ĭ
Ġà½Ĳ à½ĸ
à¾ ļ
Ġ6 1
ï¼Į ï¼Į
âĢ ¢
ĠâĢĿ ï¼Ī
Ġ K
Ġ9 3
7 8
à½Ĥà½ħ à½¢
Ġï¹ ļ
Ġ à¼§
Ġà½§ à½Ħ
Ġà½ŀ à½ł
201 0
Ġà½ł à½Ĥà½¦
Ġ à¼¦
Ġ8 4
Ġà½ļ à½£
ï¼ »
Ġà½ĺà½Ħ à½£
à¼¢à¼łà¼¡à¼ ¨
Ġ097 16
Ġ E
Ġà½ĺ à½£
Ġ199 5
89 0
Ġà½¡ à½Ħà½¦
âĳ ©
7 2
7 3
à½ĳ à½ĺà½¦
Ġà½łà½ĸ à½ĸ
à½İ à½ł
Ġ198 6
Ġ199 4
Ġ6 9
Ġ09716 329322
à½ĸ à½ª
Ġ198 7
à¼¡à¼© à¼¨
ï¼ İ
Ġ7 000
Ġ8 9
âģµ âģµ
à¾¨ à¾²à½º
0 8
Ġï¼ī "
Ġâĳ £
à¼¢ à¼¨
c n
t a
Ġ L
Ġ9 2
Ġ198 5
w w
Ġà½ĳà½Ķ à½Ħ
Ġ19 97
à¾Ĵà¾± à½º
à½Ĥà½ı à½¢
Ġ25 00
Ġ199 8
Ġ à½ĸà½ħà½ĳ
à½ĺ à½ĳà½Ħ
e s
à½łà½ģ à½¢
Ġà½£ à½Ħà½¦
Ġà½ĺ à½ī
201 1
à½´ à¼¼
Ġà½Ļ à½ĵ
Ġ20 22
Ġ H
à½Ĥ à½Ģ
e t
Ġà½ī à½¢
Ġ7 9
Ġà½łà½ĩ à½ł
Ġà½ĺà½Ĩ à½ĵ
Ġ198 8
66 890
Ġ139 972
Ġ139972 66890
7 1
Ġâĳ ¤
Ġ N
P P
à½Ľ à½ĺ
à¼¢à¼łà¼¡à¼ §
i c
à¾ķ à½²
Ġ20 21
Ġ35 00
à½ı à½¢
Ġ199 9
à½Ĳ à½Ĥà½¦
à¾²à½º à¼į
Ġ13 70
Ġ9 4
à½Ĥà½ħ à½£
à¾Ļ à¼ĭ
à¼¢ à¼¥
Ġ199 0
à¾ ª
Ġà½¦ à½¢
Ġ198 2
i a
Ġà½ŀ à½¢
Ġà½ı à½ł
Ġ à½ĸà½ŀà½Ĥ
à½§ à½ĸ
Ġ198 0
n g
Ġà½Ĩ à½ĺ
ãĢģ ãĢģ
Ġà½¢ à½£
à½Ĥà½ħ à½ĳ
Ġ à½łà½ļà½ĺà½¦
__ __
97 34
à¾² à½±à½²à¼ĭ
à½ĳà½ĸ à½ĸ
Ġ17 0
ï¹ Ļ
Ġ1370 9734
Ġ13709734 333
à½ĺ à½İ
à½ĸà½ŀ à½¢
Ġ199 3
à½§ à½ĳ
à½łà½Ĳ à½ĺ
à¼¢ à¼©
âģµ Â³
Ġà½¤ à½ĵ
ĠâĢ¦âĢ¦ âĢĿ
7 9
Ġ3 50
âĢľ âĢĿ
Ġ18 00
à¾¡ à¼į
à¾¤ à¾±à½´
r a
Ġ199 6
à¾¡ à½²à¼ĭ
200 8
Ġ197 8
Ġ100 00
h t
o f
à½¦ à½łà½Ħ
. ãĢĬ
à½¤ à½Ħà½¦
1 97
d o
Ġ à¼¡à¼ł
à½Ĥ à½Ĩ
Ġà½Ĥ à½ĵà½Ħ
] [
à¾±à½²à¼ĭ à¼ĭ
ĠãĢ ī
Ġ9 1
Ġ198 3
0 9
3 75
à¾ µ
s a
à¾¡à½´ à¼į
Ġà½Ĥ à½ĳà½ĺ
Ġ199 2
à¼¢à¼łà¼¡à¼ ¦
t e
à¾ĥ à¼ĭ
Ġà½£ à½ĸ
D P
Ġ à¼¢à¼ł
Ġà¼¡à¼© à¼¨
Â ¹
à½łà½ļ à½Ĥ
Ġâĳ ¥
Ġà½ĺà½ģ à½£
à¼ĭ "
Ġà½łà½ĸ à½Ħà½¦
Ġ à¼¨
à½² à¼¼
Ġ9 00
à¾² à¾Ģà¼ĭ
Ġà½ī à½Ħ
Ġ20 25
Ġ10 5
0 6
à½ı à½¦
Ġ198 9
Ġ s
à½ķ à½ĸà½¦
Ġ2 20
Ġ198 1
200 6
Ġà½ĺà½ĩ à½£
Ġ F
à½ĳà½Ķ à½Ĥà½¦
Ġà½ģ à½¦
à½ĺà½ĵ à½ĸà½¦
à¼¢ à¼¤
Ġ199 1
Ġ195 9
à½¼ à½¼à¼ĭ
à¾² à¾Ģ
à¾Ĵà¾± à½ºà¼ĭ
Ġà½ļ à½ĸ
an g
à½±à½´ à½¾à¼ĭ
Ġ à½Ķà½¦
à½¨ à½Ĥ
à½ĸà½¤ à½Ħ
à½ĸ à½Ĥà½ĳ
à¾Ĳà¾± à¼į
Ġà½ĸà½ħ à½¢
Ġ198 4
200 9
i s
à½łà½ĸ à½£
Ġ097 1
1 00
î Ģ
à¾Ĵ à½ºà¼ĭ
à¾¨ à¾²à½¼
à½º à½º
Ġ20 35
Ġ11 00
ãĢĬ ãĢĭ
a l
Ġâĳ ¦
Ġâĳ §
à½²à¼ĭ à¼¼
r o
Ġ25 0
à¾ľ à½²
Ġà¼¡à¼© à¼©
Ġà½ĺà½Ħ à½¢
Ġà½Ŀ à½ĵ
Ġà¼½ "
à½¢ à½ĳ
à½łà½Ľ à½¢
à¼¢ à¼¦
u s
Ġ10 8
à½ĸà½ĳ à½¢
à½Ĥà½¡ à½ĺ
à¼¢ à¼£
à¾Ń à½¼à¼ĭ
à¼¢ à¼§
Ġà½łà½Ĩ à½£
à¼µ à¼ĭ
à½ĸà½ı à½ĸà½¦
à¾Ĵà¾±à½´ à¼İ
à½łà½Ĩ à½ł
Ġ10 9
c h
97 3
à½Ĺ à½Ħ
à¾ª à¼ĭ
à½ĸ à½Ľ
Ġ"" ""
Ġ23 0
Ä ģ
à½Ĥà½ı à½Ĥ
à½łà½ķ à½Ĥ
ĠãĢĬ ãĢĭ
Ġï¼ Ĵ
Ġà½Ķ à½Ĥà½¦
e l
à½ķ à½ĳ
Ġà½ļ à½ĸà½¦
-- --
Ġà½ĸà½ı à½ĸ
Ġà½£ à½¢
i an
à½ ½
12 6
Ġ îĢ
à¾¦ à½ºà¼ĭ
t h
y a
à½´à¼ĭ à¼ĭ
u l
à½Ĥà½¤ à½¢
ĠG DP
Â¹ Â³
Ġ à¼©
à¼ĭ à¼Ķ
à½ĸà½¤ à½Ħà½¦
à½² à½²
à½¼ à¼½
Ġà½¢ à½Ĥà½¦
à¾¥ à½¼
Ġà½ĳà½Ĥ à½Ĥ
Ġ12 8
à¼ĭà¼ĭ à¼ĭ
Ġï į
200 7
à½² à¼Ķ
Ġà½łà½ĸ à½Ĥ
Ġâĳ ©
à½§ à½£
à¼¢à¼łà¼¡à¼ ¤
q q
à½ĸ à½ĳà½ĺ
à½Ĩ à½£
Ġà½Ĩ à½ĵ
Ġ11 5
à¼¥ à¼ł
200 5
ĠA PP
Ġ197 9
Ġ b
à½Ĥ à½ķ
Ġà½łà½ĳ à½ĵ
à¼£ à¼£
Ġâĳ ¨
à¼¦ à¼ł
à½łà½Ĥ à½ĸ
à¾¨ à¾²à½ºà¼ĭ
Ġà½ĸ à½ĺ
t p
Ġ R
Ġ10 2
Ġ10 3
Ġ Q
ï¼ī ãĢĬ
16 3
ï¼ ĳï¼
j j
16 96
ht tp
Ġn jj
1696 82
x i
à½łà½Ľ à½Ĥ
Ġà½ģ à½ĸ
an d
à½Ĥ à½Ĳ
à¼¢à¼łà¼¡à¼ ¥
à¼ Ī
ĠãĢ Ķ
Ġ11 4
ĠÂ» Â«
Ġà½ģ à½ł
âĳ ¾
ĠãĢ ģ
o l
à½´ à¼į"
Ġï¼ ĳï¼
Ġ12 3
âĳ ¿
à¼§ à¼ł
Ġp t
i b
à¾« à½º
Ġ17 00
à¾¡à½¼ à¼į
ĠãĢĬ âĢľ
Ġà½¤ à½ĺ
à¾Ķ à¼İ
Ġ10 4
Ġ '
à½Ģ à½łà½Ħ
à½ĸà½Ļ à½Ĥ
Ġ10 1
à¼¢ à¼¡
Ġ13 20
Ġ28 0
à¾¦ à½¼à¼ĭ
à¾ķ à½²à¼į
Ġà½łà½ķ à½Ħ
Ġ14 00
à½łà½ĩ à½Ĥ
à½ĸà½ĳ à½£
ï¼ Ĵ
Ġà½ĳà½ĸ à½£
Ġ16 00
2 000
Ġ12 5
à¼¢ à¼¢
à¾ļ à½²à¼ĭ
i t
Ġà½ĳ à½ĸà½ł
Ġà½Ĥ à½¡à½¢
Ġà½ĵ à½Ħà½¦
Ġï¼ Į
Ġ4 50
Ġ31 7
m a
w s
à½¨ à½ĸ
ĠãĢĭ [
Ġà½Ĥà½¦ à½ĸ
Ġ-- -
Ġà½¨ à½ĺ
à½Ĩà½ł à½ĺ
Ġ O
à½´à¼ĭ à¼¼
Ġà½Ĥà½¦ à½ł
19 98
Ġà¼¡à¼ ¢
Ġ â
à½¼ à½¼
à½ĸà½Ļ à½Ĥà½¦
à½ĳà½Ħ à½¢
Ġ3 60
Ġ) "
Ġ10 7
sa i
u t
Ġ V
Ġ à½īà½ĺ
à½ķ à½Ĭ
973 77
u r
à¾Ĺ à½²à¼ĭ
à½ĸà½ĳ à½¦
ĠâĢľ âĢĺ
Ġ10 6
Ġ11 6
Ġn ian
Ġ1320 97377
Ġnian sai
Ġ132097377 76
Ì ĥ
à½ģ à½łà½Ħ
Ġà½Ķ à½Ħ
Ġ11 7
Ê °
Ġ %
Ġ i
à½² à¼½
Ġà½¦ à½ĳ
Ġà½Ĥ à½ĸ
in do
Ġ U
âĴ Ģ
à¾¡ à¾²
à¾¦ à½º
Ġà½ķ à½ĸ
Ġà½Ĩ à½łà½Ħ
Ġï¼ Ĥ
Ġ36 00
indo ws
à½± à½´à¼ĭ
Ġ12 7
Ġà½ĺà½Ľ à½Ħà½¦
à½ĸà½ħ à½£
à½ĸà½ŀ à½ł
Ġ12 9
Ġ19 76
à½¾ à¼į
: //
Ã ł
ĠãĢ Ī
à½Ĭ à½ł
200 4
Ġ X
Ġà½¢ à½ĸà½¦
ĠîĢ ĥ
à¾Ł à¼İ
à½łà½Ĩ à½Ĥ
Ġ9 000
Ġ19 49
ww w
à¾· à½±à¼ĭ
on e
i l
Ġ of
à¾Ń à½¼
Ġà½ĺà½ļ à½¢
Ġà½ĸà½Ģ à½¦
Ġ24 0
Ġ100 2
à½ı à½ĺ
Ġ3 30
Ġ11 8
ï¼½ .
ĠQ Q
Ġ28 00
à¼¤ à¼ł
Ġ43 00
à½ĳà½Ħ à½ĵ
à½łà½Ĳ à½ĺà½¦
Ġà½ĺà½Ħ à½Ĥ
Ġ11 2
200 2
à½ļ à½¦
à¼¨ à¼ł
à½¡ à½ĺ
Ġï¼ ½
20 2
Ġ19 50
sh i
Ġ J
Ġ11 9
200 1
P h
p p
à¾±à½² à½²à¼ĭ
ĠâĢ ĭ
Ġ4 200
u n
Ġ Z
Ġ à½ĸà½¤à½ĺà½¦
à½ ©
à½łà½ģ à½£
Ġà½Ĥ à½ĺ
200 3
à½łà½Ĩ à½ĺà½¦
Ġà½Ķ à½ĵ
Ġ8 24
Ġ13 5
Ġ26 0
12 89
à¼· à½¼à¼ĭ
Ġâ ħ
Ã ¬
Ġà½ĳà½Ķ à½Ĥ
Ġà½łà½ļ à½¢
Ġ21 0
Ġà¼¡à¼ ¤
à½¢ à½Ģ
à½ĳà½Ħ à½Ĥà½¦
à½Ĥà½ŀ à½Ħ
Ġà½Ĩ à½ĸà½¦
âĴ ģ
ãĢ ķ
à¼¢à¼ł à¼¡à¼©
Ġï ĳ
o y
à½ĸà½¤ à½¢
Ġà½łà½ĩ à½£
.. ..
à¼łà¼ł à¼ł
Ġà¼¢à¼łà¼¡à¼ ¤
Ġ la
Ġà½¡ à½£
Ġ19 58
Ġ23 00
90 60
4 00
j ia
u m
à¼¡à¼© à¼§
Ġï ķ
Ġ http
à½ĳ à½ł
ï¼Ī ï¼ī
Ġà¼¡à¼ £
Ph one
à½Ĥ à½¢à½Ħ
à¾Ķ à½´à¼ĭ
Ġà½¡ à½ł
Ġà½ļ à½¢
Ġ19 75
Ġ27 0
Ġ2 19
à¼£ à¼¥
19 96
Ġ195 1
zha xi
jia zhaxi
a m
r e
à½¤ à½ĸ
32 93
ï¼Į ãĢĤ
ĠC T
Ġà¼¡à¼ ¦
Â· Â·
à½Ģ à½ĺ
Ġà½Ħ à½ĺ
Ġ19 65
à¾© à¾Ńà¼į
ĠãĢ Ĳ
à¾Ĳà¾± à½´à¼ĭ
Ġ195 4
Ġà¼¡à¼ §
Ġà½ĸà½¤ à½¦
âĢ Ļ
Ġ15 6
Ġ15 202
19 93
58 1289
Ġb oy
ut b
Ġ15202 581289
Ġboy utb
p e
à½ĩ à½ĵ
ï¼ ĺ
Ġ13 8
âĴ Ĥ
13 69
Ġ38 0
Ġ824 1369
Ġ8241369 58
r i
à¾±à½´ à¼į
à½Ļ à½¢
ĠâĢ Ĥ
Ġà½Ĥ à½ĵà½Ĥ
Ġà½ĺ à½ĳà½Ħ
ï¼ ķ
19 95
ï¼Ĳ ï¼Ĳ
Ġ à¼Ħ
Ġ21 6
à½ł à½¦
Ġ12 2
Ġ15 2
a s
à¾Ĳà¾±à½º à¼į
Ġà½Ł à½Ĥ
Ġà½¤ à½ł
âĴ ĥ
ti on
h oo
à½Ĥ à½ļ
à¾¨ à¼į
ï¼ ĵ
à½¦à½ł à½ĺ
à¼£ à¼¡
à¼¥ à¼¨
in g
Ġs ul
Ġ t
Ġ à¼Ī
à½¢ à½ı
à½± à½º
Ġ13 2
P E
à½Ĥ à½łà½ĳ
à½¼ à¼Ķ
à½Ģ à½Ĥ
à½± à½¿
Ġ19 0
Ġ14 5
âĢ¦ âĢ¦
Ġ81 000
ta shi
ang tashi
ya hoo
Ġsul angtashi
à½ĸà½Ļ à½ĳ
Ġ26 00
Ġ27 00
10 7
Ġi Phone
à¾² à½±à½²
à¾±à½º à¼İ
Ġà½ķ à½ĺ
à¼£ à¼¢
19 94
Ġ24 00
à½łà½Ľ à½ł
Ġ3 20
19 99
Ġà½Ĥà½¤ à½Ĥà½¦
Ġï ĵ
Ġ81000 8
ï¼ Ļ
Ġï¼ ĵ
Ġ6 50
Ġà½ł à½ĺ
-- -
à¼¡à¼ł à¼ł
Ġà¼¡à¼ ¨
Ġà½Ľ à½ĺ
o p
Ġ {
à¾Ļ à½±à¼ĭ
Ġà½Ĥ à½¡à½ł
Ġà½§ à½ĺ
Ġà½łà½ķ à½ĵ
Ġ12 4
Ġà½ĩ à½Ĥ
Ġà½ĸà½ŀ à½ĳ
19 88
à¼¢à¼ł à¼¢à¼ł
ï¹ ª
g o
Ġ21 3
Ġâĳ ¾
à¾¨ à¾²à½²
ãĢ Ī
à½ĺà½ĳ à½¢
Ġï¹Ļ ï¹ļ
à¾²à½² à¼İ
Ġà½¤ à½Ĥ
Ġ11 3
à¼¦ à¼¥
Ġï Į
ĠâĴ ģ
à½¼à¼ĭ à¼ĭ
Ġ4 20
à¼¢à¼łà¼¡à¼ £
Ġ33 00
Ġ65 00
er s
à½ĵ à½£
à¾³ à¼İ
à¾¨ à¾²à¼į
à¾Ĺà½º à¼İ
Ġà½Ĩ à½¦
Ġ15 8
19 86
12 3
ĠW indows
9 46
d e
à½ºà¼ĭ à¼ĭ
Ġ3 200
Ġ13 3
Ġ21 00
ĠâĴ Ģ
9 19
à¾· à½ºà¼į
ĠâĢľ ï¼Į
Ġï¼ į
Ġ17 5
19 97
19 90
à½Ĳ à½¦
Ġà½¢ à½ĺ
ĠãĢ ķ
à½± à½¼
Ġ5 50
Ġ17 2
Ġ14 7
Ġà½Ĥà½ĳ à½ĺà½¦
à¼¤ à¼©
____ ____
à¾ Ħ
à½Ĥà½ī à½Ĥà½¦
Ġ11 1
Ġ13 4
Ġà½ĸà½Ļ à½£
a c
à½Ĥà½¦ à½ĳ
à½Ĥà½ŀ à½ł
Ġ19 60
Ġ21 4
A A
t er
à½´ à¼Ķ
à½ĺà½ĵ à½£
Ġ12 6
Ġ13 1
Ġ13 6
19 92
âĴ Ħ
Ġà¼¢à¼łà¼¡à¼ ¥
Ġà½ĺà½ļ à½£
Ġ7 50
Ġ14 3
à¼£ à¼§
19 84
Ġâĳ ¿
Ġï ĸ
ã ī
Ġà½¦ à½ĺ
Ġà½ĸ à½ĸà½¦
à¼£ à¼¤
Ġ195 6
n i
à½Ł à½£
à½łà½ļ à½Ħà½¦
ï¼ Ĺ
Ġà½łà½Ĥ à½ĳ
Ġ16 5
à¼£ à¼¦
Ġ37 00
g e
o t
Ġ à½ĺà½¦
à½ħ à½£
Ġà½¦ à½ĵ
à½ĺà½Ĥ à½£
Ġ14 4
ĠâĴ Ĥ
PE C
6 14
Ġ à¼İ
à½ļ à½ĺ
à¾¤à¾±à½² à¼į
Ġ19 00
Ġ19 61
Ġ17 6
19 82
Ġ22 5
Ġ38 00
É ¯
à½ı à½£
à¾£ à½ºà¼į
Ġ18 9
a t
à½Ĥ à½¨
à½ī à½¦
Ġ5 200
âĢľ âĢĺ
Ġ13 7
Ġ18 5
Ġ16 7
19 85
Ġ21 5
à¼¥ à¼¤
à¼¥ à¼¦
ti b
a d
Ä «
ã ģ
à¼ ĳ
à½Ĥ à½ĳà½Ĥ
à½ĳ à½¦
à½ŀ à½ĳ
à½ĸà½Ģ à½ĵ
à¾Ń à½²à¼ĭ
Ġ20 4
Ġ12 1
Ġ16 8
Ġ22 00
à¼· à¼į
Ġà½£ à½łà½Ħ
Ġ19 62
Ġ16 2
Ġ14 8
âĢĿ âĢľ
à¼¥ à¼¥
à¼© à¼ł
à½½ à¼ĭ
Ġà½ģ à½£
ĠãĢ Ĥ
à½Ŀ à½¦
Ġï¼ Ķ
Ġ15 000
à½Ĭ à½¦
17 7
Ġ197 2
w a
à¾· à¼İ
à¾¤à¾²à½¼ à¼į
à¾ķ à½ºà¼į
Ġ4 30
à½§à½ł à½¢
à¼½ à¼¼
à¼¥ à¼©
à¼¦ à¼¨
Ġà¼¡ à¼¡
la jiazhaxi
614 333
l i
Ġ c
à¼ĭ à½²
à¾ ´
Ġà½ģ à½Ħà½¦
à¾Ģ à¼į
Ġà¼¡à¼ ¥
e d
o m
Ã ¡
Ġ à½Ĥà½ıà½Ħ
à½ĵ à½Ķ
à½Ĥà½ī à½£
à½ĸà½Ł à½ĳ
Ġà½Ĥ à½ĳà½Ħ
Ġà½ĳà½ĸ à½ĵ
ï¼Ĳ ï¼ĳï¼
É ¤
à½Ł à½¢
à¾Ĳà½´ à¼İ
Ġà½Ł à½Ħ
Ġ3 70
Ġ14 1
Ġï¼ ķ
Ġà½ĸà½¦ à½ĳ
Ġ16 9
58 88
Ġ34 0
ĠâĴ ĥ
ĠT ib
g le
n d
É ķ
à¾Ĵ à½²
Ġà½ĳ à½ĸà½¢
ĠâĢ ĵ
à¾¨ à¾²à½²à¼ĭ
ĠãĢĬ ãĢĪ
ï¼ Ķ
à¾Ĵà¾² à½ºà¼ĭ
Ġà½Ĥà½¦ à½¦
à¼£ à¼©
19 80
19 87
Ġ195 5
à½±à½´ à¾ĥà¼ĭ
// //
100 2
Ġ à¼Ķ
à½Ĥ à½£à½¦
Ġà½Ĥ à½ł
Ġ19 77
Ġ14 2
Ġ() âĢĶâĢĶ
ãĢĬãĢĭ )
5888 48
N A
O L
ĠâĢĿ ï¹Ļ
Ġà½łà½ĳ à½¢
Ġ19 64
Ġ13 107
Ġà½ĳà½ĺ à½ĵ
19 91
ĠÂ» ï¼»
âĴ Ĩ
Ġ195 7
Ġ13107 588848
i d
à½łà½Ľ à½Ħà½¦
Ġ4 35
Ġ6 329322
Ġ15 7
Ġ16 6
Ġ25 3
à¼¤ à¼¢
à½Ĭ à½ĺ
âĴ ħ
oo gle
p a
à¾¤ à½¼à¼į
à½Ĥà½ŀ à½¢
à¾¦ à¾·à¼ĭ
Ġ3 75
Ġ12 000
Ġà½Ĥà½ĳ à½Ĥà½¦
à¼£ à¼¨
à¼¥ à¼¡
à¼¦ à¼§
âĴ ĩ
à½Ĥà½ı à½Ĥà½¦
Ġà½£ à½ĳ
à½łà½Ĳ à½¦
à½Ĥà½¤ à½Ħ
à½Ĥà½¤ à½ł
Ġ3 90
Ġ4 60
ĠâĴ ħ
Ġà¼¢à¼łà¼¡à¼ ¦
o te
ï ½
Ġ à½Į
à¾¡ à¾·à¼ĭ
Ġ20 000
Ġà½Ĥà½ŀ à½£
à¼¤ à¼¦
Ġ197 3
ĠâĴ Ħ
Ġà¼£ à¼ł
K M
b e
o s
u d
Ã Ń
Ê ¨
Ġà½ĺ à½ĳà½Ħà½¦
à¾¥ à½ºà¼į
Ġà½ĸà½¦ à½Ĥà½¦
Ġ14 6
à½ĳà½ĸà½ł à½¦
à½£ à½ī
à½ĸà½¦ à½Ĥ
à½ĸà½ħ à½Ħ
Ġà½¢ à½ĺà½¦
Ġà½ī à½ł
Ġà½¤ à½ĳ
Ġà½Ĥà½ħ à½ĳ
à¾Ĳà¾² à¾Ģà¼ĭ
à¼¦ à¼©
Ġ36 5
1 10
à½Ĥ à½ĺà½ļ
à¾±à½²à¼ĭ à¼¼
Ġ15 3
Ġ14 9
à¼¤ à¼§
Ġà½ĸà½ı à½Ĥà½¦
or d
T V
l o
Ç İ
à¾Ń à½ºà¼ĭ
à¾©à½² à¼İ
Ġ6 60
Ġ19 69
Ġ23 4
à¼¤ à¼¥
Ġ31 5
30 7
Ġ195 3
B A
Ġ e
à¾ ŀ
Ġà½Ĩ à½ł
ï¼ ĸ
à¾Ĵà¾² à¼İ
Ġ"" [
R e
b a
Ã ¹
Ê Ĳ
Ġ x
à¾Ĵ à¼į
à¾· à¾±
ĠãĢĭ ï¹Ļ
Ġï¼ ĸ
Ġ18 7
34 5
Ġ195 2
1 58
Ġ w
Ġ20 5
Ġà½ł à½ĳà½Ħ
Ġ17 4
Ġ25 1
à¼© à¼©
92 9
Ġ43 7
Ġ46 00
à¾µ à¼ĭ
177 30921766
] ]
i k
à½Ĥ à½łà½ĸ
à½ĸà½¦ à½¢
à¾Ĳà½¼ à¼į
Ġà½ĸà½¦ à½£
Ġ19 2
Ġ16 3
19 83
Ġ22 7
à¼¤ à¼¤
Ġà½ĸà½¤ à½Ħ
Ġ à½Łà½ĳ
à½Ĥ à½ĳà½Ķ
à½º à¼Ķ
à½¼à¼ĭ à¼İ"
à¾±à½¼ à¼į
à¾Ķ à½º
Ġ5 40
Ġ8 50
Ġ18 6
Ġà½ĸà½Ļ à½¦
19 89
ĠâĢ¦âĢ¦ ""
a k
c e
o k
à½£ à½ŀ
à½ĸà½Ģ à½ĳ
Ġ19 45
Ġ15 1
Ġ15 9
à¼¥ à¼§
à¼© à¼§
Ġ31 00
Ġï Ĳ
Ġà¼½ à¼¼
( )
3 00
R L
c k
à½Ĥ à½łà½Ħ
à¾Ĵ à½´à¼į
à½Ļ à½ĳ
ï¼ į
Ġ3 19
Ġ19 36
Ġ17 9
Ġ16 1
à¼¤ à¼¨
à¼¦ à¼£
à¼¦ à¼¤
28 1
Ġ197 4
à½±à½´ à½¾à¼į
Ġ...... âĢĿ
it y
ĠCT RL
B C
j i
Ã ©
Ġ à¼ł
à¾Ń à½º
à½Ĥà½¡ à½ĵ
Ġà½ħ à½ł
Ġ19 66
Ġ18 2
Ġà½ĸà½Ļ à½ł
Ġ24 6
Ġ23 6
Ġï İ
à¼· à½²à¼ĭ
c m
m l
à¼ĭ à½¿
à½Ĥ à½łà½Ĥ
à¾Ł à½´à¼ĭ
à¾²à½´ à¼İ
à¾Ĳà¾±à½º à¼İ
Ġà½Ģ à½Ħ
Ġï¼ ĳ
à½Ģà½ł à½ĺ
Ġ19 70
Ġ16 4
19 50
ĠA PEC
Ġ34 00
96 7
Ġ47 00
à½±à½´ à¾ĥ
1 19
2 14
A R
i r
m m
à¾¤ à½ºà¼ĭ
à¾Ń à½±à¼ĭ
à½ĳà½Ģ à½Ĥ
Ġà½Ĳ à½ĺ
à¾¡à½º à¼İ
à¼½ à¼ĭ
Ġà½łà½Ľ à½Ħà½¦
Ġ31 0
ãĢģ )
à¼¢à¼łà¼¡à¼ ¢
Ġ197 1
ĠâĴ Ĩ
7 10
à½¦ à½ĸ
à¾Ĵà¾±à½´ à½´
Ġ18 34
à¼¥ à¼£
15 5
ĠãĢĭ( ãĢĬãĢĭ)
Ġ39 00
à¼ĭà¼ĭà¼ĭà¼ĭ à¼ĭ
à¼ĭà¼ĭà¼ĭà¼ĭ à¼ĭà¼ĭ
Ġ a
à½¼ à¼Įà¼İ
à½´ à½¿
Ġà½Ģ à½Ĥ
ĠâĢľ ãĢĬ
Ġ20 7
Ġ5 60
Ġ19 68
19 81
Ġà½Ĥà½¤ à½Ĥ
Ġ55 00
Ġ48 00
ro s
go v
g u
Ġ m
à½Ĥ à½§
à½łà½ĸ à½ĺ
ï¼ ĳ
Ġ4 70
Ġ6 3293
Ġ19 38
Ġ15 4
Ġ18 4
à¼¤ à¼¡
à¼¦ à¼¢
à¾µ à½²à¼ĭ
tib et
h e
à½¼ "
à½´ à¼½
Ġ20 8
à¾¥ à½´à¼į
Ġ4 80
Ġ5 20
Ġ18 1
Ġ22 4
Ġ29 0
ĠA pp
à¼¢à¼łà¼ł à¼ł
197 8
3293 75
Ġ63293 76
6 329375
v e
Ġ }
Ġ à½Ĺà½Ħ
à½Ĥ à½Ĥà½¦
à½Ĥà½¦ à½Ĥ
à¾¡ à¾·à½ºà¼ĭ
Ġà½Ĥ à½ĳà½Ħà½¦
Ġà½ģ à½¢
ĠâĢľ (
Ġ20 6
Ġ20 50
Ġ6 85
Ġ) âĢĿ
à¾©à½º à¼İ
Ġà½Ĥà½ŀ à½Ħ
à½Ĥà½ł à½ĺ
Ġ17 1
Ġ25 6
Ġ22 6
Ġ23 5
Ġà¼¢à¼łà¼¡à¼ §
Ġ k
Ġ l
Ġ 00
Ġ à½Ĭ
ĠâĢ º
Ġà½Ł à½ĵ
Ġ3 66
Ġ4 10
Ġ5 80
Ġ) âĢľ
Ġ19 6
Ġ18 3
Ġ26 7
à¼§ à¼§
Ġï Ĵ
à¾ľ à¼ĭ
ĠâĴ ĩ
es s
197 9
) "
z h
Ã ¨
à½Ļ à½ĸ
à¾¤à¾²à½¼ à¼İ
Ġà½Ł à½Ĥà½¦
Ġ4 75
Ġ21 7
âĢ¢ âĢ¢
307 929
Ġ1834 307929
o h
t s
à½Ķ à½Ĥ
à½Ķ à½Ģ
Ġ20 3
Ġà½§ à½¢
à¾¦à¾² à¼į
Ġ30 1
à½¾ à¼İ
Ġï ı
Ġï Ĺ
Ġ300 00
ĠãĢĭï¼Ī ï¼ī
Ġà¼¢à¼łà¼¡à¼ £
Ġà¼¢à¼łà¼ł à¼©
th e
) ãĢĬ
1 88
à½¼ à¼¼
à½§ à½¦
ãĢ Ķ
Ġ21 2
Ġ28 4
Ġ31 2
16 1
Ġ75 00
ĠT V
i f
Ã ¸
à½Ĥ à½ĸà½¢
à½łà½ĸ à½Ĥà½¦
ĠâĢľ ï¼Įï¼Į
Ġà½ķ à½Ħà½¦
Ġ20 9
Ġ( ,
Ġ19 63
Ġ17 8
Ġ17 29
Ġà½Ĥà½ı à½ł
Ġ24 8
Ġ27 2
à¾ļ à½²
Äģ n
A S
E D
O S
y pe
Ã º
à½łà½ģ à½ĵ
à½ĸà½Ł à½Ħà½¦
Ġ20 2
Ġ( ãĢģ)
Ġà½ĳà½Ĥ à½¢
Ġ) (
20 30
Ġ25 2
19 59
Ġ26 5
à¼¤ à¼£
à¼© à¼¨
à¼¢à¼łà¼¡à¼ ł
ĠI I
ar d
à¾±à¾Ģ à¼į
of t
5 00
M F
o g
v ers
Â ²
Ä ĵ
à¼ĭ à¼Įà¼į
à½Ĥ à½Ĥà½¦à½¢
à½¼ à¾ĥà¼ĭ
à½Ħ à½łà½Ħ
à¾±à½º à½ºà¼ĭ
à¾±à½´ à¼İ
à¾ķ à¼ĭ
Ġ4 24
Ġ18 8
Ġ40 5
à¼¢à¼łà¼ł à¼¦
ĠG oogle
D R
f ic
ã ĥ
Ġ and
à½Ĥ à½Ĥà½£
à½ĳ à½İ
à½²à¼ĭ à¼İ
à½± à½¾à¼ĭ
Ġ6 40
Ġ19 48
Ġà½Ĥà½Ļ à½Ĥà½¦
Ġà½łà½ģ à½¢
Ġ27 8
12 87
à¼¢à¼łà¼ł à¼©
29 5
Ġà¼¢à¼łà¼¡à¼ ¨
à¼ĭà¼ĭà¼ĭà¼ĭ à¼ĭà¼ĭà¼ĭà¼ĭ
ĠâĢĿ( )
à¼¡à¼©à¼© à¼ł
et an
ic ros
Ġà¼Ī à¼į
icros oft
i m
v a
Ã ³
Ê Ķ
à¾ ¶
à½Ĥ à½£à½ĺ
Ġà½ļ à½Ĥ
Ġà½ķ à½ł
Ġ3 25
Ġ3 88
Ġ4 58
Ġ9 60
Ġ17 3
Ġà½łà½Ĳ à½Ĥ
Ġ54 00
Ġ7705832 8
ĠïĮ Į
a y
à¾ ł
à½Ĥ à½Ķ
à½¼à¼ĭ à¼½
à½ĸà½ı à½Ĥ
Ġ20 24
Ġà½ĳà½Ħ à½Ħà½¦
Ġà½¤ à½Ĥà½¦
Ġ19 1
Ġ19 3
Ġà½Ĥà½ī à½Ĥà½¦
ï¼ī ï¼Ī
Ġ24 5
Ġ22 1
Ġ26 8
à¼§ à¼£
à¼¦ à¼¦
Ġ33 7
Ġ44 00
Ġà¼¢à¼łà¼ł à¼¨
do be
à¾Ħ à¼ĭ
i g
ï ĸ
à¾ Ľ
à½Ĥ à½Ĥà½ŀ
à½łà½Ĥ à½ĺ
à¾· à½±à½²
Ġ19 4
Ġ30 2
à¾Ĳà¾² à¾Ģ
Ġ21 1
Ġ23 9
Ġ26 1
Ġ26 2
Ġ27 5
à¼§ à¼©
à¼§ à¼¨
89 1
ĠA R
Ġ32 3
Ġ51 00
en t
Ê° a
vers ity
3 19
6 00
P T
Ê Ĥ
Ġ ãī
à½Ĥ à½ĳà½ĺà½Ħà½¦
à¾Ĵ à½±
à½¤ à½Ģ
à¾Ĳà¾±à½¼ à¼İ
Ġ6 65
à½ģà½ł à½ĺ
Ġ10 27
Ġà½ĩ à½ł
à¼£ à¼łà¼ł
Ġ21 8
Ġ22 2
Ġ22 8
à¼¥ à¼¢
à¼© à¼¢
à¼§ à¼¦
ĠD NA
ĠW ord
oo t
ãĢģãĢģ ãĢģ
Ġà¼¢à¼ł à¼¡à¼¡
1 976
F i
n a
Ġ f
à½¦ à½ı
à¾Ł à½²à¼į
Ġ3 32
Ġà½ĵ à½ł
Ġ4 90
Ġà½Ŀ à½¢
Ġà½Ĥà½ı à½¢
à¼§ à¼¤
Ġ400 00
à¼¢à¼łà¼ł à¼¤
ĠI C
âĢľâĢĿ âĢľ
ht ml
Ġï¼Ĵ ï¼Ĳï¼ĳï¼
ï¼ĳï¼ Ļ
pe op
à¾·à¾± à½¿
peop le
o b
à½ ĭ
à½łà½ĳ à½ĺà½¦
ĠâĢ ¹
Ġ8 14
Ġ25 7
Ġ23 2
à¼¨ à¼¡
10 3
à¼¡à¼ł à¼łà¼ł
ĠC h
à¼¢à¼łà¼ł à¼§
Ġà¼¢à¼łà¼¡à¼ ł
.... ..
Ġ(ãĢģ) âĢĶâĢĶ
) ãĢĭ
1 50
k a
n ote
r an
Ġ à¼Ħà¼ħà¼İ
à½Ĥ à½łà½ķ
à¾± à¾°à¼ĭ
à½º à½¿
à¾² à½±
à½ģ à½İ
à¾¡ à¼İ
Ġà½ĳ à½ĵ
Ġà½Ģ à½ĺ
à½łà½Ĩ à½Ĥà½¦
Ġà½§ à½ĸ
Ġ6 28
Ġ7 80
Ġ19 21
Ġ11 000
à¼ł à¼©
Ġ13 000
Ġà½ĸà½ħ à½Ĥ
à¼¨ à¼¥
à¼§ à¼¥
Ġà¼¢à¼łà¼¡à¼ ¢
ar y
ĠL ED
ni versity
, ,
s e
t ÊĤ
Ġ j
à½Ĥ à½ĸà½¦
à½łà½Ĥ à½Ħ
ĠâĢ Ħ
à½ĩ à½¢
à½Ľ à½ł
ĠãĢĭ ï¼»
Ġ3 76
Ġï¼ İ
Ġï¼ ĺ
Ġ4 14
Ġ4 40
Ġ( ï¼ī
à¾¤à¾± à½¼à¼ĭ
Ġ6 80
Ġ19 42
Ġà½Ĥà½ī à½£
Ġ24 2
Ġ23 3
ĠP PP
ĠC D
à¼¢à¼łà¼ł à¼£
1 20
T ok
c i
f oot
o d
Ġ __
à½Ĥ à½Ĥà½Ħ
à½²à¼ĭ à¼½
à½ŀ à½¦
à¾Ĺ à¼ĭ
Ġà½ĺ à½ĵà½¢
Ġà½Ĳ à½Ĥà½¦
Ġ3 28
Ġ4 28
Ġà½¤ à½Ħà½¦
Ġ7 31
Ġ30 6
Ġ31 3
Ġ29 6
à¾° à½´
à¼· à½¼à¼į
ĠâĢľï¼Į âĢĿ
ot o
Re f
note Ref
foot noteRef
1 30
1 17
o w
Ġ d
à½Ĥ à½£à½Ĥ
à½² à½¿
à½ĵ à½ŀ
à½łà½Ľ à½Ĥà½¦
à½ĸà½ŀ à½Ĥà½¦
Ġà½ĺ à½īà½ĵ
Ġà½ķ à½¦
Ġà½łà½ĳ à½Ĥ
Ġ5 70
Ġ6 20
Ġ6 30
Ġ19 34
Ġ19 47
Ġ19 41
Ġà½ĸà½Ģ à½£
Ġ30 5
Ġ24 3
Ġ28 5
Ġ28 6
à¼§ à¼¢
16 0
ĠãĢĭ( ãĢĬ
ĠI n
is t
Ġïķ Ń
fic e
T ib
Ġ www
à¼ Ģ
à½Ĥ à½Ĥà½ŀà½ĵ
à½ĸ à½Ĥà½¦
à½Ķ à½ĳà½Ħ
à¾Ĵà¾±à½´ à¼į"
à¾¦ à¾·à½¼à¼ĭ
Ġ20 23
Ġ3 58
Ġ19 46
Ġ12 30
Ġà½łà½ļ à½Ħ
Ġ23 7
ĠÂ» (
Ġ28 8
Ġ26 6
Ġ27 3
à¼¦ à¼¡
Ġ0 1
Ġ500 00
Ġà¼¢ à¼©
in s
Ġ? ?
Ġà¼¢à¼łà¼ł à¼¤
ãĢĤ âĢĿ
Ġïį Ł
ik Tok
à¾·à½±à½² à½¿
E R
T C
É ª
à½ĸ à½Ħà½¦
à½´ à¼İ"
à¾Ĵ à½±à¼ĭ
à¾¡ à¾·à½´à¼ĭ
à½ĳà½Ķ à½¦
à½Ŀ à½ĺ
Ġà½¨ à½ĸ
Ġ4 25
Ġ5 25
Ġ7 97
Ġ25 4
Ġ26 3
à¼© à¼¤
Ġ29 9
ãĢģ ï¼Īï¼ī
Ġï¹ Ŀ
Ġ39 1
197 7
1 12
A M
p t
à¼ ¹
à½ĳ à½ĸà½¦
à½ĵ à½ĸ
à½ģ à½Ĥà½¦
Ġ3 44
Ġ19 27
Ġ12 345
âĳ µ
Ġ30 4
Ġ16 50
Ġ25 5
19 49
Ġ22 9
à¼§ à¼¡
à¾¨à¾² à¼İ
in e
Ġà½ĸà½¤ à½£
ĠL in
Ġïķ ĳ
à¼ĳ à¼į
à½±à½´à¾ĥ à¼į
q h
Ġ à½Ĥà½ıà½ĳ
à½ĸ à½Ĩà½ĳ
à¾± à¾Ń
à½łà½ĸ à½ĸà½¦
à½ĺà½ļ à½Ĥ
Ġà½ķ à½Ħ
ï¼ Ł
Ġ) ãĢĬ
âĳ ´
Ġ17 30
Ġ30 9
Ġ24 7
à¼¢à¼ł à¼¡à¼¡
Ġ22 3
à¼¨ à¼¢
Ġ29 00
Ġ0 8
à¾¨à¾² à¾Ģà¼ĭ
ĠâĢĶ âĢĿ
Ġ32 6
Ġ41 00
Ġ123 15
Ãł n
il l
Ġâħ £
Ã¡ n
ĠAR J
3 70
9 96
e b
e w
u c
u g
É Ľ
Ġ v
à¾Ĵà¾±à½´ à½´à¼ĭ
à½ĺà½Ĳ à½¦
à½Ĥà½ħ à½ĺ
à½ĩ à½ĺ
à½Ĥà½Ħ à½ł
Ġ4 33
Ġ6 18
Ġ19 37
Ġ19 67
Ġ30 3
Ġ30 8
Ġà½ĸà½ŀ à½ł
Ġ26 4
Ġ26 9
Ġ40 3
Ġ29 8
14 8
Ġ33 6
Ġ65 2
36 9
Â³ Â¹
Ġà¼¢à¼ł à¼¢à¼ł
Ġà¼¢à¼ł à¼¡à¼©
ĠTib etan
Â² Â³Â¹
ãĢģï¼Īï¼ī ï¼ļ
T M
a b
Ç Ķ
Ġ the
à½¦ à½Ķ
à½ĸà½¦ à½ĸ
à¾¡ à¾·à½ºà¼į
à½¨ à½£
à½ĸà½¤ à½ĵ
à½Ĥà½Ļ à½ĸ
à¾Ĵà½¼ à¼İ
Ġà½Ħ à½łà½Ħ
Ġ4 98
Ġà½ĸà½¦ à½Ħà½¦
Ġ8 15
Ġ19 33
19 51
Ġ31 1
Ġ29 5
10 9
10 47
Ġ0 9
12 88
ĠâĢĻ âĢĿ
16 8
16 9
Ġ35 6
66 55
11 8
à¼¢à¼łà¼ł à¼¨
Ġ56 00
ĠI OL
à¼¡à¼©à¼¨ à¼£
à¼¡à¼©à¼¨ à¼¨
] ãĢĬ
k ype
o ck
à½¦ à½£
à½¦ à½Ļ
à½¼ à½²
à½ĳ à½ħ
à¾±à½¼ à¼İ
à¾³ à½²à¼ĭ
à¾±à½² à¼¼
à¾Ĺ à½¼à¼ĭ
à¾« à½²à¼į
à½ºà¼į "
à½ģà½Ĥ à½¢
à½ĸà½Ļ à½Ħà½¦
Ġï¼ ı
Ġ4 17
Ġ4 15
Ġ5 90
Ġ19 20
97 6655
Ġ23 8
Ġ28 2
à¼© à¼¥
à¼¨ à¼§
10 2
Ġ33 5
Ġà¼¢ à¼§
ĠM H
à¼¡à¼©à¼© à¼£
ï¼Ĵ ï¼Ĳï¼ĳï¼
ï¼ĮãĢĤ âĢĿ
Ġx x
" Â«
1 89
1 44
m an
t on
Å į
ã Ĭ
à½ Ĵ
à½² "
à½ĳ à½ĳà½Ħ
à¾² à¼Ķ
à¾Ĵà¾± à¼İ
à½ĸà½¦ à½ĸà½¦
à¾Ĳ à½²à¼ĭ
à½ħ à½ĺ
âĢ °
à½Ĥà½ĵ à½ĵ
Ġ3 77
à¾¥ à¼į
Ġ5 30
Ġ8 30
Ġ8 42
Ġà½Ĥà½¦ à½ĵ
Ġ19 35
Ġà½łà½ķ à½Ħà½¦
à½¢à½ł à½ĺ
Ġ16 22
19 65
Ġ23 1
Ġ33 8
Ġ36 4
Ġï¹ ŀ
ha r
ãĢĬãĢĭ ï¼ī
ol og
Ġla jiazhaxi
976655 41
" à¼Ħà¼ħ
S A
[ [
a tion
e c
u x
È µ
à½Ĥ à½ĸà½ĳ
à½ŀ à½ĺ
âĢ ĵ
à½łà½ĩ à½Į
Ġà½ĺ à½ĵà½ĵ
ï¼ Ľ
Ġ4 88
Ġ4 34
Ġ5 65
Ġ5 45
Ġ7 12
Ġ8 20
Ġ19 22
Ġ19 40
Ġ19 31
âĳ ¶
à¼ł à¼¤
ï¼ī ãĢģ
Ġ24 1
à¼© à¼¦
32 8
13 9
ĠP h
ĠC C
Ġà¼¢ à¼¨
65 295
ĠâĢĿ[ [
Ġ-- --
à¼¡à¼©à¼¨ à¼¥
ĠN BA
973 65295
---- ----
Ġï¼ĳï¼ Ĵ
ĠV R
Ġ176 97365295
C I
W indows
e p
h u
o u
q u
r y
s on
Ç Ĳ
Ġ à½łà½ļà½ĺ
à½Ĥ à½ĺà½Ĳ
à½´ à½¾à¼ĭ
à½´à¼ĭ à¼½
à½ħ à½¦
à½ĳà½ĺ à½ĳ
âĢ ¹
à¾¦ à¾²à½¼
à½ĺà½Ĩ à½ĳ
Ġï¼ Ļ
Ġ4 12
Ġ4 76
Ġ7 90
Ġ7 98
Ġ8 60
Ġ19 28
Ġ19 14
Ġ25 8
Ġ40 2
à¼¨ à¼¨
ĠA dobe
13 8
Ġ32 4
Ġ32 9
ĠP M
Ġ55 5
Ġ... .
Ġ57 00
Ġ53 00
Ġ63 00
à¾ļ à¼ĭ
à¼¡à¼©à¼¨ à¼¢
Ġà¼¡à¼©à¼¨ à¼¥
ĠO f
155 97665541
) (
P r
t r
Ê ¦
à ¤
Ġ Î
à½Ħ à½ĸ
à½¨ à½¦
à½ĸà½¤ à½Ĥ
à¾Ĳà½´ à½´à¼ĭ
ĠâĢĿ "
à½ĸà½ı à½ĺà½¦
ï¼ ı
Ġ3 33
Ġ3 92
Ġ4 93
Ġ5 18
à½¦à½ł à½¢
Ġ7 20
Ġ11 13
000 1
Ġ13 50
Ġ18 000
Ġ17 44
à¼© à¼¡
Ġ31 4
Ġ27 6
32 1
50 8
14 0
Ġ36 3
Ġ34 5
ĠT ikTok
Ġà¼¢à¼łà¼ł à¼¦
à¼¡à¼©à¼© à¼¨
ï¼Įï¼Į ï¼Įï¼Į
Ġï¼Į ãĢĤ
Ġof o
ĠOf fice
) .
C N
G B
I MF
P U
m i
Ġ r
à¾± à½±
à½£ à½£
à½łà½ķ à½£
Ġà½¢ à½ĵ
à½Ĥà½ħ à½ł
à½ĸà½Ł à½ĵ
à¾« à½ºà¼ĭ
à¾Ń à½±
Ġ2 97
ĠãĢĭ )
Ġà½ĺà½ļ à½Ħ
Ġ3 89
Ġ4 44
Ġ4 96
Ġ5 66
Ġ7 63
Ġ8 70
Ġ9 40
à¼¼ à¼½
Ġ13 60
Ġ17 000
Ġ24 9
Ġ28 7
Ġ31 6
Ġà½Ļ à½Ĥ
Ġ29 1
10 6
Ġ0 891
Ġ34 2
âĳł âĳ¡
Ġï¹ Ĵ
à¼· à½¼
Ġà¼¢ à¼¡
Ġà¼¢ à¼¦
ĠI P
ĠI V
ĠW i
Ġ83 00
Ġà¼¡à¼©à¼© à¼¦
ï¼ĮãĢĤ âĢĿâĢľ
Ġïĵ ĵ
Ġïĸ ĳ
ĠLin ux
C o
a g
u b
Ê ĳ
Ġ Y
à¼ĭ à½¼
à½¼ à½¿
à½ĸ à½Ĩ
à½¢ à½ī
à½ł à½ł
à¾¡ à¾·à½²à¼ĭ
Ġà½¢ à½ı
à½Ľ à½¢
ĠâĢľ âĢ¦âĢ¦
à¾Ĵà¾²à½¼ à¼į
Ġà½łà½ĳ à½ĸà½¦
à¾³à½´ à¼İ
Ġï¼ ¿
Ġï¼ Ł
Ġ4 22
Ġ4 23
Ġ( ãĢĬ
Ġ5 33
Ġ5 35
Ġà½ĸà½¦ à½ĺà½¦
Ġ6 41
Ġ7 30
Ġ7 37
Ġ8 41
Ġ9 20
Ġ10 38
Ġ10 87
Ġ19 30
ï¼ī ãĢĭ
Ġ27 1
10 5
12 2
Ġï Ķ
Ġà¼¢ à¼¥
à¼¢à¼łà¼ł à¼¢
à¼ĭà¼ĭà¼ĭà¼ĭ à¼ĭà¼ĭà¼ĭ
ti c
ãĢģãĢģ ãĢģãĢģ
197 5
Ġà¼¡à¼©à¼© à¼¢
Ġâħ ¡
Ġïĳ Į
________ ________
olog y
5 30
D F
Ã ²
Å «
î ģ
ï ĳ
Ġ à½ĸà½¤à½ł
Ġ in
à½Ĥ à½ļà½ĵ
à¾± à¾Ńà¼į
à½ĺ à½ħ
à¾¡ à¾·à½±à¼ĭ
à¾· à¾±à¼ĭ
ĠãĢĭ âĢľ
Ġï¼ Ĺ
Ġ4 26
Ġ5 16
Ġ5 28
Ġ5 26
Ġ5 46
Ġ5 37
Ġ6 33
Ġ7 47
Ġ19 43
Ġ19 02
Ġï¼ī ãĢĬ
Ġ12 80
Ġ16 000
à¼£ à¼łà¼łà¼ł
Ġ24 4
89 5
16 2
11 5
Ġ32 2
Ġ36 7
Ġ36 9
ï¼Į âĢĿ
23 9
à¼¢à¼łà¼ł à¼¥
Ġp pp
Ġ... ""
ĠS h
Ġ58 00
à¼¡à¼£ à¼ł
ĠM icrosoft
Ġ140 9
Ġà¼¢à¼łà¼ł à¼¥
oh n
Pr ess
îģ Ŀ
1 974
7 00
I D
I S
a v
b o
t o
Ġ _
à½¦ à½ŀ
à½Ĥ à½Ĥà½ĵà½¦
à½ĵ à½Ķà½ł
à¾± à½»à¼ĭ
à½º "
à½£ à½ĸà½¦
à¾Ĳà¾±à½¼ à¼į
à½ĸà½Ł à½¢
à¾¨ à½²à¼į
à¾Ķà½¼ à¼İ
à½łà½Ĳ à½ĸà½¦
à½Ĥà½Ļ à½ĵ
Ġà½Ģ à½£
ĠâĢľ ......
à½Ŀ à½£
à¾Ĵà¾² à¼½
Ġ5 32
Ġ5 75
Ġ6 10
Ġ7 60
Ġ7 66
Ġ8 32
à½¡à½ĵ à½ł
Ġ9 46
Ġ19 39
19 69
Ġ28 9
à¼© à¼£
à¼¨ à¼£
17 1
25 6
ĠA l
ĠA AA
14 3
13 1
13 4
Ġ33 9
Ġ34 8
Ġ38 7
ĠâĢľâĢĿ âĢľâĢĿ
co de
ĠãĢĭ( )
45 7
Ġ66 00
Ġà¼¢à¼łà¼ł à¼§
à¼¡à¼©à¼© à¼©
ĠE TC
à¼¡à¼©à¼¨ à¼ł
Â·Â· Â·Â·
Ã¡ ng
? ?
E O
O C
T E
l us
s t
v i
ã Ĥ
à½ĵ à½£à½¦
Ġà½£ à½ī
à¾Ļ à½´à¼ĭ
à¾Ń à½¼à¼į
Ġ4 32
Ġ5 12
Ġ5 34
Ġ7 95
20 25
Ġà½łà½Ĥ à½¢
Ġ19 23
Ġ19 07
Ġà½ĸà½ĳ à½ł
Ġï¼ī âĢľ
Ġ28 1
Ġ28 3
à¼¨ à¼¤
à½¨à½ł à½¢
33 6
11 4
15 9
Ġ32 7
18 0
Ġ34 6
à¼¢à¼łà¼ł à¼¡
Ġ44 3
à¼¡à¼¢ à¼ł
ĠS t
ĠS DR
à¼¡à¼¤ à¼ł
à¼¡à¼§ à¼ł
57 46
Ġ82 44
à¼¡à¼©à¼© à¼§
à¼¡à¼©à¼¨ à¼§
te in
Ġïı İ
1 32
A C
G DP
I n
a z
e y
n et
Â »
à½Ĥ à½ĺà½īà½ĺ
à½ĸ à½ĳà½Ħ
à½ĵ à½ĳà½Ħ
à¾± "
à½ł à½ĳà½Ħà½¦
à½º à¼½
à½¡ à½ĳ
à¾© à¾Ģ
à¾³à½¼ à¼İ
à¾¦ à¾²à½ºà¼ĭ
Ġà½ĺ à½İ
ãĢ Ĺ
Ġà½ŀ à½Ĥà½¦
ĠâĢĿ ï¼»
à½Ĥà½ĳ à½¢
à½ĺà½ĩ à½ł
Ġà½łà½ĸ à½£
Ġ5 10
Ġ6 200
Ġ6 66
Ġ7 42
20 22
Ġ9 50
Ġ12 60
Ġ12 68
Ġà½łà½ģ à½£
Ġ14 19
Ġ14 35
à¾Ģ à¼İ
Ġ25 9
Ġ100 5
à¼¨ à¼©
Ġ27 9
à½Ĭ à½¢
Ġ0 3
Ġ0 7
Ġ0 28
à¼¡à¼© à¼¥à¼¨
12 9
Ġ35 5
88 8
13 5
13 7
Ġ36 2
ĠP T
âĢĶâĢĶ âĢľ
Ġ38 3
Ġà¼¢ à¼¤
Ġ37 2
Ġ37 4
ĠãĢĭï¼Ī ãĢĬãĢĭï¼ī
à¼¡à¼¤ à¼¡à¼©
à¼¡à¼¥ à¼ł
ti ve
à¼¡à¼©à¼© à¼¥
à¼¡à¼©à¼© à¼¦
ĠâĢĿï¼Ī ï¼ī
ĠK TV
Ġà¼¡à¼©à¼¨ à¼©
Ġà¼¡à¼©à¼¨ à¼¨
Ġï¼Ĵ ï¼Ĳ
ĠR e
Ãł ng
ĠII I
) âĢĿ
. âĢľ
1 000
A PEC
L A
M P
M a
M ar
T he
j Ä«
p h
t u
ï į
à¼ĭ à½º
à½º à¼¼
à½Ķ à½ĺ
à½Ĥà½¦ à½Ħà½¦
à¾Ĳ à½²
à½ĳà½Ĥ à½Ħ
Ġà½¢ à½ł
à¾« à¼į
ĠâĢľ [
à½ĸà½ı à½Ħà½¦
à¾£à½¼ à¼İ
Ġ3 96
Ġà½¨ à½Ĥ
Ġ4 65
Ġ5 29
Ġ5 85
Ġ6 25
Ġ6 90
Ġ7 21
Ġ7 61
Ġ8 40
Ġ19 32
Ġ19 12
Ġ19 16
à¾¤à¾² à½ºà¼ĭ
Ġ17 50
16 7
Ġ35 3
Ġ35 4
11 1
Ġ34 1
Ġà¼¢ à¼£
Ġ75 5
on g
ï¼½ ãĢĬ
ĠI D
Ġ68 00
Ġà¼¢à¼łà¼ł à¼ł
à¼¡à¼©à¼© à¼¤
Ġà¼¡à¼©à¼¨ à¼¤
Äģ ng
ĠîĢ Ħ
Ġà½ĳà½ĸà½ł à½¦
un d
Ġà¼Ħ à¼į
Ġïĵ Ĺ
ni code
AR S
ïĸ ĳ
ĠIC U
p en
r ic
Ġ g
à½ĵ à½ķ
à¾Ĳ à¾²à½²à¼ĭ
à½ı à½ĸ
à¾¤ à¾²à½´à¼ĭ
à¾Ķ à¾·
à½ĳà½Ģ à½ĵ
à½ĺà½ł à½¢
ĠãĢĭ ãĢĶ
Ġ4 89
Ġ4 16
Ġ4 18
Ġ4 27
Ġ4 46
Ġ5 19
Ġ5 76
à½ĺà½ĵ à½ĸ
Ġ6 32
Ġ6 24
Ġ6 38
Ġ6 63
Ġ9 97
Ġ9 61
Ġ19 11
Ġ19 24
à¼Į à¼Į
Ġ12 88
Ġ12 87
Ġ17 20
Ġ14 000
Ġà½łà½ļ à½£
Ġ40 9
ĠÂ· Â·Â·Â·Â·
10 4
10 8
11 3
à¼¡à¼ł à¼£
Ġï¹ ı
ĠC PU
Ġà¼¢ à¼¢
à½±à½´ à½¾à¼İ
87 4
âĳ£ âĳ¤
Ġ67 00
Ġ71 00
Ġ88 00
Ġà¼¢à¼łà¼ł à¼£
à¼¡à¼©à¼© à¼¡
Ġ84 00
ĠE V
Ġà¼¡à¼©à¼¨ à¼ł
Ġà¼¡à¼©à¼© à¼ł
Ġà¼¡à¼©à¼© à¼§
Ġïį Ľ
Ġà¼Ħ à¼İ
à¾´ à¼ĭ
110 9
Äĵ ng
ĠWord Press
Co V
ĠÂ·Â·Â·Â·Â· Â·
% )
1 972
I F
O M
U niversity
] .
k s
l in
à½Ĥ à½ĺà½ģà½ł
à½ĳ à½£à½¦
à¾Ĳ à¼į
à¾±à½² à½²
à¾¡ à¾·
à¾£ à½²
à½ĳà½ĺ à½Ĥà½¦
à½łà½Ĳ à½Ĥà½¦
ĠâĢĿ ãĢĬ
Ġ3 97
Ġ4 45
Ġ4 99
Ġ( âĢľ
Ġ5 58
Ġ5 23
Ġ6 44
Ġ6 70
Ġ6 29
Ġ7 87
Ġ8 92
Ġ8 36
Ġ9 96
Ġ9 80
Ġ10 44
Ġ19 18
Ġ19 04
Ġï¼ī ï¼Ī
à¼½ à¼į
Ġ13 05
Ġ14 11
Ġà½Ĥà½Ł à½¢
à¼¥ à¼łà¼ł
Ġ50 5
à¼¨ à¼¦
10 38
10 42
12 5
12 86
Ġ35 2
28 0
15 6
ĠP PT
Ġ38 4
Ġ38 5
Ġ46 4
Ġ44 7
ĠS kype
à¼¡à¼¦ à¼ł
Ġ..... ..
Ġ97 8
or e
Ġà¼¢à¼łà¼ł à¼¢
Ġ78 00
à¼¡à¼©à¼¨ à¼¦
ĠN o
197 1
---- -
Ġï¼ĳï¼ Ļ
um m
Ġ1230 6
Åį ng
3 18
P S
T A
h an
i e
n ba
u sh
z z
Å ĭ
Ġ ãĬ
à½Ĥ à½Ķà½¢
à½Ĥ à½ĺà½Ľ
à½¢ à½łà½Ħ
à½¢ à½©
à½ĵ à½łà½ĺ
à¾± à½»
à½´à¼ĭ à¼İ
à¾© à¼İ
à½Ļ à½£
à½ĸà½ŀ à½Ĥà½ĳ
Ġà½ĳ à½ĸà½¦
à¾· à½¾à¼ĭ
âĢ ²
à¾¦ à¾±à½²à¼ĭ
à½ĸà½Ĥ à½Ĥ
Ġ4 95
Ġ6 19
Ġ6 89
Ġ6 48
Ġ6 67
Ġ7 58
Ġ7 96
Ġ7 40
Ġ8 33
Ġ8 80
Ġ8 48
Ġ10 50
Ġ10 73
Ġ11 42
à½£à½ł à½ĺ
Ġà½Ĥà½Ļ à½Ĥ
Ġ15 80
Ġ13 40
Ġ18 40
Ġ17 87
Ġ30 7
19 35
Ġ50 4
Ġ40 6
Ġà½łà½Ĳ à½ĳ
à¼¦ à¼łà¼ł
Ġ0 4
12 83
Ġ35 1
66 3
11 34
13 6
Ġ32 1
Ġ32 41
Ġ36 8
Ġ34 3
Ġ34 7
Ġ34 9
Ġ37 1
Ġ37 9
Ġ44 8
Ġ85 00
Ġ77 9
à¼¡à¼©à¼© à¼¢
oo k
à¼¡à¼©à¼¨ à¼¤
à¼¡à¼©à¼¨ à¼©
Ġïį ¡
Ġ216 00
Ġ{ (
//// ////
umm ins
7 37
P A
R C
a u
k o
l er
o c
o us
ï ķ
Ġ "
Ġ ,
Ġ à½łà½Ħ
à½¦ à½Ģ
à½Ĥ à½ĺà½Ħ
à½Ĥ à½ĩ
à½Ĥ à½ĸà½Ģ
à½Ĥ à½łà½Ľà½ĺ
à½Ĥ à½İ
à½Ĥ à½Ģà½ĵ
à½¼ à¼Įà¼į
à½ĺ à½ĵà½¦
à¾Ĵà¾± à½¼à¼ĭ
à¾³ à¾Ģ
à¾±à½² à¼Ķ
à½ĳà½Ĥ à½ĳ
à¾Ķ à¼Įà¼į
à½Ļ à½Ģ
à½± à¼İ
00 67
Ġ4 77
Ġ5 88
Ġà½ħ à½ĳ
Ġà½Ķà½ł à½ĺ
Ġ6 17
Ġ6 88
Ġ6 34
Ġ6 98
Ġ7 35
Ġ7 23
"" "
Ġ10 26
Ġ19 25
Ġ19 44
Ġ19 08
Ġ12 50
Ġ12 67
Ġ16 42
Ġ14 14
Ġ14 40
Ġ14 47
ï¼ī âĢľ
Ġ25 000
à¼£ à¼¡à¼¨
19 5
19 56
19 54
ï¼Ī ãĢĬ
Ġ70 1
Ġ50 2
Ġ40 4
Ġ27 4
Ġ27 7
ĠãĢĭãĢĬ ãĢĭ
Ġ80 4
ĠâĢĺ âĢĻ
ĠA G
ĠA TM
33 9
75 5
70 4
Ġ35 9
15 1
Ġ32 000
Ġ36 1
34 8
35 2
ï¹ ķ
ĠC R
Ġ37 3
Ġ46 3
Ġ48 4
86 3
99 9
ĠS ARS
Ġ57 3
ĠI S
ĠI T
ĠM a
Ġ96 00
ra c
Ġï¼ĳ ï¼Ĳ
if t
/ )
C h
I C
b er
f Ã³
h wa
s s
s u
Ġ *
Ġ îģĿ
à½Ĥ à½Ĥà½ĵà½ł
à½ĵ à½¡
à½ĺ à½ĳà½Ĥ
à½ĺ à½ĵà½ĺ
à½ĳà½Ħ à½ĺà½¦
à¾²à½´ à½¾à¼ĭ
à½ī à½ĸ
à¾¤ à½´à¼į
à½ĳà½Ĥ à½ĸ
à½ĺà½Ĳ à½Ħ
Ġà½ĳ à½Ĥà½¦
âĢ º
à¾Ĵà¾±à½´à¼ĭ à¼ĭ
Ġà½ĸ à½Ľ
ãĢ ľ
à½ĳà½Ģ à½£
à½ĸà½ı à½ĳ
à½Ĥà½¤ à½ĺà½¦
Ġà½§ à½łà½¢
Ġ4 92
Ġ4 29
Ġ5 92
Ġ6 69
Ġ7 32
Ġ7 75
Ġ7 24
20 7
20 35
20 21
Ġ8 12
Ġ8 22
Ġ10 60
Ġ10 35
Ġ19 17
Ġ19 29
Ġ19 05
Ġï¼Ī ï¼Į
Ġ12 89
Ġ11 50
Ġà½łà½ģ à½Ħ
Ġ13 90
Ġ18 70
Ġ18 65
Ġ14 24
19 2
19 8
19 45
à¼¤ à¼łà¼ł
Ġ29 2
Ġ29 3
Ġ29 4
Ġ60 1
17 0
66 6
Ġ45 1
Ġ45 4
18 6
Ġ38 2
Ġ65 9
Ġ39 5
46 3
Ġ46 7
Ġ800 00
Ġ097 7
Ġ54 3
Ġ49 00
Ġ)ãĢĭ (
Ġ67 9
ãĢĤ ãĢĤ
Ġ86 00
Ġà¼¦ à¼ł
Ġà¼¡à¼©à¼¨ à¼¡
ĠãĢģ ãĢģ
Ġâħ ¢
Ġïĳ Ģ
à¼¡à¼©à¼§ à¼¦
nd ro
à¾ŀ à¼ĭ
ĠâĢº âĢº
ĠâĢľâĢĿâĢľâĢĿ âĢľâĢĿ
jÄ« ng
) ,
. "
2 11
B ak
E N
E V
M icrosoft
P ad
a i
d Ãł
i ta
o ur
x t
y th
Â Ń
ï İ
Ġ à½łà½ĩà½Ĥà½¦
à½Ĥ à½Ĥà½ħ
à½Ĥ à½łà½ĩ
à½Ĥ à½ĳà½ĸà½Ħ
à½Ĥ à½Ĥà½ĳ
à½¼ à½¾
à¾² à½±à¼ĭ
à½Ķ à½£
à½Ķ à½ī
à½ĳà½ĸ à½Ħà½¦
à¾Ĺ à½´
à½ĩ à½¦
à½ĩ à½Ħ
à¾Ķà½¼ à¼į
à¾¦ à¾·
à½± à½ºà¼į
00 00
00 64
à¾ķ à½²à¼İ
Ġ4 11
Ġ4 21
Ġ5 39
Ġà½¤ à½Ģ
Ġ6 76
Ġ7 10
Ġ7 14
Ġ7 76
Ġ7 68
à½ģà½ł à½¢
Ġ8 10
Ġ8 28
Ġ9 30
Ġ10 80
âĢľ ãĢĬ
Ġ19 19
Ġ19 03
Ġ11 19
Ġ11 36
Ġ15 30
Ġ18 95
à½ıà½ł à½¢
Ġ22 80
Ġ() âĢĿ
Ġ60 6
89 4
16 6
25 4
ĠA B
Ġ45 5
Ġ45 7
15 4
ĠP C
âĢĶâĢĶ âĢĶ
à¼· à½ºà¼ĭ
Ġ43 9
Ġ39 4
Ġ39 8
Ġ44 1
in a
Ġ600 00
ĠT e
sh op
or g
or ge
en ce
Ġ73 00
Ġ61 00
Ġâ Ł
ĠU niversity
ĠU nicode
à¾´ à½²à¼ĭ
Éķ Ê°
ÊĶ a
"à¼Ħà¼ħ à¼į
% ãĢģ
2 20
3 20
B L
L e
P M
Q Q
T O
d Ã¬
f Çİ
l y
m e
s Ê°
y u
Ë Ģ
á ¹
ï ĵ
à½Ĥ à½łà½ģ
à½Ĥ à½ĸà½Ł
à½Ĥ à½łà½Ĥà½ĵ
à½Ĥ à½ĳà½Ķà½£
à½Ĥ à½Ĥà½ĵà½ĺ
à½´ "
à½ĵ à½ģ
à½²à¼ĭ "
à½º à½²
à½º à¼İ"
à½Ģ à½ĳ
à½Ĳ à½Ħà½¦
à¾±à½º à½º
à½ĺà½¦ à½¦
à¾£ à¾²à½¼
à½ĳà½ĺ à½Ħ
à½ĺà½ļ à½ĺ
à¾¨ à½±à¼ĭ
Ġà½Ĥ à½Ĩ
Ġà½ģ à½ĵ
à½ĺà½Ľ à½¦
ĠâĢĿ âĢĶâĢĶ
à½ģà½Ĥ à½Ģ
ï¼ ģ
Ġ3 93
Ġ4 13
Ġ5 17
Ġ5 44
Ġ5 22
Ġà½¤ à½¦
Ġ6 58
Ġ6 22
Ġ6 47
Ġ7 19
Ġ8 13
Ġ9 70
Ġ9 65
Ġ9 67
âĢľ ï¼ĮãĢĤâĢĿâĢľ
Ġ12 65
Ġ12 95
Ġ12 69
Ġà½łà½ĩ à½Ĥ
Ġ13 80
Ġ18 20
Ġ18 90
Ġ17 92
Ġ17 38
Ġ14 16
Ġ40 8
Ġ0 10
à¼¡à¼© à¼ł
à¼¡à¼© à¼¤à¼©
à¼¡à¼© à¼¦à¼¨
12 4
12 85
ĠâĢĻ âĢĺ
Ġï¼Īï¼ī ãĢĭ
Ġ35 7
28 6
Ġ45 3
15 3
Ġ38 6
an n
Ġ37 8
Ġ55 1
Ġ55 3
26 3
26 9
Ġ39 9
Ġ75 6
Ġ56 8
Ġp p
86 60
ĠB BC
37 1
Ġ98 00
à½Ĺ à½¦
ĠD e
ar a
ar k
ĠW eb
Ġ76 00
à¼¡à¼©à¼¨ à¼¡
es t
us e
Ġïĵ ¼
ĠïĮ Ĥ
à¾´ à½²
om e
oto shop
ĠCC TV
895 508
Ġ3241 895508
Bak er
1 16
A r
N G
P lus
V D
i re
l d
l and
p o
Ê ¥
Ġ h
Ġ ch
à¾ ¼
à¾ ĩ
à½Ĥ à½ĸà½ħ
à½Ĥ à½Ĥà½Ł
à½Ĥ à½ķà½ĵ
à½² à½º
à½Ħ à½ŀ
à½º à½ºà¼į
à¾Ĵ à¾²à½²à¼ĭ
à½ºà¼ĭ à¼¼
à¾· à½¼à¼į"
à¾· à½±à½²à¼ĭ
ĠâĢĿ âĢĶ
à¾¤à¾±à½² à½²à¼ĭ
à½Ĥà½¡ à½£
à¾³à½´ à¼½
Ġ5 36
Ġ5 98
Ġ5 95
à¼Ħ à¼İ
Ġ6 45
Ġ7 17
Ġ7 25
Ġ7 44
Ġ7 88
Ġ) /
Ġ) Â»
Ġ8 29
Ġ8 38
Ġ8 82
Ġ8 85
Ġ8 86
Ġ8 63
Ġ8 74
Ġà½Ĥà½ŀ à½ł
Ġ10 20
Ġ19 13
Ġ19 01
Ġ11 27
âĳ ·
Ġ15 78
Ġ13 89
Ġ13 79
Ġ16 40
Ġ16 52
Ġà½ĸà½Ļ à½ĳ
Ġà½łà½ļ à½ĸ
Ġ25 3974201
19 3
19 4
19 57
Ġ50 3
Ġ0 6
17 74
Ġ80 8
ĠâĢĶ ?
44 9
11 82
28 3
14 7
14 9
Ġ33 68
93 6
ĠP ro
Ġ38 1
24 0
à¾° à½²
76 7
ï¹ ŀ
ĠC EO
26 1
27 9
Ġ46 8
Ġ120 6
Ġ47 4
Ġ47 8
in t
Ġà½ĸà½¤ à½¢
Ġà¼¡ à¼¡à¼¨
ï¼½ ï¼»
Ġà¼£ à¼łà¼ł
Ġ57 4
ĠI MF
Ġà¼¤ à¼ł
sh Ã¬
Ġà¼¥ à¼ł
ĠL i
ra m
Ġà¼¡à¼©à¼¨ à¼¢
Ġà¼¡à¼©à¼¨ à¼¦
Ġà¼¡à¼©à¼© à¼¨
Ġâħ ł
Ġïĳ ĭ
ter net
Ġïĸ ¨
NA SA
Ġï¼ĳ ï¼Ĳï¼Ĳ
ĠïĹ Ļ
AS T
ĠâĢ¹ âĢ¹
à¾²à½± à½²à¼į
" ãĢĲ
1 970
3 17
C D
C M
C ummins
D e
M A
T S
] "
c a
c ha
p s
s Ã¬
t sa
Ä Ľ
Ġ à½İ
Ġ à½łà½Ĩà½Ħ
à½Ĥ à½Ĥà½ī
à½Ĥ à½Ĥà½Ļ
à½Ĥ à½ĸà½¦à½ĺ
à½Ĥ à½ĺà½ĳ
à½ĳ à½¡
à½£ à½¡
à½£ à½ĳà½Ħ
à½ĺ à½§
à½ļ à½łà½ĺ
à½Ķà½ł à½¢
à¾²à½¼ à½¾à¼ĭ
à¾¡ à½±à¼ĭ
à¾© à½¼à¼ĭ
à½łà½Ľ à½ĸ
Ġà½¦ à½Ĥ
à¾· à½±
à½Ĥà½ħ à½Ĥ
à½łà½ĩ à½ĺà½¦
Ġà½Ĥ à½Ĥ
Ġà½Ĥ à½¤à½¢
à½łà½Ĩ à½ĵ
Ġ20 26
Ġà½Ł à½¢
Ġ5 14
Ġ5 96
Ġ5 94
Ġ6 39
Ġ7 16
Ġ7 38
Ġ7 39
Ġ7 62
20 5
Ġ8 90
Ġ8 43
Ġ"" (
Ġ12 76
Ġ11 10
Ġ11 11
Ġ18 66
Ġ18 99
Ġ17 47
Ġ16 17
Ġ16 45
Ġ16 39
Ġ16 67
Ġ14 77
19 34
19 36
19 52
à¼¤ à¼łà¼łà¼ł
Ġ50 9
Ġ40 7
Ġ0 2
Ġ] ãĢľ
à½Į à½ł
17 6
12 8
58 3
50 2
Ġ80 9
70 8
Ġ/ /
Ġ32 40
Ġ33 1
âĢĶâĢĶ ãĢĬ
35 5
à¾° à½²à¼ĭ
ĠC A
Ġ65 3
Ġ48 6
in d
Ġ-- ---
le s
oo d
Ġà¼¡à¼©à¼¨ à¼§
à¼¡à¼©à¼§ à¼¨
Ê¨ Ê°
Äĵ n
ock et
2 13
B M
F ran
G e
J ohn
d a
d en
g a
n e
p ta
É Ļ
Ġ \
à½¢ à½ŀ
à½ł à½Ķ
à½ĺ à½ŀ
à½Ķ à½Ħà½¦
à½Ķ à½©
à½Ĥà½¦ à½£à½¦
à½¼à¼ĭ à¼¼
à½ĳà½Ħ à½Ħ
à½Ĩ à½ĺà½¦
à¾Ĳ à¾²à½²
à½ķ à½łà½ĺ
à¾±à½º à½ºà¼į
à½¤ à½łà½Ħ
à¾²à½¼ à¼½
à¾¤ à½²
à¾· "
Ġà½Ĥ à½ĳà½ĸ
à¾Ĳà¾± à¾Ģà¼ĭ
ï¼ ¸
Ġ5 24
Ġ5 87
Ġà½¤ à½£
Ġ6 92
Ġ6 99
Ġ7 200
Ġ7 13
Ġ7 93
Ġ7 64
Ġ8 34
Ġ9 25
Ġ10 32
Ġ10 54
à¼¡ à¼¡à¼¤
à¼¡ à¼¡à¼§
Ġ19 15
Ġ12 17
Ġ12 70
Ġ12 90
Ġ12 40
Ġ12 52
âĳ ª
à½İ à½¦
Ġà½łà½ģ à½ĵ
Ġ13 61
Ġà½ĸà½Ģ à½¢
Ġ18 96
Ġ18 98
Ġ18 67
Ġà½ĸà½Ł à½¦
Ġ17 32
Ġ17 17
Ġ17 27
Ġ17 05
Ġà½Ĥà½ĵ à½Ħà½¦
Ġ16 44
Ġ16 82
Ġ14 34
Ġ14 29
Ġ14 55
Ġ25 50
à¼£ à¼¡à¼¥
19 0
19 66
Ġ. ãĢĬ
Ġ100 8
Ġ70 4
Ġ70 8
Ġ23 15
Ġâĳ ¬
à¼¥ à¼łà¼łà¼ł
30 1
10 40
32 6
89 9
Ġà¼½ à¼į
14 6
77 7
ĠP DF
an s
an t
23 1
23 6
23 7
40 9
Ġ55 9
à¼ĭà¼¼ à¼½
Ġ43 6
36 7
Ġ56 3
Ġà½ĸà½¤ à½Ĥà½¦
ĠT he
37 3
ĠD VD
ĠâĢĶâĢĶ âĢľ
Ġ68 3
Ġ700 00
âĳ¦ âĳ§
le x
à¼µ à½²
Ġà¼¢à¼łà¼ł à¼¡
is ta
ãĢĬãĢĭ ãĢĬãĢĭ
Ġà¼¡à¼©à¼© à¼©
Ġïį «
Ġï¼ĳï¼ ĵ
Ġï¼ĳï¼ ĸ
ï¼Ĵ ï¼Ĳ
à¾²à½±à½² à½¿
à¾¶ à¼ĭ
Ġf or
qh pta
ĠWi Fi
ndro id
. )
A L
A l
A PP
C R
E L
H O
M W
N E
T ype
b Ã¹
e ar
f f
i o
i le
j Ã¬
k Ê°a
m g
m o
o v
o x
v er
w Ãº
} (
¸ ï¼¸
Å Ľ
Ġ à½²
Ġ à½¥
à½Ĥ à½Ĥà½ı
à½Ĥ à½ĺà½Ĥ
à½Ĥ à½Ĥà½ĵà½ĳ
à½ĵ à½¡à½Ħ
à¾± à½¾
à½º à½¾
à¾² à½¾
à¾³ à½½à¼ĭ
à¾²à½´ à½´
à½£à½¦ à½ĺà½īà½ĺ
à½ĺà½¦ à½Ģ
à½łà½ Ļ
Ġà½ĳ à½ł
à¾±à¼ĭ à¼ĭ
à½łà½ĩ à½ĳ
à¾Ļ à¾Ģ
Ġà½Ĥ à½¤à½Ħ
à¾Ĳà¾±à½º à¼Ķ
à½ģà½Ĥ à½ģ
ĠãĢ ĸ
ĠâĢľ ....
Ġ2 970
à½± à½¾
Ġà½ļ à½ĺ
ĠãĢĭ âĢĿ
Ġï¼ ¸ï¼¸
Ġ5 47
Ġ6 75
Ġ6 86
Ġ6 42
Ġ6 168
20 6
20 63
Ġà½ł à½¦
Ġ9 58
Ġ10 88
Ġ10 90
à¼¡ à¼¡à¼¦
Ġ19 10
Ġà½ĸà½ĳ à½£
Ġ12 36
Ġ12 53
Ġ11 48
à¼ł à¼§
Ġ18 63
Ġ17 55
Ġ14 39
à¼£ à¼¡à¼§
à¼£ à¼¢à¼¥
âĢĿ ï¼Ī
19 60
19 38
Ġ70 5
Ġâĳ «
Ġâĳ ´
Ġ0 5
à¼¡à¼© à¼¥à¼©
à¼¡à¼© à¼¥à¼¡
12 1
12 7
12 345
16 4
Ġ80 7
44 5
ĠA n
33 7
33 8
Ġ35 000
14 2
14 5
Ġ33 4
22 4
18 2
18 7
an u
à¾° à¼į
co n
Ġ55 6
Ġ43 8
Ġ75 4
Ġ47 50
__ _
Ġà¼£ à¼¥
ĠS er
Ġ110 9
Ġ85 6
à¼µ à½¼
à¼µ à½¼à¼ĭ
Ġ77 00
ï¼Įï¼Į ãĢĤ
ic h
ra l
197 3
Ġà¼¡à¼ł à¼ł
te m
Ġà¼¨ à¼ł
Ġà¼¡à¼©à¼© à¼£
Ġà¼¡à¼©à¼© à¼¥
à¼¡à¼©à¼§ à¼¥
Ġï¼ĵ ï¼Ĳ
Ġc m
Ã© n
à¾Ľ à½½
ER S
2 16
2 65
3 10
3 50
A dobe
D A
P I
U CN
d y
f or
g oogle
i th
k e
k i
r on
u a
u e
x x
x z
É ĳ
Ê £
Ġ @
Ġ à½¿
Ġ gu
Ġ ________________
à½ĳ à½łà½ĺ
à½Ħ à½ģ
à½£ à½ĺà½¦
à½Ķ à½ŀ
à½ħ à½ĸ
à¾²à½¼ à¼į"
Ġà½ĳ à½¦
à½¨ à½ĳ
à½¨ à½¤
à½Ĥà½ī à½Ĥ
à¾¨ à¾¨à¼ĭ
à½ģà½Ħ à½ŀ
Ġà½Ĥ à½¡à½ĵ
à¾¦ à¼į
ãĢ į
à¾©à¼ĭ à¼ĭ
à½Ŀ à½łà½¢
à¾£à½¼ à¼į
Ġ20 28
Ġà½łà½ĳ à½ł
Ġà½§ à½ĳ
Ġ4 66
Ġ5 15
Ġ5 99
Ġ5 49
Ġ6 23
Ġ6 82
Ġ6 37
Ġ7 85
Ġ7 86
Ġ7 67
Ġ7 84
Ġ9 88
Ġ10 14
Ġ10 40
Ġ10 65
Ġ10 64
Ġ10 57
à¼¡ à¼¡à¼ł
Ġï¼Ī ãĢĬ
Ġ12 16
Ġ12 46
Ġ11 30
Ġ11 35
Ġ11 80
Ġ11 85
à½£à½ł à½¢
à¼¢ à¼¡à¼ł
Ġ15 46
Ġ13 75
Ġ13 76
Ġ18 45
Ġ18 55
Ġ17 24
Ġ16 80
Ġ16 62
Ġ14 25
Ġ14 13
Ġ14 26
97 5
19 9
Ġ100 9
Ġ70 9
à¼¨ à¼łà¼ł
10 55
à¼¡à¼© à¼¦à¼¦
17 00
12 51
Ġï ½
50 6
Ġ80 6
ĠA r
33 1
Ġ45 6
à½¿ à¼ĭ
18 3
24 2
à¾° à½ºà¼ĭ
ĠâĢľâĢĿ âĢľ
ĠC N
80 4
ĠâĢ¢ âĢ¢âĢ¢
Ġ46 34
36 1
Ġ48 1
Ġ120 2
Ġ44 2
Ġ47 3
ĠG MP
à¼¡à¼¢ à¼¤
er t
Ġà¼£ à¼¢
à¼¡à¼¤ à¼łà¼©
à½Ĺ à½ł
Ġ49 1
Ġ-- ----
Ġ..... âĢĿ
05 23
Ġ67 8
Ġï¼īãĢĭ ãĢĬ
Ġ64 00
Ġ140 7
ĠE X
Ġà¼¡à¼ł à¼łà¼ł
el le
Ġ114 50
ĠO pen
ur e
Ãł o
Ġïĳ Ĭ
ï½ ģ
ĠïĲ µ
Ġïİ Ĵ
AS A
Ġ665 6
ow er
ĠSh ift
ĠAAA A
" [
% -
. ï¼Į
5 24
8 15
? )
A n
C O
C ha
G S
P C
S tein
X X
a sh
c ri
i i
i j
i v
i z
i ra
k Ê°
o ma
s Ê°a
t Ê°
x ha
y Äģ
Ġ y
à¾ »
à½Ĥ à½Ĳà½Ħ
à½Ĥ à½ĳà½Ģà½¢
à½ĸ à½ĺà½¦
à½ĸ à½ļà½ĵ
à½´ à¼µ
à¾² "
à½Ĥà½¦ à½ĺ
à½Ĥà½¦ à½Ģ
à¾Ĵ à¾·à¼ĭ
à½ŀ à½łà½ĺ
à¾Ł à½±à¼ĭ
à¾Ł à½´à¼į
à½ķ à½łà½Ħ
à½¤ à½łà½ĺ
à¾±à½² à½º
à¾¡ à¾·à½¼à¼ĭ
à¾¡ à¾·à¼į
à½Ļ à½¦
Ġà½¦ à½Ļ
à¾· à¾±à½¼à¼ĭ
à¾· à½±à½´à¼ĭ
à½ĺà½Ħ à½ĵ
à½Ľ à½¦
Ġà½ĸ à½ª
à¾Ń à½±à½¾à¼ĭ
à½Ĥà½Ļ à½ĸà½¦
ãĢ Į
ãĢ ĸ
ĠâĢĿ )
ĠãĢĭ .
ĠãĢĭ ãĢĮ
ï¼ ³
à¾Ĳà¾±à½² à¼į
Ġ4 97
Ġ5 97
Ġ5 11
Ġ5 48
Ġ5 31
Ġà½ħ à½Ĥ
Ġ6 13
Ġ6 93
Ġ6 35
Ġ6 87
Ġ7 28
Ġ7 77
Ġ7 18
Ġ7 74
Ġ) ""
Ġ8 25
Ġ8 66
Ġ8 65
Ġ8 84
Ġà½Ĥà½ŀ à½Ĥ
Ġ"" âĢ¦âĢ¦
Ġ9 90
Ġ10 16
Ġ10 11
Ġ10 28
Ġ10 92
Ġ10 45
Ġ10 69
à¼¡ à¼¡à¼¥
Ġ19 06
à¼Į à¼ĭ
Ġ12 35
Ġ11 60
Ġ11 92
Ġ11 24
Ġ15 60
Ġ15 92
Ġà½ı à½¢
Ġ13 32
Ġ13 92
Ġ13 95
Ġ13 54
Ġ13 78
Ġ13 73
Ġ18 73
Ġ17 21
Ġ17 80
Ġ14 05
ï¼ī ,
Ġà½Ĥà½ı à½Ĥ
Ġà½Ĥà½ı à½ĺà½¦
19 6
19 11
19 37
19 55
19 68
Ġà½Ĥà½¡ à½ĺ
Ġ23 54
Ġâĳ Ń
Ġ50 8
30 5
Ġ29 50
Ġ29 80
32 5
à¼¡à¼© à¼¥à¼ł
17 5
50 7
Ġ80 2
44 0
15 7
Ġ33 20
22 1
22 2
22 9
93 1
an i
ĠC tr
ĠC LA
Ġ65 5
Ġà¼¢ à¼¢à¼¨
65 9
Ġ43 1
27 1
Ġ46 1
Ġ120 4
98 2
Ġ47 1
Ġ47 9
ĠG PS
86 8
Ġà¼£ à¼¡
Ġ85 3
Ġ)ãĢĭ ãĢĬ
à½¥ à½ł
or y
en s
âĳ¨ âĳ©
Ġà¼§ à¼ł
ĠL u
Ġ170 9
el l
Â¹Â³ Â²
Ġi Pad
à¼¡à¼©à¼§ à¼©
Ġ172 11
Ä« n
id a
ÃŃ ng
158 2
ji Äģ
119 2
112 4
ĠPh otoshop
yth on
2 30
2 32
4 000
6 60
6 80
7 97
8 00
8 45
I L
K V
M S
R a
T B
T e
V er
V OL
a le
b u
d ge
i es
i Phone
k ang
l or
m ent
r ary
t t
u Ã©
v el
â ħ
Ġ o
Ġ à½ª
Ġ ma
Ġ à¼ĳ
à½ µ
à½¦ à½Ĥà½¦
à½Ĥ à½ģà½Ħ
à½Ĥ à½Ĥà½¡
à½Ĥ à½ĸà½ĳà½Ĥ
à½Ĥ à½ĸà½Łà½ł
à½² à½ºà¼ĭ
à½¢ à½¡
à½ĵ à½łà½ĳ
à½²à¼ĭ à¼ĭà¼ĭ
à¾Ĵ à¾±à½²à¼ĭ
à¾Ĵ à¾²à½´à¼ĭ
à½Ĩ à½Ħà½¦
à½Ĩ à½Ĭ
à¾Ĵà¾± à½ºà¼į
à½ĸà½¦ à½¦
à¾Ĳ à½ºà¼į
à½Ł à½ĸà½¦
à¾£ à¼İ
à¾²à½º à½²
à¾· à¾Ń
à½ĺà½Ħ à½Į
à½Ķà½¦ à½ŀ
Ġà½ģ à½ĳ
à¾Ń à¼İ
à½łà½Ĳ à½ł
à¾¡à½´ à¼İ
à½ģà½Ĥ à½ĳ
à½ģà½Ĥ à½ĸ
à½ģà½Ĥ à½ĺ
ĠâĢľ ãĢģ
à½ĳà½Ģ à½ĳ
à½Ĥà½Ł à½ĳ
Ġà½Ł à½£
Ġà½ĵ à½łà½Ħ
Ġà½ĸà½¢ à½Ĥ
Ġ( ãĢĬãĢĭ)
Ġ6 27
Ġ6 36
Ġ6 43
Ġ7 92
Ġ7 65
Ġ7 29
20 3
20 4
20 8
Ġ8 16
Ġ8 44
Ġ8 75
Ġ8 46
Ġ8 45
Ġ9 18
Ġ9 85
Ġ10 12
Ġ10 36
Ġ10 31
Ġ10 84
Ġ10 72
Ġ19 09
Ġà½Ĥà½ħ à½¢
Ġï¼ī âĢĿ
Ġ12 44
Ġ12 85
Ġ12 39
Ġ11 20
Ġ11 93
Ġ11 55
Ġ11 67
Ġ11 61
Ġ11 53
Ġà½ĺà½Ĳ à½Ħ
Ġ15 35
à¼ł à¼¨
à½Ħà½ł à½ĺ
Ġ13 10
Ġ13 46
Ġ13 38
Ġ18 86
Ġ18 62
Ġ17 10
Ġ17 14
Ġ17 82
Ġ17 41
Ġ17 53
Ġ30 42
Ġ16 89
Ġ16 70
Ġ16 68
Ġ16 84
Ġ14 90
Ġ14 18
Ġ14 45
Ġ14 99
à¼£ à¼£à¼ł
19 58
19 67
Ġ22 000
Ġâĳ ª
Ġâĳ ®
Ġ50 7
30 2
Ġ60 4
Ġ] "
32 4
17 42
ĠA L
66 9
Ġ90 60
14 1
à¼¡à¼ł à¼¨
à¼¡à¼ł à¼¢à¼§
15 2
34 2
ï¹ Ŀ
ĠC BA
Ġ65 7
Ġ95 00
Ġ48 2
Ġ48 3
42 18
Ġà½ĸà½¤ à½ĵ
47 2
ĠT J
ĠS ocket
Ġ57 2
Ġ155 3
Ġ58 3
à¼¡à¼§ à¼¢à¼£
à¼¡à¼¥ à¼łà¼ł
94 3
Ġ97 9
ĠM ac
sh ÃŃ
ĠâĢĿ( ãĢĬ
ĠN oto
Ġà¼¡à¼©à¼© à¼¤
Ġï¼ĳï¼ ĳ
Ġï¼ĳï¼ ĺ
ib rary
ï¼Ĵ ï¼Ĳï¼Ĳ
ma tion
Ãł i
tion s
ac k
ĠãĢĤ âĢĿ
ÊĲ a
Ġï¼Ĵï¼Ĳï¼ĳï¼ ĸ
ĠIn ternet
ĠAl t
ĠâĢ¢âĢ¢âĢ¢ âĢ¢âĢ¢
ĠCtr l
- )
1 33
2 12
2 15
6 85
A I
A V
B er
C T
I N
R OM
S D
S L
S O
b Äģ
b at
d h
d ay
g y
i ma
j ec
k g
k h
k m
k ÉĽ
m y
p ra
u k
v s
v in
Ġ à¼
Ġ à¼łà¼ł
à½¦ à½ĳà½Ħ
à½Ĥ à½Ĥà½ĵ
à½² à½¾
à½¼ à½²à¼ĭ
à½¼ à½¼à¼İ
à½ĳ à½ģ
à½Ħ à½Ĩ
à½¢ à½ģ
à½´ à½¾
à½¼à¼ĭ à¼ĭà¼ĭà¼ĭ
à¾Ĵ à½²à¼ĭ
à½¡ à½Ĥà½¦
à½ºà¼ĭ à¼İ
à½ºà¼ĭ à¼½
à¾Ł à½²à¼İ
à½łà½ĳ à½£
à¾¤ à¼į
à¾© à½´à¼ĭ
à¾±à½´ à½´
à½ĺà½ļ à½Ħà½¦
à¾· à¼Ķ
ãĢ ī
à½ģà½Ĥ à½£à½¦
à½Ĥà½ĵ à½Ĥà½¦
Ġà½ķ à½ĳ
Ġà½ķ à½Ĭ
Ġ20 63
Ġ20 57
à½ĸà½ĳà½Ĥ à½ģ
Ġ( âĢ¢
Ġ5 77
Ġ5 38
Ġ6 97
Ġ6 12
Ġ6 11
Ġ6 21
Ġ6 96
Ġ6 68
Ġ7 89
Ġ7 33
Ġ7 46
Ġ8 58
Ġ8 11
Ġ8 77
Ġ8 21
Ġ8 47
Ġ10 75
Ġ10 76
Ġ10 85
Ġ10 42
Ġ10 99
Ġ10 59
à¼¡ à¼¡à¼©
à¼¡ à¼¡à¼¢
Ġ19 26
Ġ12 45
Ġ12 47
Ġ12 79
Ġ11 75
à¼¢ à¼¢à¼ł
Ġ15 38
Ġ13 87
Ġ13 49
Ġ18 97
Ġ18 10
Ġ18 13
Ġ18 80
Ġ18 46
Ġ18 38
Ġ18 81
Ġ17 11
Ġ17 23
Ġ17 45
Ġ17 42
Ġ17 54
Ġ16 97
Ġ16 53
Ġ14 50
97 15
à¼£ à¼¢à¼©
à¼£ à¼¢à¼¦
19 33
Ġ70 7
Ġâĳ ¯
Ġâĳ ±
Ġâĳ µ
Ġ() ""
Ġ50 6
Ġà½Ļ à½ł
Ġ29 56
10 39
10 59
Ġ] ãĢĬ
17 2
17 37
58 1
16 5
50 9
60 5
25 3
25 9
Ġï¼Īï¼ī âĢĿ
33 4
75 7
11 36
Ġ/ //
à¼¡à¼ł à¼¥
34 9
35 6
Ġ177 4
23 8
ĠC O
ĠC e
Ġà¼¢ à¼¢à¼§
26 4
à¾©à¾Ń à½²à¼ĭ
Ġ46 2
Ġ120 7
Ġ56 4
Ġ56 7
Ġ56 9
98 5
Ġ47 2
ĠG e
à½±à½´ à½¾
Ġà½ĸà½¤ à½ĺ
Ġà¼£ à¼¨
Ġ110 1
Ġ110 4
Ġ110 8
à¼¡à¼¤ à¼¡à¼¥
Ġà½Ľ à½ĳ
Ġ66 1
ar ti
ti Äģn
sh Ä«
or s
Ġà¼¥ à¼¡à¼łà¼ł
Ġ140 8
ĠW TO
Ġ87 00
à¾ļ à½¼
Ġà¼§ à¼¨
Ġ69 00
ĠN ASA
ra se
Ġ91 00
à¾µ à½´à¼ĭ
te d
ch en
Ġï¼Ĵ ï¼Ĳï¼Ĳ
Ġà¼© à¼¢
Ġï¼ĳï¼ ķ
Ġï¼ĳï¼ Ĺ
Ġï¼Į ï¼Į
ĠO rac
ĠJ ohn
à¼¡à¼©à¼§ à¼¢
à¼¡à¼©à¼§ à¼§
Ġïĸ ª
pa tion
ÊĲ É¯
ĠïĲ ¢
ji Ã¨
Ġà¼ł à¼§
Tib etan
Èµ É¤
Ã² u
RC A
ĠãĢĭ. [
ĠâĢ¢âĢ¢âĢ¢âĢ¢âĢ¢ âĢ¢
ima la
ĠOrac le
" à¼¼
- ?)
3 66
3 15
5 000
6 12
7 83
9 60
9 18
A pp
C L
D M
H I
I T
P o
P ro
S B
S h
S am
S DR
W e
a ti
a la
b h
i x
i sh
l l
p ro
r is
s Ãł
w z
Ç Ĵ
Ġ ;
à½¦ à½ģ
à½Ĥ à½ļà½Ħ
à½Ĥ à½ĳà½Ģ
à½¼ à½º
à½ĳ à½ĳà½Ĥ
à½ĸ à½¡
à½Ħ à½£à½¦
à½´ à¼·à¼ĭ
à¾± à¼¼
à¾Ĵ à½ºà¼į
à½Ģ à½ĸ
à½Ĩ à½Į
à¾Ł à¾²à¼ĭ
à¾²à½¼ à¼İ"
à½ĳà½Ĥ à½£
à¾£ à½²à¼ĭ
à¾£ à½¾
à¾Ķ à¾·à¼ĭ
à½ĸà½ŀ à½ĵ
Ġà½ĳ à½İ
à¾· à¾²
ĠâĢ ĥ
à¾¨ à¾±à½²
à¾¦ à¼İ
Ġà½ĺ à½ħ
à½£à½Ĥ à½ĸ
à¾Ń à½ºà¼į
ĠâĢĿ {
à½ĳà½Ģ à½¦
à½¢à½ĸà½¦ à½£à½¦
à¾Ļà½² à¼į
Ġ20 29
Ġà½¨ à½£
Ġà½ĵ à½£
Ġï¼ ³
Ġà½łà½ĸ à½ĺ
Ġ( ãĢģãĢģãĢģãĢģ
Ġ5 13
Ġ5 27
Ġ5 86
Ġà½¤ à½ĸ
Ġ6 77
Ġ6 84
Ġ7 22
Ġ7 45
Ġ7 83
Ġ) ]
Ġà½łà½Ĥ à½Ħà½¦
Ġ8 88
Ġ8 76
Ġ8 99
Ġ8 62
Ġ8 81
Ġ9 68
Ġ10 17
Ġ10 70
Ġ10 18
Ġ10 48
Ġ10 55
Ġ10 79
Ġ19 000
Ġ12 34
Ġ12 27
Ġ12 84
Ġ12 72
Ġ11 89
Ġ11 40
Ġ11 45
Ġ11 47
Ġà½Ĥà½Ļ à½ĵ
âĳ ¸
Ġ15 10
000 3
Ġ13 63
Ġ13 64
Ġ18 88
Ġ18 23
Ġ18 27
Ġ18 48
Ġ18 68
Ġ18 64
Ġ18 53
Ġ18 52
Ġ17 60
Ġ17 33
Ġ17 26
Ġ17 57
Ġ17 56
Ġ30 46
Ġ16 19
Ġ16 60
Ġ16 65
Ġ16 64
Ġ16 94
Ġ16 72
Ġ14 10
Ġ14 48
Ġà½ĸà½Ļ à½Ĥ
à½Ĳà½ł à½¢
Ġà½Ĥà½ĳ à½£
Ġ25 92
19 29
19 63
Ġ100 4
Ġ70 3
Ġ70 28
Ġ22 99
Ġ22 84
Ġ23 000
Ġâĳ °
Ġâĳ ²
Ġ40 68
Ġ27 000
Ġ60 2
à¼¡à¼© à¼¢à¼§
à¼¡à¼© à¼¥à¼¥
à¼¡à¼© à¼¤à¼¡
12 27
12 57
58 4
Ġà½ĸà½Ģà½ł à½¦
89 8
Ġï »
16 17
50 1
50 5
25 1
44 3
ĠA BC
33 5
Ġ45 9
93 4
18 1
18 68
à¾Ĺà½ºà¼į "
34 7
35 4
an a
24 1
24 9
Ġà½ĺà½ĵ à½£
âĳł âĳ¢
à¾° à½¼
Ġ65 1
Ġ65 4
Ġ65 6
Ġ55 2
29 8
36 8
Ġ48 7
Ġà¼¡à¼© à¼¡à¼ł
Ġ120 3
Ġ120 5
Ġ56 1
Ġ44 9
38 3
ĠT om
ĠB A
ĠB D
on al
49 1
49 4
Ġà¼£ à¼£
Ġà¼£ à¼¤
Ġà¼£ à¼¦
Ġ097 6
Ġ155 2
Ġ110 2
Ġ85 7
à¼¡à¼¤ à¼¥
à¼¡à¼§ à¼¢à¼©
Ġ74 3
ĠD ard
à¼¡à¼¡ à¼¡
Ġ? ]
Ġ67 2
Ġ67 4
à¼¡à¼¨ à¼ł
Ġà¼¤ à¼¦
ĠM ar
ĠM ERS
sh Äĵng
Ġ130 9
en ti
Ġà¼¥ à¼¦
Ġ140 2
âĢĺ âĢĻ
ĠE x
73 19
ia l
ra mm
Ġà¼¡à¼©à¼¨ à¼£
Ġs wz
ĠF AST
is m
al l
Ġà¼¡à¼©à¼© à¼¡
el li
---- --
ul t
Ġïį º
Ġ123 66
Ġï¼Į ï¼Įï¼Į
ma il
ĠX P
à¼¡à¼©à¼§ à¼¤
Ġïķ ĺ
Ġhttp s
re a
Ġà¼¡à¼¦ à¼©à¼§
ï¼Ļ ï¼ĺ
ac e
Ġ189 9715
at ch
Çİ n
Ġïİ ·
mm anu
ĠïĴ ı
if i
à¼ĭà¼ĭà¼ĭà¼ĭà¼ĭà¼ĭà¼ĭà¼ĭ à¼ĭà¼ĭà¼ĭ
Ġï¼Ĵï¼Ĳï¼ĳï¼ ķ
ï¼ĳï¼Ļ ï¼ĺ
ci ence
ist an
Ġ09 41
ep ler
IF I
jÄ«ng Äģng
ann es
ĠSer if
dy g
for mation
ĠOpen Type
ï½ģ ï½
kang bat
Ġswz dyg
Ġ1899715 7319
kangbat v
* *
. âĢĿ
1 169
2 60
2 66
2 92
3 30
4 21
4 39
8 25
9 58
A lex
C on
H K
I A
I P
I UCN
P la
P ython
S N
S S
S T
T h
V f
c s
d i
i co
i er
i us
m p
n er
p os
q i
s Äģn
t b
w it
x uÃ©
y n
y s
} {
É ¡
Ġ à½¼
Ġ tib
Ġ ed
Ġ ÊĶa
à¾ º
à½¦ à½Ķà½ł
à½Ĥ à½łà½ļ
à½Ĥ à½ĺà½Ĩ
à½² à½¼à¼ĭ
à½² à¼į"
à½ĳ à½ķ
à½Ħ à½ĳà½Ħ
à½ĵ à½ħ
à¾± à¼·
à½ł à½Ģ
à½ĺ à½ĸ
à½ĺ à½īà½ĺà½¦
à¾² à½»
à¾² à¼µ
à½Ķ à½ı
à½ķ à½Ĥà½¦
à¾±à½¼ à½¼
à½£à½¦ à½¦
à¾¡ à¾²à¼į
à½Ķà½¢ à½¦
à½łà½ķ à½ĺ
à½¨ à½Ģ
à¾· à¾Ńà¼ĭ
à¾· à½²à¼į
âĢ »
âĢ Ĥ
à¾Łà½º à½ºà¼ĭ
à¾Łà½º à½ºà¼į
à½ģà½Ħ à½ĳ
à½ĩ à½łà½Ħ
à½ĸà½ĳ à½Ĥà½¦
à½£à½Ĥ à½¢
Ġà½Ģ à½¦
ĠâĢĿ ãĢĭ
à½ģà½Ĥ à½Ĥ
Ġà½¡ à½ĺ
à½± à¾Ģà¼ĭ
ĠãĢĭ "
à½ĳà½¢ à½ĳ
Ġà½ĳà½Ķ à½Ħà½¦
Ġ4 19
Ġ5 82
Ġ5 369
à¼Ħà¼ħ à¼į
à¾²à¾Ń à¼į"
à¾²à¾Ń à¼½
Ġ6 26
Ġ6 64
Ġ7 11
Ġ7 69
Ġ7 81
Ġ) [
Ġ8 93
Ġ8 69
Ġ8 67
Ġ8 94
Ġ8 61
Ġ9 17
Ġ9 35
Ġ9 48
Ġ10 89
Ġ10 25
Ġ10 34
Ġï¼Ī )
Ġ12 19
Ġ12 78
Ġ11 23
Ġ11 65
Ġ11 95
à¼¢ à¼¢à¼¤
ãĢĬ âĢľ
Ġ15 50
Ġ15 70
Ġ15 63
Ġ13 30
Ġ13 16
Ġ13 23
Ġ13 86
Ġà½ĸà½Ģ à½ĸ
Ġ18 50
Ġ18 77
Ġ18 76
Ġ18 85
Ġ18 56
Ġ18 72
Ġ18 71
Ġ18 79
Ġ17 58
Ġ17 25
Ġ17 18
Ġ17 98
Ġ17 86
Ġà½ĸà½ħ à½Ħà½¦
Ġ16 20
Ġ16 30
Ġ16 85
Ġ16 86
Ġ16 81
Ġ14 27
Ġ14 63
à¼£ à¼¢à¼¤
à¼£ à¼¢à¼§
19 00
19 14
19 04
Ġ70 2
Ġ22 50
Ġ22 63
Ġ23 88
Ġ23 26
Ġâĳ ³
Ġ26 000
Ġ40 1
à¼§ à¼łà¼ł
30 3
30 8
32 7
17 4
58 0
58 2
58 9
60 4
25 5
25 7
44 2
44 6
44 7
ĠâĢĿâĢľ âĢĺ
88 6
88 03
28 2
28 5
14 19
13 68
à¼¡à¼ł à¼¡
Ġ32 50
Ġ33 90
22 7
ĠP V
ĠP t
18 5
35 7
24 5
24 7
ĠâĢľâĢĿ (
Ġ177 3
Ġ177 8
26 7
Ġ95 4
46 2
46 4
36 4
Ġ48 60
Ġ120 8
Ġp arti
86 4
à¼¡à¼¢ à¼¥
ĠT ol
ĠS T
ĠS am
37 8
Ġ57 1
Ġ57 8
55 5
à½łà½ĳà½ł à½¦
Ġ85 9
à¼¡à¼¤ à¼©à¼¨
ï¹ļ ãĢĬ
Ġ74 00
la sh
or t
Ġ77 8
Ġ88 44
ï¼Įï¼Į âĢĿ
Ġà¼¦ à¼¦
Ġ89 00
ĠH imala
ic a
à¼¢à¼© à¼ł
âĢľâĢĿ ï¼ī
ch n
ĠãĢĬãĢĭ ãĢĬãĢĭ
Ġï¼Ĵ ï¼ĳ
ĠV ista
am e
ï¼ĵ ï¼ķ
ãģ ®
Éķ a
Éķ É¤
//// //
ote m
Ê¨ o
lo ud
ÊĲ Éª
Ġw indows
Ġïİ ¹
Ġ685 20
Ġïı ľ
ĠïĹ ĭ
Ġ337 97
à¾Ľ à¼ĭ
ob ert
ci pation
130 5
AM H
ï¼Ł ï¼ī
uc ation
ï¼Ĵï¼Ĳï¼ĳï¼ ķ
Ã² ng
TE S
Ġ732 3
ïİ µ
sÊ° e
ï¼ģ âĢĿ
Ġ1295 1
use um
ind le
à½łà½Ļ à½£à½ĳ
Ġgu ush
Ġ(âĢ¢ )
ĠGe orge
à¾ļà½¼ à½¾à¼İ
elli ot
Ġparti cipation
. ãĢģ
/ ï¼ī
0 109
1 309
2 19
2 33
2 28
2 93
2 34
3 77
4 50
6 13
6 76
7 42
A N
B r
C C
C a
D a
E S
E x
F C
H ar
I OL
L O
M ad
N ew
P DF
S a
T im
V ID
W ord
W ill
] (
] âĢĿ
d u
e g
m en
n ow
r c
s i
s en
z u
z ang
} ãĢĬ
Ġ ac
Ġ wa
à½¦ à½¤
à½¦ à½Ĭ
à½Ĥ à½łà½Ľ
à½Ĥ à½ĺà½ļà½ĵ
à½Ĥ à½łà½ĳà½¦
à½Ĥ à½Ĥà½Ħà½¦
à½Ĥ à½Ķà½ĳ
à½² à¼Į
à½ĳ à½Ĩ
à½ĸ à½ļ
à½ĸ à½ĸà½¢
à½ĸ à½£à½¦
à½Ħ à½¡
à½¢ à½ĳà½Ħ
à½¢ à½łà½ĳ
à½¢ à½İ
à½ĵ à½Ģ
à½ĵ à½Ķà½¦
à½ĵ à½Į
à½£ à½ģ
à½£ à½Ģ
à½ĺ à½¤
à¾Ĵ "
à¾Ĵ à¾·à½¾à¼ĭ
à½´à¼ĭ "
à½ļ à½Į
à½ı à½łà½ĺ
à½Ħà½¦ à½¦
à¾¤ à¾±à¼ĭ
à½łà½ĸ à½Ħ
à½Ĥà½ŀ à½Ĥà½ĳ
à¾Ĵà¾±à½´ à¼İ"
à¾Ķ à¼½
à½łà½ķ à½ĸ
Ġà½¢ à½Ģ
à¾· à¾±à½±à¼ĭ
à½Ĥà½ī à½¦
à½łà½ĩ à½ĵ
à¾¨ à¾±à½º
à¾¨ à½´à¼į
Ġà½ĺ à½ĺ
à¾Łà¼ĭ à¼ĭ
Ġà½ģ à½łà½¢
Ġà½ĸ à½ĳà½ĺ
ĠâĢĿ ï¼ī
Ġà½¡ à½ĺà½¦
à½ĺà½Ĥ à½Ħ
à½ĺà½Ĩ à½¢
à½ĺà½Ĩ à½ĺ
Ġ20 80
Ġ20 40
ĠãĢĭ ï¹Ŀ
ï¼ Ń
à½Ĥà½¤ à½£
Ġ( ï¼Į
Ġ( ãĢģãĢģ
à¼Ħà¼ħ à¼ħ
Ġà½ĸà½¦ à½Ĥ
Ġ6 46
Ġ6 95
Ġ7 82
Ġ7 48
Ġà½łà½Ĥ à½Ĥà½¦
Ġ8 19
Ġ8 200
Ġ8 23
Ġ8 27
Ġ8 95
Ġ8 87
Ġ8 55
Ġ8 68
Ġ8 64
Ġ9 12
Ġ9 33
Ġ9 75
Ġ9 95
Ġ9 64
Ġ10 30
Ġ10 81
Ġ10 56
Ġà½ĺà½Ħ à½ĵ
Ġ12 10
Ġ12 66
Ġ12 93
Ġ12 96
Ġ12 86
Ġ12 48
Ġ12 71
Ġ11 12
Ġ11 21
Ġ11 82
Ġ11 41
Ġ11 62
Ġ11 59
à½¡à½ł à½ĺ
âĳ «
ĠÂ ¡
Ġ15 77
Ġ15 64
Ġ15 83
Ġà½ı à½ĺ
Ġ13 88
Ġ13 42
Ġ13 68
Ġ13 51
Ġ18 75
Ġ18 47
Ġ18 84
Ġ18 57
Ġ18 83
Ġ18 91
Ġ18 51
Ġ17 15
Ġ17 35
Ġ17 46
Ġ17 85
Ġ17 99
Ġ17 48
Ġ17 07
Ġà½ĸà½ħ à½Ĥà½¦
Ġ16 90
Ġ16 96
Ġ16 87
Ġ16 47
Ġ16 78
Ġ14 32
Ġ14 17
Ġ14 93
Ġ14 95
Ġ14 67
Ġ14 56
à½¦à½ĺ à½ĸ
à¾Ĳà¾² à¼į
ï¼ī âĢĿ
à¼£ à¼¡à¼¤
à¼£ à¼¢à¼¨
19 23
19 64
19 01
Ġ24 000
Ġ100 7
Ġ70 6
Ġ22 87
Ġ22 31
Ġ23 75
Ġ23 38
Ġ28 000
Ġâĳ ¶
Ġâĳ ·
Ġâĳ ¸
Ġâĳ º
Ġ26 42
Ġ27 76
30 4
à¼¦ à¼©à¼ł
Ġ29 34
à¼¡à¼© à¼¢à¼¦
à¼¡à¼© à¼£à¼£
à¼¡à¼© à¼¦à¼¥
à¼¡à¼© à¼¦à¼£
44 1
Ġ300 2
88 4
77 4
90 9
à¼¡à¼ł à¼©
15 27
22 3
18 4
34 0
34 6
an k
24 6
24 8
76 8
Ġ177 2
ĠC rea
Ġà¼¢ à¼¡à¼¦
Ġà¼¢ à¼¡à¼£
26 8
Ġ39 45
"âĢĭ âĢľ
Ġ75 3
Ġ75 7
ha i
46 7
Ġ150 6
Ġà¼¡à¼© à¼¥à¼©
Ġà¼¡à¼© à¼§à¼£
Ġ56 2
38 4
38 7
ĠG ar
82 12
ĠT h
on ts
Ġ41 20
Ġ097 4
37 2
Ġ57 20
à¼¡à¼§ à¼£à¼ł
Ġ49 4
ĠD DR
à¼¡à¼¦ à¼¤à¼¢
Ġ66 2
Ġà¼¤ à¼§
ĠM P
ĠM V
ĠM on
Ġ130 3
Ġ81 00
le t
Ġ59 00
en e
Ġ180 4
Ġ180 8
Ġ77 1
ĠW IFI
Ġ87 1
ĠE U
ta in
ĠH ar
ĠN BL
à¼¢à¼¥ à¼ł
à¼¢à¼¥ à¼¤
Ġs t
ĠF re
îĢ ĥ
al i
us t
Ġï¼Ĵ ï¼Ĵ
Ġï¼Ĵ ï¼ĺ
Ġïį ½
Ġï¼ĳï¼ Ķ
Ġï¼ĳï¼ ĳï¼
Ġ' '
ĠO S
ur y
il g
ri ti
as t
ac eb
ac qu
li Ã¹
ed u
Éķ i
ud a
lo w
158 28
Ġw ifi
ak e
Ġm o
Ġ685 76
ĠâĢľï¼Įï¼Į ãĢĤâĢĿ
Ġ388 0
ob ile
150 4
à¾²à½± à¾Ģ
tÊĤ a
ist ory
Tib et
TM L
ïĳ µ
Ġ537 3
à¼Įà¼Į à¼Įà¼Į
ïķ Ń
ĠâŁ ª
ĠâŁ «
á¹ £
mmanu el
ys tem
ĠCrea tive
aceb ook
acqu es
) âĢľ
. ï¼ī
0 97
0 239
2 58
3 201
3 90
4 15
4 76
4 80
4 38
4 99
5 35
5 23
7 49
8 22
8 48
9 92
A m
A ndroid
B al
C as
D f
E d
G oogle
I M
J im
L i
L and
M ac
S t
S cience
T T
T oh
T ikTok
V R
W ar
Z Q
[ ]
a e
a co
a th
b r
b Çİ
b ps
c y
c el
e an
f c
f g
g er
l u
l ard
m b
p ad
p Ãº
t xt
w n
w ÇĶ
w Ã¡ng
x Ä«n
y an
y Ä«
z in
z ÇĲ
Ê ¼
à ¥
Ġ q
Ġ co
Ġ cn
Ġ sa
Ġ un
Ġ de
à½ ĥ
à½¦ à½ĸà½¢
à½¦ à½¢à½Ħ
à½Ĥ à½ļà½ĳ
à½Ĥ à½ĳà½Ģà½ł
à½Ĥ à½ĳà½ĺà½¢
à½Ĥ à½Ĳà½ĵ
à½Ĥ à½Ĳà½ł
à½Ħ à½Ĥà½¦
à½´ à½²à¼ĭ
à½ĵ à½ı
à¾± à¼½
à½ł à½£
à½ł à½ŀ
à½º à½²à¼ĭ
à½ĺ à½Łà½ĳ
à½Ĥà½¦ à½ŀ
à½Ĥà½¦ à½łà½ĳ
à½¼à¼ĭ "
à½¼à¼ĭ à¼ĭà¼ĭ
à½¼à¼ĭ à¼ĭà¼ĭà¼ĭà¼ĭ
à¾Ĵ à¾·
à¾Ĵà¾± "
à½ĵà½¦ à½¢
à¾±à½¼ à½²
à¾¤ à¾±à½ºà¼ĭ
à½Ĥà½ŀ à½ĸà½¦
à¾Ķ à½ºà¼ĭ
à½ĳà½ĸ à½ĳ
à½¨ à½Ķ
âĢ Į
à¾Łà½º à¼¼
à½ģà½Ħ à½Ĥ
à½ģà½Ħ à½¢
à½ĸà½Ģ à½Ģ
à½£à½Ĥ à½ĺ
à¾Ń à½²
à¾Ĳà½´ à¼Ķ
à½ĺà½Ľ à½¢
à½ģà½Ĥ à½ķ
ĠâĢľ ,
ĠâĢľ ï¼ĮãĢĤâĢĿâĢľ
à½łà½Ĩ à½¦
à½łà½Ĩ à½ĸ
à½ĸà½Ļ à½ĸà½¦
à½Ĥà½Ħ à½£
à½Ĳà½Ĥ à½ĸ
à½Ĳà½Ĥ à½¢
à½ĸà½ı à½ĵ
à½ĸà½ı à½£
Ġ20 60
Ġ20 92
00 17
00 66
00 4000
à½ĸà½ŀà½Ĥ à½ģ
Ġà½łà½ĸ à½Ĥà½¦
Ġ5 21
à¾©à¾Ńà¼ĭ à¼ĭ
à½ĺà½ĵ à½Ħà½¦
à½ĸà½ĸ à½ĸ
Ġ6 14
Ġ6 91
Ġ7 36
20 95
Ġà½Ķ à½ī
Ġ8 26
Ġ8 98
Ġ8 31
Ġ8 49
Ġ"" ãĢĬ
Ġ"" ï¼Ī
Ġ9 34
Ġ9 98
Ġ9 99
Ġ10 15
Ġ10 22
Ġ10 82
Ġ10 67
Ġ10 63
Ġà½łà½ķ à½Ĥ
Ġà½ĸà½ĳ à½¢
Ġ12 11
Ġ12 98
Ġ12 55
Ġ12 348
Ġ11 70
Ġ11 64
Ġ11 56
à½¡à½ł à½¢
âĳ Ń
à¼¢ à¼£à¼ł
à¼¢ à¼¢à¼¦
Ġ15 67
Ġ15 84
Ġ13 97
Ġ13 12
Ġ13 22
Ġ13 24
Ġ13 45
Ġ13 85
Ġ13 57
Ġ13 59
Ġà½ĸà½Ģ à½ĳ
Ġà½ĸà½Ģ à½ĵ
Ġ18 89
Ġ18 44
Ġ18 11
Ġ18 92
Ġ18 24
Ġ18 36
Ġ18 82
Ġ18 94
Ġ17 70
Ġ17 13
Ġ17 40
Ġ17 49
Ġ17 67
Ġ17 62
Ġ17 61
Ġ17 03
Ġ17 04
Ġ17 08
Ġ16 10
Ġ16 18
Ġ16 35
Ġ16 36
Ġ16 99
Ġ16 69
Ġ16 37
Ġ16 55
Ġ16 83
Ġ14 20
Ġ14 30
Ġ14 33
Ġ14 75
Ġ14 23
Ġ14 42
Ġ14 91
Ġà½ĸà½Ļ à½Ĥà½¦
Ġà½Ŀ à½ł
Ġ25 20
Ġ25 457
à¼£ à¼¡à¼£
âĢĶ )
19 46
19 53
ï¼Ī âĢ¢
à¼¢à¼ł à¼£à¼ł
Ġ100 000
Ġ21 58
Ġ21 80
Ġ23 50
Ġ23 60
Ġ23 45
Ġ28 90
Ġ() ãĢĭ
Ġ50 1
à¼¨ à¼łà¼łà¼ł
Ġ31 20
à¼§ à¼¢à¼ł
Ġà½Ļ à½Ħ
Ġ60 5
Ġ60 7
Ġ60 8
Ġ60 9
10 68
32 20
32 36
à¼¡à¼© à¼¥à¼¦
à¼¡à¼© à¼¥à¼§
à¼¡à¼© à¼¦à¼¢
17 8
58 8
89 2
ĠâĢĻ âĢĻ
50 57
60 3220
44 8
ĠA I
ãĢĭ ãĢĬ
75 3
11 10
Ġà½ĸà½ı à½ĺà½¦
88 1
Ġ/ ////////
Ġ45 2
Ġ90 9
77 3
13 92
13 85
13 64
13 57
90 3
à¼¡à¼ł à¼¢
à¼¡à¼ł à¼¤
Ġ33 60
Ġ36 50
22 6
ĠP ower
ĠP enti
18 72
Ġ38 40
an o
76 5
ĠC I
ĠC om
Ġ37 20
à¾¨à½º à½º
65 4
Ġ55 7
Ġ95 1
27 3
27 8
Ġ39 11
46 8
Ġ46 9
45 2
Ġ48 5
Ġà¼¡à¼© à¼¥à¼¨
Ġà¼¡à¼© à¼§à¼©
Ġ47 40
38 5
38 6
85 5
à¼¡à¼¢ à¼¡
er e
er n
87 2
87 9
âĳ¢ âĳ£
âĳ¢ âĳ£âĳ¤
Ġ... âĢĿ
47 4
ĠT CL
48 1
Ġà¼£ à¼©
ĠS ans
Ġ58 4
à¼¡à¼¤ à¼¨
à¼¡à¼¤ à¼£à¼¢
68 3
à¼¡à¼§ à¼£à¼¢
ĠD b
à¼¡à¼¦ à¼¥
à¼¡à¼¦ à¼¨
à¼¡à¼¥ à¼§
ĠI BC
84 3
Ġ67 1
la m
ĠM an
Ġ139 97
sh Ãłn
or ld
à¼µ à½ºà¼ĭ
à¾ĥ à¼į
Ġ86 603220
ĠK u
Ġ93 00
à¼¢à¼¨ à¼ł
ta te
ĠL ibrary
et t
ĠN ew
ic ha
ic al
à¾ª à¼į
ia m
ãĢģãĢģ ãĢģãĢģãĢģ
à¾µ à½²
te l
ĠF lash
à¼¢à¼¤ à¼ł
Ġï¼Ĵ ï¼Ļ
ĠîĢ Ī
ul tu
Ġi OS
ĠîĢĥ îĢĥ
Ġà¼¡à¼¤ à¼¡à¼©
Ġïĳ İ
Ġïķ Ķ
Ġïķ ĸ
am es
as us
âĴĥ âĴĦ
tion al
ing s
ĠiPhone X
Ġï¼ĵ ï¼Ĵ
à½±à½¼ à¾ĥà¼ĭ
AA A
ad er
ãģ Ħ
ĠãĢĤ )
Ġï¼Ķ ï¼Ĳï¼Ĳ
ï½ ī
Ġï¼ĸ ï¼Ĳ
gu Äģn
ĠApp le
Ã¨ ng
ãĥ Ī
à¾ł à¼ĭ
Ġ5100 004000
tÊĤ o
Ġ414 6
Ġïķĳ ïİµ
ĠPh rase
Ê¦ a
CN N
Êĳ a
ĠïĶ Ĭ
ĠAl lard
ïķ ĳ
ĠCR H
ĠIS SN
ÂŃ ÂŃ
Ġ6100 12
8660 3201
8660 3236
Ġà¼¡à¼¡à¼¨ à¼¢
ĠLu vs
à½µ à¼ĭ
Po int
Ġ2284 38
wit ter
ĠHimala ya
chn ology
ĠâŁ« [
ĠPenti um
Ġ5100004000 148
% ï¼ī
( ãĢĬ
) :
- ï¼Łï¼ī
2 89
2 50
2 18
3 80
3 65
4 32
4 58
4 24
4 27
4 85
5 40
5 36
5 62
6 47
7 20
7 50
8 36
9 00
9 80
C E
D en
F O
G O
G ar
I E
J oh
J acques
M D
M ary
N e
N ote
O R
O T
R obert
S I
S M
S tate
Y B
d s
i on
k V
k ha
l an
o in
o la
p ic
u p
w e
w ood
w ith
y Ã¬
y Ã¹
³ ãĥ
Ð µ
ï Ķ
Ġ &
Ġ z
Ġ à½Ĺ
Ġ à½Ĭà½ĺ
Ġ à½ĭ
à¾ ¢
à½¦ à½¡
à½Ĥ à½Ĥà½Ļà½Ħ
à½Ĥ à½ĸà½ħà½ł
à½Ĥ à½ĸà½Ļà½ĵ
à½Ĥ à½¨à½Ħ
à½Ĥ à½łà½Ľà½ĳ
à½² à½¼
à½ĳ à½Ł
à½Ħ à½Ĥà½ī
à½¢ à½£à½¦
à½´ à½´à¼ĭ
à½ĵ à½ĸà½¦
à½ĵ à½łà½ĸ
à½ĵ à½ģà½Ħ
à¾± à½¾à¼ĭ
à½£ à½Ł
à½£ à½łà½ĳ
à½ĺ à½Ķ
à¾² à½¿
à½Ķ à½¡
à½Ĥà½¦ à½Ķ
à½Ĥà½¦ à½¡
à½Ĥà½¦ à½ĳà½Ħ
à½¼à¼ĭ à¼ĭà¼ĭà¼ĭà¼ĭà¼ĭ
à½¡ à½Ģ
à½ŀ à½ĸ
à½ļ à½ĺà½¦
à½ĳà½Ħ à½ŀ
à¾Ł à¾²
à¾Ł à¾Ńà¼ĭ
à¾Ł à½±
à¾Ł à½¾à¼ĭ
à¾²à½´ à½¾à¼İ
à¾±à½² à½¼à¼ĭ
à¾¤ à½²à¼ĭ
à¾¡ à¾·à½´
à½Ĥà½ŀ à½ĳ
à½ĳà½ĺ à½ģà½ĵ
à½ĺà½ļ à½ĳ
à½ĺà½ļ à½ł
à½ĸà½Ł à½£
à½ĸà½Ł à½Ĥà½¦
à¾Łà½º à¼Ķ
à½łà½ĩ à½Ħà½¦
à½łà½ĩ à½Ĭ
à¾¤à¾±à½²à¼ĭ à¼ĭ
Ġà½Ĥ à½Łà½¦
à¾« à½¼à¼ĭ
à¾Ń à½½à¼ĭ
Ġ1 201
à¾²à½¼à¼ĭ à¼½
à¾³à½¼à¼ĭ à¼ĭ
à½ĸà½Ļ à½ĸ
à½Ĳà½Ĥ à½ģ
à½Ĥà½ĵ à½¢
à½±à¼ĭ à¼ĭ
à½ĳà½ĺà½Ĥ à½ĳ
à½Ĥà½ĳ à½Ķà½ł
00 77
à½ĸà½ĳà½Ĥ à½Ĥ
Ġï¼ ¡
à½ĺà½ĵ à½ĺà½¦
Ġ6 15
Ġ7 15
Ġ7 26
Ġ7 49
20 9
20 50
Ġà½Ķ à½Ļ
Ġ8 35
Ġ8 39
Ġ"" '
Ġ"" ï¼»
Ġ9 11
Ġ9 29
Ġ9 63
Ġ10 97
Ġ10 98
Ġ10 37
Ġ10 83
Ġ10 51
Ġï¼Ī âĢľ
Ġï¼Ī ãĢģ
à¾¤à¾² à¼į
à¾¤à¾² à¾Ģ
Ġ12 25
Ġ12 28
Ġ12 13
Ġ12 49
Ġ12 74
Ġ12 91
Ġ12 56
Ġ11 25
Ġ11 14
Ġ11 90
Ġ11 39
Ġ11 51
Ġ11 73
Ġ11 79
âĳ ®
âĳ ½
Ġ15 90
Ġ15 29
Ġ15 85
Ġ15 68
Ġ15 62
Ġ13 58
Ġ13 81
Ġ18 16
Ġ18 33
Ġ18 14
Ġ18 93
Ġ18 43
Ġ18 59
Ġ17 16
Ġ17 90
Ġ17 34
Ġ17 76
Ġ17 37
Ġ17 39
Ġ16 58
Ġ16 16
Ġ16 25
Ġ16 93
Ġ16 56
Ġ16 73
Ġ16 79
Ġ14 28
Ġ14 80
Ġ14 85
Ġ14 81
Ġ14 59
97 17
Ġ25 90
Ġ25 80
à¼£ à¼¡à¼©
à¼£ à¼¢à¼£
à¼£ à¼¦à¼¥
19 10
19 32
19 27
19 62
19 61
Ġ24 40
Ġ21 000
Ġ21 70
Ġ21 57
Ġ70 79
Ġ23 80
Ġ23 36
Ġ28 75
Ġâĳ ¹
Ġ26 99
Ġ26 05
Ġ() (
Ġ50 50
Ġ40 58
Ġ27 50
Ġ27 60
Ġ27 80
à¼§ à¼¢à¼©
10 89
10 60
à½ĺà½ī à½¦
.. .
à½Į à½¢
à½Į à½Ģ
à¼¡à¼© à¼¢à¼¡
à¼¡à¼© à¼¥à¼¤
17 3
17 27
17 29
12 369
58 5
16 44
16 82
60 6
60 7
ĠâĢĶ âĢĶâĢĶ
ĠA T
ĠA ndroid
70 2
Ġ35 35
66 2
88 0
Ġ/ âĢĿ
Ġ45 49
Ġ90 8
14 04
ï¼ļ //
77 8
à½¿ à¼į
à¼¡à¼ł à¼§
à¼¡à¼ł à¼¦
15 66
Ġ32 25
Ġ33 47
18 10
18 66
35 1
an ce
96 1
96 3
96 5
ĠC ar
ĠC en
ãĢģï¼ļ ï¼Īï¼ī
80 6
Ġà¼¢ à¼©à¼©
Ġ37 50
40 5
Ġ55 000
Ġ95 2
Ġ95 9
27 2
Ġ75 9
29 4
ha m
ha ri
Ġ46 80
45 1
45 3
Ġà¼¡à¼© à¼¦à¼ł
Ġà¼¡à¼© à¼¥à¼£
Ġ56 29
à¼ĭà¼½ à¼¼
à¼¡à¼¢ à¼£
à¼¡à¼¢ à¼©
à¼¡à¼¢ à¼łà¼ł
er a
87 8
47 8
ĠS A
ĠS C
ĠS tein
37 4
55 9
Ġ85 2
Ġ98 1
à¼¡à¼¤ à¼¡à¼¦
à¼¡à¼¤ à¼¨à¼¡
à¼¡à¼§ à¼¢à¼¡
à¼¡à¼¦ à¼¡
à¼¡à¼¦ à¼łà¼ł
à¼¡à¼£ à¼¥à¼§
ar t
Ġ67 40
ti es
Ġà¼¤ à¼£
Ġà¼¤ à¼¤
Ġà¼¤ à¼©
ĠM O
ĠM S
Ġ139 1
Ġà¼¥ à¼¤
Ġà¼¥ à¼§
Ġ180 7
ĠW HO
ĠW RCA
Ġ83 60
oo l
ĠK epler
Ġ93 16
Ġà¼§ à¼¥
Ġà¼§ à¼¤
Ġà¼¦ à¼¨
ĠE P
ta g
ta lo
ĠH a
et er
Ġ79 00
ic k
à¼¢à¼¥ à¼¦
____ _
ra z
of o
Ġà¼¨ à¼¥
ang ua
îĢ ī
ro me
us s
Ġà¼© à¼£
Ġïį £
Ġïį ı
Ġ103 00
Ġ103 30
ol l
ol den
ĠV OC
ur el
ĠU CI
ĠU DM
ĠX X
re e
ï¼ĮãĢĤ ï¼ī
à¼¦à¼¥ à¼£
ĠïĮ ³
ĠïĮ »
123 80
à¼ĳ à¼ĳ
Ġ148 00
à¼¦à¼§ à¼©
ĠCTRL AL
ji Ãło
Ġà¼ł à¼©
ir us
tibet an
Ġk indle
Ġ00 32
188 4
ãĥ ³ãĥ
ig n
ï¼ĳï¼Ļ ï¼ķ
,, ,,
à¼¹ à¼ĭ
ï¼Ĵï¼Ĳï¼ĳï¼ ĸ
CI TES
Ġï¼Ļ ï¼Ĳ
mi th
ag es
tic al
Ġ575 6
st ra
ĠSt ud
ĠSt ore
ĠRe al
ric h
Ġï¼Īï¼Į ï¼ī
ãĢĤãĢĤ ãĢĤ
à¾¼ à¼ĭ
jÃ¬ ng
Ġà¼¡à¼łà¼łà¼ł à¼łà¼ł
cri p
Ġà¼ ĩ
Ġï» ©
ĠDard is
ĠEx p
ramm ar
Will iam
ĠGar uda
ĠCen ter
angua ge
ĠVOC s
% (
) âĢĶ
- ï¼ī
. ï¼Īï¼ī
0 92
0 148
2 10
2 44
2 75
2 88
3 000
3 58
3 89
3 16
3 11
3 14
4 75
4 96
4 29
4 86
5 33
5 34
5 64
6 32
6 15
8 46
8 49
A d
B e
D I
D OS
E T
F ri
G W
G ilg
H i
H TML
I I
L S
M L
M V
N o
P a
R o
T D
T r
W W
a ch
b m
b le
b ook
c t
c es
d É¯
d ÊĲ
g h
g en
h el
i p
j x
k y
k it
k Åįng
l Ã¬
l É¯
m on
m und
m ark
q ing
s É¤
t ra
t É¯
u is
v an
x y
x ing
y ong
z Åįng
Ï Ħ
ï ı
Ġ on
Ġ or
Ġ ________
Ġ à¤
à¾ ĳ
à½¦ à½Ľ
à½Ĥ à½Ķà½ł
à½Ĥ à½ĺà½ģ
à½Ĥ à½Ĳà½ĳ
à½Ĥ à½Ĳà½Ĥ
à½Ĥ à½Ŀ
à½Ĥ à½łà½Ĩà½¢
à½Ĥ à½Ĥà½ıà½ĺ
à½Ĥ à½ĺà½ĳà½ł
à½Ĥ à½ķà½¢
à½Ĥ à½Ĥà½Łà½ĵ
à½² à¼ĳà¼į
à½¼ à½¼à¼į
à½¼ à¼Į
à½ĸ à½ģ
à½ĸ à½Ĳ
à½ĸ à½Ĩà½¦
à½Ħ à½Ĥà½ĵà½Ħ
à½Ħ à½Ĥà½¢
à½ĵ à½Ł
à½ĵ à½łà½Ĥ
à½ĵ à½ĳà½Ĥ
à¾± à¼į"
à¾± à¼·à½²à¼ĭ
à½²à¼ĭ à¼ĭà¼ĭà¼ĭ
à½£ à½Ĩ
à½ĺ à½Ģ
à½ĺ à½Ļ
à½ĺ à½Ļà½ĵ
à½Ĥà½¦ à½Ĥà½¦
à½Ĥà½¦ à½Ĩ
à½Ģ à½¡
à½Ģ à½£à½ĺ
à¾±à½²à¼ĭ "
à½Ĩ à½Ĥà½¢
à¾Ĵà¾± à¼Ķ
à½ĸà½¦ à½ł
à¾Ĳ "
à¾Ĳ à¾²à½´à¼ĭ
à½ı à½ĳ
à½ı à½Ģ
à¾Ł "
à¾Ł à¾²à½²à¼ĭ
à¾Ł à¾Ģ
à½Ħà½¦ à½ĵà½Ħ
à½ī à½Ĥà½¦
à½¤ à½ĺà½¦
à½Ł à½łà½ĺ
à½łà½Ĥ à½łà½Ħ
à½łà½ĳ à½Ĥà½¦
à½£à½¦ à½¢
à½Ĥà½ı à½ĸ
à¾£ à½±
à½Ķà½¢ à½¢
à¾Ķ à¼¼
à¾Ķ à¼Ķ
à½łà½Ľ à½Ħ
Ġà½ĳ à½Ģà½ĵ
à¾· à¾²à½²à¼ĭ
âĢ ķ
à½Ĥà½ī à½ĺ
à¾¨ à¾±à½²à¼ĭ
à¾¨ à½ºà¼į
à¾¨ à½±
à½ĩ à½Ĥà½¦
à¾Ļ à¾°à¼ĭ
à½ĺà½ģ à½ĺ
Ġà½Ĥ à½İ
à½ĳà½ĺà½Ħà½¦ à½ĳ
à¾« à½²à¼İ
à¾Ĳà½´ à¼į"
à½łà½Ĳ à½Ħ
à¾²à½²à¼ĭ à¼ĭ
ãĢ ĺ
ãĢ Ļ
ĠâĢĿ âĢĿ
ĠâĢĿ ãĢĲ
ĠâĢĿ ãĢĶ
à½ģà½Ĥ à½ļà½ĵ
à½± à½²à¼į
à½ĸà½Ļ à½Ħ
à½ĺà½ĳ à½ĳ
à¾£à¼ĭ à¼ĭ
à¾Łà½ºà¼ĭ à¼ĭ
à¾Łà½ºà¼ĭ à¼¼
Ġ20 89
à½ĺà½Ĳà½ł à½Ħ
ĠãĢĬ ""
ï¼ Ĥ
00 65
00 85
00 63
à½Ĥà½¤ à½¦
Ġà½§ à½£
Ġà½ĳà½ĸ à½ĸ
Ġ5 42
à¼Ħ à¼į
Ġ6 16
Ġ6 31
Ġ6 49
Ġ6 94
Ġ7 99
Ġ7 91
Ġà½łà½Ĥ à½ĺ
à¾©à½º à¼½
Ġ9 13
Ġ9 22
Ġ9 93
Ġ9 24
Ġ9 42
Ġ9 39
Ġ10 13
Ġ10 49
Ġ10 39
Ġ10 41
Ġ10 74
Ġ10 91
Ġï¼Ī ãĢĬãĢĭï¼ī
Ġà½Ĥà½ħ à½£
Ġï¼ī ""
Ġ12 32
Ġ12 14
Ġ12 43
Ġ12 54
Ġ12 123
Ġ12 336
Ġ12 331
Ġ11 97
Ġ11 17
Ġ11 58
Ġ11 44
Ġ11 88
Ġ11 15
Ġ11 31
Ġ11 63
âĳ ¬
âĳ °
âĳ ³
à¼¢ à¼¡à¼¤
à¼¢ à¼¡à¼£
ãĢĬ ãĢĪ
Ġ15 33
Ġ15 95
Ġ15 94
Ġ15 72
à¼½ "
Ġ13 33
Ġ13 14
Ġ13 18
Ġ13 26
Ġ13 29
Ġ13 67
Ġ13 41
Ġ13 72
à½²à¼İ "
Ġ18 19
Ġ18 30
Ġ18 17
Ġ18 18
Ġ18 69
Ġ18 61
Ġ17 12
Ġ17 36
Ġ17 31
Ġ17 84
Ġ17 91
Ġ17 81
Ġ30 50
Ġ16 75
Ġ16 88
Ġ16 34
Ġ16 21
Ġ16 76
Ġ16 29
Ġ16 46
Ġ16 49
Ġ16 59
Ġ14 89
Ġ14 60
Ġ14 70
Ġ14 46
Ġ14 64
Ġ14 94
à¾¤à¾²à½² à¼į
Ġà½łà½ļ à½Ĥ
Ġà½Ĥà½ĳ à½ł
Ġ25 30
Ġ25 60
Ġ25 55
âĢĿ (
19 1
19 20
19 25
19 28
19 13
19 40
19 41
19 05
Ġ24 12
Ġ100 3
Ġ21 50
Ġ21 87
Ġ21 205
Ġà½Ĥà½¡ à½ĸ
Ġà½Ĥà½¡ à½£
Ġ22 14
Ġ22 96
Ġ22 43
Ġ23 73
Ġ23 159
Ġ28 97
Ġ28 86
Ġâĳ »
Ġ26 21
Ġ() âĢľ
Ġ50 60
Ġ40 80
à¼¨ à¼¤à¼¢
Ġ31 53
Ġ[ ãĢĬ
à¼§ à¼¡à¼¨
à¼§ à¼¤à¼¢
Ġ29 60
Ġ60 10
10 11
ĠÂ« âĢ¹
à¼¡à¼© à¼£à¼¤
à¼¡à¼© à¼¤à¼¢
17 99
17 55
17 04
12 84
58 7
16 63
ĠâĢĺ '
ĠâĢĶ âĢľ
66 1
66 77
ĠâĢĿâĢľ âĢĿ
Ġ45 000
Ġ90 1
Ġ90 6
Ġ90 7
14 81
77 2
à¾ľ à½²à½²à¼ĭ
Ġ33 000
Ġ36 60
93 9
ĠP as
18 27
18 54
34 1
34 3
92 4
Ġ38 000
à¾° à½¿
76 3
Ġà½łà½Ĩ à½Ĥ
ï¼Į ãĢģ
ï¼Į ï¼ļ
ï¼Į âĢĿâĢľ
ĠC loud
Ġ65 000
co tt
40 3
40 6
65 1
Ġ55 75
Ġ55 64
Ġ95 5
Ġ95 6
Ġ95 7
Ġ43 50
27 4
ĠãĢĭ( âĢľ
46 9
Ġ150 9
Ġ46 000
45 6
45 9
Ġà¼¡à¼© à¼£à¼£
Ġà¼¡à¼© à¼£à¼¤
Ġà¼¡à¼© à¼¥à¼¡
Ġà¼¡à¼© à¼§à¼¨
Ġà¼¡à¼© à¼§à¼¥
Ġ120 9
Ġ56 000
98 1
98 4
in de
à¼ĭà¼½ "
86 1
à¼¡à¼¢ à¼¨
er man
87 3
47 1
ĠT B
ĠT au
Ġ42 20
Ġ42 000
ĠB SL
ĠB riti
Ġà¼¡ à¼¡à¼¢à¼¤
48 4
Ġà¼£ à¼§
ĠS H
ĠS K
ĠS ch
ĠS OS
ĠS cha
39 1
Ġ57 9
Ġ54 1
Ġ155 7
55 1
55 2
55 6
Ġ58 1
Ġ110 3
Ġ85 4
Ġ98 3
à¼¡à¼¤ à¼¡
à¼¡à¼¤ à¼¢à¼ł
à¼¡à¼¤ à¼¡à¼§
à¼¡à¼¤ à¼¤à¼§
à¼¡à¼¤ à¼¤à¼¥
68 11
Ġ52 60
à¼¡à¼§ à¼¢à¼ł
à¼¡à¼§ à¼¢à¼¥
à¼¡à¼§ à¼£à¼¡
à½Ĺ à½Ģ
Ġ49 40
ĠD av
ĠD AC
à¼¡à¼¦ à¼¥à¼ł
ĠâĢĶâĢĶ ãĢĬ
à¼¡à¼£ à¼¢
à¼¡à¼£ à¼¥
à¼¡à¼£ à¼¡à¼¨
à¼¡à¼£ à¼¥à¼¦
à¼¡à¼¥ à¼¨
ar e
ar th
Ġ68 1
Ġ67 89
à¼¡à¼¨ à¼łà¼ł
Ġà¼¤ à¼¢
Ġà¼¤ à¼¥
ĠM U
ĠM useum
57 3
Ġï¼īãĢĭ ï¼Ī
à¼µ à½º
Ġà¼¥ à¼¢
Ġà¼¥ à¼£
Ġà¼¥ à¼¨
Ġ77 3
Ġ140 6
Ġà¼¦ à¼¢
Ġà¼¦ à¼£
Ġà¼¦ à¼¤à¼©
ta l
ĠL a
Ġà½ĺà½ī à½¦
ĠH e
ic har
à¼¢à¼¥ à¼łà¼ł
à¾ª à½¼
ia s
à¼¢à¼© à¼©
ra b
ĠãĢī ãĢĭ
à¾µ à½ºà¼ĭ
Ġs i
ĠF ran
à¼¢à¼¦ à¼ł
ch Ã©
---- ---
à½½ à¼į
Ġà¼© à¼ł
Ġïį ħ
ï¼ĳï¼ ĳ
ï¼ĳï¼ ĺ
and er
Ġ114 00
âĳ¾ âĳ¿
ĠV CD
ur i
ĠU C
il le
Ġ118 00
à¼¨à¼ł à¼¦
ĠJ ack
Ġà¼¡à¼¤ à¼¡à¼¥
Ġïĳ ª
à¼¡à¼©à¼§ à¼£
ï¼ĵ ï¼ĺ
Ġï¼ĵ ï¼Ĳï¼Ĳ
Ġï¼ĵ ï¼ĵ
ĠïĮ Ĭ
123 88
ĠâĢľï¼Į âĢĿâĢľ
ter na
ï¼Ĺ ï¼ĺ
Ġ167 10
tib e
ãģ ¨
Ġï¼Ķ ï¼Ĳ
à¼¦à¼¨ à¼§
Ġà¼¡à¼¥ à¼ł
pa ËĢ
Ê¨ a
Ê¨ u
Ê¨ Ã¸
à¼¦à¼© à¼¢
lo g
ÊĲ u
ĠãĢĭï¹Ļ ï¹ļ
Ġà¼ł à¼¨
Ġk han
ĠïĴ ¸
zh Ã²u
188 2
Ġ424 0
à¼ĭà¼ĭà¼ĭà¼ĭà¼ĭà¼ĭà¼ĭà¼ĭ à¼ĭà¼ĭà¼ĭà¼ĭà¼ĭà¼ĭà¼ĭà¼ĭ
ig mund
ïĸ Ķ
à¾Ľ à¼į
Ġ332 7
ï¼ĳï¼Ļ ï¼Ļ
117 5
ĠIn tel
Ġïķĳ ïĳµ
Ġ618 3
189 4
har ma
qu e
Ê¦ Ê°a
ĠÎ ¡
ĠÎ ¤
Ġ444 1
Ġï¼Ł âĢĿ
Å« n
Ġ546 4
bo la
bo ard
ĠSDR AM
az w
Ma x
ĠID O
Ġ735 9
ĠIS O
su ng
Ġ1150 1
á¹ ĩ
ïĵ ĵ
Ġï¼Īï¼īãĢĭ ãĢĬ
Ġ595 2
Ġ1389 39
Ê¨Ê° o
à¼¡à¼¡à¼¤ à¼§
Ê£ É¤
Ġ709 11
ĠAL T
jec t
à¼¡à¼¡à¼© à¼¢
ĠCO VID
pos y
à¾º à¼ĭ
Ġwa p
ĠFre ud
Land ry
pÃº sÃł
ĠReal ity
qing hai
yong zin
inde x
ĠDAC A
chÃ© ng
terna tional
, ãĢĤ
. ãĢģãĢģãĢģ
0 891
0 137
2 97
2 70
2 90
2 76
2 96
3 97
3 12
3 60
4 17
4 66
4 11
4 90
4 95
4 82
5 20
5 32
5 50
5 28
5 21
5 49
5 67
5 43
5 171
6 16
6 50
6 49
7 29
7 98
8 38
8 41
9 44
9 28
9 49
A urel
B BC
C U
D Q
E TC
E ug
F AST
G u
H C
H e
H EL
I V
J an
K o
M c
M o
M il
M os
O N
P elliot
S F
S e
S y
S an
S ha
S ou
T J
T a
T ER
U V
Z C
a o
b y
c ia
c ess
e va
f t
f ord
f ox
g es
g ram
g Äĵn
h en
h and
j ÃŃ
l Ã¹
m ÇĶ
m ÃŃng
n al
n ing
o is
p r
p x
p y
p ol
p Ãłi
r of
r it
r ss
s ks
s cs
t Éķ
t Çİ
t ÉķÊ°
u i
u ng
x Ã¬
x as
x zz
z an
z Ãłng
z Å«n
« ãģ
Ð ¸
ï Į
Ġ à½ĸà½łà½ĺ
Ġ com
Ġ al
Ġ à½©
Ġ à¼Ģ
Ġ qh
ģ ãĥ
ĥ ãĥĪ
Ļ ãĥ
à¾ ħ
à¾ Ī
à½¦ à½ĸà½¦
à½Ĥ à½Ľ
à½Ĥ à½ĳà½ĺà½Ĥ
à½Ĥ à½ĺà½Ĳà½ł
à½Ĥ à½ĸà½Ĥ
à½Ĥ à½Ĩà½ĳ
à½Ĥ à½Ĩà½ĸ
à½Ĥ à½ĺà½ĵ
à½Ĥ à½Ĩà½Ħ
à½Ĥ à½¨à½¢
à½Ĥ à½Ĥà½¦à½Ħ
à½Ĥ à½ķà½Ĥ
à½² à½¾à¼ĭ
à½Ħ à½Ħà½¦
à½Ħ à½ĳà½Ĥ
à½Ħ à½Ĥà½ŀ
à½´ à¼µà¼ĭ
à½ĵ à½Ĥà½ī
à½ĵ à½¢à½Ħ
à½ĵ à½Ĥà½¢
à¾± à½½
à½ĺ à½Ĥà½¦
à½ĺ à½ĸà½¦
à½ĺ à½ĵà½Ĥ
à¾² à¼į"
à¾² à¾°à½²à¼ĭ
à½Ķ à½Ķ
à½´à¼ĭ à¼ĭà¼ĭ
à½Ģ à½İ
à½Ĩ à½Ĥà½ĳ
à¾Ĵà¾± à½¿
à½ĵà½¦ à½Ł
à½ī à½ĵà½ĳ
à½ī à½łà½ĺ
à¾²à½² à½²
à½¤ à½Ķ
à½łà½ĳ à½ĳ
à½£à½¦ à½Ĥ
à¾¡ à¾Ģ
à½ĺà½¦ à½£à½Ĥ
à½Ĥà½ŀ à½Ĥà½¦
à¾£ à½´à¼ĭ
à¾Ķ à¾±à½¼
à¾Ķ à¾·à½²à¼ĭ
à½łà½Ľ à½ĵ
Ġà½¦ à½ĸ
Ġà½ĳ à½ĺà½¦
à½Ĥà½ī à½¢
à½Ĥà½ĵà½¦ à½¢
à¾Łà½¼ à¼İ
à½łà½ģ à½ł
à½łà½ģ à½Ħà½¦
ĠâĢ »
à¾Łà½º à½¿
à¾¨ à¾±à¼ĭ
à¾Ļ à½±
à½ĸà½Ģ à½Ĥà½¦
à½ĸà½Ģ à½Ħà½¦
Ġà½Ĥ à½Ļà½ĺ
à¾¦ à¾±à¼ĭ
à½¡à½Ħ à½¡
Ġà½ĺ à½§
à½łà½ļ à½Ĥà½¦
Ġà½Ģ à½ĸ
à¾Ĵà½¼ à¼į"
à½ģà½Ĥ à½£
à½ģà½Ĥ à½¢à½Ħ
ĠâĢľ ï¼Ī
ĠâĢľ ()
Ġ2 2016
à¾¡à½¼ à¼İ
à½± à¼Ķ
à½ĸà½Ļ à½¢
à½Ĳà½Ĥ à½ĺ
à½Ĥà½Ł à½ĺ
à½Ĥà½¦à½£ à½ĳ
à¾·à¼ĭ à¼ĭ
Ġ20 86
ĠãĢĭ ""
Ġà½ĳà½Ħ à½¦
Ġà½ĳà½Ħ à½ĵ
ï¼ ¡
00 60
00 29
00 69
à½Ĥà½¤ à½ĳ
Ġ3 893
Ġ3 281
à¾ķ à½ºà¼İ
Ġà½¨ à½ĳ
à½ĺà½ĩ à½ĳ
à½ĺà½ĩ à½¢
à½ĺà½ĩ à½ĺ
Ġ( ?
à½Ħà½Ĥ à½Ĥà½ĵà½ł
Ġà½ĳà½Ĥ à½£
Ġ) -
20 23
Ġà½łà½Ĥ à½ĸ
Ġà½Ķ à½Ģ
Ġ8 97
Ġ8 89
Ġà½Ĥà½¦ à½ĳ
Ġ9 66
Ġ9 28
Ġ9 15
Ġ9 92
Ġ9 76
Ġ9 27
Ġ9 69
Ġ9 62
Ġ10 10
Ġ10 33
Ġ10 93
Ġ10 24
Ġ10 86
Ġ10 68
Ġ10 53
Ġ10 71
à¼Į à¼ĭà¼İ
Ġï¼Ī Â·
Ġ12 20
Ġ12 15
Ġ12 18
Ġ12 42
Ġ12 99
Ġ12 31
Ġ12 83
Ġ12 59
Ġ11 32
Ġ11 28
Ġ11 22
Ġ11 18
Ġ11 96
Ġ11 99
Ġ11 94
Ġ11 43
Ġ11 83
Ġ11 71
Ġà½łà½ĩ à½ĳ
à¼¢ à¼¡à¼¡
Ġ15 17
Ġ15 41
Ġ15 73
Ġ15 71
Ġ15 79
à¼ł à¼¢
Ġà½ı à½ĳ
à¼½ à¼½
Ġà½ĺà½ĳ à½ĵ
Ġ13 66
Ġ13 62
Ġ13 74
Ġ13 56
Ġ13 71
Ġ18 25
Ġ18 21
Ġ18 42
Ġ18 87
Ġ18 49
Ġ18 01
Ġ18 74
Ġ18 78
Ġ17 28
Ġ17 93
Ġ17 64
Ġ17 01
Ġ17 83
Ġà½ĩ à½ĵ
Ġ16 66
Ġ16 41
Ġ16 54
Ġ14 97
Ġ14 58
Ġ14 76
Ġ14 96
Ġ14 86
Ġ14 84
Ġ14 54
Ġ14 71
ï¼ī âĢĶâĢĶ
Ġà½Ĥà½ı à½Ĥà½¦
Ġ25 46
Ġ25 61
Ġ25 91
à¼£ à¼¢à¼ł
19 30
19 12
19 16
19 26
19 47
19 39
19 03
Ġ. .âĢĿ
Ġ24 42
à¼¢à¼ł à¼©
à¼¢à¼ł à¼£à¼¥
Ġ100 1
Ġ21 30
Ġ21 66
Ġ21 36
Ġ21 02
Ġ70 60
Ġ22 60
Ġ22 90
Ġ22 36
Ġ23 82
Ġ23 64
Ġ28 70
Ġ28 85
Ġâĳ ¼
Ġâĳ ½
Ġ() âĢĶ
Ġ50 57
à¼© à¼¥à¼¨
Ġ40 50
Ġ31 000
Ġ31 85
Ġ31 56
Ġ27 28
Ġ27 93
Ġ27 07
à¼§ à¼¡à¼©
à¼§ à¼¡à¼ł
à¼§ à¼¤à¼§
30 6
à¼¦ à¼¡à¼¢
à¼¦ à¼§à¼ł
à¼¦ à¼¨à¼ł
Ġ29 48
Ġ29 62
Ġ29 43
Ġ29 52
Ġ60 3
10 67
10 64
10 54
à½Ĭ à½łà½ĺ
à½ĺà½ī à½ł
à¼¡à¼© à¼¢à¼ł
à¼¡à¼© à¼£à¼ł
à¼¡à¼© à¼¢à¼¥
à¼¡à¼© à¼¢à¼©
à¼¡à¼© à¼£à¼¦
à¼¡à¼© à¼¦à¼©
à¼¡à¼© à¼¥à¼£
à¼¡à¼© à¼łà¼©
17 38
17 82
12 25
12 28
12 90
58 6
89 6
16 39
50 4
Ġ80 1
Ġ80 3
à½łà½ļà½£ à½ĳ
25 2
Ġà¼½ à¼ĭ
44 24
ĠA EO
75 1
75 2
75 6
75 9
66 7
88 04
28 4
ï¼ļ âĢľ
77 6
77 9
à¼¡à¼ł à¼¥à¼¥
Ġ32 75
Ġ32 13
Ġ32 65
Ġ33 11
Ġ33 76
Ġ36 31
93 5
ĠP ra
ĠP re
ĠP OS
ĠP lus
18 60
18 44
18 64
18 56
18 02
ĠâĢ¦ .
Ġ34 76
35 3
Ġ38 50
24 3
ĠâĢ¦âĢ¦ âĢ¦
ĠâĢ¦âĢ¦ âĢ¦âĢ¦
Ġà½łà½Ĩ à½ĺà½¦
ï¼Į ï¼ī
ï¼Į âĢľâĢĿ
96 4
ĠC S
ĠC a
ĠC ha
ĠC ol
ĠC ent
à¼· à½²
80 3
80 7
à¾¨à¾±à½¼ à¼İ
à½» à½¾
Ġ65 60
Ġà¼¢ à¼¢à¼¤
Ġ37 000
40 7
40 8
65 3
65 7
Ġ43 78
Ġ75 2
29 1
ha d
ha l
ha re
Ġ46 44
45 4
Ġ48 15
Ġà¼¡à¼© à¼¥à¼ł
Ġà¼¡à¼© à¼£à¼¥
Ġà¼¡à¼© à¼§à¼§
Ġ56 97
Ġ56 22
98 3
95 1
ĠG B
Ġp h
85 7
à¼¡à¼¢ à¼§
à¼¡à¼¢ à¼¥à¼¡
47 9
ĠT F
ĠB C
ĠB i
ĠB o
ĠB on
Ġà¼¡ à¼¡à¼ł
Ġà¼¡ à¼¡à¼¤
48 3
69 4
Ġ097 3
ĠS e
Ġ155 00
55 4
67 1
970 4424
Ġ110 5
à¼¡à¼¤ à¼¤
à¼¡à¼¤ à¼¡à¼¤
Ġ52 50
Ġ99 4
à¼¡à¼§ à¼§
ĠD a
ĠD AR
à¼ĭà¼ĭà¼ĭà¼ĭ à¼ĭà¼į
Ġ-- âĢľ
à¼¡à¼¦ à¼¡à¼¨
à¼¡à¼£ à¼¡
à¼¡à¼£ à¼¤
à¼¡à¼£ à¼łà¼ł
à¼¡à¼£ à¼¦à¼¤
à¼¡à¼¥ à¼¥
à¼¡à¼¥ à¼£à¼¨
ĠI F
ar i
05 24
Ġ160 4
Ġ160 6
Ġ67 3
à¼¡à¼¨ à¼¥à¼¡
à¼¡à¼¨ à¼¦à¼£
ti t
Ġà¼¤ à¼¡
Ġà¼¤ à¼¨
Ġà¼¤ à¼¢à¼¤
Ġ62 11
la s
la ck
la ss
ĠM F
ĠM yth
ĠM obile
sh Äģ
sh Äĵn
sh Ã¨ng
or ks
Ġ130 4
le dge
le vel
à¼µ à½²à¼ĭ
Ġ59 1
Ġ59 25
en er
Ġà¼¥ à¼¥
Ġ180 3
Ġ77 2
âĳ§ âĳ¨
ĠW IN
Ġ82 50
Ġ88 48
ï¼Įï¼Į ãĢĤâĢĿ
âĢ¢ ï¼ī
âĢ¢ ãĢĭ
ĠK ing
ĠK AI
Ġà¼§ à¼£
ĠE dge
ĠL ag
es talo
ĠH er
ĠH CoV
et u
ĠN HK
PP P
ic e
ic tion
Ġ94 00
ng e
à¾µ à¼į
ĠF DA
ĠF acebook
à¼¢à¼¤ à¼£
is co
100 4
100 5
al d
à¼¢à¼¦ à¼łà¼ł
ch ine
ĠãĢĬãĢĭ ãĢĬãĢĭãĢĬãĢĭ
el s
ya m
ï¼ĳï¼ ĸ
xi Äģng
ĠãĢģ ãĢģãĢģ
ĠãĢģ ãĢģãĢģãĢģãĢģ
ol i
Ġï¼Į ï¼ĮãĢĤ
Ġ--- âĢĿ
ĠO CR
ĠV OL
ur s
ĠU DP
âĴĢ âĴģ
ĠX HTML
Ġof fice
Ġ330 5
Ġ330 8
ĠJ e
un ita
ĠZ a
Ġâħ ¤
Ġà¼¡à¼£ à¼©à¼¢
Ġ219 0
à¼£à¼¥ à¼łà¼ł
re d
Ġà¼¡à¼§ à¼ł
ri g
ri ors
ï¼ĵ ï¼Ĺ
123 15
123 65
ot son
at ure
ãģ į
ãģ «ãģ
Ġï¼Ķ ï¼ķ
om an
om ol
Ġï¼ķ ï¼Ĳï¼Ĳ
ĠTib et
ï¼Ķ ï¼ķ
âĴĨ âĴĩ
à¼¦à¼§ à¼¨
à¾ŀ à½±à½²à¼ĭ
158 27
à¼©à¼© à¼¦
ĠïĲ ¾
ĠïĲ ŀ
ĠïĲ ł
ck with
Ġ319 4
ĠCTRL Sh
Ġïİ ĵ
119 3
ir ko
ï¼ĳ ï¼Ĳ
Ġ580 7
ĠâĢľï¼Įï¼Į âĢĿ
Ġ424 2
ãĥ ģãĥ
Ã³ ng
ay an
Ġï¼Ĵï¼Ĳï¼ĳï¼ Ķ
ĠCh o
ĠCh irko
ran s
Ġ628 2
Ġj a
Ġ285 17
ĠIn s
112 7
à¼¹ à¾Ģà¼ĭ
ill er
ew ey
uc ci
ug h
144 1
144 9
Ġ488 0
hu Ã¬
ĠÎ ²
à¼¡à¼¤à¼ł à¼¥
Ġ374 10
ïį ½
Ġ489 8
Ġ576 9
Ġ624 0
ĠÂ·Â·Â·Â·Â·Â· âĢĿ
IF T
Ġ....... .
zz i
Åĭ a
ous ton
rac ter
Ġ1390 9704424
yu Ã¡n
ĠïĮĤ ïĸĳ
ÄĽ n
Ge Le
à¼¡à¼¡à¼§ à¼©
Ġà½¿ à¼İ
Ġ________________ ________
Ġï½ Ĳ
à¾» à¼ĭ
Ver b
lor er
Ber ry
ati a
bh Äģ
Pla to
now ledge
ĠMV P
Bal ti
[] ;
âĴĥâĴĦ âĴħ
ĠStud ies
ĠExp lorer
Be ckwith
ï¼ĮâĢĿâĢľ ï¼ĮâĢĿ
ĠJack son
ĠâĢľï¼ĮâĢĿâĢľ ï¼ĮâĢĿâĢľï¼ĮâĢĿ
Eug ene
HEL LO
xzz sks
Ļãĥ ĥãĥĪ
ĠLag unita
estalo zzi
ĠCTRLSh ift
ãĥģãĥ ĻãĥĥãĥĪ
ĠChirko va
" (
/ âĢľ
0 10
0 17
0 101
0 328
1 890
1 339
2 25
2 77
2 35
3 32
3 13
3 76
3 99
4 20
4 16
4 60
4 14
4 13
4 22
4 93
4 34
4 92
4 65
4 26
4 87
5 10
5 12
5 16
5 60
5 75
5 70
5 14
5 18
5 27
5 45
5 38
5 39
6 97
6 33
6 26
6 36
6 95
6 38
6 37
6 329
7 80
7 36
7 31
7 94
9 16
9 48
: /
A B
A P
A Q
A fg
B D
B I
B P
B V
C e
D O
D r
D onal
E E
E mmanuel
F low
G bps
H U
H g
H or
H ol
H am
H AA
I B
I nd
J a
K ar
K asus
L a
L u
N P
N on
N oto
N SS
O s
P ower
S C
S P
S ar
S cott
T ha
T witter
U nicode
V Q
W al
W atch
X z
b i
b el
b ur
b Ãº
b ÄĽn
c ÃŃ
d er
d Ã©
d son
e v
f e
f ter
f ace
g É¯
h i
h o
h ya
i in
i et
k u
k ar
l is
m in
m ÃŃ
m ir
m ÉĽ
n es
n ey
o ta
o ul
p an
r d
s y
s Ã¨
s kype
t Ã¸
t Éª
u al
u ro
u ba
u Ã¡n
v annes
y o
y ÇĶ
z e
z g
z É¯
¤ ãĥ³ãĥ
´ Ģ
Ã ¼
É ¬
Î ¡
Î ±
Î ł
Ð ¾
á ´Ģ
Ġ do
Ġ ÊĶ
Ġ Éĳ
à¼ Ĳ
à¼ĭ à¼ĳà¼į
à½¦ à½ī
à½¦ à½ĺà½¦
à½¦ à½ĺà½ļ
à½¦ à½¢à½ĸà½¦
à½Ĥ à½ĺà½¦
à½Ĥ à½Ĥà½¤
à½Ĥ à½ĺà½Ĳà½¢
à½Ĥ à½Ĩà½Ĥ
à½Ĥ à½Ĥà½¡à½Ħ
à½Ĥ à½ģà½ĺ
à½¼ à½¾à¼į
à½ĳ à½ŀ
à½ĳ à½Ĳ
à½ĳ à½ĵà½Ħ
à½ĸ à½Ķ
à½ĸ à½ī
à½ĸ à½Ĳà½ĸ
à½Ħ à½Ģ
à½Ħ à½łà½Ĥ
à½Ħ à½ĸà½ł
à½¢ à½Ĳ
à½¢ à½Ĥà½ŀ
à½¢ à½Ĥà½ı
à½´ à¼Įà¼į
à½ĵ à½Ĩ
à½ĵ à½ĸà½¢
à½ĵ à½ĸà½Ģ
à¾± à¾±à½²à¼ĭ
à¾± à¼Ķ
à½ł à½ĸà½¦
à½ł à½ħ
à½ł à½ı
à½ł à½Ł
à½²à¼ĭ à½²
à½²à¼ĭ à¼ĭà¼ĭà¼ĭà¼ĭ
à½º à¼Įà¼į
à½£ à½Ĳ
à½£ à½łà½ĸ
à½£ à½ĸà½ł
à½£ à½Ĭ
à½ĺ à½¡
à¾² à¼½
à¾² à¼İ"
à¾² à½¾à¼ĭ
à¾² à½±à½´
à½ģ à½Ĥà½ŀ
à½¡ à½łà½Ħ
à½Ģ à½Ģ
à½Ģ à½Ĳ
à½ĳà½Ħ à½£
à½ĳà½Ħ à½ĺ
à½ĳà½Ħ à½Ģ
à½ĳà½Ħ à½ĺà½ļ
à¾Ĵà¾± à¾Ģ
à½ĸà½¦ à½ŀ
à½ı à½İ
à¾Ł à¼½
à¾Ł à½±à½²à¼ĭ
à½ĵà½¦ à½Ħà½¦
à¾²à½² "
à¾²à½² à½²à¼ĭ
à¾²à½¼ "
à¾²à½¼ à½¼
à¾²à½¼ à¼¼
à½łà½Ĥ à½ĺà½¦
à¾±à½² "
à½£à½¦ à½ŀ
à½ĳà½Ĥ à½ģ
à¾© à¾Ģà¼ĭ
à½Ĥà½ı à½£
à½łà½Ľ à½ĺà½¦
à½Ļ à½İ
à½ĺà½Ĳ à½ĳ
à½ĳà½ĸ à½Ĥ
à½ĳà½ĸ à½ŀ
à½ĸà½ŀ à½Ĥà½£
à½ĸà½ŀ à½Ĥà½¡
Ġà½¢ à½ĳ
à¾²à½º à½º
à¾²à½º à¼İ
à½¨ à½ĵà½ĵ
à½¨ à½Ļà½¢
à¾· à¾²à½²
à¾· à½»à¼ĭ
à½Ĥà½ī à½ĺà½¦
ĠâĢ Į
à½¢à½Ħ à½ĸà½ŀ
à¾Ļ à¾Ļ
à¾Ļ à¾Ļà½²
à½ĸà½ĳ à½ĵ
à¾¦ à¾²à½¼à¼ĭ
à½Ķà½¦ à½¢
à½£à½ĺ à½£
Ġà½ĺ à½Ħà½¦
Ġà½ĺ à½ĳà½¢
Ġà½ĺ à½łà½¢
à½łà½ļ à½ĸà½¦
Ġà½ĸ à½ĺà½¦
Ġà½ĸ à½Ĥà½ĳ
à½łà½Ĳ à½¢
à½ģà½Ĥ à½¡
ĠãĢ Ĺ
à¾²à½¼à¼ĭ à¼ĭ
ĠâĢľ //
ĠâĢľ ãĢĤ
ĠâĢľ ï¼Ł
à¾¡à½ºà¼ĭ à¼ĭ
à½Ĳà½Ĥ à½£
à½Ĳà½Ĥ à½Ĳà½Ĥ
à½¢à½ĸà½¦ à½¦
à½Ŀ à½ı
à½ĸà½ı à½Ĭ
à½ĳà½ĺà½Ĥ à½¡
à½ĳà½ĺà½Ĥ à½ĺà½ģà½ł
Ġ20 90
Ġ20 69
Ġ20 94
ĠãĢĭ ,
ĠãĢĭ ï¼ī
ĠãĢĭ ãĢĲ
à¾¤à¾±à½² à½²
Ġà½ĳà½Ħ à½£
à½ĳà½Ĥà½ł à½¢
00 1
00 2
00 28
00 22
00 80
00 95
00 47
00 49
00 78
à¾¥ à½¼à¼į
Ġà½¨ à½¦
à¾©à½ºà¼ĭ à¼ĭ
à½¢à½ĸ à½ĸà½¦
à½ĸà½ŀà½Ĥ à½¢
à½ĸà½ŀà½Ĥ à½ĺ
à½Ĥà½¢ à½¢
Ġï¼ ¦
Ġï¼ ħ
Ġï¼ Ń
Ġ( -
Ġ( âĢľâĢĿ
à¾¤à¾± à¾Ģ
à¾²à¾Ń à¼İ
à½ĺà½ĵ à½Ĥà½¦
Ġà½Ķà½ł à½Ħ
Ġà½Ķà½ł à½¢
Ġ7 34
Ġ) ()
Ġ) ãĢī
Ġ8 96
Ġ8 83
Ġ8 91
à½Ģà½¢ à½İà½ł
Ġ9 32
Ġ9 44
Ġ9 77
Ġ9 49
Ġ9 899
Ġ10 19
Ġ10 66
Ġ10 96
Ġ10 46
Ġ10 47
Ġ10 61
Ġ10 52
âĢľ ãĢģ
âĢľ âĢ¦âĢ¦
à¼¡ à¼¡à¼¨
Ġà½łà½ķ à½£
Ġï¼Ī ï¼Įï¼Į
Ġà½Ĥà½ħ à½ĺ
Ġ12 21
Ġ12 24
Ġ12 23
Ġ12 26
Ġ12 309
Ġ12 41
Ġ12 64
Ġ12 339
à½Ĥà½ŀà½Ĥ à½Ĥà½ŀ
Ġ11 33
Ġ11 46
Ġ11 98
Ġ11 38
Ġ11 87
Ġ11 49
Ġ11 84
Ġ11 57
Ġ11 91
Ġ11 81
Ġ11 72
âĳ ¯
âĳ ²
à¼¢ à¼¢à¼¨
à¼¢ à¼¢à¼£
à¼¢ à¼¢à¼§
ĠÂ Ń
Ġ15 20
Ġ15 76
Ġ15 40
Ġ15 65
Ġ15 48
Ġ15 61
Ġ15 43
Ġ15 74
Ġ15 373
à¼¼ à¼ĭ
Ġ13 99
Ġ13 94
Ġ18 22
Ġ18 26
Ġ18 31
Ġ18 41
Ġ17 77
Ġ17 96
Ġ17 94
Ġ17 51
Ġ17 52
Ġ30 12
Ġ30 82
Ġ16 48
Ġ16 74
Ġ14 12
Ġ14 66
Ġ14 88
Ġ14 36
Ġ14 38
Ġ14 82
Ġ14 49
Ġ14 68
Ġ14 43
Ġ14 51
Ġ25 70
Ġ25 62
Ġ25 07
à¼£ à¼¡à¼¦
à¼£ à¼¦à¼ł
âĢĿ [
19 44
19 43
19 08
Ġ24 30
Ġ24 60
Ġ24 88
Ġ24 91
à¼¢à¼ł à¼¤
à¼¢à¼ł à¼¢à¼¡
Ġ100 6
Ġ21 42
Ġ21 69
Ġ21 01
Ġ21 56
Ġ21 51
Ġ22 32
Ġ22 74
Ġ22 54
Ġ23 30
Ġ23 58
ĠÂ» ï¼Ī
Ġ28 50
Ġ26 35
à¼© à¼łà¼ł
Ġ40 89
Ġ40 75
Ġ40 77
Ġ31 11
Ġ31 76
Ġ31 43
Ġ27 29
Ġ[ ]
à¼§ à¼¡à¼¥
à¼§ à¼łà¼łà¼ł
à¼§ à¼£à¼¤
à¼§ à¼¥à¼¦
à¼§ à¼¦à¼£
Ġà½Ĥà½¤ à½ł
à¼¦ à¼łà¼łà¼ł
ĠãĢĭãĢĬ âĢľ
Ġà½Ļ à½ĳ
Ġ29 33
Ġ29 86
Ġ29 64
10 10
10 32
10 48
10 71
10 79
ĠÂ« âĢľ
à½Ĭ à½ĵ
ãĢģ ãĢĬ
à½Į à½£
à¼¡à¼© à¼¢à¼¨
à¼¡à¼© à¼¢à¼¤
à¼¡à¼© à¼¦à¼ł
à¼¡à¼© à¼¢à¼¢
à¼¡à¼© à¼£à¼¥
à¼¡à¼© à¼£à¼§
à¼¡à¼© à¼¦à¼§
à¼¡à¼© à¼¤à¼§
à¼¡à¼© à¼¦à¼¤
à½ĵà½ł à½¢
17 58
17 18
17 23
17 47
17 05
12 00
12 76
12 46
12 36
12 79
12 669
à½¾ à¼İ"
16 97
16 60
16 27
16 99
16 03
16 04
16 708
50 3
60 1
60 2
60 3
ĠA th
ĠA PI
ĠA fter
ãĢĭ )
70 5
Ġ35 60
66 5
Ġà½ĸà½ı à½ĸà½¦
88 2
88 7
88 01
à½¦à½Ĥ à½ģ
28 7
Ġà½ĳà½Ģ à½Ĥ
Ġ/ "
Ġ/ //////
Ġ90 2
Ġ90 4
14 14
14 61
14 08
13 59
90 2
à½¿ à¼İ
Ġ32 20
Ġ32 17
Ġ32 35
à¾ľ à¼į
Ġ33 42
Ġ33 64
Ġ36 80
93 66
ĠP A
ĠP er
ĠP CI
ĠP ages
18 53
ĠâĢ¦ âĢĿ
Ġ34 27
92 1
Ġ38 20
Ġ38 26
ĠâĢ¦âĢ¦ .
ĠâĢľâĢĿ ï¼ĮâĢľâĢĿ
76 1
ï¼Į ï¼ģâĢĿ
Ġ177 1
ĠC al
ĠC ummins
à¼· à½º
Ġà¼¢ à¼¡à¼§
Ġà¼¢ à¼¢à¼¥
Ġà¼¢ à¼¢à¼¦
40 1
40 2
40 25
Ġ55 4
26 2
Ġ95 3
Ġ43 20
Ġ43 94
Ġ39 96
Ġ75 50
ha s
âĳ¡ âĳ¢
36 2
Ġ48 17
Ġà¼¡à¼© à¼¡à¼¤
Ġà¼¡à¼© à¼¡à¼¦
Ġà¼¡à¼© à¼¥à¼¦
Ġà¼¡à¼© à¼¥à¼¥
Ġà¼¡à¼© à¼¤à¼¦
Ġà¼¡à¼© à¼¦à¼¤
Ġà¼¡à¼© à¼§à¼¤
Ġà¼¡à¼© à¼¦à¼¡
Ġ44 50
Ġ44 81
98 6
98 7
Ġ47 18
Ġ47 80
in o
Ġ600 9
95 4
95 6
38 2
ĠG K
ĠG ala
ĠG olden
Ġ: ãĢĬãĢĭ
Ġp ov
86 2
86 9
à¼¡à¼¢ à¼§à¼ł
er o
Ġà½ĸà½¤ à½Ħà½¦
47 3
ĠT r
ĠT BM
Ġ42 18
ĠB l
ĠB il
ĠB AC
on t
on ia
à¾·à½º à½ºà¼ĭ
Ġ41 129
ĠãĢĭï¼Ī âĢľ
Ġ097 5
ĠS D
ĠS p
ĠS ha
ĠS te
37 9
Ġ54 88
Ġ110 6
Ġ85 1
Ġ98 4
à¼¡à¼¤ à¼¢
à¼¡à¼¤ à¼łà¼ł
à¼¡à¼¤ à¼£à¼¥
à¼¡à¼¤ à¼¤à¼¦
à¼¡à¼¤ à¼©à¼¡
ãĢĳ ãĢĲ
Ġ52 000
Ġ99 1
à¼¡à¼§ à¼¡à¼ł
à¼¡à¼§ à¼łà¼ł
à¼¡à¼§ à¼¡à¼¦
à¼¡à¼§ à¼¡à¼¨
à¼¡à¼§ à¼£à¼§
à¼¡à¼§ à¼¥à¼¦
à¼¡à¼§ à¼¨à¼¡
ĠD es
ĠD el
à¼¡à¼¦ à¼¢à¼ł
à¼¡à¼¦ à¼¢à¼¡
à¼¡à¼¦ à¼£à¼¥
à¼¡à¼¦ à¼¤à¼¤
à¼¡à¼¦ à¼¨à¼¥
à¼¡à¼¦ à¼¨à¼¢
à¼¡à¼£ à¼©
à¼¡à¼£ à¼¤à¼©
à¼¡à¼£ à¼§à¼©
à¼¡à¼£ à¼¨à¼¥
à¼¡à¼£ à¼¨à¼¦
ĠI nd
ĠI BM
84 16708
âĳ¤ âĳ¥
Ġà½Ĳà½¢ à½ĳ
Ġ97 3
Ġ97 4
Ġ97 00
05 11
à¼¡à¼¨ à¼§à¼ł
à¼¡à¼¨ à¼©à¼¤
à¾±à¾Ģ à¼İ
ti s
Ġà¼¤ à¼¢à¼¥
Ġ62 50
ĠM or
ĠM icha
57 2
57 9
sh Ãłng
01 00
01 20
or i
or k
or bu
or Flow
Ġ130 8
le y
à¼µ à½ºà¼İ
Ġ64 99
ĠW G
Ġ83 18
à¾¨à½´à¼ĭ à¼¼
ï¼Įï¼Į ï¼ĮãĢĤ
ï¼Įï¼Į ï¼ĮãĢĤâĢĿ
ĠK ash
Ġà¼§ à¼¦
Ġà¼§ à¼£à¼§
Ġà¼¦ à¼¥
Ġà¼¦ à¼¤
ï¼İ âĢľ
ĠN e
ĠN ote
____ __
ra s
ra de
ra ph
Ġà¼¡à¼ł à¼¤
Ġà¼¡à¼ł à¼łà¼łà¼ł
à¾µ à¾Ģ
te h
Ġà¼¨ à¼¡
Ġà¼¨ à¼©
Ġà¼¨ à¼¨
Ġs ur
Ġs hare
ĠF e
ang e
al k
à¼¢à¼¦ à¼¥
ch e
ch ÃŃ
Äģ stra
ĠãĢĬãĢĭ (
Ġï¼Ĵ ï¼Ĺ
Ġï¼Ĵ ï¼Ķ
Ġà¼© à¼¥
à½¼à¼½ à¼¼
Ġ128 00
à¼ĭà¼ĭà¼ĭ à¼ĭà¼į
Ġb r
ĠR C
ï¼ĳï¼ ķ
ï¼ĳï¼ Ĺ
xi zang
ĠãĢĶ ãĢķ
Ġ123 00
Ġ123 20
ï¼Ĵ ï¼Ĵ
it er
ĠO R
ĠO s
ĠV Z
ur us
Ġ117 10
Ġi pad
ĠX S
Ġ240 8416708
un t
Ġâħ ¦
Ġà¼¡à¼¤ à¼ł
Ġïĳ ©
Ġïĳ ł
um p
um ent
Ġà¼¡à¼£ à¼łà¼©
Ġ219 5
Ġ219 6
am ts
Ġà¼¡à¼¦ à¼ł
Ġà¼¡à¼§ à¼§à¼¤
ï¼ĵ ï¼Ĳï¼Ĳ
Ġïĵ Ŀ
ï¼Ļ ï¼Ĳ
Ġï¼ĵ ï¼ķ
Ġï¼ĵ ï¼Ļ
Ġà¼¡à¼¨ à¼¡à¼ł
ers on
de la
Ġïĸ ¬
Ġïĸ ¸
Ġïĸ ¾
ãī ĵ
ãī ļ
à¼£à¼¤ à¼¨
à¼£à¼¦ à¼łà¼ł
à¼¥à¼¤ à¼¥
Ä« yÄ«
ĠãĢĤ ãĢĤãĢĤãĢĤ
Ġï¼Ķ ï¼Ĺ
à¼¦à¼¨ à¼¦
li e
li g
li sh
li Ãłng
Ġc ult
Ġc ultu
nd a
Éķ Ê°a
à¼¦à¼§ à¼¦
ï½ į
ud dh
Ê¨ i
Ê¨ É¯
Çİ o
ÊĲ É¤
158 279
Ġw ine
Ġw ith
ĠïĲ ¡
ĠïĲ ¿
ĠCTRL F
Ġà¼ł à¼¡
Ġà¼ł à¼¦
Ġïİ £
à½±à½´à¾ĥ à¼Ķ
119 4
Ġa pp
gu e
gu Ä«yÄ«
Ġ224 39
Ġk nowledge
Ġl anguage
ĠïĴ ¥
zh u
zh Ä«
ts o
Ġïı Ń
188 6
ĠâĢľï¼Įï¼Į ï¼ĮãĢĤâĢĿ
Ġ(, )
OS T
Ġ278 75
va pra
Ġ458 8
à¾ł à½²
ïĸ ª
Ġãī Ĵ
Ġãī ķ
...... .
tÊĤ Ê°
Ġj oin
Ġ__ _
Ġ428 4
à¾°à½´ à¾ĥà¼ĭ
130 3
Ġd er
Ġ620 6
ĠIn ch
AM OST
ĠLin n
Ġ08 37
Ġv posy
Ġ417 3
ï¼Ĵï¼Ĳï¼ĳï¼ Ĵ
189 6
ec ts
Ġ545 1
ep ub
Ê¦ o
ï¼Įï¼Įï¼Įï¼Į ï¼ĮãĢĤâĢĿ
Ġï¼ĮãĢĤ ï¼ĮãĢĤ
Ġ297 5
ĠIP O
ĠIP TV
Êĳ É¯
Ġ423 8
ĠïĶ ¿
Ġ526 1
Ġ747 1
Ġ..."" ""
à¼¡à¼£à¼ł à¼£
av el
ãĤ ¤ãĥ³ãĥ
Ġ795 00
In ternet
In formation
Mar c
ĠID E
Ġg a
âĳ£âĳ¤ âĳ¥
Ġ523 1
ĠNo un
Ġï¼ĳï¼Ļ ï¼Ļ
TA B
han istan
à¾±à½» à½¿
fÃ³ jiÃło
dÃł o
ita ge
our ce
ïİ ·
à½¼à½¾ à¼Ķ
ĠTe chnology
ÉķÊ° u
Ê¥ a
à¾¼ à½²
Ġ)Â» ï¼»
MA X
Ġ639 89
Ê¨Ê° É¤
NE T
ff ects
wÃº liÃłng
ÅĽ Äģstra
ĠâĢľ.... .
yÄģ ya
ens orFlow
Te xas
jec tive
vin ce
Ġ1745 4
612 1461
Alex ander
Con teh
É¡ o
Ġ(ï¼Į )
Ġ(ãĢģãĢģ )
ĠMP R
Am er
Jim Cummins
War riors
Ġun i
ï½ī ï½
ĠApple Watch
ĠLuvs an
State Warriors
Ðµ Ð
à¾¢ à½´à¼ĭ
ĠMO OC
ĠEP AS
Ad jective
ĠBriti shi
ĠDav id
ichar dson
Ġsi ri
á¹ĩ a
CU P
hand le
Ġï¼ĪÂ· ï¼ī
Ġ4644 12669
level and
ĠWIN DOS
Ġja va
Afg hanistan
Donal d
HAA SO
Xz Q
ĠGala xy
ĠKash mir
ãĤ¤ãĥ³ãĥ ī
% âĢĶ
% ï¼Ī
, âĢ¦
/ âĢĿ
0 16
0 23
0 61
0 123
0 139
0 138
1 123
2 17
3 93
4 97
4 19
4 30
4 12
4 33
4 70
4 28
4 77
4 18
4 31
4 37
5 97
5 17
5 58
5 77
5 90
5 92
5 76
5 65
5 46
5 98
5 47
5 48
5 31
5 91
6 10
6 17
6 58
6 22
6 98
6 86
7 58
7 25
7 70
7 40
7 27
7 46
7 45
7 47
7 39
8 20
8 10
8 50
8 33
8 24
8 76
8 40
8 29
9 33
9 66
9 11
9 13
9 45
9 929
A T
A nd
A BA
A ug
A nge
B Y
B ro
C A
C BA
C ent
C har
C PU
C HI
E r
E PA
G PP
H CoV
I s
I mmanuel
J ean
K F
K a
K atia
L I
L NG
L ake
M B
M e
M u
M ERS
N an
N BL
N ida
N ature
O D
O NE
R E
R I
R v
R am
R ocket
S E
S o
S p
S va
S ent
S oc
S Plus
S mith
T Y
T ol
T otem
T ucci
W A
W RCA
Z J
a j
b s
c ent
d ian
d Ã¹
d Êĳ
e ology
f er
g am
g Åįng
g Ã²ng
h y
h it
h rss
j a
k ing
k ara
k á¹£
l on
l ic
l Çİ
l Ã¨
l ug
m u
m or
m ber
n b
n u
n y
n oli
o the
p c
p la
p ut
r ia
r Ã©n
s Äģ
t J
t v
t ha
t es
t us
u Se
v o
v on
v ol
v at
v ed
v irus
w u
w in
w Ã©n
w orks
x a
x Ã¹
y f
y er
y ÃŃ
y od
y ric
z ale
¤ ï¼
§ ois
© ïĸĶ
Ã ±
Ã §ois
É Ĳ
Î »
Î ½
Ï ĥ
ï ¸
ï Ĥ
Ġ Ë
Ġ Ð
Ġ ha
Ġ te
Ġ ge
Ġ lo
Ġ ins
Ġ con
Ġ à¼Ħà¼ħà¼į
à½¦ à½ļ
à½¦ à½Ĳ
à½¦ à½łà½Ĥ
à½¦ à½£à½¦
à½¦ à½Ķà½¢
à½¦ à½ĳà½ĸ
à½Ĥ à½łà½Ĳ
à½Ĥ à½Ĥà½ıà½ĵ
à½Ĥ à½ĺà½¢
à½Ĥ à½ĺà½ļà½ĺà½¦
à½Ĥ à½ĺà½ģà½¦
à½Ĥ à½ĸà½Ģà½ł
à½Ĥ à½Ĩà½¢
à½Ĥ à½łà½ĩà½¢
à½² à½²à¼į
à½¼ à¾ħ
à½ĳ à½łà½ĸ
à½ĳ à½Ĳà½ĸà½¦
à½ĸ à½ĸà½ħ
à½ĸ à½§
à½Ħ à½¤
à½Ħ à½Ł
à½Ħ à½łà½ĸ
à½Ħ à½ĳà½ĸ
à½Ħ à½Ĥà½£
à½¢ à½Ķ
à½¢ à½ĸà½¢
à½¢ à½łà½ģ
à½¢ à½Į
à½´ à½²
à½´ à½´
à½ĵ à½Ĳ
à½ĵ à½ĵà½¦
à½ĵ à½ĸà½ŀ
à½ĵ à½£à½ĺ
à½ĵ à½Ĥà½Ļ
à½ĵ à½ļà½ĵ
à½ĵ à½Ĥà½£
à½º à¼ĳ
à½£ à½İ
à½ĺ à½ı
à½ĺ à½Ĥà½ı
à½ĺ à½ģà½Ħ
à¾² à½½
à½Ĥà½¦ à½ı
à½Ĥà½¦ à½łà½Ĥ
à½ģ à½Ĥà½ıà½Ħ
à¾Ĵ à¾Ńà¼ĭ
à¾Ĵ à¾°à¼ĭ
à½ļ à½łà½Ħ
à½ĳà½Ħ à½ĳ
à½ĳà½Ħ à½¨
à¾±à½²à¼ĭ à¼ĭà¼ĭ
à½ºà¼ĭ "
à½ºà¼ĭ à¼ĭà¼ĭà¼ĭà¼ĭ
à½ħ à½łà½¢
à½ı à½Ĥà½ĺ
à½Ħà½¦ à½ĳ
à½Ħà½¦ à½Ķ
à½Ħà½¦ à½ģ
à½Ħà½¦ à½ŀ
à½ĵà½¦ à½¦
à½Ķà½ł à½ĳ
à¾³ à¼½
à¾³ à½¾
à½¤ à½¤
à½ĸà½¢ à½ĸ
à½Ł à½łà½Ħ
à¾²à½¼ à¼Ķ
à½£à½¦ à½ĳ
à½łà½ĸ à½ĵ
à¾¡ à½²à¼į
à¾¡ à¾·à½²
à¾© à¼½
à½Ĥà½ŀ à½Ĥà½¢
à¾±à½´ à½¼
à¾£ "
à½Ķà½¢ à½ĺ
à¾Ķ à¾·à½ºà¼ĭ
à½ĺà½Ĳ à½ĵ
à¾³à½¼ à½¼à¼ĭ
à¾Ĳà¾±à½¼ à½¼
à½ĸà½ŀ à½Ħ
à½ĸà½ŀ à½Ĥà½Ħ
à½¨ à½Ļ
à¾· à¾£
à¾· à¾²à¼ĭ
à¾· à½´à¼į
à¾· à½¼à¼İ
à¾· à¼µà¼ĭ
à¾· à½±à½º
à¾· à¾²à½´à½¾à¼ĭ
à½Ĥà½ĵà½¦ à½¦
à½Ĥà½ĵà½¦ à½¡
à½Ĥà½ĵà½¦ à½ŀ
à½ĺà½Ħ à½ĳ
à½Ĥà½ħ à½Ĥà½¦
ĠâĢ į
à¾Łà½º à½º
à¾¨ à½¼à¼į
à½ĩ à½łà½ĺ
à¾²à¼ĭ à¼ĭ
à¾²à¼ĭ à¼½
à¾Ĵà¾±à½´à¼ĭ à¼½
à¾¦ à¾²à½²à¼ĭ
à¾¦ à½±à¼ĭ
à¾¦ à¾²à½´à¼ĭ
à¾¦ à¾·à½²
Ġà½ĺ à½Ĥà½£
Ġà½ĺ à½Ĥà½ł
à¾« à½ºà¼į
à½£à½Ĥ à½ĳ
à½£à½Ĥ à½£
à½Ľ à½Ħ
à¾Ĵà¾±à¼ĭ à¼ĭ
à¾Ń à½´
à¾Ń à½¼à¼İ
à¾Ĳà½´ à½´
à½Ĥà½Ļ à½ł
ãĢ İ
à½ĺà½Ľ à½ĸ
Ġà½Ģ à½İ
ĠâĢĿ '
ĠâĢĿ âĢ¦âĢ¦
ĠâĢĿ ãĢĸ
à½ģà½Ĥ à½Ĩ
à½ģà½Ĥ à½ĳà½Ĥ
ĠâĢľ ï¼ĮãĢĤâĢĿ
à¾Ĺà½º à¼¼
à½ħà½ĵ à½ĳà½Ħ
à¾¡à½¼ à¼½
à¾³à¼ĭ à¼ĭ
à¾Ķà¼ĭ à¼ĭ
Ġà½ī à½ĸ
à½± à½´à¼į
à½łà½Ĩ à½Ħà½¦
à½ĸà½Ļ à½ĺ
à½Ĳà½ĳ à½£
à½Ĳà½Ĥ à½ĳ
à½Ĥà½Ł à½ĸà½¦
à½Ĥà½ĵ à½£
à½ĸà½ı à½ł
à½ĳà½ĺà½Ĥ à½ĺ
à½ĳà½ĺà½Ĥ à½ķ
à½ĺà½Ĩ à½Ħ
à½Ĥà½ĳ à½ĸà½¦
à¾Ļà½² à¼İ
Ġ20 97
Ġ20 45
Ġ20 98
Ġ20 47
Ġ20 48
Ġ20 81
Ġ20 71
Ġà½Ĩ à½£
à¾¤à¾²à½¼ à¼İ"
à½ĳà½Ĥà½ł à½Ħ
à½Ĥà½¡ à½Ħà½¦
ĠãĢĬ âĢ¢ãĢĭ
00 8
00 58
00 90
00 35
00 96
Ġà½¨ à½¥
à¾¡à½¼à¼ĭ à¼ĭ
à½ĸà½ŀà½Ĥ à½Ĥ
à½ĸà½ŀà½Ĥ à½ĸ
à½¤à½¢ à½ı
Ġï¼ ģ
Ġï¼ Ĳ
Ġ( :
Ġ5 89
Ġ5 160
Ġ5 894
à¼ħ à¼İ
Ġà½ħ à½£
à½Ĳà½¢ à½ĳ
Ġà½ĳà½Ĥ à½ĸ
Ġà½ĳà½Ĥ à½Ħ
à½ĸà½Ģà½ł à½¦
Ġ7 94
Ġ) Â«
"" ""
Ġà½Ķ à½Ĥ
Ġà½ł à½¢
Ġà½ł à½ŀ
Ġ8 17
Ġ9 16
Ġ9 26
Ġ9 86
Ġ9 43
Ġ9 328
Ġ9 176
Ġ10 23
Ġ10 29
Ġ10 95
Ġ10 78
âĢľ (
à¼¡ à¼¡à¼£
Ġà½ĺà½Ħ à½Į
à¼Į à¼į"
à¾¥à½´ à½´
Ġà½¡à½Ħ à½ŀ
à½Ĥà½ł à½ĵ
Ġ12 77
Ġ12 92
Ġ12 82
Ġ12 94
Ġ12 57
Ġ12 81
Ġ12 369
ĠãĢĢ ĠãĢĢ
Ġ11 52
Ġà½Ĥà½Ļ à½ĸà½¦
âĳ ±
âĳ ¹
âĳ º
Ġ15 16
Ġ15 66
Ġ15 11
Ġ15 13
Ġ15 18
Ġ15 27
Ġ15 45
Ġ15 87
Ġ15 99
Ġ15 91
Ġ15 81
à¼½ à¼Ħà¼ħà¼İ
Ġ13 44
Ġ13 11
Ġ13 93
Ġ13 21
Ġ13 65
Ġ13 98
Ġ13 39
Ġ13 893
Ġ13 43
Ġ13 01
Ġ13 463
Ġ18 32
Ġ18 15
Ġ18 35
Ġ17 97
Ġ17 66
Ġ17 22
Ġ17 95
Ġ17 63
Ġ17 68
Ġ17 300
Ġ30 10
Ġ30 15
Ġ30 80
Ġ30 31
Ġ30 39
Ġ30 62
Ġà½ĳà½ĺ à½Ħ
Ġ16 32
Ġ16 14
Ġ16 15
Ġ16 27
Ġ16 43
Ġ16 51
Ġ14 57
Ġ14 53
Ġ14 78
Ġ14 73
à¾Ģ à½²
97 7
Ġ25 28
Ġ25 45
Ġ25 64
Ġ25 84
à¼£ à¼¥à¼ł
à¼£ à¼§à¼ł
âĢĶ âĢľ
19 17
19 22
19 42
19 31
19 09
Ġ. )
Ġ24 17
Ġ24 35
Ġ24 99
Ġ24 84
Ġ24 71
à¼¢à¼ł à¼¢à¼¢
à¼¢à¼ł à¼¦à¼£
Ġ100 91
Ġ21 34
Ġ21 29
Ġ21 61
Ġ21 09
Ġ21 06
Ġ22 26
Ġ22 29
Ġ23 76
Ġ23 46
Ġ23 31
Ġ23 69
Ġ23 81
Ġ23 71
Ġ28 44
Ġ28 35
Ġ28 65
Ġ28 29
Ġ28 94
Ġ28 400
Ġ26 30
Ġ26 66
Ġ26 98
Ġ26 91
Ġ() ãĢĬ
à¼¤ à¼¢à¼ł
à¼¤ à¼¡à¼¥
à¼¤ à¼¢à¼£
à¼¤ à¼¥à¼ł
Ġ50 97
Ġ50 10
Ġ50 72
à¼© à¼¢à¼§
à¼© à¼¦à¼§
Ġ40 20
Ġ40 60
à¼¨ à¼¡à¼¢
à¼¨ à¼¢à¼£
Ġ31 50
Ġ31 69
Ġ27 58
Ġ27 44
Ġ27 88
Ġ27 23
Ġ27 38
Ġ27 55
Ġ27 204
à¼§ à¼¡à¼§
à¼§ à¼¥à¼¥
à¼§ à¼©à¼ł
à¼§ à¼©à¼§
Ġà½łà½Ĳ à½ĺ
à¼¦ à¼¢à¼¤
Ġà½Ļ à½Ģ
Ġ29 65
Ġ29 84
Ġ29 53
Ġ29 378
10 20
10 44
10 75
10 24
10 76
10 57
à½Ĭ à½Ģ
32 3
Ġà¼¼ à¼½
à¼¡à¼© à¼¡à¼ł
à¼¡à¼© à¼¡à¼¥
à¼¡à¼© à¼£à¼¨
à¼¡à¼© à¼¥à¼¢
à¼¡à¼© à¼łà¼¤
17 17
17 46
17 01
12 17
12 12
12 99
12 333
12 123
12 348
à½¾ à¼½
16 19
16 70
16 45
16 98
16 42
16 62
Ġ80 5
Ġ80 60
60 16
ĠâĢĶ ãĢĬ
ĠA C
ĠA K
ĠA c
ĠA PA
70 1
70 3
70 6
Ġ35 16
Ġ35 70
Ġ35 36
Ġ35 78
66 4
11 16
11 18
11 42
11 53
Ġ45 16
Ġ45 90
Ġ90 3
14 00
14 15
14 62
14 05
13 13
13 49
13 61
90 7
à¼¡à¼ł à¼¢à¼ł
à¼¡à¼ł à¼¢à¼¦
à¼¡à¼ł à¼£à¼¡
à¼¡à¼ł à¼¥à¼©
à¼¡à¼ł à¼§à¼£
15 00
15 44
15 92
15 54
Ġ32 10
Ġ32 15
Ġ32 26
à¾ľ à½±à½²
Ġ33 16
Ġ33 15
Ġ33 45
Ġ33 59
Ġ36 000
Ġ36 45
93 7
93 8
93 9366
ĠP S
ĠP BL
18 13
18 18
18 76
18 01
18 04
34 86
Ġ34 20
Ġ34 10
Ġ34 13
Ġ34 85
35 9
92 6
Ġ38 60
Ġ38 45
Ġ38 59
an do
ï¼ħ ãĢģ
à¾° à½´à¼ĭ
ĠâĢľâĢĿ ï¼Ī
76 2
Ġà½łà½Ĩ à½ł
ï¹ Ĵ
23 00
ĠC as
ĠC PI
80 5
Ġ195 00
Ġà¼¢ à¼¡à¼¥
Ġà¼¢ à¼¢à¼£
Ġà¼¢ à¼©à¼§
Ġà¼¢ à¼¦à¼¤
Ġà¼¢ à¼©à¼¨
Ġ37 88
Ġ37 40
Ġ37 99
65 2
Ġ55 61
Ġ39 000
Ġ39 50
Ġ39 60
Ġ39 80
29 9
ha gen
Ġ- ""
âĳ¡ âĳ£
Ġ150 3
Ġ150 8
Ġ46 20
Ġ46 76
Ġ46 42
45 5
36 3
Ġ48 000
Ġà¼¡à¼© à¼ł
Ġà¼¡à¼© à¼¡à¼¢
Ġà¼¡à¼© à¼¢à¼©
Ġà¼¡à¼© à¼¢à¼§
Ġà¼¡à¼© à¼¦à¼¥
Ġà¼¡à¼© à¼¥à¼¤
Ġà¼¡à¼© à¼¦à¼¨
Ġà¼¡à¼© à¼¤à¼¡
Ġà¼¡à¼© à¼¦à¼¦
Ġà¼¡à¼© à¼¥à¼¢
Ġ44 86
in i
in ia
ĠG o
ĠG PP
ĠG IL
ĠG mail
à¼ĭà¼½ à¼į
Ġp os
85 1
85 3
ĠâĴ ī
Â· )
86 25
à¼¡à¼¢ à¼¦
à¼¡à¼¢ à¼§à¼§
42 17
er ich
Ġ... âĢ¦
ĠT op
ĠT ool
Ġ42 60
Ġ42 77
ĠB as
ĠB elle
ĠB lack
Ġà¼¡ à¼¡à¼¦à¼¡
on d
on zale
Ġ41 50
69 1
Ġà¼£ à¼łà¼łà¼ł
Ġ097 0
Ġ097 2
Ġ097 9
ĠS a
ĠS im
ĠS YB
ĠS UV
39 4
Ġ54 98
55 3
55 7
55 55
Ġ58 89
à¼¡à¼¤ à¼£à¼¡
à¼¡à¼¤ à¼¥à¼¨
à¼¡à¼¤ à¼£à¼©
Ġ99 00
Ġ53 60
à¼¡à¼§ à¼¡à¼¤
à¼¡à¼§ à¼¥à¼¥
à¼¡à¼§ à¼©à¼ł
à¼¡à¼§ à¼¥à¼£
à¼¡à¼§ à¼¥à¼¢
à¼¡à¼§ à¼§à¼¤
ĠD D
ĠD R
ĠD oc
ĠD ZC
ĠD otson
à¼ĭà¼ĭà¼ĭà¼ĭ à¼ĭà¼ĭà¼ĭà¼ĭà¼ĭà¼ĭ
à¼¡à¼¦ à¼¦à¼¤
à¼¡à¼¦ à¼§à¼¦
à¼¡à¼¦ à¼¨à¼§
à¼¡à¼£ à¼¨
à¼¡à¼£ à¼¦à¼ł
à¼¡à¼£ à¼¤à¼ł
à¼¡à¼£ à¼¥à¼¨
à¼¡à¼£ à¼§à¼£
à¼¡à¼£ à¼©à¼¢
ï¼Ĳ ï¼Ĺ
à¼¡à¼¥ à¼§à¼§
ar ra
ar ch
Ġ68 12
05 6
05 26
05 47
Ġ160 8
à¼¡à¼¨ à¼¡à¼¤
à¼¡à¼¨ à¼©à¼¨
à¼¡à¼¨ à¼¨à¼¢
Ġà¼¤ à¼łà¼łà¼ł
la te
la ugh
ĠM B
ĠM D
ĠM ir
ĠM ark
57 8
sh ang
or as
Ġ130 7
Ġà¼¥ à¼¡
Ġà¼¥ à¼©
Ġà¼¥ à¼łà¼ł
Ġà¼¥ à¼¡à¼§
Ġ180 939366
Ġ64 14
Ġ77 000
Ġ77 58
Ġ77 82
ĠW e
Ġ83 98
Ġ76 000
Ġ87 3
Ġ87 9
à¾ļ à½±à½²
ĠâĢĿï¼Ī âĢľ
ĠK B
ĠK ey
ĠK ram
ĠK ant
ĠK FC
Ġà¼§ à¼©
Ġà¼¦ à¼¡
Ġà¼¦ à¼§
ĠE d
ĠE PC
ĠE ffects
à¼¢à¼¨ à¼©
à¼¢à¼¨ à¼łà¼ł
ĠL O
ĠL e
ĠL o
ĠL NG
ĠL ear
ĠL AMOST
ĠH in
ĠH ome
et h
et works
ĠN ation
PP O
ic ro
à¼¢à¼¥ à¼£
à¼¢à¼¥ à¼§
à¾ª à½²
ia b
____ ___
à¼¢à¼© à¼¦
ĠâĢ¦âĢ¦âĢĿ [
ra d
of f
do wn
Ġà¼¡à¼ł à¼©à¼¤
sa b
Ġà¼¨ à¼§
Ġà¼¨ à¼¢à¼¤
Ġ105 00
Ġ105 494
06 13
Ġs ystem
Ġ220 5
ĠF or
ĠF onts
à¼¢à¼¤ à¼¢
à¼¢à¼¤ à¼¦
ãĢĬãĢĭ ãĢĬ
al th
ro p
à¼¢à¼¦ à¼£
à¼¢à¼§ à¼¦
ch in
ch si
el ig
el ph
ĠîĢ ½
Ġïį ĩ
Ġïį į
Ġ115 00
Ġb y
Ġb is
à¼£à¼£ à¼¥
ĠR T
ĠR es
ĠR TS
ĠQ S
ï¼ĳï¼ Ķ
xi Å«
and ha
and on
and ra
ĠãĢģ ãĢģãĢģãĢģ
Ġ123 17
Ġ123 88
ï¼Ĵ ï¼ĺ
ï¼Ĵ ï¼ķ
Ġ125 00
Ġï¼Į âĢĿ
Ġï¼Į ï¼Įï¼ĮãĢĤ
ma s
Ġà¼¡à¼¢ à¼ł
ut ers
ĠV O
ĠV er
ĠV IP
ur face
ĠU SB
ĠU FO
il d
il y
il hel
à¾Ńà½¼ à¼Ķ
Ġ330 13
ĠJ a
ĠJ ames
un c
un e
âĴģ âĴĤ
um i
um an
um ia
Ġà¼¡à¼£ à¼ł
Ġà¼¡à¼£ à¼¥
Ġà¼¡à¼£ à¼¢à¼£
Ġà¼¡à¼£ à¼¤à¼©
Ġ219 2
re g
re en
Ġà¼¡à¼¦ à¼©à¼£
Ġà¼¡à¼§ à¼łà¼ł
Ġà¼¡à¼§ à¼£à¼¡
ï¼ĺ ï¼ĵ
Ġ380 90
ri k
as s
as px
à¾²à½±à½² à¼Ķ
Ġïĵ ĳ
Ġïĵ ĸ
ï¼Ļ ï¼ĵ
ï¼Ļ ï¼Ķ
Ġï¼ĵ ï¼Ķ
Ġ650 21
go u
ĠïĮ °
Ġ420 4
Ġ158 00
de m
ĠâĢľï¼Į âĢ¦âĢ¦
Ġ143 00
à¼£à¼§ à¼¥
ãī ĳ
ãī Ķ
ãī Ľ
à¼£à¼¤ à¼§
ge y
Ġ137 00
Ġ137 22
Ġ185 00
tib andha
ãģ ¡
ãģ Ĩ
ãģ ķ
Ġc u
ed a
ed ia
ed rich
Ġï¼ķ ï¼Ĳ
nd ÊĲ
os t
lo b
Çİ ng
Ġe bola
à¾ŀ à½´
Re uters
Ġw e
Ġ540 8
ce pt
ok ia
ck e
Ġ319 5
ji Ãłn
à½±à½´à¾ĥ à½¿
ros s
Ġm uSe
Ġm icro
Ġ184 50
ve y
Ġ235 00
Ġ366 6
ĠïĴ »
ĠïĴ ¿
ĠïĴ Ń
zh ÄĽ
Ġ475 4
ĠïĹ į
ĠïĹ ĳ
ĠïĹ ©ïĸĶ
188 3
ĠâĢľï¼Įï¼Į ï¼Įï¼ĮãĢĤ
Ãº n
Ãº jiÄģ
og raph
à¼§à¼¨ à¼¦
Ġãī Ķ
Ġãī ĸ
Ġãī Ĺ
Ġãī Ļ
ãĢģãĢģãĢģ ï¼ī
Ġf onts
ob i
Ġ232 60
ĠCh ina
ĠCh rome
se au
Ġï¼ĺ ï¼Ĳ
120 4
od el
117 0
Ġ344 5
ï¼Ł ï¼Ł
Ġv an
ab h
ab ul
ï¼Ĵï¼Ĳï¼ĳï¼ Ķ
ec t
Ġ820 34
ĠPh one
-------- --------
ou th
ï¼Įï¼Įï¼Įï¼Į ï¼ĮãĢĤ
Ġ342 44
tic s
Ġ528 5
Ġ546 7
ID S
av ali
ĠAAA AA
st an
vi ew
Ġ534 0
Ġ534 7
à¼¡à¼§à¼ł à¼£
ric k
à¾Ķà¾· à½¾à¼į
Ġ997 5
Ġ961 10
Ġ....... âĢĿ
ush an
zz a
à¾±à½» à¼į
ous seau
Ġ477 3
Ġ477 4
ĠMa ya
ĠâĢľâĢĿâĢľâĢĿâĢľâĢĿ âĢľâĢĿ
ita l
yu Ãłn
ïĵ Ł
ĠDe GeLe
Ar cha
ĠLi te
ca dem
Ġ596 5
Fran Ã§ois
Fran cke
Ge orge
Ġ\ /
à½łà½Ļ à½£
à¼¡à¼¡à¼¦ à¼§
ĠAn ti
xx xx
Ġ________________ __
ãĢį ï¼Ī
à¼¡à¼¡à¼ł à¼©
Cha vannes
GS M
cri pt
ij p
659 807
Ġ1535 64
ĠãĢĤâĢĿ (
à½¼à¼ĭà¼ĭà¼ĭà¼ĭ à¼ĭà¼į
tiÄģn wÃ¡ng
HI V
pro vince
Ġï¼³ ï¼
ĠABC D
Ġed ucation
ĠSam sung
ame sh
Br andon
CC TV
Word Press
Ġ(ãĢģãĢģ ãĢģ)
à¼Ħà¼ħà¼ħ à¼į
à¼Ħà¼ħà¼ħ à¼İ
ĠMon lam
ĠHar ris
Tibet ology
Mac ron
xÄ«n zhÃ²u
Ê¼ Ê¼
ĠKu ijp
Den wood
Joh an
ĠâĢĶâĢĶâĢĶ âĢĶâĢĶâĢĶ
ĠSA TA
raz er
Gilg it
Pa ul
ĠSH IFT
ĠScha ik
ĠUC SD
Mc laugh
Mos ul
Sou gou
lÃ¹ n
rof ess
Ġ(? -
Ġ7060 898
Ġ2870 659807
Ġ2952 3486
ĠPre mi
ĠDAR PA
ĠMyth s
omol hari
ouston Rocket
bhÄģ vapra
AQ I
Emmanuel Macron
Ham let
Power Point
Wal ter
ĠGolden StateWarriors
ĠBl ue
lig ht
uddh ist
Sva bhÄģvapra
Sent ence
Soc ial
yric s
Ġha ve
Ġ27204 58
onzale z
Ġ180939366 16
ĠLear ning
ilhel m
Ġebola virus
ĠmuSe um
ĠïĹ©ïĸĶ ïİ·
avali ers
Archa eology
Ġ29523486 21
oustonRocket s
SvabhÄģvapra tibandha
" à¼Ħ
% âĢĿ
% îĢī
( ãĢģãĢģãĢģ
) [
, ãĢĤâĢĿ
. %
. ãĢģãĢģ
. ãĢģãĢģãĢģãĢģ
/ ãĢĤâĢĿ
0 28
0 14
0 80
0 81
0 126
0 118
0 457
0 142
1 201
2 507
3 44
3 88
3 92
3 96
3 95
4 10
4 89
4 25
4 88
4 35
4 23
4 36
4 98
5 19
5 25
5 44
5 66
5 11
5 13
5 15
5 22
5 93
5 96
5 26
5 29
5 95
5 42
5 99
5 69
5 37
5 63
5 68
5 41
5 94
5 61
6 30
6 92
6 24
6 99
6 873
7 16
7 60
7 11
7 88
7 15
7 34
7 92
7 38
8 19
8 32
8 17
8 58
8 16
8 60
8 70
8 11
8 28
8 77
8 18
8 23
8 65
8 26
8 27
8 42
9 32
9 90
9 15
9 22
9 47
A G
A c
A h
A t
A ust
A IDS
B ul
B ER
B ox
B ron
B ira
C F
C G
C P
C S
C al
C ol
C om
C OM
C ult
C annes
C loud
C avaliers
D B
D H
D V
D c
D o
D y
D av
D ie
E G
E arth
F K
F ill
F Vf
G H
G ol
G ram
G erman
H a
H en
H ub
H ans
I R
I mm
J am
J omolhari
K h
K m
K ur
K at
K AI
K epler
L Z
L os
L ak
L ED
L CD
L HAASO
L umia
M H
M ore
N O
N ang
N ga
N ico
O n
P O
P ar
P en
P ol
P OS
P ay
P ico
R B
R X
R ock
R ome
R oman
S er
S al
S at
S kype
S ARS
S igmund
S gam
T u
T os
T ill
U N
V an
V ir
V SB
V eda
W HO
X B
X M
X T
X Z
X ON
Z en
] /
] ï¼Įï¼Į
b ro
b it
b ing
c d
c j
c er
c uis
c isco
d ia
d Êĳa
d ney
e Ï
e sh
e vs
e tain
f en
f li
f Ã¡n
f ab
f FVf
g d
g Ã¸
g ÉĽ
g ramm
h er
h ang
h is
h ol
h ot
h be
h Ã¡ng
i la
i en
i ËĢ
i use
j u
j an
j ik
k t
k et
k wa
k Ã¸
l Ç
l le
l Ã¸
m ar
m Ã¬
m ba
m Éª
m ore
n o
n or
n ew
n ell
n Çİo
n ÊĳÉ¯
o and
o und
p i
p ha
p or
p le
p Ê°
p É¤
p hu
p ub
q tJ
r Q
r f
r u
r en
r ist
s p
s ha
s et
s Éª
s Äĵng
t in
t ang
t ÉĽ
t ology
t est
t Dc
t VSB
u f
u la
u ck
v ar
v al
v Äģ
v id
v oc
w o
w er
w Ã¨
w jx
x os
x ford
y l
y ing
y ani
y Ä«n
y rc
y lie
y ÃºjiÄģ
z b
z y
z ar
z Ä«
z iËĢ
z tVSB
¤ ãģ
© ïķĳ
ª ¥
² ousseau
» ª
Ê ±
Ì »
Ï ģ
Ð ļ
Ñ Ģ
Ñ Ĥ
ê ª¥
ï Ĳ
ï Ĵ
ï »ª
Ġ u
Ġ à
Ġ à½´
Ġ à½²à¼ĭ
Ġ sh
Ġ ta
Ġ ht
Ġ ro
Ġ th
Ġ ya
Ġ go
Ġ à½ĥ
Ġ are
Ġ Ê¼Ê¼
Ġ êª¥
ī Î½
ĭ ãģ
Į ï½īï½
İ ïĸĳ
ı ãģķ
à½ ³
à¼ ¾
à¼ ¿
à¼ĭ à¼Įà¼İ
à¾ ĭ
à½¦ à½Ĩ
à½¦ à½ķ
à½¦ à½Ł
à½¦ à½łà½ķ
à½¦ à½ĸà½¤à½ĳ
à½¦ à½Ħà½ł
à½Ĥ à½ĸà½ŀ
à½Ĥ à½ĸà½¤à½ĳ
à½Ĥ à½ĸà½Ļ
à½Ĥ à½Ĳà½ĸà½¦
à½Ĥ à½Ĥà½¦à½£
à½Ĥ à½łà½Ĳà½ĸ
à½Ĥ à½ĺà½ĩ
à½Ĥ à½ĺà½Ħà½ł
à½Ĥ à½łà½Ĩà½ĺ
à½Ĥ à½ĺà½Ĩà½ĵ
à½Ĥ à½ķà½£
à½Ĥ à½¨à½ĵ
à½Ĥ à½łà½ĳà½ĺ
à½Ĥ à½Ĥà½¡à½¦
à½Ĥ à½łà½ĳà½ĸ
à½² à½ºà¼į
à½¼ à¾ĥ
à½¼ à¼ĳà¼į
à½ĳ à½ļ
à½ĳ à½¤
à½ĳ à½¡à½Ħ
à½ĳ à½ļà½ĳ
à½ĳ à½ĸà½ħà½¦
à½ĸ à½łà½ĩ
à½ĸ à½İ
à½Ħ à½ļ
à½Ħ à½Ĳ
à½Ħ à½ī
à½Ħ à½§
à½Ħ à½ĸà½ıà½Ħ
à½¢ à½łà½Ĥ
à½¢ à½ĳà½ĸ
à½¢ à½ĺà½ļ
à½¢ à½łà½Ĳ
à½¢ à½ĺà½ĳ
à½´ à½¼
à½´ à½º
à½´ à¼Įà¼İ
à½´ à¼·
à½´ à¾ĥà¼į
à½ĵ à½ļ
à½ĵ à½¤
à½ĵ à½ĺà½Ĳ
à½ĵ à½łà½ģ
à½ĵ à½ıà½Ħ
à½ĵ à½łà½ĩ
à¾± à¾±à½²
à¾± à¾Ńà½º
à½ł à½¤à½ł
à½²à¼ĭ à¼Ħà¼ħà¼İ
à½²à¼ĭ à¼ĭà¼ĭà¼ĭà¼ĭà¼ĭ
à½º à½ºà½ºà¼ĭ
à½£ à½ĵà½¦
à½£ à½ĸà½¢
à½£ à½łà½Ĥ
à½£ à½£à½¦
à½£ à½Ĥà½ŀ
à½£ à½Ĥà½ı
à½£ à½¨
à½£ à½Ĥà½ī
à½£ à½ģà½ĸ
à½£ à½§à½ĵ
à½ĺ à½Ķà½ł
à½ĺ à½Ł
à½ĺ à½Ģà½ĵ
à¾² à¾±
à¾² à¾°
à½Ķ à½ķ
à½Ķ à½ĵà½¦
à½Ķ à½Ķà½ł
à½Ķ à½Ł
à½Ķ à½£à½¦
à½Ķ à½Ļ
à½Ĥà½¦ à½Ĳ
à½¼à¼ĭ à¼ĭà¼ĭà¼ĭà¼ĭà¼ĭà¼ĭ
à¾Ĵ à½±à¼į
à¾Ĵ à¾·à½±à¼ĭ
à½¡ à½ı
à½¡ à½Ĥà½£
à½¡ à½Ĥà½¤
à½Ģ à½ĸà½¢
à½Ģ à½Ĭ
à½ļ à½ģ
à½ĳà½Ħ à½ģà½Ħ
à½ĳà½Ħ à½ĸà½ĳ
à½ĳà½Ħ à½ķà½ĵ
à½ºà¼ĭ à¼ĭà¼ĭ
à½ºà¼ĭ à¼ĭà¼ĭà¼ĭà¼ĭà¼ĭ
à¾Ł à¼į"
à¾Ł à½±à½´
à½Ħà½¦ à½ĳà½Ħ
à½ĵà½¦ à½£
à½ĵà½¦ à½ģ
à½ĵà½¦ à½£à½¦
à¾²à½´ à¼µ
à¾±à½º "
à¾±à½º à¼Ķ
à½ī à½ĳ
à¾²à½² à½¿
à¾²à½¼ à½²
à¾²à½¼ à½º
à¾±à½² à¼½
à¾±à½² à½¿
à½£à½¦ à½ĵ
à½£à½¦ à½¡
à½£à½¦ à½łà½ĸ
à½£à½¦ à½ĳà½ĸ
à½£à½¦ à½ļà½ĵ
à½ĳà½Ĥ à½ŀ
à½ĳà½Ĥ à½ı
à½ĳà½Ĥ à½ī
à½ĳà½Ĥ à½Ķà½¢
à¾¡ à¾²à½²à¼ĭ
à¾¡ à½¾
à¾¡ à¾Łà½´à¼ĭ
à½ĺà½¦ à½ĳà½Ħ
à½Ĥà½ŀ à½ĸ
à½ĸà½ł à½ł
à¾£ à¾²
à¾£ à½±à¼ĭ
à¾£ à½¾à¼ĭ
à½Ķà½¢ à½ĸ
à½Ķà½¢ à½£
à½Ķà½¢ à½łà½ĺ
à¾Ķ à¼į"
à¾Ķ à¾·à½²
à½łà½Ľ à½£
à½Ļ à½©
à½ĳà½ĸ à½Ļ
à½ĸà½ŀ à½ĸà½¦
à½¨ à½ı
à½¨ à½Ħà½¦
à½¨ à½§
à½¨ à½Ľ
âĢ ħ
à½Ĥà½ī à½¢à½ĳ
à½ĵà½Ħ à½ł
à½Ĥà½ħ à½Ħ
à½ĳà½Ķ à½ĵ
à½ĸà½Ł à½ĸà½¦
à½łà½ĩ à½ĸà½¦
à¾¨ à½¾
à¾¨ à½¾à¼ĭ
à½ģà½Ħ à½ĳà½ĸ
à¾Ļ à½ºà¼į
à¾Ļ à¾Ħ
à¾Ļ à¾·à½±à½º
à½ĸà½Ģ à½£à½¦
Ġà½Ĥ à½Ķ
Ġà½Ĥ à½ĵà½ĵ
à¾¦ à¾±à½´
à¾¦ à½ºà¼į
à¾¦ à½±
à¾¦ à¾·à½´à¼ĭ
à½Ķà½¦ à½¦
à½£à½ĺ à½īà½ĺ
Ġà½ĺ à½ĳà½Ĥ
Ġà½ĺ à½Ĩà½ĳ
Ġà½ĺ à½ĵà½ĺ
Ġà½ĺ à½ĳà½ĳ
à¾« à½´à¼į
à¾« à¾Ģà¼ĭ
à½£à½Ĥ à½Ģ
à½£à½Ĥ à½ĸà½¦
à½£à½Ĥ à½ķ
à½Ľ à½ĸ
à½Ľ à½łà½ĺ
Ġà½ģ à½İ
Ġà½ĸ à½Ĩ
Ġà½ĸ à½Ĩà½¦
Ġà½ĸ à½ıà½Ĥ
à¾Ĳà½¼ à¼İ
à½Ĥà½Ļ à½ĺ
Ġà½ŀ à½ĺ
ĠâĢĿ ""
à¾Ĵà½¼ à½²
à¾Ĵà½¼ à¼½
à½ģà½Ĥ à½ļ
à½ģà½Ĥ à½Ĥà½ŀ
à½ģà½Ĥ à½ĺà½ļ
à½ģà½Ĥ à½§
à½ģà½Ĥ à½ĵà½ĳ
à½ģà½Ĥ à½ĳà½ĸà½Ħ
ĠãĢ ı
ĠâĢľ .
ĠâĢľ @
ĠâĢľ ..
ĠâĢľ ï¼ĮãĢĤ
ĠâĢľ ////
ĠâĢľ ,,
ĠâĢľ ...
à½ĸà½¤à½ĳ à½Ģ
à¾Ĺà½º à¼½
à¾Ĺà½º à¼Ķ
à¾Ĳà¾± "
à¾Ĳà¾± à¾Ģ
à¾Ńà¼ĭ à¼ĭ
à½ĳà½Ģ à½Ħ
à¾Ĵà½¼à¼ĭ à¼ĭ
à½± à½¼à¼į
à½± à¾Ģ
à½Ĥà½Ħ à½¢
à½ĺà½ĳ à½ĵ
à½Ĳà½Ĥ à½Ĥ
à½Ĳà½Ĥ à½Ĳà½ĳ
à½Ĥà½Ł à½Ħ
Ġà½ļ à½¦
à½Ĥà½ĵ à½ĸ
à½Ŀ à½łà½ĺ
à½ĵà½ĵ à½ĵ
à½Ĥà½£ à½ĵ
à½ĺà½Ĩ à½ł
Ġà½ķ à½¡à½Ĥ
Ġ20 33
Ġ20 95
Ġ20 85
Ġ20 42
Ġ20 67
Ġ20 41
Ġ20 53
Ġ20 59
Ġà½Ĩ à½ĺà½¦
à½ĳà½¢ à½ĸ
à½łà½Ĩà½¢ à½łà½Ĥ
à¾¤à¾±à½² à½¼à¼ĭ
ï¼ §
ï¼ ¿
ï¼ ²ousseau
Ġà½Ħ à½ĳ
00 5
00 6
00 15
00 23
00 98
00 86
00 37
00 68
à½Ĥà½¤ à½ĵ
Ġ3 890
à½ĸà½Ĥ à½Ĥà½¦
Ġà½¨ à½¤
Ġà½¨ à½łà½¢
Ġà½łà½ĳ à½Ĥà½¦
Ġà½ĵ à½ĸà½¦
Ġà½ĵ à½ĺà½¦
à½ĸà½ĳà½Ĥ à½Ķ
à½ĸà½ĳà½Ĥ à½łà½ĸ
à½Ĥà½ıà½ĺ à½ŀ
à½ĸà½ŀà½Ĥ à½Ĩ
à½ĸà½ŀà½Ĥ à½ĳà½ĸ
à½ĸà½ŀà½Ĥ à½ķà½ĵ
à½Ĥà½¢ à½¦
Ġï¼ ¤ï¼
Ġ4 973
Ġ4 163
Ġ4 169
Ġ4 328
Ġ( (
Ġ( /
Ġ( Â·)
Ġ5 169
Ġ5 888
Ġ5 137
à¼ħ à¼į
à¾¤à¾± à¾Ģà¼ĭ
Ġà½ħ à½ĸ
à½ĵà½Ĥ à½ģ
Ġ6 263
Ġ6 936
Ġ7 27
Ġ7 269
à½ĸà½Ļà½ĵ à½Ķ
Ġ) )
Ġ) âĢĶ
Ġ) ......
20 24
à¾¡à½´à¼ĭ à¼ĭ
Ġà½ł à½Ķà½ĵ
Ġ8 295
Ġ8 105
Ġ8 463
Ġ8 371
Ġ8 236
Ġ"" ãĢģ
à½Ĩà½ł à½¢
Ġ9 19
Ġ9 10
Ġ9 200
Ġ9 23
Ġ9 87
Ġ9 879
Ġ10 58
Ġ10 77
Ġ10 94
à¾¦à¾± à¾Ģ
à¾¨à½² à½²
Ġï¼Ī ï¼ĮãĢĤï¼ī
Ġà½Ĥà½ī à½Ĥ
Ġï¼ī ]
Ġ12 97
Ġ12 58
Ġ12 22
Ġ12 29
Ġ12 63
Ġ12 329
Ġ12 51
Ġ11 16
Ġ11 66
Ġ11 34
Ġ11 26
Ġ11 86
à½ĺà½ĳà½ł à½ĺ
Ġà½Ĥà½ŀà½ĵ à½ŀ
à½ĳà½Ķà½ł à½¦
à½İ à½łà½ĺ
à¼¢ à¼¡à¼¢
à¼¢ à¼¡à¼¥
à½Ĩà½Ĥ à½ĸ
Ġ15 19
Ġ15 32
Ġ15 88
Ġ15 22
Ġ15 21
Ġ15 96
Ġ15 86
Ġ15 708
Ġ15 753
Ġ15 1404
à½§à½ł à½¦
Ġà½ı à½ĸ
Ġà½ı à½ĺà½¦
à½ĸà½ıà½Ĥà½¦ à½ŀ
à¼½ à¼İ
Ġà½ĺà½ĳ à½¦
à¼¼ à¼¼
Ġ13 17
Ġ13 25
Ġ13 13
Ġ13 27
Ġ13 36
Ġ13 69
Ġ13 55
Ġ13 83
Ġ13 53
Ġ13 52
Ġà½ĸà½Ģ à½Ħ
Ġà½ĸà½Ģ à½£à½¦
Ġ18 37
Ġà½ĸà½Ł à½ĳ
Ġ17 200
Ġ17 65
Ġ17 69
Ġ17 43
Ġ17 286
Ġà½ĩ à½Ħ
Ġ30 20
Ġ30 70
Ġ30 40
Ġ30 87
Ġ30 59
Ġ30 671
à¾·à½² à¼Ķ
à¾·à½² à½¿
à¾Ĳà¾±à½´ à½º
Ġà½łà½Ľ à½ł
Ġ16 12
Ġ16 33
Ġ16 11
Ġ16 77
Ġ16 92
Ġ16 24
Ġ16 26
Ġ16 98
Ġ16 95
Ġ16 31
Ġ16 05
Ġ16 61
Ġ16 91
Ġ14 15
Ġ14 22
Ġ14 65
Ġ14 87
Ġ14 31
Ġ14 37
Ġ14 52
Ġ14 79
Ġ14 100
ï¼ī "
ï¼ī ï¼ī
à½Ĳà½ł à½ĵ
97 8
97 00
97 46
à½Ĥà½ĺ à½£
Ġà½Ĥà½ĳ à½ĸà½¦
Ġà½ĸà½ŀ à½¢
Ġ25 12
Ġ25 58
Ġ25 44
Ġ25 23
Ġ25 40
Ġ25 65
Ġ25 69
Ġ25 83
Ġ25 71
Ġ25 06
âĢĿ )
âĢĶ ï¼ī
19 24
19 48
Ġ. "
Ġ. .
Ġ24 20
Ġ24 58
Ġ24 70
Ġ24 11
Ġ24 77
Ġ24 15
Ġ24 24
Ġ24 96
Ġ24 23
Ġ24 98
Ġ24 47
Ġ24 69
Ġ24 37
Ġ24 67
Ġ24 43
Ġ24 57
Ġ24 01
Ġ24 07
Ġ24 78
à¼¢à¼ł à¼¡
à¼¢à¼ł à¼¢
à¼¢à¼ł à¼¨
à¼¢à¼ł à¼¢à¼¥
à¼¢à¼ł à¼¢à¼£
Ġ21 44
Ġ21 76
Ġ21 41
Ġ21 81
Ġ21 07
Ġ21 72
Ġ70 17
Ġ22 30
Ġ22 70
Ġ22 22
Ġ22 93
Ġ22 35
Ġ22 40
Ġ22 38
Ġ22 82
Ġ22 47
Ġ22 67
Ġ22 41
Ġ22 53
Ġ23 10
Ġ23 89
Ġ23 11
Ġ23 90
Ġ23 35
Ġ23 24
Ġ23 40
Ġ23 37
Ġ23 976
Ġ23 74
Ġ23 91
Ġ23 79
Ġ23 975
Ġ28 60
Ġ28 98
Ġ28 07
Ġ28 09
Ġ26 50
Ġ26 90
Ġ26 40
Ġ26 36
Ġ26 95
Ġ26 49
Ġ26 37
Ġ26 62
Ġ26 83
Ġ26 56
Ġ26 02
à½ĸà½Ļà½£ à½ĳ
à¼¥ à¼¡à¼łà¼ł
à¼¤ à¼¢à¼¨
Ġ50 20
Ġ50 16
Ġ50 92
Ġ50 46
Ġ50 49
Ġ50 39
Ġ50 84
Ġ50 51
à¼© à¼¤à¼¥
à¼© à¼¦à¼¡
Ġ40 33
Ġ40 14
Ġ40 171
à¼¨ à¼¨à¼¡
Ġ31 60
Ġ31 33
Ġ31 26
Ġ31 36
Ġ31 82
Ġ31 81
Ġ31 52
Ġ27 10
Ġ27 34
Ġ27 65
Ġ27 82
Ġ27 02
à¼§ à¼¡à¼¦
à¼§ à¼¢à¼§
à¼§ à¼¥à¼ł
à¼§ à¼£à¼¦
à¼§ à¼£à¼©
à¼§ à¼¦à¼¢
à¼Ķ à¼Ķ
à¼¦ à¼¡à¼©
à¼¦ à¼¥à¼ł
à¼¦ à¼¦à¼¢
Ġà½Ļ à½¢
Ġà½Ļ à½İ
à½ĺà½£ à½¡
à½¨à½ł à½ĵ
Ġ29 30
Ġ29 92
Ġ29 24
Ġ29 40
Ġ29 29
Ġ29 95
Ġ29 59
Ġ60 60
Ġ60 18
Ġ60 76
10 12
10 27
10 78
Ġ0 509
à¾Ĵà¾²à½º à¼į
ãĢģ ãĢģï¼ļ
ãĢģ ãĢĤ
ãĢģ ãĢĬãĢĭ
à½Į à½ĺ
à¼¡à¼© à¼¡
à¼¡à¼© à¼¢
à¼¡à¼© à¼łà¼ł
à¼¡à¼© à¼¡à¼¡
à¼¡à¼© à¼¡à¼¦
à¼¡à¼© à¼¢à¼£
à¼¡à¼© à¼§à¼ł
à¼¡à¼© à¼¤à¼¦
à¼¡à¼© à¼¤à¼¥
à¼¡à¼© à¼¤à¼¤
à¼¡à¼© à¼¤à¼¨
à¼¡à¼© à¼¤à¼£
17 15
17 93
17 92
17 86
17 57
17 83
17 59
17 71
12 97
12 58
12 11
12 13
12 23
12 80
12 26
12 63
12 64
12 78
16 88
16 35
16 53
16 78
16 08
Ġ80 10
60 17
ĠâĢĺ âĢĺ
Ġ2000 00
à½ĸà½ĵ à½ĸà½¦
Ġ300 7
ĠA M
ĠA v
ĠA ir
ĠA ug
ĠA lex
ĠA my
ĠA MD
ĠA Sgam
ĠA XON
Ġï¼Īï¼ī âĢľ
75 4
Ġ35 17
Ġ35 18
Ġ35 42
Ġ35 71
66 67
11 14
11 13
11 39
88 5
88 02
Ġ/ ////
Ġ45 20
Ġ45 50
Ġ45 75
Ġ90 5
14 51
14 286
ï¼ļ ãĢĬãĢĭ
13 80
13 46
13 98
13 42
13 83
90 5
90 6
90 8
à¼¡à¼ł à¼¡à¼£
à¼¡à¼ł à¼¤à¼ł
à¼¡à¼ł à¼¤à¼¢
15 10
Ġ32 19
Ġ32 70
Ġ32 21
à¾ľ à½²à¼į
Ġ33 10
Ġ33 50
Ġ33 40
Ġ33 87
Ġ33 99
Ġ33 71
Ġ36 20
Ġ36 75
Ġ36 76
Ġ36 96
Ġ36 29
Ġ36 78
Ġ36 72
ĠP H
ĠP e
ĠP ar
ĠP el
ĠP ad
ĠP SL
ĠP elliot
ĠP estalozzi
18 58
18 24
18 65
18 31
18 57
18 59
âĢĶâĢĶ âĢĵ
34 32
Ġ34 70
Ġ34 80
Ġ34 63
Ġ34 54
92 7
Ġ38 08
Ġ38 09
an zan
à½ĺà½ĵà½¢ à½ĳ
à¾° à½º
ĠâĢ¦âĢ¦ "
ĠâĢ¦âĢ¦ ãĢĭ
76 4
76 9
76 57
ï¼Į )
ï¼Į ï¼Ľ
Ġ177 9
Ġ400 8
96 9
96 110
ĠC K
ĠC Z
ĠC an
ĠC AA
ĠC our
ãĢģï¼ļ ï¼Ī
80 8
80 9
80 13
à½» à½º
à½» à¼į
à½» à½ºà½ºà¼ĭ
Ġ65 76
co s
Ġà¼¢ à¼¡à¼¤
Ġà¼¢ à¼¦à¼ł
Ġà¼¢ à¼¡à¼łà¼ł
Ġà¼¢ à¼¥à¼¥
Ġ37 97
Ġ37 11
40 4
40 26
65 5
65 6
Ġ55 60
Ġ55 70
Ġ95 19
Ġ95 67
Ġ43 18
27 36
Ġ39 30
Ġ39 10
"âĢĭ ãĢĬ
Ġ75 46
Ġ75 56
ha k
ha tsa
âĳ¡ âĳ¥
46 1
Ġ150 4
Ġ150 5
ãĢĲ ãĢĳ
ĠâĢ¢ )
Ġ197 35
Ġ46 25
Ġ46 24
Ġ46 45
Ġ48 29
Ġ48 524
Ġà¼¡à¼© à¼¢
Ġà¼¡à¼© à¼¤à¼©
Ġà¼¡à¼© à¼£à¼¦
Ġà¼¡à¼© à¼¦à¼©
Ġà¼¡à¼© à¼¥à¼§
Ġà¼¡à¼© à¼¤à¼¨
Ġà¼¡à¼© à¼¦à¼¢
Ġà¼¡à¼© à¼¤à¼£
Ġ56 90
Ġ56 15
Ġ56 93
Ġ44 25
Ġ44 11
Ġ44 162
Ġ44 653
Ġ47 17
Ġ47 58
Ġ47 90
Ġ47 22
Ġ47 83
in ab
in rich
in cent
95 3
95 5
38 1
38 00
ĠG it
ĠG IS
ĠG raz
ĠG NSS
ĠG noli
82 10
Ġp la
Ġp of
Ġp el
Ġp av
Ġp ython
85 2
à¼¡à¼¢ à¼¡à¼¦
à¼¡à¼¢ à¼¦à¼ł
à¼¡à¼¢ à¼¨à¼ł
à¼¡à¼¢ à¼¦à¼¤
à¼¡à¼¢ à¼¥à¼£
à¼¡à¼¢ à¼§à¼¦
à¼¡à¼¢ à¼§à¼¢
er i
87 22
ĠT ha
ĠT am
ĠT az
ĠT otem
ĠT witter
ĠT IB
ĠT ensorFlow
Ġ42 12
Ġ42 16
Ġ42 50
Ġ42 70
Ġ42 88
ĠB e
ĠB MW
on ius
Ġà¼£ à¼¡à¼¦à¼ł
ĠS O
ĠS P
ĠS y
ĠS ta
ĠS TE
ĠS PA
ĠS IM
ĠS mith
ĠS igmund
à½±à½² à½¾
Ġ57 44
Ġ57 95
Ġ54 50
Ġ54 21
Ġ54 31
Ġ155 9
55 39
67 2
Ġ58 49
Ġ110 7
Ġ85 000
Ġ98 35
à¼¡à¼¤ à¼©
à¼¡à¼¤ à¼¡à¼ł
à¼¡à¼¤ à¼¢à¼¢
à¼¡à¼¤ à¼£à¼¤
à¼¡à¼¤ à¼¥à¼©
à¼¡à¼¤ à¼©à¼©
à¼¡à¼¤ à¼¨à¼¥
ãĢĳ ãĢĬ
68 12
68 34
Ġ52 76
Ġ99 60
Ġ53 30
Ġ53 88
Ġ53 76
Ġ53 65
Ġ53 98
à¼¡à¼§ à¼¢
à¼¡à¼§ à¼¤
à¼¡à¼§ à¼¨
à¼¡à¼§ à¼¡à¼§
à¼¡à¼§ à¼¡à¼£
à¼¡à¼§ à¼¥à¼ł
à¼¡à¼§ à¼£à¼¤
à¼¡à¼§ à¼¥à¼¤
à¼¡à¼§ à¼¤à¼¦
à¼¡à¼§ à¼¤à¼§
à¼¡à¼§ à¼¨à¼¥
64 3
ĠD i
ĠD u
ĠD er
ĠD en
ĠD am
ĠD ay
ĠD ig
ĠD AM
ĠD OC
ĠD ire
ĠD yn
ĠD ewey
à¼¡à¼¦ à¼£
à¼¡à¼¦ à¼©
à¼¡à¼¦ à¼¦
à¼¡à¼¦ à¼¡à¼©
à¼¡à¼¦ à¼¨à¼ł
à¼¡à¼¦ à¼¦à¼¨
à¼¡à¼¦ à¼£à¼©
à¼¡à¼¦ à¼¤à¼¨
à¼¡à¼¦ à¼¥à¼£
à¼¡à¼¦ à¼¨à¼¨
à¼¡à¼¦ à¼¨à¼£
à¼¡à¼£ à¼¥à¼ł
à¼¡à¼£ à¼¥à¼©
à¼¡à¼£ à¼¦à¼£
à¼¡à¼£ à¼¥à¼¢
à¼¡à¼£ à¼¨à¼¡
Ġ1860 9746
à¼¡à¼¥ à¼©
à¼¡à¼¥ à¼¦à¼ł
à¼¡à¼¥ à¼¦à¼¥
Ġ66 000
Ġ66 21
ĠI E
ar ta
ar har
Ġ68 44
05 22
Ġ160 1
Ġ160 2
Ġ160 7
Ġ160 67
Ġ67 000
à¼¡à¼¨ à¼¡à¼£
à¼¡à¼¨ à¼¥à¼©
à¼¡à¼¨ à¼¦à¼¢
à¼¡à¼¨ à¼©à¼¡
à¼¡à¼¨ à¼¨à¼¤
ti an
ti ma
Ġà¼¤ à¼¢à¼¡
Ġà¼¤ à¼¢à¼¢
Ġ62 44
la sa
la tion
ĠM T
ĠM e
ĠM at
ĠM ess
ĠM IL
ĠM IT
ĠM ini
57 1
57 4
Ġ72 000
Ġ72 90
sh M
sh ri
sh Ã©n
01 19
Ġ130 2
Ġ81 0000
le n
le gram
en ius
en ner
Ġ180 2
Ġ180 97
Ġ77 36
Ġ140 3
ĠW at
ĠW ine
ĠW ill
ĠW atch
ĠW ilhelm
ĠW ylie
à¼£à¼ł à¼¡
à¼£à¼ł à¼¡à¼¦
Ġ71 10
Ġn s
Ġ82 000
Ġ82 12
Ġ88 33
Ġ88 40
ãĢĤ ï¼ī
ãĢĤ ï¼ĮãĢĤ
à¾ĥ à¼½
51 00
51 1799
Ġ76 50
à¾ļ à½¼à½¾à¼ĭ
Ġ61 88
ï¼Įï¼Į ï¼ī
ĠâĢĿï¼Ī âĢľâĢĿï¼ī
ĠK id
ĠK und
ĠK han
Ġà¼§ à¼¡
Ġà¼§ à¼¨à¼§
Ġà¼¦ à¼¤à¼¡
Ġà¼¦ à¼©à¼¤
ĠE C
ĠE r
ĠE OT
ĠE pic
ĠE RX
âĳ© âĳ¾
ĠL am
ĠL ac
ĠL uc
ĠL eg
ĠL yrics
ĠL hot
ĠH U
ĠH us
ĠH and
ĠH istory
et ra
ĠN a
ĠN am
ĠN TV
ĠN orbu
ic an
ãĢģãĢģ )
à¼¢à¼© à¼¡
à¼¢à¼© à¼¨à¼ł
à¼¢à¼© à¼¦à¼¢
ra g
ra k
ra q
of fice
Ġà¼¡à¼ł à¼§à¼¨
à¾µ à½´
à¾µ à½²à¼į
à¾µ à¾Ģà¼ĭ
à¾µ à½±à½¿
sa t
te ph
te xt
Ġà¼¢à¼ł à¼¢à¼¨
Ġà¼¢à¼ł à¼¢à¼¥
Ġà¼¢à¼ł à¼£à¼¥
Ġà¼¨ à¼¢
Ġà¼¨ à¼¦
Ġ900 00
Ġs on
Ġs ome
Ġ220 9
ĠF i
ĠF ro
ĠF il
à¼¢à¼¤ à¼¥
à¼¢à¼¤ à¼¨
ang hu
is anghu
à½ºà½º à½ºà½ºà¼ĭ
à½ºà½º à½ºà½º
ro u
ro und
à¼¢à¼£ à¼¢
à¼¢à¼£ à¼©
à¼¢à¼§ à¼£
à¼¢à¼§ à¼§
à¼¢à¼§ à¼łà¼ł
ch Ã¹
ch uÃ¡n
Ġ"""" ""
Äģ i
Ġï¼Ĵ ï¼ķ
Ġï¼Ĵ ï¼ĸ
Ġï¼Ĵ ï¼ĳï¼ĸ
el d
ian e
à½½ à½¾
ĠîĢ Ģ
th n
th rop
ya yani
Ġà¼© à¼¤
à½¼à¼½ à¼ĭ
à½¼à¼½ à¼į
Ġïį ¥
à¼¥à¼ł à¼©
Ġb a
Ġb and
Ġb all
à¼£à¼£ à¼¡
à¼£à¼£ à¼¤
à¼£à¼£ à¼łà¼ł
ĠR NP
ĠR epub
ĠQ u
ï¼ĳï¼ ĵ
http s
xi ang
xi Ã©
and a
and y
and anzan
à¼Ī à¼į
ol d
ol k
Ġ123 77
âĳ¿ âĴĢ
âĳ¿ âĴģ
à¼§à¼ł à¼¤
ib le
ï¼Ĵ ï¼Ļ
it v
it le
Ġï¼Į ï¼Ľ
Ġï¼Į ï¼ļâĢľ
ma d
ma tical
ĠO K
ĠO r
ur en
ur ie
Ġ116 33
Ìĥ ]
Ġ117 00
Ġ117 87
ĠU l
ĠU n
ĠU nd
Ġ127 00
ĠãĢĪ ãĢī
Ġ330 7
Ġ118 0000
shi p
ĠJ ok
ĠJ ess
ĠJ our
Ph rase
pp e
pp o
un i
Ã¬ ng
Ġà¼¡à¼¤ à¼¨
Ġà¼¡à¼¤ à¼¤à¼©
um b
à¼¡à¼©à¼§ à¼¡
Ġïķ °
Ġïķ ı
Ġà¼¡à¼£ à¼¦à¼ł
Ġà¼¡à¼£ à¼¥à¼§
Ġà¼¡à¼£ à¼¨à¼¥
Ġ219 3
à¼£à¼¥ à¼¨
am p
Ġà¼¡à¼¦ à¼¡à¼¦
Ġà¼¡à¼§ à¼£à¼£
Ġà¼¡à¼§ à¼¢à¼¡
âĢĻ ï¼Ī
Ġ156 00
ï¼ĺ ï¼ķ
ï¼ĺ ï¼ĸ
Ġ138 97
âĴĤ âĴĥâĴĦâĴħ
ri d
ï¼ķ ï¼ķ
Ġ122 28
Ġ152 92
ing uis
Ġt o
Ġ145 00
Ġïĵ ģ
Ġïĵ Ĥ
ï¼Ļ ï¼ĸ
Ġï¼ĵ ï¼ĳ
Ġï¼ĵ ï¼ĳï¼ĺ
Ġà¼¡à¼¨ à¼ł
Ġà¼¡à¼¨ à¼©à¼©
Ġ{ {
Ġ124 25
Ġ113 00
à¼¦à¼¥ à¼¦
Ġ420 3
ĠãĢķ ãĢĭ
ĠãĢķ ãĢĶ
à½±à½¼ à½¾à¼į
à¼¤à¼© à¼¤
ter ial
Ġ136 00
à¼£à¼§ à¼¡
Ġïĸ Ģ
ãī ĸ
ãī ĺ
ãī ľ
ï¼Ĺ ï¼ĵï¼Ĺ
à¼£à¼¦ à¼¤
à¼£à¼¦ à¼¨
ge en
ot es
ot lin
at es
Ġ215 00
Ġ215 90
ãģ ĭãģ
Ġ162 16
à¼©à¼ł à¼¢
Ġï¼Ķ ï¼Ķ
wa y
Ġ430 4
à¼¦à¼¨ à¼¢
à¼¦à¼¨ à¼©
li Ã¡ng
Ġc s
Ġc aco
Ġï¼ķ ï¼ĺ
Ġï¼ķ ï¼ĵ
Ġï¼ķ ï¼Ĺ
nd É¯
nd ÊĲÉ¯
Éķ ÉĻ
ï¼Ķ ï¼Ĳ
pa k
ï½ Ĵ
os e
Ê¨ e
à¼¤à¼¥ à¼łà¼ł
Ġe xos
Re hbe
ÊĲ e
ÊĲ Ã¸
Ġï¼ĸ ï¼Ĳï¼Ĳ
158 29
Ġw orld
Ġw hatsa
Ġ205 46
Ġ540 7
ï¼į ï¼į
Ġ319 2
Ġ319 01
Ġ179 00
à¼¦à¼¤ à¼£
Ġà¼ł à¼¥
Ġà¼ł à¼¤
Ġ182 9717
Ġïİ °
119 5
ir st
mm Hg
gu Äģng
Ġm p
Ġm on
Ġm obi
Ġm Ah
Ġ520 6
ve I
ve More
Ġ} }
Ġk otlin
Ġl H
Ġ00 1
Ġ00 17
ĠïĴ ¦
ĠïĴ Ĥ
zh Ãłng
ts an
ĠïĹ ı
188 0
188 1
ĠâĢľï¼Įï¼Į ãĢĤ
ĠâĢľï¼Įï¼Į ï¼Įï¼Į
ĠâĢľï¼Įï¼Į ï¼Įï¼ĮâĢĿ
Äĵ i
fic ien
im phu
Ã³ ÏĦ
à¾¶ à¼į
Ġ388 7
Ġ458 0
Ġ458 86
à¾ł à½²à¼ĭ
Ġ268 46
ig ht
Ġãī ĳ
Ġãī ĺ
Ġ332 3
Ġï¼Ĵï¼Ĳï¼ĳï¼ Ĵ
Ġï¼Ĵï¼Ĳï¼ĳï¼ ĺ
ï¼ĳï¼Ļ ï¼ĸ
Ġ232 30
150 7
ran ian
à¾²à½± à½¾
Ġ628 5
se vo
tÊĤ É¯
tÊĤ É¤
Ġ376 5
Ġï¼İ ï¼Ī
Ġï¼ĺ ï¼Ļ
od es
Ġ328 0
à¾°à½´ à½¾
Ġd ra
Ġ620 9
ist ot
Tib etain
Ġ?? ?
Ġ?? ??
Ġ525 4
112 8
AM S
ine Le
ï¼Ł âĢĿ
uc asus
Ġv on
Ġv iv
Ġ433 4
Ġ433 5
Ġ433 7
Ġ433 8
ab le
ab ri
ock hol
Ġ415 6
ï¼Ĵï¼Ĳï¼ĳï¼ ĺ
189 9
man n
ton io
ãĬ ²
à½Ĵ à½¢
Èµ i
Èµ Éª
ĠCC U
Ġï¼ĳï¼Ĵ ï¼Ĳï¼Ĳ
ou ch
qu o
ry ant
Ġ412 7
Ġ.... âĢĿ
tr is
Ê¦ É¯
Ê¦ Ã¸
à¤ £
à¤ ®
à¤ ħ
ĠÎ ±
ĠÎ ³
Ġ333 4
ï¼Įï¼Įï¼Įï¼Į ãĢĤ
CN BC
Ġ496 2
Ġ763 12
ĠIP v
Ġïĵĵ ïį½
Êĳ É¤
Ġï¼Ł ï¼ī
Ġ422 1
Ġ422 4
ĠïĶ ¾
ïĳ ĭ
ïĳ Į
Ġï¼Ĺ ï¼Ĳ
Ġ426 38
ĠSh ina
Ġ575 3
Ġ766 2
Ġ832 4
143 50
OC R
vi i
ãĤ ĵ
ãĤ ıãģķ
Ġ432 5
Ġ512 8
Ġ534 6
à¼¡à¼¤à¼ł à¼¢
à¼¡à¼§à¼ł à¼§
In ternational
az u
Ġï¼Ĵï¼Ĳ ï¼Ĵï¼Ĳ
ĠRe ader
Ma h
Mar ie
Mar ineLe
ph one
tu al
ïį Ī
Ġ529 1
Ġg rammar
Ġg ener
à¾Ķà¾· à½±
Ġ638 5
Ġ644 0
Ġ996 4
Ġ1044 3
1038 0017
à¼¡à¼¦à¼ł à¼¨
Åĭ e
âĢ² -
Ġ648 4
//////// //////
ous uf
Ġ588 2
Ġ617 8
ĠMa x
IC H
Ġ429 8
Ġ775 2
ndro me
à¾¦à¾· à¾²
Ġ828 5
ĠPC R
ÉķÊ° Éª
dÃ¬ ng
à¼¡à¼©à¼ł à¼¨
Ġ399 89
ĠDe ath
ire fox
Ê¥ É¤
Ê¥ Ã¸
Ġch rome
Ġch isanghu
à¾¼ à¼į
Ġ788 4
Ġ809 583
Ge org
âĳ¦âĳ§ âĳ¨âĳ©
ear ch
jÃ¬ n
anu ary
ï¼Įï¼ĮãĢĤ ï¼ī
216 6667
ue Type
xz edu
xz itv
Ê£ Éª
Ġgu shri
Ġ466 1
Ġ786 7
Ġ1185 1
Ġ1855 647
ĠAr ias
Cha racter
XX XX
ij amts
kÊ° o
kÊ° u
kÊ° Ã¸
oma s
tÊ° o
tÊ° É¯
à¾» à½´
Ġ865 7
ani el
1582 77
680 1
845 7657
Te xt
Ver d
âħ ¢
à¾·à¾Ń à½¾à¼ĭ
ĠâĢľãĢģ ãĢĤ
Ġ1244 8
dh en
Ġ697 7
757 19
à½±à½´à½¾ à½¿
Ġï¼Ĵï¼Ĳï¼Ĳ ï¼Ĳ
App le
Pro tag
Ġ(ãĢģãĢģãĢģãĢģ )
Ġ968 335
Ġï» ¿
onal do
ĠMar vel
ĠEx cel
ï½ģï½ Įï½īï½
** **
Alex is
HK U
Pla yer
É¡ É¯
Ġed ge
Ġ948 4
Ġ1195 3
ĠST LS
ãģ® ãģ¨
Ca ucasus
Da ily
ES G
Ex cel
Har ald
Mad hya
New mark
Sa veMore
men ted
ï¼Ń ï½ģï½Įï½īï½
Ġ1495 9
Ġst ud
097 1
Cas e
Ed ucation
aco t
br enner
bÇİ o
lu Ã³
à¥ į
Ġq ayan
Ġun it
âĢĮ âĢĮ
Ġ///////// //////////////
ĠPower Point
ĠPower Daily
ano va
ĠCI GS
855 31
âĳ¢âĳ£âĳ¤ âĳ¥
ĠMan on
Ġ13997 1913
Ġ13997 2736
ultu ral
ãģĦ ãģ
ãģĦ ãĤıãģķ
ÂŃÂŃ ÂŃÂŃ
ĠLuvs andanzan
Gar cia
Jacques ï¼²ousseau
pic t
we i
ïĶ Ĭ
à¾Łà½± à¾²à½²à¼ĭ
Ġà½Ķà½Ļ à½ı
ance y
ĠSC H
ĠHa as
crip tions
Fri edrich
MV A
No un
TD EL
dÊĲ o
kit chen
Ġà¤ ª
ĠHe inrich
tibe tit
ï¼ĳï¼Ļï¼Ļ ï¼Ĺ
DQ z
Ko be
Mil an
ft XB
rit ti
ĠâĢľ() âĢĿ
Ġ1132 57
1860 9789893
ĠCent ury
hal kha
Ġph otoshop
ĠTF T
ĠBon po
Ġà¼¡à¼¡à¼¤ à¼§
ĠIF S
iction ary
ĠJe etu
ĠZa ya
rig in
ãģį ãģ¡
ĠCho i
6329 307
Hor ati
Sar had
Ã¼ ber
É¬ a
Îł Î»
Ð¾ Ð
Ġdo c
ĠâĢľï¼Ł ï¼Į
Ġï¼Ń ï¼³
Ġ(âĢľâĢĿ )
âĢľãĢģ âĢĿ
has ki
ĠTr ueType
ĠInd ian
ĠMicha ud
shÃłng shÄ«
Ġsur round
urus haski
Ġcult us
Ġcultu ra
Ġï¼ĮãĢĤï¼ĮãĢĤ ï¼Īï¼ī
Amer ican
leveland Cavaliers
Aug mented
Cent ral
CHI NA
Ram ble
TY PE
hit o
nb É¯
put ra
Ã± j
Ġte chnology
Ġge geen
ĠAK A
ando la
ĠCas e
ĠTool kit
ĠBelle zza
ĠBlack Box
ĠDoc ument
ĠMir andola
ĠKey board
ĠHin Ã¼ber
ĠRes ource
ĠVO l
unc tion
edia te
lob al
abh id
abul ary
cadem ic
Mclaugh lin
ĠïĹ©ïĸĶïİ· ïĸĳ
2507 1510
Bron fen
CF P
Com enius
Gram matical
German y
Imm ediate
Kat yayani
Lak ers
Nang arhar
Till erson
Vir tual
cuis ine
eÏ īÎ½
evs ky
fÃ¡n nÇİo
gramm ing
iuse ppe
lÇ ľ
ound ation
vid yÄģ
voc abulary
zÄ« liÃ¡ng
ztVSB ftXB
¤ãģ Ĳ
Ġht ÉķÉĻ
Ġ""ãĢģ ""
ĠAug ust
ĠASgam ma
ĠCAA U
ĠGit Hub
ĠTam chen
ĠDam d
ĠDAM PE
ĠDire ct
ĠKund era
ĠLac an
ĠLeg dhen
ĠLhot rak
ĠHus sa
ĠFro bel
Ġband ida
Ġï¼Įï¼ļâĢľ ãĢĤâĢĿ
ĠJess ica
âĴĤâĴĥâĴĦâĴħ âĴĨâĴĩ
ãģĭãģ ¤ãģĲ
Ġexos ystem
Rehbe in
Ġwhatsa pp
Ġ1829717 6834
ficien cy
Ã³ÏĦ eÏīÎ½
sevo ort
Ġviv o
MarineLe Pen
Ġchisanghu a
Protag oras
Ġ968335 13
ï¼Ńï½ģï½Įï½īï½ ĭ
Ġ139971913 00
Ġ139972736 15
ãģĦãĤıãģķ ãģįãģ¡
tibetit w
ÎłÎ» Ã³ÏĦeÏīÎ½
Ġsurround ings
Bronfen brenner
ĠhtÉķÉĻ t
ãģĦãĤıãģķãģįãģ¡ ãģĭãģ¤ãģĲ
! âĢĻ
" ï¼Ī
% âĢľ
) )
) ãĢģ
) ï¼ļ
) ãĢĬãĢĭ
) ()
) Â»
- (
- /
- )âĢĿ
. (
. ""
/ "
0 19
0 93
0 76
0 40
0 82
0 48
0 69
0 37
0 63
0 62
0 74
0 91
0 168
0 106
0 143
0 131
0 159
0 151
0 964
1 179
1 336
2 666
2 127
3 98
3 102
4 321
4 261
5 464
6 19
6 25
6 44
6 77
6 90
6 93
6 18
6 34
6 35
6 21
6 96
6 23
6 40
6 29
6 42
6 48
6 39
6 41
6 322
6 139
7 32
7 89
7 75
7 66
7 90
7 22
7 93
7 35
7 23
7 82
7 86
7 87
7 41
7 81
8 000
8 12
8 89
8 44
8 75
8 13
8 35
8 21
8 47
8 222
9 30
9 10
9 17
9 14
9 40
9 95
9 41
: ,
A O
A b
A k
A v
A TM
A ff
A las
B G
B O
B T
B a
B on
B ar
B ol
B ib
B ur
B un
B yn
B ZJ
B ryant
B acot
C V
C Z
C l
C er
C or
C ity
C LA
C SS
D S
D an
D es
D ol
D NA
D OC
D ury
D ewey
E F
E m
E li
E TE
E bola
F la
F il
F ID
F ort
F razer
F unction
F AO
G A
G I
G o
G ER
G ood
G ene
G ett
G olden
G onzalez
G abri
G iuseppe
H er
H um
H AN
H istory
H els
H avel
I Y
I r
I raq
J orge
J IA
J ames
K E
K Y
K n
K im
K ou
K han
K ara
K ushan
L C
L P
L o
L uc
L TE
M n
M in
M er
M on
M es
M ed
M ay
M ag
N H
N L
N a
N al
N ya
N go
N BA
N ish
N ath
N uri
N arra
N okia
O t
O ld
O xford
P X
P an
P al
P and
P re
P ers
P yu
P estalozzi
P rade
Q og
Q CZ
R D
R O
R V
R W
R od
R uss
R ichardson
S W
S Z
S k
S ol
S og
S CO
S ET
S HU
S urface
S teph
T U
T W
T Z
T er
T al
T om
T ow
T ash
U B
U M
U z
V ya
V arta
W D
W O
W T
W ak
W eb
W orld
W hen
W KF
X ay
Y T
Y un
Y ud
Z R
Z X
] )
] ""
a shi
a de
a ter
b on
b ar
b and
b un
b Ã¬
b ge
b ÃŃ
b ÇĲ
b ush
b all
b Äĵi
c c
c f
c l
c in
c ar
c Ã¬
c Ã¡ng
d f
d ÊĲa
d Ã²ng
d elph
e x
e la
e us
e ch
e ws
f b
f us
f Äĵng
f ix
f ari
f red
g an
g ar
g et
g ing
g ad
g ard
g Å«
g fc
h l
h ul
h Ê¨
h Ã¹
h Ã©
h ka
h Ã³ng
i h
i u
i um
i de
i OS
i ous
i onal
i ties
j n
j o
j ar
j ian
j am
j Å«
j ong
j ack
k r
k Äģ
k Ä«
k ÇĶ
k Éĳ
k istan
l ers
l Ã³ng
l Åĭa
l Ãºn
m S
m er
m ia
m Çİ
m Ã³
m Çİn
n Ç
n ia
n ÃŃ
n Ã¡n
n Ê£
o ut
o ud
o gue
p us
p Ã¡n
p ÇĶ
p tions
q ÇĲ
r ti
r ta
r and
r oot
r du
s c
s m
s ia
s ang
s Ä«
s om
s ton
s ina
s oma
s tain
s kar
t an
t ml
t Ã³
t ent
t ÇĶ
u u
v ard
v yÄģ
w ord
w Ã¹
w ard
w ÇĴ
x m
x in
x ÃŃng
y g
y z
y le
y ang
y Ã¨
y Çİn
z k
z er
z Ã¬
z go
z na
¡ ÂŃ
£ ï¼
¤ ãģĦãģ
¦ zan
® ï¼¡
´ ï¼
¹ ï¼
¹ ãĥĪ
Â ¡ÂŃ
Ã ¢
É ¦zan
Î ²
Î ·
á ¸
ï Ģ
ï Ĺ
Ġ à¾±
Ġ à½º
Ġ à¾²
Ġ à½¼à¼į
Ġ à½±à½²
Ġ le
Ġ et
Ġ is
Ġ qq
Ġ am
Ġ as
Ġ op
Ġ li
Ġ gov
Ġ tibet
Ġ he
Ġ ,,
Ġ à½Ĵ
Ġ à¾ĩ
Ġ ox
Ġ ÅĽÄģstra
Ġ É¦zan
Ĩ ãĤ
Ĭ ãģ
Ĳ Î¡
ĳ ãĤ
ĵ ï¼ķ
Ŀ ãģ®
Ŀ ãĥ³ãĥ
Ń ãĤ
à¼ ĩ
à¼ĭ à½´
à¼ĭ à½²à¼ĭ
à¼ĭ à¼Įà¼Įà¼Įà¼Į
à¼ĭ à¼¿
à¾ ®
à¾ Ĥ
à½¦ à½ħ
à½¦ à½ĵà½¦
à½¦ à½łà½ĳ
à½¦ à½łà½ĸ
à½¦ à½ĳà½Ĥ
à½¦ à½Ĥà½ħ
à½¦ à½ĸà½ĳ
à½¦ à½¢à½ĸ
à½¦ à½Ĩà½Ħ
à½¦ à½£à½Ħ
à½¦ à½ĳà½Ķà½¢
à½Ĥ à½ģà½ĸ
à½Ĥ à½ĸà½ıà½Ħ
à½Ĥ à½ĸà½ı
à½Ĥ à½ĺà½ģà½ĵ
à½Ĥ à½ģà½ĺà½¦
à½Ĥ à½ĳà½Ĥà½ł
à½Ĥ à½¢à½ĸ
à½Ĥ à½Ŀà½Ħ
à½Ĥ à½łà½Ĥà½Ĥ
à½Ĥ à½łà½Ĥà½ł
à½Ĥ à½ļà½£
à½Ĥ à½łà½ĩà½ĺ
à½Ĥ à½Ķà½İ
à½Ĥ à½Ĥà½Łà½ł
à½Ĥ à½Ĥà½¡à½Ĥ
à½Ĥ à½Ĳà½ĸ
à½Ĥ à½łà½ĸà½Ĥ
à½² à¼Įà¼į
à½² à¼µ
à½ĳ à½łà½Ĥ
à½ĳ à½łà½ĳ
à½ĳ à½¢à½Ħ
à½ĳ à½ĳà½ĺà½Ħà½¦
à½ĳ à½£à½ĺ
à½ĳ à½łà½ļ
à½ĳ à½łà½Ĳ
à½ĳ à½łà½Ħ
à½ĳ à½ĸà½łà½ĺ
à½ĳ à½Łà½Ħ
à½ĳ à½ĳà½Ħà½¢
à½ĸ à½ĸà½ł
à½ĸ à½Ķà½¢
à½ĸ à½ĩ
à½ĸ à½ĸà½ħà½¦
à½ĸ à½īà½ĺ
à½ĸ à½Ĩà½ł
à½ĸ à½ļà½£
à½ĸ à½Ķà½¢à½¦
à½Ħ à½Ķ
à½Ħ à½ħ
à½Ħ à½ķ
à½Ħ à½ĸà½¢
à½Ħ à½łà½ĳ
à½Ħ à½ĺà½¦
à½Ħ à½ĸà½ŀ
à½Ħ à½¢à½Ħ
à½Ħ à½ĸà½ħà½¦
à½Ħ à½Ĥà½ĳ
à½Ħ à½Ĥà½ŀà½Ĥ
à½Ħ à½ģà½¦
à½¢ à½Ĩ
à½¢ à½Ķà½ł
à½¢ à½¤
à½¢ à½Ł
à½¢ à½łà½ĸ
à½¢ à½ĸà½ħ
à½¢ à½ĺà½Ĳ
à½¢ à½ĸà½ĳ
à½¢ à½ļà½ĳ
à½¢ à½ĸà½ıà½Ħ
à½¢ à½ļà½ĵ
à½¢ à½Ĥà½ĳ
à½¢ à½Ĥà½ıà½ĵ
à½´ à½¾à¼į
à½´ à¼½à¼¼
à½ĵ à½ī
à½ĵ à½Ķà½¢
à½ĵ à½ĳà½Ķ
à½ĵ à½ĸà½ĳ
à½ĵ à½ĸà½ħà½¦
à½ĵ à½ĺà½īà½ĺ
à½ĵ à½ģà½Ĥ
à½ĵ à½¡à½Ĥ
à½ĵ à½ıà½ĵ
à½ĵ à½Ĭ
à½ĵ à½Ĵ
à¾± à¾±à½º
à¾± à¼İ"
à½ł à½łà½ĳ
à½ł à½Ģà½ł
à½º à¾²à½º
à½£ à½Ķ
à½£ à½ı
à½£ à½ķ
à½£ à½ĳà½ĸ
à½£ à½łà½ĩ
à½£ à½ļà½ĳ
à½£ à½Ľ
à½ĺ à½ĸà½¢
à½ĺ à½łà½Ĥ
à½ĺ à½£à½¦
à½ĺ à½ĺà½Ĳ
à½ĺ à½ıà½ł
à½ĺ à½ĳà½Ħà½Ħà½¦
à¾² à¾²à½´
à¾² à¾±à¼ĭ
à¾² à¼·
à¾² à¼µà½²
à½Ķ à½ļ
à½Ķ à½ħ
à½Ķ à½¤
à½Ķ à½ĸà½ł
à½Ĥà½¦ à½Ķà½ł
à½Ĥà½¦ à½¤
à½Ĥà½¦ à½ĸà½¢
à½Ĥà½¦ à½Ĥà½ı
à½Ĥà½¦ à½Ķà½¢
à½ģ à½ĸà½¦
à½¼à¼ĭ à¼Įà¼İ
à¾Ĵ à¾°
à½´à¼ĭ à½´
à½´à¼ĭ à¼ĭà¼ĭà¼ĭà¼ĭà¼ĭ
à½´à¼ĭ à¼ĭà¼ĭà¼ĭà¼ĭà¼ĭà¼ĭ
à½¡ à½Ĥà½ĳ
à½Ģ à½Ķ
à½Ģ à½ģ
à½Ģ à½ı
à½Ģ à½ī
à½Ģ à½ĺà½¦
à½Ģ à½łà½ļ
à½Ģ à½ĳà½Ħà½Ħà½¦
à½ŀ à½ĵà½ĵ
à½ļ à½Ľ
à½ĳà½Ħ à½Ĥ
à½ĳà½Ħ à½Ķ
à½ĳà½Ħ à½ļ
à½ĳà½Ħ à½ĸà½¦
à½ĳà½Ħ à½£à½¦
à½ĳà½Ħ à½łà½ĸ
à½ĳà½Ħ à½Ĥà½ĵà½¦
à½ĳà½Ħ à½łà½ģ
à½ĳà½Ħ à½Ĥà½ıà½ĵ
à½ºà¼ĭ à¼Ķ
à½ºà¼ĭ à¼ĭà¼ĭà¼ĭ
à½Ĳ à½Ģ
à½Ĩ à½¡
à½Ĩ à½Ĥà½ł
à½ĸà½¦ à½ĳà½Ħ
à½ĸà½¦ à½ĸà½ħ
à½ĸà½¦ à½Ĭ
à¾Ĳ à¾²à½º
à½ħ à½Ĳ
à½ħ à½łà½ĵ
à½ı à½Ĥà½ĳ
à¾Ł à¼İ"
à¾Ł à¾²à¼į
à¾Ł à¾²à½±à½²à¼ĭ
à½ķ à½¡
à½Ħà½¦ à½ĸà½¢
à½Ħà½¦ à½Ĥà½ī
à½Ħà½¦ à½£à½Ĥ
à½ĵà½¦ à½¡
à½ĵà½¦ à½ŀ
à½ĵà½¦ à½ĳà½Ħ
à½ĵà½¦ à½łà½Ĥ
à½ĵà½¦ à½łà½Ľ
à¾±à½¼ à½º
à¾³ "
à¾³ à½ºà¼į
à¾³ à¾·à½²à¼ĭ
à¾±à½º à½¿
à¾²à½² à½¼
à¾²à½² à¼İ"
à¾²à½² à½¾à¼ĭ
à½¤ à½Ĥà½ĵ
à½¤ à½Ĥà½¢
à½ĸà½¢ à½Ħ
à½ĸà½¢ à½¢
à½łà½Ĥ à½ĸà½¦
à½łà½Ĥ à½Ĭ
à¾±à½² à¼Į
à½£à½¦ à½Ģ
à½£à½¦ à½Ĩ
à½łà½ĸ à½ĺà½¦
à½ĳà½Ĥ à½Ģ
à½ĳà½Ĥ à½Ĳ
à½ĳà½Ĥ à½£à½¦
à¾¡ "
à¾¡ à½±
à½ĺà½¦ à½ĵ
à½ĺà½¦ à½£
à½ĺà½¦ à½ħà½Ĳ
à¾© à¼µà½¼
à½ĸà½ħ à½ĵ
à¾Ĵà¾±à½´ "
à¾±à½´ à½²à¼ĭ
à¾±à½´ à¼µ
à½ĸà½ł à½ķ
à¾£ à¾²à½´
à¾£ à¾²à½º
à¾£ à¼¼
à¾£ à¾Ģà¼ĭ
à½ĳà½ĺ à½īà½ĺ
à½Ķà½¢ à½ĳà½Ħ
à½Ķà½¢ à½łà½ĳ
à¾Ķ à½²
à¾Ķ à½²à¼ĭ
à¾Ķ à¾·à½´à¼ĭ
à½Ļ à½ĺà½¦
à½Ļ à½łà½Ħ
à½ĳà½ĸ à½ĸà½¦
à½ĳà½ĸ à½Ł
à½ĳà½ĸ à½ĸà½Ħ
Ġà½¦ à½¦
Ġà½¦ à½Ķ
à½łà½ķ à½Į
à¾Ĳà¾±à½¼ à½²
à¾Ĺ "
à¾Ĺ à¾Ģà¼ĭ
à½ĸà½ŀ à½£
à½ĸà½ŀ à½Ĥà½ŀ
à¾²à½º à½ºà¼ĭ
à¾²à½º à½¾
à½ĺà½ļ à½¦
à½§ à½Ĥ
Ġà½ĳ à½ķà½Ħ
à½¨ à½©
à¾· à¾±à½¼
à¾· à¾²à½´
à¾· à¼½
à¾· à½¾
à¾· à½µà¼ĭ
à½Ĥà½ī à½Ħ
à½Ĥà½ī à½ĵà½ĳ
à¾Łà½¼ à½²
à½łà½ģ à½ĸ
à½ĺà½Ħ à½Ķ
à½ĺà½Ħ à½Ħà½¦
ĠâĢ Ĩ
ĠâĢ ĳ
ĠâĢ ķ
à½ĸà½Ł à½ĸ
à¾Łà½º à½¼
à½łà½ĩ à½Ĥà½ł
à¾¨ à¾²à½´
à¾¨ à¾Ģ
à¾¨ à¾Ģà¼ĭ
à¾¨ à½±à½¿
à¾Ĵà¾²à½² à½²
à½ģà½Ħ à½ģ
à½ģà½Ħ à½¡
à½ģà½Ħ à½łà½ĸ
à½ģà½Ħ à½ĺà½īà½ĺ
à½Ĥà½¦à½¢ à½ĸ
à¾²à¼ĭ à¼Ķ
à¾²à¼ĭ à¼Ħà¼į
à¾Ļ à½¼à¼ĭ
à¾Ļ à¾Ļà½´
à½ĺà½ģ à½ĺà½¦
à½ĸà½Ģ à½ĸà½¦
à¾Ķà½¼ à¼İ"
Ġà½Ĥ à½Ĳ
Ġà½Ĥ à½ĳà½Ĥ
Ġà½Ĥ à½¤à½ĵ
à¾¦ à¾·à½¼
à¾¦ à½¾à¼ĭ
à¾¦ à¾·à¼į
à¾¦ à¾·à½²à¼ĭ
à½ĸà½¤ à½ĳà½Ķ
à½ĸà½ħà½¦ à½¦
à½ĸà½ħà½¦ à½ĺ
à½£à½ĺ à½ŀ
à½£à½ĺ à½ĳà½Ħ
à½£à½ĺ à½łà½Ħ
Ġà½ĺ à½Ļà½ĵ
à½£à½Ĥ à½ĵ
à½£à½Ĥ à½ģ
à½£à½Ĥ à½Ĩ
à½£à½Ĥ à½¤
à½£à½Ĥ à½ĳà½ĸà½Ħ
à½£à½Ĥ à½ĸà½ĳà½Ĥ
à½Ľ à½£à½ĺ
à½Ľ à½¡à½ĸ
Ġà½ģ à½łà½ĺ
Ġà½ĸ à½ļà½ĵ
à¾Ń à½¾
à¾Ń à¾°
à¾Ń à½±à½´
à¾Ń à½¼à½¼à¼ĭ
à¾Ń à¼µà¼ĭ
à¾Ń à½½
à¾Ĳà½¼ à½¼
à½Ĥà½Ļ à½Ħà½¦
à½ĺà½Ľ à½ĺ
à½ģà½ĸ à½ĳà½Ħ
ĠâĢĿ -
ĠâĢĿ /
ĠâĢĿ âĢĶâĢĶâĢľ
à¾Ĵà½¼ à¼Į
à¾Ĵà½¼ à¼¼
à½ģà½Ĥ à½ĳà½Ħ
à½ģà½Ĥ à½Ĳ
à½ģà½Ĥ à½łà½ĸ
à½ģà½Ĥ à½Ĳà½ĳ
à½ģà½Ĥ à½ĳà½¢
à½ģà½Ĥ à½Ĥà½¦à½Ħ
ĠãĢ Į
ĠâĢľ âĢľ
ĠâĢľ Â·
ĠâĢľ âĢ¢
ĠâĢľ ãĢģãĢģ
ĠâĢľ âĢ¹
à½ħà½ĵ à½Ĥ
à½ħà½ĵ à½¢
à½ļà½Ħ à½Ĥ
Ġ2 201
Ġ2 976
à¾Ĳà¾± à¼½
à¾Ĳà¾± à¼µà½²
à½ĺà½Ĥ à½ĵ
à½ĺà½Ĥ à½§
à½± à½ºà½ºà¼ĭ
à½ĸà½¦à½ĺ à½ĸ
à½łà½Ĩ à½£à½ĳ
à½ĸà½Ļ à½ĺà½¦
à½Ĥà½Ħ à½Ĥ
à½Ĥà½Ħ à½Ħ
à½Ĳà½Ĥ à½Ķ
à½Ĳà½Ĥ à½Ģ
à½Ĳà½Ĥ à½Ĥà½ħ
à½Ĳà½Ĥ à½¢à½Ħ
à½Ĳà½Ĥ à½ĸà½ĳà½Ĥ
à½Ĥà½Ł à½Ĥà½¦
Ġà½ļ à½ĳà½ĺ
à½Ŀ à½¥
à½Ĥà½£ à½¢
à½Ĥà½£ à½ł
à½Ĥà½£ à½£
à½ĳà½ĺà½Ĥ à½łà½Ĳà½ĸ
à½ĺà½Ĩ à½Ĥ
à½Ĥà½ĳ à½ĳ
à½Ĥà½ĳ à½ı
Ġà½ķ à½ĸà½¦
Ġ20 32
Ġ20 58
Ġ20 70
Ġ20 66
Ġ20 88
Ġ20 93
Ġ20 65
Ġ20 39
Ġ20 64
Ġ20 61
Ġ20 74
Ġ20 83
Ġ20 52
Ġ20 72
Ġ20 909
à½ģà½ĺà½¦ à½¡
ĠãĢĭ ãĢĭ
ĠãĢĭ âĢĶâĢĶ
à½łà½Ĩà½¢ à½Ĥà½ŀ
à½Ħà½Ħ à½łà½ļ
Ġà½ĳà½Ħ à½ŀ
à½ĺà½¢ à½łà½Ĥ
Ġà½ĺà½ļ à½Ĥ
à¾¤à¾²à½¼ à½¼
à½ĳà½Ĥà½ł à½ĺ
à½Ĥà½¡ à½Ĥà½¡
Ġà½Ł à½ĸà½¦
à¾Ĺà½ºà¼ĭ à¼½
ï¼ ¨
ï¼ ©
Ġà½Ħ à½ļ
à¾©à½² à¼¼
00 4
00 89
00 92
00 38
00 83
00 53
00 91
00 81
à½Ĥà½¤ à½Ħà½¦
à¾²à½´à¼ĭ à¼¼
à½ĺà½ļà½ĵ à½Ķ
à½ĺà½ļà½ĵ à½ŀ
Ġ3 771
à½ĸà½Ĥ à½ĺà½¦
à¾ķ à½´à¼ĭ
Ġà½¨ à½ı
Ġà½¨ à½ĵà½ĵ
Ġà½łà½ĳ à½łà½¦
à¾¤à½´ à¼İ
à½¦à½¢ à½Ł
à½ĸà½ŀà½Ĥ à½Ģ
à½ĸà½ŀà½Ĥ à½Ĥà½ĵà½ł
à½ĵà½ĺ à½ħ
à¾³à½´ à¼¼
Ġï¼ §
Ġ4 201
Ġ4 329
Ġ4 322
Ġ4 333
Ġ4 345
Ġ4 139
Ġ4 113
Ġ( âĢĵ
Ġ( .)
Ġ5 93
Ġ5 161
Ġ5 118
Ġ5 114
Ġ5 111
Ġ5 874
Ġ5 151
Ġà½¤ à½ĺà½¦
à½ĵà½Ĥ à½¡à½Ħ
à½ĵà½Ĥ à½ĸà½£
Ġà½ĸà½¦ à½¢
Ġ6 155
Ġ6 160
Ġ6 159
Ġ7 201
Ġ7 41
Ġ7 333
Ġ7 345
Ġ7 162
Ġ7 159
20 64
20 51
"" (
"" ãĢĬ
Ġà½Ķ à½Ĭ
Ġà½ł à½ł
Ġà½ł à½Ķà½Ĥà½¦
Ġ8 18
Ġ8 893
Ġ8 345
Ġ8 280
Ġ8 170
Ġ8 187
Ġ8 175
à¾©à½²à¼ĭ à¼ĭ
Ġà½Ĥà½¦ à½Ĥ
Ġ"" âĢĺ
à½łà½Ĥà½ł à½łà½ĺ
à½łà½Ĥà½£ à½¢
Ġ9 14
Ġ9 36
Ġ9 82
Ġ9 47
Ġ9 37
Ġ9 41
Ġ9 134
Ġ9 195
Ġ9 192
Ġ9 298
Ġ9 368
Ġ10 21
Ġ10 43
Ġ10 125
Ġ10 367
Ġ10 864
âĢľ ãĢģãĢģãĢģ
âĢľ ï¼Įï¼ĮâĢĿ
à¾¦à¾± à½¼à¼ĭ
à½ĵà½łà½Ħ à½ģ
Ġà½Ĥà½¦à½¢ à½Ĥà½ı
à¾·à½¼ à½¼à¼ĭ
Ġï¼Ī !
Ġï¼Ī ?
Ġï¼Ī âĢ¢
Ġï¼Ī âĢľâĢĿ
Ġï¼Ī âĢ¢ï¼ī
Ġï¼Ī ãĢĤï¼ī
Ġà½Ĥà½ħ à½ł
Ġï¼ī (
Ġï¼ī [
Ġï¼ī ï¼»
Ġ12 200
Ġ12 38
Ġ12 37
Ġ12 73
Ġ11 200
Ġ11 77
Ġ11 76
Ġ11 69
Ġ11 54
Ġ11 78
Ġ11 160
Ġ11 777
Ġ11 237
201 40
à½£à½ł à½Ħà½¦
âĳ »
à½İ à½¢
à¾¤à½¼à¼ĭ à¼ĭ
à¼¢ à¼¢à¼¥
à¼¢ à¼¡à¼łà¼ł
Ġà½łà½ģ à½ł
à½Ĩà½Ĥ à½Ĳ
Ġ15 89
Ġ15 14
Ġ15 15
Ġ15 24
Ġ15 36
Ġ15 31
Ġ15 69
Ġ15 37
Ġ15 400
Ġ15 110
Ġ15 269
Ġ15 206
à½Ĳà½ĺà½¦ à½ĳ
à¼ł à¼¡à¼ł
à¾¦à¾² à¼İ
000 2
Ġ13 19
Ġ13 15
Ġ13 34
Ġ13 35
Ġ13 96
Ġ13 48
Ġ13 37
Ġ13 84
Ġ13 100
Ġ13 400
Ġ13 348
Ġà½ĺà½Ľ à½¦
Ġ18 12
Ġ18 58
Ġ18 28
Ġ18 54
Ġ18 457
Ġ17 89
Ġ17 75
Ġ17 59
Ġ17 400
Ġà½ĩ à½¢
Ġ30 19
Ġ30 32
Ġ30 44
Ġ30 75
Ġ30 90
Ġ30 35
Ġ30 65
Ġ30 45
Ġ30 38
Ġ30 99
Ġ30 49
Ġ30 54
Ġ30 51
Ġ30 72
Ġ30 73
Ġ30 364
à½łà½ĺ à½Ģ
à½łà½ĺ à½ī
Ġ16 200
Ġ16 63
Ġ14 44
Ġ14 92
Ġ14 69
Ġ14 400
à½¦à½Ħ à½Ĥà½¡à½Ĥ
à¾Ĳà¾² "
ï¼ī [
à¼ĭà¼ĭ à¼ĭà¼į
97 9
97 339
Ġà½Ŀ à½Ħà½¦
Ġ25 10
Ġ25 89
Ġ25 16
Ġ25 200
Ġ25 33
Ġ25 66
Ġ25 11
Ġ25 15
Ġ25 35
Ġ25 48
Ġ25 02
Ġ25 78
Ġ25 08
à¼£ à¼¡à¼ł
à¼£ à¼¢à¼łà¼ł
à¼£ à¼¢à¼¢
à¼£ à¼¤à¼ł
à¼£ à¼¨à¼ł
à¼£ à¼¡à¼§à¼ł
à¼£ à¼¡à¼łà¼¥
Ġ2015 2017
âĢĶ -
âĢĶ )(
19 15
19 18
19 07
Ġ. âĢ¦
ï¼Ī ãĢģãĢģãĢģï¼ī
Ġ24 19
Ġ24 14
Ġ24 90
Ġ24 34
Ġ24 80
Ġ24 46
Ġ24 48
Ġ24 39
Ġ24 05
Ġ24 81
Ġ24 56
Ġ24 06
Ġ24 126
Ġ24 324
Ġ24 304
à¼¢à¼ł à¼¥
à¼¢à¼ł à¼¦
à¼¢à¼ł à¼¢à¼¨
à¼¢à¼ł à¼¦à¼ł
à¼¢à¼ł à¼¤à¼¦
Ġ100 86
Ġ100 99
Ġ100 55
Ġ100 56
Ġ100 400
Ġ21 19
Ġ21 17
Ġ21 60
Ġ21 33
Ġ21 13
Ġ21 18
Ġ21 35
Ġ21 65
Ġ21 31
Ġ21 49
Ġ21 05
Ġ21 79
Ġ21 280
Ġ21 145
Ġ21 325
Ġ70 90
Ġ70 34
Ġ22 10
Ġ22 25
Ġ22 75
Ġ22 18
Ġ22 76
Ġ22 65
Ġ22 98
Ġ22 85
Ġ22 48
Ġ22 309
Ġ22 94
Ġ22 61
Ġ23 97
Ġ23 19
Ġ23 17
Ġ23 12
Ġ23 200
Ġ23 14
Ġ23 34
Ġ23 96
Ġ23 29
Ġ23 41
Ġ23 83
Ġ23 59
Ġ23 04
Ġ23 02
Ġ23 07
Ġ23 214
Ġ23 135
à½Ĥà½¡à½Ĥ à½ĸ
ĠÂ» ()
Ġ28 20
Ġ28 30
Ġ28 10
Ġ28 33
Ġ28 28
Ġ28 14
Ġ28 15
Ġ28 76
Ġ28 26
Ġ28 47
Ġ28 48
Ġ28 62
Ġ28 54
Ġ28 02
Ġ28 73
Ġ28 71
Ġ26 20
Ġ26 25
Ġ26 70
Ġ26 23
Ġ26 29
Ġ26 45
Ġ26 85
Ġ26 87
Ġ26 69
Ġ26 39
Ġ26 67
Ġ26 68
Ġ26 41
Ġ26 74
Ġ26 59
Ġ26 372
Ġ26 977
à¼¥ à¼¢à¼ł
à¼¥ à¼¡à¼©
à¼¥ à¼¢à¼¥
à¼¤ à¼¡à¼ł
à¼¤ à¼¡à¼£
à¼¤ à¼¦à¼ł
Ġ50 44
Ġ50 11
Ġ50 77
Ġ50 13
Ġ50 40
Ġ50 42
Ġ50 52
à½łà½ĸà½ł à½¢
à¼© à¼¥à¼ł
à¼© à¼¦à¼¥
à¼© à¼¤à¼¨
Ġ40 12
Ġ40 28
Ġ40 40
Ġ40 87
Ġ40 37
Ġ40 67
Ġ40 71
à¼¨ à¼¢à¼¢
à¼¨ à¼§à¼§
Ġ31 19
Ġ31 80
Ġ31 40
Ġ31 42
Ġ31 87
Ġ31 39
Ġ31 63
Ġ31 57
Ġ31 59
Ġ31 07
Ġ31 09
Ġ31 774
Ġ27 30
Ġ27 32
Ġ27 25
Ġ27 70
Ġ27 15
Ġ27 40
Ġ27 26
Ġ27 45
Ġ27 47
Ġ27 67
Ġ27 61
Ġ27 57
Ġ27 09
Ġ27 06
à¼§ à¼¡à¼¢
à¼§ à¼£à¼£
à¼§ à¼¤à¼ł
à¼§ à¼£à¼¢
à¼§ à¼£à¼§
à¼§ à¼¦à¼§
à¼§ à¼¤à¼¦
30 17
30 59
à¼¦ à¼¢à¼ł
à¼¦ à¼¡à¼¡
à¼¦ à¼¢à¼¥
à¼¦ à¼¤à¼¦
à¼¦ à¼¤à¼¤
ĠãĢĭãĢĬ ãĢĪ
à½Ĥà½ĳà½Ħà½¦ à½ĳà½Ħ
à½ķà½ĺ à½ī
Ġ29 000
Ġ29 97
Ġ29 32
Ġ29 17
Ġ29 12
Ġ29 25
Ġ29 14
Ġ29 15
Ġ29 93
Ġ29 35
Ġ29 67
Ġ29 05
Ġ29 51
Ġ29 02
Ġ29 08
Ġ60 75
Ġ60 69
Ġ60 63
10 16
10 86
10 87
10 162
à½Ĭ à½£
Ġ0 29
à¼¡à¼© à¼¡à¼©
à¼¡à¼© à¼¡à¼¤
à¼¡à¼© à¼¡à¼§
à¼¡à¼© à¼¡à¼¨
à¼¡à¼© à¼£à¼¢
à¼¡à¼© à¼¦à¼¡
17 97
17 50
17 11
17 88
17 35
17 31
17 39
17 67
17 81
17 08
Ġà½¤à½¢ à½Ĳ
12 16
12 75
12 70
12 34
12 92
12 96
12 40
12 65
12 82
12 69
12 39
12 68
12 94
12 56
12 59
12 52
12 72
12 73
12 339
ĠâĢĻ (
ĠâĢĻ ï¼Ī
ĠâĢĻ âĢĿâĢľ
16 89
16 16
16 50
16 18
16 40
16 48
16 69
16 67
16 74
16 59
16 54
16 72
16 09
Ġ80 19
Ġ80 47
Ġ80 409
60 8
60 15
Ġà¼½ à¼İ
Ġà½ĺà½ĩ à½ł
à¾¥à½² à½´
Ġ300 1
Ġ300 4
Ġ300 6
Ġ300 68
ĠA A
ĠA t
ĠA u
ĠA ut
ĠA ud
ĠA BA
ĠA TA
ĠA rab
ĠA sia
Ġï¼Īï¼ī ï¼Ī
Ġï¼Īï¼ī ï¼ļ
33 00
70 7
70 9
70 500
Ġ35 20
Ġ35 13
Ġ35 90
Ġ35 93
Ġ35 45
Ġ35 39
Ġ35 55
Ġ35 63
Ġ35 57
66 51
66 888
11 19
11 11
11 38
11 87
11 43
11 56
âĴ Ī
âĴ ī
28 47
Ġ/ )
Ġ45 10
Ġ45 13
Ġ45 34
Ġ45 41
Ġ45 43
Ġ45 78
Ġ45 72
Ġ45 1462
Ġ90 65
Ġ90 57
14 75
14 88
14 95
14 69
14 83
14 53
14 09
Ġ500 6
13 30
13 60
13 75
13 18
13 76
13 40
13 95
13 87
13 67
13 56
13 73
90 1
à¼¡à¼ł à¼¡à¼©
à¼¡à¼ł à¼¡à¼¢
à¼¡à¼ł à¼łà¼łà¼ł
à¼¡à¼ł à¼£à¼©
15 42
15 37
15 64
15 43
15 1373
Ġ32 30
Ġ32 32
Ġ32 58
Ġ32 44
Ġ32 14
Ġ32 77
Ġ32 24
Ġ32 27
Ġ32 95
Ġ32 47
Ġ32 31
Ġ32 63
Ġ32 91
Ġ32 1192
Ġ33 30
Ġ33 12
Ġ33 70
Ġ33 41
Ġ33 53
Ġ33 51
Ġ33 73
Ġ33 985
Ġ36 10
Ġ36 88
Ġ36 43
Ġ36 81
Ġà½Ĥà½¦à½£ à½ĳ
22 11
93 40
ĠP K
ĠP N
ĠP o
ĠP et
ĠP al
ĠP at
ĠP to
18 00
18 97
18 14
18 22
18 29
18 45
18 67
18 62
18 51
18 09
18 1000
ĠâĢ¦ ""
ĠâĢ¦ .âĢĿ
Ġ34 000
Ġ34 60
Ġ34 15
Ġ34 21
Ġ34 37
Ġ34 84
Ġ34 62
Ġ34 329
Ġ34 51
Ġ34 73
Ġ34 130
Ġ38 97
Ġ38 16
Ġ38 28
Ġ38 24
Ġ38 46
Ġ38 49
Ġ38 56
Ġ38 02
an et
Ġ2010 1
Ġà½ĺà½ĵ à½ĸ
Ġà½ĺà½ĵ à½ĸà½¦
à¾° à½¼à¾ĥà¼ĭ
Ġï¹ į
ĠâĢ¦âĢ¦ âĢľ
ĠâĢľâĢĿ ()
ï¼Į !
ï¼Į ãĢģãĢģ
ï¼Į ï¼ģ
ĠC M
ĠC ic
ĠC har
ĠC OM
ĠC lass
ĠC EPA
ĠC ultural
ĠC levelandCavaliers
ĠC soma
80 1
80 2
80 63
Ġ65 28
Ġ65 40
co V
Ġà¼¢ à¼¡à¼¢
Ġà¼¢ à¼§à¼ł
Ġà¼¢ à¼¥à¼¦
Ġà¼¢ à¼£à¼¨
Ġà¼¢ à¼¤à¼¤
Ġà¼¢ à¼§à¼£
Ġ37 12
Ġ37 58
Ġ37 16
Ġ37 23
Ġ37 80
Ġ37 46
40 33
Ġ55 58
Ġ55 55
ĠâĢĿ[ ãĢĬ
Ġ95 60
Ġ95 44
Ġ95 59
Ġ95 105
Ġ43 60
Ġ43 80
Ġ43 65
Ġ43 69
Ġ43 73
Ġ39 17
Ġ39 88
Ġ39 22
Ġ39 40
Ġ39 94
Ġ39 472
Ġ75 1
Ġ75 442
Ġ- ?)
âĳ¡ âĳ£âĳ¤âĳ¥
Ġ150 1
Ġ150 7
Ġ46 10
Ġ46 15
Ġ46 96
Ġ46 39
com es
36 00
36 10
36 11
Ġ48 30
Ġ48 13
Ġ48 18
Ġà¼¡à¼© à¼¢à¼ł
Ġà¼¡à¼© à¼¡à¼©
Ġà¼¡à¼© à¼¢à¼¥
Ġà¼¡à¼© à¼¢à¼¦
Ġà¼¡à¼© à¼£à¼§
Ġà¼¡à¼© à¼¦à¼§
Ġà¼¡à¼© à¼¤à¼§
Ġà¼¡à¼© à¼¦à¼£
Ġà¼¡à¼© à¼§à¼¢
Ġà¼¡à¼© à¼łà¼¨
Ġ56 50
Ġ56 77
Ġ56 38
Ġ56 71
Ġ44 20
Ġ44 000
Ġ44 97
Ġ44 10
Ġ44 32
Ġ44 75
Ġ44 18
Ġ44 76
Ġ44 27
Ġ44 73
Ġ44 79
98 77
98 15
Ġ47 75
Ġ47 13
Ġ47 93
Ġ47 45
Ġ47 49
in n
in es
in ki
in ted
Ġ600 5
95 9
ĠG en
ĠG and
ĠG bps
ĠG ree
ĠG SP
ĠG ABA
Ġ: âĢĿ
Ġp H
Ġp pt
Ġp rofess
85 4
85 9
à½±à½´ à¾Ĥ
ĠâĴ Ī
86 7
86 82
à¼¡à¼¢ à¼£à¼¥
à¼¡à¼¢ à¼¦à¼§
à¼¡à¼¢ à¼¨à¼¡
à¼¡à¼¢ à¼©à¼¤
à¼¡à¼¢ à¼§à¼¡
à¼¡à¼¢ à¼łà¼¤
à¼¡à¼¢ à¼¨à¼¤
er itage
87 1
99 30
99 22
47 00
ĠT a
ĠT y
ĠT ul
ĠT ur
ĠT ouch
Ġ42 33
Ġ42 90
ĠB O
ĠB Z
ĠB a
ĠB er
ĠB ro
ĠB ul
ĠB ig
ĠB ill
ĠB olog
ĠB hy
ĠB uddhist
ĠB urushaski
Ġà¼¡ à¼¡à¼¥
Ġà¼¡ à¼¡à¼łà¼£
Ġà¼¡ à¼¡à¼¢à¼¡
Ġà¼¡ à¼¡à¼¢à¼£
Ġ41 19
Ġ41 10
ĠãĢĭï¼Ī ãĢĬ
Ġà¼£ à¼¡à¼¨
ĠS E
ĠS V
ĠS an
ĠS co
ĠS en
ĠS CI
ĠS MS
ĠS MD
ĠS outh
ĠS NH
39 50
Ġ57 27
Ġ57 31
Ġ54 20
Ġ54 19
Ġ54 10
Ġ54 66
Ġ54 28
Ġ54 13
Ġ54 23
Ġ155 1
Ġ155 97
Ġ58 20
Ġ58 50
Ġ58 60
Ġ58 66
Ġ58 22
Ġ58 65
Ġ58 36
zha o
à¼¡à¼¤ à¼£
à¼¡à¼¤ à¼¢à¼¤
à¼¡à¼¤ à¼¥à¼ł
à¼¡à¼¤ à¼©à¼ł
à¼¡à¼¤ à¼¥à¼¡
à¼¡à¼¤ à¼¤à¼¤
à¼¡à¼¤ à¼¤à¼¨
à¼¡à¼¤ à¼©à¼¢
309 581
68 1
68 4
68 458
Ġ52 20
Ġ53 10
Ġ53 70
à¼¡à¼§ à¼£
à¼¡à¼§ à¼¥
à¼¡à¼§ à¼©
à¼¡à¼§ à¼¢à¼¤
à¼¡à¼§ à¼§à¼ł
à¼¡à¼§ à¼£à¼¦
à¼¡à¼§ à¼£à¼¨
à¼¡à¼§ à¼¥à¼¡
à¼¡à¼§ à¼©à¼©
à¼¡à¼§ à¼¥à¼§
à¼¡à¼§ à¼¦à¼£
à¼¡à¼§ à¼©à¼¢
à¼¡à¼§ à¼§à¼¢
à¼¡à¼§ à¼©à¼¦
à½Ĺ à½¢
Ġ74 12
Ġ74 11
Ġ74 21
Ġ74 31
Ġ49 30
Ġ49 10
Ġ49 16
Ġ49 15
Ġ49 93
Ġ49 18
Ġ49 46
ĠD K
ĠD M
ĠD on
ĠD ur
ĠD re
ĠD ad
ĠD AS
ĠD SD
ĠD oll
ĠD FID
ĠD GI
ĠD IY
Ġ51 20
à¼¡à¼¦ à¼£à¼ł
à¼¡à¼¦ à¼£à¼¡
à¼¡à¼¦ à¼£à¼¢
à¼¡à¼¦ à¼£à¼§
à¼¡à¼¦ à¼¥à¼¥
à¼¡à¼¦ à¼©à¼©
à¼¡à¼¦ à¼©à¼§
à¼¡à¼¦ à¼¦à¼£
à¼¡à¼¦ à¼¦à¼¢
à¼¡à¼¦ à¼§à¼§
à¼¡à¼¦ à¼¤à¼£
à¼¡à¼¦ à¼©à¼¨
à¼¡à¼¦ à¼§à¼¨
à¼¡à¼¦ à¼©à¼¤
à¼¡à¼¦ à¼©à¼¥
ĠâĢĶâĢĶ ãĢĬãĢĭ
Ġ? )
à¼¡à¼£ à¼§
à¼¡à¼£ à¼¡à¼©
à¼¡à¼£ à¼¡à¼¢
à¼¡à¼£ à¼¢à¼¦
à¼¡à¼£ à¼¢à¼£
à¼¡à¼£ à¼£à¼£
à¼¡à¼£ à¼£à¼¥
à¼¡à¼£ à¼£à¼§
à¼¡à¼£ à¼¥à¼¤
à¼¡à¼£ à¼¦à¼¨
à¼¡à¼£ à¼¤à¼¢
à¼¡à¼£ à¼§à¼¤
à¼¡à¼£ à¼¦à¼¡
Ġ)ãĢĭ [
Ġà½Ľ à½Ħ
Ġà½Ľ à½¢
à¼¡à¼¥ à¼¦
à¼¡à¼¥ à¼¡à¼¢
à¼¡à¼¥ à¼¢à¼§
à¼¡à¼¥ à¼£à¼¦
à¼¡à¼¥ à¼¥à¼¤
à¼¡à¼¥ à¼¥à¼©
à¼¡à¼¥ à¼§à¼£
à¼¡à¼¥ à¼¦à¼¦
à¼¡à¼¥ à¼¦à¼¡
à¼¡à¼¥ à¼©à¼¥
à¼¡à¼¥ à¼łà¼¤
Ġ66 19
Ġ66 80
Ġ66 29
Ġ66 82
Ġ66 352
Ġ..... ....
ĠI L
ĠI ma
ĠI sab
ĠI ranian
Ġï¼ļ /
94 10162
ar l
ar ni
ar ly
Ġ68 000
Ġ68 21
Ġ68 38
âĳ¥ âĳ¦
âĳ¥ âĳ§
âĳ¥ âĴĤâĴĥâĴĦâĴħâĴĨâĴĩ
Ġ97 19
Ġ97 36
05 2
05 16
Ġ160 3
Ġ160 9
Ġ67 30
Ġ67 60
Ġ67 90
Ġ67 80
Ġ67 47
à¼¡à¼¨ à¼¢à¼ł
à¼¡à¼¨ à¼¥
à¼¡à¼¨ à¼¢à¼¡
à¼¡à¼¨ à¼¨à¼ł
à¼¡à¼¨ à¼¦à¼©
à¼¡à¼¨ à¼¤à¼§
à¼¡à¼¨ à¼©à¼©
à¼¡à¼¨ à¼¦à¼¤
à¼¡à¼¨ à¼¥à¼£
à¼¡à¼¨ à¼§à¼£
à¼¡à¼¨ à¼¨à¼¡
à¼¡à¼¨ à¼łà¼©
à¼¡à¼¨ à¼§à¼¥
à¼¡à¼¨ à¼§à¼¢
à¼¡à¼¨ à¼łà¼§
ti ll
ti val
Ġà¼¤ à¼©à¼¥
Ġ62 14
la b
la k
à¾¦à½² à¾±
ĠM G
ĠM o
ĠM es
ĠM is
ĠM ul
ĠM uk
329 305
sh etra
sh tml
01 12
01 33
or a
or th
or am
or os
or ance
Ġ130 6
Ġ...... ""
Ġ81 50
74 200
le g
le ge
à¼µ à½¼à½¾à¼ĭ
Ġ96 20
Ġ96 31
en u
en ts
Ġ64 50
81 196
Ġ77 16
Ġ77 35
Ġ77 21
Ġ77 42
Ġ77 126
Ġ140 4
ĠW M
ĠW al
ĠW orld
ĠW oman
à¼£à¼ł à¼¢
à¼£à¼ł à¼¦
à¼£à¼ł à¼©à¼©
Ġn yÄģya
Ġn etworks
Ġ82 35
Ġ88 000
ãĢĤ ,
ãĢĤ ]
Ġ63 000
Ġ73 65
Ġ83 65
Ġ76 44
Ġ76 15
Ġ76 92
Ġ76 936
Ġ86 42
02 97
Ġ78 50
Ġ87 8
Ġ87 97
Ġ87 50
Ġ87 90
07 9
07 33
07 28
à¾ļ à¼į
à¾ļ à½¼à¼ĭ
Ġ61 50
Ġ61 44
ĠK o
ĠK un
ĠK azu
Ġ93 50
Ġ93 11
Ġà¼¦ à¼©
Ġà¼¦ à¼łà¼ł
Ġ84 27
ĠE TO
ĠE mp
ĠE SM
ĠE arth
ĠE uro
ĠE arly
Ġ69 10
Ġ69 60
Ġ69 22
ï¼İ ï¼İ
Ġ89 92
à¼¢à¼¨ à¼¡
à¼¢à¼¨ à¼¢
à¼¢à¼¨ à¼¤
à¼¢à¼¨ à¼¦
à¼¢à¼¨ à¼¥à¼¤à¼¥
ĠL Z
ĠL ha
ĠL ess
ĠL ay
ĠL TE
ĠL ett
ĠL inguis
Ġ92 000
es a
es ter
es tival
ĠH TML
ĠH etu
ĠH oustonRockets
et y
et z
et ro
Ġ79 50
ĠN Äģ
ĠN ico
ĠN yÄģya
ic s
ic ation
ic ks
Ġ94 38
à¼¢à¼¥ à¼¢
à¼¢à¼¥ à¼©
à¼¢à¼¥ à¼¨
à¼¢à¼¥ à¼¦à¼¥
ia tion
à¼¢à¼© à¼¥
à¼¢à¼© à¼łà¼ł
Ġ1800 9
ra w
ra tt
ra ÅĽÄģstra
ht m
Ġà¼¡à¼ł à¼¢
Ġà¼¡à¼ł à¼©
Ġà¼¡à¼ł à¼¤à¼ł
Ġà¼¡à¼ł à¼¥à¼¤
Ġà¼¡à¼ł à¼§à¼£
ĠãĢī ãĢī
09 4033
à¾µ à¾¨
à¾µ à½±
à¾µ à½¼à¼į
à¾µ à¾Ģà¼į
te j
Ġà¼¢à¼ł à¼¥
Ġà¼¢à¼ł à¼¢à¼¡
Ġà¼¢à¼ł à¼¢à¼¢
Ġà¼¨ à¼¡à¼¥
Ġ105 19
Ġ105 31
Ġs er
Ġs en
Ġs ch
Ġs kype
Ġs cience
Ġ220 6
Ġ220 7
Ġ220 8
Ġ220 26
ĠF an
ĠF DI
ĠF olk
ĠF irst
ĠF irefox
ĠF estival
à¼¢à¼¤ à¼©
à¾²à¾Ģ à¼į
is c
is u
is y
is on
is pla
100 1
100 3
100 6
100 000
ãĢĬãĢĭ [
ãĢĬãĢĭ ï¼Į
à½²à¼ĭà¼¼ à¼½
ro m
ro un
Ġ250 17
à¼¢à¼¦ à¼¡
à¼¢à¼¦ à¼¢à¼£
us ta
à¼¢à¼£ à¼¡
à¼¢à¼£ à¼£
à¼¢à¼£ à¼¥
à¼¢à¼§ à¼¥
ch i
ch o
ch er
ch Ã¡ng
ch Äĵng
Äģ r
Äģ ka
Ġï¼Ĵ ï¼Ĵï¼Ĳ
Ġï¼Ĵ ï¼ĵï¼ĺ
el er
ĠîĢ ¼
ĠîĢ Ķ
th i
th er
th ang
th ers
th ira
ya tso
ul l
ul ar
ul se
Ġà¼© à¼¨
Ġà¼© à¼¨à¼¡
Ġïį ª
Ġïį ¬
Ġïį Ĩ
Ġ115 60
Ġ115 40
Ġ115 67
à¼¥à¼ł à¼§
à¼£à¼£ à¼£
à¼£à¼£ à¼¨à¼£
à¼¦à¼ł à¼¨
ĠR h
ĠR o
ĠR ed
ĠR AM
ĠR SA
ĠR obert
ĠR ichardson
ĠR aj
ĠR iab
ĠR andy
163 50
ï¼ĳï¼ Ĵ
xi Ã¡n
Ġ114 167
ĠãĢģ ãĢģãĢģãĢģãĢģãĢģ
ol n
ol ly
Ġ123 58
Ġ123 16
à¼§à¼ł à¼¨
Ġpt oo
ib al
ib bon
à¼¢à¼¡ à¼¡à¼ł
ï¼Ĵ ï¼Ķ
it an
ma f
ma y
ma kar
ĠO n
ĠO PPO
ĠO ptions
Ġà¼¡à¼¢ à¼¢
Ġà¼¡à¼¢ à¼£à¼¤
Ġà¼¡à¼¢ à¼£à¼©
Ġà¼¡à¼¢ à¼¦à¼¢
Ġà¼¡à¼¢ à¼£à¼¡à¼¥
Ġ360 1
Ġ360 2
Ġ107 00
ĠV S
ĠV is
ĠV ir
ĠV CR
ĠV ish
ur t
ur es
ur ric
ĠU I
ĠU S
ĠU V
ĠU ni
ĠU rdu
Ãł nd
à½łà½Ĩà½Ĥ à½ĺà½ģà½¢
il la
Ġof Uz
à¼¤à¼ł à¼¥
à¼¨à¼ł à¼¢
à¼¨à¼ł à¼¤
Ġï¼½ ãĢĬ
ĠJ D
Ġ119 80
un ta
un province
à½© à½¦
Ġ135 97
Ġ135 41
Ġâħ ¥
Ġâħ §
Ġà¼¡à¼¤ à¼¢à¼ł
Ġà¼¡à¼¤ à¼¤
Ġà¼¡à¼¤ à¼¡à¼ł
Ġà¼¡à¼¤ à¼¡à¼¤
Ġà¼¡à¼¤ à¼¡à¼¦
Ġà¼¡à¼¤ à¼£à¼¥
Ġà¼¡à¼¤ à¼łà¼©
ï¼Īï¼ī ï¼Īï¼ī
Ġà¼¡à¼£ à¼¤
Ġà¼¡à¼£ à¼łà¼ł
Ġ219 1
à¼£à¼¥ à¼¡
re y
re at
re fox
Ġà¼¡à¼¦ à¼¦
Ġà¼¡à¼¦ à¼§à¼©
Ġà¼¡à¼§ à¼¢
Ġà¼¡à¼§ à¼§
Ġà¼¡à¼§ à¼¦
Ġà¼¡à¼§ à¼¡à¼§
Ġà¼¡à¼§ à¼¤à¼©
Ġà¼¡à¼§ à¼§à¼§
pe a
ï¼ĺ ï¼Ĳ
ï¼ĺ ï¼ĳ
Ġ138 00
ri en
ri ver
ri ev
ï¼ķ ï¼Ĳ
Ġ216 75
as ly
ï¼ĵ ï¼Ĵ
ï¼ĵ ï¼Ļ
ï¼ĵ ï¼Ķ
ï¼ĵ ï¼ĸ
à¼¥à¼¨ à¼¥
à¼¥à¼¨ à¼¨
ing ton
Ġt otem
Ġt Éķi
Ġ132 77
Ġ320 9
Ġ320 70
Ġï¼ĵ ï¼Ĺ
Ġï¼ĵ ï¼ĸ
Ġà¼¡à¼¨ à¼łà¼ł
Ġà¼¡à¼¨ à¼¡à¼£
op ment
op ota
Ġ124 97
Ġ124 28
Ġï¹Ļï¹ļ âĢĿ[
à¼¦à¼¥ à¼§
Ġ158 31
de gard
ĠâĢľï¼Į ãĢģãĢģãĢģ
ĠâĢľï¼Į ï¼Ľ
Ġ550 91
Ġ147 00
à¼¤à¼© à¼¢à¼ł
à¼¤à¼© à¼§à¼¥
AA AA
ter nal
Ġ126 70
Ġ143 80
à¼£à¼§ à¼¨
ãī Ĵ
ãī ķ
ãī Ĺ
à¼£à¼¤ à¼¢
à¼£à¼¤ à¼¤
ni Ã¨
ni Ãłn
ï¼Ĺ ï¼Ĳ
ï¼Ĺ ï¼Ķ
Ġ165 00
à¼£à¼¦ à¼¡
à¼£à¼¦ à¼§
à¼£à¼¦ à¼¦
à¼£à¼¦ à¼łà¼łà¼ł
ot Çİ
Ġ225 000
Ġ225 90
at Äģka
à¼¥à¼¤ à¼¡à¼©à¼¦à¼¨
ad i
ãģ Ŀãģ®
Ġ204 38
Ġ168 40
Ġï¼Ķ ï¼ĸ
à¼¥à¼© à¼łà¼ł
li Ã¡n
li othe
Ġc a
Ġc ha
Ġc har
Ġc lass
à¾´ à½´
Ġà¼¡à¼¥ à¼¢
Ġà¼¡à¼¥ à¼¥
Ġà¼¡à¼¥ à¼©
Ġà¼¡à¼¥ à¼łà¼ł
Ġà¼¡à¼¥ à¼łà¼§
Ã¡ i
Ã¡ nd
Ġï¼ķ ï¼Ĵ
Ġï¼ķ ï¼ķ
nd z
ĠãĢĬãĢĪ âĢľ
à¼£à¼© à¼©à¼©
Ġà¼Ķ à¼į
id u
Ġ435 5
Ġ435 7
Ġ157 86
Ġ253 00
pa ge
pa ges
Ġ390 1
Ġ390 4
ï½ Ĳ
ï½ Ķ
ï½ ķ
ï½ Ŀ
à¼¤à¼¦ à¼¤
be kistan
ud ai
à¼¦à¼© à¼¡
110 3
110 5
Ġ149 92
Ġ149 47
à¼¤à¼§ à¼¢à¼ł
à¼¤à¼§ à¼łà¼ł
lo ad
à¼¤à¼¥ à¼¡à¼¢à¼ł
Ġe bge
à¾ŀ à½²à¼ĭ
à¾ŀ à¼į
Re ader
ĠãĢĭï¹Ļ ãĢĬ
Ġï¼ĸ ï¼ĳ
158 5
158 6
158 8
158 280
ik á¹£
à¼¤à¼¤ à¼łà¼ł
ak oram
ok ao
à¼©à¼§ à¼¥
à¼©à¼§ à¼¨
() âĢĿ
300 1
Ġ319 0
Ġ319 6
Ġ......âĢĿ ï¹Ļ
ĠCTRL A
ĠCTRL C
ĠCTRL S
ĠCTRL V
ĠCTRL W
ĠCTRL X
ĠCTRL Y
ĠCTRL Z
ĠCTRL EN
ĠCTRL ES
ji Ã©
ji Äģn
Ġà¼ł à¼¢
Ġïİ µ
Ġïİ ı
Ġ3400 4
214 9
214 00
AR C
AR D
AR T
mm m
à¼ĭà¼ĭà¼ĭà¼ĭà¼ĭà¼ĭ à¼ĭà¼į
Ġ207 60
Ġ560 8
gu ÇĲ
Ġm obile
Ġ154 21
he pa
à½´à¼½ à¼į
Ġ520 4
ve ÅĽ
Ġ206 36
Ġ685 213
Ġ685 216
Ġ685 212
Ġ685 21400
Ġ235 21
Ġ00 8
Ġ366 7
Ġ410 3
Ġ267 00
Ġ267 24
à¼§à¼§ à¼¤
ĠïĴ ĥ
zh Ã¬
zh ÃŃ
zh Å«
zh Åįng
zh Ã²ng
zh Ã¨ng
Ġïı ı
ĠïĹ Ķ
188 5
ĠâĢľï¼Įï¼Į ï¼Įï¼Įï¼Įï¼Į
ĠâĢľï¼Įï¼Į ï¼ĮâĢĿ
ĠâĢľï¼Įï¼Į ï¼Įï¼ģâĢĿ
Ġ202 18
Ġ252 154
à¼©à¼¨ à¼¥
vers it
Ġ424 3
Ġ188 20
ãĥ Ŀãĥ³ãĥ
Ġ640 4
1287 âĳł
à¾¶ à½´
Ġ388 3
Ġ388 00
ĠïĮĮ ïĵŁ
ay mon
à¾ł à½º
à¾ł à¼į
ig h
ig an
ig er
ïĸ ¤
ïĸ «
ïĸ ¬
à¾Ľ à½±à¼ĭ
Ġ239 000
Ġ239 583
à¼§à¼¨ à¼§
Ġãī ĵ
Ġãī ŀ
Ġãī Ł
à¼§à¼¦ à¼¡
Fi les
Fi refox
Ġf acebook
Ġf gfc
Ġ332 6
ĠIC T
ĠIC AN
Ġï¼Ĵï¼Ĳï¼ĳï¼ ĳ
Ġï¼Ĵï¼Ĳï¼ĳï¼ ĵ
ï¼ĳï¼Ļ ï¼Ĺ
ï¼ĳï¼Ļ ï¼Ĺï¼ĺ
à¾·à¾±à½¿ à¼į
ob son
à½ĭ à½Ħ
à¾²à½± à¾Ģà¼ĭ
Ġ628 7
Ġ376 1
Ġ376 3
Ġ376 26
Ġï¼ĺ ï¼ĺ
Ġï¼ĺ ï¼Ĺ
Ġï¼ĺ ï¼ĳ
Ġ414 8
Ġ440 8
ĠCD C
120 3
120 6
ci ent
od han
Ġ328 6
Ġ428 0
Ġ428 6
Ġ428 438
Ġ296 24
à¾°à½´ à½¾à¼į
oto pea
130 6
130 8
Ġd am
Ġd vÄģ
ĠIn formation
ĠIn ternational
ĠïķŃ ïĸª
Ġ358 0
Ġ237 27
ins on
Ġ425 5
Ġ425 6
Ġ299 15
Ġ344 8
Ġ344 9
qh red
qh zk
370 3
Ġv ol
Ġv ista
Ġv irus
Ġ618 0964
ÇĶ pÃłi
ï¼Ĵï¼Ĳï¼ĳï¼ ĳ
189 8
144 8
144 28
man cos
ton ga
ãĬ ¶
Ġ530 85
Ġ364 20
Ġï¹ŀ ï¹Ŀ
"à¼Ħà¼ħ à¼ħà¼İ
ation al
Èµ Ê¥
Ġ488 8
Ġ565 5
Ġ565 13
Ġ545 3
Ġ545 5
Ġ712 2
Ġ820 4
Ġ820 7
ĠPh ila
-------- -
-------- -------
Ġï¼ĳï¼Ĵ ï¼Ĳ
ep ic
ep al
qu ities
son ian
ÇĲ n
ÇĲ ng
Ġï¼Ļ ï¼ĺ
Ġ412 9
Ġ476 7
Ġ790 3
ĠPM I
Ġ6300 151373
à¤ ¦
Ġ333 439
Ġ493 1
Ġ493 6
Ġ518 0
Ġr do
Ġr ange
Ġr elig
Ġr Ngo
Ġ444 19
Ġ496 1
Ġ566 4
Ġïĸĳ ïį
ub lish
ĠY ousuf
Ġ422 6
ĠïĶ Ĵ
________________ __
DF ID
ïĳ Ģ
Ġin dia
Ġin tang
ĠãĢĭâĢľ âĢ¦âĢ¦
Ġï¼Ĺ ï¼ĸ
Ġ426 1
Ġ426 2
Ġ528 0
Ġ528 3
Ġ546 3
Ġ537 8
Ġ244 12
à¼¡à¼£à¼ł à¼¨
bo unprovince
ĠâĢľ...... âĢĿ
Ġ532 7
?? ??
vi ii
vi zna
à½ĵà½£à½¦ à½¦
Ġ432 99
à¼¡à¼¢à¼ł à¼¦
ĠSt ar
ĠSt cin
à¼¡à¼¤à¼ł à¼¦
à¼¡à¼§à¼ł à¼¢
132 3
132 5
In do
In ch
In ter
à½ĸà½ĳà½Ħ à½łà½ĸà½ł
Ġ666 7
ĠRe formation
LA Y
Mar vin
tu Ã³
ïį ĩ
ïį ı
Ġ585 9
Ġ489 6
Ġ418 5
Ġ418 7
Ġ427 30
Ġ446 1
Ġ446 8
Ġ519 2
Ġ519 03
IF E
OM A
University of
Ġ397 1
Ġ445 2
Ġ(âĢľ ï¼Į
Ġ558 6
Ġ558 8
Ġ787 3
Ġ1305 93
----- âĢĿ
Ġï¼ĳï¼Ļ ï¼Ļï¼ĺ
Ġï¼ĳï¼Ļ ï¼ĺï¼ĵ
Åĭ g
ĠãĬ ±
ĠãĬ ³
ĠãĬ ´
ĠãĬ µ
Ġ495 9
Ġ796 3
Ġ833 5
Ġ343 10
RC DI
au dela
oc us
Ġ617 86
Ġ688 7
Ġ634 6
Ġ698 3
Ġ735 5
ĠâĢĺâĢĻ "
ĠAG P
ĠCR T
ĠMa chine
ĠMa tej
Ch ic
Ch ina
Ch ris
Ch ern
IC U
ber g
Ġ732 6
Ġ775 3
Ġ724 6
Ġ822 7
Ġ822 9
Ġ1390 9410162
Ġ454 321
Pad makar
dÃł shÄ«
ÂŃ Â¡ÂŃ
Ġ714 5
ĠTe ach
ĠTe legram
Le veI
ïĵ Ĺ
Ġ517 3
Ġ622 944
Ġ970 5
à¼¡à¼©à¼ł à¼£
à¼¡à¼©à¼ł à¼¥
ark and
Ar t
Ġh eritage
Ġch os
à¾ĩ à¼ĭ
Ġ645 5
Ġ829 1
Ġ808 000
ĠPro ject
ĠLi ma
Ġï¼ĳï¼Ĳï¼Ĳ ï¼Ĳ
"ãĢĲ âĢľ
TS I
ca le
sÃ¬ dÃł
ÄĽ r
Ġ1276 8
les Ramble
Fran k
Fran z
John Robert
John Tr
ga okao
ne ws
Ġ834 00
âĳ¦âĳ§ âĳ¨
Ġï¼ĳï¼ĵ ï¼Ĳï¼Ĳ
ï¼Ĵï¼Ĳ ï¼Ĵï¼Ĳ
ï¼Ĵï¼Ĳ ï¼ĳï¼Ĳ
CR S
NE SCO
ÅĽ iká¹£
à¾²à½¾ à½²à¼ĭ
Ġ1236 8
Ġ807 35
ĠAn cient
con s
Ġ754 65
ich igan
PI SA
for a
Ġ466 5
Ġ549 4
Ġ623 15
Ġ785 79
Ġ767 1
Ġ988 1
à¼¢à¼¡à¼ł à¼¤
à¼¢à¼¡à¼ł à¼¦
Ġ1855 55
ĠAr t
ĠAr ch
Ġà¼¡à¼łà¼łà¼ł à¼łà¼łà¼ł
CO VID
GS P
ash ington
ii i
iz ation
Ġ548 00
Ġ687 1
Ġ728 00
Ġ866 4
à¼¡à¼¡à¼¥ à¼£
Ġ1592 280
ani ties
Ġà¼¢à¼¢à¼¨ à¼¥
Ġà¼¢à¼¢à¼¨ à¼§
âĳ¨âĳ© âĳ¾
1582 97
ale n
lor ida
ment ary
vel opment
âħ ¤
âħ ł
à½µ à½¾à¼ĭ
ĠâĢľãĢģ âĢĿ
Ġ875 9
Ġ845 9
Ġ1285 34
Ġ1155 6
ï¼Ĵï¼Ĳï¼Ĳ ï¼ĵ
Ber n
gy pt
kh yod
pra veÅĽ
uk hari
uk shetra
Ġà¼łà¼ł à¼¨à¼¦
Ġ847 00
Ġ1247 4
Ġ1175 9
612 1156
Pro ble
Sam arkand
pro test
ÇĴ u
à¾·à¾² à½±à½´à½¾à¼ĭ
à¾·à¾² à½±à½´à¾ĥà¼ĭ
Ġ(ãĢģãĢģãĢģãĢģ ãĢģ)
Ġ(ãĢģãĢģãĢģãĢģ ãĢģãĢģ)
Ġ586 9
Ġ899 1
Ġ1017 14
Ġ1070 1
ĠDard s
à¼¡à¼¨à¼ł à¼¢
ĠMar ia
ĠMar ion
Ġà¼¡à¼¦à¼©à¼§ à¼£
ï¼Ļï¼ĺ ï¼ĵ
ĠïĴı ïĵĵ
ï¼ĳï¼Ļï¼ĺ ï¼ķ
ï½ģï½ Ĵ
825 2064
IA P
ST LS
Th omas
di um
qi Ã¡n
à¾±à¼· à½²
Ġ867 8
Ġ894 85
Ġ1850 37
Ġ1877 28
ĠPV C
ãģ® ãģ«ãģ
Ġ68520 200
Ġ68520 300
Ġ68520 500
Ġ68520 600
ĠGeorge Frazer
ĠGeorge Kou
228 7
613 8682
Har vard
Mad ame
Mad rid
Tim e
men ta
si ri
zu o
Ġac ti
Ġac ade
ĠÂ¡ ÂŃÂ¡ÂŃ
Ġ1875 18
Ġ1707 3
Ġ1417 17
Ġ1467 2
Ġ706 46
ank in
ĠTh imphu
ĠHar isu
Ġï¼ĳï¼ĳï¼ ĵï¼ķ
15828 383
Ġ68576 100
Ġ68576 500
992 1
Cas anova
St en
St ockhol
fg fc
lu ng
Ġq gd
à½¼à¼ĭà¼ĭà¼ĭ à¼ĭà¼į
à¾Ĵà¾· à½¾
Ġ1767 14
588 192
ĠCI PS
âĳ¢âĳ£âĳ¤ 1980
ï½ī ï½ģ
Gar ratt
ds tein
yÃ¹ n
Ðµ ÑĢ
ïĶ ¿
Ġz ga
Ġ1201 337
Ġ835 68
Ġï¼ĪãĢģ ï¼ī
Ġ1485 4
ĠâĢĶâĢĶâĢĶ âĢĶâĢĶ
ĠAT R
ĠCar ly
ham mad
uss els
ĠCTRLAL TA
ĠCTRLAL TDEL
ĠCTRLAL TZ
ign orance
Ġà¼¡à¼łà¼łà¼łà¼łà¼ł à¼łà¼ł
Ġà¼¡à¼łà¼łà¼łà¼łà¼ł à¼łà¼łà¼ł
William s
Gilg amesh
Hi degard
Ro erich
WW F
gh il
ïı İïĸĳ
Ġ________ ______
à½¼à¼Į à¼į"
à½ĺà½Ļ à½ĺà½¦
ĠPas cale
ĠTB RC
Ġà¼¦à¼¤à¼© à¼¢à¼¨à¼¥à¼¤à¼¥
Ġà¼¦à¼¤à¼© à¼¤à¼¥à¼¡à¼¢à¼ł
ĠHe alth
ĠFran k
Ġ138939 66888
Ġ138939 14428
ĠALT F
ĠALT TAB
616 8063
DQ B
He in
Jan e
Sy ria
cess or
gram Files
gÄĵn bÄĽn
pol ice
xÃ¬ n
xÃ¬ ng
Ġcom ple
Ġ889 32
Ġ969 336
ĠBi ograph
Ġà¼¡à¼¡à¼ł à¼¡à¼ł
ĠIF AB
yam ukhari
ĠãĢģãĢģãĢģãĢģãĢģ ãĢģãĢģãĢģ
ĠJe ep
à¼£à¼¥à¼łà¼ł à¼¢
Ġà¼¡à¼§à¼ł à¼¥
ãģį ãĤ
ãģ«ãģ Ĭãģ
Ġï¼ķï¼Ĳï¼Ĳ ï¼Ĳ
Balti stan
Ind ia
Kar akoram
bi Ãłn
bur g
min al
uba i
zg jx
ĠÊĶ u
à½Ĳà½Ĥà½Ĳà½Ĥ à½Ĳà½Ĥ
Ġ(- ï¼ı
ĠÂŃ ÂŃ
Ġ2507 3
Ġ2232 96
Ġ[] ãĢľ
ĠAth lon
ĠAth oln
ĠPA TA
ĠDes kt
ĠMor se
ï½į ï½į
Marc us
Donald JohnTr
ĠGalaxy Note
ĠKashmir ian
And rade
Ange les
BY EN
Mu hammad
Smith sonian
dÃ¹ mÇĶ
kara á¹ĩa
ká¹£ Äģ
lug in
mor r
mber ger
nu Varta
yf ocus
ĠÐ ĲÎ¡
Ġlo go
Ġins criptions
Ġ13893 9340
Ġ3799 1
ĠTop gey
ĠSim on
ĠMark et
ĠKram pus
ĠLO GO
ĠNation ale
down load
Ġbis ts
ild ren
ï¼Łï¼Ł ï¼ģâĢĿ
ĠAnti quities
ĠSHIFT TAB
Mosul Nuri
ĠPremi ere
Aust ral
Col umb
Die mberger
Fill more
Jam mu
Kur ukshetra
Los Angeles
Pol onius
Sat ur
bro wn
fab u
his thira
mÃ¬ zÅįng
nor mancos
à¾²à¾° à½²à½¿
à½Ķà½¢à½łà½ĺ à½Ł
Ġï¼¤ï¼ ®ï¼¡
Ġ5137 20
Ġ2765 60
ĠPelliot Tibetain
Ġ9567 876
inab adi
ĠBe comes
ĠDi vizna
ĠDig ital
ĠDyn asly
tima te
Ġ18097 181000
ĠWat son
ĠKhan ae
ĠLuc as
ĠFil m
chuÃ¡n fÃ³jiÃło
ĠRepub lic
ĠUl timate
ĠJok obson
ĠJour nal
Ġà¼¡à¼£à¼¦à¼ł à¼¡à¼¤à¼łà¼¦
Ġ13897 588192
odes k
istot le
Ġgener ation
ãģ®ãģ¨ ãģĿãģ®
Madhya Prade
Kobe Bryant
ĠâĢľï¼Łï¼Į ï¼Łï¼Łï¼ģâĢĿ
ĠHussa inabadi
)ãĢģ ;
3102 13
6322 440
6139 107
Aff ix
Bol ton
Bib liothe
Bun ce
Byn pt
Dury odhan
Gett y
Hum anities
Hels inki
Havel ock
Khan id
Mes opota
Nya yamukhari
Ot to
Pand u
Pre fix
Pers ian
Qog ir
SZ Y
Sog dian
Vya sa
Xay som
Yud histhira
cÃ¬ dÃ¬
delph ia
hÊ¨ an
hÃ¹ fÇİ
nÇ ļ
vyÄģ karaá¹ĩa
¤ãģĦãģ ¦
¹ï¼ ¢
¹ãĥĪ ãģ®ãģ¨ãģĿãģ®
Ġhe morr
Ġox ford
ĨãĤ ŃãĤ
ĳãĤ ĭ
à½¦à½ħ à½ĳà½ĸ
à¾Ńà½½ à¼İ
ĠâĢľâĢ¹ âĢ¹
Ġ(âĢĵ )
âĢľãĢģãĢģãĢģ âĢĿâĢľ
ĠAut odesk
ĠArab ic
70500 16350
ĠPet ech
ĠPto le
Ġ34329 41
ï¼ĮãĢģãĢģ ï¼Įï¼ĮâĢĿ
ĠCic ero
Ġ95105 105
Ġ3994 87
ines e
ĠGand hi
Ġprofess or
ĠTul lis
ĠTur ks
ĠBolog na
ĠBhy tan
ĠDad ik
ĠDoll fus
ĠIma ges
ĠIsab elle
till ard
ĠKun sang
ĠEmp ire
ĠESM OD
ĠEuro pe
ĠLess inia
ĠLay out
ĠLett ers
ĠLinguis tics
ĠHetu vidyÄģ
ĠNÄģ land
ĠNyÄģya praveÅĽ
ispla y
roun is
ĠRiab off
olly Chic
ĠVish nuVarta
ĠofUz bekistan
ĠâĢľï¼ĮãĢģãĢģãĢģ ï¼ĮãĢģãĢģï¼Įï¼ĮâĢĿ
niÃ¨ pÃ¡n
ĠCTRLEN TER
ĠCTRLES C
Ġ685213 00
Ġ685216 00
Ġ685212 00
ãĥĿãĥ³ãĥ ĨãĤŃãĤ
aymon d
ĠICAN N
ĠdvÄģ raÅĽÄģstra
qhred c
ĠPhila delphia
Ġ6300151373 7050016350
Ġ333439 2847
Ġrelig ious
ĠrNgo g
Ġintang ible
audela ire
Chris tian
JohnRobert Bolton
Proble m
protest ant
ãģ®ãģ«ãģ ¤ãģĦãģ¦
ĠGeorgeKou rounis
Ġacade my
Ġï¼ĳï¼ĳï¼ĵï¼ķ ï¼ĸ
Stockhol m
Hidegard Diemberger
ĠHealth yfocus
ĠBiograph y
ãģ«ãģĬãģ ĳãĤĭ
ĠDeskt op
DonaldJohnTr ump
ĠÐĲÎ¡ Î¡
Ġ138939340 76
Columb ia
Kurukshetra War
normancos ins
MadhyaPrade sh
Bibliothe que
Duryodhan a
Mesopota mia
Nyayamukhari ka
Xaysom bounprovince
ĠNyÄģyapraveÅĽ atÄģka
ĠVishnuVarta k
ãĥĿãĥ³ãĥĨãĤŃãĤ ¹ãĥĪãģ®ãģ¨ãģĿãģ®
! âĢĿ
" à¼ĭ
" à¾ĩ
# âĢĿ
% "
' s
( (
( .)
) ;
) âĢĶâĢĶ
) âĢ¢
, )
, -
, ;
- ?
- ãĢĬ
. /
. \
. ãĢĤ
. ï¼Įï¼Į
. ãĢķ
. ï¼ĮãĢĤ
. ï¼Įï¼Įï¼Įï¼Į
. ),
. ï¼ĮãĢĤï¼ī
. ãĢĭ)
/ (
0 20
0 89
0 50
0 60
0 33
0 88
0 77
0 22
0 35
0 24
0 46
0 95
0 55
0 67
0 68
0 64
0 94
0 103
0 102
0 122
0 111
0 136
0 124
0 164
0 975
0 172
0 751
1 893
1 101
1 307
1 891
1 167
2 972
2 126
2 169
2 106
2 151
2 767
4 5832
4 663
5 207
5 463
5 774
5 773
6 20
6 89
6 75
6 70
6 11
6 88
6 28
6 27
6 46
6 45
6 82
6 87
6 31
6 101
6 257
6 961
6 309581
7 000
7 19
7 30
7 17
7 12
7 44
7 33
7 28
7 14
7 13
7 18
7 21
7 24
7 96
7 26
7 95
7 85
7 99
7 48
7 84
7 43
7 91
7 451
8 201
8 97
8 30
8 66
8 14
8 34
8 31
8 37
8 39
8 501
8 667
9 20
9 12
9 50
9 25
9 93
9 42
9 893
9 894
9 975
9 259
9 903
: Â·
; )
; ï¼ī
? ]
@ ?
@ @
A a
A s
A BC
A ry
A mi
A ler
A NG
A pr
A cademic
B E
B l
B m
B z
B or
B el
B as
B ac
B ill
B SA
B ou
B ook
B elle
B Br
B ank
B riti
B fc
B OT
B uddhist
B audelaire
C K
C X
C u
C PT
C az
C lin
C ome
C leveland
C BER
C AMS
D or
D ay
D ec
D VD
D EL
D ick
D otson
D ual
D elph
D ost
D iane
D aniel
D ictionary
D ART
D ubai
E C
E P
E X
E l
E u
E ng
E nd
E mm
E AS
E MS
E mmanu
E rik
E thn
E gypt
F L
F S
F X
F or
F und
F ood
F IA
F HC
F iction
F ont
F able
F lorida
G L
G M
G N
G t
G er
G ra
G ri
G ros
G ran
G ary
G IS
G PS
G EN
G DA
G AV
G mail
G ame
G rc
G rammar
G yam
G CS
G bit
G lobal
G EF
G usta
G yatso
G alen
H Q
H el
H at
H od
H ist
H ill
H IS
H ome
H ua
H imala
H ouston
H oustonRockets
H coV
I O
I b
I wa
I ran
I AC
I MA
I GO
I tal
J P
J e
J en
J es
J ous
J AV
J up
J anuary
J HQ
K S
K W
K e
K en
K of
K is
K un
K ir
K ey
K EL
K indle
K oros
L B
L G
L J
L U
L V
L Y
L ang
L al
L un
L am
L at
L ok
L ine
L ew
L ug
L IS
L au
L oma
L IN
L ancey
M M
M U
M b
M an
M or
M el
M ur
M um
M as
M pa
M BA
M oh
M NG
M atch
M icha
M oll
M ET
M iller
M bs
M etro
N K
N T
N X
N ay
N TS
N CR
N SI
N orbu
N orth
N ational
N epal
O c
O h
O r
O ur
O ed
O cm
O PPO
O reg
O rigin
P D
P V
P Y
P or
P et
P us
P ag
P ala
P ort
P eter
P lugin
Q N
Q S
Q c
Q t
Q BA
Q XzQ
Q DQz
R S
R T
R b
R es
R os
R TS
R ichar
R ice
R onaldo
S K
S m
S w
S un
S um
S om
S ud
S ob
S TE
S ong
S und
S ara
S use
S cha
S wit
S UV
S onia
S ource
S isy
S Qt
T N
T R
T on
T or
T ra
T ro
T nd
T ous
T FC
T IM
T rans
T ensorFlow
T XT
T fFVf
T itle
T Player
T cf
U H
U d
U r
U ni
U DM
U FO
U UB
V V
V b
V d
V ol
V AR
V EN
V CD
V ista
V CT
V XzQ
V Gt
W F
W in
W ri
W ed
W ine
W IE
W ESG
W ater
X N
X a
X f
X EL
X fc
Y Z
Y a
Y am
Y ing
Y az
Y SB
Y AN
Y uri
Y ork
Z D
Z e
Z r
Z DA
] âĢľ
] ï¼Ī
a pp
a be
a the
a Df
a á¹ĩa
a Mer
b c
b k
b in
b as
b om
b É¤
b Ã¸
b od
b lin
b ann
b Ãło
b Vf
b Da
b ury
b log
b lack
b rag
b Bfc
c r
c z
c le
c en
c it
c um
c li
c ak
c OS
c ab
c qu
c tr
c ann
c Vf
c ast
c ano
d c
d m
d z
d ha
d on
d es
d un
d am
d Ã¸
d ard
d ÉĽ
d Äĵng
d ence
d ark
d ÊĲÉ¯
d Bm
e j
e k
e ke
f l
f s
f y
f in
f Äģ
f Ãº
f Ãłn
f ted
f px
f zb
f urt
f Tcf
g k
g l
g n
g ha
g or
g ic
g us
g Ã¡
g va
g son
g ÉĻ
g Ne
g ree
g nes
g inia
h f
h n
h on
h or
h Çİ
h Ãłn
h man
h istory
h ere
h ost
i sa
i os
i mm
i Pay
i ppo
j c
j e
j q
j s
j y
j al
j ib
j ob
j uÃ©
j amts
j ose
k n
k al
k el
k É¯
k É¤
k id
k ey
k ong
k hwa
k ÉĻ
k now
k stra
l w
l ia
l ing
l ot
l ÃŃ
l ine
l Ã¡n
l lin
l ore
l ook
l ga
l iter
l ÇĶpÃłi
m A
m L
m es
m ut
m un
m Ã¹
m Äģn
m ca
m Ã©n
m eter
m zy
n t
n an
n is
n ter
n be
n Ã¨
n bo
n CoV
n by
n Ê¥a
o de
o va
o thi
p J
p k
p u
p er
p is
p ur
p Ãł
p Ã¸
p Ê°a
p lus
p ita
p les
p ira
p ace
p rc
p lish
p ÇĲn
q Ä«
q ori
r m
r s
r us
r Ã¹
r ÇĶ
r ence
r Df
r nell
r ussels
r je
s o
s v
s w
s co
s ta
s es
s el
s É¯
s ts
s Ãº
s og
s Åįng
s ov
s hai
s ystem
s ky
s che
s Ê±
s kr
s lers
t S
t x
t y
t ti
t sh
t or
t le
t and
t ma
t om
t ÃŃ
t Äģn
t Ê°a
t Åį
t ory
t fb
t Qc
u h
u ra
u it
u tion
u de
u ÇĲ
u ral
u ages
u ras
u inn
v L
v us
v ib
v ing
v yu
v ista
v yn
v ille
v posy
v ice
v ritti
w b
w i
w É¤
w Ãłn
w Ãłng
w ell
w are
w ald
w king
w fy
w rence
x u
x ia
x us
x Ä«
x ts
x ÇĲ
x Tillerson
y e
y i
y sh
y en
y Ã¡n
y Åį
y Ã²
y ush
y ear
y lan
y eva
y outh
y ndrome
z a
z o
z q
z x
z É¤
z net
z iz
z Ãłi
z ip
z Äģi
z fTcf
{ }
£ b
¥ ï½
¦ ïĢ
§ İ
® à¤£
¯ ï¼³
¯ ïķŃ
° à¤£
² Ð¾
³ ï¼ļ
µ Ï
¶ ï¼
¸ a
¸ ³ï¼ļ
¹ Â³
» )
¼ ïĸĶ
¼ ÐµÑĢ
Ã ¶
Ã £b
É ¸a
Ê ģ
Ì Ĭ
Î ³
Ï Ī
Ð °
Ð ½
à ¿
Ġ !
Ġ à¼ħ
Ġ à¼Ħà¼ħ
Ġ à¼Įà¼İ
Ġ an
Ġ ti
Ġ à¾ĥ
Ġ ia
Ġ re
Ġ ãģ
Ġ ak
Ġ ok
Ġ qu
Ġ Ê¦
Ġ ÉĻ
Ġ arti
Ġ 0003
Ġ qi
Ġ à¥
Ġ tag
Ġ _____
Ġ tibetan
Ġ ÏĦ
Ġ rab
Ġ Ê¦Ê°a
Ġ à¾Ī
Ġ Åĭa
Ġ xizang
Ġ Ïĥ
Ġ à¾ĭ
Ġ old
Ġ É¡É¯
Ġ ÏĪ
Ģ os
Ĥ à¤
ĥ âĢľ
Ĩ ï½
ī MNG
į )
į ïķ
İ ïĤ
ı ï½ķ
ĵ ï½Ķ
Ķ ï½īï½
Ļ ï½
Ľ Ðļ
à¼ĭ à½¼à¼ĭ
à¼ĭ à½´à¼ĭ
à¼ĭ à¼ĭà¼į
à¼ĭ à½¾
à¼ĭ à¾Ħ
à¼ĭ à¼Ħà¼İ
à¼ĭ à¼Ĳ
à¾ ī
à½¦ à½ĸà½ħ
à½¦ à½Ĥà½ŀ
à½¦ à½Ĥà½ı
à½¦ à½łà½Ľ
à½¦ à½ĸà½ŀ
à½¦ à½ģà½Ħ
à½¦ à½ĸà½Ģ
à½¦ à½¡à½Ħ
à½¦ à½łà½ļ
à½¦ à½ĺà½ĳ
à½¦ à½Ĥà½¦à½£
à½¦ à½Ĥà½ĳ
à½¦ à½ĺà½Ľà½ĳ
à½¦ à½Ĥà½¤
à½¦ à½ĺà½ļà½ĵ
à½¦ à½ĸà½ĳà½Ĥ
à½¦ à½Ĥà½¢
à½¦ à½Ĳà½ĵ
à½¦ à½Ģà½Ħ
à½¦ à½Ķà½łà½Ħ
à½¦ à½Ļà½ĵ
à½¦ à½ª
à½Ĥ à½ĸà½ħà½¦
à½Ĥ à½ĺà½ł
à½Ĥ à½ĸà½Łà½Ħ
à½Ĥ à½¢à½ĸà½¦
à½Ĥ à½ĺà½Ľà½ĳ
à½Ĥ à½ĸà½ŀà½Ĥ
à½Ĥ à½Ĥà½¢
à½Ĥ à½łà½ĸà½ĸ
à½Ĥ à½ĸà½£
à½Ĥ à½ļà½Ĥà½¦
à½Ĥ à½Ģà½¢
à½Ĥ à½Ĥà½ĳà½ĵ
à½Ĥ à½§à½ĵ
à½Ĥ à½ĺà½Ľà½ł
à½Ĥ à½ķà½ĸ
à½Ĥ à½ĺà½Ħà½Ĥà½¦
à½Ĥ à½Ĳà½£
à½Ĥ à½Ĥà½ŀà½¦
à½Ĥ à½Ĥà½¦à½ĵ
à½Ĥ à½ĸà½¦à½Ĥà½¦
à½Ĥ à½¨à½ł
à½Ĥ à½§à½Ħ
à½Ĥ à½Ĥà½¤à½Ĥà½¦
à½Ĥ à½Ĳà½ĺ
à½Ĥ à½Ĥà½¡à½ł
à½Ĥ à½¨à½ĸ
à½² à½´
à½² à½´à¼ĭ
à½² à½±à¼ĭ
à½¼ à¾³
à½ĳ à½ĵà½¦
à½ĳ à½łà½Ľ
à½ĳ à½ĳà½ĸ
à½ĳ à½§
à½ĳ à½łà½Ĥà½ĵ
à½ĳ à½¤à½¢
à½ĳ à½ĵà½ĺà½¦
à½ĸ à½ķ
à½ĸ à½ĵà½¦
à½ĸ à½Ķà½ł
à½ĸ à½łà½ĳ
à½ĸ à½Ĥà½¦à½£
à½ĸ à½Ĥà½£
à½ĸ à½Ĩà½Ĥà½¦
à½ĸ à½ĸà½ħà½ł
à½ĸ à½Ĳà½¢
à½ĸ à½Ĩà½¢
à½ĸ à½Ĩà½Ĥ
à½ĸ à½Ħà½ł
à½ĸ à½ĵà½ł
à½ĸ à½Ĳà½Ĥà½¦
à½Ħ à½ĵà½Ħ
à½Ħ à½ıà½Ħ
à½Ħ à½£à½ĺ
à½Ħ à½Ĥà½ĵà½ĳ
à½Ħ à½Ĥà½¡
à½Ħ à½Ĥà½ıà½ĺ
à½Ħ à½Ģà½¢
à½Ħ à½ĵà½łà½Ħ
à½¢ à½ļ
à½¢ à½ħ
à½¢ à½ķ
à½¢ à½ĵà½¦
à½¢ à½łà½Ľ
à½¢ à½¡à½Ħ
à½¢ à½Ľ
à½¢ à½Ĥà½Ļ
à½¢ à½łà½Ĥà½ĵ
à½¢ à½ĺà½Ľ
à½¢ à½ĺà½¢
à½¢ à½Ĥà½¤
à½¢ à½ĳà½Ģà½ł
à½¢ à½ĳà½Ķà½¢
à½¢ à½¥
à½´ à½¼à¼ĭ
à½´ à½²à¼į
à½´ à¼ĳ
à½ĵ à½Ĥà½ŀ
à½ĵ à½Ļ
à½ĵ à½§
à½ĵ à½¨
à½ĵ à½ĺà½Ħ
à½ĵ à½ĺà½ģ
à½ĵ à½ļà½ĳ
à½ĵ à½£à½Ĥ
à½ĵ à½īà½ĺ
à½ĵ à½ĸà½¤à½ĳ
à½ĵ à½Ĥà½ĳ
à½ĵ à½łà½ĩà½Ĥà½¦
à½ĵ à½ĸà½ŀà½Ĥ
à½ĵ à½łà½ĸà½ĸ
à½ĵ à½ĳà½ĺà½¢
à½ĵ à½Ķà½łà½ĺ
à½ĵ à½Ķà½ĳ
à½ĵ à½ĺà½ļà½¢
à½ĵ à½ĳà½Ķà½Ħ
à¾± à¾±à½¼
à¾± à½±à¼į
à¾± à½±à½´
à¾± à½¾à¼į
à¾± à½±à½º
à½ł à½Ķà½ł
à½ł à½łà½Ĥ
à½ł à½łà½ĸ
à½ł à½łà½ģ
à½ł à½¤à½¢
à½ł à½łà½ļà½ĺ
à½ł à½ħà½¢
à½²à¼ĭ à¼Ķ
à½²à¼ĭ à¼ĭà¼ĭà¼ĭà¼ĭà¼ĭà¼ĭà¼ĭà¼ĭ
à½²à¼ĭ à¼ĭà¼ĭà¼ĭà¼ĭà¼ĭà¼ĭà¼ĭà¼ĭà¼ĭà¼ĭà¼ĭ
à½º à½¼
à½º à½¼à¼ĭ
à½º à½¾à¼ĭ
à½º à¼·à¼ĭ
à½º à¼½à¼¼
à½£ à½ĳà½ĺ
à½£ à½Ĥà½ĵà½¦
à½£ à½ĸà½Ł
à½£ à½ĸà½ĳ
à½£ à½¡à½Ħ
à½£ à½īà½ĺ
à½£ à½ļà½ĵ
à½£ à½ĸà½¦à½ĺ
à½£ à½Ĳà½ĸà½¦
à½£ à½ĳà½Ģà½¢
à½£ à½Ĳà½¢
à½£ à½łà½Ĥà½Ĥ
à½£ à½ĸà½Łà½ł
à½£ à½łà½ļà½ĺ
à½£ à½Ĩà½ĵ
à½£ à½©
à½ĺ à½ĳà½ĸ
à½ĺ à½ĵà½ĳ
à½ĺ à½ĸà½ıà½Ħ
à½ĺ à½ĸà½Łà½Ħ
à½ĺ à½Ģà½¢
à½ĺ à½īà½¢
à½ĺ à½ħà½¦
à¾² à¾°à¼ĭ
à½Ķ à½Ĳ
à½Ķ à½ĳà½ĺ
à½Ķ à½Ĥà½ħ
à½Ķ à½Ĥà½Ļ
à½Ķ à½ĳà½¢
à½Ķ à½ĸà½Ģà½ł
à½Ķ à½£à½ł
à½Ķ à½Ĭ
à½Ķ à½Į
à½Ķ à½ª
à½Ĥà½¦ à½ģ
à½Ĥà½¦ à½ĸà½¦
à½Ĥà½¦ à½ĵà½¦
à½Ĥà½¦ à½Ĥà½ŀ
à½Ĥà½¦ à½ĺà½Ħ
à½Ĥà½¦ à½Ĥà½ħ
à½Ĥà½¦ à½ıà½Ħ
à½Ĥà½¦ à½Ĥà½¦à½¢
à½Ĥà½¦ à½¡à½Ħ
à½Ĥà½¦ à½łà½Ĥà½ĵ
à½Ĥà½¦ à½Ĥà½¦à½£
à½Ĥà½¦ à½ĺà½Ĩ
à½Ĥà½¦ à½Ĥà½ŀà½ĵ
à½Ĥà½¦ à½ĳà½¢
à½Ĥà½¦ à½ĺà½Ľà½ĳ
à½Ĥà½¦ à½ĸà½ĳà½Ĥ
à½Ĥà½¦ à½ª
à½ģ à½ŀ
à½ģ à½ĳà½Ħ
à½ģ à½§
à½ģ à½¤à½¦
à½ģ à½Į
à½¼à¼ĭ à½²
à½¼à¼ĭ à¼Ķ
à½¼à¼ĭ à¼½à¼¼
à¾Ĵ à¼İ
à¾Ĵ à½»
à¾Ĵ à¾Ńà½²à¼ĭ
à½´à¼ĭ à¼ĭà¼ĭà¼ĭà¼ĭ
à½´à¼ĭ à¼ĭà¼ĭà¼ĭ
à½¡ à½Ļ
à½¡ à½Ĭ
à½¡ à½¨à½Ķ
à½Ģ à½ķ
à½Ģ à½ĵà½¦
à½Ģ à½¤
à½Ģ à½§
à½Ģ à½¨
à½Ģ à½ĸà½Ł
à½Ģ à½ĸà½ĳ
à½Ģ à½Ĥà½¡à½Ĥ
à½Ģ à½Ŀà½¢
à½ŀ à½Ħà½¦
à½ŀ à½ĸà½ĸà½¦
à½ļ à½ĵà½¦
à½ļ à½ĳà½Ĥà½ŀ
à½ĳà½Ħ à½ģ
à½ĳà½Ħ à½¡
à½ĳà½Ħ à½ī
à½ĳà½Ħ à½Ĥà½ī
à½ĳà½Ħ à½¡à½Ħ
à½ĳà½Ħ à½ĸà½ħà½¦
à½ĳà½Ħ à½Ĥà½Ļ
à½ĳà½Ħ à½ĺà½īà½ĺ
à½ĳà½Ħ à½£à½Ĥà½¦
à½ĳà½Ħ à½łà½Ĩà½ĺ
à½ĳà½Ħ à½Ĩà½ĸà½¦
à¾±à½²à¼ĭ à½º
à¾±à½²à¼ĭ à¼İ
à¾±à½²à¼ĭ à¼ĭà¼ĭà¼ĭà¼ĭ
à¾±à½²à¼ĭ à¼ĭà¼ĭà¼ĭ
à¾±à½²à¼ĭ à¼ĭà¼ĭà¼ĭà¼ĭà¼ĭ
à½ºà¼ĭ à½º
à½Ĳ à½ĵà½¦
à½Ĳ à½Ĥà½ŀ
à½Ĳ à½Ĥà½ī
à½Ĳ à½Ĥà½Ħ
à½Ĩ à½łà½ĳ
à½Ĩ à½Ĥà½Ħ
à½Ĩ à½Ĥà½£
à¾Ĵà¾± à½¼à¼į
à¾Ĵà¾± à¼¼
à½ĸà½¦ à½ĵ
à½ĸà½¦ à½ĵà½¦
à½ĸà½¦ à½łà½ĳ
à½ĸà½¦ à½łà½ĸ
à½ĸà½¦ à½Ķà½¢
à½ĸà½¦ à½Į
à¾Ĳ à¾Ĳ
à¾Ĳ à½±
à¾Ĳ à½¾
à¾Ĳ à½¿
à½ħ à½Ĥà½Ħà½ł
à½ı à½Ĥà½¦
à½ı à½Ħà½¦
à½ı à½ī
à½ı à½Ľ
à½ı à½¥
à¾Ł à¾Ģà¼ĭ
à¾Ł à¼·
à¾Ł à¼µ
à¾Ł à¼½à¼ĭ
à¾Ł à¾¼à¼į
à½ķ à½ĺà½¦
à½ķ à½Ĥà½¢
à½Ħà½¦ à½Ĥ
à½Ħà½¦ à½¢
à½Ħà½¦ à½ĵ
à½Ħà½¦ à½ĵà½¦
à½Ħà½¦ à½¤
à½Ħà½¦ à½łà½ĳ
à½Ħà½¦ à½ĳà½Ĥ
à½Ħà½¦ à½Ĥà½ĵà½¦
à½ĵà½¦ à½Ĥ
à½ĵà½¦ à½ĳ
à½ĵà½¦ à½ĺ
à½ĵà½¦ à½łà½ĳ
à½ĵà½¦ à½łà½ģ
à½ĵà½¦ à½ĳà½£
à½Ķà½ł à½Ĥ
à½Ķà½ł à½ł
à¾±à½¼ à½¾
à¾³ à¾³à¼ĭ
à¾³ à¾Ģà¼ĭ
à¾³ à½»
à¾³ à½±à½²
à¾³ à½½
à¾²à½´ à½´à¼ĭ
à¾²à½´ à½¾à¼į
à¾²à½´ à¼½à¼ĭ
à¾±à½º à½ºà½ºà½ºà½ºà¼ĭ
à½ī à½ĸà½¦
à½ī à½Ĥà½¢
à¾²à½² à½º
à¾²à½² à½±
à¾²à½² à¼½
à¾²à½² à¼Ķ
à½¤ à½ī
à½ĸà½¢ à½ī
à½ĸà½¢ à½Ļ
à¾²à½¼ à½¿
à¾±à½² à½²à½²à¼ĭ
à½łà½ĳ à½łà½¢
à¾¤ à¼İ
à¾¤ à½¼à¼İ
à¾¤ à¾Łà½²à¼ĭ
à½£à½¦ à½ĸ
à½£à½¦ à½ĺ
à½£à½¦ à½ģ
à½£à½¦ à½ĳà½Ħ
à½£à½¦ à½¤
à½£à½¦ à½£à½¦
à½£à½¦ à½ĳà½Ĥ
à½£à½¦ à½ĸà½Ł
à½£à½¦ à½ĸà½ı
à½łà½ĸ à½Ļà½ĵ
à½ĳà½Ĥ à½ĵ
à½ĳà½Ĥ à½ĺ
à½ĳà½Ĥ à½Ĥà½¦
à½ĳà½Ĥ à½¡
à½ĳà½Ĥ à½Ĩ
à½ĳà½Ĥ à½Ħà½¦
à½ĳà½Ĥ à½łà½ĳ
à½ĳà½Ĥ à½ĺà½ļ
à½ĳà½Ĥ à½ĺà½Ħ
à½ĳà½Ĥ à½ķà½ĵ
à½ĳà½Ĥ à½ĺà½ģà½¦
à½ĳà½Ĥ à½ıà½ĵ
à¾¡ à¾±à½¼
à¾¡ à¼į"
à¾¡ à½±à½ºà¼ĭ
à¾¡ à¾°à¼ĭ
à½ĺà½¦ à½Ĥ
à½ĺà½¦ à½ĳ
à½ĺà½¦ à½Ķ
à½ĺà½¦ à½ļ
à½ĺà½¦ à½Ķà½ł
à½ĺà½¦ à½łà½Ľ
à½ĺà½¦ à½Ĥà½ĵà½ĳ
à¾© "
à¾© à¼·à½ºà¼ĭ
à½ĸà½ħ à½ĸà½¦
à½Ĥà½ŀ à½Ĥà½ŀ
à½Ĥà½ŀ à½Ĥà½£
à¾Ĵà¾±à½´ à¾±
à¾Ĵà¾±à½´ à¾£
à¾Ĵà¾±à½´ à¼½
à¾±à½´ "
à¾±à½´ à¼į"
à¾±à½´ à½¿
à¾±à½´ à¼½à¼į
à½Ĥà½ı à½ĵà½ĵ
à¾£ à¾Ń
à¾£ à¼į"
à¾£ à½ºà¼İ
à½ĳà½ĺ à½ĸ
à½ĳà½ĺ à½Ĳ
à½Ķà½¢ à½ŀ
à½Ķà½¢ à½Ĳ
à½Ķà½¢ à½Ķà½¢
à¾Ķ à½ºà¼į
à¾Ķ à¾Ģà¼į
à¾Ķ à¾Ńà½º
à½Ļ à½Ħà½¦
à½Ļ à½ĵà½ĳ
à½Ļ à½¢à½ł
à½Ļ à½£à½ĳ
à½ĺà½Ĳ à½Ĥ
à½ĺà½Ĳ à½ĸ
à½ĺà½Ĳ à½ģ
à½łà½ķ à½Ĭ
à¾Ĳà¾±à½¼ à½º
à¾Ĺ à¼į
à¾Ĺ à½´à¼ĭ
à¾Ĺ à½²à¼į
à¾Ĺ à¾¦à½´
à¾Ĺ à¼µà½ºà¼ĭ
Ġà½¢ à½¢
à½ĺà½ļ à½ĵà½ĳ
à½ĺà½ļ à½ĵà½ĵ
à½§ à½Ķ
à½§ à½Ģ
à½§ à½łà½ĸ
à½§ à½łà½Ħ
à½§ à½¢à½£
Ġà½ĳ à½łà½ĸ
Ġà½ĳ à½Ģà½Ħ
à½¨ à½Ĳ
à½¨ à½ĩà½ĵ
à¾±à¼ĭ à¼İ
à¾±à¼ĭ à¼½
à¾· à¾²à½´à¼ĭ
à¾· à¼İ"
à¾· à¾Ģà¼ĭ
à¾· à¾±à¼į
à¾· à¼·
à¾· à¾²à¾Ģ
à¾· à¾Ńà½²à¼ĭ
à¾· à¾±à½¼à¼į
à¾· à½±à½¾à¼ĭ
à¾· à¾°à½²à¼ĭ
âĢ į
à½Ĥà½ĵà½¦ à½Ķ
à½Ĥà½ĵà½¦ à½Ģ
à½Ĥà½ĵà½¦ à½¤
à½Ĥà½ĵà½¦ à½Ĥà½¦à½¢
à½Ĥà½ĵà½¦ à½ĸà½ĸ
à¾Łà½¼ à¼į
à½ĵà½Ħ à½ĳ
à½ĵà½Ħ à½ĸ
à½ĵà½Ħ à½£
à½ĵà½Ħ à½łà½ģ
Ġà½£ à½Ģ
Ġà½£ à½łà½¢
à½ĺà½Ħ à½Ĭ
à½ĳà½Ķ à½ĸ
ĠâĢ ²
ĠâĢ ħ
à½ĸà½Ł à½ĺ
à¾Łà½º "
à½¢à½Ħ à½ł
à½¢à½Ħ à½£
à½łà½ĩ à½¦
à¾¨ à¾¨
à¾¨ à½ºà¼İ
à¾¨ à¾¨à½º
à¾¨ à¾¨à½±à¼ĭ
à½ģà½Ħ à½ĳà½Ħ
à½ģà½Ħ à½Ĩ
à½ģà½Ħ à½ĺà½ļà½ĵ
à½ĩ à½ĸ
à½ĩ à½£
à½ĩ à½ĸà½¦
à½ĩ à½Ĥà½¢
à½Ĥà½¦à½¢ à½łà½ĳ
à½Ĥà½¦à½¢ à½ĸà½ł
à½Ĥà½¦à½¢ à½Ĥà½ı
à¾²à¼ĭ "
à¾²à¼ĭ à¼İ
à¾Ļ à¾·à½²
à¾Ļ à¼·à½²
à½ĸà½Ģ à½ĺ
à½ĸà½Ģ à½Ĥà½ĳ
à¾Ķà½¼ à½¼à¼ĭ
Ġà½Ĥ à½Ľà½ĸ
à¾¦ à½¾
à¾¦ à¾¦à½º
à¾¦ à¾¦à½±
à½¡à½Ħ à½ĵ
à½¡à½Ħ à½Ĥà½¦
à½¡à½Ħ à½ŀ
à½¡à½Ħ à½ĳà½Ĥ
à½¡à½Ħ à½¡à½Ħ
à½ļà½ĳ à½ĳ
à½ļà½ĳ à½ı
à½ĳà½ĺà½Ħà½¦ à½ī
à½ĸà½¤ à½¦à½ĳ
à½ĸà½ħà½¦ à½£
à½Ķà½¦ à½ĺ
à½Ķà½¦ à½¤
à½£à½ĺ à½Ĥ
à½£à½ĺ à½¢
à½£à½ĺ à½£à½¦
à¾©à½¼ à¼į
Ġà½ĺ à½ĵà½Ħ
à¾« à¼İ
à¾« à¾Ģ
à¾« à½ºà¼İ
à½£à½Ĥ à½Ĥ
à½£à½Ĥ à½ĳà½Ħ
à½£à½Ĥ à½Ħà½¦
à½£à½Ĥ à½ĸà½¢
à½£à½Ĥ à½łà½ĸ
à½£à½Ĥ à½Ĥà½ŀ
à½£à½Ĥ à½Ļ
à½£à½Ĥ à½ĳà½ĸ
à½£à½Ĥ à½łà½ģ
à½£à½Ĥ à½ĳà½Ķ
à½£à½Ĥ à½¢à½Ħ
à½£à½Ĥ à½ĸà½Ģ
à½£à½Ĥ à½ļà½ĳ
à½£à½Ĥ à½ĵà½ĳ
à½£à½Ĥ à½¨à½Ħ
à½Ľ à½ĳ
à½Ľ à½ĵ
à½Ľ à½£
à½Ľ à½ĳà½Ħ
à½Ľ à½ī
Ġà½ĸ à½Ĳ
Ġà½ĸ à½ıà½ĵ
Ġà½ĸ à½İ
à¾Ń à½±à½²
à¾Ĳà½¼ à½¼à¼ĭ
à¾Ĳà½´ à½¿
à½łà½Ĳ à½£
à½Ĥà½Ļ à½¦
à½ĺà½īà½ĺ à½ĳ
à½ĺà½īà½ĺ à½£à½¦
à½ĺà½īà½ĺ à½łà½Ľ
à¾Ĳà¾²à½´ à½´
à¾Ĳà¾²à½´ à¼İ
à¾¡à½´ à¼į"
à¾¡à½´ à¼·
à½ĺà½Ľ à½Ħ
à½ĺà½Ľ à½ĵ
à½ģà½ĸ à½Ĥà½ī
Ġà½ŀ à½¦
Ġà½Ģ à½¨
ĠâĢĿ @
ĠâĢĿ ãĢĳ
ĠâĢĿ âĢĺ
ĠâĢĿ ....
ĠâĢĿ ......
à¾Ĵà½¼ à½²à¼ĭ
à½ģà½Ĥ à½łà½Ĥ
à½ģà½Ĥ à½¨
à½ģà½Ĥ à½łà½ģ
à½ģà½Ĥ à½łà½ĩ
à½ģà½Ĥ à½ĺà½īà½ĺ
à½ģà½Ĥ à½¤à½Ħ
à½ģà½Ĥ à½Ķà½Ĥà½¦
ĠãĢ į
ĠãĢ ļ
ĠãĢ Ŀ
ĠãĢ ŀ
à¾²à½¼à¼ĭ à¼ĭà¼ĭ
ĠâĢľ -
ĠâĢľ ""
ĠâĢľ --
ĠâĢľ ----
ĠâĢľ ãĢģãĢģãĢģ
ĠâĢľ ãĢĤâĢĿ
ĠâĢľ ãĢĬãĢĭãĢĬãĢĭ
ĠâĢľ ,,,,
ĠâĢľ /ãĢĤâĢĿ
ĠâĢľ -----âĢĿ
à½ĸà½¤à½ĳ à½¦
à½ĸà½¤à½ĳ à½ĳ
à½ĸà½¤à½ĳ à½ĳà½Ĥ
à¾Ĺà½º "
à¾Ĺà½º à½ºà¼ĭ
à½ħà½ĵ à½ĸ
à½ħà½ĵ à½ŀ
à½ħà½ĵ à½ķ
à½ħà½ĵ à½ĸà½ħà½¦
à½ļà½Ħ à½ĳ
à½ļà½Ħ à½ģ
Ġ2 974
Ġ2 973
à¾¡à½¼ à½²
à¾¡à½¼ à¼¼
à¾Ĳà¾± à¼İ
à¾Ĳà¾± à¼¼
à¾Ĳà¾± à¼µ
à¾Ĳà¾± à¼·à½¼
à½ĸà½ıà½Ħ à½£
à½ĸà½ıà½Ħ à½ĵà½¦
à¾«à½¼ à½¼
Ġà½¡ à½Ĥà½¦
à¾Ķà¼ĭ à¼İ
à¾³à½² "
à¾³à½² à¼į
à¾Ĵà¾²à½´ à½´
à½ĺà½Ĥ à½¨
à½± à¼į"
à½± à¾·à¼ĭ
à½± à½¼à¼İ
à½± à¼¼
à½± à½¼à½¼à¼ĭ
à½± à¼µà¼ĭ
à½± à½¾à¼į
à½± à¾Ģà¼į
à½± à¾ĥà¼½
à½Ĳà½Ħ à½£
à½ĸà½¦à½ĺ à½Ĥà½ŀ
à½łà½Ĩ à½¢à½ĸà½¦
à½ĸà½Ļ à½ĵà½ĳ
à½Ĳà½Ĥ à½ĳà½Ħ
à½Ĳà½Ĥ à½Ĩ
à½Ĳà½Ĥ à½ķ
à½Ĳà½Ĥ à½¨
à½Ĳà½Ĥ à½Ŀ
à½Ĳà½Ĥ à½ĳà½¢
à½Ĥà½Ł à½Ħà½¦
à½Ĥà½¦à½£ à½Ķ
à½ĳà½Ķà½£ à½ĸ
à½ĳà½Ķà½£ à½ł
à½ĺà½ł à½¦
à½ĺà½ł à½ł
à½ķà½ĵ à½ĵ
à½ķà½ĵ à½ł
à½Ĥà½ĵ à½¡
à½ĸà½Łà½Ħ à½ĸ
à½ĸà½Łà½Ħ à½ŀ
à½ĸà½Łà½Ħ à½ı
à½ĸà½Łà½Ħ à½ĺà½Ĩ
à½Ĥà½ĵà½ĳ à½¦
à½¢à½ĸà½¦ à½Ĥà½ī
à½ĸà½ı à½ĺ
à½±à¼ĭ à¼¼à¼½
à½Ĥà½£ à½Ħ
à¾£à¼ĭ à½º
à½ĳà½ĺà½Ĥ à½¢
à½ĳà½ĺà½Ĥ à½ĺà½Ĳ
à½ĳà½ĺà½Ĥ à½ĳà½ĺà½Ħà½¦
à½ĳà½ĺà½Ĥ à½Ĳà½ł
à½Ĥà½ĳ à½¦
à½Ĥà½ĳ à½Ķà½¢
Ġà½ķ à½Ĥà½¦
Ġà½ķ à½łà½ĺ
à½ĺà½ģà½ĵ à½ıà½Ħ
à¾Łà½ºà¼ĭ à¼ĭà¼ĭ
Ġ20 44
Ġ20 77
Ġ20 34
Ġ20 38
Ġ20 87
Ġ20 31
Ġ20 37
Ġ20 43
Ġ20 91
Ġ20 56
Ġ20 54
Ġ20 51
Ġ20 73
Ġ20 79
Ġ20 894
Ġ20 278
Ġ20 843
Ġ20 984
Ġ20 556
à½ģà½ĺà½¦ à½ģ
à½Ĥà½ıà½ĵ à½ł
ĠãĢĭ ãĢĪ
ĠãĢĭ -----
Ġà½Ĩ à½łà½ĺ
à½łà½Ĩà½¢ à½£à½Ĥ
à¾¤à¾±à½² à¼İ
Ġà½ĳà½Ħ à½Ħ
Ġà½ĳà½Ħ à½¢
Ġà½ĳà½Ħ à½ĺà½ļ
Ġà½ĳà½Ħ à½Ĥà½ī
Ġà½Ĳ à½Ł
à½ĺà½¢ à½ĳ
à½ĺà½¢ à½Ķ
à½ĺà½¢ à½ĸà½¢
Ġà½ĺà½ļ à½ł
à½ĳà½Ĥà½ł à½ł
à½łà½ĩà½Ĥà½¦ à½Ģ
à½Ĥà½¡ à½Ĥà½¦
Ġà½Ł à½ł
ĠãĢĬ )
ĠãĢĬ ï¼Ī
ĠãĢĬ Â·
ĠãĢĬ âĢ¦âĢ¦
ĠãĢĬ ãĢģãĢģï¼ļ
à¾Ĺà½ºà¼ĭ à¼İ
ï¼ £
ï¼ ¦
ï¼ °
ï¼ ł
ï¼ ¥ï½
Ġà½Ħ à½łà½ĺ
à½ĳà½Ģà½¢ à½ĺà½Ľ
à¾±à½ºà¼ĭ à¼ĭ
00 3
00 97
00 30
00 14
00 13
00 18
00 21
00 26
00 84
00 43
00 57
00 79
00 103
00 139
00 140
00 221
00 5539
à¾Ĳà¾±à½² à½²à¼ĭ
à¾Ĳà¾±à½² à½º
à¾Ĳà¾±à½² à½ºà¼ĭ
à½ĺà½ļà½ĵ à½Ĥà½ĳ
Ġ3 970
Ġ3 309
Ġ3 444
Ġ3 333
Ġ3 202
Ġ3 929
à½ĸà½Ĥ à½ĸ
à½ĸà½Ĥ à½ĳà½Ħ
à¾¥ à¾±à½²à¼ĭ
à¾¥ à¾±à½¼
à¾¥ à½²à¼į
à¾ķ à½¼à¼ĭ
à¾ķ à¾Ģà¼ĭ
à¾Ĵà¾² "
à¾Ĵà¾² à½±à¼ĭ
à¾Ĵà¾² à¼¼
à¾Ĵà¾² à¾Ģ
à¾Ĵà¾² à½±à½ºà¼ĭ
Ġà½¨ à½Ļà½¢
Ġà½¨ à½ĺà½¢à½Ķ
à½Ĩà½Ĥà½¦ à½¦
Ġà½¢à½Ħ à½Ĥà½ŀà½ĵ
Ġà½łà½ĳ à½ĳ
Ġà½łà½ĳ à½ĺà½¦
à¾³à½´à¼ĭ à¼½
à¾³à½´à¼ĭ à¼¼
Ġà½ĵ à½ĸ
à¾©à½ºà¼ĭ à¼½
à½ĸà½ĳà½Ĥ à½ĳ
à½ĸà½ĳà½Ĥ à½¢
à½ĸà½ĳà½Ĥ à½ĳà½Ħà½¦
à¾¡à½º "
à¾¡à½º à½º
à¾¡à½º à½¿
à½Ĥà½ıà½ĺ à½£
Ġà½§ à½¦
à½¦à½¢ à½¦
à½¦à½¢ à½ĵ
à½ĸà½ŀà½Ĥ à½ł
à½ĸà½ŀà½Ĥ à½Ķ
à½ĸà½ŀà½Ĥ à½ĸà½¦
à½ĸà½ŀà½Ĥ à½ķ
à½ĸà½ŀà½Ĥ à½Ŀ
à¾·à½¼à¼ĭ à¼ĭ
à¾·à½¼à¼ĭ à¼İ
à½¡à½Ĥ à½Ģ
à½¡à½Ĥ à½ļ
à½¡à½Ĥ à½ĸà½ħ
à½¡à½Ĥ à½Ĳà½¢
Ġà½ĳà½Ķ à½Ĥà½¦
à½Ĥà½¢ à½ł
à½Ĥà½¢ à½¨
Ġï¼ °
Ġï¼ Ľ
Ġï¼ £ï¼
Ġï¼ ´ï¼
à½ĸà½ħà½ł à½ĺà½ģ
à½ıà½ĵ à½ıà½ĵ
Ġà½łà½ĸ à½Ħ
Ġà½łà½ĸ à½ĸà½¦
Ġ4 101
Ġ4 771
Ġ4 9058
Ġ4 126
Ġ4 202
Ġ4 281
Ġ4 891
Ġ4 138
Ġ4 180
Ġ4 663
Ġ( \
Ġ( ãĢģ
Ġ( ï¼İ
Ġ( ï¼Ł
Ġ( ï¼ı
Ġ( ïį
Ġ( %)
Ġ( -)
Ġ( .ï¼ī
Ġ( ïĤ
Ġ( âĢĮâĢĮ
Ġ5 333
Ġ5 973
Ġ5 123
Ġ5 295
Ġ5 109
Ġ5 113
Ġ5 863
Ġ5 777
Ġ5 271
Ġ5 934
à½¡à½¢ à½¦
Ġà½ħ à½¦
à¾Łà½´ à¼İ
à½ĵà½Ĥ à½ļ
à½ĵà½Ĥ à½ķ
à½ĵà½Ĥ à½Ħà½¦
à½ĵà½Ĥ à½ĩ
à½ĵà½Ĥ à½łà½ļ
à½Ħà½Ĥ à½ĸ
à½Ħà½Ĥ à½ĸà½¦
à¾¡à¼ĭ à¼½
à½ĺà½Ĳà½¢ à½£
à½ĺà½ĵ à½Ĭ
à½łà½Ĥà½Ĥ à½Ķ
à½łà½ĸà½ĸ à½ĸ
à½ĸà½ĸ à½£
à½ļà½ĸ à½ĳà½Ħ
Ġà½ĳà½Ĥ à½ĳ
Ġà½ĸà½¦ à½Ĭ
Ġ6 126
Ġ6 161
Ġ6 109
Ġ6 106
Ġ6 122
Ġ6 143
Ġ6 136
Ġ6 999
Ġ6 463
Ġ6 147
Ġ6 329305
Ġ7 160
Ġ7 328
Ġ7 139
Ġ7 256
Ġ7 154
Ġ7 368
Ġ) ï¼Ī
Ġ) âĢĶâĢĶ
Ġ) âĢ¦âĢ¦
20 200
20 28
20 90
20 34
20 31
20 49
à½ĸà½£ à½Ħà½¦
à¾©à½º à½ºà¼ĭ
à½ļà½Ĥà½¦ à½ĳà½Ħ
"" [
"" âĢ¦âĢ¦
à½ĳà½ĺà½¢ à½ŀ
Ġà½Ķ à½£
Ġà½Ķ à½£à½¦
Ġà½Ķ à½©
à½Ĩà½¢ à½¦
à½Ĩà½¢ à½ĳà½Ħ
à½Ĩà½¢ à½Ł
Ġà½ł à½£
à½¤à½¦ à½¤
Ġ8 201
Ġ8 309
Ġ8 976
Ġ8 333
Ġ8 202
Ġ8 155
Ġ8 891
Ġ8 160
Ġ8 162
Ġ8 131
Ġ8 134
Ġ8 449
Ġ8 176
Ġ8 373
Ġ8 182
Ġ8 181
Ġ8 372
Ġà½Ĥà½ŀ à½¢
Ġà½Ĥà½¦ à½ĺ
Ġà½Ĥà½¦ à½Ħà½¦
Ġ"" "
Ġ"" )
Ġ"" âĢ¦
Ġ"" ï¼Īï¼ī
Ġ"" ()
Ġ"" )"
Ġ"" îģĿ
à½łà½Ĥà½ł à½ĳà½Ħà½Ģ
à½łà½Ĥà½£ à½Ħ
à½łà½Ĥà½£ à½£à½łà½Ħ
Ġ9 89
Ġ9 45
Ġ9 38
Ġ9 31
Ġ9 974
Ġ9 101
Ġ9 333
Ġ9 160
Ġ9 138
Ġ9 336
Ġ9 125
Ġ9 863
Ġ9 371
Ġ9 355
Ġ9 237
Ġ9 361
Ġ9 327
Ġ9 282
Ġ9 245
Ġ9 892
Ġ9 778
Ġ9 451
Ġ10 200
Ġ10 974
Ġ10 101
Ġ10 62
Ġ10 177
Ġ10 108
Ġ10 193
Ġ10 868
Ġ10 779
âĢľ ï¼Įï¼Į
âĢľ ....
âĢľ ãĢĤâĢĿ
à¾¦à¾± à½´à¼ĭ
à¾¦à¾²à½º à¼į
à¼¡ à¼¡à¼łà¼ł
à¼¡ à¼¡à¼§à¼ł
à½ĵà½łà½Ħ à½¡
Ġ19 100
Ġ19 400
Ġ19 300
à½Ħà½ĵ à½ĸà½¢
à¼Į à¼İ"
à½ļà½£ à½ĳ
à½ļà½£ à½£
à½¨à½¢ à½ĺà½¢
à½ĸà½Ģà½Ĥ à½Ĩ
à½Ĳà½ĵ à½£
à½ĺà½ĩà½£ à½ĳ
Ġï¼Ī -
Ġï¼Ī ""
Ġï¼Ī âĢľâĢĿï¼ī
Ġï¼Ī /ï¼ī
Ġï¼Ī ãĢĬãĢĭãĢĬ
Ġï¼Ī âĢĶï¼ī
Ġà½Ĥà½ī à½¢
à½īà½ĵ à½ŀ
à¾¤à¾² à¼İ
Ġà½¡à½Ħ à½£
Ġà½¡à½Ħ à½§
à½Ĥà½ł à½ĸà½¢
à½Ĥà½ıà½ĳ à½¡
Ġà½Ĥà½ħ à½Ĥ
Ġï¼ī -
Ġï¼ī âĢĶ
Ġï¼ī âĢĺ
Ġï¼ī ï¼Īï¼ī
Ġ12 12
Ġ12 75
Ġ12 62
Ġ12 179
Ġ12 328
Ġ12 140
Ġ12 180
Ġ12 755
Ġ12 863
Ġ12 269
Ġ12 931
Ġ12 868
à½Ĥà½ŀà½Ĥ à½ĺ
à½Ĥà½ŀà½Ĥ à½ĸà½¢
à½Ĥà½ŀà½Ĥ à½ĳà½ĺà½Ħà½¦
Ġ11 29
Ġ11 74
Ġ11 2000
Ġ11 929
Ġ11 295
Ġ11 767
Ġ11 172
Ġ11 267
201 50
201 70
à½£à½ł à½ĵ
à½ģà½¢ à½Ĥ
à½ĺà½ĳà½ł à½£
Ġà½Ĥà½Ļ à½ĸ
à½ĳà½Ķà½ł à½Ħ
à½¡à½ł à½ł
Ġà½Ķà½¢ à½ı
âĳ ¼
à½İ à½ĺ
à½İ à½¤
à½İ à½Ĭ
à½İ à½¢à½ı
Ġà½łà½ĩ à½ĵ
à¼¢ à¼¡à¼©
à¼¢ à¼¡à¼¦
à¼¢ à¼¡à¼¨
à¼¢ à¼¡à¼¤à¼¥
à¼¢ à¼¢à¼©à¼ł
ĠÂ ¹Â³
à½Ĩà½Ĥ à½ĳà½Ĥ
à½Ĩà½Ĥ à½Ĥà½ĵà½¦
à½Ĩà½Ĥ à½£à½Ĥ
à½Ĩà½Ĥ à½Ĥà½¦à½£
Ġ15 200
Ġ15 25
Ġ15 44
Ġ15 28
Ġ15 34
Ġ15 23
Ġ15 98
Ġ15 82
Ġ15 47
Ġ15 369
Ġ15 352
Ġ15 894
Ġ15 238
Ġ15 443
à½Ĳà½ĺà½¦ à½ħà½ĳ
Ġà½ı à½Ģ
Ġà½ı à½łà½¢
à½¢à½Ĥ à½ĺà½ļ
à½¢à½Ĥ à½ĸà½ĳ
000 6
000 56
à½¢à½ĵ à½ĩ
à½¢à½ĵ à½Į
à¼¼ à¼į
à½Ħà½ł à½ĵ
Ġ13 28
Ġ13 77
Ġ13 82
Ġ13 160
Ġ13 336
Ġ13 755
Ġ13 659
Ġ13 340
Ġ13 773
Ġ13 964
Ġà½ĺà½Ľ à½ĺ
Ġ200 16
Ġ200 88
à¾¥à¼ĭ à¼ĭ
Ġ18 39
Ġ18 05
Ġ18 614
Ġ18 295
Ġ18 328
Ġ18 279
Ġ18 128
Ġ18 264
Ġà½ĸà½Ł à½ĵ
Ġà½ĸà½Ł à½Ħà½¦
Ġ17 888
Ġ17 104
Ġ17 157
Ġ17 759
à½īà½¢ à½¦
à½īà½¢ à½ģ
Ġ30 97
Ġ30 30
Ġ30 17
Ġ30 89
Ġ30 200
Ġ30 60
Ġ30 22
Ġ30 34
Ġ30 23
Ġ30 36
Ġ30 95
Ġ30 85
Ġ30 55
Ġ30 68
Ġ30 64
Ġ30 94
Ġ30 61
Ġ30 53
Ġ30 81
Ġ30 500
Ġ30 295
Ġ30 582
Ġà½ĳà½ĺ à½ĳ
à¾·à½² à½²à¼ĭ
Ġà½ĸà½ħ à½Ħ
à¾Ĳà¾±à½´ à½¼
à¾Ĳà¾±à½´ à¼¼
à¾¨à¾± à¾Ģà¼ĭ
Ġà½łà½Ľ à½Ĥ
Ġà½łà½Ľ à½Ħ
Ġà½łà½Ľ à½¢
Ġà½łà½Ľ à½Ĥà½¦
Ġ16 13
Ġ16 23
Ġ16 38
Ġ16 57
Ġ16 263
Ġ16 251
Ġ16 278
Ġ14 98
Ġ14 41
Ġ14 74
Ġ14 83
Ġ14 704
Ġ14 176
Ġ14 182
Ġ14 506
Ġ14 447
Ġ14 364
Ġ14 654
Ġ14 984
à¾¤à¾²à½´ à¼į
à½ĺà½ĳà½Ħà½¦ à½ŀ
ï¼ī )
ï¼ī âĢĶ
ï¼ī ãĢĤ
ï¼ī ï¼Ľ
à¾Ģ à½¾
à¾Ģ à½¾à¼ĭ
à½īà½Ĥ à½ĺ
à½Ķà½İ à½Ĩ
à¼ĭà¼ĭ à¾±
Ġà½łà½ļ à½£à½ĳ
97 70
97 37
97 107
97 1958
Ġà½Ŀ à½¦
Ġà½Ĥà½ĳ à½¦
Ġ25 25
Ġ25 14
Ġ25 13
Ġ25 18
Ġ25 34
Ġ25 76
Ġ25 85
Ġ25 49
Ġ25 37
Ġ25 63
Ġ25 333
Ġ25 56
Ġ25 03
Ġ25 04
Ġ25 51
Ġ25 72
Ġ25 09
Ġ25 400
Ġ25 500
Ġ25 352
Ġ25 765
à¼£ à¼¡à¼¢
à¼£ à¼¢à¼¡
à¼£ à¼¤à¼©
à¼£ à¼©à¼ł
à¼£ à¼¡à¼¢à¼¦
Ġ2015 1
âĢĿ ãĢĸ
âĢĶ ãĢĬ
âĢĶ âĢĵ
19 19
19 21
19 02
Ġ. ï¼ļãĢĬãĢĭ
ï¼Ī ãĢģãĢģãĢģãĢģãĢģ
Ġ24 32
Ġ24 22
Ġ24 18
Ġ24 92
Ġ24 76
Ġ24 27
Ġ24 29
Ġ24 36
Ġ24 95
Ġ24 49
Ġ24 63
Ġ24 74
Ġ24 59
Ġ24 03
Ġ24 04
Ġ24 52
Ġ24 08
Ġ24 604
Ġ24 441
Ġ24 702
à¼¢à¼ł à¼£
à¼¢à¼ł à¼¥à¼¨
à¼¢à¼ł à¼¦à¼¥
à¼¢à¼ł à¼¦à¼§
à¼¢à¼ł à¼¤à¼¥
à¼¢à¼ł à¼¦à¼¤
à¼¢à¼ł à¼©à¼¨
à¼¢à¼ł à¼§à¼£
à¼¢à¼ł à¼©à¼¥
à¼¢à¼ł à¼©à¼¦
Ġ2019 5
Ġ2019 091
Ġ100 58
Ġ100 13
Ġ100 22
Ġ100 26
Ġ21 10
Ġ21 12
Ġ21 89
Ġ21 16
Ġ21 25
Ġ21 88
Ġ21 28
Ġ21 14
Ġ21 77
Ġ21 24
Ġ21 23
Ġ21 40
Ġ21 27
Ġ21 46
Ġ21 38
Ġ21 39
Ġ21 67
Ġ21 68
Ġ21 64
Ġ21 53
Ġ21 04
Ġ21 52
Ġ21 71
Ġ21 170
Ġ21 894
Ġ21 305
Ġ21 683
à½ķà½Ĥ à½ĸ
à¾«à½´ à¼İ
Ġà½ĸà½ĳà½Ĥ à½Ĳ
à½ĳà½£ à½£
à½ĳà½£ à½Ķ
Ġ70 30
Ġ70 70
Ġ70 18
Ġ70 82
Ġ70 39
Ġ70 55
Ġ70 84
Ġ70 62
Ġ70 53
Ġ70 81
Ġ70 56
Ġ70 52
Ġ70 71
Ġ70 356
Ġ22 20
Ġ22 17
Ġ22 16
Ġ22 88
Ġ22 28
Ġ22 86
Ġ22 55
Ġ22 91
Ġ22 78
Ġ22 71
Ġ22 79
Ġ22 369
Ġ22 184
Ġ23 20
Ġ23 70
Ġ23 77
Ġ23 13
Ġ23 93
Ġ23 85
Ġ23 42
Ġ23 99
Ġ23 47
Ġ23 55
Ġ23 62
Ġ23 57
Ġ23 52
Ġ23 508
Ġ23 129
Ġ23 198
Ġ23 261
Ġ23 279
Ġ23 506
Ġ23 857
ĠÂ» )
ĠÂ» ï¼Īï¼ī
Ġ28 17
Ġ28 58
Ġ28 16
Ġ28 200
Ġ28 25
Ġ28 11
Ġ28 13
Ġ28 18
Ġ28 34
Ġ28 80
Ġ28 36
Ġ28 87
Ġ28 49
Ġ28 55
Ġ28 56
Ġ28 59
Ġ28 04
Ġ28 51
Ġ28 08
Ġ28 06
Ġ28 500
Ġ28 804
Ġ28 884
Ġ26 32
Ġ26 58
Ġ26 200
Ġ26 60
Ġ26 44
Ġ26 28
Ġ26 18
Ġ26 34
Ġ26 76
Ġ26 96
Ġ26 80
Ġ26 65
Ġ26 38
Ġ26 63
Ġ26 84
Ġ26 53
Ġ26 81
Ġ26 52
Ġ26 78
Ġ26 72
Ġ26 06
Ġ26 207
Ġ26 441
Ġ26 702
Ġ26 878
Ġ() /
Ġ() ï¹Ļ
à¼¥ à¼¡à¼ł
à¼¥ à¼¡à¼¥
à¼¥ à¼¦à¼ł
à¼¥ à¼¦à¼¥
à¼¤ à¼¡à¼©
à¼¤ à¼¢à¼łà¼ł
à¼¤ à¼§à¼ł
à¼¤ à¼¤à¼ł
à¼¤ à¼¥à¼¨
à¼¤ à¼£à¼§
à¼¤ à¼¥à¼¦
à¼¤ à¼¥à¼¥
Ġ50 17
Ġ50 70
Ġ50 14
Ġ50 90
Ġ50 23
Ġ50 68
Ġ50 259
Ġ50 587
à¾Ģà¼ĭ à½¾
à¼© à¼¡à¼¦
à¼© à¼¡à¼¥
à¼© à¼¢à¼¤
à¼© à¼¢à¼£
à¼© à¼£à¼£
à¼© à¼¢à¼¢
à¼© à¼¤à¼ł
à¼© à¼¨à¼ł
à¼© à¼¥à¼¦
à¼© à¼¥à¼¥
à¼© à¼£à¼©
à¼© à¼¤à¼¦
à¼© à¼¥à¼§
Ġ40 30
Ġ40 10
Ġ40 70
Ġ40 66
Ġ40 15
Ġ40 82
Ġ40 85
Ġ40 99
Ġ40 49
Ġ40 39
Ġ40 84
Ġ40 43
Ġ40 54
Ġ40 52
Ġ40 78
Ġ40 79
Ġ40 120
Ġ40 342
à¼¨ à¼¢à¼ł
à¼¨ à¼¡à¼ł
à¼¨ à¼¡à¼¡
à¼¨ à¼¡à¼¥
à¼¨ à¼£à¼ł
à¼¨ à¼¢à¼¥
à¼¨ à¼¦à¼ł
à¼¨ à¼¢à¼¡
à¼¨ à¼¨à¼ł
à¼¨ à¼£à¼¥
à¼¨ à¼£à¼¦
à¼¨ à¼¥à¼¤
à¼¨ à¼¤à¼¦
à¼¨ à¼¦à¼©
à¼¨ à¼¤à¼¡
à¼¨ à¼¡à¼¥à¼§
Ġ31 58
Ġ31 89
Ġ31 25
Ġ31 13
Ġ31 22
Ġ31 35
Ġ31 21
Ġ31 23
Ġ31 68
Ġ31 64
Ġ31 84
Ġ31 62
Ġ31 05
Ġ31 83
Ġ31 600
Ġ31 195
Ġ31 338
Ġ27 19
Ġ27 75
Ġ27 66
Ġ27 35
Ġ27 21
Ġ27 27
Ġ27 98
Ġ27 95
Ġ27 85
Ġ27 42
Ġ27 31
Ġ27 64
Ġ27 94
Ġ27 05
Ġ27 74
Ġ27 59
Ġ27 54
Ġ27 51
Ġ27 78
Ġ27 71
Ġ27 843
Ġ27 657
Ġ[ ?]
à¼§ à¼¡à¼¡
à¼§ à¼£à¼ł
à¼§ à¼¢à¼¡
à¼§ à¼¢à¼¢
à¼§ à¼¥à¼¨
à¼§ à¼¥à¼¡
Ġà½Ĥà½¤ à½ĳ
à¼Ķ à¼į
30 70
30 24
30 95
30 9058444
30 57
30 209
Ġà½łà½Ĳ à½Ħ
à¼¦ à¼¡à¼§
à¼¦ à¼£à¼ł
à¼¦ à¼¢à¼©
à¼¦ à¼¢à¼§
à¼¦ à¼£à¼£
à¼¦ à¼£à¼©
à¼¦ à¼¦à¼§
à¼¦ à¼¦à¼£
à¼¦ à¼¡à¼¦à¼¨
ĠãĢĭãĢĬ âĢ¢ãĢĭ
ĠÂ· Â·
ĠÂ· Â·Â·
à½ĸà½ŀà½ĳ à½¡
Ġà½ĸà½ł à½Ħ
Ġà½Ļ à½ĸà½¦
à½ĺà½£ à½¢
Ġ29 58
Ġ29 66
Ġ29 18
Ġ29 98
Ġ29 82
Ġ29 85
Ġ29 42
Ġ29 55
Ġ29 91
Ġ29 54
Ġ29 07
Ġ29 307
Ġ29 155
Ġ29 189
Ġ29 321
Ġ29 190
Ġ29 1010
Ġ60 32
Ġ60 50
Ġ60 70
Ġ60 24
Ġ60 96
Ġ60 95
Ġ60 38
Ġ60 49
Ġ60 43
Ġ60 79
Ġ60 500
10 17
10 25
10 33
10 88
10 93
10 96
10 29
10 73
Ġ198 00
Ġ198 10
Ġ198 51
à½Ĭ à½Ķ
Ġ0 20
Ġ0 893
Ġ0 81
Ġ0 895
Ġ0 894
Ġ0 371
Ġ0 506
Ġ0 507
Ġ0 501
Ġ0 892
Ġ0 896
à½ĺà½ī à½ĸ
Ġ] âĢĿ
ãĢģ âĢľâĢĿ
ãĢģ ãĢĤâĢĿ
ãĢģ ï¼ĮâĢĿ
ãĢģ ï¼Įï¼ļ
ãĢģ !âĢĻ
ãĢģ ï¼ĪãĢģãĢģãĢģï¼ī
32 000
32 47
32 61
à½Į à½Į
Ġà¼¼ à¼¼
à¼¡à¼© à¼¥
à¼¡à¼© à¼¤
à¼¡à¼© à¼¤à¼ł
à¼¡à¼© à¼£à¼¡
à½ĵà½ł à½Ħà½Ħ
17 89
17 16
17 60
17 44
17 70
17 21
17 24
17 96
17 36
17 98
17 85
17 49
17 68
17 84
17 94
17 53
17 56
17 02
17 79
17 09
12 10
12 60
12 98
12 95
12 47
12 48
12 43
12 74
12 81
12 71
12 119
12 328
12 301
12 337
12 306
Ġ2014 6
58 33
58 99
58 589
à½¾ à¼į"
à½¾ à¼Ķ
à½¾ à½¿
à¾Ĵà¼ĭ à½¼
Ġï ¸³ï¼ļ
ĠâĢĻ ()
16 00
16 66
16 13
16 93
16 85
16 47
16 64
16 84
16 05
16 83
16 56
16 52
16 07
16 79
16 008
200 905
50 22
Ġ80 70
Ġ80 68
Ġ80 64
Ġ80 59
Ġ80 281
Ġ80 356
Ġ80 308
Ġ80 881
Ġ80 754
60 9
60 12
60 31
60 104
ĠâĢĺ ï¼Į
Ġ2000 1
à½ĸà½ĵ à½£
à½łà½ĸà½Ĥ à½łà½ļ
Ġà½ĺà½ĩ à½¢
ĠâĢĶ âĢĿâĢľ
ĠâĢĶ âĢ¹
44 33
44 11
44 90
44 93
44 2211
Ġ300 5
ĠA E
ĠA P
ĠA V
ĠA nd
ĠA man
ĠA st
ĠA ss
ĠA MS
ĠA CT
ĠA bh
ĠA ust
ĠA pol
ĠA DO
ĠA rou
ĠA cademic
ĠA FL
ĠA NSI
ĠA gva
ĠA yush
Ġï¼Īï¼ī "
Ġï¼Īï¼ī (
33 33
33 41
ãĢĭ ï¼Īï¼ī
75 27
75 53
-- )
Ġ35 30
Ġ35 10
Ġ35 50
Ġ35 44
Ġ35 66
Ġ35 77
Ġ35 15
Ġ35 34
Ġ35 76
Ġ35 40
Ġ35 65
Ġ35 46
Ġ35 95
Ġ35 49
Ġ35 64
Ġ35 972
Ġ35 167
Ġ35 982
66 8
66 63
66 62
66 72
66 1994
66 199
66 523
11 000
11 97
11 12
11 89
11 33
11 88
11 47
11 48
11 41
ĠâĢĿâĢľ ï¼ĮâĢĿ
88 3
88 85
88 08
88 268
88 1010
88 85531
28 224
Ġà½ĳà½Ģ à½£
à½łà½Ĳà½Ĥ à½ĸ
à½łà½Ĳà½Ĥ à½łà½ķ
à½łà½Ĳà½Ĥ à½ĸà½Ł
Ġ45 60
Ġ45 22
Ġ45 40
Ġ45 45
Ġ45 48
Ġ45 62
Ġ45 767
Ġ45 261
Ġ90 94
Ġ90 59
Ġ90 52
Ġ90 680
14 16
14 25
14 66
14 18
14 35
14 96
14 29
14 36
14 38
14 55
14 02
14 71
ï¼ļ ï¼Ī
ï¼ļ ï¼Į
ï¼ļ ï¼Įï¼Į
ï¼ļ ï¼ĮãĢĤâĢĿ
Ġ500 1
13 000
13 97
13 10
13 17
13 89
13 16
13 70
13 90
13 93
13 96
13 65
13 99
13 55
13 54
90 4
90 25
90 84
90 54
90 132
à½ĺà½Ħà½£ à½ģ
à¼¡à¼ł à¼¡à¼¡
à¼¡à¼ł à¼¡à¼¦
à¼¡à¼ł à¼¥à¼¨
à¼¡à¼ł à¼©à¼ł
à¼¡à¼ł à¼¦à¼©
à¼¡à¼ł à¼©à¼©
à¼¡à¼ł à¼¥à¼§
à¼¡à¼ł à¼©à¼§
à¼¡à¼ł à¼¤à¼¨
à¼¡à¼ł à¼§à¼¦
à¼¡à¼ł à¼§à¼¢
à¼¡à¼ł à¼©à¼¦
à½Łà½Ĥ à½ģ
15 97
15 75
15 46
15 45
15 95
15 99
15 57
Ġ32 89
Ġ32 16
Ġ32 11
Ġ32 93
Ġ32 96
Ġ32 23
Ġ32 29
Ġ32 45
Ġ32 49
Ġ32 64
Ġ32 400
Ġ32 600
Ġ32 440
Ġ32 459
à¾ľ à½ºà¼ĭ
à¾ľ à½½
Ġ2012 1116
Ġ33 32
Ġ33 89
Ġ33 77
Ġ33 80
Ġ33 46
Ġ33 95
Ġ33 85
Ġ33 48
Ġ33 63
Ġ33 101
Ġ33 57
Ġ33 83
Ġ33 81
Ġ33 56
Ġ33 52
Ġ33 500
Ġ33 150
Ġ33 652
Ġ36 30
Ġ36 44
Ġ36 77
Ġ36 90
Ġ36 40
Ġ36 98
Ġ36 94
Ġ36 74
Ġ36 51
Ġ36 52
Ġ36 73
22 19
22 92
22 36
22 43
93 81
ĠP E
ĠP I
ĠP a
ĠP an
ĠP la
ĠP ers
ĠP ow
ĠP PI
ĠP eter
ĠP ET
ĠP sy
ĠP avel
ĠP rofess
ĠP ulse
18 19
18 32
18 17
18 28
18 77
18 21
18 40
18 42
18 47
18 49
18 43
18 74
18 78
18 73
18 106
âĢĶâĢĶ ""
âĢĶâĢĶ ãĢĬãĢĭ
âĢĶâĢĶ âĢľâĢĺ
ĠâĢ¦ ..
34 00
34 75
34 76
Ġ34 97
Ġ34 25
Ġ34 11
Ġ34 88
Ġ34 90
Ġ34 29
Ġ34 98
Ġ34 05
Ġ34 91
Ġ34 78
Ġ34 09
Ġ34 06
Ġ34 981
35 91
92 3
92 43
92 315
Ġ38 10
Ġ38 75
Ġ38 11
Ġ38 35
Ġ38 65
Ġ38 29
Ġ38 31
Ġ38 43
Ġ38 71
21 88
21 128
an ia
an om
an ji
an cy
an ley
an throp
Ġà½ĺà½ĳà½ł à½¦
24 58
24 365
ï¼ħ ï¼Ī
âĳł âĳ£
âĳł âĳ¦
à¾° à½¼à¼ĭ
à¾° à½¼à¼į
ĠâĢ¦âĢ¦ (
ĠâĢ¦âĢ¦ ..
ĠâĢľâĢĿ [
76 11
76 77
76 23
76 83
76 400
76 300
ï¼Į :
ï¼Į âĢĺâĢĻ
Ġ177 17
Ġ400 4
Ġ400 80
Ġ400 43
Ġ400 8885531
ï¹ į
96 2
96 24
96 57
96 71
23 12
23 123
23 155
23 153
ĠC H
ĠC U
ĠC or
ĠC oo
ĠC ri
ĠC op
ĠC li
ĠC ore
ĠC all
ĠC ult
ĠC SS
ĠC BD
ĠC BER
ĠC uck
ĠC urie
ĠC eler
à¼· à½²à¼İ
80 36
80 1992
80 104
80 390
Ġ195 53
à½» à½ºà¼ĭ
à½» à¼Ķ
à½» à½ºà½º
Ġ65 10
Ġ65 17
Ġ65 58
Ġ65 66
Ġ65 77
Ġ65 35
Ġ65 24
Ġ65 96
Ġ65 65
Ġ65 47
Ġ65 39
Ġ65 59
Ġ65 78
Ġ65 170
Ġ65 767
co f
co unt
Ġà¼¢ à¼£à¼ł
Ġà¼¢ à¼¢à¼¢
Ġà¼¢ à¼¦à¼¨
Ġà¼¢ à¼¦à¼©
Ġà¼¢ à¼¤à¼§
Ġà¼¢ à¼¤à¼£
Ġà¼¢ à¼£à¼łà¼łà¼ł
Ġà¼¢ à¼¡à¼£à¼ł
Ġà¼¢ à¼¢à¼¥à¼ł
Ġ37 19
Ġ37 30
Ġ37 10
Ġ37 60
Ġ37 33
Ġ37 70
Ġ37 15
Ġ37 93
Ġ37 24
Ġ37 27
Ġ37 38
Ġ37 86
Ġ37 31
Ġ37 94
Ġ37 188
Ġ37 198
Ġ37 1905
40 37
65 919
65 368
Ġ2011 10
Ġ55 20
Ġ55 30
Ġ55 12
Ġ55 90
Ġ55 15
Ġ55 45
Ġ55 36
Ġ55 42
Ġ55 39
Ġ55 41
Ġ55 53
Ġ55 72
Ġ55 300
Ġ55 114
Ġ55 943
âģµ Â¹
à¼¢à¼łà¼ł à¼łà¼ł
26 00
26 97
26 90
26 74
26 375
à¼ĭà¼¼ à¼Ħà¼į
Ġ95 76
Ġ95 65
Ġ95 46
Ġ95 99
Ġ95 48
Ġ95 37
Ġ95 974
Ġ95 61
Ġ95 6663
Ġ43 000
Ġ43 19
Ġ43 10
Ġ43 75
Ġ43 13
Ġ43 98
Ġ43 95
Ġ43 62
Ġ43 61
27 25
27 24
27 29
ĠãĢĭ( ãĢĬãĢĭ
ĠãĢĭ( ,,
ĠãĢĭ( ãĢĬãĢĭãĢĬ
Ġ39 20
Ġ39 16
Ġ39 28
Ġ39 13
Ġ39 95
Ġ39 85
Ġ39 86
Ġ39 84
Ġ39 56
Ġ39 195
Ġ39 302
Ġ39 943
Ġ75 000
Ġ75 97
Ġ75 10
Ġ75 17
Ġ75 60
Ġ75 66
Ġ75 77
Ġ75 18
Ġ75 92
Ġ75 21
Ġ75 49
Ġ75 37
Ġ75 59
Ġ75 643
29 49
ha va
ha gic
ha tma
Ġ- )
Ġ- ï¼ī
46 00
Ġ150 2
Ġ150 86
Ġ150 53
Ġ46 19
Ġ46 30
Ġ46 50
Ġ46 60
Ġ46 75
Ġ46 11
Ġ46 14
Ġ46 35
Ġ46 46
Ġ46 36
Ġ46 87
Ġ46 47
Ġ46 48
45 12
com plish
Ġ48 50
Ġ48 25
Ġ48 33
Ġ48 70
Ġ48 22
Ġ48 40
Ġ48 69
Ġ48 55
Ġ48 64
Ġ48 43
Ġ48 53
Ġ48 56
Ġ48 52
Ġ48 300
Ġ48 500
Ġà¼¡à¼© à¼¢à¼¨
Ġà¼¡à¼© à¼§à¼ł
Ġà¼¡à¼© à¼£à¼¢
Ġà¼¡à¼© à¼£à¼©
Ġà¼¡à¼© à¼¤à¼¥
Ġà¼¡à¼© à¼¤à¼¤
Ġà¼¡à¼© à¼§à¼¦
Ġà¼¡à¼© à¼łà¼¤
Ġà¼¡à¼© à¼łà¼§
Ġà¼¡à¼© à¼łà¼¢
Ġ120 77
Ġ120 87
Ġ120 302
Ġ120 768
Ġ56 20
Ġ56 25
Ġ56 21
Ġ56 98
Ġ56 87
Ġ56 99
Ġ56 48
Ġ56 49
Ġ56 39
Ġ56 873
Ġ44 30
Ġ44 12
Ġ44 92
Ġ44 24
Ġ44 23
Ġ44 80
Ġ44 29
Ġ44 36
Ġ44 82
Ġ44 700
Ġ44 134
98 17
98 16
98 67
98 72
Ġ47 000
Ġ47 30
Ġ47 12
Ġ47 16
Ġ47 14
Ġ47 92
Ġ47 36
Ġ47 31
Ġ47 94
in in
in er
in us
in ci
in bur
95 2
95 7
38 64
38 317
ĠG S
ĠG a
ĠG er
ĠG es
ĠG al
ĠG il
ĠG um
ĠG AA
ĠG ard
ĠG ran
ĠG ood
ĠG ilg
ĠG rammar
ĠG erman
ĠG AP
ĠG reen
ĠG onzalez
ĠG lobal
ĠG rand
ĠG uinn
à¼ĭà¼½ à¼İ
82 30
82 156
82 585
82 1822
82 20150
82 58589
Ġp a
Ġp k
Ġp ha
Ġp re
Ġp ors
Ġp ass
85 6
85 334
85 1003
85 76300
ĠâĴ Ĭ
ĠâĴ ĭ
ĠâĴ Į
ĠâĴ į
Â· ï¼Įï¼ļ
Ġ800 1
Ġ800 6
Ġ800 26
86 12
86 33
à¼¡à¼¢ à¼¢à¼£
à¼¡à¼¢ à¼łà¼łà¼ł
à¼¡à¼¢ à¼¦à¼¥
à¼¡à¼¢ à¼¥à¼¥
à¼¡à¼¢ à¼©à¼ł
à¼¡à¼¢ à¼¤à¼¦
à¼¡à¼¢ à¼¦à¼©
à¼¡à¼¢ à¼¤à¼¤
à¼¡à¼¢ à¼§à¼©
à¼¡à¼¢ à¼©à¼¢
à¼¡à¼¢ à¼§à¼¤
à¼¡à¼¢ à¼§à¼¥
à¼¡à¼¢ à¼¨à¼¨
à¼¡à¼¢ à¼¨à¼£
er x
er ab
er ras
er gus
99 17
99 33
99 11
99 13
99 15
Ġà½ĸà½¤ à½Ĥ
âĳ¢ âĳ¿
âĳ¢ âĳ¤âĳ¥
à½ģà½ĳ à½ł
47 96
ĠT A
ĠT M
ĠT Y
ĠT er
ĠT or
ĠT en
ĠT as
ĠT at
ĠT ak
ĠT ok
ĠT se
ĠT MA
ĠT ST
ĠT CC
ĠT oin
ĠT rans
ĠT EE
ĠT XT
ĠT itle
ĠT ih
ĠT arni
ĠT NT
ĠT TPlayer
ĠT jib
Ġ42 10
Ġ42 32
Ġ42 17
Ġ42 89
Ġ42 92
ĠB B
ĠB P
ĠB ar
ĠB oo
ĠB um
ĠB ord
ĠB lo
ĠB AS
ĠB ook
ĠB org
ĠB ox
ĠB ron
ĠB ira
ĠB OT
ĠB RD
ĠB KS
ĠB TR
ĠB russels
Ġà¼¡ à¼¡à¼¢
Ġà¼¡ à¼¡à¼©à¼ł
Ġà¼¡ à¼¡à¼łà¼¥
Ġà¼¡ à¼¡à¼£à¼¢
on ÃŃ
on ard
on ow
ï¼½ âĢĿ
ï¼½ Â«
Ġ41 000
Ġ41 30
ĠãĢĭï¼Ī )
ĠãĢĭï¼Ī âĢ¢ï¼ī
49 16
Ġà¼£ à¼¡à¼¥
Ġà¼£ à¼¨à¼ł
Ġà¼£ à¼¥à¼§
ĠS L
ĠS M
ĠS o
ĠS or
ĠS al
ĠS el
ĠS AM
ĠS ec
ĠS pen
ĠS ome
ĠS eg
ĠS now
ĠS ett
ĠS ui
ĠS EE
ĠS urface
ĠS nell
ĠS GL
ĠS WF
Ġï¹Ļ ãĢĬ
Ġï¹Ļ âĢ¢âĢ¢
Ġï¹Ļ ï¼Ł
37 40
Ġ57 12
Ġ57 89
Ġ57 60
Ġ57 70
Ġ57 11
Ġ57 93
Ġ57 82
Ġ57 47
Ġ57 934
Ġ54 30
Ġ54 75
Ġ54 15
Ġ54 92
Ġ54 76
Ġ54 65
Ġ54 86
Ġ54 99
Ġ54 965
Ġà½ĸà½Ģà½Ĥ à½ĸà½¢
Ġ155 4
Ġ155 30
Ġ155 90
Ġ155 97665541
Ġ155 486
55 41
67 3
67 4
67 8
67 9
Ġ58 000
Ġ58 30
Ġ58 16
Ġ58 25
Ġ58 75
Ġ58 70
Ġ58 28
Ġ58 40
Ġ58 42
970 366
Ġ110 50
Ġ110 39
Ġ110 63
Ġ110 507
Ġ85 20
Ġ85 75
Ġ85 96
Ġ85 47
Ġ85 49
Ġ85 43
Ġ85 76400
Ġ98 000
Ġ98 77
à¼¡à¼¤ à¼¡à¼¨
à¼¡à¼¤ à¼¢à¼¥
à¼¡à¼¤ à¼¢à¼¦
à¼¡à¼¤ à¼£à¼£
à¼¡à¼¤ à¼¢à¼¡
à¼¡à¼¤ à¼¥à¼§
à¼¡à¼¤ à¼¦à¼£
à¼¡à¼¤ à¼§à¼£
à¼¡à¼¤ à¼©à¼¦
à¼¡à¼¤ à¼©à¼£
à¼¡à¼¤ à¼¨à¼¦
68 19
68 21
Ġ52 10
Ġ52 13
Ġ52 90
Ġ52 92
Ġ52 96
Ġ52 440
Ġ99 90
Ġ99 40
Ġ99 46
Ġ53 000
Ġ53 50
Ġ53 77
Ġ53 80
Ġ53 99
Ġ53 1996
à¼¡à¼§ à¼¢à¼§
à¼¡à¼§ à¼¢à¼¢
à¼¡à¼§ à¼¤à¼ł
à¼¡à¼§ à¼¨à¼ł
à¼¡à¼§ à¼¥à¼¨
à¼¡à¼§ à¼¦à¼¥
à¼¡à¼§ à¼¤à¼©
à¼¡à¼§ à¼¥à¼©
à¼¡à¼§ à¼£à¼©
à¼¡à¼§ à¼¤à¼¥
à¼¡à¼§ à¼¤à¼¤
à¼¡à¼§ à¼§à¼©
à¼¡à¼§ à¼§à¼¦
à¼¡à¼§ à¼łà¼©
à¼¡à¼§ à¼¨à¼¢
à¼¡à¼§ à¼łà¼¤
à¼¡à¼§ à¼¨à¼£
Ġ74 20
Ġ74 60
Ġ74 75
Ġ74 70
Ġ74 13
Ġ74 23
Ġ74 98
Ġ74 139
Ġ74 140
Ġ74 383
Ġ74 580
Ġ74 185
Ġ49 20
Ġ49 000
Ġ49 32
Ġ49 50
Ġ49 25
Ġ49 44
Ġ49 80
Ġ49 47
Ġ49 128
Ġ49 474
ĠD B
ĠD V
ĠD f
ĠD ar
ĠD ia
ĠD ol
ĠD one
ĠD un
ĠD OM
ĠD ai
ĠD MA
ĠD ala
ĠD harma
ĠD HC
ĠD CS
ĠD ictionary
ĠD oud
ĠD isplay
5832 28
Ġ51 30
Ġ51 50
Ġ51 1998
Ġ51 1799
à¼¡à¼¦ à¼¡à¼¤
à¼¡à¼¦ à¼¡à¼¦
à¼¡à¼¦ à¼¡à¼£
à¼¡à¼¦ à¼¡à¼¥
à¼¡à¼¦ à¼¢à¼©
à¼¡à¼¦ à¼¦à¼ł
à¼¡à¼¦ à¼§à¼ł
à¼¡à¼¦ à¼¤à¼ł
à¼¡à¼¦ à¼¥à¼¤
à¼¡à¼¦ à¼¥à¼©
à¼¡à¼¦ à¼©à¼¢
à¼¡à¼¦ à¼¨à¼¡
à¼¡à¼¦ à¼łà¼¤
à¼¡à¼¦ à¼¨à¼¤
976 1
ĠâĢĶâĢĶ ""
Ġ? :
à¼¡à¼£ à¼¢à¼ł
à¼¡à¼£ à¼¡à¼ł
à¼¡à¼£ à¼¡à¼§
à¼¡à¼£ à¼¡à¼¦
à¼¡à¼£ à¼¡à¼£
à¼¡à¼£ à¼¢à¼¥
à¼¡à¼£ à¼§à¼ł
à¼¡à¼£ à¼¢à¼¢
à¼¡à¼£ à¼¨à¼ł
à¼¡à¼£ à¼£à¼¡
à¼¡à¼£ à¼¦à¼¥
à¼¡à¼£ à¼£à¼¦
à¼¡à¼£ à¼¥à¼¥
à¼¡à¼£ à¼£à¼©
à¼¡à¼£ à¼¤à¼¥
à¼¡à¼£ à¼¦à¼¢
à¼¡à¼£ à¼łà¼©
à¼¡à¼£ à¼¨à¼§
à¼¡à¼£ à¼©à¼¦
ï¼Ĳ ï¼ĺ
ï¼Ĳ ï¼ķ
à¼¡à¼¥ à¼¡
à¼¡à¼¥ à¼łà¼łà¼ł
à¼¡à¼¥ à¼¦à¼¨
à¼¡à¼¥ à¼¤à¼¦
à¼¡à¼¥ à¼¦à¼¤
à¼¡à¼¥ à¼§à¼¨
à¼¡à¼¥ à¼¥à¼¢
à¼¡à¼¥ à¼łà¼©
à¼¡à¼¥ à¼§à¼¥
à¼¡à¼¥ à¼©à¼¤
Ġ66 12
Ġ66 89
Ġ66 70
Ġ66 92
Ġ66 24
Ġ66 87
Ġ66 47
Ġ66 114
Ġ66 232
Ġ66 9025
Ġ..... .......
ĠI OS
ĠI con
ĠI tem
ĠI UCN
ĠI mp
ĠI book
ĠI mba
84 105
84 82156
84 85334
Ġï¼ļ ï¼Įï¼Į
Ġï¼ļ ""[
âĳ¤ âĳ¦
âĳ¤ âĳ©
94 98
94 320
ar h
ar v
ar ro
ar ak
ar tic
ar ie
ar ST
ar ning
ar gad
ar lung
ar cz
Ġ68 30
Ġ68 32
Ġ68 70
Ġ68 66
Ġ68 34
Ġ68 27
Ġ68 605
Ġ68 442
Ġ700 9
Ġ97 2
Ġ97 000
Ġ97 14
Ġ97 40
Ġ97 39
05 20
05 33
05 21
Ġ160 10
Ġ160 17
Ġ160 200
Ġ160 61
61 30209
Ġ67 20
Ġ67 70
Ġ67 28
Ġ67 13
Ġ67 21
Ġ67 46
Ġ67 86
à¼¡à¼¨ à¼©
à¼¡à¼¨ à¼§
à¼¡à¼¨ à¼¡à¼¢
à¼¡à¼¨ à¼¢à¼¨
à¼¡à¼¨ à¼¢à¼¥
à¼¡à¼¨ à¼¤à¼ł
à¼¡à¼¨ à¼£à¼¥
à¼¡à¼¨ à¼£à¼¡
à¼¡à¼¨ à¼¥à¼¥
à¼¡à¼¨ à¼¤à¼¢
à¼¡à¼¨ à¼£à¼¨
à¼¡à¼¨ à¼¤à¼¥
à¼¡à¼¨ à¼¦à¼¦
à¼¡à¼¨ à¼§à¼¨
à¼¡à¼¨ à¼©à¼¢
à¼¡à¼¨ à¼¨à¼§
à¼¡à¼¨ à¼łà¼¤
à¼¡à¼¨ à¼¨à¼¨
à¼¡à¼¨ à¼©à¼£
à¼¡à¼¨ à¼§à¼¥à¼¥
à¾±à¾Ģ à¼ĭà¼ĭ
ti er
ti fic
ti tu
ti pation
ti vat
ti stan
Ġà¼¤ à¼¢à¼ł
Ġà¼¤ à¼łà¼ł
Ġà¼¤ à¼£à¼¤
Ġà¼¤ à¼¦à¼¤
Ġà¼¤ à¼¤à¼¦à¼¤
Ġ62 97
Ġ62 70
Ġ62 90
Ġ62 143
Ġ62 604
la g
la h
la pa
la ká¹£
la Dor
à½¥ à½¦
à½¥ à½ĳ
à½¥ à½¢
à½¥ à½ĵ
à½¥ à½¡
à½¥ à½Ģ
à½¥ à½Ĭà½ł
à½¥ à½Ĭà½Ķ
ĠM A
ĠM W
ĠM u
ĠM us
ĠM ot
ĠM ed
ĠM ak
ĠM od
ĠM ock
ĠM ID
ĠM int
ĠM SN
ĠM odel
ĠM etz
ĠM OMA
ĠM ichigan
Ġ139 89
Ġ139 15
43 80390
Ġ72 10
Ġ72 44
Ġ72 33
Ġ72 13
sh go
sh Ã©
sh Ã¨
sh Äģn
sh Ã²
sh ÄĽ
sh Ã²u
sh ÇĴu
sh uÇĲ
01 10
01 44
01 0067
or en
or um
or ay
or ation
or ical
or ola
or bush
or nia
or ware
Ġ130 32
Ġ130 72
Ġ130 171
Ġ...... (
Ġ...... âĢĺ
Ġ81 16
Ġ81 44
Ġ81 1299
le d
le i
le an
le ba
le ans
le ctr
Ġ96 60
Ġ96 33
Ġ96 14
Ġ96 42
Ġ96 123
Ġ96 261
Ġ59 20
Ġ59 12
Ġ59 58
Ġ59 60
Ġ59 444
Ġ59 804
en th
en as
en tions
en ger
en we
en ces
en lei
91 32
Ġà¼¥ à¼łà¼łà¼ł
Ġ180 18
Ġ180 683
Ġ64 30
Ġ64 200
Ġ64 70
Ġ64 11
Ġ64 18
Ġ64 36
Ġ64 881
56 10
ĠâĢĿ( ï¼Įï¼Įï¼Įï¼Į
Ġ77 90
Ġ77 86
Ġ77 43
Ġ77 606
âĳ§ âĳ©
Ġ140 200
Ġ140 93
Ġ140 239
ĠW D
ĠW is
ĠW indo
ĠW TA
ĠW est
ĠW oll
ĠW WW
ĠW AP
ĠW alk
ĠW DB
ĠW ESG
ĠW TU
ĠW ashington
âĳ¨ âĳ¿
à¼£à¼ł à¼¢à¼ł
à¼£à¼ł à¼§
à¼£à¼ł à¼¡à¼£
à¼£à¼ł à¼¦à¼ł
à¼£à¼ł à¼¢à¼¢
à¼£à¼ł à¼£à¼¦
à¼£à¼ł à¼¥à¼¤
à¼£à¼ł à¼¥à¼¥
à¼£à¼ł à¼¥à¼©
à¼£à¼ł à¼¦à¼©
à¼£à¼ł à¼¤à¼¨
à¼£à¼ł à¼¦à¼£
à¼£à¼ł à¼¥à¼£
à¼£à¼ł à¼¦à¼¢
à¼£à¼ł à¼¥à¼¢
Ġ318 10
59 881010
Ġ71 19
Ġ71 44
Ġ71 326
Ġn ote
Ġn ames
Ġn anom
Ġ82 60
Ġ82 70
Ġ82 28
Ġ88 12
Ġ88 50
Ġ88 15
Ġ88 21
Ġ88 38
Ġ88 49
Ġ88 41
Ġ88 349
ãĢĤ ,,
Ġ63 20
Ġ63 75
Ġ63 88
03 97
Ġï¼» ï¼½
Ġ73 20
Ġ73 11
Ġ73 18
Ġ73 122
Ġ73 127
âĢĺ ]
âĢĺ ãĢģ!âĢĻ
54 75
54 65
54 38
Ġ83 88
Ġ83 77
Ġ76 77
Ġ76 82
Ġ86 20
Ġ86 58
Ġ86 50
Ġ86 14
Ġ86 24
Ġ86 86
Ġ86 99
Ġ1300 103
Ġ78 32
Ġ78 44
Ġ78 66
Ġ78 76
Ġ78 65
Ġ78 371
Ġ78 505
Ġ87 2
Ġ87 48
Ġ87 0000
07 2
07 98
oo sh
oo ing
oo mber
à¾ļ à½´à¼ĭ
à¾ļ à¼İ
à¾ļ à½±à¼ĭ
à¾ļ à¾Ģ
ï¼Įï¼Į )
ï¼Įï¼Į ãĢģãĢĤâĢĿ
ĠâĢĿï¼Ī ãĢĬ
ĠK C
ĠK F
ĠK op
ĠK im
ĠK ub
ĠK ai
ĠK atia
ĠK ushan
ĠK halkha
ĠK arl
Ġ93 30
Ġ93 32
Ġ93 60
Ġ93 44
Ġ93 88
Ġ93 951
78 29
Ġï¹ļ ãĢĭ
Ġï¹ļ ï¹Ļ
Ġà¼§ à¼¢
Ġà¼§ à¼§
Ġà¼§ à¼łà¼ł
Ġà¼§ à¼©à¼¨
Ġà¼¦ à¼¥à¼¨
Ġà¼¦ à¼§à¼§
Ġà¼¦ à¼§à¼¨
Ġà¼¦ à¼§à¼¦
Ġà¼¦ à¼©à¼¥
Ġ84 89
Ġ84 70
Ġ84 21
Ġ84 80
Ġ84 99
Ġ84 31
Ġ84 874
Ġ84 886
ĠE B
ĠE G
ĠE ric
ĠE ss
ĠE CM
ĠE MS
ĠE ST
ĠE EG
ĠE yrc
ĠE thn
ĠE nter
ĠE pis
ĠE lectr
âĳ© 11
à½ĳà½ĺà½¦ à½Ħ
Ġ1994 14
Ġ69 50
ï¼İ ãĢĬ
Ġ89 20
Ġ89 000
Ġ89 10
Ġ89 44
Ġ89 28
Ġ89 90
Ġ89 80
Ġ89 45
08 75
08 21
à¼¢à¼¨ à¼¥
à¼¢à¼¨ à¼¨
à¼¢à¼¨ à¼¡à¼©
à¼¢à¼¨ à¼¡à¼ł
à¼¢à¼¨ à¼¡à¼¤
à¼¢à¼¨ à¼¨à¼ł
à¼¢à¼¨ à¼¤à¼¨
à¼¢à¼¨ à¼łà¼¤
à¼¢à¼¨ à¼¨à¼¨
à¼¢à¼¨ à¼łà¼§
ta h
ta i
ta ire
ta jik
ĠL z
ĠL ang
ĠL and
ĠL os
ĠL ock
ĠL CD
ĠL HAASO
ĠL ond
ĠL urie
ĠL hepa
ĠL IGO
Ġ92 30
Ġ92 25
Ġ92 66
ww f
es ler
es day
es tris
es pira
à½´à¼¼ à¼½
ĠH O
ĠH Q
ĠH ow
ĠH ER
ĠH ug
ĠH ua
ĠH IT
ĠH all
ĠH IV
ĠH alk
ĠH uman
ĠH yrc
ĠH XN
et ang
et ina
et fli
et riev
Ġ79 20
Ġ79 30
Ġ79 10
Ġ79 88
Ġ79 47
Ġ79 251
ĠN O
ĠN om
ĠN ik
ĠN ine
ĠN GB
ĠN iv
ĠN ida
ĠN ath
ĠN GO
ĠN SF
ĠN iet
ĠN arra
ĠN etworks
ĠN okia
ĠN odel
ĠN PO
ĠN otes
ĠN iu
ĠN orbush
à¾ķà½² à¼į"
Ġ94 97
Ġ94 50
Ġ94 669
Ġ94 8036
à¼¢à¼¥ à¼¥
ia c
ãĢģãĢģ ãĢĤâĢĿ
Ġ170 6
Ġ170 85
ï¹Ļ ï¹ļ
à¼¢à¼© à¼¨
à¼¢à¼© à¼¥à¼¨
à¼¢à¼© à¼¤à¼¨
à¼¢à¼© à¼¦à¼¤
à¼¢à¼© à¼©à¼¨
à¼¢à¼© à¼©à¼¤
ĠâĢ¦âĢ¦âĢĿ (
Ġ350 1
Ġ350 16
Ġ350 63
Ġ350 2126
âĢľâĢĿ ï¼Įï¼ĮãĢĤâĢĿ
Ġ1800 9717
Ġ1800 97107
ra tes
ht k
ht oosh
of ia
of Russ
do m
do tibet
Ġà¼¡à¼ł à¼¡
Ġà¼¡à¼ł à¼£
Ġà¼¡à¼ł à¼¢à¼ł
Ġà¼¡à¼ł à¼¡à¼£
Ġà¼¡à¼ł à¼¢à¼§
Ġà¼¡à¼ł à¼¦à¼ł
Ġà¼¡à¼ł à¼¤à¼©
Ġà¼¡à¼ł à¼£à¼¨
Ġà¼¡à¼ł à¼¤à¼£
Ġà¼¡à¼ł à¼©à¼¢
Ġà¼¡à¼ł à¼¨à¼¡
Ġà¼¡à¼ł à¼¨à¼¥
Ġà¼¡à¼ł à¼§à¼¥
Ġà¼¡à¼ł à¼§à¼¡
Ġà¼¡à¼ł à¼¨à¼£
ĠãĢī ãĢĪ
Ġ91 50
09 92
à¾µ à¾±
à¾µ à¼İ
à¾µ à½±à¼ĭ
à¾µ à¾¨à½²à¼ĭ
à¾µ à½¿
sa m
sa o
sa ge
sa int
sa qori
te ad
te fli
te Book
te gor
te enth
Ġà¼¢à¼ł à¼¢
Ġà¼¢à¼ł à¼£
Ġà¼¢à¼ł à¼¤
Ġà¼¢à¼ł à¼¨
Ġà¼¢à¼ł à¼§
Ġà¼¢à¼ł à¼¥à¼ł
Ġà¼¢à¼ł à¼¤à¼ł
Ġà¼¢à¼ł à¼£à¼¡
Ġà¼¢à¼ł à¼£à¼¢
Ġà¼¢à¼ł à¼¦à¼¨
Ġà¼¢à¼ł à¼£à¼¨
Ġà¼¢à¼ł à¼¤à¼¥
Ġà¼¢à¼ł à¼¤à¼¨
Ġà¼¢à¼ł à¼¥à¼£
Ġà¼¢à¼ł à¼¤à¼¡
Ġà¼¨ à¼łà¼ł
Ġà¼¨ à¼£à¼£
à½²à¼¼ à¼½
Ġ105 000
Ġ105 91
06 11
06 15
Ġs un
Ġs ri
Ġs ub
Ġs ank
Ġs oul
Ġs ket
Ġs yndrome
Ġ220 2
Ġ220 3
Ġ220 4
2006 8576300
ĠF M
ĠF T
ĠF la
ĠF el
ĠF ed
ĠF IL
ĠF HC
ĠF BI
ĠF ont
ĠF razer
ĠF ication
ĠF IAP
ĠF LV
ĠF ergus
à¼¢à¼¤ à¼¡
à¼¢à¼¤ à¼¡à¼§
à¼¢à¼¤ à¼£à¼ł
à¼¢à¼¤ à¼¦à¼ł
à¼¢à¼¤ à¼¨à¼§
à¼¢à¼¤ à¼©à¼¦
à¾²à¾Ģ à¼İ
ang ag
ang da
is er
100 86
îĢ ¼
îĢ Į
à½ºà½º à½º
Ġ2035 7
ãĢĬãĢĭ (
ãĢĬãĢĭ ï¹ļ
al s
al ism
al Madrid
ro id
ro man
ro mi
ro ast
ro ach
Ġ250 75
à¼¢à¼¦ à¼¢
à¼¢à¼¦ à¼§
à¼¢à¼¦ à¼¦
à¼¢à¼¦ à¼¦à¼¨
us crip
us cum
Ġ108 00
Ġ108 89
Ġ108 35
Ġ108 334
à¼¢à¼£ à¼¤
à¼¢à¼£ à¼¨
à¼¢à¼£ à¼§
à¼¢à¼§ à¼¡
à¼¢à¼§ à¼¢
à¼¢à¼§ à¼ł
à¼¢à¼§ à¼¤
à¼¢à¼§ à¼¨
à¼¢à¼§ à¼©à¼¦
ch ia
ch ul
ch ed
ch os
ch Ã¡n
ch ology
ch ong
ch Äĵn
ch ester
ch Ã¡nd
ch rm
Ġ230 63
Äģ á¹ĩ
Äģ bhÄģ
Äģ hman
ĠãĢĬãĢĭ )
ĠãĢĬãĢĭ [
Ġï¼Ĵ ï¼ĵ
Ġï¼Ĵ ï¼Ĵï¼Ĳï¼Ĳ
el ung
ian o
ian ce
th ur
th ology
th orware
ya yan
ul um
ul iet
Ġà¼© à¼©
Ġà¼© à¼¦
Ġà¼© à¼¡à¼©
Ġà¼© à¼¦à¼¨
Ġ128 16
Ġ128 27
Ġïį ¦
Ġïį ´
Ġïį ·
Ġïį Ī
Ġïį Ŀ
Ġ115 11
Ġ115 14
Ġ115 65
Ġ115 346
Ġb la
Ġb ing
Ġb Ra
Ġb ali
à¼£à¼£ à¼¢
à¼£à¼£ à¼¦
à¼£à¼£ à¼§à¼¥
Ġâĳ¨ 1980
tp at
ĠR W
ĠR it
ĠR NA
ĠR ock
ĠR oma
ĠR edu
ĠR VR
ĠR MB
ĠR ect
ĠR onaldo
ĠR ashi
ĠR ankin
ĠR aymond
ĠR kong
ĠR etina
Ġ102 20
Ġ102 25
Ġ102 168
Ġ103 60
http www
xi i
xi Ãł
xi Çİ
xi Ãłn
xi Ã¡ng
xi ii
xi bu
xi Çİng
and um
and amp
Ġ114 22
Ġ114 99
ĠãĢģ ãĢĤ
ol mas
ol Ãºn
Ġ123 80
à¼§à¼ł à¼£
à¼§à¼ł à¼§à¼©
Ġpt b
ib re
Ġ104 00
Ġ104 50
Ġ104 80
Ġ104 27
Ġ104 321
Ġ104 1828
Ġ104 851003
Ġ280 18
Ġ280 4796
ï¼Ĵ ï¼ĸ
Ġ1600 00
it s
it z
it ra
it ch
it ory
Ġï¼Į ,
Ġï¼Į âĢľ
Ġï¼Į ï¼Įï¼Įï¼Įï¼Į
Ġï¼Į ï¼Łï¼Ł
Ġï¼Į âĢľâĢĿï¼Įï¼ĮãĢĤâĢĿ
Ġ450 1
Ġ450 2
Ġ450 9
Ġ317 162
ma g
ma k
ma x
ma tr
ma to
ma chine
ĠO C
ĠO L
ĠO k
ĠO ba
ĠO ir
ĠO rigin
ĠO lga
Ġà¼¡à¼¢ à¼©
Ġà¼¡à¼¢ à¼§
Ġà¼¡à¼¢ à¼łà¼ł
Ġà¼¡à¼¢ à¼¨à¼ł
Ġà¼¡à¼¢ à¼£à¼¥
Ġà¼¡à¼¢ à¼£à¼§
Ġà¼¡à¼¢ à¼£à¼¦
Ġà¼¡à¼¢ à¼¥à¼¤
Ġà¼¡à¼¢ à¼¦à¼¨
Ġà¼¡à¼¢ à¼©à¼§
Ġà¼¡à¼¢ à¼¤à¼¨
Ġà¼¡à¼¢ à¼§à¼¦
Ġà¼¡à¼¢ à¼¦à¼¡
Ġà¼¡à¼¢ à¼¨à¼£
Ġâ Ŀ
Ġ360 7
Ġ360 85
Ġ107 89
Ġ107 36
ut o
ut look
ĠV K
ĠV an
ĠV ol
ĠV AR
ĠV II
ĠV enu
ĠV inci
ur ity
Ġ106 15
Ġ106 82
Ġ116 00
Ġ116 000
Ġ116 13
Ġ116 872
Ġ117 66
Ġ117 83
Ġi phone
ĠU N
ĠU ber
ĠU FC
ĠU SE
ĠU rad
ĠU YT
ĠU bun
ĠU NESCO
ĠU TFC
ĠU cen
Ġ127 17
Ġ127 99
Ġ127 584
Ġ129 00
Ġ1976 2
Ãł sÃł
ĠãĢĪ ãĢĪ
ĠX M
ĠX R
ĠX ML
ĠX ZJ
ĠX UUB
ĠX YZ
one hen
il u
il ing
il li
il os
il ke
Ġ240 75
Ġ330 1
Ġ330 2
à¼¤à¼ł à¼¢
à¼¤à¼ł à¼¨
à¼¤à¼ł à¼§
à¼¤à¼ł à¼¦
Ġ112 17
Ġ112 75
Ġ112 35
Ġ112 131
à¼¨à¼ł à¼£à¼§
Ġ1950 7
shi ká¹£Äģ
shi Iwa
ĠJ en
ĠJ ep
ĠJ acques
ĠJ aco
ĠJ ung
ĠJ anuary
ĠJ ollyChic
ĠJ uliet
Ġ119 00
Ġ119 6651
Ph otoshop
pp oc
un a
ĠZ W
ĠZ ana
ĠZ hang
ĠZ uu
Ġ135 00
Ġ135 2949
Ġ260 96
Ġ260 63
Ġâħ ¨
Ġ210 30
Ġ210 26
Ġà¼¡à¼¤ à¼¡
Ġà¼¡à¼¤ à¼£
Ġà¼¡à¼¤ à¼¥
Ġà¼¡à¼¤ à¼łà¼ł
Ġà¼¡à¼¤ à¼¤à¼ł
Ġà¼¡à¼¤ à¼¥à¼¨
Ġà¼¡à¼¤ à¼£à¼¢
Ġà¼¡à¼¤ à¼¥à¼¤
Ġà¼¡à¼¤ à¼©à¼ł
Ġà¼¡à¼¤ à¼£à¼¨
Ġà¼¡à¼¤ à¼¥à¼£
Ġà¼¡à¼¤ à¼¤à¼¡
Ġà¼¡à¼¤ à¼¨à¼¡
Ġà¼¡à¼¤ à¼¨à¼¢
Ġà¼¡à¼¤ à¼łà¼¨
Ġïĳ ¥
Ġïĳ ³
Ġïĳ µ
Ġïĳ ļ
oy evsky
.... .
.... .âĢĿ
Ġla k
400 4
um e
um ÃŃng
um ents
Ġhttp www
ï¼Īï¼ī ï¼ļ
ï¼Īï¼ī ï¼Įï¼ĮãĢĤï¼ī
Ġà¼¡à¼£ à¼£
Ġà¼¡à¼£ à¼¨
Ġà¼¡à¼£ à¼¦
Ġà¼¡à¼£ à¼¢à¼§
Ġà¼¡à¼£ à¼§à¼ł
Ġà¼¡à¼£ à¼¥à¼¦
Ġà¼¡à¼£ à¼¤à¼¦
Ġà¼¡à¼£ à¼¦à¼©
Ġà¼¡à¼£ à¼¦à¼¤
Ġà¼¡à¼£ à¼§à¼£
Ġà¼¡à¼£ à¼¦à¼¡
Ġà¼¡à¼£ à¼§à¼¡
Ġà¼¡à¼£ à¼¨à¼§
Ġà¼¡à¼£ à¼łà¼¢
Ġ270 23
Ġ219 66
Ġ219 64
à¼£à¼¥ à¼©
à¼£à¼¥ à¼¢à¼¡à¼£
am y
am wa
am ir
re tic
re ich
re ader
re cia
ï¼ĮãĢĤ ï¼Įï¼Į
ï¼ĮãĢĤ ï¼Įï¼ĮãĢĤâĢĿ
ï¼ĮãĢĤ ãĢģãĢģãĢĤâĢĿ
Ġà¼¡à¼¦ à¼£
Ġà¼¡à¼¦ à¼¢à¼ł
Ġà¼¡à¼¦ à¼¡à¼©
Ġà¼¡à¼¦ à¼¡à¼£
Ġà¼¡à¼¦ à¼¡à¼¨
Ġà¼¡à¼¦ à¼¥à¼ł
Ġà¼¡à¼¦ à¼¢à¼¡
Ġà¼¡à¼¦ à¼£à¼¡
Ġà¼¡à¼¦ à¼¥à¼¨
Ġà¼¡à¼¦ à¼¥à¼¤
Ġà¼¡à¼¦ à¼©à¼ł
Ġà¼¡à¼¦ à¼¤à¼¢
Ġà¼¡à¼¦ à¼¦à¼§
Ġà¼¡à¼¦ à¼¤à¼¥
Ġà¼¡à¼¦ à¼©à¼©
Ġà¼¡à¼¦ à¼¤à¼£
Ġà¼¡à¼¦ à¼§à¼¨
Ġà¼¡à¼¦ à¼¥à¼¢
Ġà¼¡à¼¦ à¼§à¼¤
Ġà¼¡à¼¦ à¼¨à¼¡
Ġà¼¡à¼¦ à¼¨à¼©
ĠãĢĲ ãĢĳ
Ġà¼¡à¼§ à¼¢à¼ł
Ġà¼¡à¼§ à¼©
Ġà¼¡à¼§ à¼¢à¼¤
Ġà¼¡à¼§ à¼¨à¼ł
Ġà¼¡à¼§ à¼¦à¼§
Ġà¼¡à¼§ à¼©à¼¢
Ġà¼¡à¼§ à¼§à¼¢
Ġà¼¡à¼§ à¼©à¼¡
âĢĻ âĢĿ
âĢĻ âĢĺâĢĻ
pe da
ï¼ĺ ï¼Ĵ
ï¼ĺ ï¼ĺ
ï¼ĺ ï¼Ĺ
Ġ138 000
Ġ138 50
Ġ138 975
ri e
ï¼ķ ï¼ĺ
ï¼ķ ï¼Ĺ
Ġ216 99
à½łà½¦ à½Ĳà½ĳ
Ġ122 97
Ġ152 30
Ġ152 15
Ġ152 971958
as tic
as cript
ï¼ĵ ï¼Ĳ
ï¼ĵ ï¼ĵ
ing h
ing er
ing pict
Ġsul pha
Ġt ob
Ġt est
Ġt Éķa
Ġt rans
Ġt set
Ġt inted
Ġà¼Ī "
PE T
PE TER
à½±à½¿ à¼½
Ġ190 16
âĢ¦âĢ¦ âĢĿ
ĠiPhone SE
Ġïĵ ¤
Ġïĵ ĺ
ï¼Ļ ï¼Ĵ
ï¼Ļ ï¼Ļ
Ġï¼ĵ ï¼Ĵï¼Ĳï¼Ĳ
Ġ650 1
Ġ650 6
à¼¡à¼łà¼ł à¼¨
à¼¡à¼łà¼ł à¼§
Ġà¼¡à¼¨ à¼£
Ġà¼¡à¼¨ à¼©
Ġà¼¡à¼¨ à¼¢à¼©
Ġà¼¡à¼¨ à¼§à¼ł
Ġà¼¡à¼¨ à¼¤à¼ł
Ġà¼¡à¼¨ à¼¨à¼ł
Ġà¼¡à¼¨ à¼£à¼¥
Ġà¼¡à¼¨ à¼¥à¼¦
Ġà¼¡à¼¨ à¼§à¼©
Ġà¼¡à¼¨ à¼łà¼©
Ġà¼¡à¼¨ à¼¨à¼¦
op hy
op her
go gy
Ġ213 77
Ġï¹Ļï¹ļ ï¹Ļ
Ġ113 13
Ġ420 5
Ġ420 7
Ġ420 9
ers burg
ers tand
123 16
123 77
123 18
de v
de va
de pen
de jong
de orum
de alism
ĠâĢľï¼Į âĢĺâĢĻ
ĠâĢľï¼Į ãĢģãĢĤ
ĠâĢľï¼Į ï¼ļï¼ĮãĢĤâĢĿ
Ġ175 00
Ġ550 5
Ġ550 9084
Ġ147 30
Ġ147 33
Ġ147 34
Ġ147 21
à¼¤à¼© à¼¢
à¾Ħ à¼į
Ġ134 77
Ġ134 35
ac co
ac har
Ġ214 19
Ġ214 92
ter y
Ġ131 58
Ġ136 000
Ġ136 607
âĴĦ âĴħ
âĴĦ âĴĩ
Ġ750 3
Ġ750 9
à¼£à¼§ à¼£
à¼£à¼§ à¼©
à¼£à¼§ à¼¦
à¼£à¼§ à¼łà¼ł
à¼£à¼§ à¼§à¼¥
Ġïĸ ¦
Ġïĸ ¼
Ġïĸ ¿
Ġïĸ Ĥ
Ġïĸ Ĺ
ãī Ļ
Ġà½¦à½ĺ à½¡à½¨à½Ķ
à¼£à¼¤ à¼¥
à¼£à¼¤ à¼¦
à¼£à¼¤ à¼¡à¼ł
ni co
ni Ãº
ni fer
ï¼Ĺ ï¼Ĵ
ï¼Ĺ ï¼ĸ
Ġ165 90
à¼£à¼¦ à¼¢
à¼£à¼¦ à¼£
à¼£à¼¦ à¼©
ge ment
ot ter
Ġ144 20
Ġ189 33
Ġ189 45
Ġ189 974
Ġ189 583
at ar
at or
at us
at re
Ġ137 41
Ġ137 346
Ġ185 20
Ġ185 18
Ġ185 65
Ġ167 00
Ġ215 58
à¼¥à¼¤ à¼¢
à¼¥à¼¦ à¼£
Ġ204 97
Ġ121 10
Ġ168 20
Ġ168 26
à¼©à¼ł à¼£
ĠãĢĤ "
ĠãĢĤ [
ĠãĢĤ ï¼Į
ĠãĢĤ ãĢĤ
Ġï¼Ķ ï¼Ĵ
Ġ430 64
à¼¥à¼© à¼©
à¼¥à¼© à¼¥à¼¨
à¼¦à¼¨ à¼¥
Ġà¼¡à¼¡ à¼¡à¼§
li G
li fe
li cof
Ġc amp
Ġc urric
à¾´ à½ºà¼ĭ
Ġà¼¡à¼¥ à¼¡
Ġà¼¡à¼¥ à¼§
Ġà¼¡à¼¥ à¼¡à¼¨
Ġà¼¡à¼¥ à¼¢à¼¤
Ġà¼¡à¼¥ à¼¥à¼¤
Ġà¼¡à¼¥ à¼£à¼¨
ed s
ed en
om ic
Ã¡ ish
É¤ ËĢ
Ġ370 2
Ġ370 5
Ġï¼ķ ï¼Ļ
Ġï¼ķ ï¼Ķ
Ġï¼ķ ï¼ĸ
Ġï¼ķ ï¼ĳ
Ġ340 34
ĠTib J
nd Êĳ
nd Êĳa
Éķ o
Éķ u
Éķ É¯
ï¼Ķ ï¼ĵ
ï¼Ķ ï¼ĸ
à¼£à¼© à¼¢
à¼£à¼© à¼¥
à¼£à¼© à¼©
à¼£à¼© à¼¨
à¼£à¼© à¼¥à¼ł
Ġà¼Ķ à¼Ķ
Ġ142 28
Ġ157 60
Ġ166 00
pa int
pa tajik
Ġ375 6
Ġ375 00
à¼£à¼¨ à¼¥
à¼£à¼¨ à¼©
à¼¦à¼§ à¼§
à¼¦à¼§ à¼łà¼łà¼ł
Ġ390 2
Ġ390 6
Ġ390 9
Ġ460 1
Ġ460 491
ï½ Ī
ï½ ĳ
ï½ ĺ
ï½ Ľ
à¼¤à¼¦ à¼¢
à¼¤à¼¦ à¼¦
à¼¤à¼¦ à¼łà¼ł
Ġà¼£à¼ł à¼¥
be Jous
ud p
ud un
ud Ãło
ÃŃ n
Ê¨ É¤
Ê¨ Ê°a
Ġ146 60
à¼¦à¼© à¼£
à¼¦à¼© à¼§
à¼¦à¼© à¼łà¼ł
à¼¦à¼© à¼¨à¼¨
Ġ153 00
Ġ153 12
ord on
lo go
lo ka
lo gue
lo khwa
Ġ234 32
Ġ234 26
Ġe xt
Ġe mail
Ġe pub
à¾ŀ à½±à¼ĭ
ï¼ĸ ï¼ķ
ï¼ĸ ï¼ĵ
Re ad
Re vi
Re orge
Re pub
Re xTillerson
Re alMadrid
ba i
ba ge
ba ka
ba zar
ba idu
ba yeva
ba atar
Ã¹ pÃºsÃł
ÊĲ o
à¾·à¾± à½±
ĠãĢĭï¹Ļ ãĢĬãĢĭï¹ļ
Ġï¼ĸ ï¼ĺ
Ġï¼ĸ ï¼Ĺï¼Ķ
Ġ187 10
158 7
158 294
Ġw u
Ġw er
Ġw as
Ġw ed
Ġw eb
Ġw ell
Ġw here
Ġ174 76
Ġ251 121
ik a
ik e
ik s
à¼¤à¼¤ à¼£à¼¥
Ġ850 3
Ġ850 6
Ġ186 96
Ġ186 82
Ġ186 354
ak a
ce ed
Ġ151 000
à¼©à¼§ à¼¡
à¼©à¼§ à¼¢
à¼©à¼§ à¼©
à¼©à¼§ à¼¦
ĠïĲ ©
ĠïĲ ¹
ĠïĲ º
ĠïĲ ¯ïķŃ
() ï¼ļ
300 967
ck s
ï¼į ï¼Ī
Ġ319 3
Ġ319 8
à¼¤à¼¨ à¼§
à¼¤à¼¨ à¼¦
à¼¦à¼£ à¼¥à¼ł
à¼¦à¼¤ à¼łà¼ł
ĠCTRL L
ĠCTRL N
ĠCTRL O
ĠCTRL U
ĠCTRL Bac
ĠCTRL End
ĠCTRL Home
ji e
ji ÇĶ
ji ÄĽ
ji zu
Ã© shang
Ġà¼ł à¼£
Ġà¼ł à¼¡à¼ł
Ġ236 19
Ġ236 16
Ġ236 13
Ġ236 46
Ġïİ ¼
ml s
Ġ3400 9
à½±à½´à¾ĥ à¾ĥà¼ĭ
119 6
214 24
AR J
ir lin
mm une
Ġ3900 00
Ġa Rb
à½´à½¿ à¼İ
Ġ207 90
Ġ560 1
Ġ5500 16
ros tris
gov jn
gu eri
gu Ãłnd
Ġm e
Ġm g
Ġm w
Ġm ba
Ġm ov
Ġm ana
Ġm entions
Ġ470 4
Ġ470 6
Ġ470 7
Ġ470 8
Ġ470 4700
Ġ480 4
Ġ480 9
Ġ520 7
Ġ520 45
Ġ520 55
Ġ224 70
ĠApp s
Ġ685 3
Ġ685 9
Ġ685 00
Ġ)âĢĿ [
Ġ226 90
Ġk Ã¸
Ġk ue
Ġk iller
Ġk tv
Ġk halkha
Ġk onow
Ġk olmas
Ġl l
Ġl UCN
Ġl ibrary
Ġl up
Ġl pJ
Ġ00 2
Ġ00 16
Ġ00 26
Ġ00 52
Ġà½Ĭ à½ĭ
ĠâĢº Â»
Ġ410 2
Ġ196 00
Ġ196 30
Ġ267 58
à¼§à¼§ à¼©
à¼§à¼§ à¼¨
à¼§à¼§ à¼¦
ĠïĴ ¨
ĠïĴ ©
ĠïĴ ©ïķĳ
zh ou
zh Çİng
zh Äģi
Ã¨ r
Ġ475 1
Ġ475 00
Ġ217 33
oh Ã©shang
Ġïı ½
Ġïı į
Ġïı ŀ
ĠïĹ ī
ĠïĹ Į
à½¼à¼¼ à¼Ħà¼ħà¼İ
Ġ284 70
Ġ284 88
if e
if ornia
ĠâĢľï¼Įï¼Į ï¼Įï¼ĮãĢĤâĢĿ
Ġ178 200
Ġ178 18
Ġ178 39
Ġ248 00
Ġ248 21
Äģn bÃ¹
AS H
AS cript
OS P
à¼©à¼¨ à¼¢
ard s
og amy
Ġ424 1
Ġ424 6
Ġ188 70
Ġ188 66
Ġ188 26
Ġ188 49
fic tion
ãĥ »)
Ġand Ex
Ġand roid
Ġ1948 4
à¼ĭà¼ĭà¼ĭà¼ĭà¼ĭà¼ĭà¼ĭà¼ĭ à¼ĭà¼į
à¼ĭà¼ĭà¼ĭà¼ĭà¼ĭà¼ĭà¼ĭà¼ĭ à¼ĭà¼ĭà¼ĭà¼ĭ
à¼ĭà¼ĭà¼ĭà¼ĭà¼ĭà¼ĭà¼ĭà¼ĭ à¼ĭà¼ĭà¼ĭà¼ĭà¼ĭà¼ĭà¼ĭà¼ĭà¼ĭà¼ĭà¼ĭ
im udai
à¾¶ à½¾
Ġ325 3
Ġ325 4
Ġ325 6
Ġ325 7
Ġ325 17
Ġ388 5
Ġ458 6
Ġ960 725
ĠïĮĮ ïį
ĠïĮĮ ïİ
ĠïĮĮ ïĳµ
ĠïĮĮ ïĵĵ
ĠïĮĮ ïĸª
à¾ł à½¼
à¾ł à½ºà¼ĭ
à¾ł à½±à¼ĭ
Ġ221 20
Ġ337 38
ig iin
à¾Ľ à½±à½²à¼ĭ
à¼§à¼© à¼¦
Ġ5100 8
600 8
Ġãī Ŀ
Ġ665 67
Ġ1027 86
à¼£à¼łà¼ł à¼łà¼ł
Ġ218 50
Ġ222 30
ĠWord Pad
na po
Ġf W
Ġf w
Ġf ang
Ġ332 5
Ġ332 30
Ġ490 4
Ġ490 5
ĠIC DP
Ġï¼Ĵï¼Ĳï¼ĳï¼ Ĺ
ï¼ĳï¼Ļ ï¼Ļï¼ĺ
à½ĭ à½Ķà½ł
ĠCh andra
ĠCh rist
ĠCh inese
ĠCh romi
)ãĢĭ (
150 9
ka Åĭ
ran ean
Ġ780 1
Ġ780 64
à¼¨à¼¥ à¼łà¼ł
ary Diane
,, ,ãĢĤâĢĿ
se arch
tÊĤ e
tÊĤ Éª
tÊĤ ho
Ġj av
Ġj ong
Ġï¼İ ï¼İï¼İ
Ġï¼ĺ ï¼Ĳï¼Ĳ
Ġ414 2
Ġ440 7
Ġ680 2
Ġ242 58
ĠCD MA
Tok yo
ci o
ci ences
od dard
od iac
Ġ__ ãĢĪ
Ġ328 4
Ġ328 70
Ġ428 2
Ġ313 92
Ġ296 42
à¾°à½´ à½¾à¼ĭ
à¾°à½´ à¾ĥ
à¾°à½´ à¾ĥà¼į
130 1
117 1
117 2
ow n
Ġd b
Ġd Êĳ
Ġd Ge
Ġd river
Ġd enwe
à½Ĥà½£à½Ĥ à½ģà½Ħ
Ġ620 31
Ġ630 5
Ġ305 27
ĠIn Des
ĠïķŃ ïĸĳ
Ġ358 1
Ġ358 4
Ġ358 7829
Ġ1230 1
Ġ237 00
Ġ237 23
ĠÂ»( ï¼ī
Ġ266 39
ins ki
ins uren
ĠïįŁ ïĲ
ĠïįŁ ïįı
Ġ425 9
Ġ425 48
Ġ425 57
Ġ525 1
Ġ525 6
Ġ797 9
Ġ344 1
Ġ344 7
Ġ344 81
Ġ255 41
Ġ229 92
ĠLin da
ï¼Ł ï¼ĮãĢĤâĢĿ
Ġ247 107
Ġ08 97
Ġ08 36
Ġ326 80
Ġâħ£ âħ¤
uc t
ug al
Ġv ii
Ġ433 1
Ġ1937 22
Ġ298 283
ĠTibetan Reader
ab ju
Ġthe ir
Ġthe pro
Ġ498 3
Ġ498 5
Ġ498 44
Ġ09 45
ĠâĢĻâĢĿ [[
Ġ356 50
ĠIOL Tib
Ġ417 0
Ġ417 8
Ġ415 9
Ġ590 17
Ġ1920 4
Ġ335 39
Ġ335 63
ï¼ĮãĢĤâĢĿ ï¼»
144 5
144 7
man i
man ia
Åį ush
ãĬ ·
ãĬ ¸
âĢ° ãĢģ
Ġ530 1
Ġ830 4
Ġ830 88
Ġ830 67
Ġ842 25
Ġ364 85
ec es
ux uÃ¡n
Èµ a
Èµ É¯
Ġ488 2
Ġ488 3
Ġ488 5
Ġ488 78
Ġ434 0
Ġ434 2
Ġ434 7
Ġ565 2
Ġ565 3
Ġ545 2
Ġ545 28
Ġ712 1
Ġ712 7
Ġ712 8
Ġ820 6
139 18
ĠPh uri
Ġà¼¢à¼¨ à¼£
-------- --
ĠVR AR
CI P
CI PS
hu ang
hu Äģ
hu Ãł
hu ÃŃ
hu anet
ou is
ou Tu
qu ire
son i
Ġï¼Ļ ï¼ķ
Ġï¼Ļ ï¼Ĺ
Ġ412 4
Ġ476 8
Ġ476 34
Ġ790 1
Ġ798 24
à¼¨à¼¨ à¼¨
Ġ555 70
tr ibal
tr ude
à¤ ¾
à¤ ¿
à¤ °à¤£
à¤ ĥâĢľ
ĠÎ ¼
ĠÎ µÏ
ï¼ı ï¼Ī
Ġ333 00
Ġ333 15
Ġ392 3
Ġ392 16
Ġ493 9
Ġ493 00
Ġ518 6
Ġ1350 1360
Ġ1744 1
Ġ314 26
Ġ276 58
Ġ345 46
Ġ345 36
ï¼Įï¼Įï¼Įï¼Į âĢĿ
Ġï¼ĮãĢĤ [
GB D
mi Ã¨
mi Ãłn
mi ev
Ġr ts
Ġr Gyam
Ġr espira
Ġr etriev
Ġ297 9
Ġ297 88
Ġ389 8
Ġ444 0
Ġ444 2
Ġ444 5
Ġ444 9
Ġ566 3
Ġ566 59
Ġ870 3
Ġ287 25
Ġ316 46
106 21128
âĳłâĳ¡ âĳ¢
âĳłâĳ¡ âĳ£
âĳłâĳ¡ âĳ¢âĳ£
ĠWi Max
Ġïĸĳ ïĳ
Ġïĸĳ ïķĳ
Ġïĸĳ ïĮ
Co tillard
ag h
ub ert
ub lic
ĠY XM
ĠY xm
ĠY arlung
ĠâĢľâĢ¦âĢ¦ âĢĿ
ĠâĢľâĢ¦âĢ¦ âĢ¦
Ġï¼Ł ï¼ģâĢĿ
Ġ422 2
Ġ533 9
Ġ535 2
Ġ535 7
Ġ535 32
Ġ1087 753
ĠïĶ į
ĠïĶ İ
ĠïĶ ¼ïĸĶ
tic a
________________ ________
ïĳ ¾
Ġin vol
Ġï¼Ĺ ï¼Ķ
Ġ426 3
Ġ426 9
Ġ516 27
Ġ526 9
Ġ537 83
Ġ633 4
Ġ633 7
Ġ369 80
ï¼ĮâĢĿ )
ĠSh ire
à¼¡à¼£à¼ł à¼¢
IS O
IS AAA
bo iling
ĠâĢľ...... .
Ġ532 3
Ġ532 44
Ġ575 9
Ġ610 777
Ġ289 42
ĠAl pha
Â·Â·Â·Â· Â·Â·
?? ?
st rom
vi ties
vi ved
à½ĵà½£à½¦ à½łà½ģ
Ġ432 6
Ġ795 4
Ġ327 98
ĠSt yle
ĠSt anley
à¼¡à¼¤à¼ł à¼¨
à¼¡à¼¤à¼ł à¼§
à¼¡à¼§à¼ł à¼¨
Ġïıİ ïĸ«
132 4
AC K
ey ond
Ġ510 8
à¼¨à¼© à¼¥à¼¨à¼¥
Ġ07 50
Ġ07 66
Ġ372 44
à¼¡à¼¥à¼ł à¼§
à¼¡à¼¥à¼ł à¼¦
ĠâĢĿï¼Īï¼ī âĢľ
ĠRe g
ĠRe v
ĠIII B
Ma ya
Ma chine
Ma hatma
Ma teBook
Mar s
ph en
ph us
ph ilos
tu Åį
ïį «
ïį ħ
Ġ396 4
Ġ396 5
Ġ465 5
Ġ465 00
Ġ585 6
Ġ585 00
Ġ625 3
Ġ690 19
Ġ690 11
Ġà¼¢à¼£ à¼¢à¼¥
ong ong
ĠîĢĦ (
pen dium
pen tier
Ġg s
Ġg en
Ġg ad
Ġg oogle
Ġg abju
à¾Ķà¾· à½¾
à¾Ķà¾· à½»
Ġ489 2
Ġ489 9
Ġ416 6
Ġ416 77
Ġ418 3
Ġ418 6
Ġ427 2
Ġ427 9
Ġ446 4
Ġ446 9
Ġ519 0
Ġ519 1
Ġ576 3
Ġ576 7
Ġ638 4
Ġ961 19
Ġ961 44
Ġ1287 2
Ġ1720 5
ĠïįĽ ïĳ
ĠïįĽ ïķĳ
ĠïįĽ ïįĩ
IF C
ks pace
à¾¡à¾· à½¿
à¾¡à¾· à½¾à¼į
à¾¡à¾· à¾ĥà¼į
Ġ445 1
Ġ445 5
Ġ499 4
Ġ499 9
Ġ(âĢľ ï¼Įï¼ĮâĢĿ
Ġ558 0
Ġ558 2
Ġ558 4
Ġ523 6
Ġ670 9
Ġ629 4
Ġ892 6
Ġ892 10
Ġ836 4
Ġ996 00
1038 0003
125 33
Ġ352 13
à¼¡à¼¦à¼ł à¼¥
Ġ978 236
ie u
Åĭ Ã¸
ĠãĬ ¹
ĠãĬ º
ĠãĬ »
ĠãĬ ¼
ĠãĬ ½
ĠãĬ ¾
ĠãĬ ¿
à½¢à½© à½ł
à¾±à½» à½ºà¼ĭ
à¾±à½» à¼¼
âĢ² âĢ²
Ġ495 7
Ġ495 254
Ġ689 68
Ġ689 052
Ġ667 4
Ġ758 2
Ġ758 29
Ġ796 1
Ġ796 4
Ġ796 8
Ġ833 4
Ġ880 3
Ġ880 4
Ġ1580 97
Ġ504 95
Ġ368 75
Ġïį¡ ïįĪ
oc yan
oc iation
à¾³à¾Ģ à½¾
Ġ477 7
Ġ588 0
Ġ588 3
Ġ688 0
Ġ688 1
Ġ688 5
Ġ688 6
Ġ688 63
Ġ735 3
Ġ735 7
Ġ735 00
Ġ723 6
Ġ723 7
Ġ723 8
Ġ1026 3
Ġ1944 8
Ġ1267 1
Ġ1267 2
Ġ1267 1112
Ġ1440 31
Ġ274 36
ĠãĢĭãĢĬãĢĭ ãĢĬ
ĠMa len
ĠMa terial
rac tion
Ġï¼ĳï¼Ĳ ï¼ĵ
IC E
IC DP
ber t
ber police
hwa Åĭ
su o
su ÇĴ
Ġ* ****
Ġ429 4
Ġ429 84
Ġ724 1
Ġ724 8
Ġ724 36
Ġ822 1
Ġ1060 7
Ġ1060 27
Ġ1035 6
Ġ1035 7
Ġï¼Īï¼Į âĢľâĢĿï¼ī
Ġï¼Īï¼Į âĢľãĢĤâĢĿ
Ġ1390 7
Ġ1870 800
198 34
à¼¤à¼łà¼ł à¼łà¼ł
Ġ382 76
ãĢĤãĢĤ ãĢĤãĢĤãĢĤ
jÄ«ng jÃ¬n
EN CE
EN GEN
ai re
dÃł od
dÃł chÃ©ng
ita s
à½¼à½¾ à¼½
à¾¦à¾· à½´à¼į
Ġ539 1
Ġ714 5539
Ġ768 1
Ġ810 28
Ġ1895 2
Ġ2280 3
ĠTe xt
ĠTe mp
ĠTe xts
ÉķÊ° ÉĽ
ÉķÊ° É¤ËĢ
Le e
PM I
QQ tQc
TO R
dÃ¬ yÃ¹
dÃ¬ zÃłng
fÇİ wÃº
fÇİ lÃºn
fÇİ mÃ©n
ly s
ly wood
sÊ° y
sÊ° É¯
yu Ã¨
ËĢ l
ËĢ Èµ
ïĵ Ĵ
ïĵ Ļ
ĠâĢĿâĢĶâĢĶ ãĢĬ
ï¼ģ ï¼ģ
Ġ393 4
Ġ517 8
Ġ517 50
Ġ517 75
Ġ544 3
Ġ522 1
Ġ522 6
Ġ658 4
Ġ647 4
Ġ1890 80
à¼¡à¼©à¼ł à¼¢
Ġ357 89
Ġ357 3864
ann ey
8660 2127
ĠDe velopment
ĠDe Lancey
ĠDe gree
ĠWeb Font
ĠWeb slers
est ofRuss
Ar iane
Ar tific
Ar thur
NG S
ld quo
land e
Ê¥ u
Ġh el
Ġh ri
Ġh istory
Ġh uman
Ġh unta
Ġch ildren
ĠâĢĿâĢĶ âĢľ
Ġ536 1
Ġ536 7
Ġ595 5
Ġ645 4
Ġ717 48
Ġ725 00
Ġ725 60
Ġ744 2
Ġ744 6
Ġ788 24
Ġ829 4
Ġ838 2
Ġ885 30
Ġ886 00
Ġ1020 6
Ġ1901 1989
Ġ06 11
Ġ06 15
Ġ808 60
Ġ808 13
int Pet
Ġà¼£à¼łà¼ł à¼¢
Ġà¼£à¼łà¼ł à¼¥
Ġà¼£à¼łà¼ł à¼¤
Ġà¼£à¼łà¼ł à¼§
Ġà¼£à¼łà¼ł à¼¦
Ġà¼£à¼łà¼ł à¼łà¼ł
Ġà¼¤à¼ł à¼¥
shÃ¬ jiÄģ
shÃ¬ jiÃ¨
shÃ¬ yÄ«n
shÃ¬ sÃº
ĠLi ve
Ġï¼ĳï¼Ĳï¼Ĳ ï¼Ĳï¼Ĳ
CM V
De ar
De ep
De GeLe
De miev
sÃ¬ qi
sÃ¬ bÃ¬
sÃ¬ miÃłn
Ġà½İ à½Ĭ
à½£à½ĳà½Ħ à½¡
Ġ596 3
Ġ716 44
Ġ738 3
Ġ739 98
Ġ762 88
Ġ1866 7
Ġ809 28
ind ra
les er
Ê¨Ê° É¯
Ê¨Ê° Ã¸
Fran cisco
den zu
ne tic
ne Note
ne ille
ne esh
Ġ524 3
Ġ524 85
Ġ587 8
Ġ699 4
Ġ793 1
Ġ834 3
Ġ834 65
à¼¡à¼¡à¼¤ à¼¡
à¼¡à¼¡à¼¤ à¼¢
à¼¡à¼¡à¼§ à¼¥
à¼¡à¼¡à¼§ à¼¤
à¼¡à¼¡à¼§ à¼§
Ġ1896 60
à¼£à¼¡à¼¥ à¼¦
237 27
ãĢĬãĢĭãĢĬãĢĭ ï¼ĮãĢĤâĢĿï¼»
Ġï¼ĳï¼ĵ ï¼Ĳ
Ġï¼ĳï¼ĸ ï¼Ĳ
Ġfor mation
AL T
AL DH
Al lis
Al Ïĥ
Al fred
Al ison
bÃ¹ shÄ«
ear ance
ff p
ff ith
ile v
mg ar
ver y
wÃº mÃŃng
wÃº chÃ¡ng
ÅĽ a
ÅĽ ak
ĠâĢľ.... .......
Ġ547 2
Ġ547 4
Ġ547 8
Ġ675 6
Ġ958 2
Ġ1090 2
Ġ1090 7
à¼¡à¼¡à¼¦ à¼¤
à¼¡à¼¡à¼¦ à¼¨
Ġ1755 9
à¼£à¼¡à¼§ à¼¡
Ġ05 11
Ġ807 93
ĠAn tonio
ĠAn thology
con cept
con tent
ĠSer ver
ï¼Įï¼ĮãĢĤ ï¼ĮãĢĤï¼Įï¼ĮãĢĤâĢĿ
ich i
tem ology
265 1
350 1
google pages
ue ba
Ê£ Ã¸
Ġ@ @@
Ġà½¿ à¼į
Ġà½¿ à½¿à¼į
Ġà½¿ à½¿à¼İ
Ġ________________ ___
Ġ466 67
Ġ599 1
Ġ549 1
Ġ637 8
Ġ785 11
Ġ784 97
Ġ1064 1088
Ġ1057 2
à¼¡à¼¡à¼ł à¼¢
Ġ1130 88
Ġ1185 5
à¼¢à¼¡à¼ł à¼¢
à¼¢à¼¡à¼ł à¼¥
à¼¢à¼¡à¼ł à¼¨
Ġ1845 3
Ġ1724 8
Ġ1680 1
Ġ1680 7
Ġï½ °
Ġï½ »
Ġï½ Ļï½
ĠAr istotle
ĠCN N
ĠCN BC
Ġ------ --
Ġ------ ---
elle Char
elle Lal
ĠOpen Suse
ĠShift DEL
An ton
An ne
An tonio
CO RTS
Cha t
Cha stain
cri tical
ij ing
iv il
ira i
kÊ° É¤
tÊ° e
tÊ° É¤
tÊ° Éª
Ġy i
Ġy ing
à¾» à½ºà¼ĭ
ãĢĸ ãĢĹ
ï¼³ ï½ģï½
Ġ497 8
Ġ597 9
Ġ825 5
Ġ866 5
Ġ865 3
Ġ884 3
Ġ990 3
Ġ1045 1
à¼¡à¼¡à¼¥ à¼¥
à¼¡à¼¡à¼¥ à¼¨
Ġ1354 99
Ġà¼¢à¼¢à¼¨ à¼¢
Ġà¼¢à¼¢à¼¨ à¼¤
Ġà¼¢à¼¢à¼¨ à¼¦
659 9817
ĠLu is
ĠLu ther
ell ner
ida w
1582 8885
660 255
660 933
680 2
MS N
Ra il
Ra hul
Ra iner
Te V
Ver hagen
bu cks
tt ooing
âħ £
Ġo thers
Ġma terial
Ġma cOS
Ġma gnes
Ġ636 2
Ġ636 21
Ġ765 1
Ġ765 7
Ġ729 4
Ġ844 72
Ġ875 2
Ġ985 1
Ġ985 7
Ġ1338 9717
Ġ604 21
342 58
ĠMac ed
ĠMac don
Ġï¼ĳï¼ĺ ï¼Ĳ
ï¼Ĵï¼Ĳï¼Ĳ ï¼ķ
685 74200
Ber lin
IN KEL
SO N
bÄģ dÃłshÄ«
bÄģ wÃłn
gy n
gy htk
kh i
kh ov
my etang
vin o
Ġà¼ ¾
Ġà¼ Ĵ
Ġ538 6
Ġ789 83
Ġ858 8
Ġ877 4
Ġ877 95
Ġ847 3
Ġ1076 4
à¼¡à¼¡à¼¢ à¼¡
à¼¡à¼¡à¼¢ à¼¢
à¼¡à¼¡à¼¢ à¼¦
Ġ1245 1
Ġ1538 5
Ġ707 46
1737 1802
Ġà¼¢à¼¢à¼§ à¼¢
Ġà¼¢à¼¢à¼§ à¼¥
Ġà¼¢à¼¢à¼§ à¼¤
Ġà¼¢à¼¢à¼§ à¼©
Ġà¼¢à¼¢à¼§ à¼¨
ĠGe leg
tiÄģn pÃºsÃł
chen ko
Ġï¼Ĵï¼Ĳï¼Ĳ ï¼ĺ
ĠJohn es
jiÃ¨ lÃ¹
ĠâĢ¢âĢ¢âĢ¢âĢ¢âĢ¢âĢ¢ ""
ĠâĢ¢âĢ¢âĢ¢âĢ¢âĢ¢âĢ¢ âĢĿ
App Match
Pro gramming
Pro gramFiles
We ight
bh ÃłsÃł
pro gramming
ris on
sÃł jiÄģ
à¾·à¾² à½¾à¼ĭ
Ġ527 2
Ġ527 3
Ġ586 1
Ġ586 00
Ġ745 5
Ġ888 0
Ġ876 5
Ġ968 00
Ġ1070 2
Ġ1234 6
Ġ1227 4
Ġ1363 97339
Ġ1364 3
Ġ1760 29
Ġ1660 1
Ġ1665 5
Ġ1672 000
âĳłâĳ¢ âĳ¥
Ġ674 98
Ġà¼¤à¼¦ à¼§à¼ł
Ġ1309 97
enti als
âĢĺâĢĻ âĢĺâĢĻ
âĢĺâĢĻ ï¼ĮãĢĤãĢģãĢģãĢĤâĢĿ
ism et
Ġïįº ïıİïĸĳ
Ġï¼Įï¼Įï¼Į ï¼ģï¼ģ
ï¼Ļï¼ĺ ï¼Ĺï¼Ĵ
ĠïĴı ïĵĹ
ï¼ĳï¼Ļï¼ĺ ï¼Ĺ
ï¼ĳï¼Ļï¼ĺ ï¼Ķ
ï½ģï½ Ķï½īï½
** *
825 2292
Con n
IA ID
IP O
IP v
Th is
Th ree
Th urs
Vf VQ
di tion
di yg
ier ra
ier re
mp ron
ner ship
pos itory
qi Å«
sÄģn zÃłng
tb mgar
}{ (
à¾º à½´
à½¨à½Ģ à½¤
Ġ867 93
Ġ935 1
à¼¢à¼¢à¼¤ à¼¡
à¼¢à¼¢à¼¤ à¼¢
à¼¢à¼¢à¼¤ à¼¦
Ġ1563 75
Ġ1876 445
à¼£à¼¢à¼§ à¼¨
à¼£à¼¢à¼§ à¼§
Ġ2388 1
282 3591
1368 3
ĠSam van
ĠSam gha
ĠHimala yan
ica Germany
à¼¢à¼©à¼ł à¼£
chn ical
ÉķÉ¤ ËĢ
////// /
ucation al
sÊ°e kÊ°Ã¸
Br Äģhman
Ca pe
Da wei
LO GO
Sa intPet
Will Come
du Åį
rc b
zang diyg
Ġac complish
à½ĵà½Ķà½¦ à½ĺ
Ġ2040 55
ï¼Ń ï¼³
Ġ933 90
Ġ995 5
Ġ1056 18
Ġ1056 21
Ġ1293 8
Ġ1351 9700
Ġ1696 8
Ġ1687 81
Ġ1432 88
à¼£à¼¢à¼¨ à¼¨
à¼£à¼¢à¼¨ à¼¦
Ġà¼¢à¼¡à¼£ à¼¡
Ġà¼¢à¼¡à¼£ à¼¢
ĠTh urs
ĠTh esa
ĠMon astic
let in
Ġst ore
Ġst oddard
ĠFre der
Ġï¼Ĵï¼ĺ ï¼ķ
Ġï¼ĳï¼Ķ ï¼Ķ
Ġï¼ĳï¼ĳï¼ ķ
Ġï¼ĳï¼ĳï¼ ĸ
Ġï¼ĳï¼ĳï¼ Ļ
ast y
liÃ¹ zhÄ«
15828 509
15828 349
Ġ68576 20068576300
à¾²à½±à¾Ģ à½¾
tÊĤa q
499 5022
535 355
535 555
Cas no
Df Tr
Df zfTcf
Ed ward
Land sat
Science Revi
TT H
TT Player
br BT
br VGt
cy berpolice
pÃº tÃŃ
yan in
zin Norbu
à¥ ĩ
à¥ Ĥà¤
Ġq ia
Ġco lle
Ġco blin
Ġsa in
Ġsa fari
Ġde Koros
Ġ2092 4
Ġ898 4
Ġ849 00
Ġ1156 924
Ġ1889 58
Ġ1836 2
Ġ1770 6
Ġ1761 167
Ġ1430 60
Ġ///////// //
Ġ///////// ////
Ġ///////// ///////
ĠCom lex
ĠCom mun
ĠCom pendium
lam baka
ĠMan jar
ĠMan uscrip
shÃłn zÄģi
ĠKu znet
ĠNew cast
icha e
à¾µà½² à½¾à¼ĭ
ĠFlash cs
ĠãĢĤ) [
guÄģn shÃ¬yÄ«n
): âĢĶ
836 3
980 7
Den is
Den mark
FO NTS
IE C
Joh ann
Joh annes
Note pad
Robert Par
SM GCS
kha ijamts
ola i
ola s
up Ã³
yÃ¬ n
à¾¢ à½´
à¾¡à¾·à½´ à¼½
Ġ1201 30
Ġ726 00
Ġï¼ĪãĢģ ï¼ĮãĢģ
Ġï¼ĪãĢģ ï¼Įï¼ī
Ġ1190 82
Ġ2157 158
1727 26
963 777
ĠCar I
ĠCar l
Ġà¼¢à¼©à¼© à¼£
Ġà¼¢à¼©à¼© à¼¥
ham Clin
ĠSA T
art nership
ĠMO BI
tag onia
ĠHa arh
urel baatar
Ġ0032 47
Ġ0032 57
ï¼ĳï¼Ļï¼ķ ï¼Ļ
jÃ¬ng tÇĶ
crip tion
632 9054
Fri day
GW H
GW U
Hi sao
Hi ppoc
MV ar
Pa Ã±j
Ro esler
Tr ueba
ct v
dÊĲ e
gh iz
ip us
kÅįng xÃ¬ng
Ġ________ _
Ġà¤ ®à¤£
à½ĺà½ģà½ĺ à½ĺà½ĵ
Ġ694 13
à¼¢à¼¡à¼£ à¼£
Ġ1595 7
Ġ1367 2
Ġ2897 86
Ġ4080 25
ĠPas s
ĠPas argad
ï¼ĮãĢģ ãĢĤ
ï¼Įï¼ļ ï¼Į
Ġ955 19
Ġ955 93
ĠBriti shM
ĠSch ool
ĠDav is
tal r
ĠLa wrence
Ġsi te
ĠFran cisco
âĳ¾âĳ¿ âĴĢ
tibe ta
Ġà¼¡à¼¥à¼ł à¼¦
Ê¨a ËĢ
log ic
à¼ĭà¼ĭà¼ĭà¼ĭà¼ĭà¼ĭà¼ĭà¼ĭà¼ĭà¼ĭà¼ĭà¼ĭà¼ĭà¼ĭà¼ĭà¼ĭ à¼ĭà¼ĭà¼ĭà¼ĭà¼ĭà¼ĭà¼ĭà¼ĭà¼ĭà¼ĭà¼ĭà¼ĭà¼ĭà¼ĭà¼ĭà¼ĭà¼ĭà¼ĭà¼ĭ
ï¼ĳï¼Ļï¼Ļ ï¼Ļ
que z
Ġ138939 90132
,ãĢĤ ,ãĢĤ
838 35
Gu y
Gu iller
Gu illa
He athe
Mc lean
Mo on
Mo Mo
Mil cqu
Mos ol
Se oul
Sy dney
San Francisco
Sha htoosh
Ta ine
Ta jik
Ta oray
jÃŃ xiÃ¡ng
pr enlei
py idaw
pol itan
rit yayan
tÉķ Ê±
zÅ«n shÃ¨ng
zÅ«n zhÄĽ
Ð¸ Ð
Ð¸ ÑĤ
Ġal t
Ġal bi
Ġà¼Ģ à½ĸà½Ľ
Ġ966 58
Ġ976 4
Ġ1122 61
Ġ1764 92
Ġ1454 75
Ġ2793 00
ĠPra at
ĠPra da
ĠPra vritti
ĠPre view
1856 1939
ĠâĢ¦âĢ¦âĢ¦âĢ¦ .
ĠCa tegor
ĠCha p
ĠCha t
ĠCol or
ĠCol lab
ĠCol lege
ĠCent ral
Ġà¼¢à¼¢à¼¤ à¼©
had ur
479 481
ĠBC P
ĠBo pp
ĠBo shgo
ĠSe a
ĠSe min
ĠSe mpron
ĠDa vey
ĠDAR T
à¼¡à¼¥à¼¥ à¼¥à¼ł
tit le
shÄģ shÄĵng
shÄģ mÃŃ
ĠHer itage
ĠFacebook Twitter
ĠãĢĬãĢĭãĢĬãĢĭãĢĬãĢĭ ãĢĬãĢĭ
Ġï¼Įï¼ĮãĢĤ ãĢĤ
ĠZa wa
omol ang
ï¼ĳï¼Ĳ ï¼Ĵ
ĠCho ijamts
ĠIns titu
ĠIns cription
ugh es
yuÃ¡n mÇİn
Ġ________________________ _______
ĠâĢľï¼ĮâĢĿâĢľï¼ĮâĢĿâĢľï¼ĮâĢĿ âĢľâĢĿ
516 11
527 981
6329 305
BP VXzQ
Hor nby
Hol lywood
Hol lande
Ind ian
Non fiction
Os rick
Os sevoort
SP F
VQ car
bÃº dÃ²ng
bÄĽn zÅ«n
ho id
ku patajik
mÃŃ lÃ¨
nes day
rd quo
sÃ¨ jiÃ¨
ual s
Î± Ïģ
Ġdo PDF
ĠâĢĮ âĢľ
ĠâĢĮ âĢĮ
ĠâĢĮ âĢĮâĢĮ
ĠâĢľ// ãĢĤâĢĿ
ĠâĢľ// /ãĢĤâĢĿ
ĠâĢľãĢĤ ï¼Į
Ġ2094 65
Ġï¼Ń ï½ģï½Ĵ
âĢľãĢģ âĢĿâĢľ
à¼¡à¼¡à¼¨ à¼§
Ġï¼Īï¼Įï¼Į ï¼ĮãĢĤï¼ī
Ġ1198 00
Ġ1157 29
Ġ1436 26
Ġ2635 572
Ġ[] ï¼ļ
Ġ/////// /
ĠCal leba
Ġà¼¢à¼¢à¼¦ à¼©
Ġ:ãĢĬãĢĭ ï¼Įï¼Į
ĠBil igiin
ĠSD K
ĠSp ace
ĠSte phen
ĠDes i
ĠDel hi
ĠDel ancey
ĠDel ancy
ĠInd ica
ĠMicha el
ĠNe ij
ĠNe ural
Ġsur vived
ĠFe cher
xizang ying
iter ranean
ĠOs sevoort
Ġ11710 21424
Ġà¼¡à¼¤à¼ł à¼¥
erson Mn
dela ziz
Ġcult re
Ġcultu saqori
158279 49
zhu Äģng
zhu Çİn
tso Åĭ
tÊĤÊ° e
tÊĤÊ° o
Ġï¼ĮãĢĤï¼ĮãĢĤ [
Marc elleLal
Ġï¼ĳï¼Ļï¼Ļ ï¼Ĵ
Ġï¼ĳï¼Ļï¼Ļ ï¼Ļ
Amer icaGermany
Ġuni versity
Ġuni code
ĠLuvsan lug
ĠLuvsan chul
ĠLuvsan prenlei
ÐµÐ ²
ÐµÐ ´
ÐµÐ ¼ÐµÑĢ
XzQ TfFVf
610 1537
770 583228
820 7623
Ange laDor
BY Y
Bro ck
Char lesRamble
Er BPVXzQ
Is land
Is chia
LI ARD
Me X
Me mor
Nan kang
RE M
RE WA
So ci
So chi
Sp am
Sp urs
Totem ism
WA DA
bs ny
gÅįng dÃ©
othe aMer
pla to
tha pa
vol ution
vat sa
yÃŃ n
ï¸ ³
ï¸ ¾
ĠË Ĭ
ĠË īMNG
ĠÐ ĽÐļ
Ġcon cept
Ġcon text
à¾±à½²à¼ĭà¼ĭà¼ĭ à¼ĭà¼į
à½ĸà½ŀà½Ĥà½Ħ à½Ĥ
ĠâĢĿâĢ¦âĢ¦ âĢľ
Ġ1095 9
Ġ1527 00
Ġ2229 86
à¼¤à¼¢à¼£ à¼¥
ĠAc cess
1313 13
ĠâĢľâĢĿï¼Ī ï¼Įï¼Įï¼ī
8625 9624
ĠBas u
ĠBas ic
ĠSim s
5555 55
ĠDD T
Ġà¼¥à¼¡à¼§ à¼¡
ĠWe Chat
ĠKram er
ĠEd ucational
ĠLe onard
ĠLo be
eth od
ĠNation al
sab eth
Ġ10500 4380390
ĠFor um
ĠîĢ½ îĢ¼
xiÅ« xing
Ġï¼Įï¼Įï¼ĮãĢĤ ï¼Īï¼ī
Ġà¼¡à¼¢à¼ł à¼£
ĠVer hagen
ĠJa uss
ĠâĢľï¼ĮâĢ¦âĢ¦ âĢĿ
gey Sob
ndÊĲ o
ĠâĢľï¼Įï¼Įï¼Įï¼ĮãĢĤ ï¼Įï¼Įï¼Įï¼Įï¼ĮãĢĤ
ĠâĢľï¼Įï¼Įï¼Įï¼ĮãĢĤ ï¼Įï¼Įï¼Įï¼ĮãĢĤ
ograph ic
---------------- --
ï¼Įï¼Įï¼Įï¼Įï¼ĮãĢĤ ï¼Įï¼Įï¼Įï¼Įï¼ĮãĢĤâĢĿ
rick Dy
FranÃ§ois Hollande
Ġï¼³ï¼ ¹ï¼¢
Ġï¼³ï¼ ¯ï¼³
ĠHarris on
lÃ¹n shÄ«
ĠPremi um
"à¼Ħ à¼Ħà¼İ
.ãĢģãĢģãĢģãĢģ ãĢģãĢģãĢģ
860 9
811 1306
990 4
Ac quire
Bul wer
CG TN
Cult us
Cult ure
DV YSB
Dy lan
Dav is
Dav id
GH z
Gol dstein
Hen ry
Hen rik
Kh urelbaatar
Nico le
On tology
Rock Art
Rome oand
Ser geySob
Tu esday
Tos cano
UN DP
XM Z
XZ WO
]ï¼Įï¼Į ï¼ļï¼Į
bing bing
cj ob
jan tsan
ket ball
new job
pÊ° u
qtJ pu
rQ f
rQ Grc
rf Vf
wÃ¨ i
yÃºjiÄģ bÃ¹
Ðļ ÐµÐ¼ÐµÑĢ
ïĴ Ń
ïĴ ©ïķĳ
Ġà Ń
Ġà §İ
Ġsh es
Ġta b
Ġta ke
Ġro be
Ġgo s
à½³ à¼ĭ
à½Ķà½Ļ à½¥
à½¨à½Ħà½¦ à½ł
ĠâĢľï¼ĮãĢĤ ï¼ĮãĢĤâĢĿ
ĠâĢľ//// âĢĿ
à½±à¾Ģ à½¾à¼ĭ
Ġ2095 34
Ġ1222 15
à¾·à½²à¼Ķ à¼ĭ
Ġ1611 387
Ġ1605 4
Ġ2506 87
Ġ2107 17
Ġ2230 384
Ġ4033 80
Ġ6060 37
ĠâĢĺâĢĺ âĢľ....
ĠAv tai
ĠAv gyn
ĠAlex and
Ġ///// /
ĠPe ace
ĠPe ake
Ġ3454 98
ĠCan is
ĠCour ier
Ġpla y
ĠTaz i
ĠTaz iks
ĠSO FIA
ĠSy dney
ĠSta el
ĠSTE M
ĠSTE INKEL
ĠDu uren
ĠDen wood
ĠDOC TYPE
Ġ18609746 000
ĠMe ad
ĠMat ti
ĠMess ier
ĠMess enger
ĠMIL LIARD
shM uscum
shÃ©n biÃłn
ĠWill Smith
ãĢĤï¼ĮãĢĤ ï¼ĮâĢĺâĢĻ
ĠKid an
ĠKid man
ĠEr denzu
ĠLam b
ĠLam iin
ĠHU D
ĠHand ke
ĠNa imudai
ĠNam khaijamts
ĠNorbu Gyatso
office PowerPoint
Ġsome of
ĠFi eld
rou ps
eld raw
Ġba f
xiang jie
xiÃ© yÃŃn
Ġï¼Įï¼Ľ ï¼Į
Ġï¼Įï¼Ľ ï¼ĮãĢĤâĢĿ
ĠUnd ur
ĠUnd erstand
ĠãĢĪãĢī ï¼ī
ship in
uni versity
Ġà¼¡à¼¤à¼¨ à¼¥à¼¨
Ġà¼¡à¼¨à¼ł à¼¡
pak TES
ï½Ĵ ï½ģï½Ķï½īï½
15829 583
ï¼įï¼į ï¼į
Ġmon key
ĠlH o
ĠlH as
ĠâĢľï¼Įï¼ĮãĢĤ ï¼Įï¼ĮãĢĤï¼ĮãĢĤï¼Įï¼ĮãĢĤâĢĿ
ĠâĢľï¼Įï¼Įï¼Įï¼Į ï¼Įï¼ģâĢĿ
ĠâĢľï¼Įï¼Įï¼Įï¼Į ï¼Łï¼ĮãĢĤâĢĿ
ï¼ĳï¼Ļï¼ĸ ï¼Ĳ
Ġdra ma
Ġdra fted
ï¼Įï¼Įï¼Įï¼ĮãĢĤ ï¼Įï¼Įï¼Įï¼Įï¼ĮãĢĤâĢĿ
Ġïĵĵïį½ ïĳĭ
ĠïĶ¾ ïĵĴ
Mah ÄģbhÄģ
Mah indra
Georg ios
jÃ¬n shÃ¬
158277 94
ĠâĢľãĢģãĢĤ âĢĺâĢĻâĢĺâĢĻ
Ġstud y
âĳ¢âĳ£âĳ¤âĳ¥ âĳ¦âĳ§âĳ¨âĳ©
ĠManon Ossevoort
ĠLuvsandanzan jantsan
pict ure
wei MateBook
ïĶĬ ïĳ¾
ĠSCH WIE
ĠSCH ENGEN
Ġà¤ª à¤¦
DQz cVf
ĠChoi ge
ĠChoi ji
Horati o
Horati us
Ð¾Ð ²Ð¾
Ġdoc ument
Ġcultus deorum
abhid harma
ztVSBftXB Q
ĠDamd in
ĠDamd insuren
ĠDirect Wri
ĠJessica Chastain
.( ï¼ī
8222 882
Ab delaziz
Ak ismet
Alas talr
Ba DQB
Bar ack
Cl ABA
Cor neille
Dan mark
Dol anji
DOC TYPE
Eli sabeth
Fla t
Fil ippo
Fort une
Gabri el
Ir ving
Kn icks
Mon day
Med iterranean
Na ples
Nish ta
Nath aniel
Narra tology
Pal ola
Rod hamClin
SW IFT
SET I
Steph en
Ter minal
Tow ards
Tash bayeva
UM TS
WD CM
Yun OS
cl one
hl ÉĻ
hÃ³ng qÄ«
jam pa
jÅ« shÃ¬
jack maf
kÄ« rti
mS v
mer ce
mÇİ tÃ³
pÇĶ xiÃ¡n
xin huanet
yang shipin
zer land
Ġle arning
Ġis othi
Ġam dotibet
ĠâĢĿ- âĢľ
ĠâĢľâĢ¢ ï¼ĮâĢĿ
ĠâĢľãĢģãĢģ âĢĿ
Ġï¼Ī! ï¼ī
Ġï¼Ī? ï¼ī
Ġ1238 40
Ġ11777 84
20140 54
Ġ2548 26375
à¼£à¼¨à¼ł à¼£
Ġ2294 22
Ġ2828 13
Ġ2871 19
à¼¥à¼¢à¼ł à¼§
ĠAt lan
ĠAu thorware
ĠAud io
Ġ4534 327
ĠPat rickDy
Ġï¹į ï¹į
ï¼Į! âĢĺâĢĻï¼ĮãĢĤãĢģãĢģãĢĤâĢĿ
ĠCM C
ĠCOM AC
ĠGen yen
ĠGree k
à½±à½´à¾Ĥ à½¿
ĠTy lor
ĠBer yl
ĠBro ghil
ĠBig picture
ĠSan Antonio
ĠSco ut
ĠSCI ENCE
Ġ5850 366
Ġ5220 236
ĠDM J
ĠDur band
ĠDre amwa
Ġ6747 60
lak pa
ĠMes sage
ĠMis soni
ĠMul vey
ĠMuk den
ĠWM x
ĠWal leser
ĠKo ch
ĠKazu shiIwa
ĠLha sa
ĠNico la
Ġser ies
Ġsen ge
Ġsch ool
ĠFan bingbing
ĠFolk life
ĠRo erich
ĠRed Hat
ĠOn bu
ĠVir ginia
ĠUV B
rien ta
liÃ¡n huÄģ
Ġcha racter
Ġchar lot
ndz om
ï½Ĳ ï½Ĳ
zhÃ¬ huÃ¬
ĠâĢľï¼Įï¼Įï¼Įï¼Įï¼Įï¼Į ï¼Įï¼Įï¼Įï¼Įï¼ĮãĢĤâĢĿ
versit g
Ġï¼ĺï¼ĳ ï¼Ĳï¼Ĳ
ĠStar bucks
1323 113
Inter depen
LAY A
Chern ysh
ĠTeach ing
Frank furt
cons tipation
ĠMarion Cotillard
Time WillCome
menta tion
Ġacti vities
Ġ68576500 68574200
Ġqgd dm
ĠFrank land
Ġcomple ted
Austral ian
Satur day
ĠPelliotTibetain n
SZY TD
Ġhemorr hoid
ĠPtole my
ĠDadik ai
ĠEurope an
ĠLayout s
ĠNÄģland Äģ
qhredc ross
-? )ãĢĬ
.\ /
.ï¼ĮãĢĤ ï¼īâĢĿ
6101 17993
9259 172726
Aa Ka
Ary an
Ami ens
Aler ces
Apr il
Bl oomber
Bz XzQTfFVf
Bel inski
Bou tefli
BBr A
Briti shMuscum
CPT M
Caz den
Dick ens
Dual ism
Delph i
Dost oyevsky
Eu Ïģ
Eng land
Emm ersonMn
Emmanu elleChar
Fund s
Ger trude
Gri ffith
Gros ej
Gran ville
GAV I
Hod gson
Hist orical
Hill aryDiane
Himala ya
IMA LAYA
Jen nifer
Jes us
JAV A
Jup iter
Kof i
Kir ghiz
LU XEL
Lang ston
Lun achar
Lam ber
Lat in
Lok esh
Lew is
Lau ra
Man chester
Mor rison
Mum bai
Micha el
Metro politan
Nay pyidaw
Or leans
Our TimeWillCome
Oed ipus
Oreg on
Port ugal
QXzQ f
QDQz fFVf
Ros s
Richar ds
Sw eden
STE VEN
Song pan
Sund ay
Swit zerland
Source fora
Sisy phus
SQt VQcar
Tnd us
Tous saint
Ud dy
Vb Vd
Vol taire
Wed nesday
Xf Zr
Xfc ff
York Knicks
app recia
bk ra
bas ed
bom b
bann er
bDa on
bBfc VbVd
cak us
cab bage
fÃłn tiÄģn
gNe ws
jal tsan
jose f
know n
liter ature
mzy wfy
nt ce
pÃł li
sv ara
sco ri
sta tic
sog d
tx ffp
tsh oand
tÅį udÃło
vyu tpat
wÃłng yÇĶ
yÅį upÃ³
yÃ² uxuÃ¡n
¦ïĢ ¨
Êģ a
ÌĬ /
Ġà¼ħ à¼ħà¼į
Ġà¾ĥ à¼Ķ
Ġre pository
ĠÊ¦ Ê°
Ġarti sts
Ġqi ang
Ġà¥ Ĳ
Ġtag ging
ĠÏĥ Î·
Ĩï½ ĵï½Ķ
įïķ į
İïĤ į)
ĠâĢľ-- âĢĿ
ĠâĢľ---- âĢĿ
ĠâĢľãĢģãĢģãĢģ âĢĿ
ĠâĢľãĢĬãĢĭãĢĬãĢĭ ãĢĬãĢĭãĢĬãĢĭï¼ĮãĢĤâĢĿï¼»
ĠâĢľ/ãĢĤâĢĿ âĢĶâĢĶãĢĬãĢĭ
ĠãĢĬÂ· ãĢĭ
ĠãĢĬãĢģãĢģï¼ļ ãĢĭ
ï¼¥ï½ Ĩï½ĵï½Ķ
Ġï¼´ï¼ ¶
Ġ(ï¼Ł -
Ġ(ï¼ı )
Ġ(ïĤ İïĤį)
Ġ(âĢĮâĢĮ ãĥ»)
Ġ6126 2051
Ġ6109 936
Ġ9327 96
Ġ13340 963777
Ġ17888 005539
Ġ3089 98
Ġ24604 90
Ġ7053 806
Ġ23129 66
Ġ4066 5438
Ġ4085 966
ĠÂ·Â·Â· Â·
Ġ29155 581
1029 1064
ãĢģï¼ĪãĢģãĢģãĢģï¼ī ï¼ļ
Ġï¸³ï¼ļ ï¸³
ĠâĢĺï¼Į âĢĻ
4493 132
ĠAman ti
ĠAss ociation
ĠApol ogue
ĠArou et
ĠAFL IV
ĠAgva andamp
6662 75
6672 75
66523 30
88268 65
28224 26
ĠPers eus
ĠPow ers
ĠProfess ional
Ġ40080 85531
Ġ40043 97
23123 113
23155 13
23153 13
ĠCri tical
ĠCult ure
ĠCuck oo
ĠCeler on
801992 6
65919 18
65368 367
ĠãĢĭ(,, ãĢĬãĢĭ)
ĠãĢĭ(ãĢĬãĢĭãĢĬ .ãĢĭ)
Ġ7537 70
Ġ4636 46
Ġ4687 92
inbur gh
38317 08
ĠGer vus
ĠGes ar
ĠGal ile
ĠGil bar
ĠGum ilev
ĠGilg amesh
ĠGerman o
ĠGuinn ess
82585 91
Ġpors che
Â·ï¼Įï¼ļ ãĢĬãĢĭ[
ĠTen zinNorbu
ĠTas mania
ĠTat suo
ĠTok arcz
ĠTEE B
ĠTjib beJous
ĠBum thang
ĠBAS IC
ĠBorg es
ĠBron te
onÃŃ gÅ«
ĠSec urity
ĠSeg mentation
ĠSett ing
ĠSui te
Ġï¹ĻâĢ¢âĢ¢ ï¹ļ
Ġï¹Ļï¼Ł ---
970366 63
Ġ531996 9
ĠDar ya
ĠDone y
ĠDun huang
ĠDala i
ĠDoud na
Ġ511998 3
ĠImba TV
94320 9657
arie University
arST QDQzfFVf
laká¹£ aá¹ĩa
ĠMot orola
ĠMed ical
ĠMID I
010067 111
ĠâĢĿ(ï¼Įï¼Įï¼Įï¼Į )
ĠWoll ongong
ĠWalk er
ĠWDB J
ĠWTU F
Ġnanom eter
Ġ1300103 9381
ĠKop ra
ĠKim ura
ĠKub ler
ĠKarl strom
ĠEss entials
ĠECM AScript
ĠEpis temology
ĠElectr on
ĠLang uages
ĠLand ry
ĠLos Alerces
ĠLond on
ĠHug nu
ĠHua weiMateBook
ĠHIT AC
ĠHalk ias
ĠHyrc ania
etfli x
ĠNom un
ĠNik olai
ĠNiv ritti
ĠNath an
ĠNiet o
ĠNarra tive
ĠNiu Trans
ĠNorbush erab
Ġ18009717 580
Ġ180097107 92
Ġsun ya
Ġsank rityayan
Ġsket ched
ĠFel ix
ĠFed ora
ĠFergus on
angag wa
roast ing
chong fl
chÃ¡nd Ã¬ng
Ġbali tistan
ĠRit uals
ĠRedu ce
ĠRect um
ĠRashi jamts
Ġ104851003 326
Ġï¼ĮâĢľâĢĿï¼Įï¼ĮãĢĤâĢĿ ï¼Ī
matr ka
ĠOba ma
ĠOir d
ĠVenu ti
ĠUbun tu
ĠXZJ KY
ĠXYZ B
onehen ge
Ġ112131 2012
ĠJep sen
ĠJaco bDaon
ĠZana bazar
umÃŃng wÃ¡ng
retic ular
âĢĻâĢĺâĢĻ âĢĿ
peda gogy
Ġ152971958 38
ingpict ures
Ġsulpha te
Ġtob oo
Ġtrans lation
Ġtset sen
ĠâĢľï¼ĮâĢĺâĢĻ ãĢĤï¼ĮãĢĤï¼ĮâĢĺâĢĻ
ĠâĢľï¼ĮãĢģãĢĤ ï¼Įï¼ĮãĢģãĢĤâĢĿ
Ġcamp estris
paint ing
Ġext raction
Repub licof
ĠCTRLBac kspace
jiÄĽ tuÅį
irlin es
gueri te
guÃłnd ÇĲng
Ġmov ingpictures
Ġmana gement
Ġkue i
Ġlup us
Ġà½Ĭà½ĭ à½Įà½Į
ĠâĢºÂ» ï¼»
ĠandEx ogamy
ĠChrist opher
ĠChromi um
Ġjav ascript
Ġï¼İï¼İï¼İ ãĢĤãĢĤ
ĠdÊĳ al
Ġdenwe iser
ĠInDes ign
ĠïįŁïĲ ł
Ġthepro ject
ouTu be
à¤°à¤£ à¤®
ĠÎµÏ Ģos
ĠrGyam tshoand
Ġrespira tory
Ġretriev al
Ġinvol ved
ĠShire et
philos ophy
Ġ(âĢľï¼Įï¼ĮâĢĿ )
Ġ495254 286
ocyan ates
ĠMalen chenko
ĠMaterial ism
Ġ***** ***
Ġï¼Īï¼ĮâĢľãĢĤâĢĿ âĢľâĢĿï¼ī
Ġ1870800 99
ĠTemp le
fÇİwÃº wÇĴ
estofRuss ia
Artific ial
Ġhuman ity
Ġhunta ij
Demiev ille
sÃ¬qi Äģn
Allis on
AlÏĥ xu
Ġï½Ļï½ İ
ĠShiftDEL ETE
660255 36
660933 15
Ġmaterial s
Ġmagnes ium
Ġ13389717 327
ĠMacdon ld
bÄģwÃłn sÃ¬qiÄģn
ĠGeleg jaltsan
ProgramFiles TTPlayer
Ġ136397339 97
Thurs day
VfVQ brBT
ĠSamgha deva
BrÄģhman a
SaintPet ersburg
Ġaccomplish ed
Ġ13519700 650
ĠThurs ton
ĠThesa urus
ĠFreder ick
liÃ¹zhÄ« yÃºjiÄģ
Casno va
DfTr f
DfzfTcf aDf
ScienceRevi ews
brVGt BBrA
à¥Ĥà¤ ģ
Ġcolle tion
ĠManjar o
ĠManuscrip ts
ĠKuznet sov
ĠNewcast le
RobertPar ua
Ġï¼ĪãĢģï¼ĮãĢģ ï¼ī
PaÃ±j Ã£b
ĠPasargad ae
ĠBritishM useum
Guilla ume
Milcqu arieUniversity
Tajik istan
Ġalbi rostris
ĠCategor ization
ĠCollab oration
ĠBoshgo t
ĠSemin ar
ĠInstitu te
bÃºdÃ²ng fÃ³
kupatajik o
ĠâĢĮâĢĮâĢĮ âĢĿ
Ġï¼Ńï½ģï½Ĵ ï½īï½ģ
ĠCalleba ut
xizangying xiangjie
MarcelleLal ou
ĠLuvsanlug den
ĠLuvsanchul tem
AngelaDor otheaMer
Memor andum
bsny en
ĠâĢľï¼Įï¼Įï¼Įï¼ĮãĢĤï¼Įï¼Įï¼Įï¼Įï¼ĮãĢĤ ï¼Įï¼Įï¼Įï¼Įï¼ĮãĢĤï¼Įï¼Įï¼Įï¼Įï¼ĮãĢĤâĢĿ
ĠâĢľï¼Įï¼Įï¼Įï¼ĮãĢĤï¼Įï¼Įï¼Įï¼ĮãĢĤ ï¼Įï¼Įï¼Įï¼ĮãĢĤï¼Įï¼Įï¼Įï¼Įï¼ĮãĢĤâĢĿ
Acquire d
SergeySob yanin
newjob s
qtJpu z
ÐļÐµÐ¼ÐµÑĢ Ð¾Ð²Ð¾
ĠUnderstand ing
ï½Ĵï½ģï½Ķï½īï½ ıï½ķ
ĠâĢľãĢģãĢĤâĢĺâĢĻâĢĺâĢĻ ï¼Į!âĢĺâĢĻï¼ĮãĢĤãĢģãĢģãĢĤâĢĿ
ĠSCHWIE GER
ĠDirectWri te
Abdelaziz Boutefli
BaDQB ErBPVXzQ
RodhamClin ton
jackmaf oundation
mÇİtÃ³ umÃŃngwÃ¡ng
Ġisothi ocyanates
ĠPatrickDy kstra
ĠSanAntonio Spurs
ĠDreamwa ver
ĠKazushiIwa o
Ġcharlot te
Interdepen dence
Chernysh evsky
Ġqgddm fpx
Bloomber gNews
Belinski y
EmmersonMn angagwa
EmmanuelleChar pentier
Grosej ean
HillaryDiane RodhamClinton
LUXEL IFE
Lunachar sky
SQtVQcar BzXzQTfFVf
XfZr BaDQBErBPVXzQ
apprecia tive
bBfcVbVd QXzQf
vyutpat ti
ï¼¥ï½Ĩï½ĵï½Ķ ï½Ĵï½ģï½Ķï½īï½ıï½ķ
ĠAgvaandamp il
ĠTokarcz uk
ĠTjibbeJous tra
ĠâĢľï¼ĮâĢĺâĢĻãĢĤï¼ĮãĢĤï¼ĮâĢĺâĢĻ ()âĢĿ
VfVQbrBT brVGtBBrA
AngelaDorotheaMer kel
AbdelazizBoutefli ka
